<blank>
<s>
</s>
ар
▁б
ын
ал
▁ж
ан
ер
▁қ
ды
ін
ен
▁т
да
ст
▁м
▁к
ді
ық
ат
ет
ыл
▁с
де
ас
▁,
▁о
ақ
▁.
ай
ол
ел
ың
ек
іл
не
ау
▁ө
ия
ғы
ам
ес
гі
ік
ыр
ір
ыс
аз
ім
ым
ған
ор
ында
▁жә
▁және
тт
ға
он
ұр
▁п
ем
алық
дар
▁"
▁ш
ің
ге
▁ә
ин
ик
▁кө
▁а
ыз
▁ү
ады
ының
дың
етт
із
▁t
▁де
ап
▁бол
▁ал
інде
стан
лық
ып
дер
лар
▁-
▁н
ең
ағ
тар
аб
▁р
ген
▁ар
▁ор
ту
аст
ом
▁қаз
аң
▁мен
ұл
дан
ша
ты
інің
ыст
▁э
▁2
дық
ект
ына
еу
ция
дің
іс
▁да
▁жү
▁жыл
▁th
алар
▁құр
▁ай
▁д
▁жо
іп
▁1
ез
ой
ей
▁a
ақстан
▁бір
ур
тер
▁the
in
ның
мен
әс
гіз
▁қар
▁қазақстан
ұм
атын
▁бас
▁o
еді
▁х
▁з
▁ұ
▁тү
ынша
сы
▁бар
шыл
дай
▁жұм
▁үш
икалық
▁өз
дік
алы
ері
ог
лі
▁ат
асы
▁бой
▁қол
▁бер
ден
ақт
▁қат
ті
on
▁үшін
▁сал
іне
▁бойынша
re
▁кел
▁көр
▁не
▁(
▁20
ықт
▁ин
ары
▁ел
▁ау
▁өн
лер
ыру
лік
лан
ру
▁қо
▁ф
▁кез
бл
▁қал
ест
▁пр
лек
ығ
▁от
▁өт
атт
▁of
ымен
қа
▁мем
ti
етін
▁эк
▁сон
▁дам
en
▁мү
▁кү
пар
▁мемлек
есе
иялық
алған
кен
асында
та
▁қыз
er
▁c
▁жұмыс
▁ас
st
ех
іш
қы
іст
ов
ағы
лам
ация
an
стр
өл
олог
еттік
им
▁бағ
гін
▁біл
▁ақ
▁p
▁тұр
ада
кер
▁Б
▁жас
из
ке
ит
▁көрс
▁отыр
елер
▁әр
▁ком
▁бай
кін
▁201
▁ет
or
▁жүй
▁құ
▁түр
ехн
▁ек
▁in
еш
ылған
▁бұл
імді
▁мә
▁пай
қыл
ығы
дау
▁негіз
▁г
▁тур
▁жаң
ші
▁қызм
▁көрсет
лем
▁таб
▁w
▁қор
ев
есі
ару
▁А
дал
сын
▁жет
▁рес
тын
ылады
дағы
▁тар
▁мүм
ілік
ти
▁s
йін
қан
▁3
дір
▁тең
▁мүмкін
деу
▁баст
▁жоб
ысты
▁іс
▁техн
оном
ылым
▁ан
▁тал
гер
al
алды
▁қолдан
ілген
ысы
▁тә
пт
tion
▁ти
дам
▁біз
▁мәс
ed
аж
▁у
уы
▁тө
▁болып
▁жол
▁жағ
пу
асының
еттер
▁и
аны
ак
es
▁С
▁Қ
ақты
▁есе
▁i
▁болады
аттар
▁қам
өз
▁мәсел
еге
сп
ерек
▁f
шылар
▁қаб
ar
▁бағдар
дел
▁халық
кіз
яс
▁Т
▁жоғ
тан
ілі
▁байлан
▁жаңа
ег
әсіп
ақс
ро
▁олар
▁туралы
етті
леу
▁оның
▁ұл
▁b
▁m
▁ол
асын
йым
▁жүр
at
▁қатар
ини
▁аз
▁эконом
▁М
уға
▁то
▁бағдарлам
ұн
▁кең
▁қызмет
▁жағдай
▁оқ
лы
▁жал
▁бел
▁%
ертт
шы
▁мл
су
сіз
ерг
▁О
▁деп
▁ғ
▁білім
аты
енді
ғын
ыстар
▁үл
тті
ология
лау
▁деді
▁шар
ro
инистр
▁осы
▁орын
▁дамы
▁қаж
▁орт
▁атап
▁an
▁в
ил
▁5
аралық
00
▁бағы
ent
аның
індегі
ындағы
▁to
▁обл
ттық
▁бөл
▁су
▁со
ба
▁әді
ед
▁4
▁сә
▁өң
▁К
там
▁орн
▁мемлекеттік
публ
анды
кім
▁қос
▁анықт
▁іш
▁арн
ци
▁жүз
далан
ика
▁комп
еп
▁d
ше
▁ұйым
▁кон
▁беру
▁e
ылды
▁жылы
▁әс
▁пайдалан
ілді
өн
ілер
ни
20
▁ди
▁л
аған
▁шығ
ic
▁ең
аш
ақы
▁дә
▁про
қылы
▁маң
▁ақпар
астыр
ing
▁сондай
▁шеш
▁мақс
▁жүргіз
асындағы
▁дамыту
іміз
▁кезде
▁кәсіп
▁қатыс
айды
it
тиж
▁сөз
андар
▁дейін
▁and
▁жат
▁жоғары
▁h
баев
▁республ
імен
орм
▁зертт
▁оқу
▁арқылы
▁құрыл
әтиж
ысында
▁ен
▁хаб
лект
ation
▁Ж
▁барлық
дері
ызды
азар
тың
ны
нерг
ve
▁сонымен
▁мүмкіндік
▁пар
▁даму
▁хабар
▁)
▁–
алдар
▁жүзеге
ул
▁екі
ікт
уге
▁сап
ези
▁адам
ынан
▁нәтиж
інші
le
▁технология
▁басқ
▁мо
езиден
▁әлеу
▁министр
дегі
вт
▁күн
▁ем
▁рет
інен
il
ңге
▁n
спар
▁бү
ынт
▁қр
▁заң
пы
ра
асыз
ou
▁халықаралық
▁деңге
▁ұсын
▁0
▁энерг
▁жоспар
▁президен
▁қау
еб
▁жар
▁бағытт
ологиялық
▁өндір
▁жөн
▁өнім
▁ынт
▁бұ
ания
▁мың
есін
▁би
▁тұ
алау
▁басш
▁қамтам
пен
▁тол
▁re
тү
кт
▁уақы
▁мемлекет
▁негізгі
▁өтті
▁сай
▁қамтамасыз
▁іст
▁мұн
ашыл
▁k
аттық
▁табылады
is
▁жалпы
атты
ун
as
стер
ынды
▁түс
лектр
бек
▁мат
даст
▁си
ттер
▁өткіз
елері
қыту
▁байланысты
▁үй
▁асыру
▁Бұл
▁ұлттық
▁6
▁маңызды
ec
иция
▁жер
▁қой
▁ынтым
пер
дей
▁инв
▁пен
▁бал
ыш
иб
егі
▁сан
▁көм
ақтаст
▁зерттеу
▁енгіз
▁тап
тты
▁қай
▁[
▁қарастыр
іргі
▁айт
нің
еж
ент
етр
▁барысында
рд
▁деңгей
йк
ықты
▁инвест
▁республик
ос
▁астан
▁7
▁ішінде
▁тиімді
ара
▁емес
▁ынтымақтаст
▁алу
▁назар
▁сақт
▁алм
▁өткен
алады
лігі
дары
▁айм
▁са
▁экономикалық
▁дай
▁іске
▁теңге
▁керек
ақтар
om
▁сәйк
▁млрд
▁әлем
меттік
▁мам
▁көлем
орлар
▁қабыл
сының
▁оқыту
дыр
▁тер
▁таң
иц
▁айн
▁келіс
▁қазақстанның
▁нем
ырм
▁«
▁жылдың
тін
ur
ум
ектер
▁ретінде
▁электр
▁арналған
▁нұр
▁Қаз
аларды
▁төмен
еген
▁көп
▁жел
▁ету
▁құрам
▁әлеуметтік
кіл
бір
▁эксп
ран
си
кі
▁компания
еті
ment
▁сау
▁аяс
▁is
аға
▁ес
▁қалып
ери
алары
тай
-20
ист
би
▁артт
▁сер
ылатын
▁немесе
▁қауіп
от
▁кей
екті
ak
▁ғылым
▁орта
▁болатын
▁олардың
▁қажет
az
▁g
кіш
▁ст
ттар
▁басқа
▁қарж
▁0,
▁қатысу
▁8
іледі
▁тапс
ғам
елік
▁басшысы
▁көз
lo
іт
▁кет
▁саяс
▁мін
▁тан
ғал
лім
▁өңір
▁е
ларды
дықтар
▁проц
ісі
stan
▁сөздер
▁отырып
қар
▁төр
▁жек
▁аясында
▁ерек
▁мәселелер
▁инвестиция
▁белг
▁есепт
▁ауыл
▁жұмыстар
▁10
▁9
▁дер
дардың
▁басқару
ациялық
▁ер
бас
жір
▁асыр
▁қоғам
▁өс
▁pro
▁қоры
айтын
аптар
астыру
▁оң
▁жеткіз
▁тем
▁авт
ылау
▁бө
уда
жіриб
▁жасау
▁мінд
асына
▁береді
▁айту
▁бақ
▁біздің
▁орг
діру
акт
▁тау
аруашыл
ок
▁энергия
ығын
▁қалыпт
▁соң
тері
орт
▁сип
▁тек
▁қазіргі
▁сәйкес
есінің
▁әкім
▁млн
▁kaz
ис
елі
▁кезең
ад
уі
▁аст
▁облыс
фр
шілік
▁қан
▁for
▁сп
астар
аг
▁пайдалану
ид
▁я
▁елдер
▁кездесу
▁Ал
алдық
▁кезінде
▁ту
▁аудан
▁жан
арт
лері
▁сен
дени
▁еліміз
▁орталық
сіздік
▁ден
изне
сі
▁тәу
ықтар
ac
орын
▁талқыл
▁арасындағы
форм
▁ко
▁Е
гінің
▁қатысты
хан
ion
▁модел
▁мақсат
кция
▁бастап
▁Тү
▁бірі
арм
▁үкім
▁тәжіриб
▁күш
лары
▁он
изм
зір
▁ұйымдаст
фер
перат
қт
akh
дерін
тік
▁мәлім
▁тұрғын
▁қолдану
▁қолдау
▁бизне
их
▁шаруашыл
▁кеш
ыстыр
тық
▁бей
сия
▁kazakh
▁өзара
▁жатқан
id
▁өкіл
▁we
▁өзгер
бер
▁құру
дыру
андыру
et
алардың
▁жи
андық
тқы
ill
ақыр
есінде
са
раф
лардың
▁өнер
▁жақ
▁көрсеткіш
сті
▁әсер
▁шешім
тің
▁арттыру
▁мән
сыз
▁президенті
▁st
▁қазақстандық
істік
ақал
uc
▁өл
амыз
керлер
тынды
▁жеке
▁кл
▁сү
▁құрылым
▁Сон
кел
іру
▁назарбаев
▁болған
оры
▁әрі
▁бірінші
▁бүгін
ымыз
▁аш
айы
▁матери
▁үлкен
▁жылғы
урет
▁сипатт
-201
ир
▁түрлі
▁әзір
▁азам
▁ақпараттық
▁еу
▁келісім
нан
ауы
инг
▁нақты
ol
ынған
рлі
▁дел
лығы
інген
▁сақтау
ғым
аларын
▁болды
▁ой
ұлтан
ағын
иғ
мір
▁ре
▁өңдеу
ив
▁мект
ad
ама
▁түрде
▁стан
вер
дықтан
▁Д
ені
▁айтуынша
▁:
▁мұнай
▁мәдени
дарды
▁топ
▁сауда
▁хабарл
▁қорғ
ілікті
сау
▁ір
ри
▁астана
▁келт
▁деген
иль
ri
әр
▁құрылыс
▁бірл
un
об
▁ныс
▁есеп
▁kazakhstan
▁тіл
алм
▁кейін
па
▁on
өлш
аман
ымды
▁жин
▁көрм
▁орнал
▁con
стар
▁сыр
ындау
▁ған
шілер
▁кір
▁бұр
▁жау
▁төрағ
▁сар
▁бақылау
▁тәр
▁жөніндегі
▁түсін
▁өлш
ду
қын
▁кәсіпорын
ттік
▁белс
ul
оз
дігі
▁Түйін
сұлтан
▁айнал
▁анықтау
иту
естік
естер
эк
▁көш
▁құж
▁l
уде
▁келеді
ілігі
дж
ындай
аль
▁күр
ылып
▁тәуел
еттің
▁қу
терін
ce
▁байқ
▁Н
▁фун
▁бю
50
▁талдау
шылардың
▁те
істі
▁дәр
▁өндіру
▁2015
th
айту
▁жаб
дерінің
▁мед
▁қорытынды
▁ғана
ая
us
▁дайын
▁алады
ate
▁be
қс
стік
ылу
▁сын
дем
гінде
бъ
▁Қазақстан
▁қыс
▁de
▁өте
▁хабарлам
▁жең
▁ескер
▁al
▁қас
лігін
ілетін
▁сат
▁y
▁таңда
▁нұрсұлтан
ay
▁қайта
▁белсенді
▁енгізу
▁ретт
ғаш
ver
▁етеді
▁Р
res
ститу
▁ғылыми
▁әскер
▁ие
қат
нов
▁ос
ейді
ғанда
ts
▁деректер
әсі
▁газ
▁19
▁жұмыст
▁органдар
▁тапсырм
mp
ылар
▁екен
керлік
▁астам
деді
ақалада
▁сол
▁П
▁құқ
▁модель
▁сұр
▁уақыт
▁қорғау
дет
ымал
▁айта
амм
▁жоспарлан
▁мөлш
▁қажетті
▁пайыз
ицин
▁мет
▁өнерк
▁ая
▁экономик
▁пол
делі
▁тұрақты
▁өмір
▁алд
дердің
▁арасында
oun
гіне
алығ
▁ұз
▁бюдж
▁жаз
ғни
▁болуы
▁қосым
ылық
▁шет
атег
▁стр
есіне
▁заман
тта
▁қоз
▁болаш
дерді
ператур
сер
енттер
▁оны
▁тір
▁негізінде
▁мұ
ий
▁ке
▁көпт
▁табиғ
▁бағалау
▁басты
▁жүйесі
▁мер
▁одан
▁саласындағы
▁100
басы
▁денсау
ав
ra
▁көлік
ыстық
▁теңдеу
▁тас
▁бағытталған
▁еңбек
бай
ly
мыз
▁әскери
▁тауар
етінің
▁ак
▁білдір
▁келтір
▁медицин
ск
▁температур
дарын
▁дәл
ұрылым
үй
▁аум
▁ынтымақтастық
бъект
op
▁қауіпсіздік
ларын
▁ге
▁ex
терді
уден
▁инду
▁200
▁жай
▁2016
нивер
▁көрсетілген
▁әдіст
қты
▁жоғар
▁хабарламада
ысының
,5
▁қон
▁себ
▁мек
▁арнайы
▁республикасының
ди
▁мақсатында
▁қаси
▁өр
▁кор
дарының
▁com
▁стратег
▁2014
шылық
▁бан
ферен
жақты
ғыз
▁15
ықтың
▁пә
▁құралдар
▁бизнес
аттың
▁екінші
▁пайда
ықтық
ату
▁мектеп
▁шығар
▁ұйымдастыру
▁бүгінгі
ess
▁жүйелер
▁саны
делген
▁келесі
▁көрсету
▁алматы
▁отырған
▁электрон
ge
цион
ig
▁ресей
▁ерекш
алып
▁яғни
дығы
ью
▁мыс
министр
▁көптеген
түстік
▁мәселелері
▁айтты
▁Осы
▁хал
▁ресур
▁тарих
▁белгілі
▁универ
ова
ейт
▁жылу
▁30
▁ашыл
▁as
жан
▁инт
дігін
▁сыртқы
▁бөлін
▁тон
адағы
тердің
▁қабіл
▁делінген
сит
▁11
▁жоба
▁парлам
ейік
асу
▁өндіріс
▁форм
ith
▁елдің
▁көлемі
▁президент
аметр
▁уақытта
ылай
ir
▁2017
дарға
ity
ғай
иссия
▁сайлау
ort
ель
▁бірлес
фф
▁алғаш
▁бағдарламасы
▁байланыс
▁сарап
▁12
оп
▁индустр
▁ц
др
▁студен
асқан
▁with
▁Г
гері
▁тонн
алмыш
▁қада
ли
▁функция
нам
▁толық
-1
▁энергет
▁хим
▁бек
▁экспо
▁екенін
ap
емат
▁нығ
ылм
түрлі
▁will
▁техникалық
▁құрады
ғыш
▁25
▁жауап
▁тиіс
▁жағдайда
▁Ә
▁қатын
▁есептеу
ейтін
▁онда
фрақ
▁ерекше
▁are
▁жүргізу
▁шам
▁алынған
▁келген
лен
▁қарай
▁аталмыш
▁ірі
▁болм
▁қаржы
▁жі
▁кер
▁өткізу
-2017
▁түз
ount
▁әдіс
▁әдістер
қатар
циялық
▁Ш
▁инфрақ
▁иннов
▁автом
▁жүйесін
қатын
мет
▁әрек
▁Э
▁элем
▁өсім
▁жылға
▁қазақстанда
енің
▁ac
▁денсаулық
ергілікті
▁И
▁еліміздің
▁ақпарат
айда
шылары
▁орынбас
▁әлемдік
тен
▁стандар
ғыр
эконом
ост
▁тран
ci
▁бірге
▁қабылдау
▁қазақ
▁шаруашылығы
▁шетел
▁қарым
▁кен
▁жақс
▁республикасы
▁қарсы
▁баз
тарлық
▁университ
▁инфрақұрылым
▁өткендей
▁қыр
▁жылдам
▁қалыптастыру
▁тәс
▁S
▁өкілдері
▁ық
ers
▁материалдар
іліп
▁жастар
▁шығы
▁мамандар
▁жергілікті
▁v
▁бірқатар
▁ішкі
▁есеб
▁қозғал
▁мүш
▁төрағасы
рді
ear
▁кетейік
ейту
▁үз
▁int
▁wor
▁шешу
лердің
▁қарастырылған
яр
▁биыл
▁сия
▁бөлім
ендіру
орлық
ьер
дат
▁азаматтар
иясы
▁ағым
раз
▁институ
еттері
▁физ
алу
орум
экономикалық
▁мақсаты
▁алып
▁сияқты
▁медициналық
▁салыстыр
▁ететін
▁A
лерді
ot
▁талаптар
ist
фик
аларының
▁технологиялар
амен
▁болса
▁беретін
▁ап
▁әртүрлі
▁сыз
ыстың
▁берді
▁үкімет
▁аталған
▁қызметтер
▁нәтижесінде
рамм
рация
ерлік
▁алды
▁болу
▁бәс
▁қи
етте
▁дол
▁зауы
▁тарап
ограф
ut
ылуы
арту
дек
пут
ақтың
▁күні
▁қосымша
▁бет
▁саласында
▁мерз
▁құрайды
▁мәліметтер
▁төл
ікті
▁берілген
ехан
ах
ілігін
▁сы
сақ
▁қараған
▁көтер
▁[1
ытай
▁орынбасары
▁қоғамдық
елен
▁тіз
▁imp
▁оларды
алл
▁тақыр
▁параметр
▁еуро
ld
▁инвестициялық
▁интер
▁форум
▁ақш
нды
▁мин
▁жу
мун
алатын
▁Сонымен
▁экологиялық
▁соңғы
▁атқар
▁;
▁үрді
▁дир
▁қабылдан
те
ландыру
гор
▁шағын
ауға
сурет
▁шект
▁карт
алығы
▁мон
▁белгіл
▁14
▁шақыр
▁C
▁теңген
▁экономика
▁табиғи
▁бәсек
ьютер
▁теор
жыр
▁айтқан
▁салалар
ль
ry
дығын
▁комит
од
істер
дақ
пал
қару
ттің
▁математ
лерін
ияның
▁соның
▁that
▁факт
▁өзгері
▁бастам
ығының
▁айтып
▁бүгінде
em
▁13
▁дейінгі
атор
лығын
▁директ
неше
иг
емьер
▁аудар
um
▁саяси
▁із
▁өнеркәсіп
▁конц
▁кем
▁қаң
▁қала
▁бат
▁un
итм
▁N
▁жобасы
▁Ө
▁тұрақт
▁бая
lop
▁тасымал
▁мар
▁кәсі
▁тапсыр
аларға
іпт
▁комиссия
velop
▁З
▁нығайту
▁мемлекеттер
еда
▁тұл
▁спорт
▁қытай
ікір
▁алаң
шісі
od
iti
еде
гіш
нем
уль
▁пән
▁бұдан
▁жоқ
▁бірнеше
▁develop
▁шығын
▁қамту
▁кешен
▁сайын
▁18
▁объект
андыр
егінде
▁тәсіл
▁reg
▁өзгерістер
▁тарту
▁at
горитм
▁жақсы
▁аяқт
▁ресурстар
сына
▁өзге
ақта
▁толықт
▁50
▁үдер
▁шығару
▁нәтижелер
тау
▁өлшем
up
▁ықпал
▁(1
маты
▁депут
ілдіру
▁қаңтар
▁тексер
еміз
▁темір
▁елбасы
▁ағымдағы
▁көб
▁дү
▁мөлшер
,2
▁this
гог
▁жа
анд
▁басым
▁аг
▁еураз
▁пікір
▁істеу
▁count
▁жетілдіру
▁өту
едагог
▁дамытуға
ейн
асты
▁нысандар
▁республикалық
▁басқарм
▁технологиялық
▁ne
ици
▁he
▁өсу
▁жатыр
тив
ығу
▁серікт
ғының
▁2013
▁заттар
▁it
▁әрбір
▁алғашқы
▁жұмыстары
▁көмір
im
▁мәж
ауи
шар
датпа
▁бұрын
үкт
,3
▁нар
▁премьер
▁year
▁оған
есс
ина
▁мас
,6
▁Аң
▁шең
▁кәсіби
▁әріпт
▁жасалған
ab
егімен
▁жеңіл
▁көмек
пл
▁өзінің
▁Аңдатпа
▁16
▁орындал
▁қадам
▁шек
▁тоқт
▁механ
▁құб
▁қамт
▁Мұн
▁болашақ
▁жиын
▁әл
лықтар
▁мекем
▁шаралар
▁хабарлады
▁M
▁жария
▁тік
ларының
ати
стү
▁министрі
▁қажетт
азм
▁үздік
▁жем
▁шеңбер
▁Ф
іңіз
▁тағ
▁алгоритм
▁тараптар
▁Алматы
есті
▁par
▁бағыт
▁жылдан
▁ам
▁дағ
▁жш
▁тұрғы
истік
▁салу
▁қатысушылар
▁ұш
йт
iz
▁Мақалада
блем
▁жетек
лігінің
▁өзекті
▁арт
▁салыстырғанда
▁кәсіпкерлік
▁банк
▁жеткізу
▁им
,4
▁17
▁терм
▁бұұ
ланған
▁артық
▁кур
▁жшс
▁саясат
▁міндеттер
▁келе
нен
▁жүйесінің
алығында
▁exp
ерттеу
▁дәреж
ограмм
▁кеңес
▁интег
▁басп
▁сала
іліс
то
ференция
▁қызметі
▁маман
▁ha
▁баян
ациялау
шаған
▁тағы
терінің
▁саб
duc
сында
▁ұйымдастыр
ren
▁тонна
енті
,1
йді
▁өзін
▁орналасқан
ыңғай
▁студенттер
далған
▁компьютер
▁алдын
▁заңнам
,8
▁маш
ғылар
▁көмегімен
,7
ілері
ебі
пор
▁нүкт
▁заманауи
▁ауқ
▁кр
ch
ығына
уз
▁үлгі
ысқа
▁сатып
▁реформ
ыста
ектор
▁хабарлаған
▁тұтын
▁инновациялық
ud
▁wh
▁пайдалануға
▁ғал
▁құрылысы
елген
and
▁1-
рон
ымы
▁терең
▁метр
▁қосп
ығыз
▁дем
▁пл
▁пер
эфф
икро
▁өнімді
ивті
ғына
▁істер
▁сом
▁кәсіпкерлер
▁шетелдік
▁келтірілген
▁бірлескен
ми
се
▁әзірлеу
▁бағыттар
▁ағын
уір
▁басшысының
▁алуға
қу
ational
▁жағдайлар
▁сапар
▁проблем
▁хабарлағандай
▁екіжақты
анда
▁асс
am
олық
шысы
▁нау
▁көрсетеді
илли
▁негізделген
▁ах
▁әдісі
▁шын
сін
▁қызығу
▁тарт
тур
ілуде
▁'
▁жолдау
ысын
▁жаһ
▁қорытындысы
едел
▁қаржыл
ету
▁have
▁ынтымақтастықты
▁Қазіргі
▁сипаттам
▁қолданылады
▁орнат
os
ыстыру
▁орган
▁сапасын
▁құжаттар
▁жоғарғы
▁нәтижелері
▁қару
▁туризм
▁our
▁дүни
ep
▁азия
▁жүйе
▁жұмыспен
▁comp
▁by
ерт
орда
▁Бір
▁күрделі
▁теңгені
▁химиялық
▁облысының
▁сондықтан
▁зор
▁жаңғыр
▁орташа
▁бұз
▁сұ
▁тығыз
▁ch
ея
▁қараж
▁реттеу
▁жүкт
▁шик
▁қағ
▁тоб
▁ері
▁одақ
▁өндірістік
▁ақт
▁орындау
▁екенді
▁ауру
▁парт
▁там
қим
▁алған
инам
▁j
▁дәстү
оль
▁гид
▁топыр
▁қауіпсіз
▁бес
▁мерзім
ттың
ыб
▁милли
▁әкімі
ore
▁мүмкіндігі
▁дайындау
▁коэфф
▁талап
▁has
▁P
▁аса
▁норм
ect
▁директоры
лікті
жырым
ылайша
0-
▁sp
▁даяр
▁айтқанда
ғыс
▁алатын
▁жақсарту
елей
едж
ылы
гілер
▁мәдениет
▁қалдықтар
▁реж
▁сәул
▁жалға
,9
▁pl
ern
ілу
▁арқ
▁үнем
▁жабдық
▁сем
▁болж
ow
▁тел
▁педагог
▁министрлігі
▁еуразиялық
qu
▁en
▁микро
▁I
▁сіз
асымен
ағында
▁алдағы
▁кезегінде
ғалім
▁неси
▁барлығы
ілім
▁жаһандық
▁қоса
ұс
тал
ометр
ust
▁Рес
▁жібер
нд
муник
▁конференция
▁2020
▁қазір
▁өңірлік
▁сапалы
ман
▁le
ациясы
▁дамуына
▁ядр
▁тұтыну
▁тұжырым
▁жетістік
техн
▁атқару
▁кейбір
▁ру
▁граф
▁халқ
▁атындағы
▁дұр
▁қоршаған
▁күй
▁тәуелді
▁қорған
▁мақалада
▁сенімді
▁дейді
▁отандық
▁бастапқы
▁tr
▁region
рат
амбл
▁жоспарланған
арлық
ure
▁бөлігі
▁әк
емен
▁аймақтар
▁салық
▁әдістем
▁тр
▁зия
▁білдірді
▁оңтай
▁асп
ади
▁коэффици
▁ерекшелік
▁үст
▁бу
ant
ылығы
▁әу
▁pres
арыш
▁пал
акция
икасы
▁жөнінде
con
ақтық
▁математикалық
ary
итор
▁жуық
-2
ous
айлы
▁қаш
▁дамуы
▁r
мер
ub
▁опер
▁отан
▁қондыр
истикалық
лерінің
▁мак
▁хат
азмұн
▁көң
▁бағдарлама
інше
ларға
▁сурет
▁қызметкерлер
▁development
едом
▁сандық
міз
▁талқыланды
▁көрін
▁шығарм
▁жылдары
ств
есу
▁work
▁ведом
▁маңыз
▁теңгеге
▁тікелей
втік
▁оңтүстік
▁арттыр
▁мәселелерін
▁тұрады
▁аралығында
ашылық
▁шеңберінде
қынды
▁технологияларды
▁қыш
астан
▁кар
▁орталығы
▁шикіз
▁электрондық
рт
▁құнды
деп
тіб
ult
▁сот
▁ци
▁бекіт
еңгер
▁мүд
өб
▁аб
▁астанада
▁осындай
▁қаласында
▁В
▁халықтың
▁өтетін
▁әй
жет
▁алын
ице
▁кеңейту
▁арал
ain
▁ind
▁құрамы
▁ала
▁облысы
▁стратегиялық
▁Ұ
▁вице
▁шығыс
ғыл
▁анықталды
иясының
▁тасымалдау
tive
▁көңіл
if
аус
▁state
▁мазмұн
▁сур
кір
▁тәртіб
▁жобаларды
▁иде
ations
▁әкел
▁ассамбл
▁ведомств
▁үйл
▁ad
▁ядролық
▁бюджет
ыт
▁зерттеулер
▁нысан
ип
мд
терге
▁all
ме
күй
шының
▁таныстыр
▁заңды
сөз
дарында
▁тиісті
▁мұғалім
▁қарап
атының
▁сенім
▁мәселесі
үз
▁меңгер
▁программ
▁себеп
▁таңдау
тарлықтай
▁құны
лай
▁жаңғырту
▁pe
▁орны
ану
▁21
▁шектеу
шылығы
тінді
▁пав
▁игер
▁режим
▁ч
▁өтеді
▁кест
▁қойм
▁деңгейде
▁орай
▁қасиеттер
▁өтін
▁2018
тары
▁арқасында
зыр
▁индустрия
▁айтарлықтай
▁мемор
әрек
▁inc
port
▁not
▁маг
▁Х
▁деңгейі
▁ойын
illion
▁сө
▁кан
екте
▁жобалар
▁көрсетті
спект
дады
▁асыруға
жол
ition
▁эт
▁мол
атта
▁бірікт
▁металл
стің
аттандыру
аттары
ализ
▁лог
ттықт
▁мәжіліс
▁қаласының
қимыл
▁бөлш
ттері
▁мөлшері
conom
▁келетін
дету
▁қауым
▁econom
▁экспор
амб
▁кол
▁қиын
▁қарағанда
анған
▁нары
▁дұрыс
▁мал
▁бола
▁себебі
ans
▁құттықт
дерге
▁өлшеу
▁деңгейін
ov
▁элементтер
▁жөндеу
кур
▁концент
▁қаржыландыру
ding
әсім
▁кіт
el
▁практ
ылуда
азарбаев
иф
▁sh
кеу
гн
ерм
келген
пи
▁парламент
▁аймақ
▁co
▁компон
▁тәуелсіз
ілуі
▁was
▁таз
ала
▁тигіз
▁талқылады
▁тың
дин
оң
кені
▁ақпаратты
▁байқау
▁ради
▁=
плом
▁ag
▁биылғы
қыр
▁24
▁кеден
▁кешенді
▁қызметін
▁Сондықтан
▁40
шілігі
▁нұрлы
▁айында
асөз
▁жұмыстарын
тең
▁go
▁мәселе
▁мемлекеттің
▁палат
▁тарихи
дандыру
▁баспасөз
▁ұн
▁тәрби
▁диплом
елеу
▁тұт
▁кедер
▁қандай
▁тақырып
▁рөл
аусым
▁үшінші
▁үлесі
▁орында
▁әдістері
▁есебінен
ip
▁Ү
▁егер
▁бірақ
▁жалғаст
▁назарбаевтың
▁жап
айым
▁күт
▁дін
дырылған
▁қойылған
жым
▁делег
▁пайызға
ви
тқыш
▁зерттел
▁өсімдік
▁ашық
▁айқын
▁acc
▁мұр
▁қара
министрі
▁қорғаныс
▁ген
▁ұлт
шылықтар
асыр
▁ауқымды
▁23
▁облыстық
▁факторлар
мент
▁ресми
▁мәселелерді
▁шарттар
▁қарқынды
▁жағынан
біт
▁or
▁нұс
▁балалар
▁төрт
▁жақын
аэ
▁энергетика
ia
▁аген
▁new
имар
▁жұ
▁жедел
▁келіп
ated
адр
▁тарапынан
▁ұзақ
▁/
ign
▁2-
▁осыған
▁тәжірибе
▁кеңесінің
▁әкімді
000
▁Республ
йл
әсіб
▁ереж
▁бәсекеге
▁Ол
▁x
егіз
▁тұлғ
▁спект
▁құзыр
▁мұндай
атқа
▁ұст
▁құрылған
▁син
▁res
үл
▁сүй
▁еуроп
rom
омп
▁үйр
▁цифр
▁бейбіт
▁инвесторлар
▁ə
ург
▁еңб
ілм
уына
зия
▁ғарыш
тыр
андум
▁ғалым
▁жылдар
▁стат
▁жасыл
▁етті
▁станция
▁келіссөз
▁нан
▁түрі
▁меморандум
ографиялық
▁модельдеу
▁процестер
▁байланыстар
ло
▁дау
▁тиімділігін
тардың
▁өнеркәсіб
ңг
▁шы
▁жұмысын
▁қазақстандағы
едер
дап
▁L
▁дәлел
аттандыр
▁туристік
▁атты
▁тұратын
ыны
▁мерек
ұлы
ысына
▁жүк
▁дәстүрлі
қаз
▁әйел
▁Ин
▁ескере
▁қарастырылады
▁деректерді
▁бүкіл
нді
алуы
▁желілер
▁22
▁ғимар
бен
▁арттыруға
▁аппар
▁country
str
тивті
▁қою
▁көшбас
ко
▁дамытудың
енген
▁қысқар
▁Зерттеу
▁сұй
тр
▁қолжет
▁0,4
▁қылм
▁сұран
деріне
▁рәсім
▁жобаны
▁ұсынылған
ies
шік
▁май
хим
▁маусым
сек
vest
end
ілде
▁ретте
ігер
▁қолданылатын
қо
lic
ром
нет
▁199
▁ластан
▁peop
назарбаев
оғ
епт
▁кап
▁жобасын
▁қабілетт
▁электронды
▁жолы
▁қалп
▁құрал
▁фот
▁бірыңғай
▁физикалық
ңгі
▁op
▁сағ
▁сек
▁тексеру
▁транс
▁оқушылар
▁түй
▁Ос
▁шамамен
ісін
▁ортақ
▁қызметінің
▁дамыған
▁бағдарламалық
▁28
▁қосу
ындығы
for
ілеу
▁бос
ber
еттен
ттары
▁түрінде
▁серп
so
▁халқы
▁0,5
▁фаз
істің
▁жерде
ident
▁тұжырымдам
▁порт
▁ғасыр
▁мыңнан
итал
қсан
қорлық
00-
рыз
▁me
басының
▁бағдарламасын
▁Л
лерге
ежүз
▁кри
▁қатысады
tic
▁қауымдаст
▁министрлік
▁алмасу
▁from
ev
▁енді
▁операт
▁компаниялар
өбе
▁26
▁қолайлы
▁мәні
▁анықталады
ани
адем
▁қышқыл
▁ұйымдар
▁минер
▁produc
▁айналыс
▁жұмысы
▁жүргізілді
іміздің
▁кездес
▁қолжетімді
▁R
еди
▁Кө
▁бөлу
ималды
▁салын
▁жинақт
▁іл
алог
▁мысалы
▁тұрған
егей
▁этн
▁динам
▁жасауға
▁кеңінен
▁70
▁ab
▁бері
▁парламен
осфер
▁идея
▁жылына
ференци
▁жатады
▁облысында
▁министрлігінің
ere
ян
▁қызыл
ативтік
керлері
▁дост
▁басшылары
бол
▁кеп
▁соңында
▁салм
▁ни
▁ұр
▁нақт
▁педагогикалық
▁құбыр
▁people
▁концентрация
▁баға
құ
▁am
▁сектор
▁comm
▁қалған
▁конститу
аушы
кцион
▁кв
▁қалпына
▁құқық
▁жылдық
▁сигн
аев
елерін
▁сұрақтар
▁құрайтын
▁E
▁ap
▁алынды
▁болсақ
▁түсіндір
▁жетк
іңізге
▁T
▁теңіз
лап
оген
▁еаэ
▁компьютерлік
30
техникалық
инар
▁атқарушы
▁азық
ial
сид
▁[2
▁сор
▁бейн
▁берілді
▁жалғ
ля
асынан
дарына
▁білікт
▁invest
▁ерітінді
▁құқықтық
▁әлемнің
▁табылатын
рек
елерді
▁тыс
ессия
▁еаэо
▁механизм
▁so
▁уч
ыстағы
▁құрамында
▁ұсыныстар
иканың
озиция
формат
▁бағал
▁академ
▁жәр
▁инвестициялар
▁арда
▁отын
▁бірлесіп
art
ұқс
▁стандарттар
▁27
3]
▁көк
▁F
ысалы
▁нұсқ
сен
▁етуге
▁материал
▁қатынастар
oc
дейді
лігіне
▁естер
▁картасы
далды
қым
▁беріледі
▁дүниежүз
▁жауапкер
ram
обиль
▁қана
▁алтын
▁қосымш
▁азаматтық
стру
▁min
▁тест
ric
йткені
теріне
▁жылдарға
▁экономиканың
gy
▁
неу
▁шара
▁қарама
▁қазақстанға
жыл
іресе
▁теңдеулер
▁прин
▁жобалау
▁әб
▁зауыт
▁тақырыб
se
оф
ities
▁міндетті
▁тізім
▁түсті
▁перспект
▁ы
▁саласы
▁қалалық
▁жою
▁ион
▁муз
▁наурыз
аск
▁ок
▁бойы
фференци
▁жұмысқа
▁орталығ
тифик
▁2012
▁бөлек
▁алғанда
▁мақсаттар
▁энергетикалық
▁федер
оқ
кө
▁диаг
▁км
▁маңызы
▁қолдануға
▁cont
▁айтылған
▁стратегия
уын
ут
атур
▁Негіз
▁субъект
▁шығармашылық
▁қазақстандықтар
▁D
осф
▁No
▁даярлау
▁сүт
▁қаласы
▁айналды
▁екендігін
▁60
аймыз
▁мына
▁өнімдерін
▁масс
▁президентінің
▁машин
▁кеңейт
айын
struc
еледі
▁зерт
▁дайындық
▁ашу
▁мүше
▁мұнда
▁құрамына
▁ұлы
▁қатты
▁см
▁өтіп
▁көмект
▁жүйенің
қыш
▁бо
▁көл
▁сез
ымыздың
der
▁етіп
fic
▁желто
▁рұқс
▁үм
▁кіріс
▁асырылады
түлік
▁елімізде
▁оқушылардың
▁өтініш
▁29
▁кадр
аторлар
ус
▁ды
сынан
▁проф
▁өзгерту
▁елдердің
▁жағдайында
▁тізб
▁жобаның
▁Ақ
▁қатысуымен
▁инж
туалды
бел
таб
тып
our
▁бағдарламасының
▁азайту
▁кәсіпорындар
▁құрылғылар
tiv
▁ки
есте
▁аламыз
▁жемқорлық
шара
▁түрлері
▁мекен
age
ries
▁қашықт
газ
▁(2
▁алдында
▁3-
▁кіш
▁еркін
▁келтіру
▁агро
мосфер
лас
▁ұқс
аттау
▁барынша
ка
▁sa
▁хол
▁нәтижесі
▁ауыр
▁Егер
▁істейді
рі
ард
▁ег
▁класт
▁қолдана
удың
елерінің
мын
▁көрме
▁кес
▁тмд
erv
▁тұз
▁өнімдері
▁кері
igh
▁proj
ган
▁іскерлік
▁сый
▁құжат
▁қх
ical
спары
ылыстар
▁president
уіне
кәсіп
▁кітап
4]
▁H
▁компаниясы
ірілген
▁жоспарлау
шілердің
▁кезеңде
▁анықталған
,0
мол
▁арту
▁тәуелсіздік
пе
▁ten
ондық
▁әңгі
ыстырм
бет
▁lo
▁төлем
lec
out
▁моделі
▁қырғыз
▁жоспары
▁елбасының
▁перспектив
▁жағдайы
▁қызығушылық
бат
form
▁елді
▁үлгілер
тация
▁шешуге
▁отырмыз
▁интеграция
▁бағдарламалар
▁бірт
▁жылда
tions
ациялар
▁жиынты
▁осылайша
▁қарапайым
ich
өнер
▁0,6
▁суб
▁жұмс
▁дүниежүзілік
▁термин
▁
▁gro
▁бен
▁жоспарлануда
ress
▁опт
овтың
▁миллион
ілт
▁бөлінген
▁аймақтық
▁естеріңізге
▁аэ
ылыс
▁дан
▁қалалар
ence
▁дағдар
ғыст
даған
▁қыркүй
▁аумағында
ылығын
▁корпор
▁өзен
▁ардагер
▁тарат
▁құруға
ырау
лерде
▁принци
▁көлемін
▁оқытудың
▁қарағанды
▁дифференци
▁істейтін
иев
▁батыс
▁әкімшілік
роп
ublic
▁таны
▁қатарына
);
▁интегр
▁ұк
тор
ыстары
ісінің
▁жасалды
▁құрылымы
▁І
▁төменгі
▁import
▁сапасы
▁еш
▁әзірл
25
ланд
▁үлес
▁бағыты
▁бірлік
▁35
зімді
атри
мә
▁үрдіс
eration
▁алайда
имер
ments
▁менің
▁салтан
асс
пай
▁еуропалық
▁әріптестік
етикалық
▁ю
▁Негізгі
▁коммуник
ғу
тіп
▁80
▁есеге
▁іздеу
▁қарастыру
тағы
тарды
ленген
▁монитор
▁intern
▁жаңарт
▁ұғым
▁сомасы
▁алдымен
▁ауыс
▁соңына
талған
▁алғыс
▁дипломат
ЕР
ech
▁дағды
▁әсері
▁зейн
ықтыру
▁қарау
▁ақтөбе
▁өзіндік
▁келісімге
▁түрк
лығына
▁акт
ник
тады
▁rep
▁семинар
елердің
абақ
іктеу
▁шарт
▁мұндағы
▁жоспарланып
▁бл
▁өк
▁химия
▁зертхан
iness
▁cre
лым
▁мод
▁жасақт
ыстырмалы
▁there
▁орнату
аттардың
▁кедендік
дандырылған
▁деңгейдегі
▁Түйінді
▁толықтыр
▁зейнет
▁pol
▁tenge
▁кезіндегі
қыз
▁қалай
▁жетекші
▁өндірісі
▁ис
▁шаршы
тарының
ast
онды
▁болжам
▁W
▁жұмыста
▁басқарма
▁саналады
дану
▁топт
are
▁қаржылық
▁бәсекел
▁талқылау
үр
▁Біз
▁гидро
▁G
▁атом
▁солтүстік
▁принцип
уб
▁шо
▁еді
▁бейім
▁функцион
пр
▁дайында
▁Жоғ
▁еске
▁ұзындығы
ance
▁жарт
▁қойылды
▁sup
▁айырм
лодар
▁үйлест
▁жеткізді
▁жүргізілген
▁өнеркәсіптік
iv
ма
ted
жай
▁31
партам
▁шаруашылық
еф
аушылар
▁өйткені
▁таныс
▁әсерін
▁делегация
-2020
▁менедж
икасының
ықта
таның
▁әсіресе
▁заңнамалық
reas
ида
▁ур
хани
▁мүмкіндігін
▁bus
▁департам
▁Әр
▁ауа
▁кодек
▁учаск
▁countries
іктің
▁елдерінің
атр
елек
орттық
▁комитетінің
▁бизнестің
аса
▁сапа
▁world
▁шекар
▁қамти
▁университеті
▁B
▁мамыр
▁economic
▁төмендеу
▁объектілер
ib
▁Жұм
▁accor
▁жауын
▁мүшелері
▁автомобиль
далы
▁[1]
▁білу
▁терр
▁which
▁бейбітшілік
бин
▁Қар
▁транз
▁бастады
▁өсті
леріне
ization
▁критер
▁технологиясы
шын
дыңғы
ативті
▁fir
▁акция
▁кернеу
ag
▁ойлау
▁айналым
▁қарамастан
елігі
▁рұқсат
▁адамдар
▁табысты
альды
▁жүргізіледі
▁жұмысына
▁ведомство
▁қабылданған
ree
▁тор
▁белгі
▁қысым
▁әкімдік
5]
▁O
ard
very
▁моб
▁инжен
▁серіктестік
▁тип
▁жүктем
ors
lement
▁келді
адан
итын
▁өзі
ыққан
▁бөлік
дерімен
▁оларға
▁білімді
▁өнімнің
▁тұрм
▁first
▁қойды
▁бірдей
▁қайрат
▁атмосфер
▁агр
▁еуропа
▁сөзінде
▁жабдықтар
▁мүмкіндіктері
act
▁салыстырмалы
истр
▁бөлі
лектро
▁тез
иканы
▁ассамблея
▁облыстар
ағының
▁сапары
▁ұжым
▁адамның
▁әрекетт
▁әлеуетін
stana
▁prog
▁табыс
▁экстр
▁негізі
▁қабілетті
ian
▁айқ
▁аху
▁бұған
▁қанағ
ens
рит
▁кат
▁берм
▁түсу
▁күкір
▁цифрлық
мат
ғында
сур
інді
▁ықт
▁фран
▁орнын
▁формул
▁төрағасының
10
▁cent
▁жүргізілуде
ант
▁спектр
▁толқын
▁сарапшылар
▁қасиеттері
ie
мола
дайды
▁көзқар
▁рухани
аф
жә
▁қамтиды
▁сүру
▁сынып
тп
аққа
беков
ұрлым
▁берген
▁ұрп
▁физика
▁мектепт
▁орындары
▁құқықтар
▁і
▁0,7
ымдық
▁cons
▁more
▁тазар
▁жұмысының
истер
ықтан
▁business
ош
day
▁кету
▁қолға
▁ауданы
vers
▁қысқа
▁Мұндай
▁түзету
▁энергиясы
▁тиімділігі
ағына
атынын
дығына
▁бұйым
▁ұстан
▁экспери
анитарлық
▁тапсырды
▁өздерінің
▁were
▁желі
ost
хем
▁жын
▁раст
▁алдыңғы
кл
▁қуатт
химиялық
▁құрылды
▁қосылған
▁кедергі
▁анықтауға
▁органдардың
▁маңыздылығын
енттері
▁бастау
gh
▁ұлғ
▁конт
▁дамуының
сты
ындайды
тегі
▁жану
▁increas
сих
▁қазан
▁коммер
▁прокур
▁аударды
▁кейінгі
ach
▁мобиль
ож
ермания
▁белару
параттық
▁практикалық
vern
кент
▁аралық
риц
рық
▁мм
▁than
▁trans
▁Мысалы
▁лау
▁жасап
▁белгіленген
сор
амбыл
▁plan
▁информат
▁international
▁макс
ығымен
▁шілде
▁бөлінді
▁national
ография
▁жасайды
▁been
▁minist
▁матриц
аландыру
▁шеб
ларына
аттарды
▁жәрдем
▁implement
ыңыз
▁тұң
cip
ue
қай
сымен
лендіру
▁келіссөздер
ком
▁бала
▁орталығының
ace
ire
алын
алыс
▁теориялық
▁көрсеткіші
икл
ақтағы
▁балабақ
▁дәрігер
▁бағыттары
▁құрылымдық
▁кепіл
ects
▁интел
▁indust
▁тәртіп
▁қаражат
өнеркәсіп
▁add
ектері
▁келеш
▁өзбек
▁толықтыру
айық
▁әуе
аларына
▁тұңғыш
▁құрастыру
аттам
формация
▁Ғ
▁ыл
▁part
▁astana
▁Жоғары
▁бірегей
на
лор
егін
▁man
асп
▁мәтін
▁диалог
▁billion
▁шектеулі
▁500
▁арх
▁кіреді
▁тіркеу
▁сараптам
гр
ish
кон
▁рез
▁head
▁есепке
▁V
▁мақ
есімен
▁қосқан
▁тоқталды
ade
әуір
▁отырысында
уля
ould
▁шақ
▁плат
▁әлемдегі
▁өнімдерінің
тігін
▁алға
▁отбас
▁мей
ерлер
▁біріктір
▁жылдамдығы
▁роб
▁coop
ентінің
таев
▁сәуір
▁ақмола
▁жүйелі
▁желтоқсан
▁мүшесі
▁индустри
герлік
▁әдістерін
сь
all
▁app
▁per
▁құн
▁us
▁гек
▁иран
▁таза
▁сумен
АЛ
тез
▁фил
▁түседі
▁жүйесіне
▁байқалады
▁энергиясын
▁кам
естің
▁жеткілікті
▁тын
▁today
▁дифференциалдық
шілері
▁ортаға
▁көрсеткен
деген
▁soci
▁гран
▁миллиард
▁оз
▁төмендет
қатынастар
▁бизнесті
уды
▁ней
▁about
▁years
▁дамып
▁жайлы
▁кешені
▁экспорт
▁бөлінеді
▁ұсынылады
аттағы
▁реакция
▁көрмесіне
▁нығайтуға
▁бәр
ектен
▁кеңісті
▁диз
▁клим
▁тудыр
▁бағытта
▁облыстың
айл
▁га
ther
▁басшылар
▁according
▁енгізілген
еяс
окө
▁45
▁sy
▁фр
▁әділ
▁оқы
ілігінің
▁тұрғыдан
▁Ар
▁қарқын
▁ұсынды
▁павлодар
▁көлемінде
АР
СТ
нек
истика
▁пайдалы
ғады
кра
▁ави
▁32
▁program
▁жасаған
▁міндеті
уыл
ayev
▁жарық
▁мерзімді
▁бөлшектер
▁ұйымдардың
▁колл
▁констру
▁күшейту
▁мүмкіндіктерін
ine
асады
▁жүргізіліп
▁таст
▁болашақта
▁мәселесін
▁қырғызстан
▁температура
еуі
паз
▁pri
▁бау
ғыстау
▁халқының
▁көрсететін
▁ұя
▁несие
қатынас
▁жоғарыл
▁заманғы
▁түскен
▁азаматтардың
▁tim
▁адамды
▁партия
▁шешімі
▁салынған
▁әд
▁рейт
▁жолдары
ометриялық
▁негізінен
ност
▁2019
▁тобы
еттілік
▁үкіметі
▁до
мел
cess
▁азай
▁оңтайлы
▁мемлекеттердің
▁prov
▁шикізат
деби
▁кіші
▁ислам
▁саласының
▁оңтайландыру
▁берудің
▁процесс
▁қонақтар
ткіш
▁Сол
▁біт
метов
атынан
ks
ене
етіне
▁also
▁өнімдер
сан
хана
отехн
▁сөйл
▁бізге
▁күрес
▁айналымы
▁болғандықтан
елендіру
▁керекті
▁36
▁жинау
▁істеп
▁қабыр
шыларға
▁елшісі
▁қойған
▁ауылдық
▁қабылданды
құр
▁Эк
▁туында
▁жатқанын
▁пайдалана
▁тапсырмалар
кет
үн
бес
енци
▁one
▁фосф
▁жалғастыру
gan
▁ед
▁виз
▁тамыз
▁govern
▁субсид
▁баяндам
▁германия
мін
оли
▁эм
ғыру
▁ыңғай
▁елдері
▁металдар
▁өткізгіш
лю
▁4-
▁ұм
▁бұрыш
▁мақал
▁студенттердің
ғысы
▁[2]
▁беларусь
▁шаралары
%-
кр
▁z
айн
іні
ates
▁300
▁ашылды
▁жаңғыру
▁жұмысты
▁жабдықтау
▁механикалық
▁ro
сінің
▁қызметкерлері
40
▁сертифик
ония
uss
▁гүл
▁main
▁схем
▁мақұл
▁санын
активті
зерттеу
▁үнемдеу
▁кезеңінде
▁сеп
▁фер
▁бақы
▁артты
дарынан
▁институт
▁саладағы
▁субсидия
▁important
▁қалыптастыр
▁бейне
▁топырақ
▁электро
▁көмектес
▁мәлімдеді
спен
▁алқ
дарда
▁атау
▁түйін
▁процесі
▁қажеттілігі
▁90
▁ұқсас
▁орайда
▁магистр
▁тәжірибелік
▁дө
▁машина
▁саласын
▁қаланың
▁әлі
▁индек
▁кезекте
▁тіркелген
▁қызылорда
▁тен
▁генер
▁кеткен
▁отбасы
▁шараға
ла
stem
▁2011
қаш
▁150
▁Оқу
ivers
▁serv
жар
▁ку
ентті
▁капитал
▁cooperation
асуы
▁соз
ардың
▁төлеу
▁процес
▁из
▁att
▁ілгер
▁қамтылған
шаралар
▁беруді
▁бөлімш
▁қағида
▁жүзінде
лу
▁dis
▁parti
▁тарату
▁қарулы
▁Осылайша
▁қатысушы
▁ме
educ
▁өсіп
▁жоспарын
▁қалыптасқан
▁қарастырылды
▁Қоры
▁мүдде
еттерді
итикалық
▁қолданыстағы
ья
алдың
дігіне
▁ауданында
▁заттардың
▁мыр
▁меңгеру
▁танымал
▁интернет
▁өзбекстан
▁құралдарын
▁компоненттер
▁мүмкіндіктер
▁елеу
▁жамбыл
▁псих
▁укра
▁бекітілген
ектің
▁мамин
▁достық
▁мез
есінше
▁мәселені
▁платформ
6]
ақтан
тарын
▁ассамблеяс
olo
▁асты
▁ортаны
ft
мб
▁rel
энерг
▁сағат
уманитарлық
▁артып
▁жұмыстарды
▁мониторинг
▁тәжірибесі
▁құндылықтар
80
▁шаб
▁elec
▁баса
▁келу
▁табу
▁құралдары
▁+
tit
ural
ive
▁ата
еттерін
▁павиль
▁техника
ациясының
▁қатысуға
▁көрсеткіштері
оны
▁піш
▁мәрт
электр
▁жоспарлап
▁қылмыстық
▁өндірушілер
▁коэффициенті
▁қауіпсіздікті
▁K
▁сим
▁бөліп
▁қим
▁сессия
▁компаниясының
амын
▁дар
▁пайызы
▁орындарының
▁қондырғылар
▁халыққа
қор
екел
▁өсуі
▁сынды
ілігіне
▁ортаның
▁қоғамның
шіл
екул
▁pre
▁вир
▁Оның
ousand
ылықты
▁сәтті
▁Осыған
▁сызықты
▁түрлерін
▁X
urs
▁қа
оттық
▁мүге
▁теория
▁thousand
новациялық
▁пәтер
▁театр
▁ұң
алпы
▁вал
▁басқар
▁таралу
▁шыққан
▁қажеттілік
▁U
дас
▁міндеттерді
▁университетінің
шағы
етінде
▁дақыл
▁орналастыру
cal
▁ерекшеліктері
und
▁ent
циясы
▁түркі
▁беруге
▁кластер
▁та
▁жән
▁дене
▁мекемелер
▁өнеркәсібі
ual
▁ток
▁білдіреді
▁артықшылықтар
▁33
▁you
▁2010
▁танысты
▁өңірлер
▁критерий
▁шай
ілдір
▁жағдайды
▁көрсетуге
etw
▁құл
станай
▁секілді
▁төзімді
▁жүйесінде
get
ірек
ымкент
істікт
▁үлесін
▁әлемде
▁әрекет
ордин
▁Қазақ
▁жауапкершілік
стық
▁suc
▁бәсекелестік
kz
▁У
сон
ков
ғалау
▁беріп
▁әкімдігі
▁34
▁бидай
▁мәртеб
▁шараларды
азах
▁said
▁ұсынылды
▁орындарын
ory
▁дек
▁бізде
▁жарты
▁саясаты
av
өзі
echn
қаев
▁тәж
▁консу
▁бюджеттік
жей
▁зар
▁айыр
алығын
▁үдерістер
▁статистикалық
15
пан
▁Ор
▁dec
дейтін
▁ши
▁[3]
▁балық
▁автокө
▁көрсетіп
балы
ісіне
▁Алынған
еке
▁бекі
▁сект
▁серпін
▁саласына
▁құрылысын
иттік
▁ыдыр
аларда
▁адамға
▁ұсынады
▁жүйелері
▁әдістемелік
ff
ре
ттау
▁доллар
▁едәуір
▁туынды
▁анықтайды
АН
▁кин
▁тариф
▁орынды
▁септігін
▁sec
▁болат
▁жанындағы
▁қалыптасу
ний
bayev
▁бюджеттен
▁se
enti
reat
емді
▁болмақ
▁тағайын
▁жұмыстың
астық
▁үміт
▁әдеби
▁мобильді
▁үйлестіру
юм
able
▁бұзу
ымызды
▁зиянды
▁ынталандыру
▁ад
▁актілер
ong
▁Білім
▁көтеру
▁меншік
▁нақтыл
▁металлург
тқа
ағым
▁Олар
▁қағаз
▁халқына
▁кәсіптік
▁бірлестік
ъез
▁37
▁шө
ттен
▁қараша
▁ұлғайту
▁теңгеден
▁органдарының
▁Өн
▁анық
▁көшу
▁түсіндіру
ЫҚ
емін
▁сің
▁канди
ттардың
▁Алайда
▁агентті
▁міндетт
▁жағдайын
▁жұмыстарының
▁тет
ордың
▁асқар
▁servic
▁кәсіпор
▁хатшысы
▁теміржол
▁ерекшелігі
әй
әді
▁жиі
▁сұл
uring
▁мектепке
▁инновация
lud
ыту
▁зер
▁елеулі
▁жылмен
▁ұсынған
▁берілетін
▁ағ
дерде
▁талш
▁марап
▁Сондай
▁түркия
▁экология
▁оқиғ
▁Бірақ
▁жасады
▁салада
азахстан
▁болуына
олю
▁ауыт
▁облыста
▁шешімін
▁функциясы
▁өткізілді
▁ev
▁АҚ
атына
▁конв
изация
▁қалың
▁құралы
▁аясындағы
▁маңғыстау
eral
ative
дерінде
▁жүйені
ұт
ues
орф
▁qu
▁сыбай
▁координ
▁көзделген
▁кеңейтілген
▁шол
▁provid
▁орынға
▁particip
▁толығымен
аттандырылған
▁5-
▁out
▁полимер
▁басшылығы
▁депутаттар
▁блок
▁дөңг
тылған
▁сабақтар
▁жылдамдық
▁жолаушылар
21
▁теп
▁жайт
▁съез
▁өркен
▁адамдардың
▁субъектілер
ex
og
импи
ульт
▁инд
▁нас
▁сыбайлас
▁қасиеттерін
▁[4]
▁mar
▁Кіл
дайтын
▁жеткен
▁салаларында
▁ассамблеясының
▁қап
▁ұшыр
▁айырмашыл
▁деңгейіне
erm
ris
еттегі
▁үйрен
▁информатика
▁бағдарламаның
ll
ұз
▁оқи
▁spec
▁барысы
▁атқарады
▁арттырады
▁динамикалық
▁жемқорлыққа
3-
аныш
ағдар
▁бағасы
▁кеңесі
▁көрсеткіштер
мек
лайн
▁Бер
▁игеру
▁уақыты
▁өзінде
▁қорының
▁диагност
▁түрлендіру
▁теңгенің
▁енгізілді
60
▁мұх
▁сөй
баева
▁күнде
динг
▁нарық
▁елорда
▁желісі
▁жақында
▁колледж
рам
▁көзі
▁крист
▁system
ырақ
▁fin
▁Соң
▁пот
ацион
▁support
лих
тенше
ымалы
ғылшын
▁дербес
▁қадағалау
▁экономиканы
▁сам
▁көрмесі
▁тауарлар
▁қызметті
▁компаниялардың
см
▁сүз
▁құрм
икасын
▁жасал
▁мүгедек
▁салтанатты
▁la
▁сім
▁авто
атында
▁шоғыр
▁мынадай
▁ауданының
▁med
▁атырау
алитикалық
таж
rent
▁mod
елену
ғалды
▁есім
суретте
орлардың
шаруашыл
▁мүдделі
астырылған
▁автокөлік
▁автоматты
▁бр
▁өлшемді
▁медицина
ome
▁ұт
▁рек
▁шаң
дармен
імізді
▁мақсатты
▁органикалық
▁температурасы
ізді
амдық
▁compan
▁million
▁басталды
▁қызметіне
▁ары
▁дат
аттан
жылдық
▁Нәтиж
▁судың
▁үйлес
ындайтын
▁минералды
▁құм
▁2050
▁түсір
ымдылық
struction
нау
▁iss
▁туғыз
есіндегі
▁жауапты
▁қостанай
▁сәйкесінше
▁?
сив
▁сезім
▁жолдарын
▁шт
▁код
стары
тарға
▁уран
▁фото
▁noted
▁мысал
▁қоймай
▁асырылуда
инновациялық
ays
▁str
ылуына
▁миссия
▁синтез
▁қаралды
▁кәсіпкер
▁жалғастыр
▁нәтижелерін
▁high
▁over
▁жақты
▁қуаты
▁қозғалыс
▁жағдайларда
про
▁ск
▁инф
аспий
▁филь
▁анықтам
▁жүргізуге
5-
ғаю
▁шұ
естігі
▁organ
▁айрық
▁корпу
▁музей
▁төтенше
▁институцион
11
▁пун
шікті
▁sign
▁жолдауында
oin
▁пак
▁құй
▁шығу
▁сақтандыру
▁Бү
▁балам
▁екендігі
▁оптикалық
▁ауған
▁бақыт
▁лауаз
▁өкілі
▁басынан
▁бөлігін
▁әлеуеті
▁дайындал
▁үкіметтің
абы
ғұрлым
▁дауыс
▁тегін
▁Электр
▁мәслих
▁шығаратын
▁ман
іккен
▁жетті
▁полиг
▁тигізеді
тек
ғақ
анады
ттердің
▁аспект
▁террор
▁өткізді
▁қойылатын
▁деңгейінде
шыға
▁ном
ланды
▁жету
▁астық
таралық
▁көрмеге
▁себепті
▁шақырды
▁кеңістікт
▁биологиялық
▁халықты
қау
▁арм
▁сая
данған
▁тазарту
▁қысқарту
▁дипломатиялық
▁самм
▁қарс
▁нәтиже
▁айрықша
▁ағылшын
ац
▁meet
▁цикл
▁көрмен
ағынтаев
▁тәуекел
▁қауіпсіздігі
лн
ass
цен
ution
▁кезеңі
▁ерекшелен
▁кездесуде
▁салыстыру
▁ресурстарды
ures
лану
імпаз
▁зауыты
▁міндет
▁павильон
▁тапсырма
▁үздіксіз
▁тұрақтылық
▁techn
▁Жалпы
▁санының
▁бағыттағы
▁таныстырды
▁үкіметінің
ІН
лд
▁дс
▁толтыр
▁әдісін
▁шақырым
▁projects
▁инженерлік
▁тұрғысынан
▁материалдық
▁0,8
▁мектептер
▁кәсіпкерлікті
▁еэк
емлек
▁жүру
▁спик
▁баған
▁тербел
▁өзгеру
▁ar
▁күнге
▁ұйымның
▁көлемінің
▁төмендету
▁қызметтің
▁конституциялық
урн
▁мой
▁ағаш
дігінің
еттердің
▁қамтитын
▁Қазақстанның
bal
енд
нама
▁ass
▁аль
▁қха
▁educ
фикация
▁жиілік
▁шешімдер
▁зейнетақы
▁мәліметтерді
▁басқармасының
7]
▁бетон
▁қайтар
▁республика
▁әріптестер
▁амер
▁долл
▁патри
▁ұйымы
▁нейрон
▁моделін
▁органдары
▁орындарында
▁индустриалды
лак
▁Бұ
▁үнемі
▁ұсыну
▁есептер
▁жиынтығы
▁операция
▁жобалардың
4-
дес
▁Ат
кест
▁құс
▁Сурет
▁төмендегі
▁олимпи
▁отырыс
▁түсетін
▁құрамын
▁конституция
▁автоматтандыру
▁dep
▁жой
егінің
▁their
▁күкірт
▁асырудың
▁деңгейлі
▁жұмыссыз
▁ішіндегі
▁қаласындағы
елді
▁асады
▁ыңғайлы
▁әйелдер
▁жеңілдет
▁деформация
бұр
▁ав
асып
іпті
▁серв
муналдық
▁аймақтың
▁жүріп
▁мөлшерін
▁процесін
▁қарастырады
▁меморандумға
▁қауіпсіздігін
▁38
▁асырылып
▁біріккен
дырм
▁каб
lobal
▁модуль
▁қатысқан
ik
ана
▁75
дест
▁программалау
сар
өлі
стем
астың
▁барша
▁камер
▁түрлен
▁аймақта
құл
етер
▁кеу
▁үлг
▁елде
▁рөлін
▁телеф
▁құрап
▁дамуын
▁базалық
▁көмірсу
▁басқарудың
бақ
чик
▁ауд
▁туған
▁потенци
▁болмайды
▁комитеті
▁тестілеу
▁ресурстарын
iss
ons
vel
лады
▁тая
орлары
▁includ
▁күтілуде
▁орнатылған
▁компанияның
▁инфрақұрылымдық
een
скоп
▁онлайн
▁кеңістік
▁Казахстан
назарбаевтың
ey
АТ
порт
байжан
▁интеллек
▁өткізуге
▁көрсетілді
).
▁түб
шылығын
▁атынан
▁сәйкест
▁жеңімпаз
▁технологияны
▁толықтырулар
ЫН
-2050
ғылау
▁ашылу
▁жүрген
▁жеткізуге
▁еліміздегі
▁пан
шалық
▁аталады
▁молекул
▁суретте
▁ілгеріл
▁өзгеруі
имал
ығыс
▁Интер
▁пласт
▁ұлғай
▁болашағы
▁рег
▁ажыр
▁рати
іктігі
▁мыңға
▁баяндады
▁жобаларын
air
▁трлн
▁корея
▁дамудың
▁көздері
▁қолданылды
▁технологиясын
hip
ордан
▁суды
етінше
▁жетілдір
▁индустриялық
▁ынтымақтастығы
▁тыр
ағындағы
▁ластану
▁мәселен
▁коммерциялық
кінші
▁тілі
▁көрсетіледі
▁өкілдерінің
ob
▁үн
олия
▁0,3
деледі
ева
ақтары
▁хаттам
▁кандида
▁ins
▁бак
▁Құр
▁рөлі
алдары
▁виртуалды
▁production
▁Ақпараттық
▁мамандарды
яд
түр
▁bec
▁mon
ңгілік
▁билік
▁тарихы
▁негізін
▁жобалары
фикациялау
▁ескерткіш
шау
▁42
етке
ылуын
▁time
▁ласт
▁бекіту
▁Олардың
▁ашылған
▁u
▁sch
▁ұнт
ларында
▁public
▁should
▁професс
▁ауыстыру
▁бастаған
▁жасайтын
муникациялық
тығу
▁білікті
▁үрдістер
▁жобасының
azar
анов
▁ода
▁тетік
▁жаңарту
▁жобалық
▁тұрғыда
▁өңірдің
▁құрамындағы
ұлттық
▁Соңғы
ритания
дарымен
▁президенттің
▁бағдарламасына
ич
уд
est
▁gen
▁команд
▁құрылғы
▁қалыптастыруға
▁bas
▁гидр
▁жалп
▁сұйық
▁қарыз
ergy
ісінде
ДІ
▁журн
▁кіру
▁архит
▁қосылды
▁ұйымының
ces
▁эл
ский
▁Жер
▁дыб
▁жылж
▁екені
▁тұқым
▁тіркел
▁франция
12
▁ірг
etween
▁қалдықтарды
▁between
▁көздерін
▁мәңгілік
▁хабардар
▁жұмыстардың
▁байланыстарды
ket
▁банкт
▁анализ
▁тілінде
▁әкеледі
пол
және
▁клин
▁economy
▁шараларын
▁ықпалдаст
зин
ғар
пуль
▁000
▁Жаң
▁тән
алының
әжіриб
▁аймағы
▁мазмұны
▁жастардың
▁мәселелеріне
▁44
▁шыұ
▁impro
▁асырылды
оның
інесе
▁сақтап
ized
іске
▁tak
▁коо
▁бедел
▁social
▁қажеттігін
ang
шаф
▁озық
▁сервер
▁рейтинг
▁дәрежесі
▁геологиялық
ашар
▁[5]
▁тоз
▁ұңғым
▁орнына
azarbayev
▁хабарлау
▁қондырғы
▁кездесулер
▁қосылыстар
▁мәселелердің
сіне
ғаны
икада
▁Комп
▁мәжіл
▁холдинг
▁әңгімел
сыздандыру
▁кездеседі
▁Қорытынды
▁бағдарламаны
▁00
▁47
естив
▁банкі
▁бақыл
▁тәжік
▁бұрынғы
▁тобының
▁сызықтық
▁ғалымдар
▁қызметтерді
▁өндірісінің
▁pos
▁ант
▁арз
огендік
▁Бірінші
▁пайдаланып
▁талаптарына
КТ
аби
қалық
орының
ткерлік
▁special
▁уә
стың
▁leg
▁өңірде
▁толықтай
▁әлеуетті
-3
▁ұқ
▁mem
▁аяқ
▁шару
▁болашаққа
▁үкіметтік
▁насих
▁48
▁лық
▁айтуы
▁meeting
▁тоннаға
▁жүйелерін
▁келісімді
▁жауынгерлік
▁конструкция
кем
лды
▁43
▁its
йымды
▁комитет
▁зерттелді
▁орталықтар
▁объ
▁клас
ақтығы
▁қазаг
▁холдин
дірілген
▁алынады
▁аймағында
▁construction
▁Би
▁num
▁диск
▁дисп
етінін
▁exper
▁бауыр
▁түрік
▁amount
▁бірден
▁жолында
▁институты
▁қызметшілер
мұ
irec
▁реакт
▁базасында
▁есептерді
үш
▁1,5
▁fore
айтқыш
енттік
▁содан
▁соғыс
▁терез
▁команда
▁қолдауға
▁кәсіпорындардың
▁46
▁ca
теңге
▁крем
▁фили
▁under
▁құрылысына
▁көрсетілетін
▁vis
▁діни
діктер
▁айнымал
▁басталады
▁қатарында
▁nazarbayev
▁қуаттылығы
▁зертханалық
3)
вл
Қаз
қон
▁эфф
▁Екінші
▁аталып
▁үлгісі
ақтардың
▁Республикасының
дамыз
▁тура
▁Мұнай
рес
▁Түй
ығында
▁тұтқыр
▁боламыз
▁жартылай
▁әдісімен
▁әсерінен
▁зерттелген
▁ob
▁па
терм
▁гео
▁жоо
▁музы
ықтары
▁арада
▁азамат
▁құрмет
▁іріктеу
▁сипатталады
▁ға
▁Мат
▁бәй
▁сұх
▁өрт
▁grow
▁most
▁кедергілер
▁бор
▁лай
▁адамз
▁жүйелердің
▁негізіндегі
▁құралдарының
ле
сап
тил
▁суд
▁міндеттем
▁байланыстыр
pe
rac
▁нашар
▁during
▁жаппай
▁қауіпті
▁өндіретін
▁кәсіпорынның
кей
▁атам
▁көпір
▁латын
імділік
▁эксперимен
▁ассамблеясы
▁депутаттары
cy
гу
сай
терек
▁қатысып
▁кемшілік
▁спорттық
▁есептеледі
low
ital
▁кіл
▁қым
▁хром
▁өзект
▁архитек
▁қабатты
▁ұстаным
▁дөңгелек
▁жүргізіп
▁қашықтықтан
тег
▁39
▁55
▁Ан
▁cap
▁салалық
▁тұрмыстық
▁government
▁Бас
▁ұмт
ларда
▁сорб
ission
▁актив
▁есепті
▁жануар
▁терроризм
▁car
лықты
▁тепе
▁әуеж
▁семей
▁конкур
▁project
▁әзірлен
▁Берілген
▁министрінің
pa
көл
▁поль
▁мерзімі
▁зерттеуге
бұл
ыла
ибер
▁вен
татын
юмини
▁form
▁емдеу
▁жекеш
▁жалғыз
▁асыруда
▁қорытындылары
ынд
тарап
ттарды
▁number
▁тәжікстан
▁шекаралық
өт
uil
окс
қаб
▁ви
▁alm
жылды
▁киім
▁direc
▁еткен
аларында
▁жасанды
▁прокуратур
дұ
lar
ool
кері
ельді
▁polic
▁мағын
▁қатысуы
▁парламенті
▁саясатының
▁экономикасының
льф
ақтау
ляция
▁ауыз
▁оңай
▁сілт
елеген
▁нығай
▁теріс
▁өзіне
▁жылжым
▁фактор
▁бірлесе
▁желілік
▁телефон
▁біріктіру
▁қабылдады
едур
▁фарм
алармен
▁фестив
▁басында
▁отырысы
▁зияткерлік
әб
▁чем
▁синг
▁алаңы
▁тілін
▁елдегі
▁жоғарыда
▁кетерлік
▁қолданып
▁шв
амды
▁математика
▁агроөнеркәсіп
gr
кез
тте
lish
қайс
данды
▁шолу
▁great
▁чемпи
▁артады
▁ортада
▁етілген
▁баламалы
▁тақырыбы
▁балалардың
ею
▁дж
▁өрн
ейміз
▁very
▁нысаны
▁консуль
▁басталған
▁максималды
▁сипаттамалары
▁Оң
▁сары
термен
▁ақтау
▁график
инамикалық
▁ауғанстан
▁стратегиясы
▁ауылшаруашыл
▁интерактивті
ific
rain
▁сату
▁шлак
▁қуат
ысымен
▁мүлік
▁аумағы
▁деклар
▁тұрғыз
▁әкімінің
▁тұрғындары
▁жұмыстарына
▁tw
▁ду
▁саз
▁жібек
▁пайызды
▁көліктік
▁балабақша
▁қарастырылып
▁медал
▁үстел
лығының
▁неғұрлым
▁қолданудың
▁географиялық
2-
ew
лог
▁emp
▁дсұ
▁қож
▁қхр
▁lead
▁валю
▁тану
▁түрін
▁дәстүр
▁алгоритмі
▁(1)
▁hol
▁фин
▁қалдық
▁болдырм
▁republic
ДЕ
дб
▁Үл
ents
▁ann
▁лит
▁итал
▁конф
▁есебі
▁отырады
▁жазылған
▁тапсырмасы
дм
▁егі
▁шың
шыларды
▁мәндері
▁түсінік
▁қазагро
▁құрылымын
▁жақсартуға
▁көмектеседі
▁сипатталған
▁материалдарды
▁кг
ықтыр
▁меди
▁индик
аттарын
▁деңгейге
▁параметрлері
мар
▁can
▁Кір
араби
деліп
▁орындауға
▁sm
▁Өз
rial
▁орыс
▁судья
▁қабат
▁өнімі
▁меншікті
▁анықтайтын
▁қолданбалы
абр
▁жіө
▁кал
▁need
▁барлау
▁кешенін
▁курстар
▁қалыпты
▁топырақтың
▁құжаттарды
▁қабілеттілігін
▁қатысушылардың
fe
екен
▁cur
аймын
бұрыш
▁етуі
▁ауқым
▁мәнін
▁тіпті
▁берікт
▁болжау
▁жетеді
▁нормативтік
8]
рс
ism
яды
▁аө
ттан
▁боя
▁group
▁level
қаралық
▁сіздің
▁жетекшісі
▁мамандары
▁біліктілік
▁дайындалған
▁41
▁эн
▁ән
істе
▁ұлыб
▁сабақ
▁өсіру
▁жерлер
▁істері
▁жекелеген
▁implementation
аген
енко
▁жолын
▁импор
▁Біздің
▁артқан
тациялық
▁мөлшерде
▁құрметті
▁болатынын
▁енгізіледі
▁Ай
▁ену
▁expo
анатын
елеріне
▁топтар
ықтардың
изациялау
▁жиналған
▁процедур
▁investment
жи
тум
ning
ингі
▁био
▁тағай
ағдарлам
▁көбінесе
▁әзірленген
дын
фей
▁up
▁met
індеме
▁жаңалық
▁орналастыр
▁қазақстанды
бул
▁56
ария
▁кәр
▁асып
▁поли
▁түсіну
▁сарапшы
▁экстрем
▁ministry
▁жыныстар
▁саясатын
▁қажеттілігін
▁веб
ultan
▁одақтың
▁шымкент
▁айналысатын
▁тәжірибесін
▁ұлыбритания
▁хабарлауынша
tal
▁ты
▁гра
▁етп
▁мезг
▁тиес
▁үнді
▁батыр
▁отыру
▁қонақ
▁салдарынан
▁транзиттік
▁қабілеттілік
ЕМ
ари
▁иг
▁по
▁2009
▁қасым
▁шартты
▁ылғалды
▁төртінші
▁сигналдар
▁стандартты
▁ақпараттандыру
імі
ісп
▁пор
▁city
▁араб
▁қатаң
ultural
▁Кілттік
▁тәртібі
▁бұрғылау
▁кездесті
▁шарттары
ократ
▁күші
▁қайыр
▁қуаныш
▁позиция
▁салаларындағы
70
te
▁Пр
▁бри
▁риз
амбет
▁sect
▁тарм
▁inform
▁тыңайтқыш
▁250
ility
▁елші
▁фабр
itions
▁тұлға
▁energy
▁шабуыл
▁мақсатта
ффуз
▁600
▁ағз
▁кли
атыны
жанов
▁тиесілі
адық
▁пой
лаған
▁қосып
▁процесінің
▁қолдауымен
.,
шық
▁типт
дерден
▁құрғақ
▁кезекті
▁табиғат
▁енгізуге
▁координат
▁салаларда
▁өндірістің
▁комиссияның
▁инфрақұрылымды
әл
ине
еуге
▁шқо
жігер
ымдар
юминий
▁телек
ландшаф
шілігін
▁паралл
▁қайтал
▁операциялық
▁бере
▁қозғ
▁өлім
▁шынайы
▁сақтауға
Вт
бан
ерв
орд
терімен
▁ауытқу
▁елінің
▁мәскеу
▁логикалық
▁отырғанын
▁астанадағы
жо
▁Кей
енция
иннің
әдени
▁датчик
▁Қазақстанда
АС
▁Он
▁Тө
▁бил
▁мұқ
гінгі
▁гектар
▁қуатты
▁Осындай
▁теңдеуі
ank
огенді
▁қорын
▁трансп
▁өнімін
▁салынды
▁ресейлік
▁стандарт
▁сағынтаев
▁мамандықтар
▁құзыреттілік
▁ma
одты
▁Авт
▁нәр
▁үмі
▁бірін
▁алмайды
▁аграрлық
▁мақсатқа
▁балаларға
▁графикалық
▁деңгейінің
▁әрекеттесу
loy
▁пеш
▁түп
▁қис
алдау
текті
ниттік
шалықты
▁шақыру
▁шығады
▁қолданады
▁әзірленді
құқ
▁53
ияны
сінде
▁буын
▁клуб
ымызға
▁ашады
▁ретті
▁сенат
▁аудандық
▁жасалады
▁Түйіндеме
▁шаруашылығын
▁tur
ланады
▁тілді
▁диаметр
▁кіретін
▁ландшаф
▁уақытқа
▁экспорттық
▁концентрациясы
аю
▁й
▁who
▁цент
▁modern
▁фосфор
▁күнделікті
▁маңыздылығы
▁оф
септ
ұрық
▁оқып
▁күшті
▁болмауы
▁жұмылды
▁сипаттайтын
▁функционалдық
дакт
▁rec
▁көріп
▁оқушы
▁өсімі
гіндегі
▁эффект
▁әрқайс
▁жайында
▁жаңадан
еттерінің
▁аяқталған
▁есептеулер
▁жүйелерінің
▁коммуналдық
9]
илл
▁ті
▁цех
▁Ұсын
ерлігі
▁армен
▁пойыз
▁үлест
ілмеген
▁техник
▁есептің
▁көрмесін
▁инфрақұрылымын
45
ok
ДЫ
▁аң
ұлды
▁куә
▁мүл
▁моди
мәдени
▁Мұнда
▁автоб
▁ақпан
▁белдеу
▁дизайн
▁foreign
▁жетімді
23
атау
▁now
▁күз
емент
▁open
▁егін
лармен
▁these
▁сынақ
▁market
▁зердел
▁студент
▁фракция
▁сапасына
▁басқарушы
▁жабдықталған
рк
▁65
▁ұй
▁nec
▁Кел
▁тұн
ғаның
▁buil
▁дәрі
▁класс
▁қағид
▁орналасу
▁бағыттарын
ind
▁алғы
▁газды
▁тамақ
▁жүреді
▁отбасылар
▁сапасының
▁төмендеуі
▁қызметтердің
olog
итті
▁зон
▁марк
▁пунк
▁алмас
ахметов
▁жандар
▁асырылуы
▁бөлігінде
▁жандандыру
1-
4)
ath
▁2,5
▁ете
▁жазу
▁түлект
▁ұсыныс
▁Жоғарыда
▁энергияны
▁өткізіледі
1)
ағыш
▁хлор
денген
діқалық
▁күшейт
▁кездегі
▁самұрық
▁алматыда
▁бұқаралық
▁кездесуге
▁келесідей
▁алушылардың
▁басымдықтар
▁бағдарламалау
▁тапсырмаларды
ИК
ибр
яси
ожүй
▁400
▁fund
есінен
▁necess
аттарының
▁алынатын
▁қатынасы
▁сипаттамасы
now
▁95
гілі
идті
олар
▁two
▁disc
ession
▁берік
дығының
▁көруге
▁бюджетке
▁бәйтерек
▁байланысы
▁жылдығына
▁нақтыланған
▁қаржыландыр
ауды
ердің
ұлдыз
▁well
▁visit
▁номин
▁бағалы
▁үрдісі
▁process
▁increase
▁құбылыстар
▁металлургия
▁институтының
▁жекешелендіру
▁департаментінің
ful
▁49
▁ми
▁Күн
алиев
ыстан
▁елге
▁жерге
▁моноп
дігінен
естігін
▁аудару
▁форумы
құқықтық
▁бөлініп
▁полиция
▁тәрізді
▁теориясы
▁қолданысқа
▁орталығында
▁аналитикалық
▁эы
▁inf
▁жаст
ультим
▁аралығ
▁тәулік
▁лауазым
▁белгілер
▁марапатт
▁жағдайына
министрінің
▁архитектур
▁57
▁ик
▁кә
▁sol
денең
мейді
▁nurs
▁ұялы
қандай
▁оқиға
▁робот
▁шекті
▁issues
▁болсын
▁есептел
шілігінің
▁education
▁кеңейтуге
▁қатысатын
▁қатысушылары
▁парламентаралық
ДА
▁ra
alth
апур
сорб
штаб
қында
▁мықты
▁global
▁кремний
▁басымдық
▁таралған
▁құрылады
▁жүйелерді
▁мәжілісінің
▁технологиялары
евт
▁ба
▁0,9
▁сүр
қсанда
▁ірікт
▁comple
▁білдіріп
▁долларды
▁енгізуді
▁жағдайға
▁танымдық
▁ортасында
▁қоғамдаст
▁менеджмент
▁процесінде
▁өкілдерімен
▁пайдаланылады
▁do
шаның
▁екін
▁спор
▁Мақал
▁policy
▁жіктеу
▁ашылады
▁елдерде
▁сыйымды
▁қиындықтар
▁палатасының
%)
шет
тігі
шама
▁Қыз
▁тұру
дермен
▁Кіріс
▁қойып
аланған
▁сандар
▁сөйлеу
▁әдетте
▁орталығын
▁керектігін
▁көрмесінің
▁әкімдігінің
▁пайдаланудың
бі
йд
шам
▁Қор
▁диап
▁trade
▁үйрету
▁кететін
▁сайынғы
▁кітапхан
▁құрастыр
2)
-10
▁Ел
▁est
▁Техн
ention
▁Бүгінгі
▁уақытын
▁экспортт
▁қабілеті
▁nursultan
▁басқармасы
▁әдістемесі
▁салалардағы
▁параметрлерін
▁but
▁гип
▁ник
шілес
▁көкт
тандыру
▁комбин
▁салынып
▁диаграмм
▁интерфей
pos
лей
мам
фаль
▁Таб
▁был
альді
▁жіберу
▁қарсаң
▁жолымен
▁оқытуды
▁relations
▁түріндегі
▁құттықтау
▁толықтырды
▁партиясының
▁ерекшеліктерін
2]
қыұ
анып
тамыз
▁offic
▁іскер
▁импуль
▁тәрбие
▁полигон
▁агенттік
▁шығаруға
▁өкілетті
▁біріншіден
▁талаптарға
▁элементтері
▁бастамасымен
▁ерекшеленеді
▁парламенттік
arm
gth
ating
▁алты
▁ұлғаю
▁within
▁ұтымды
▁бағытында
▁орындалады
дель
▁зат
орган
▁such
▁пери
енттің
▁жатқыз
▁анықтап
▁көздейді
▁көрменің
▁тығыздығы
▁тәрбиелеу
▁күштерінің
ame
ned
ork
▁Ең
▁law
▁фир
дікті
▁аэро
▁докт
▁еқыұ
егейлі
▁болғанда
▁деректері
▁пікірінше
▁қабылдауға
аку
▁ма
тыру
▁Бол
▁пат
▁ойым
▁agric
▁жерді
▁сульф
▁өскен
▁айтылды
▁жылдығы
▁нейрондық
▁қызметкерлердің
сел
▁Су
▁күл
▁уағ
зиялық
▁жұлдыз
▁каспий
▁тұтаст
ектердің
▁төрағалығы
▁университет
▁ұйымдастырылды
22
ugh
жұм
май
▁Ау
▁шаш
ектік
▁файл
▁штаб
▁артуы
▁диффуз
▁жолмен
▁күрдел
▁current
▁жататын
▁жағалау
▁салмағы
▁ықтимал
▁азиядағы
▁байқауға
министрдің
▁қабілетін
▁industrial
▁жеткізілді
arge
▁сани
▁шықты
еленген
▁strate
▁журнал
▁уағдал
аларымен
▁бірлігі
▁шешудің
▁үндістан
▁балаларды
aty
еля
жел
кең
▁эв
өндір
▁1000
▁every
▁other
▁жасқа
дерінен
▁индексі
▁болмаған
діқалықова
▁энергиясының
▁үкіметаралық
▁материалдардың
йр
▁нөл
ейтой
жатты
▁partn
▁үйлер
ектерді
▁тазалау
▁өндірісін
▁құттықтады
min
быр
пия
▁пил
▁сей
гінді
далады
▁фармац
▁асырады
▁объекті
▁сингапур
▁өнімдерді
▁тәуелділігі
эм
бал
▁120
▁вект
▁эыдұ
птеген
▁кесте
▁хатшы
▁сауатт
▁өзгерт
естіктің
▁депутат
▁көрініс
▁орнының
▁істеуге
▁қыркүйек
▁асырылатын
СО
loc
алай
▁[6]
▁аэа
▁only
▁activ
▁Есепт
▁әрине
ықтарды
▁білімі
▁етілді
▁өтінім
▁аурухан
▁басымды
▁уақытша
▁қызықты
▁Оңтүстік
▁мерейтой
▁бастамасы
▁басшысына
▁кешенінің
▁таныстыру
▁туындайды
▁міндеттері
▁54
абына
▁әліп
ларымен
▁астананың
▁түбегейлі
▁қозғалысы
▁кездесетін
▁тәуелділік
▁өнімділігі
мең
стері
▁зиян
▁өтуде
▁Барлық
▁іздест
шыларының
▁министрдің
▁облысындағы
▁серіктестер
1]
бит
▁85
ater
тқан
▁түзу
▁жағым
▁контур
▁өсуіне
▁банктің
▁маманды
▁қатынас
▁ақпараттың
▁түсіндірді
АҚ
га
▁sin
▁дал
▁айналады
▁белгілеу
▁басшыларының
▁бағдарламалары
сал
tives
▁Оқыту
▁австр
▁арзан
ацияның
▁болуға
▁диапаз
▁атамекен
▁мамандық
▁дегеніміз
дәр
▁ны
ious
▁көші
кістан
омәдени
▁алудың
▁general
▁жасалып
▁құраған
қатынасты
▁асыратын
▁туристер
▁тәсілдері
▁жаңартылатын
км
ter
еме
онт
▁98
▁99
баст
олиз
бірек
▁бәрі
▁enter
▁әлсіз
лерімен
▁intere
▁бастысы
▁білімін
▁regional
▁пайыздық
▁төмендеді
▁құқықтарын
▁температурада
десу
ияда
▁dif
▁Бал
▁ваг
▁күм
-2018
ality
epend
▁citi
▁good
▁жеңіс
▁айтуға
▁саммит
▁қорытп
▁бақытжан
▁салалары
▁қарсаңында
▁қолданылуы
▁жүйесіндегі
▁аралығындағы
▁материалдары
▁технологияларын
ЛІ
кар
ынш
▁ak
▁теңг
імізге
▁жатырм
▁сұлтан
стемелік
▁univers
▁асыруды
▁бейімдел
▁өңірдегі
▁51
-2016
егіне
ерлеу
қашан
▁мырз
ablish
ентген
▁тараз
ulation
▁discuss
▁әртарап
шылығының
▁independ
▁алюминий
▁аяқталды
▁necessary
▁олимпиада
▁хабарлайды
▁міндеттерін
▁бағдарламаларды
оци
▁vi
▁дос
▁hous
▁кибер
▁қосты
▁тартуға
▁қателік
▁демократ
▁establish
▁материалдарын
▁ратификациялау
ph
ced
ild
жаб
▁97
аулы
▁алуы
альдық
▁school
▁ауыстыр
▁көлденең
▁табылған
▁фармацевт
▁экономикаға
ықтау
▁stud
▁ақша
▁құқы
▁start
▁макро
▁күшіне
▁тәсілі
▁құқығын
▁универси
▁бағалауға
▁институттар
▁эксперимент
▁технологияның
ресс
udget
▁know
шараға
ықтағы
▁total
▁кабин
▁сирек
▁алынып
▁жылыту
▁науқан
▁нұрлан
▁әуежай
▁түйінде
▁ешқандай
▁кеңестің
▁өндірісті
ite
зер
алту
ірім
▁мұз
иясын
▁жікт
▁large
▁көбей
▁көшір
▁сынау
▁шарты
▁ескеру
▁етіледі
▁көбірек
▁тіршілік
▁кетерлігі
▁гуманитарлық
co
▁30-
▁етуде
▁жапония
▁қышқылы
актикалық
▁әдістерді
ving
тығы
ысов
▁[7]
білім
екция
▁held
ential
▁қатер
▁түріне
▁украин
▁шеттік
▁еуразия
▁оқытуда
▁дамытуды
▁жүргізуде
▁этномәдени
гіп
пақ
▁қк
мелі
▁тіледі
▁Кіріспе
▁кестеде
▁көлемде
▁міндетін
▁өткізілген
▁қолданылған
▁геометриялық
▁ұйымдастырылған
Si
me
бон
вол
▁59
ондар
▁дәліз
ылмаған
▁budget
▁instit
▁қойнау
▁көлемді
▁масштаб
▁фазалық
▁оқушының
▁есептелген
▁стратегиясын
▁қанағаттандыр
ец
бей
▁58
ants
оңыр
палы
рсет
▁20-
▁cor
▁лиц
▁ның
шалар
▁ахмет
▁болуын
▁мекеме
▁қабырғ
алдардың
▁жаттығу
▁сұраныс
▁украина
▁тартымды
▁аймақтағы
▁реформалар
жын
нде
▁бе
ырын
▁(1-
▁(2)
▁пыс
▁азот
▁радио
▁қалды
▁ұстап
▁беттік
▁контейн
▁қатарлы
▁ұжымдық
▁талаптарды
▁заңдылықтар
▁тұлғалардың
▁біліктілігін
ры
гей
ейц
▁ri
кемен
▁cond
▁шлам
▁order
▁түйір
▁almaty
▁бойында
▁addition
▁форумның
▁бақылауға
▁азаматтарға
▁жетілдіруге
5)
eb
шұ
▁Мо
бран
өмір
▁сир
бетов
менті
▁кепт
ықтығы
▁improve
▁армения
▁industry
▁қызметкер
▁компаниялары
les
илин
▁tas
▁ісін
▁қант
атордың
▁алдына
▁тапқан
▁жемісті
▁катализ
▁тұлғалар
▁бөлінетін
▁мәселесіне
▁мамандардың
▁жетістіктері
▁республиканың
ье
▁66
lear
▁Тур
rough
ронды
▁ерте
гіштік
дастыру
▁күніне
▁көктем
▁шешуде
▁жеткілік
▁функциялар
▁ҚР
▁жүл
▁фильм
▁қабық
▁табыст
▁шамасы
▁бастама
▁күндері
▁элемент
▁істеуде
▁дағдарыс
▁жатырмыз
▁тапсырыс
▁тоқталып
▁ғарыштық
ЕТ
эн
eti
ture
шарт
▁жобаға
▁импорт
▁сүйене
▁қалада
▁жерлерде
▁transport
▁құттықтап
▁қозғалтқыш
▁экономикасы
▁6-
▁Үш
▁Сыр
▁зал
▁исп
▁Қол
▁ұкп
-2015
сынды
▁Жаңа
▁Аталған
▁сөзінше
▁орталықтары
▁пайдаланылатын
лад
▁78
метр
▁гру
сивті
өткіз
▁center
▁базасы
▁Жұмыста
▁автожол
▁аталатын
▁commission
▁Республикасы
▁бағыттарының
▁сәйкестендіру
▁қызығушылығын
тқ
oint
ажай
▁салып
▁growth
▁сәулет
▁лайықты
▁interest
▁арттырып
▁асырылған
сс
▁мг
▁мег
▁сым
▁тот
лауға
▁таяу
▁салды
құрылым
▁табуға
▁таңдап
▁орындық
▁депутаты
▁көзқарас
▁отырыста
емлекеттік
гуманитарлық
▁тұжырымдамасы
▁артықшылықтары
окси
тест
▁inv
▁Адам
▁визу
дандыр
әрекет
▁тағам
▁италия
▁өскемен
▁өңдеуге
▁айнымалы
▁елдерінде
▁құралдарды
▁өнімдердің
ek
ety
ond
ұрт
▁жам
менов
rength
▁алуды
▁оқшау
ындығын
▁резерв
▁тұрақс
▁тапсыру
▁есебінің
▁өндіруші
▁мектептің
▁дағдарысқа
лин
▁ео
orts
▁ұшу
roduc
▁2008
▁окру
▁шифр
ulture
ілуіне
▁сауал
▁сіңір
▁сүйен
▁жетісп
▁competi
▁мультим
▁strength
▁дәрежеде
▁нарықтар
▁монополия
пау
▁52
одақ
проц
▁pop
▁Қал
алуда
▁паци
▁сулы
ақтану
▁көкөн
▁мырыш
тталған
▁асфаль
атикалық
▁базасын
▁реформа
▁companies
▁агенттігі
▁саналатын
▁шу
▁Топ
▁атс
▁ақау
▁робо
▁тақт
▁health
▁sector
▁әліпби
▁негізде
▁өңдеудің
▁мерекелік
▁логистикалық
▁функционалды
Ал
тк
ail
ысу
комп
▁Бел
▁аөк
шінің
▁Кілт
алуына
▁since
▁train
▁енген
▁жасай
▁тоқсан
▁айқында
▁ұзақтығы
▁екіншіден
▁жеңілдету
▁оқулықтар
▁ресурстары
▁көрсеткіштерін
17
уст
▁Со
▁ұс
тран
▁дет
▁алек
▁етуді
▁шебер
▁атсалыс
▁мәлімет
▁стацион
▁дамытуда
▁долларын
▁қорғасын
▁процестерді
▁id
ешев
огаз
аторы
▁бюро
▁ахуал
▁оқуға
▁құруды
▁әңгіме
гершілік
▁бөлісті
▁жасауда
▁әдіспен
▁products
▁тұрғындар
▁келісімнің
▁Нәтижесінде
▁жеткізілген
nov
жас
мұн
▁te
ежел
тивт
▁citiz
▁дәуір
▁құпия
▁employ
▁асырылу
▁мазмұнын
▁ақпараттар
▁шешімдерді
▁кәсіпкерлердің
hib
ina
one
rib
иен
▁Өл
▁ест
▁музык
▁жалғас
▁осының
▁including
▁энергияның
▁коэффициент
▁цифрландыру
▁өнімділігін
бр
als
▁Сә
▁doc
▁into
діктен
▁child
▁минут
▁сапалық
▁алдындағы
▁жеткізген
▁сіздердің
▁түрлендір
▁ілгерілету
▁жаңартылған
▁интеграциялық
▁төрағалығымен
▁Еур
аттану
лықтың
▁inter
▁аудит
▁жарқын
▁жәрмең
▁ондағы
▁салуға
▁өлшемі
▁шараның
▁шығатын
▁саясатты
▁сипаттау
▁қосылады
▁тұрақтылықты
au
ций
пелі
▁last
▁барып
▁дерек
▁Әрбір
▁біршама
енттердің
▁нысандарды
▁қарастырып
16
аңыз
▁dist
▁meas
▁влад
изикалық
▁minister
▁кепілдік
▁тәжірибені
▁өсімдіктер
едагогикалық
рг
қол
▁Құ
pris
▁хан
алуын
▁дала
▁кесу
ландыр
▁мінез
амбетов
▁көркем
▁басылым
леуметтік
▁суреттер
▁үдерісін
▁тиімділік
▁өткізіліп
▁жүргізілетін
▁психологиялық
ved
▁10-
▁sci
▁шекара
▁өтілді
▁демалыс
▁Көптеген
▁жастарды
▁орындалу
▁құқықтары
▁үйлесімді
▁түсіністік
ble
лет
▁63
▁той
▁балл
▁сайт
▁қауп
естері
▁тоқаев
▁address
▁Тәжіриб
▁орындар
▁ресейдің
▁қолданатын
ЕН
▁сел
балар
еймін
▁виде
ымызда
▁одағы
▁ыстық
▁диспер
▁медаль
елерімен
▁service
▁үрдісін
▁айналған
▁аумақтық
▁холдингі
▁қызметке
▁increased
▁тигізетін
▁орталықтың
акс
гид
имир
▁шал
-2019
▁арен
▁асыл
▁finan
ыстарды
▁ашылуы
▁жүйеге
▁интерв
▁мектеб
▁қойылым
керлердің
▁бастайды
-19
нит
ңір
▁no
ияға
▁equ
▁Жүй
атрий
лыққа
мысалы
▁жалақ
▁орман
▁уәкіл
▁ылғал
шысының
▁етудің
▁қосылу
▁Математ
▁алмасты
▁көбейту
▁өзгеріс
▁конвенция
▁қолдануды
▁федерациясы
▁тұрғындардың
бар
зал
рад
▁Ес
▁ги
апқы
денс
імов
атады
ылуға
індеп
▁they
▁арақ
▁каль
▁agree
▁appro
▁Ресей
▁алуда
стардың
▁бөлшек
▁шаққан
▁жұмысшы
▁нәтижелі
▁ғасырдың
▁басқаруды
▁ықтималды
▁жоспарының
▁деректердің
▁құрылысының
мақ
армай
ағынан
▁неміс
▁серік
▁жақсарт
▁алаңында
▁көпшілік
▁мектепте
▁статистика
▁байланысқан
▁жеткіліксіз
▁пайдалануды
коммуникациялық
18
ase
арн
тон
уін
мбеб
маған
елерге
қазына
▁ерлан
ақтарды
▁жүйелік
▁саланың
▁құрудың
▁еңбектер
▁негіздері
▁түзетулер
▁қалыңдығы
▁қабылдаған
әу
▁68
шетау
қанды
▁hist
▁russ
▁плен
▁қайт
терлік
▁union
▁типті
▁ішінен
▁жүретін
▁introduc
▁жобаларға
▁нысандары
go
ady
ско
шақ
▁73
ties
имум
осым
▁тай
дайым
ханов
ілуін
қатер
▁план
▁әлде
етінен
стерді
▁жиынт
▁келер
▁шығып
▁үйдің
алдарды
▁planned
▁басшылық
▁кездесуі
еханикалық
▁дәрежесін
▁орындалуы
▁санитарлық
▁тапсырмаларын
▁әртараптандыру
per
мұх
асан
▁каз
ision
ебебі
▁bank
▁фирм
▁шыны
▁exhib
▁швейц
▁ізден
▁commun
▁айының
▁акцион
▁біртұт
▁балқыту
▁чемпион
▁қасиеті
▁орнатуға
▁микроскоп
▁сараптама
ord
жүй
таң
хат
▁bo
uras
▁бап
▁нейт
▁өсір
мбебап
▁айтар
алмаған
сындағы
▁авиация
орларының
▁палатасы
▁көпшілігі
▁артықшылығы
ох
its
ral
соқ
▁67
ency
алым
▁fut
▁гер
▁лок
▁бөліс
▁ойлай
▁Ғылым
▁қамты
▁заңына
▁қалады
▁есеппен
▁тудырады
▁өнімінің
▁басқаруға
▁жиынтығын
▁орындалды
▁шығындарды
▁қалаларында
▁қатынастарды
кс
оқу
▁vol
▁Жел
үйсен
▁Жылу
▁басс
ттарын
▁elect
▁ашуға
▁ұстаз
▁politi
▁құқығы
▁беріліп
▁рентген
▁қатысуда
▁өзгереді
▁strengthen
ax
раг
▁sub
▁АҚШ
▁Кон
▁мом
▁рей
▁соқ
қалып
▁2025
▁real
дендіру
еменшік
▁repres
▁нұсқау
▁regions
▁өмірлік
▁бөлімінің
▁жұмысымен
▁өзгеруіне
▁аспектілер
▁білімдерін
▁насихаттау
▁экстремизм
▁басшылығымен
▁факторлардың
до
ки
uro
ered
▁Дер
▁чех
urity
імдік
ттерді
▁сұрып
▁қысқы
▁әрдайым
▁жүргізген
▁клиникалық
ide
кесте
▁апта
тоқаев
▁future
▁ауаның
▁шығыны
▁бағытын
▁орнықты
▁көрінісі
▁шығарады
▁үкіметке
▁аяқталады
▁зерттеудің
▁түрлерінің
▁программалық
▁тәртібіндегі
▁қатысушыларға
▁қорытындысында
ied
ange
алқы
▁col
▁set
▁суы
istan
етнам
иметр
▁ашып
▁соғы
ингтік
ақтарын
▁аралас
▁польша
▁саланы
▁present
▁жарамды
▁астанаға
▁тартылған
логистикалық
▁ph
ight
▁900
▁air
шығыс
▁Баст
▁абай
▁аккр
▁науқ
▁оқыт
ісінше
▁euras
▁алдық
▁кетті
кестеде
▁цемент
▁қолбас
әдістемелік
▁жағдайларды
▁ұйымдарының
гал
оти
▁69
▁Мұ
бағы
▁Дем
▁шат
атуға
▁кеңс
▁ағыны
▁плазм
▁тотық
▁сигнал
▁Интернет
▁жолындағы
▁шығарылатын
▁бағдарламаға
▁федерациясының
▁бағдарламаларын
24
мыр
ular
игур
дағыш
меген
▁conc
▁дана
ектегі
▁келуі
▁малай
▁символ
▁measures
▁азайтуға
▁баяндама
▁бюджеттің
▁белгіленді
▁нысандарын
▁тәсілдерін
▁академиялық
ОЛ
▁экз
иялар
раиль
▁жабын
лігінде
орданың
▁қордың
▁айналып
▁бірігіп
▁биіктігі
▁владимир
▁тұлғаның
▁қызметтерін
aly
gin
быз
иялы
▁Екі
▁pers
▁азаю
▁серб
▁initi
▁Табиғ
▁Себебі
▁аяқтау
▁икемді
▁capital
▁бағасын
▁телеком
▁пилоттық
▁тәртібін
▁өздігінен
ca
ақп
қал
ағай
удің
▁fac
▁Сын
жейлі
▁ұсақ
айтынын
баевтың
менстан
▁consid
▁таралуы
▁белгілен
▁шеберлік
иологиялық
▁developed
▁represent
▁адамдарды
▁алмастыру
▁біртіндеп
▁іздестіру
▁тұрақтылығы
▁әдістерінің
игі
▁64
▁ли
▁ісі
▁resp
▁Абай
▁комис
▁беруде
▁тізімі
▁бетінің
▁пайызын
▁партиясы
▁conditions
▁қаншалықты
▁қарастырайық
▁комиссиясының
АЖ
▁1)
ырма
▁50-
▁aim
▁гор
▁эст
▁құт
▁ахқо
мейтін
істері
▁innov
▁күшін
лығымен
▁states
▁портал
▁services
▁алмастыр
▁жоғарылау
▁заңнаманы
▁сәулелену
▁атмосфералық
мон
тұр
ырлы
▁800
▁алыс
імізде
▁event
▁жамыл
▁конгр
▁мәнге
▁байыту
▁бөлімі
▁нарықта
▁enterpris
▁мақсаттары
▁қаңтарынан
▁параметрлер
▁zh
батт
жеке
қара
▁day
ылмақ
Фараби
дардан
▁Халық
▁жолға
▁күміс
▁істей
▁атаулы
▁барысын
▁толтыру
▁өткізіп
▁туризмді
▁шаралардың
▁тұрақтылығын
▁қазақстанмен
дро
▁ев
ield
инді
▁550
▁Про
▁төс
stand
плиту
▁егжей
▁күннен
▁спикер
езиденті
▁орнында
▁форумға
▁оператор
▁ғаламдық
▁Компьютер
▁бекітілді
▁жүргізеді
▁коммуникация
▁белсенділігін
▁ынтымақтастығын
▁1,2
▁отт
анның
▁биік
▁морф
▁осын
▁прог
арстан
▁заряд
▁contin
▁беруші
▁сипаты
▁сөзсіз
▁барлығын
▁қоспалар
▁талаптары
▁құрамының
▁кәсіпкерлерге
14
▁итер
▁марш
▁тегі
лемдік
ьетнам
▁тыйым
▁құбыл
▁бактер
▁organiz
▁қосынды
▁орынбасар
▁процесіне
▁қалыптасуы
▁өткізілетін
▁айырмашылығы
▁коммуникациялық
man
рий
▁76
▁700
▁вел
▁шан
матул
туден
▁2030
atives
▁Төмен
▁лицен
▁ханды
▁өтуге
шілерге
▁заңсыз
▁көлігі
▁нарығын
▁қысқаша
ықтандыру
▁бағалады
▁келешегі
▁көкшетау
▁құзыретт
▁уақытында
▁белсенділік
▁сертификаттау
▁экономикасына
итр
▁05
атом
есіз
▁sit
▁ана
терде
▁үйін
▁ұқшұ
ктивті
▁басып
шылықты
▁антроп
▁бетіне
▁орнықт
▁салынады
▁тереңдет
▁нәтижесін
▁толыққанды
▁көрсеткендей
ms
тж
▁1,1
▁сах
▁ығы
імнің
▁ақыл
▁оқыл
▁сыйл
▁legal
▁жинақ
▁тырыс
▁жалпыл
▁идеясы
▁диапазон
▁композиция
▁төмендегідей
ium
ood
лып
▁Si
▁др
ектеп
ендір
ермен
ғарыш
▁үйді
▁ұзын
елетін
▁басын
▁біркел
▁көрсете
қатынастың
▁айналдыру
▁саясаттың
▁туындаған
▁information
▁бағытындағы
▁пайдаланады
ва
ron
▁ЖЭ
▁road
▁Жұмыс
▁шұғыл
▁Өндір
▁әлемге
▁қосалқы
▁үстінде
Қазақстан
▁зауыттың
▁нысанның
▁Республик
▁мәдениеті
▁аумағындағы
▁жылдамдығын
▁қауымдастығы
▁eff
▁рол
қауіп
▁100-
▁экск
ership
ressed
спірім
▁жұмыр
▁опера
▁өзені
▁ойымша
▁ұзақмер
▁принципі
▁серпімді
▁қолданған
▁кәсіпорындары
90
ile
йық
▁жж
▁рф
олит
імсіз
▁cour
▁бриф
▁класси
▁реглам
▁бетінде
▁екеніне
▁жолының
▁отырғыз
▁тоннаны
▁ұйымдары
▁бақылауды
▁нарығында
▁сауықтыру
▁тереңдету
▁материалды
▁тауарларды
▁әзірбайжан
▁айтылғандай
▁проблемалар
▁президенттік
лов
рын
шек
ішке
▁дән
езқаз
інеді
▁2005
▁пәні
▁әбіш
герлер
▁заңның
іміздегі
▁кооперат
▁өңделген
▁модельдер
▁айнымалылар
.5
SO
▁Ұл
ieve
лянд
▁ach
▁Хим
▁жеті
▁көру
▁шама
▁заңға
▁proble
▁аттест
▁біріне
▁кескін
▁ортасы
▁уақытты
қазақстан
▁ауылында
▁кеңестер
▁тұрақсыз
▁қозғалысын
▁өзгертулер
▁жалпыұлттық
▁субсидиялау
▁температуралық
рл
▁87
▁gr
▁Қо
адам
арлы
▁ара
▁тат
▁шөл
▁2000
атегор
бекова
▁карта
ытылған
▁күннің
▁through
▁мембран
▁әмбебап
▁мәліметі
▁адамдарға
▁болдырмау
кес
▁му
▁maj
▁дың
▁сақ
▁тра
орған
▁нидер
▁тұрып
▁experi
▁success
▁вьетнам
▁жылулық
▁массасы
▁байқалды
▁құрамдас
▁тәулігіне
▁ақпараттарды
▁сипаттамаларын
▁бағдарламасында
ропа
едитт
кезең
▁fact
▁курс
▁күту
▁нөмір
▁түзет
▁ғалам
▁Студен
▁аралап
▁асатын
▁ағынды
▁басына
▁мүддел
▁алғысын
▁моделдеу
▁атқаратын
▁термиялық
▁exhibition
▁назарбаевқа
▁тұтынушылар
▁таныстырылды
ЫЛ
emb
err
▁74
▁86
▁br
▁xx
▁oil
▁пре
▁қтж
игиен
ілмек
олюция
уляция
өндіру
▁демек
амыздың
терінде
▁құрама
ыстардың
▁артуына
▁дәрілік
▁children
▁маусымда
▁нарығына
▁көшбасшысы
▁өндірістер
▁пайдаланатын
▁тұрақтандыру
▁ұйымдастыруға
авт
ақш
ози
▁72
cial
▁вок
▁мын
лануы
▁many
▁prep
▁жақсар
▁қорғал
▁үзіліс
▁әділет
▁амплиту
▁бастығы
▁израиль
▁қазанда
▁eurasian
▁заттарды
▁проблемалық
▁қайырымдылық
▁cl
▁об
▁дом
▁тим
ection
даймыз
ғылары
▁көшіру
▁created
▁бассейн
▁үдерісі
▁орталықтан
▁патриоттық
▁төмендейді
▁қызметтері
▁жарияланған
▁сараптамалық
▁жетістіктерін
▁интеллектуалды
pt
ТУ
▁Fe
▁ұб
-2014
абаев
ирург
▁prof
▁парк
▁балан
▁вагон
▁еңбегі
▁палата
▁ахметов
▁шөгінді
▁белгісіз
▁бермейді
▁жылдығын
▁шығарылған
▁қарастырамыз
▁ауылшаруашылық
ән
піш
ышы
▁83
▁без
▁мәм
сандр
құлов
▁қараш
▁қоспа
ғындағы
өспірім
▁айтсақ
▁кездей
▁концеп
елерінде
▁қыздыру
▁security
▁организм
▁сынақтар
▁қатынаст
▁жүргізуді
▁органдарға
▁температураның
ио
▁au
▁ce
▁Жол
▁Кез
▁апт
▁пош
▁Өлш
▁блог
иядағы
терден
▁асқан
▁елбас
▁кезек
▁бөлуге
▁қосады
▁комплек
▁Бастапқы
▁нарықтық
▁ұсынылып
▁жұмысында
▁дайындалды
▁ауданындағы
▁мәліметінше
▁нәтижелерді
▁элементтерін
13
6)
бу
лғ
но
▁но
▁рН
ашақ
▁Map
▁өзг
▁арта
▁жұрт
▁сауд
▁теті
uation
▁place
▁барды
▁тілге
▁былтыр
▁жалақы
▁профил
▁citizens
▁долларға
▁мұнайдың
▁таңдалған
▁фестиваль
▁азаматтары
▁аймақтарда
▁тұтынушылардың
ігі
іле
▁77
oung
▁1,3
▁mak
▁use
▁азая
▁young
▁барыс
▁полим
▁шаруа
туалдық
▁Мақала
▁есебін
▁нарығы
▁ескерту
▁назарын
▁банкінің
▁жобасына
▁шығындар
▁тамақтану
▁independence
▁қауымдастығының
=0
ну
ink
ань
кал
мей
ласт
▁[10
▁Тем
▁Түр
ology
▁docu
▁қалу
▁Деген
▁өңдел
езқазған
▁company
▁ауданда
▁испания
▁коллект
▁мүлікті
▁серіктес
▁түркістан
▁population
▁материалдың
▁ынтымақтастыққа
19
арх
лав
▁def
▁fam
▁ежел
птикалық
шараларды
▁дегенмен
▁индукция
▁мерзімін
▁қабаттар
▁сұранысқа
▁қолдаудың
▁жоғарылату
▁ғалымдардың
▁ұзақмерзімді
ико
ста
цин
▁des
алдан
▁айда
ective
▁пішін
▁құнын
▁active
▁Келесі
▁есімов
▁брифинг
▁желісін
▁категор
▁шешімді
▁жастарға
▁коммерция
▁профессор
▁үрдісінде
▁әрекеттер
▁бағалаудың
▁шығармашыл
▁қабылдауды
▁қызметінде
▁қыркүйекте
одинамикалық
▁азаматтарды
▁желтоқсанда
▁тапсырмасын
▁маңыздылығына
▁перспективалары
авк
пір
▁62
ards
абай
апол
атыс
▁70-
лайды
илиндр
ғалиев
қышқыл
▁field
▁босат
▁емхан
▁крипт
▁станс
өлшемді
▁теорем
▁нарыққа
▁наурызда
▁одағының
▁территор
▁сипаттайды
▁талаптарын
▁нысандардың
▁төмендетуге
▁зерттеулердің
мм
com
▁тж
итан
ғалы
▁dol
▁mil
▁шағ
▁қоң
▁three
▁дискр
▁соған
▁тұтас
жаттығу
▁жүйеде
▁мереке
▁қуатын
▁тартылды
iod
оним
▁Мет
▁каф
▁шоб
▁them
старды
▁алуан
▁қанат
▁жолдауы
▁мұнайды
▁түрдегі
▁желілері
▁облысына
▁қабылдап
▁кездейсоқ
▁айналысады
▁жетістіктер
▁инвестицияларды
7)
ЕС
ati
ияр
фон
ірт
▁Ге
рдың
талық
▁rece
▁ауди
▁битум
▁working
▁кальций
▁келісті
▁annivers
▁басқалар
▁дәрежелі
▁елдеріне
▁өзенінің
▁Бағдарлам
▁мөлшерлем
▁орындалған
▁ұсынылатын
▁байланыстың
▁интегралдық
▁классикалық
▁қарастыруға
▁q
▁іі
icro
▁реп
▁Онда
▁алге
▁рель
▁volum
▁түсім
▁ниетті
тегжейлі
▁central
▁елдерге
▁топтары
▁биология
▁сұлтанов
▁attention
▁жасалатын
▁салаларын
▁өлшемдері
▁өндірілген
▁нысандарының
▁экономикасын
ava
han
был
оза
рін
ентт
әстү
▁3,5
▁[8]
▁афр
енинг
ттағы
ульти
▁анағ
дастар
▁кесін
▁тапты
бірімен
▁маркет
▁мейрам
▁натрий
▁күштері
▁Дегенмен
▁болатыны
▁көмірсут
▁қаласына
▁қорғауға
▁ұсынатын
▁отбасылық
▁теңдеудің
▁бастамасын
▁жағдайдағы
▁қауымдастық
▁корпорациясы
ash
ata
адм
тір
даны
▁sph
▁10-1
▁euro
енетін
лардан
▁бітім
▁сынам
қимылды
▁қымбат
▁есептік
▁жерасты
▁мәнінде
▁қоғамда
▁үшбұрыш
▁біртекті
▁кірістер
▁өткізеді
▁сапарбаев
▁робототехн
▁туындайтын
▁шығарылады
▁функциялары
▁проблемаларды
use
беу
орн
▁Ст
▁нә
ited
гіні
▁fur
▁елі
кімен
тарда
химия
▁Енді
▁reduc
rastruc
елігіне
▁dollar
▁үйрену
▁distric
▁баспана
▁оқытушы
▁танысып
▁әрқашан
▁елімізге
▁жасақтау
▁мәндерін
▁бағасының
▁орналасуы
▁жылдардағы
▁құрылымдар
▁мәліметтері
▁тәуелсіздіктің
▁шаруашылығының
жек
сей
цуз
▁Мыс
мұнай
ration
▁жылды
▁мұрағ
▁тамыр
▁period
▁беттер
▁карбон
▁жиілігі
▁схемасы
▁қарқыны
антикалық
▁болғанын
▁білімнің
▁жинақтау
▁қойылады
▁political
▁беретінін
БЖ
▁93
▁ро
рлеу
ымда
▁лин
манов
ғанын
▁terr
▁саты
▁жеміс
▁тыныс
матулин
▁өркени
▁арнаулы
▁жасауды
▁жетісті
▁құжатқа
жабдықтар
▁салқында
▁анағұрлым
▁жағдайдың
▁жағдайлары
▁тағайындау
▁anniversary
▁жинақталған
▁келісімшарт
▁қалдықтарын
▁тұрғындарының
▁мемлекетаралық
),
ai
кин
мыс
ный
▁7-
▁pur
▁аним
▁батар
▁биікт
▁дүние
▁бастар
▁тыңдау
▁қалдыр
▁белгісі
▁сұлбасы
▁training
▁ағынының
▁жеңілдік
▁кезектен
▁сомасына
▁әскерлер
▁кезеңімен
▁дағдыларын
▁кооператив
▁зерттелетін
▁түсіндіріледі
▁An
▁ОҚ
умын
шыны
▁(2-
▁180
▁ens
сенді
▁requ
ометрия
▁айтады
▁вектор
▁жердің
▁қамқор
▁Ұлттық
▁Есептеу
▁ретіндегі
▁толтырғыш
▁құндылығы
▁өзіміздің
▁орталығына
▁стандарттау
▁мүмкіндігіне
▁корпоративтік
▁жауапкершілігі
риб
ауын
▁198
▁350
▁pot
▁ядро
лермен
ілерді
▁month
▁Бұдан
▁айдау
▁тірек
▁сергей
▁жылыжай
▁technolog
▁александр
▁желісінің
▁универсиада
▁құрылымының
▁агенттігінің
▁директорының
зи
ges
гір
жағ
уыз
хай
▁In
▁Орт
▁маж
▁жұқа
▁орал
оратор
▁local
▁беткі
▁жүлде
▁тамаш
ланатын
▁create
▁айналм
▁газбен
▁мезгіл
▁рәсімі
▁quality
▁шығынын
▁байқоңыр
▁туғызады
▁қытайлық
▁жіберілді
▁операторы
▁шынықтыру
▁декларация
▁төмендеген
▁метрологиялық
rep
▁96
▁еті
▁пир
▁Орта
▁күрт
▁агрег
▁масса
ilities
стердің
▁become
▁second
▁биогаз
▁бөліну
естігінің
▁signific
▁ластануы
▁ластаушы
▁пікіртал
▁қарашада
▁елдерімен
▁электрлік
▁орындарына
▁қосымшалар
ОР
lia
еор
▁[9]
▁саң
озғал
▁your
▁қаул
▁айлық
▁көбею
▁көрді
▁топқа
▁адсорб
▁бостан
▁діндер
▁жолдар
▁dollars
▁дегенде
▁финлянд
▁ахметжан
▁диаметрі
▁география
▁болашақтың
▁мұғалімнің
▁мүмкіншілік
▁белсенділігі
▁стандарттарға
▁элементтердің
▁технологиясының
.2
кш
ists
трол
▁рух
▁басу
portun
▁арман
▁жүрек
▁парад
лерінде
▁Модель
▁бұлтты
▁зардап
▁формула
▁ұйымына
▁opportun
▁жоспарлы
▁қойнауын
▁жобасында
rastructure
▁әңгімелесу
▁теориясының
▁қалыптасуына
орв
▁ЖО
▁bod
▁боз
онның
халық
қайда
▁Демек
▁модер
▁король
▁санына
▁түсіру
▁шараны
▁үстіне
▁кезеңге
▁мамырда
▁сөйледі
▁қамтуды
▁көшбасшы
▁бөлігінің
▁кадрларды
▁моделінің
▁талқылауға
▁енгізілетін
▁парламенттің
▁сарапшылардың
▁компанияларының
yn
cil
ract
енов
▁аға
▁сәт
▁тоқ
▁қоя
▁coun
▁аман
▁тату
егенде
▁жүгін
▁керам
▁мұның
▁assemb
▁баспан
▁бөледі
▁кодекс
ақталған
▁Мұндағы
▁құрамды
ақтарының
▁қазірдің
▁қаражаты
▁2017-2018
▁жүйесімен
▁байланысын
▁мақсаттағы
▁мақұлданды
▁сенімдімін
▁жетістіктерге
бо
кг
му
сіп
тап
▁нано
кетану
▁енеді
▁тауып
▁қосыл
▁құзір
▁өздер
▁әдісті
▁further
▁ақшалай
▁әдістің
▁ақпараты
▁партияның
▁режимінде
▁комиссиясы
▁көздерінің
▁қабылдайды
▁нәтижелерге
▁бөлшектердің
▁тағайындалды
▁министрліктің
28
ғд
ffic
ible
uary
алас
▁may
▁пет
оқыту
ярлық
▁righ
демелі
едицин
liament
▁асырып
▁көрнек
▁бизнеске
▁лицензия
▁қабылданады
6-
▁79
▁1,0
▁мвт
▁рах
басын
▁әмір
▁үстем
орларды
▁ақылды
▁маршру
▁өздері
▁конденс
▁құрылып
▁аспаптар
▁талшықты
▁электром
▁көрсетуді
▁мәселенің
▁сыйлықтар
▁уәкілетті
▁құрылымды
▁техниканың
▁экспорттау
▁акционерлік
▁мәселелерге
▁бұзушылықтар
▁біріктірілген
▁министрлігінде
7-
ae
мо
ушы
▁ve
ides
илик
омер
сері
▁Жас
▁жұп
болат
деуге
сапар
▁база
▁беті
▁china
▁prior
▁білік
▁үйрет
▁reform
▁сервис
▁үдеріс
▁атқарып
▁еншілес
▁кадрлық
▁кесінді
▁оқытуға
▁режимде
▁қарусыз
▁құрылуы
▁amounted
▁алушылар
▁елдермен
▁қатысуын
▁құралған
▁өндіруге
▁шарттарын
▁қолдайтын
▁денсаулығы
қатынастарды
▁өзгерістерді
▁қайраткерлері
sk
мин
ойын
гінен
даның
дыққа
▁өтуі
ттарға
▁былай
▁кірді
▁айналу
▁бұрышы
▁сұхбат
▁терезе
▁істеуі
ализация
▁жүктеме
▁potential
▁жылжымалы
▁керісінше
▁қажеттігі
▁актілеріне
▁әйелдердің
▁операциялар
▁президентіне
өр
▁ң
ата
рист
ярлы
әсіл
▁dem
▁сег
▁сіл
▁conf
▁prot
▁әзер
▁ақуыз
▁болар
▁гипер
▁этнос
▁салаға
▁бетінше
▁тілінің
▁біртұтас
▁зерделеу
▁концертт
▁кітаптар
▁таратпау
▁аймағының
▁сақталған
▁жасөспірім
▁спортшылар
▁әдістердің
▁мақсаттарға
▁тәжірибелер
▁пайдаланылды
ics
или
пир
rene
ғыны
▁area
▁fram
▁term
аттама
▁дәнді
▁жөнел
▁үлгер
▁бензин
▁деформ
▁қосуға
▁ұлттар
делінген
шылықтың
▁болмаса
▁болғаны
▁өзгеріп
▁әдісінің
технология
▁жалғасады
▁параллель
▁әлдеқайда
▁мөлшерінің
▁өндірілетін
▁облыстарында
▁құттықтаймын
ңғ
ізб
-200
omes
атып
ақым
дайы
▁ful
▁онк
▁раз
▁сти
атылы
ауына
саяси
▁prom
▁ашты
▁ниет
абының
▁Ақпар
▁ауысу
▁сарай
▁құрып
reprene
ылықтың
ықтарын
▁коопер
▁массив
▁уақытылы
▁келтіруге
экологиялық
▁тәуелсіздігі
▁өзгерістерге
▁пайдаланушылар
▁қаржыландыруға
▁субъектілерінің
ГІ
гы
уш
▁Ы
рах
сте
▁IT
ared
дарлы
▁жағы
▁адами
▁сұрақ
▁экран
▁тағдыр
▁council
▁бойымен
▁нүктесі
▁шығарып
▁үміткер
▁анықтама
▁бейнелеу
▁жерлерді
▁өткізуді
▁аккредитт
▁техникасы
▁шығарылды
▁infrastructure
▁ұйымдастырылады
wn
▁88
▁жэ
▁ир
ілсе
▁дір
feren
лылық
▁асим
ағанда
еленді
▁сызық
▁сүлей
ханалық
ылмайды
▁осыдан
▁үйінді
▁бесінші
▁факторы
▁үлгісін
▁авторлар
▁тағамдық
▁айтқандай
▁ережелері
▁орнатылды
▁ережелерін
▁сенімділік
▁хандығының
▁өзектілігі
▁пайдаланушы
▁республикада
▁қозғалысының
▁инфрақұрылымы
▁орталықтарының
ute
тас
▁8-
▁[3
ages
ines
ults
оқал
▁lif
▁ИСО
▁құю
үргіз
▁жетіп
▁ұрпақ
▁volume
▁оңалту
▁экожүй
▁жылумен
▁assembly
▁біркелкі
▁жүргізді
▁сайлауға
▁берушілер
▁түрлеріне
▁entreprene
▁оқушыларға
▁үдерісінде
▁enterprises
▁жылжымайтын
▁болатындығын
▁ұйымдастырудың
73
8)
ML
▁ша
асса
▁eng
▁Көп
дықты
қтығы
▁ескі
▁заңы
▁шегі
адалық
лайтын
ысынан
▁креди
▁сөзін
▁пысықт
▁айтатын
▁мұражай
▁сөйлеген
▁қаңтарда
▁agreement
▁жатқандығын
▁инновациялар
.0
to
ack
▁Ди
элем
▁Пар
▁2007
▁кваз
▁спир
utions
▁салым
▁өседі
▁болжан
▁білуге
▁дидакт
▁дәлдік
▁пәндік
▁топтам
▁шектел
▁қоғамы
▁еңбекке
▁заңнама
▁француз
▁зауытының
▁ардагерлер
▁атқарылған
▁мәдениетін
▁реформалау
▁экспозиция
▁жетекшілері
▁прокуратура
▁participants
▁көрсетілгендей
▁институционалды
▁тәуелсіздігінің
II
pi
жер
▁130
▁піс
румен
▁пров
▁спут
▁суға
екторы
теңдік
▁famil
▁алушы
▁күтіп
▁округ
▁ұстау
премьер
▁report
▁батарея
▁айқындау
▁академия
▁болуымен
▁кезеңіне
▁көрінеді
▁салықтық
▁арттыруды
▁реформаны
▁трансформ
▁қолданылып
▁менеджменті
▁әріптестікті
▁қатысушыларды
аба
пек
▁my
алап
▁xxi
▁төб
▁қоқ
itary
ылары
▁tour
▁скан
▁бізді
▁дыбыс
▁тыныш
▁әлеует
агниттік
▁адамзат
▁қосылуы
▁несиелік
▁түлектер
▁теңсіздік
▁түсінікті
▁өндірісте
қауіпсіздік
▁experience
▁академиясының
еұ
зд
▁84
▁Мә
реля
▁Пай
▁Тар
▁бүл
▁лаз
▁мөл
▁юне
омарт
▁ферм
▁кафед
▁марат
▁таным
▁шанхай
▁ұсынып
▁беделді
▁жалпыға
▁нұсқасы
▁жеңістің
▁кездесіп
▁қолдайды
▁өзгерісі
▁elections
▁білдірген
▁есептерін
▁конфессия
▁сәйкестік
отехнология
▁тақырыптық
▁ғимараттар
▁қабылданып
▁қалдықтары
▁Экологиялық
▁бағытталады
▁органдармен
▁өндірісінде
▁кедергілерді
led
тәр
▁94
▁ЖШ
бург
стен
тінд
▁140
▁амм
▁мағ
стана
▁inte
▁есте
▁forum
▁мерді
▁метал
▁румын
▁results
▁бердібек
▁жеткізіп
▁сындарлы
президенті
▁беріктігі
▁интеллект
▁механизмі
▁сипаттағы
▁түйіндеді
▁өнімділік
▁диагностик
▁негіздерін
▁шығындарын
▁табылатынын
▁organization
▁міндеттердің
.3
иш
ні
рж
til
ият
soci
абар
равл
▁Жоб
ected
ember
стыру
▁made
▁prev
▁alloc
▁дәнек
▁күріш
▁медиа
▁нүкте
▁түсіп
▁Қызыл
▁Қытай
ыстарын
▁валюта
▁досаев
▁канада
▁мүлдем
▁ресурс
▁сұйықт
▁қадағал
▁үдемелі
▁жолдауын
▁картасын
▁логистика
▁сақталады
▁коэффициенттер
mb
amp
ice
роф
шім
▁92
▁Ar
tics
ініп
▁2,4
▁Бай
▁вол
ework
▁show
▁айып
▁архе
▁equip
▁күйін
▁оксид
▁құрау
▁integr
▁Ғылыми
ылмайтын
▁жиынтық
▁кенорын
▁тәсілдер
▁қамтудың
▁қытайдың
▁аударылды
▁зерттеуде
▁климаттық
▁табиғатты
▁parliament
▁корпорация
▁төмендеуіне
▁байланыстыру
▁мүмкіндіктерді
шт
her
rol
еңіз
серв
▁tal
▁Бақ
▁Тұр
түсті
▁дами
▁қайн
▁гориз
алардан
станция
▁жолдың
▁сақтай
▁housing
▁алдымыз
▁көкөніс
▁формасы
▁жетіспеу
▁қаржылай
▁отырысына
▁экспортқа
▁мерзімінен
▁мәртебесін
▁қызметінен
▁кеңістіктік
▁agricultural
ТТ
лг
мы
рм
ели
рин
ағыз
▁104
▁Ден
▁ені
▁лаң
▁сығ
▁ерік
▁білуі
▁жақып
▁капит
▁макар
▁ісіне
▁signed
▁дамуға
▁компью
▁қаптам
▁medical
▁нейтрон
▁әбішұлы
▁элементі
▁situation
▁кандидатур
▁келісімдер
▁әзербайжан
әбдіқалықова
▁ресурстарының
io
кул
▁гл
▁рә
алия
гнит
▁civ
▁төн
етика
▁бөлм
▁тиек
▁stand
▁венгр
▁сонда
▁іргет
ability
▁conduc
▁europe
▁жалған
▁сөйлем
▁ахуалды
▁инженер
▁мегапол
▁порталы
термиялық
▁дәлелден
▁келгенде
▁көзделіп
▁негіздел
▁шығарынды
▁болатындығы
▁коммуникациялар
сем
▁нм
пенд
▁key
▁жұт
ектес
розия
▁200-
▁priv
▁этно
▁Үлкен
ыстарға
ілмейді
▁commit
▁заттың
▁тастау
▁асфальт
▁концерт
▁инфляция
▁көпжақты
▁талабына
▁қамтыған
▁сипаттама
▁сұрақтары
▁activities
▁дайындауға
▁жүргізудің
▁студенттің
▁топтарының
▁significant
▁тауарлардың
▁денсаулығына
▁инвесторларды
▁интеллектуалдық
75
АМ
red
сіл
▁St
инир
▁Web
стану
▁take
▁исек
▁өріс
▁Батыс
▁амбул
▁бағам
▁форму
▁Кейбір
▁азаяды
▁дүйсен
▁мәселеге
▁минималды
▁станциясы
▁федерация
▁бақылаудың
▁жұмыссыздық
▁талқыланады
▁құрылымында
▁инвесторлардың
▁эксперименттік
▁қанағаттандыру
▁мемлекеттерінің
▁хқ
abor
▁ext
▁spe
▁Кең
▁Мәс
▁oper
▁айына
▁export
▁дұрыст
▁көптеп
▁таңдал
▁қордан
▁дененің
▁дәлдігі
▁желінің
▁қоғамды
▁модельді
▁нүктелер
▁халықтық
▁қамтылды
▁қарастырды
▁Электрондық
▁жағдайларын
▁семантикалық
▁температураға
▁қабілеттілігі
▁кәсіпорындарды
▁тұжырымдамасын
AD
аза
жоб
рен
абын
▁110
▁dra
▁Пол
▁бүй
антты
майды
рафик
▁басы
minist
ources
біріне
деткіш
мандар
▁areas
▁асыра
▁баспа
▁жоюға
▁салау
▁ежелгі
▁таныту
▁қолдап
▁кестесі
▁бастауыш
▁discussed
▁есептейді
▁жалғасуда
▁негізделеді
▁тараптардың
▁Компьютерлік
▁ресурстардың
▁энергетикасы
▁қабілеттерін
арц
▁еқ
деуі
ылса
▁лек
▁рот
▁фак
▁шыр
атқыш
ирлеу
▁офиц
▁тоты
▁ҚазҰ
▁civil
▁автор
▁карди
▁пайым
▁смарт
▁тобын
еттерде
▁ассоци
▁орасан
▁қабаты
▁егістік
▁идеясын
▁әдіснам
▁назарына
▁солардың
равликалық
▁жұмылдыру
▁оқушылары
▁салынатын
▁швейцария
▁қабатының
▁Ұсынылған
▁әрекеттес
▁өңірлерде
▁мақсатымен
▁студенттері
▁консультация
інд
деме
ингв
ымыр
▁гум
▁рев
▁ших
▁trad
▁бояу
данады
▁интен
▁паркі
▁термо
ықтығын
▁associ
▁мақала
▁салмақ
▁сіздер
▁юнеско
организм
▁provide
▁айналуы
▁даярлық
▁тоннадан
▁траектор
▁үйлестір
▁жеткізуді
▁модельдері
▁мүшелерінің
▁демократиялық
апш
▁194
тилен
▁kazn
▁өтеу
елігін
▁Сонда
▁акуст
етіндей
ылығына
▁person
▁мульти
▁реаген
дентифик
ниверсит
▁strateg
▁еңбекті
▁жасалын
▁мектебі
▁қазандық
▁қарауына
▁енгізудің
▁үзіліссіз
▁анықтаймыз
▁жұмыстарға
▁орындалуын
▁радиациялық
▁аудандарында
▁департаменті
▁organizations
▁қалыптастырады
li
tim
мағ
ойл
▁89
bers
абол
қыма
▁(10
▁уль
▁экв
▁[10]
▁each
▁бирж
▁қатт
ттерін
▁begin
▁carri
▁жабық
▁автобу
▁барады
▁қылмыс
▁құрлық
ығындағы
▁табылды
▁ыдырысов
▁қызықтыр
▁компонент
▁шараларға
▁жасалынған
▁тақырыптар
▁entrepreneurs
▁шаруашылығында
.1
шк
oms
инт
soft
авиг
▁лиз
▁шах
▁іім
▁салт
▁among
▁Көмір
▁геоде
▁кедей
аторлық
аттарға
▁конвер
шылығына
▁contrib
▁Орталық
▁доллары
▁ойындар
▁provided
▁бауыржан
▁жанармай
▁тұтастай
▁араластыр
▁көрсетіліп
▁тағайындал
▁жағдайларға
▁келтіріледі
▁терроризмге
27
жаң
онд
оне
қас
сары
акуум
индік
▁Эксп
▁алда
▁суда
▁Кәсіп
▁күнді
▁метан
▁орден
▁эмуль
полимер
▁kaznex
▁препар
▁шексіз
▁қыздыр
▁әкеліп
ліметтер
▁алқаптар
▁бұйымдар
▁қалалары
▁үлгілері
▁framework
▁айларында
▁қорғаудың
▁дамытудағы
▁оқушыларды
▁индустриялды
▁қасиеттеріне
▁қызметтерінің
ike
піз
уді
шев
▁ді
▁ит
ower
амер
▁1,7
▁end
▁ағы
▁ими
генде
детте
▁[12]
▁land
▁tons
▁окси
▁пост
▁сегіз
▁газдың
▁кірпіш
▁мұқтаж
▁типтік
▁society
▁жаңашыл
▁тамызда
▁танытып
▁екіншісі
▁көрермен
▁электрод
▁машиналық
▁тапсырылды
▁әкімшілігі
▁тақырыбында
▁антропогендік
▁элементтерінің
DS
МД
жк
рил
әул
фоли
▁gas
▁гал
▁дей
▁куб
▁наг
бетон
иалды
некті
▁pros
▁лаңк
жомарт
ропавл
▁aimed
▁allow
▁basis
▁жарыс
▁радиу
аландыр
▁бұзылу
▁интерн
icrosoft
отикалық
▁берікті
▁генерал
▁негізге
▁қосатын
▁жасаудың
▁жоспарына
▁кезеңдері
▁процестің
▁қатарынан
▁жіберіледі
▁құжаттарға
▁орындалатын
педагогикалық
▁Қазақстандағы
AN
кси
▁2)
▁et
▁гу
uman
лдық
▁1,6
▁шер
▁үеұ
▁әли
сімен
▁auth
▁Одан
▁әсет
▁самми
ырылған
▁одаққа
▁өкілді
▁өмірге
▁автоном
▁кеуекті
▁отынның
▁істеген
▁гидролиз
▁ойлаймын
▁ынтымақт
▁үйлердің
▁нарығының
▁қолданылу
▁органдарына
▁қызметшілердің
ряд
▁01
луат
тура
▁(3)
▁jan
тылды
▁айға
▁анти
▁воль
▁жетп
▁күйі
асатын
дерлік
сімдік
▁Басқа
▁Содан
▁беруі
▁грант
▁жапон
▁жасам
▁нығаю
▁қалау
атындай
▁сапаны
қимылдың
▁үміттен
▁creation
▁нәтижеге
▁сараптау
атылыстану
▁жануарлар
▁кездесудің
▁процестердің
▁реформаларды
▁конференцияға
▁экономикадағы
▁өсімдіктердің
рды
қой
atul
әкір
▁103
▁125
▁дис
▁жор
▁фит
▁adop
▁жері
▁joint
▁Энерг
▁видео
▁конди
▁нұсқа
▁телім
▁істен
▁әбдір
икандық
▁көздеп
▁модерн
▁никель
▁табады
▁теңдік
▁турбин
▁күнімен
▁теңгесі
▁тиімсіз
▁исекешев
▁мерзімде
▁сезімтал
▁уақыттың
▁өткізген
▁болашағын
▁ластанған
▁тереңдігі
▁өкілеттік
▁айналымының
▁салаларының
▁студенттерге
▁шеңберіндегі
▁диагностикалау
po
-25
isl
ван
▁106
▁his
▁supp
▁көне
▁сцен
сиялық
▁small
▁біраз
▁жинал
▁жоғал
▁текше
▁төңір
▁ферро
▁russia
▁ашылып
▁ағынын
▁көздел
▁персон
▁іргелі
▁көтерме
▁жағымсыз
▁трансфер
▁облыстағы
▁серіктесі
▁әзірлеуге
▁мақсатымыз
▁тетіктерін
▁айырмашылық
▁кеңістігінде
кү
ғм
дос
мүш
укл
▁ii
▁pr
▁лу
амин
▁1,4
▁Жар
▁must
▁мақт
▁тірі
▁учас
▁тимур
▁центр
▁көбейт
▁мәндер
▁белсене
▁дәрумен
▁ризашыл
▁рәсімдеу
▁талдауға
▁елорданың
▁шамасында
▁profession
▁анықталатын
▁кәсіпорында
▁жалғастыруға
▁жағдайлардың
▁қазақстаннан
▁қарастыратын
▁modernization
▁өнеркәсібінде
▁байланыстардың
85
жақ
сқа
ісу
▁job
▁Іле
▁игі
▁лат
▁ұэм
айсыз
▁2006
▁cust
▁Зертт
▁кеңею
ылардың
▁бермеу
▁етпейді
▁жастағы
▁иеленді
▁профиль
▁ережелер
▁инвестор
▁мәслихат
▁ақпаратқа
▁шектелген
▁келісілген
▁функциясын
▁қашықтықта
▁делегациясы
▁мамандарының
▁фармацевтикалық
Cl
ix
dro
кеп
оид
▁oc
ыдыр
▁cri
▁Оны
▁ұос
▁мүмк
▁шикі
▁көрші
▁тұсау
ларынан
▁сөздік
ологиясы
▁бағаның
▁бетімен
▁моноқал
▁растады
▁ұлғайды
▁әзірлем
▁military
▁оқиғалар
▁құжаттың
▁financial
▁лаңкестік
▁үрдісінің
▁өндіріске
▁жеткізіледі
-4
=1
Па
нт
ene
фун
▁II
▁2,6
▁бғм
аспор
баған
індей
▁қазб
uclear
хронды
істегі
олардың
▁атайды
▁базаны
▁курсын
▁күштер
▁сербия
▁Болашақ
▁аудитор
▁көрмені
▁танытты
▁жолдауда
▁мысалдар
▁сапармен
▁талқылап
▁тиісінше
▁құжаттам
ақпараттық
▁белгілері
▁жасалынды
▁меңгерген
▁авиациялық
▁бағыттарды
▁көрсетудің
▁мемлекеттері
▁объектілерді
▁транспорттық
▁функциясының
35
за
иж
эф
кум
▁эф
ікте
▁2,2
▁2,9
▁ЖШС
▁мкм
изнес
▁life
▁role
▁түсп
ылмалы
▁кейде
▁мәнді
▁тілде
▁қояды
ектерін
▁айынан
▁астамы
▁контин
▁мұқият
▁оқулық
▁берілуі
▁жақсару
▁спикері
▁сайлауды
▁қашықтық
▁астаналық
▁есептеуге
▁идентифик
▁көміртекті
▁құрылыстың
▁ардагерлері
▁денсаулығын
▁нәтижелеріне
▁мемлекетіміздің
ss
ell
идж
уші
іші
▁ТЕ
▁ош
ense
йкес
нықт
▁rem
▁tax
▁дәй
▁рад
дануы
улері
▁адал
никтік
старын
▁times
▁where
▁would
▁супер
▁сәуле
▁қимыл
▁ұдайы
атылған
▁апатты
▁дамуда
▁салуды
▁түзілу
▁аймағын
▁практик
▁режимін
▁programs
▁мәжілісі
▁рейтингі
▁реттеуге
▁фестивал
▁өндіруді
▁өңірінде
өндірістік
▁байқаудың
▁бағалауды
▁желілерді
▁секторлар
▁қоғамдағы
▁абаттандыру
▁металдардың
▁зерттеулерді
▁қалдықтардың
▁компаниясымен
.4
оч
гел
ифр
йды
омо
▁Әс
арий
атов
▁2,3
▁2,7
адмий
лінше
▁Атап
▁мәжб
▁тама
▁жарақ
▁кеңей
ентация
▁author
▁legisl
▁асимпт
▁композ
▁қаруды
▁дамытып
▁зерттеп
▁реактор
▁суларды
▁цилиндр
▁қиындық
▁Өйткені
▁мейлінше
▁экспорты
▁жөндеуден
▁заңнамаға
▁салауатты
▁тапшылығы
▁үлгілерін
▁иондарының
▁тапсырамын
▁барысындағы
▁қалыптасады
▁елдеріміздің
▁participation
▁инвесторларға
▁компанияларды
▁министрлігіне
▁ерекшеліктеріне
xt
sts
▁Cu
АЛЫҚ
▁105
▁aff
▁Гид
▁кос
▁миг
▁тұқ
▁ұяш
негіз
сінен
▁five
▁task
▁биом
▁болг
▁браз
▁мұра
▁сыни
ығынан
▁reach
▁айдың
ималдық
▁жиында
▁кафедр
▁carried
▁күйдіру
▁патриот
▁building
▁азайтады
▁ашылуына
▁дақылдар
▁зейнетақ
▁тасымалы
▁бетіндегі
▁облыстары
▁төрағалық
▁шикізатты
▁қалаларда
▁қызметтік
▁жекеменшік
▁жәрдемдесу
▁көлеміндегі
▁процестерін
▁сарапшылары
▁ұсыныстарды
▁басшыларымен
▁жеңілдетілген
▁қатынастардың
8-
жы
ЫТУ
құм
▁өш
tain
ивал
▁дон
tical
еттеу
көлік
транс
▁pass
▁алқа
▁саяб
▁ашқан
▁жанар
▁жиыны
▁түрге
▁қолда
бақылау
▁тенден
▁трансф
▁баланың
▁бұзылған
▁шешімнің
▁эксплуат
▁келешекте
▁туризмнің
▁келісімшар
▁implemented
▁индикаторлар
▁марапатталды
▁өнеркәсібінің
95
ty
200
екі
унд
елеп
▁pay
▁val
▁Жыл
▁ашы
▁баә
▁жад
дария
қылау
▁омар
▁түрл
▁қақп
елерде
▁human
▁invol
▁жолды
▁майлы
▁нейро
▁құрды
еттерге
әлемдік
▁direct
▁Табиғи
▁грузия
▁кепілі
▁сезімт
ылығының
▁банктер
▁секторы
▁тізімін
▁ғимарат
▁ғылымды
▁қамтуға
▁қосылып
▁аудандар
▁ескерсек
▁етілетін
▁жалғасын
▁жұмылдыр
▁шешіледі
▁ғылымның
▁жүктелген
▁мажарстан
▁жылдарында
▁мүдделерін
▁тәртібінде
▁жобаларының
▁төмендетеді
▁ықпалдастық
▁қалаларының
эр
шығ
ғат
▁if
▁хх
сивт
улят
▁det
▁obj
▁ser
▁АКТ
▁Сап
ended
ready
ланып
▁хқко
тармен
▁chang
▁Заман
▁терге
▁ұшқыш
▁sphere
▁дизель
▁картоп
▁already
▁адамнан
▁атқарған
▁көктемгі
▁көтеруге
▁қазақтың
▁strategic
▁амплитуда
▁жәрдемақы
▁кәсіподақ
▁көміртегі
▁қаражатты
▁өткізудің
▁келтірілді
▁функцияның
▁аймақтарында
▁бағдарланған
▁ақпараттандыр
▁конференциясы
▁мәселелерінің
▁өндірушілердің
▁республикасында
Al
bo
тө
біз
оса
пин
▁82
▁лю
арқа
шасы
актор
ивтік
ломер
мәсім
ұндай
▁poss
▁congr
▁емдік
▁кәрім
▁мақта
▁мойын
▁штейн
▁Астана
▁атақты
▁жіктел
▁кетсек
▁танысу
▁теңгер
▁топтық
▁january
▁schools
▁сөндіру
форматика
▁district
▁айтылады
▁салмақты
▁currently
▁атқарылып
▁барысымен
▁бесжылдық
▁кезеңдегі
▁климаттың
▁этникалық
▁university
▁арттырудың
▁орналасады
▁сенаторлар
▁тапсырманы
▁құжаттардың
технологиялық
қатынастардың
▁technologies
▁азаматтарының
):
VI
iew
ogle
умен
▁3,2
▁40-
▁Тек
▁мор
▁оқо
▁паш
▁Қаб
▁pric
▁моңғ
аңызды
▁біреу
▁таулы
▁қанша
▁әңгім
тәжіриб
▁propos
▁ұзынды
ттерінің
▁started
▁жаңғыруы
▁тілеймін
▁тіркелді
▁амбулатор
▁академиясы
▁кеңістікте
▁мәжілістің
▁қалалардың
▁қызметімен
▁департамент
▁трансұлттық
▁түрікменстан
▁парламентінің
▁перспективалы
▁қамсыздандыру
▁стратегиясының
9)
PI
ps
мал
онс
▁9-
ound
ағаш
қалы
▁1,8
▁195
▁даң
▁мжә
▁оск
▁рау
▁asia
▁like
роскоп
саулық
▁Топыр
қабатты
▁алгебр
▁аналог
▁оларда
▁пайдал
▁атқарды
▁бағытты
▁нысанды
▁үйлерді
игиеналық
▁алмасуға
▁кеңесіне
▁командир
▁үрдісіне
▁бақылаушы
▁жетістігі
▁музыкалық
▁өзгертуге
▁дамуындағы
▁жаңғыртуға
▁тәжірибеде
▁қабылдайтын
энергетикалық
▁әкімшілігінің
▁диагностикалық
▁қызығушылықтар
▁representatives
ize
гия
баға
инер
▁160
▁due
▁Ақт
▁том
▁ыды
▁500-
▁turn
▁амин
▁вари
▁прот
▁being
▁демеу
▁пункт
▁суару
▁result
▁балама
▁оркест
▁ұйымға
▁ұқсаст
діктерін
▁achieve
▁nuclear
▁америка
▁жанынан
▁талдауы
▁тұрғыны
▁қоспасы
алдарының
реациялық
электрлік
▁cultural
▁басталып
▁бейімдеу
▁пайыздан
▁қайтадан
▁congratul
▁Солтүстік
▁елдеріміз
▁магистран
▁маңындағы
▁сополимер
▁қоғамының
▁шешімдерін
▁аймағындағы
▁айқындалған
▁құралдардың
▁үстіміздегі
▁кемшіліктері
▁тәуекелдерді
▁қасиеттерінің
MS
мп
пұл
қыт
▁(0
▁rev
▁Тал
▁теж
сынып
▁same
▁Арал
▁грек
этилен
▁domes
▁labor
▁белор
▁квадр
▁кинем
шілерді
істерді
▁ensure
▁months
▁ендіру
▁жазуға
▁режимі
▁тіліне
оникалық
▁корреля
▁құтқару
▁бюджетті
▁бөлігіне
▁несиелеу
▁қашықтан
▁барлығына
▁сақтаудың
▁сенатының
▁әрқайсысы
ализациялау
▁байытылған
▁жағдайының
▁төзімділік
▁қысқартуға
▁мекемелерінің
▁қолжетімділік
ii
ru
sh
ПТ
го
men
көз
уар
▁ИҚ
▁на
ымын
▁170
▁Бұр
▁prim
▁сиыр
▁ұмыт
ылыққа
▁керем
▁пәнін
▁сезін
▁сипат
мәсімов
▁depart
▁пәндер
▁тудыру
▁ыдырау
аборатор
струкция
▁require
▁қарасты
▁әрекеті
▁өңдеуші
▁domestic
▁диалогты
▁енгізген
▁практика
▁қабаттың
▁көздейтін
▁сапарының
▁шешімінің
▁электрмен
механикалық
▁бағытталды
▁жүргізетін
▁құрылымына
▁investments
▁нарығындағы
▁конференциясына
▁параметрлерінің
АУ
РУ
ОСТ
▁es
▁ла
дату
▁60-
▁Сер
▁Сыз
▁алк
▁дәм
▁мик
ылысы
▁turk
ымбаев
▁дүкен
▁нағыз
▁фотос
▁үйкел
▁bodies
▁жетуге
▁реттік
▁сыйлық
▁тамаша
▁топтың
▁шиелен
▁қорғас
▁жеткізе
▁қаржыны
▁бесжылды
▁үлгідегі
▁ұлтаралық
▁араластыру
▁баяндалған
▁жұмысшылар
▁заңдастыру
▁статикалық
▁сүлейменов
▁kazakhstani
▁әкімдігінде
▁өткізгіштік
ие
▁Na
▁mo
fter
unch
диев
еция
▁Фур
битум
тәсіл
▁care
▁фраг
▁chair
▁plant
▁жазық
▁отыра
▁шағым
▁өсуін
ологтар
▁бермек
▁доктор
▁кетеді
▁тарапы
▁тізбек
▁дүниеге
ықтарының
▁administ
▁жауаптар
▁отырысқа
▁көтерілді
▁матрицасы
▁суларының
▁уағдаласт
▁таныстырып
▁бағыттардың
▁жарияланады
▁журналистер
IS
yl
ЭС
gov
por
ЕРІ
бие
▁Іш
▁Тұ
тізб
қыға
▁Дәл
▁Кер
▁үйі
▁2021
▁өтем
▁аясын
▁жеңіп
▁кварц
▁модул
▁пошта
▁тасым
▁түбір
▁шығуы
ациясын
▁common
▁nation
▁бразил
▁қатыса
▁қорына
▁жатқаны
▁тараған
▁анықтады
▁көлеміне
▁тараптың
▁Microsoft
▁equipment
▁енгізіліп
▁кітапхана
▁программа
▁әзірленіп
▁алгоритмін
▁жұмсалатын
▁құжаттарын
▁сыйымдылығы
▁дидактикалық
▁түрлендіргіш
▁ұйымдастырды
▁жауапкершілігін
үм
сағ
егіш
цикл
▁барш
▁кәде
▁през
▁сахн
тивтік
▁мұхам
▁сейсм
▁түйді
▁қоюға
▁үндеу
▁жоғарл
▁жұмсау
▁салған
▁тілдік
▁өрнект
titution
акциялық
ттарының
▁Басқару
▁еріткіш
▁ескеріп
▁жолаушы
▁құжатты
▁strategy
▁Пайдалан
▁жұмыртқа
▁әкелетін
▁allocated
▁алматының
▁мобильдік
▁қатынасын
▁басымдылық
▁жолдауының
▁нормативті
▁пластикалық
▁энергиясына
▁қоспалардың
▁бітімгершілік
▁гидравликалық
▁бәсекелестікті
▁қажеттіліктерін
65
br
lp
uty
▁(3
ator
еліп
▁how
▁лим
▁Әді
тынан
▁next
▁егіс
ferent
міздің
немесе
▁after
▁water
ағалиев
математ
▁бойына
▁пропор
▁турист
▁шалғай
▁қатары
▁құраса
▁complex
▁scienti
▁жағымды
▁ұсынуға
▁ауданның
▁сұйықтық
▁қаладағы
▁қорғауды
▁желілерін
▁индустриясы
▁кинетикалық
▁тәжірибесіне
TE
эг
апс
кан
көр
▁Ас
алов
йынш
▁4,5
▁sum
▁top
▁эко
▁0,55
▁prac
▁диаб
▁моду
ateral
ыңызға
▁indic
▁ақылы
▁ветер
▁сулар
ауқатын
▁member
▁метрді
▁мәжбүр
▁секция
▁тұрмыс
▁олармен
▁алушының
▁күкіртті
▁мазмұнды
▁мезгілде
▁шығаруды
▁бөлімінде
▁реттейтін
▁Республика
▁дайындығын
▁мемлекетке
▁тәртібінің
▁үлгілердің
▁акустикалық
▁жеңілдіктер
▁жоспарлауда
▁көрсеткішке
▁операторлар
▁қажеттігіне
▁бастамаларды
▁кеңістіктегі
▁серіктестікті
▁құрастырылған
мк
ode
angu
ilis
line
ways
емел
идмб
ософ
келең
▁фаза
армалы
▁күнін
▁туады
agement
▁талдық
▁құрылу
▁Әдетте
▁customs
▁білдіру
▁симметр
▁тренинг
▁шетелде
▁ғасырда
▁бағыттау
▁малайзия
▁сіңірген
▁тұлғалық
▁қоректік
▁анықталып
▁дайындығы
▁капиталға
▁топырақты
▁байланыста
▁динамикасы
▁нығматулин
▁модификация
▁жұмыстарымен
▁металлургиялық
▁қызметкерлерді
▁коэффициенттері
▁қалыптастырудың
йн
пп
apa
bek
epi
жоғ
сір
ined
ашев
▁fol
▁non
▁маз
▁мәр
ганец
жарақ
остық
ымсыз
қытай
▁1500
▁суық
аданың
бейтін
▁геоса
▁елдік
▁рәміз
▁титан
▁тұғыр
данатын
▁launch
▁жиынға
▁мәтіні
▁оксиді
▁онымен
▁период
▁фильтр
▁өсімді
мұнайгаз
▁спектрі
▁қарауға
▁қуанышт
ақтандыру
▁мыңдаған
▁отыратын
▁сайлауын
▁теңдеуін
▁шаққанда
▁өңдейтін
▁орындайды
▁петропавл
▁сатысында
▁қаражатын
▁қосылатын
▁аппараттық
▁таратылған
▁өкілдеріне
▁өңіраралық
▁Оқушылардың
▁Халықаралық
▁бастамалары
▁индукциялық
▁бірлестіктер
▁мәліметтерге
▁пайдаланылған
▁Республикасында
▁бірлестіктердің
-5
.6
тм
чи
аяу
ived
едит
окол
тану
▁102
▁lot
▁бур
▁ван
▁эмо
алмақ
малау
байлан
туризм
▁тозаң
▁Өлшеу
металық
рленген
қалыпты
▁күресу
▁магнит
▁қиылыс
▁құруда
▁attract
▁арттыра
▁дарынды
▁жамылғы
▁governor
▁Жұмыстың
▁аумақтар
▁болжамды
▁органның
▁қағаздар
▁қосқанда
▁community
▁Түркістан
▁бұзушылық
▁орталықта
▁техниканы
▁деректерін
▁дәрігерлер
▁жолдарының
▁мөлшерінде
▁сұрақтарға
▁үдерісінің
▁принциптері
▁шараларының
▁ұсыныстарын
▁көшбасшылары
▁субъектілері
▁функцияларын
▁Математикалық
▁кәсіпкерліктің
▁Бр
▁Ер
ақов
едік
илев
▁(4)
▁115
▁196
▁197
▁adv
▁Жап
▁абс
▁ақп
▁ось
itive
иктер
сарап
▁step
▁асуы
▁теле
спектр
шыбаев
ілімді
▁дәріс
▁навиг
▁тренд
едиялық
кінішке
ордалық
▁regist
▁қысымы
▁автобус
▁аударма
▁жасырын
▁сипатын
▁тарихын
▁committe
▁бұрыштық
▁конфигур
▁мақсатын
▁эмульсия
▁жатқызуға
▁мақсатына
▁өкілдерін
▁өңірлерді
▁importance
▁есептейміз
▁кластерлік
▁отырысының
▁қалыптасты
▁agriculture
▁аймақтардың
▁стационарлық
▁тұрғындарына
▁университетінде
▁ЭҚ
fore
tice
берт
орлы
түрл
шалы
▁any
▁идм
▁ойн
▁Math
▁cele
▁енуі
▁қуан
қыркүй
▁power
▁порты
▁тарта
сіндегі
шараның
▁карьер
▁culture
▁holding
▁members
▁Экспери
▁кадрлар
▁нарықты
▁сенатор
бағдарлам
▁аурухана
▁берудегі
▁тізіміне
▁different
▁investors
▁картасына
▁шарттарды
▁қонақтары
▁салаларына
▁әдістеріне
▁бейнеленген
▁диффузиялық
▁жарықтандыру
▁микроорганизм
▁объектілердің
осы
пон
пын
▁61
▁sk
▁ка
▁ғы
гені
раға
▁gre
▁ұшт
атура
▁long
▁ақыр
едиция
▁examp
▁зақым
▁жарнам
▁модулі
▁тотығу
▁бұзылуы
▁кемінде
▁көрініп
▁problems
▁сақтауды
▁дискретті
▁жұмсалған
▁шешімдері
▁үнемдеуге
▁бағаланады
▁объектінің
▁ведомстволар
▁ведомствоның
▁құрылғыларды
▁құндылықтарды
▁қолжетімділігін
ova
нұс
оди
▁el
ions
▁ide
▁ЖОО
eness
едегі
таған
ылымы
▁sing
▁жады
ованың
▁draft
▁ауытқ
▁ақтөб
▁бітір
▁азайды
▁активт
▁дамушы
▁кішкен
▁көбіне
▁шартқа
▁шешуші
▁Қорыта
оқұрылым
▁instruc
▁білетін
▁ерболат
▁келеміз
▁бірлікті
▁ететінін
▁сәулелен
▁айналымын
▁себептері
▁сервистік
▁жоспарлары
▁объективті
▁өңірлердің
▁диаграммасы
▁холдингінің
▁әдістемесін
▁әбдіқалықова
▁температурасын
▁хабарламасында
▁қарастырылатын
mit
егия
йықт
▁had
▁кил
▁меж
▁нью
ering
аудың
▁0,48
▁300-
▁латв
▁моль
▁пале
▁тірк
▁үйге
▁ұлан
gether
деудің
ғыштар
▁ертең
▁старт
▁қисық
ference
▁жұтылу
▁мағына
▁осынау
▁тасқын
▁тоқтат
▁шектік
▁қабырш
▁құбыры
▁өмірін
▁history
▁заңының
▁тоқтату
▁эквивал
▁тотықсыз
▁науқастар
▁объектісі
▁палатаның
▁ұлғайтуға
▁минералдық
▁қызметкері
▁мақсаттарына
▁студенттерді
▁функцияларды
▁кәсіпкерлерді
▁міндеттерінің
ose
етк
коп
тпа
▁ын
күйі
цент
ңгей
▁giv
▁Газ
батыс
деміз
▁1995
▁food
▁ГОСТ
егінен
ковник
▁мерей
▁қаупі
дықтары
▁partic
▁қасиет
аларынан
▁көрмеде
▁маңызға
▁әзірлеп
▁өтілген
▁students
▁жасалуда
▁көрнекті
▁қасиетті
▁тарихында
▁арттыратын
▁жетістікке
▁аспектілері
▁біріктіреді
▁талдықорған
▁факторларды
▁операцияларды
бө
rup
лон
нер
оши
пін
тем
▁im
▁св
▁ыр
ause
алин
итін
фосф
▁bil
▁fun
▁nur
▁Кор
▁баб
▁баж
▁изо
▁ойл
▁кван
mental
▁funds
▁think
▁ОҚЫТУ
▁жазба
▁жылқы
▁маниф
орталық
▁алуына
▁вакуум
▁егемен
▁жерден
▁рацион
▁сомаға
▁теңест
▁тобына
▁қаланы
істердің
▁идеялар
▁күйінде
▁күшінің
▁құбылыс
ыстарының
▁together
▁есептері
▁түзіледі
▁effective
▁Назарбаев
▁зерттеліп
▁мәртебесі
▁нарықтағы
▁пәнаралық
▁particular
▁мекемелері
▁процесстер
▁экстракция
▁partnership
▁бейімделген
▁дәлелденген
▁мектептерде
▁халқымыздың
▁басқарушылық
▁басқарылатын
▁мемлекетінің
▁республикасына
3/
Ин
уч
ион
▁ur
▁Әл
itor
айыл
еран
▁see
▁МПа
▁мах
▁три
▁флю
▁0,49
▁hold
▁астр
▁брит
▁орда
рессия
▁issue
▁youth
▁бөлді
▁діріл
▁есірт
▁зымыр
▁орбит
▁prepar
▁аяғына
▁дерлік
▁музыка
▁сымсыз
▁турбул
▁экспон
▁қолтаң
▁Үшінші
▁айыппұл
▁беделін
▁жәрмеңк
▁назарға
▁сенемін
▁стипенд
▁қарапай
▁Әртүрлі
▁Әсіресе
▁аумағына
▁гектарға
▁жиілікті
▁кешеннің
▁массалық
▁процесті
▁тұсаукес
▁тәртіпті
едициналық
мағамбетов
▁бақылауда
▁бойындағы
▁классифик
▁мақұлдады
▁ризашылық
▁тіліндегі
▁генетикалық
▁пайдаланған
▁ратификация
▁несиелендіру
▁қосымшаларды
▁қызметтеріне
▁тағайындалған
▁қарастырылуда
▁материалдарының
29
uf
өп
fer
теп
▁МО
азия
атив
озой
ьект
ұлов
▁Кен
▁бөг
▁қом
indow
oogle
▁ақын
▁сенс
▁үсті
▁Алғаш
▁бүйір
▁техно
▁тоғыз
▁қоныс
ілердің
▁Сандық
▁ауқымы
▁балқым
▁желіні
▁account
▁private
▁Бақылау
▁бағалап
▁гүлшара
▁көрнекі
▁макарон
▁сұхбатт
▁үлгінің
▁document
▁positive
▁бірлігін
▁жасақтам
▁жоспарда
▁максимум
▁пәкістан
▁қаралған
▁аэроғарыш
▁бизнесмен
▁контейнер
▁көрсетуде
▁мамандығы
▁талдаудың
▁әзірлеуді
▁есептердің
▁орнатылады
▁патриотизм
▁қызметтерге
▁institutions
▁жағдайындағы
▁облыстарының
▁проблемалары
▁шаруашылығына
РО
ҒЫ
ивт
міш
ртт
▁pa
ends
троп
імін
▁clo
▁eth
▁өтк
ентке
оксид
оскел
пидем
▁2004
▁сырт
▁Әлем
мемлек
осымша
▁магни
▁париж
▁тұзды
алдарын
▁office
▁Кілтті
▁африка
▁талабы
▁беріліс
▁жаңғырт
▁инжинир
▁тізбегі
▁тұлғаны
▁құжатта
сағынтаев
шілерінің
▁елордада
▁концентр
▁сценарий
▁теңдеуді
▁халықтар
▁қаралады
▁жариялады
▁қамқорлық
▁анықтаудың
▁деректерге
▁кеңістігін
▁материалын
▁объектілері
▁теңдеулерді
тұ
pec
pen
гүл
оло
тел
▁env
▁jud
▁қыл
берек
данып
▁0,47
▁1992
▁Жеке
▁абыр
▁жете
▁зонд
▁мыңы
▁қисы
ақтылы
улятор
▁peace
▁бағын
▁нанок
▁қалаш
▁events
▁sports
▁арақаш
▁болуда
▁бөлуді
▁ерікті
▁көпмүш
▁ұлғаюы
▁әйгілі
белсенді
егіндегі
▁аймаққа
▁акциясы
▁атомдық
▁ректоры
▁философ
▁шығынды
▁ықпалын
▁Атмосфер
▁маминнің
▁нарықтың
▁таңдалды
▁қолайсыз
▁ұрпақтың
▁келтіреді
▁қолданушы
▁беретініне
▁қолданамыз
▁біліктілігі
▁динамикасын
▁меңгерушісі
▁презентация
▁тапсырмалары
▁қорытындылай
▁қаржыландырудың
med
пот
▁fe
▁жқ
iron
дену
▁25-
▁kar
▁Роб
▁иер
▁ӘДІ
сауық
▁best
▁free
▁make
▁Ішкі
▁абон
▁жағу
▁толы
Алматы
дролық
▁Фурье
▁атады
▁атриб
▁желіс
▁курсы
▁кәріз
▁шайыр
▁қазба
▁өмірі
▁ахуалы
▁беткей
▁төраға
▁қамтып
▁құрған
андардың
өткізгіш
▁because
▁агломер
▁аппарат
▁білеміз
▁керемет
▁меніңше
▁айналдыр
▁жолдарды
▁жоспарға
▁көмектің
▁насихатт
▁негізіне
▁спорттың
▁technical
▁анықтауда
▁баяндалды
▁жоспардың
▁жоспарлар
▁машиналар
▁модельдің
▁стандарты
▁финляндия
▁ақпаратпен
▁желілердің
▁мемлекетті
▁ынталандыр
▁көзқарастар
▁модельдерін
▁өңірлерінде
▁constitution
▁біріктіретін
▁стандарттары
▁фармацевтика
▁компоненттері
ТҚ
эт
ony
еев
иал
лұм
▁БА
дама
ипаж
терн
▁tar
▁var
▁дің
дауға
мізді
паған
▁some
▁Азия
▁жарн
▁борыш
▁Жүргіз
▁абсолю
▁контек
▁көрген
▁метрге
▁сутегі
▁өмірде
енттерді
шылармен
▁бөлінуі
▁графика
▁ерітінд
▁кеңесте
▁қолдауы
▁ұрпаққа
▁геология
▁консульт
▁нақтылау
▁кәсіпорны
▁магниттік
▁маркетинг
▁уақыттағы
▁жариялаған
▁экспедиция
▁станциялары
▁контейнерлік
▁тапсырмасына
▁жаратылыстану
▁инвестицияның
▁келіссөздердің
▁университеттің
▁қауіпсіздіктің
CO
ЕКТ
омб
▁СО
▁1,9
▁2,8
▁450
▁him
▁Нұр
▁өнд
форум
▁want
▁бара
бизнес
▁tasks
▁Микро
▁армия
▁бірде
▁елден
▁жазғы
омпания
▁барған
▁ендігі
▁табысы
▁үнемді
рафиялық
▁аурулар
▁жабынды
▁жағында
▁жылжыту
▁форумда
▁decision
▁беріктік
▁жауынгер
▁игерілді
▁кәсіпорн
▁сақталып
▁қарқынын
▁қасиетін
▁қолданыс
▁қызметте
▁қышқылды
▁committee
▁жатқанына
▁комиссары
▁меңгеруге
▁партиялық
▁үшіншіден
▁өндірудің
ландырылған
▁facilities
▁дайындауда
▁көрмесінде
▁нидерланды
▁профессоры
▁тақырыбына
▁тұрғындарды
▁факторларға
▁қызметшілері
▁strengthening
▁министрлігімен
▁ұйымдастырылып
ЕЛ
пә
ird
жен
зат
▁71
▁ха
ting
вест
қызы
▁101
▁Шеш
▁вак
ffici
дустр
ламен
▁0,53
▁prin
▁Коши
▁баяу
▁жазб
▁сфер
indows
елеком
зияның
лылығы
▁Автом
▁бетін
▁лауре
▁мысыр
▁шатыр
▁қорға
▁ұғымы
шімбаев
▁diffic
▁histor
▁артуда
▁өсімін
▁аударып
▁жанында
▁кезеңін
▁кепілді
▁кеңеске
▁таңдағы
▁Программ
▁елімізді
▁таңдауға
▁әріптесі
▁азаматтың
▁номинация
▁көтерілген
▁мамандарын
▁салалардың
▁тәжірибелі
▁Мемлекеттік
▁көрсеткішті
▁мақсаттарын
▁техногендік
▁бастамаларын
▁бүкіләлемдік
▁желтоқсанында
▁субъектілерін
97
py
уг
ета
уан
▁[4
▁ge
▁бі
▁үи
зинь
ндық
▁107
▁2,1
▁fri
▁Сар
ильді
мекен
▁бриг
▁иелен
▁сусын
▁қарақ
▁аралау
▁ақшаны
▁баптау
▁жаңаша
▁жөндел
▁сегмен
дықтарын
әрекетін
▁control
▁араласу
▁белорус
▁игілігі
▁маңызын
▁сызбасы
▁тексері
▁жәрмеңке
▁көршілес
▁қабылдай
▁қолдауды
▁басымдығы
▁достастық
▁күштердің
▁полимерлі
▁өзгеріске
▁дәрігерлік
▁жаңалықтар
▁министрлер
▁семинарлар
▁әдістермен
▁integration
▁молекулалық
▁мақсатындағы
▁мекемелердің
▁пайдаланылуы
▁қарқындылығы
▁мәліметтердің
way
азы
вен
лын
omen
ануы
есек
ктер
рине
▁ткш
ators
ufact
▁[11]
▁read
▁андр
▁аном
▁реда
global
амызда
▁works
▁Соның
▁жуықт
▁керне
▁оптим
▁чехия
ibility
атынына
▁Осыдан
▁жүктеу
▁майдан
▁панель
▁разряд
▁редакт
▁сендір
▁таужын
▁қауіпт
▁өтпелі
tiveness
▁example
▁ақпанда
▁бейнесі
▁игеруге
▁көреміз
▁орындай
▁факульт
▁балабақш
▁түсінуге
▁төлемдер
▁қызметші
▁өмірінің
▁автономды
▁кезеңінің
▁қатынасты
▁successful
▁мектебінің
▁мұғалімдер
▁мәдениетті
▁секторының
▁талқыланып
▁территория
▁тәжірибеге
▁әкімдіктің
▁жалпыланған
▁мемлекеттен
▁көрсеткіштерді
▁параметрлердің
▁конфессияаралық
▁коэффициентінің
▁көрсеткіштердің
..
31
ПУ
бұ
нь
ats
mer
ИКА
авр
айт
али
леп
ңқыр
▁Кар
▁Шын
▁жиһ
▁шым
uties
пайды
іктен
▁2003
▁rate
▁vill
▁гибр
▁маңы
▁ықыл
▁алғыш
▁ауаны
▁кеніш
▁себеб
▁сұрау
▁қорық
ымалдау
▁purpos
▁гидрог
▁саналы
▁талғат
▁тетігі
▁ұзақты
онсондық
▁majilis
▁білімге
▁графигі
▁кездері
▁маркалы
▁мысалға
▁ортасын
▁manufact
▁Заманауи
▁болуының
▁кезеңмен
▁шығарған
▁қысқарды
▁Денсаулық
▁облысынан
▁соғысының
▁теңізінің
▁хабарлама
▁үдерісіне
▁өздеріңіз
▁initiative
▁бастамалар
▁тұлғаларға
▁ғимараттың
▁өнімдеріне
▁competition
▁шоғырланған
▁қарусыздану
▁қоғамдастық
▁жыныстарының
▁қалыптастыруда
.7
CE
Ақ
рн
нес
ног
▁81
▁Ре
2015
ином
ипед
ович
ғали
▁(3-
▁108
▁2-3
▁mut
▁ren
▁Бей
▁Ком
▁МВт
▁улы
ертик
індік
▁0,51
▁1200
▁Теор
▁қола
дықтың
лаудың
ттарда
▁langu
▁кәсіб
▁ықшам
ынандай
▁айтулы
▁жанама
▁жаңару
▁салады
▁фабрик
▁қимасы
қатынаст
▁Шымкент
▁азияның
▁аумағын
▁кластар
▁матрица
▁маңында
▁спортшы
▁сәуірде
▁тұқымды
▁қомақты
▁electric
▁stressed
▁диффузия
▁тексеріс
▁bilateral
▁бөліктері
▁доллардан
▁керектігі
▁көзделуде
▁ілгерілет
▁банктердің
▁теңдеуінің
▁тәсілдерді
▁шаққандағы
▁онкологиялық
▁серіктестігі
▁робототехника
▁қажеттілігіне
▁құрылғылардың
▁кәсіпорындарда
▁стандарттарына
ote
құж
▁af
▁gu
▁гр
йтіп
стыр
▁15-
▁анс
▁вит
▁егу
▁жыр
▁пут
▁ххі
дәстү
изика
▁0,46
▁жасы
▁кент
▁құра
ацияны
осының
▁аккум
▁ақаба
▁еңсер
▁оңайл
▁әсерл
ттарына
іліктің
імбетов
▁mutual
▁дамыта
▁кадмий
▁күндіз
▁мұхтар
▁провин
алардағы
▁азаматы
▁сүйемел
▁қоймасы
▁қорлары
▁activity
▁проблема
▁өлкетану
▁resources
▁дисперсия
▁кодексіне
▁кредиттік
▁күшейтуге
▁сауалнама
▁тауарлары
▁өнімдерге
▁technology
▁деңгейінен
▁жарияланды
▁элементтік
▁қышқылының
▁үміткерлер
▁қатынастары
▁физиологиялық
▁кандидатурасын
39
ЕУ
фа
old
бой
гіл
зол
▁..
▁3)
▁Кү
ased
▁web
▁айл
▁аты
▁гол
▁жәй
▁рус
▁тыл
▁юни
аммед
▁1991
▁бұйр
▁еқдб
ербаев
жанова
▁атауы
▁жарым
▁лингв
▁түсуі
▁ультр
▁элект
▁қарас
▁қоңыр
ғылықты
▁applic
▁follow
▁Каспий
▁жөнелт
▁мыстың
▁сатылы
▁шешуді
шілігіне
▁активті
▁көбейді
▁талқыға
▁шілдеде
▁қоғамға
▁өздерін
▁аралықта
▁дыбыстық
▁периодты
▁редакция
▁түзілген
▁Ұсынылып
▁ұсынамыз
▁өндіреді
әлеуметтік
▁2015-2019
▁standards
▁анықтадық
▁елдерінен
▁зерттеуді
▁платформа
▁қаңтардан
коммуналдық
▁адамзаттың
▁білдіретін
▁комитеттің
▁талқылайды
▁Жүргізілген
▁директорлар
▁хатшылығының
▁қызығушылығы
шо
alf
АНЫ
рақ
тип
▁xv
▁Дж
▁се
▁тг
ills
илен
кпір
▁220
▁Бет
▁Сал
▁Тер
▁ату
▁жүн
droid
беген
иктор
шашын
қазан
▁демп
▁емти
▁жайы
▁таңб
▁ілес
▁әкеп
берген
лерден
▁relig
▁stage
▁Нақты
▁Шығыс
▁алмат
▁жарам
▁силик
▁шашыр
▁қаулы
▁Матери
▁алаңда
▁газдар
▁күндік
▁кәдеге
▁мөлдір
▁салтын
▁аралады
▁визалық
▁көтерді
▁типтегі
▁төменде
▁филиалы
▁қойылып
▁әмірлік
▁өскелең
▁дайындам
▁интервал
▁курсының
▁мерзімге
▁оқылымда
▁қазтранс
▁өзгеруін
▁бейімделу
▁есептеуіш
▁көлемдегі
▁мемлекетт
▁формалары
▁қаласынан
▁құрылатын
органикалық
▁бірқалыпты
▁ұйымдармен
▁established
▁алгоритмдер
▁геодезиялық
▁диагностика
▁желілерінің
▁аяқталғаннан
▁қауымдастықтың
AS
ОГ
нг
100
бид
арғы
▁Мар
▁Сур
орфты
қаржы
▁0,43
▁жаяу
▁норв
▁слов
ағанды
▁again
▁бренд
▁гетер
▁жиһаз
▁залал
▁сайты
▁агентт
▁балаға
▁келуге
▁отырды
▁соғады
▁шарада
▁әкелді
▁environ
▁reforms
▁сауатты
▁election
▁provides
▁received
▁директор
▁жариялау
▁қортынды
▁өркендеу
▁аудандары
▁кернеудің
▁мөлшеріне
▁оптималды
▁тудыратын
▁аймақтарды
▁америкалық
▁дәлелденді
▁екендігіне
▁миллионнан
▁трансфертт
▁қаражаттың
▁мақұлданған
▁мектептердің
▁археологиялық
▁мұғалімдердің
AT
DM
ИМ
СП
жаз
мгі
топ
шін
ғая
һар
▁ww
cept
over
стеу
хрон
яция
▁00-
▁ADS
▁get
▁ГАЖ
▁ұбт
гілеу
кулез
шықты
▁0,52
▁help
▁жүгі
▁кино
▁көше
▁қызу
едиұлы
еменді
ілікке
▁класы
▁корей
▁күйде
▁санап
лардағы
ықтарға
▁Google
▁батырм
▁бойынш
▁елінен
▁мағлұм
▁осында
▁сержан
▁тартып
▁толған
▁экскур
▁әлемді
▁experts
▁respons
▁without
▁аспайды
▁бұлттық
▁жерінде
▁жиналды
▁зауытта
▁ондаған
▁сатылар
▁саңылау
рсетілген
▁кейіннен
▁коррозия
▁төмендеп
▁форматта
▁өзгерген
▁нүктелері
▁салаларды
▁тақырыбын
▁механизмін
▁нығайтудың
▁пікірталас
▁шикізаттың
▁мерейтойлық
▁ықтималдығы
▁бағдарламада
▁бейбітшілікті
▁проблемаларын
▁конференцияның
▁орналастырылды
▁қаржыландыруды
98
OH
nic
роб
▁[5
▁эр
atic
ЕРІН
дәрм
тасы
▁ear
▁own
▁ақы
▁мұс
▁тес
▁шен
erman
risis
іруге
▁goods
▁емдел
▁иммун
лерінен
▁meters
▁көлбеу
▁суының
▁фермер
▁шеккен
беркулез
инхронды
▁бағытқа
▁жайылым
▁көмекті
▁мойында
▁уақтылы
▁қабылда
▁әсеріне
▁Деректер
▁бактерия
▁дайынбыз
▁дамуында
▁жазылады
▁мынандай
▁секторын
▁сенаттың
▁танытқан
▁таралуын
ландырудың
▁сектордың
▁аударылған
▁болатынына
▁дайындалып
▁кеңістікті
▁кодексінің
▁тоқсанында
▁қанағаттан
▁қондырғысы
▁educational
▁қарапайымды
▁біліктілікті
▁жұмыстарында
▁кәсіпкерлері
▁өнеркәсіптің
▁делегациясының
▁орналастырылған
AP
нш
ӘН
ser
ІЛІ
иді
күн
▁//
▁fl
▁Сө
АРДЫ
омен
▁[1-
▁айы
▁бүр
earch
алуға
сейіт
іргіш
▁1998
▁ариф
▁үйір
деңгей
мыздың
▁лидер
▁нөлге
▁әлеум
дағыдай
пуляция
▁always
▁Мектеп
▁атанды
▁соғысы
▁сіңіру
▁хромат
▁Қолдан
▁princip
▁science
▁енгізіп
▁заманда
▁туындап
▁қысымды
▁әріптес
▁өкілдік
▁continue
▁аймағына
▁елдерден
▁рәсіміне
▁шекарасы
▁Қоршаған
андырылған
▁beginning
▁елордалық
▁революция
▁ресурстық
▁тапсырған
▁топтардың
динамикалық
өткізгіштік
▁employment
▁management
▁айқындалды
▁алгебралық
▁болатындай
▁депутаттық
▁ерітіндісі
▁жартыжылды
▁жіберілген
▁пропорцион
▁атмосфераға
▁жабдықтарды
▁тереңдетуге
▁этносаралық
▁өзектілігін
▁алгоритмдері
▁оқушыларының
▁тыңайтқыштар
▁элементтерді
.8
ES
БТ
cri
emp
iqu
АТТ
бау
тик
▁ky
▁ДҚ
▁ҚҰ
▁қм
▁үр
іріп
қызм
▁akt
▁Вир
▁Сат
▁кВт
▁түл
▁цел
▁Ұлы
паева
үмкін
▁грам
▁инер
▁күмә
▁орам
▁этал
▁analy
▁colle
▁speak
▁маған
▁турни
▁цзинь
▁rights
▁ажырат
▁иелері
▁мәніне
▁тілдер
▁Android
▁Windows
▁астында
▁бағынды
▁есірткі
▁орнаған
▁табамыз
оптикалық
▁геосаяси
▁жасаймыз
▁жоспарды
▁кепілден
▁мағынасы
онференция
▁командасы
▁параметрі
▁пленарлық
▁спектрлік
▁protection
▁оқытушылар
▁шақырылған
▁ұсыныстары
▁тұжырымдама
▁шешімдердің
▁қазмұнайгаз
атомөнеркәсіп
▁коэффициентін
▁стандарттарды
▁орталықтарында
▁университеттер
гон
ихи
▁%-
▁su
▁Аз
▁Ти
қоры
▁(5)
▁5,5
▁Жан
▁Фун
▁пыш
▁Қаш
echan
ауқат
оголь
ымның
▁етін
▁роль
▁сәтт
▁Ұйым
менедж
▁ерлік
▁жетім
▁мотив
▁ойлап
▁параф
▁сүріп
▁тегіс
▁бейнел
▁дөңгел
▁отынды
▁сыйақы
▁қадамы
ілмейтін
▁аймақты
▁бүгінге
▁көтеріп
▁пәнінің
▁тағылым
▁моңғолия
▁ортадағы
▁сарыарқа
▁тереңдік
▁ғаламтор
▁қасымбек
▁әдеттегі
аларындағы
▁елдердегі
▁күтілетін
▁department
▁Температур
▁деңгейіндегі
▁құрылымдардың
▁көрсеткіштерге
ХН
мл
қп
ici
omm
айм
▁СТ
икул
орта
отыр
▁3,3
▁ISO
▁bel
▁foc
▁нег
▁тін
ction
иттің
ондон
▁when
▁залы
▁мину
▁стер
▁third
▁whole
▁жинап
▁өлшен
▁attrac
▁mechan
▁иерарх
▁пакеті
▁тартты
▁шарасы
▁шығуға
▁қабықш
▁үлгіні
▁ұсыным
қатынасы
▁арадағы
▁береміз
▁далалық
▁жабдықт
▁жеңіске
▁ресейге
▁шегінде
▁шығарды
▁қаралып
▁құраушы
▁ұғымдар
▁chairman
▁арақатын
▁кезеңнен
▁көміртек
▁мердігер
▁ортасына
▁сынақтан
▁сүйенсек
▁тораптар
▁түйіршік
▁әдістеме
▁бағалайды
▁болмайтын
▁жерлердің
▁мазмұнына
▁тәртібіне
▁Техникалық
▁дағдыларды
▁дәнекерлеу
▁еуропадағы
▁көпқабатты
▁мультимеди
▁процестері
▁тәрбиелену
▁құрылымның
▁американдық
▁белгіленеді
▁анықталмаған
▁институттары
▁станциясының
▁реформалардың
▁инновацияларды
▁компаниялармен
▁қатысушыларына
▁технологияларға
гл
has
ЛЫҚ
бағ
жіт
иян
ото
эгг
үни
әне
▁АК
▁Жо
cing
emin
raph
инск
ұйық
▁3,1
▁bes
▁pat
▁sou
▁ЖЭО
▁нит
▁пик
▁хор
▁үгі
астер
іздес
ғымыз
▁bene
▁code
▁jobs
▁илем
▁инсп
▁менш
▁тері
азалық
жағдай
оксиді
▁worth
▁азаюы
▁вирту
▁гипот
▁жазып
ахманов
▁recent
▁бағаны
▁органы
▁сілкін
▁тотығы
▁түсуде
▁Қозғал
▁ағынның
▁байқауы
▁мәсімов
▁қабырға
▁қолдады
метикалық
▁жүректен
▁жәрдемақ
▁түсінігі
▁түсінікт
▁direction
▁йонсондық
▁кеңістігі
▁көздеріне
▁сотталған
▁театрының
▁тенденция
▁айқындайды
▁аудандарда
▁жақсыбеков
▁марапаттау
▁салыстырып
▁толықтырып
▁қайраткері
▁модельдерді
▁параллельді
▁сәйкестігін
▁талқыланған
▁экономикада
▁стандарттарын
▁қорытындылады
▁ауылшаруашылығы
▁жауапкершілікті
ха
кор
пей
lect
абек
иров
▁190
▁Пав
▁доз
▁нің
▁шық
иттер
ресур
▁1997
▁date
▁here
▁синт
▁соқт
ыңызды
▁built
▁Анықт
▁жатақ
▁жолда
▁калий
▁көзін
▁съезі
▁фракт
▁ұтқыр
▁accord
▁deputy
▁бастан
▁жазықт
▁жарлық
▁көшірм
▁локомо
атталған
дықтарды
ондардың
▁Мұғалім
▁пішінді
▁толеран
▁тәсілін
▁шифрлау
▁жандарға
▁желісіне
▁маманның
▁мәлімдем
▁нашарлау
▁қарайтын
▁formation
▁аймақтары
▁жеткіздік
▁индикатор
▁тартылады
▁тағайында
▁тексеруге
▁формуласы
▁ғалымдары
▁құрылғысы
▁деңгейлері
▁интегралды
▁мамандарға
▁өндіріледі
▁opportunity
▁жаңғыртудың
▁имитациялық
▁хабарланған
▁көрсеткіштен
▁көмірсутектер
▁нәтижелерінің
▁ақпараттандырды
▁концентрациясын
▁көрсеткіштеріне
74
lom
uch
осп
▁IP
▁Un
▁қы
амас
елес
омат
▁(6)
▁...
▁Саб
▁Тау
▁абд
▁осц
▁так
▁фон
▁шот
▁Қан
▁әкк
educe
round
идтер
интез
мұхам
шілде
▁есік
▁көре
▁қазп
▁қате
ғыштың
қызмет
▁focus
▁model
▁women
▁Кесте
▁жылжу
▁санау
▁терап
▁түтік
▁proper
▁алаңын
▁беттің
▁жиырма
▁климат
▁корпус
▁сенсор
▁тастар
▁тоқыма
▁хирург
▁adopted
▁биіктік
▁диаспор
▁достаст
▁минимум
▁пікірін
▁радиусы
▁сайлауы
▁түрінің
▁қақпасы
муникация
▁priority
▁бағытына
▁егеменді
▁есебінде
▁жылдарда
▁мұнайгаз
▁транзист
▁тізбекті
▁2015-2016
▁Университ
▁аренадағы
▁асырудағы
▁деңгейден
▁дүйсенова
▁жолдардың
▁лаборатор
▁ортасының
▁саясатына
▁сомасында
▁жоспарында
▁институтын
▁келтіретін
▁туберкулез
▁тұрғысында
▁қарастырған
▁үдерістердің
▁катализаторлар
▁кәсіпорындарға
▁тапсырмалардың
ys
ІР
ОМ
ыұ
эс
▁ұж
альт
атас
ақұр
масы
▁(20
▁big
▁cis
▁реф
▁рын
ақпар
▁2001
▁exec
▁коды
▁plans
▁teach
▁литва
ruption
битумды
▁Ақтөбе
▁жарату
▁өзгеше
ыдырысов
▁session
▁критери
▁қарудан
▁consider
▁ардагері
▁жариялан
▁жақсылық
▁көтерген
▁сайтында
▁қаржының
▁қағидаты
▁әкімдері
▁басқалары
▁категория
▁критерийі
▁лауазымды
▁баспасөзде
▁бірлестігі
▁жоғарылауы
▁сұрақтарды
▁түсіндіріп
▁жеңілдетеді
▁наноқұрылым
▁үдерістерді
▁тасымалдауға
▁депутаттарының
33
МЖ
лм
ise
obe
йын
▁АР
гісі
ирек
кеев
үшін
▁3,6
▁4,1
▁log
▁nor
▁Маң
▁ұны
потек
қоғам
▁Stud
▁east
▁кеме
▁кәді
бағдар
жоспар
▁based
▁heads
▁terms
▁гради
▁деуге
▁жаһан
▁имидж
▁мейір
▁сирия
▁табан
ымбетов
▁medium
▁азайып
▁аласыз
▁вертик
▁жүруде
▁клиент
▁саяхат
▁қарады
▁құлдыр
▁besides
▁purpose
▁жоқтығы
▁сатылды
▁топоним
▁қарайды
▁әкімшіл
▁өміріне
шекаралық
▁official
▁арасынан
▁аяқталуы
▁дамуымен
▁жеделдет
▁орнатқан
▁пәндерді
▁сыныптар
▁танылған
▁тұтынушы
▁уақыттан
▁экзоскел
▁құндылық
▁өкінішке
▁жұмсалады
▁мысалында
▁аурулардың
▁болғанымен
▁нәтижесіне
▁орындайтын
▁формуламен
▁қоспасының
▁құрылғының
▁есептегенде
▁сондықтанда
▁берушілердің
▁тиімділігіне
▁тапсырмасымен
▁өзгерістердің
▁көшбасшыларының
Fe
зг
фт
ыма
▁АЖ
airs
ауыз
ейін
эксп
▁мир
ілімі
▁0,56
▁exch
▁лады
▁қаза
▁қалм
▁Кейін
▁грави
▁жүкті
▁Әрине
istance
жігерін
теңгеге
▁атрибу
▁босату
▁дамуды
▁жеделх
▁жүгері
▁ипотек
▁соғыст
▁учаске
▁өнімге
▁дәленов
▁естелік
▁жақыпов
▁жететін
▁сауданы
▁қытайға
▁өсімнің
▁өңдеуді
сапарбаев
▁айқындап
▁бұрыннан
▁дайындап
▁протокол
▁толмаған
▁тәсілмен
▁қағидасы
▁Кәсіпорын
▁жобасымен
▁шектеулер
▁өткізетін
▁басқаратын
▁дайындауды
▁педагогика
▁практикада
▁шараларына
▁қатысушысы
▁дайындаудың
▁катализатор
▁талаптардың
▁орталықтарын
▁рекреациялық
▁депутаттардың
▁министрліктер
▁компоненттердің
▁тапсырмаларының
9-
иак
иан
люк
ылғ
▁ir
▁ИН
ases
аков
алға
апан
ізге
▁80-
▁pav
▁Жаз
▁Көл
▁аша
▁скр
ылғыш
▁тект
▁ішін
аллург
ыларды
▁doing
▁борда
▁етуші
▁салам
▁серви
▁тәжір
▁өткер
▁access
▁емхана
▁жағына
▁калибр
▁куәлік
▁көмірт
▁физико
▁жердегі
▁мәтінді
▁орындап
▁салдары
▁статист
ептикалық
▁еуроодақ
▁марганец
▁сақталуы
▁суармалы
▁қозғаушы
▁әзірледі
▁stability
▁бастаманы
▁біріншісі
▁гендерлік
▁концепция
▁мерекелеу
▁сақталуын
▁синтездеу
▁дәрежесіне
▁жартысында
▁лауазымына
▁мониторингі
▁монополияға
▁мәдениеттің
▁құрылғылары
▁әдістерімен
▁жұмысшылардың
▁процестерінің
▁қалыптастырып
▁модернизациялау
.9
99
бы
шу
eci
leg
бор
жин
кат
янь
▁HT
▁aw
▁ыс
ЫНДА
адий
алса
ицид
малы
онан
орес
уақы
▁www
▁лан
▁мих
▁рец
▁camp
▁farm
▁grad
▁what
▁мұны
▁типі
▁әсем
ифрлық
маусым
сервер
▁capac
▁антен
▁ерікт
▁сотқа
earning
дердегі
естерін
▁celebr
▁corpor
▁engine
▁Эконом
▁абырой
▁атауға
▁дәлелі
▁иордан
▁смайыл
▁теңізі
▁трафик
▁шартын
тентифик
▁арнаған
▁елшілік
▁көреген
▁тілдері
▁шамасын
▁қатерлі
▁қожалық
▁өмірдің
дықтардың
шілігімен
қатынасын
▁алмайтын
▁келісімі
▁нормалар
▁қадамдар
энергетика
▁модуляция
▁шешімімен
▁бөлшектері
▁басшыларына
▁сенімділігі
▁ылғалдылығы
▁professional
▁информатиканы
-6
sc
бе
юз
бөл
еле
йор
кеш
▁АТ
▁Ак
ares
асил
▁12-
▁SiO
▁sal
▁бах
▁лиг
▁рам
atory
естен
мызды
әсіби
▁2022
▁enti
▁netw
▁past
▁Ауыл
▁Терм
▁есіл
▁кеше
▁осал
▁элли
андары
емелер
▁memor
▁south
▁күшей
▁текті
▁қарам
▁ұйғар
aterial
▁Оларды
▁нөлдік
істіктің
▁айтамыз
▁бақылап
▁жарылды
▁жолақты
▁жылдағы
▁кірісті
▁күнтізб
▁possible
▁Химиялық
▁алғаннан
▁былтырғы
▁сіздерге
▁құрылтай
▁келушілер
▁шақырылым
▁шығындары
▁ілгерілеу
▁өндірілді
▁scientific
▁мектептегі
▁теңдеулері
▁филиалының
▁жылдамдықты
▁ризашылығын
▁тұрғындарға
▁адамгершілік
▁мұғалімдерін
▁параметрлерді
▁тәжірибесімен
▁әкімшілендіру
▁қызметкерлеріне
)-
әк
lev
▁Cr
▁ХХ
onom
ynam
ауда
берн
клим
пект
туға
▁7,5
▁cer
▁off
▁tra
▁Айт
▁Обл
▁ныш
▁тог
утбол
▁Есеп
▁Тапс
▁кілт
▁сұлб
ensive
иналық
саттық
▁share
▁smart
▁until
▁бәрін
▁тұрды
▁ығысу
▁өрнек
▁өңірі
алмайды
обильді
шісінің
▁ағынан
▁даниал
▁жүктел
▁кабель
▁секунд
▁қолдай
аттармен
ерлердің
▁markets
▁векторы
▁докторы
▁кезеңді
▁көбейіп
▁транзит
▁Қаратау
істерінің
▁approved
▁Алгоритм
▁арабиясы
▁атқаруда
▁диоксиді
▁келмейді
▁mechanism
▁орталыққа
▁қолдаймыз
▁маусымында
▁оқытушының
▁холдингтің
▁қабылдануы
▁кезеңіндегі
▁қондырғының
▁көмектесетін
▁сенімділігін
▁синтетикалық
▁теңдеулердің
▁тәуелділігін
▁қайраткерлер
▁компанияларға
▁асимптотикалық
▁стратегиясында
▁тұжырымдамалық
ук
жіп
осу
сул
▁SD
▁av
▁Іс
▁кс
land
далу
етан
олла
▁175
▁3,4
▁aut
▁dip
▁ref
▁sep
▁Жет
▁лып
байды
▁барр
▁сәби
▁өкім
atform
алауға
бастұз
дамалы
▁unity
▁аспап
▁корол
▁көшіп
▁лагер
▁мәрте
дығынан
ымыздан
▁course
▁united
▁желдің
▁кенорн
▁лондон
▁максим
▁оқитын
▁талпын
▁тамара
▁азиялық
▁айтылып
▁апаттық
▁венгрия
▁гипотез
▁жылында
▁констан
▁түйінді
▁қолөнер
әрекеттер
▁пысықтау
▁тербеліс
▁қозғалды
▁әрекетін
енттерінің
офизикалық
▁базасының
▁байқалған
▁материалы
▁сабақтаст
▁стационар
▁құжаттары
▁әзірлеген
▁directions
▁republican
▁командалық
▁проблемасы
▁қағидалары
▁қаңтарында
▁үрдістерді
▁аттестаттау
▁түсіндіруге
▁үлгілерінің
▁өнеркәсіпте
▁congratulate
▁аспектілерін
▁жеңімпаздары
▁келісімдерге
▁сауаттылығын
▁жылдамдығының
▁трансформация
▁инфрақұрылымның
▁мүмкіндіктеріне
ИЗ
ОН
мды
▁(5
дасу
жылы
ібек
▁11-
▁240
▁280
▁4,7
▁squ
▁vii
▁кім
▁лам
▁энд
▁0,45
▁comb
▁Оған
▁жұмы
▁линз
▁үйде
▁әрті
▁арнап
▁бәсең
▁контр
▁ресім
▁өткір
троллер
▁ашатын
▁кредит
▁пікірі
▁руслан
▁сатуға
▁шұңқыр
алығының
сұлтанов
▁perform
▁tourism
▁австрия
▁алғышар
▁түзілуі
▁қымбатт
ектерінің
▁бауырлас
▁көлемдік
▁көрмелер
▁көрсетуі
▁мақтаныш
▁нысаналы
▁таңдаған
▁қолдануы
▁қысымның
▁өңірінің
▁анықтаған
▁реттеудің
▁сайланған
▁шақырылды
▁қарқынмен
биологиялық
▁агробизнес
▁алматыдағы
▁кедергісіз
▁міндетіміз
▁нормаларын
▁саясаттану
▁қаңтардағы
▁өндірісіне
▁кондитерлік
▁өңірлердегі
▁басымдықтары
▁биометриялық
▁жылдамдықпен
▁ғылымдарының
▁институттарының
еч
let
бра
reed
илля
ідір
▁4,3
▁4,4
▁Мон
▁аул
▁жіп
▁иыұ
allen
itory
ledge
жұмыс
танов
ірмен
құрам
▁Олай
▁Стат
▁бару
▁кати
▁мәмс
▁степ
абында
аналар
дасқан
дәрмек
ттылық
тәрбие
інетін
▁аспан
▁билет
▁жаңар
▁иидмб
▁төсен
▁цемен
▁өсуде
ариялық
▁design
▁diplom
▁regard
▁кірген
▁кірікт
▁ісінде
▁алаңына
▁географ
▁жоғалту
▁полином
▁саламыз
▁тәсілді
▁құралын
▁material
▁Тәжірибе
▁дәлелдеу
▁көліктің
▁ландшафт
▁спортпен
▁туындысы
▁өндіруде
дифференци
▁британдық
▁жезқазған
▁жүктемені
олептикалық
▁атқарылуда
▁деңгейімен
▁есептеудің
▁инжиниринг
▁факторлары
▁ресурстарға
▁зерттеулерге
▁қабылданатын
▁демографиялық
▁қолжетімділігі
26
32
БИ
ДЕУ
опа
рос
▁91
▁ef
mail
лген
неси
отты
▁230
▁Мен
▁эск
альян
асуға
ектеу
одуль
рының
▁took
▁Және
▁виру
▁гарм
▁жылд
▁сызб
▁сөзі
▁тікұ
▁шкал
▁өлше
понден
қолдан
▁жобал
▁көкей
▁салыс
▁қоқыс
▁annual
▁cities
▁leader
▁taking
▁авторы
▁ақырлы
▁баланы
▁кіргіз
▁мақтан
▁наград
▁театры
▁түркіт
▁тұруға
▁қажеті
жылдықта
▁challen
▁changes
▁анықтай
▁бюджеті
▁дегенді
▁сабақты
▁сатылым
▁телеарн
▁аппараты
▁кристалл
▁отырғаны
▁қабылдауы
▁қолдануда
▁қосымшасы
▁жүргізілуі
▁мүшелеріне
▁сарапшының
▁сауаттылық
▁сақталатын
▁қалыптасып
географиялық
▁агенттіктің
▁сигналдарды
▁екендіктерін
▁зерттеушілер
▁ұйымдастырып
▁әскерлерінің
▁инвестициялау
▁көрсеткішінің
▁температураны
▁мультимедиялық
▁құзыреттілігін
▁коммуникативтік
he
ТА
зу
як
іі
гім
иск
мит
▁Ap
ings
▁3-4
▁her
▁low
▁nat
▁Таң
▁тым
▁Құм
айымы
ресей
фолио
▁[13]
▁call
▁four
▁thus
береке
▁treat
▁алмай
▁бөлме
▁қосар
▁үштен
▁ӘДІСТ
▁өрлеу
▁өткім
алдарға
алуымен
естерді
ициялық
▁single
▁thanks
▁байбек
▁квазим
▁күштік
▁растау
▁халқын
▁өсетін
імділігі
▁аумақты
▁басқаша
▁дәлірек
▁енгізді
▁жуықтау
▁олардан
▁қаласын
компьютер
▁actively
▁алкоголь
▁жүйедегі
▁заңдылық
▁моделіне
▁серпінді
▁тотықтыр
▁тілдерді
▁чемпионы
▁ұшыраған
жекеменшік
▁tradition
▁генератор
▁жүйесінен
▁конструкт
▁мысалдары
▁нидерланд
▁санаттағы
▁талданған
▁құзыретті
▁үлгілерді
▁processing
▁мүшелігіне
▁сайлауалды
▁legislation
▁бөлімшелері
▁назарбаевты
▁жануарлардың
▁жағдайларына
▁кинематикалық
▁архитектуралық
▁консультативтік
AR
жа
зо
нк
-15
TEM
иды
нұр
син
ғау
▁Al
▁114
▁cro
▁Бар
▁фен
▁Қой
отроп
ритер
ғылым
▁conv
▁иесі
▁міне
▁шеше
итивті
стерін
▁added
▁dynam
▁holid
▁жолау
▁жуығы
▁мұрат
ективті
▁forces
▁opened
▁азияда
▁болдық
▁біреуі
▁бітіру
▁заңдар
▁тергеу
▁тұйықт
▁экипаж
▁қайтыс
▁leading
▁ашықтық
▁баршаға
▁жарысқа
▁көмекші
▁резиден
▁сенімін
▁табысқа
▁құнының
▁әдісіне
▁өңдеуде
▁deputies
▁expected
▁Павлодар
▁аударған
▁заманның
▁күндізгі
▁орындады
▁сабақтың
▁танысуға
▁тараптан
▁форумына
▁following
▁presented
▁Виртуалды
▁адсорбция
▁жеткізеді
▁жүйелерде
▁интенсивт
▁кемшілігі
▁көзделеді
▁саламатты
▁шақырамын
▁шешілетін
▁ұзындығын
▁Топырақтың
▁анықтамасы
▁асинхронды
▁жұмыстарда
▁мүгедектер
▁полимерлік
▁қоспаларды
▁біріктіруге
▁жүйелерінде
▁көрсеткішін
▁сессиясында
▁спектроскоп
▁қозғалыстың
▁құралдармен
▁ерекшеліктер
▁қатынастарын
▁өткізгіштігі
▁интеграциялау
▁морфологиялық
▁қосылыстардың
ds
ury
аяқ
жап
▁CO
▁Co
▁Кр
▁зо
беру
езов
омон
фици
ызыл
ыншы
▁109
▁алш
▁пас
▁рел
адрат
бейді
иямен
іспен
істен
▁0,57
▁hect
▁test
▁Сары
▁Стан
▁жабу
▁жіті
▁көбі
▁ораз
▁туды
▁қиып
▁өрне
апайым
ацияға
байбек
байтын
гиялық
онезия
умилев
▁major
▁ашуды
▁ереже
▁путин
▁фигур
▁құнар
ination
ылуының
▁білген
▁токтың
▁шешеді
атындағы
▁Белгілі
▁асырған
▁дәйекті
▁есептеп
▁жүздесу
▁санайды
▁фрагмен
▁қайтару
▁арналады
▁жүктерді
▁несиелер
▁талдауды
▁теміртау
▁ғылымдар
▁үрдістің
▁ұшырайды
▁territory
▁бөлімдері
▁локомотив
▁тетіктері
▁экскурсия
▁conference
▁аутентифик
▁жабдықтары
▁концерттік
▁ықтималдық
▁institution
▁пайдалануда
▁төңірегінде
▁introduction
▁бірлестігінің
▁композициялық
AB
td
Гц
iev
rio
АСС
ӘНЕ
адыб
еуіш
оцен
роду
түст
▁map
▁war
▁ақи
▁соғ
ттегі
▁[14]
▁conn
▁Тест
▁нәрс
verage
▁clear
▁бакал
▁білді
▁ермек
▁мырза
▁наноб
▁пленк
▁радик
▁өнері
икасына
лылығын
▁бүлдір
▁зорлық
▁капилл
▁күнкөр
▁сәттен
▁қалаға
▁қиында
▁әкелуі
▁russian
▁арзанда
▁аумақта
▁ауқымын
▁визасыз
▁ресейде
▁сипатқа
▁includes
▁Сатпаева
▁ажырамас
▁байқалып
▁біліммен
▁тауарлық
▁тығыздық
▁қоспаның
▁бозымбаев
▁ескеретін
▁көмектесу
▁отбасының
▁отырыстың
▁төленетін
▁жарлығымен
▁жаттығулар
▁картасының
▁Әлеуметтік
▁әкімдіктер
▁improvement
▁керамикалық
▁байланыстары
▁зерттеулерде
▁модельдеудің
▁мәліметтерін
▁сәйкестендір
▁қондырғыларды
▁ұйымдастыруда
▁ұйымдастыруды
▁ұйымдастырған
▁трансшекаралық
",
АЛЫ
теу
шан
ness
улет
▁(7)
▁way
▁Күр
▁Тол
▁бух
▁ром
бұлақ
оңғал
сәуір
▁Граф
▁арыс
▁сали
▁штам
▁эфир
action
▁күйге
▁портф
▁үлдір
▁ұнтақ
▁өрісі
ектілік
▁square
▁гидроф
▁есепте
▁концер
▁рефлек
▁сыртқа
▁торлар
▁қазына
▁ұлттың
▁problem
▁Мәселен
▁жартысы
▁кәдімгі
▁пәтерлі
▁синхрон
▁танылды
▁тұндыру
▁қақтығы
▁қысқару
▁әдебиет
аттықтыру
▁european
▁алатынын
▁бекіткен
▁гранттар
▁жалақысы
▁жүздеген
▁қарқында
ацияланған
▁completed
▁сақтайтын
▁фабрикасы
▁developing
▁аударылады
▁тауарларға
▁құндылығын
▁анықтамалық
▁германияның
▁тұрғындарын
▁басшылығының
▁бағытталатын
▁сипаттамалар
▁құндылықтарын
▁мүмкіндіктерге
▁перспективалық
36
eg
ИП
со
ӘК
cel
ext
uge
арал
еден
енаж
инат
ысыз
ышты
өнім
▁Маг
▁Там
▁алл
▁нат
ified
ентін
икалы
кенов
танол
қылды
▁0,60
▁1994
▁1999
▁cost
▁ЖӘНЕ
▁вокз
▁глоб
ИКАЛЫҚ
жоғары
олекул
іңізді
▁close
▁taken
▁Алтай
▁асқын
▁балет
▁идеяс
инарлық
кілікті
▁mining
▁демалу
▁жинағы
▁келісу
▁кескіш
▁фермен
▁Қызмет
▁қолмен
▁әзірге
▁express
▁аралығы
▁жалғасы
▁пластин
▁тартуды
▁туылған
▁қалыпқа
▁өлшеуге
▁өндіріп
▁informed
▁language
▁partners
▁platform
▁болжауға
▁жұмыстан
▁комиссар
▁конгресс
▁мекемесі
▁нығайтып
▁отырысын
▁тарифтік
әрекетінің
▁2014-2015
▁expressed
▁improving
▁айналмалы
▁популяция
▁сайлаудың
▁түзілетін
▁Электронды
▁басшылыққа
▁дәрежедегі
▁спутниктік
▁стандартқа
▁техникасын
▁Өндірістік
▁бақыланатын
▁зерттеулері
▁құралдарына
▁сәулелендіру
▁қыркүйегінде
▁құбылыстарды
▁жасөспірімдер
▁координаталар
▁технологиямен
▁кеңістігіндегі
▁бағдарламасымен
сә
аун
жал
сыр
▁Өт
ally
cies
акөл
имид
пуля
ібір
▁bor
▁үлк
жіпов
ингін
түтік
▁0,54
▁Амер
▁поез
▁таба
▁флор
▁істі
айында
тылады
▁regul
▁space
▁Брэгг
▁грамм
▁киелі
▁кәмел
▁синус
лығында
▁before
▁crisis
▁Талдау
▁жолына
▁осылай
▁планет
▁турнир
▁шығара
▁үйінің
циясының
▁opening
▁аренада
▁жинаған
▁металды
▁үйкеліс
▁үлестір
ологияның
пирикалық
▁астананы
▁бағалауы
▁динамика
▁мәтіндік
▁негіздем
▁оқшаулау
▁сауалнам
▁сендірді
▁төрайымы
▁қаныққан
▁қолдаған
▁өткізуде
▁Физикалық
▁ашықтығын
▁болғандай
▁дайындалу
▁жабдықтың
▁қамтылады
▁құрылысқа
▁әскерлері
▁accordance
▁interested
▁алушыларға
▁жүйелеріне
▁квадраттық
▁отандастар
▁полиэтилен
▁төлемдерді
▁хатшысының
▁participate
▁алгоритмнің
▁дайындалады
▁елдеріндегі
▁мырзахметов
▁сұрақтарына
▁төзімділігі
▁жеткізілетін
▁кезеңдерінде
▁Студенттердің
▁жетілдірілген
▁мүмкіндігінше
▁ықпалдастықты
▁өндірушілерді
▁хабарланғандай
SP
ct
өс
өң
ict
ule
дін
мут
▁Әу
бірі
лана
ожол
▁bar
▁адб
▁алп
▁сқо
▁сән
-2013
далып
ченко
ымбек
қауым
ұтқыр
▁2002
▁[15]
▁data
▁lear
▁list
▁бұру
▁диод
▁танк
▁цирк
▁әбді
▁әріп
istics
ғжанов
▁study
▁those
▁пәнді
▁рекон
▁ретке
▁сақин
▁урбан
▁Құрам
индустр
тарында
▁emphas
▁prices
▁proced
▁ауылда
▁вокзал
▁грамот
▁енетін
▁жастан
▁монтаж
▁сөзіне
▁фазасы
▁шымкен
▁against
▁various
▁жастары
▁зауытын
▁спортты
▁үдеткіш
▁ұлғайып
шараларға
▁capacity
▁communic
▁electron
▁белгілеп
▁күштерін
▁процессі
▁Ақпаратты
▁алдымызда
▁атқарылды
▁аумағынан
▁транспорт
▁түркияның
▁экстраген
▁ұйымдарды
▁ұйымдарға
▁ұсынымдар
▁сипаттауға
▁бөлігіндегі
▁жетілдіруді
▁әрекеттерін
▁объектілерін
▁олимпиадалық
▁сипатталатын
▁opportunities
▁бөлшектерінің
▁заңдылықтарын
▁орынбасарлары
▁серіктестіктің
05
38
48
cl
dp
МА
aff
elf
nel
жүз
ред
aces
cale
арын
ауыл
инов
урен
▁-20
▁6,5
▁mul
▁Көб
▁қдб
forts
даушы
іктік
ілдес
▁0,65
▁expl
▁subs
▁Сәйк
▁жәді
▁әдеп
ағұлов
ерлері
көрсет
тардан
▁found
▁given
▁Дәстү
▁аудио
▁баяул
▁велос
елермен
▁agency
▁reduce
▁supply
▁аммиак
▁губерн
▁логист
▁магний
▁футбол
▁элемен
▁құжаты
старының
▁efforts
▁Жоғарғы
▁ансамбл
▁жарылыс
▁кестеге
▁кодексі
▁коэффиц
▁оркестр
▁парадиг
▁қорымен
▁қорынан
▁exchange
▁Туристік
▁айындағы
▁аяқталып
▁биліктің
▁докторан
▁етпейтін
▁кеңейтіп
▁растайды
▁сақтайды
▁сессиясы
▁тілдерін
▁уақытына
▁энерготи
▁Қарастыр
▁қазбалар
▁құбырлар
▁жылдардың
▁капиталды
▁кешенінде
▁innovative
▁ауылындағы
▁дәлелдейді
▁жақсартады
▁компоненті
▁сезімталды
▁қызметтегі
▁болашақтағы
▁көшбасшылар
▁орындарымен
▁қасиеттерге
▁қолданылуда
▁критерийлері
▁мәдениетінің
▁сипаттамасын
▁құралдарымен
▁ғимараттардың
▁криптографиялық
▁қолжетімділікті
uk
жі
АНУ
нев
соң
▁оп
anda
road
агин
атам
гент
исек
орти
такт
яғни
қысы
▁112
▁4,8
▁баг
▁цик
▁шип
ystem
авказ
анықт
генер
лағыш
▁Зерт
▁бель
▁дара
▁келм
▁петр
▁қазу
▁ұғын
ically
жаттығ
мыстық
▁media
▁Интег
▁абзал
▁бүтін
▁жайын
▁кинет
▁метод
▁сүтті
▁түгел
▁әбден
ымыздай
әрекеті
▁expand
▁family
▁groups
▁Сыртқы
▁жұмсақ
▁конвей
▁латвия
▁соттың
▁экскав
▁энерго
▁істеді
екциялық
сметалық
▁reached
▁ауданын
▁деректі
▁ертінді
▁прогрес
▁тиіспіз
▁шешілді
▁қадамды
▁reported
▁астанасы
▁горизонт
▁елшілігі
▁жарамсыз
▁жібереді
▁нақтырақ
▁салтанат
▁сөздерді
▁тәріздес
▁учаскесі
▁difficult
▁knowledge
▁Маңғыстау
▁газдардың
▁жеделдету
▁жүйелерге
▁ойдағыдай
▁сарайында
▁сканерлеу
▁тақырыпты
▁қазандағы
▁беріктігін
▁пациенттер
▁проблеманы
▁туындылары
▁құраушылар
▁әңгімеледі
▁ерітіндінің
▁жоспарларын
▁платформасы
▁судьялардың
▁түркітілдес
▁ассамблеяның
▁establishment
▁алгоритмдерін
▁тартымдылығын
▁функциялардың
▁қырғызстанның
дифференциалдық
▁байланыстырады
▁компоненттерін
▁қалыптастыруды
▁температурасына
92
ij
кб
ЫНЫ
пеу
сип
сол
сшк
қақ
ivid
дром
▁sur
▁аял
▁Қау
желто
жидек
истің
онукл
такси
▁harm
▁post
▁апар
▁гипс
▁глюк
▁Өнер
пайтын
тарына
ттерге
▁Maple
▁sched
▁struc
▁Бұған
▁асуда
▁аөсшк
▁бекет
▁кіруі
▁мүлде
▁нәрсе
▁стенд
▁сізге
▁тарау
▁шәкір
▁үнқат
герлері
құрылыс
▁асырды
▁жасауы
▁обьект
▁оттегі
▁сулары
▁талдай
▁қатысы
▁қорлар
▁ұзарту
▁өзгеде
▁partner
▁метрден
▁мыналар
▁ішінара
▁ұсақтау
экономика
▁hectares
▁аспайтын
▁кванттық
▁миссиясы
▁смайылов
▁судьялар
▁сыныптан
▁сұрыптау
▁documents
▁валюталық
▁геометрия
▁кедергісі
▁кешендері
▁модульдік
▁сигналдың
▁федералды
▁үлгісінің
▁өзгеретін
▁өтініштер
▁assistance
▁introduced
▁Деректерді
▁аппараттар
▁даярлаудың
▁дұрыстығын
▁жалғастыра
▁зерттеледі
▁себептерін
▁сыйлығының
▁табиғаттың
▁федералдық
▁шикізаттық
▁ерекшелігін
▁тиімділікті
▁балабақшалар
▁еңбектерінде
▁тауарларының
▁байланыстарын
▁бәсекелестікке
▁дифференциалды
дс
▁ID
▁uk
▁эп
аева
аров
мырз
таль
факт
▁320
▁750
▁ago
▁вер
▁ноб
▁нов
▁руд
▁түн
other
▁full
▁Тран
▁еніп
▁жасу
▁затт
▁озон
▁қырт
▁құйм
алмасу
ліктің
фараби
қозғал
▁алтай
▁базар
▁блогы
▁заңын
▁келсе
▁көкжи
▁ондай
▁сазды
▁төтеп
▁эстаф
▁Қазір
▁ұжымы
есіздер
▁депози
▁карбид
▁келелі
▁көмегі
▁сатысы
▁швеция
▁ҚазҰПУ
ological
ектілігі
халықтық
ыстарына
▁Алғашқы
▁амандық
▁арыстан
▁ауытқуы
▁басқосу
▁баяндап
▁дайынды
▁диірмен
▁жасадық
▁заманға
▁көшпелі
▁ортамен
▁роботты
▁санкция
▁тауарды
▁қабілет
▁қаржысы
▁үлесіне
▁аурулары
▁зертхана
▁исламдық
▁қоныстан
▁өздеріне
▁өлшемдер
ендірілген
▁Екіншіден
▁айырымдық
▁аумағының
▁бұзылуына
▁нормалары
▁табыстады
▁құрамымен
▁жетекшілік
▁рәсімдерін
▁түрлерімен
▁форматында
▁элементтің
▁қолданумен
▁өткізілуде
▁аккредиттеу
▁орындалуына
▁оңтайландыр
▁потенциалды
▁тұрғызылған
▁әрекеттерді
▁өнімдерімен
▁өнімділікті
▁universities
▁атмосфераның
▁Педагогикалық
▁архитектурасы
▁математиканың
▁мемлекеттерге
▁пайдаланушының
▁меморандумдарға
ET
tz
Дж
сү
ұу
ЕТТ
бұз
дая
даль
дыны
турд
▁3,7
▁90-
▁Веб
▁ЭҚК
▁бұй
▁дық
▁экс
cript
мамыр
теңіз
түрік
▁0,41
▁inst
▁rail
▁дерб
▁пара
▁Қара
досаев
▁Дайын
▁Темір
▁Тірек
▁альян
▁демал
▁келес
▁схема
▁тенге
▁түпкі
гіштігі
энергия
▁біледі
▁виктор
▁гидром
▁жазған
▁лекция
▁лизинг
▁ойынша
▁себепт
▁соқтыр
кеңестік
сараптам
▁affairs
▁centers
▁leaders
▁зымыран
▁сорбция
▁сөздері
▁үлгілеу
омпозиция
әрекеттің
▁launched
▁trillion
▁ауыспалы
▁бағыттың
▁сіздерді
▁бұйымдары
▁долларына
▁егіншілік
▁енгізілуі
▁кеңесшісі
▁кішкентай
▁көрінетін
▁мегаполис
▁фестивалі
▁үшөлшемді
▁аймақтарын
▁бордақылау
▁студенттік
▁тауарларын
▁энергиямен
▁өңіріндегі
▁Информатика
▁авторлардың
▁аймақаралық
▁ластануының
▁отбасыларға
▁жабдықтардың
▁тәжірибелері
▁халықтарының
▁Қазақстандық
▁үлестірілген
▁баяндамасында
▁тәуелсіздігін
▁қауіпсіздігіне
▁қатысушыларының
96
HR
att
ees
hod
ауқ
баб
елл
еңк
куб
ров
уен
цет
▁(4
▁04
▁08
▁[6
▁mr
▁ЭК
▁иж
aign
иран
филь
циум
▁155
▁206
▁wel
▁под
▁сут
▁тиг
Сурет
гірім
күйін
ногор
уымен
ұлтты
▁0,58
▁exce
▁join
▁Алды
▁арыз
▁драй
▁литр
▁свет
▁қарм
econom
idents
ландия
сайлау
▁mayor
▁party
▁граду
▁ескір
▁заңда
▁кемел
▁сызба
▁тұйық
▁істем
бірінен
ерлерді
шылыққа
▁change
▁effici
▁Жамбыл
▁алатау
▁болмай
▁гүлден
▁жобада
▁курсан
▁мансап
▁шығымы
▁эпидем
▁қарсыл
етербург
▁ажырату
▁витамин
▁горизон
▁конкурс
▁консерв
▁суретке
▁тартқан
▁хаттама
ification
▁Дәстүрлі
▁ашылатын
▁болгария
▁жасампаз
▁кандидат
▁клубының
▁микрокон
▁норматив
▁реттеуді
▁салынуда
▁сүзгілеу
▁актілерге
▁арттыруда
▁басқаруда
▁бюросының
▁велосипед
▁клиенттер
▁мекеменің
▁орындауда
▁Біріншіден
▁білетіндей
▁газдандыру
▁жетілдіріп
▁сұраныстың
▁сұрақтарын
▁шарттарына
▁қабылдағыш
▁айқындайтын
▁айқындалады
▁деректермен
▁жіберілетін
▁мақаласында
▁облыстардың
▁шығындардың
▁есептеулерді
▁корпоративті
▁материалының
▁мекемелерінде
▁шаруашылықтар
▁әріптестіктің
▁консультациялар
tt
ЕШ
ked
ope
tis
АРЫ
ота
фил
ьян
▁si
▁ЖҚ
▁ше
екке
▁(8)
▁3,8
▁mom
▁put
▁vot
▁ЖЭС
▁гон
▁квт
▁лян
▁хок
▁Қай
ануда
динов
ибден
карди
танды
▁0,66
▁0,67
▁give
▁стим
▁әдем
амызды
шараны
▁10-15
▁green
▁prime
▁жылын
▁клубы
▁мәміл
▁ниетт
рополит
▁Осының
▁аударм
▁бейнек
▁етілуі
▁пластм
▁талдап
▁өтейік
▁бағалай
▁бекітті
▁емтихан
▁жиналып
▁итальян
▁минерал
▁нығайта
▁салатын
▁тұрғызу
▁қарауды
армашылық
▁campaign
▁аптасына
▁аударады
▁дәлдігін
▁жиілігін
▁соғұрлым
▁айналысып
▁игілігіне
▁кішігірім
▁көзқарасы
▁Қарағанды
▁businesses
▁бұйымдарды
▁енгізілуде
▁жеделхатта
▁мәндерінің
▁нүктесінде
▁тактикалық
▁әрекетінің
▁байқаушылар
▁бағыттарына
▁жоғарылайды
▁мақсаттарды
▁мекемесінің
▁учаскесінде
▁нәтижелердің
▁конструктивті
▁жетіспеушілігі
▁объектілерінің
▁құрылымдарының
▁әріптестерімен
▁міндеттемелерді
2/
78
СЕ
рш
қм
ңд
...
[1]
asp
sis
ЕСІ
доз
ктр
шаб
▁4)
▁Ex
▁фл
ксим
олин
▁10%
▁128
▁eae
▁saf
▁Нан
▁Ней
▁кул
▁таш
▁ция
andid
тырау
қарсы
қосым
▁0,44
▁0,62
▁Уақы
▁майы
▁шуыл
▁шыға
idence
▁exist
▁right
▁Орган
▁біріг
▁ешбір
▁кетуі
▁скрин
▁сутек
▁түтін
▁шешіп
▁Қоғам
икадағы
▁андрей
▁басқан
▁биікті
▁кодтау
▁консор
▁тілдің
▁түсуге
▁ұнтағы
economic
идтердің
тірілген
▁еңбегін
▁жасалуы
▁иранның
▁сипатта
▁тигізіп
▁тілінен
▁төсеніш
▁Қосымша
▁approach
▁ашықтығы
▁кезеңнің
▁реттеуші
▁санаймыз
▁сулардың
▁сәттілік
▁тауардың
▁халықпен
▁қуатының
шаралардың
▁басқарады
▁дәлдікпен
▁жолдаудың
▁келетінін
▁кеткендей
▁түлектері
▁форумының
▁байқалатын
▁білдіремін
▁демократия
▁ескеріледі
▁комитетіне
▁массасының
▁сәйкестігі
▁қаулысымен
▁әлеуетінің
▁салыстыруға
▁құрылымдары
▁компьютердің
▁мақсаттарының
3;
ЭМ
CAD
ino
oop
une
ауд
зақ
игн
риг
▁iv
cent
онит
ытқы
▁Pro
▁гел
▁дүр
▁лар
▁нам
кеңес
▁0,70
▁eaeu
▁goal
▁алма
▁дмит
▁коал
▁руда
▁түйе
анитар
инвест
ушылар
інізге
▁дизай
▁үмітт
▁үштік
андарды
дігімен
процесс
▁candid
▁берілу
▁желіге
▁рекорд
▁энтроп
▁ілеспе
▁қыздар
ықтықтан
▁ассорти
▁балапан
▁бейінді
▁жинауға
▁жүйемен
▁импортт
▁кристал
▁шарттың
▁Қолдану
▁ұрпақты
▁өрістер
▁ауданына
▁аумақтың
▁жарыстар
▁жөндеуге
▁кестесін
▁нұсқасын
▁нәтижені
▁табиғаты
▁талантты
▁қорларын
▁қуантады
▁қытайдан
▁Жезқазған
▁плазмалық
▁терминдер
▁шығарылым
▁ғылымының
▁ұйымдарда
▁ұғымдарды
▁Зерттеудің
▁интерфейсі
▁нүктесінің
▁пікірлерін
▁салқындату
▁соншалықты
▁environment
▁естерінізге
▁қағидаларын
▁өнеркәсібін
▁ерекшелігіне
▁жағдайларында
▁қалдықтарының
▁қондырғысының
▁республикасымен
pl
ДЫҚ
енс
луы
пыз
сәр
том
тіл
құт
▁cr
▁АВ
▁еэ
ерді
еңке
имов
ланы
нның
шығы
ісов
▁hap
▁ltd
▁Арн
▁дсә
▁қир
▁әул
табиғ
тылып
▁0,59
▁400-
▁Open
▁port
▁Дүни
▁азат
▁бект
▁гель
▁лақт
▁сорт
▁сығу
encies
наурыз
шісіне
▁purch
▁ready
▁айдар
▁біліп
▁бұұдб
▁жатты
▁күмән
▁лянью
▁пирам
▁тігін
▁эваку
▁әлемі
функция
▁method
▁Орташа
▁Туризм
▁балалы
▁гранул
▁дәурен
▁жасына
▁көбеюі
▁түпнұс
▁қайнар
▁өңірге
стерінің
ілігінде
▁concept
▁holiday
▁болжамы
▁кернеуі
▁көмекке
▁мерейлі
▁саудаға
▁татулық
▁шағылыс
▁іріктеп
▁Құрылыс
▁қабатын
▁қозғады
▁progress
▁research
▁арттырды
▁заттарға
▁зауыттар
▁көпұлтты
▁прокурор
▁ұстанымы
▁conducted
▁байлықтар
▁датчиктер
▁полковник
▁талдаулар
▁уақытының
▁шекаралас
▁increasing
▁жұмағалиев
▁ипотекалық
▁кадрлардың
▁металдарды
▁мүдделіміз
▁түпкілікті
▁engineering
▁independent
▁жалғастырып
▁есептелінеді
▁жемқорлықпен
▁ресурстарына
▁сәйкессіздік
▁қазагроқаржы
▁қорытындысын
▁реконструкция
▁тұтынушыларға
▁байланыстыратын
▁жауапкершілікке
▁компанияларымен
▁міндеттемелерін
37
LE
эй
баз
мбы
▁km
▁Ля
▁ШР
жаңа
лену
тари
тарм
▁ece
▁loc
▁гом
▁иль
▁окқ
▁тос
adays
pects
аплас
дамын
кенде
мелеу
стағы
транз
ықсыз
ілуге
ғынан
▁anti
▁аясы
▁ақсу
▁иман
igital
агност
дамент
қараша
▁relev
▁айдан
▁алқап
▁аңғар
▁екеуі
▁менші
▁мұхит
▁санды
▁санкт
▁тәлім
екциясы
құтқару
▁german
▁safety
▁аптада
▁бөлген
▁еритін
▁ойымыз
▁пішіні
▁қатпар
▁another
▁monitor
▁sectors
▁Топырақ
▁арналып
▁ауқымда
▁баратын
▁бригада
▁бөлімде
▁жөнінен
▁мүшелік
▁орнынан
▁оқушыға
▁стартап
▁тіркелу
▁nowadays
▁Оқытудың
▁бастадық
▁визуалды
▁климатты
▁күнкөріс
▁көтерілу
▁негіздеу
▁созылады
▁созылған
▁қоректен
▁құйылған
▁үлестіру
▁әсерінің
▁бүлдіршін
▁дінаралық
▁жасақтама
▁келешегін
▁маусымына
▁менеджмен
▁орындалып
▁реакциясы
▁сұранысты
▁қорғайтын
▁құрылысты
▁Зерттеулер
▁Математика
▁байқауының
▁барлығымыз
▁біріктіріп
▁гигиеналық
▁жаттықтыру
▁жылдығымен
▁метрология
▁шілдесінен
▁бұйымдардың
▁дәрежесінің
▁елшілігінің
▁жұмыскерлер
▁министрлері
▁қабылдаудың
▁азаматтарына
▁делегацияның
▁диапазонында
▁мемлекеттермен
▁сайлаушылардың
▁технологиясына
▁қондырғылардың
▁профилактикалық
//
01
du
iy
ym
zh
СК
ку
әж
III
aca
tan
uly
гар
кий
лат
нығ
сак
▁sc
▁ИК
▁ри
▁ші
aged
fied
ique
ІНДЕ
аңғы
блок
рипт
терр
тырм
▁5,2
▁hon
▁lim
▁liv
▁жот
▁онт
▁таи
▁тұм
▁әрт
-2021
акрил
ников
уының
ғанақ
▁0,71
▁1993
▁egov
▁Кіші
▁қиыр
сөздер
▁belar
▁sever
▁staff
▁айдын
▁аумақ
▁еліне
▁ержан
▁жыныс
▁төлен
▁Қалып
▁өткел
ылуымен
▁achiev
▁Балқаш
▁Интерн
▁аналар
▁ақорда
▁бірігу
▁графен
▁маманы
▁сананы
▁словак
▁сызығы
▁қоржын
▁құқылы
▁өтуіне
инералды
исекешев
▁believe
▁largest
▁Жүйенің
▁басқада
▁бөлетін
▁ешқашан
▁еңбекақ
▁күйінің
▁науқаны
▁негізді
▁резонан
▁сабаққа
▁термині
▁тигізді
▁қоңырау
▁Өсімдік
▁өндірді
▁transfer
▁Параметр
▁Сырдария
▁дүниетан
▁нығаюына
▁әсерлесу
▁алқасының
▁гидрогель
▁кездесуді
▁кеңейтеді
▁комбинаты
▁көмекшісі
▁Қызылорда
▁қатардағы
▁қашықтығы
▁аппараттың
▁жапонияның
▁көпмүшелік
▁түсірілген
▁тұрғызылды
▁ұйымдасқан
▁өміріндегі
▁компонентті
▁мүшелерімен
▁тарихындағы
▁тербелістер
▁эмпирикалық
▁әрекеттесуі
▁requirements
▁математиканы
▁посткеңестік
▁талқыланатын
▁тектоникалық
▁экстремизмге
▁нанотехнология
2+
DF
ао
ео
-12
ola
ten
ЫЛЫ
иру
тол
ялы
іре
▁1:
▁Cd
▁Ph
▁ko
▁лы
adem
goti
ough
ЕРДІ
ерге
птың
рлық
▁118
▁3,0
▁4,2
▁bal
▁pet
▁Тәу
▁Шет
▁леб
▁ойп
▁рен
▁Қаж
▁Қат
gress
tific
болып
пунов
сенбі
сызды
тінің
▁3000
▁HTML
▁days
▁paid
▁ques
▁team
▁Мақс
▁ерен
▁үиид
▁өлең
діктің
монтаж
▁veter
▁Еуроп
▁абстр
▁балқы
▁дистр
▁дсәдм
▁олқыл
▁тұруы
автожол
алынады
далатын
▁negoti
▁бейнеу
▁доңғал
▁елінде
▁жүгіру
▁мұсылм
▁үйінде
▁Алдымен
▁Төменде
▁бурабай
▁нәтижел
▁орнатып
▁сабақта
▁талапқа
▁түрлену
сайлауком
қауымдаст
▁кешендер
▁көліктер
▁көмірдің
▁назардан
▁ресейден
▁смартфон
▁шілдеден
▁қонақжай
▁2015-2017
▁Нәтижелер
▁семинарға
▁тотықтыру
▁хаттаманы
▁электроли
▁әліпбиіне
▁бекітіледі
▁заңнамасын
▁сұхбаттасу
▁сәулесінің
▁францияның
▁дағдарыстың
▁зерттелінді
▁кәсіпорынды
▁көмірқышқыл
▁уағдаластық
▁ұзындығының
математикалық
▁алгоритмінің
▁байланысының
▁жалғастыруда
▁заңдылықтары
▁келісімдерді
▁мұғалімдерді
▁ортсайлауком
▁әбдірахманов
▁бөлімшелерінің
▁ведомствоаралық
-8
/(
34
64
АК
ИТ
ark
вал
лим
тұз
▁МБ
▁кэ
-100
anks
атыр
ауру
исті
сіби
ттеу
үлей
▁win
▁Заң
▁Маш
апшаң
евтің
паров
түсін
▁able
▁ижтм
▁сана
▁саға
▁түсі
▁тұра
тиллер
▁беріл
▁жоқты
▁лайық
▁норма
▁парал
▁өріст
аттылық
▁terror
▁Арнайы
▁Еуропа
▁банкін
▁бухгал
▁кептір
▁осымен
▁сарқыл
▁ұңғыма
▁belarus
▁Ляпунов
▁апаттар
▁арматур
▁белдеуі
▁есебіне
▁жылудың
▁жылының
▁нысанын
▁ойлауды
▁саммиті
▁сақталу
▁шешетін
▁ұсынысы
▁өзгерді
кезеңімен
▁дамытады
▁жабдықты
▁келтіріп
▁пайызбен
▁тарифтер
▁тарихына
▁тартудың
▁өлшенген
санитарлық
▁бағдарлау
▁бағдаршам
▁ветеринар
▁жүргізуші
▁павильоны
▁салаларға
▁теориясын
▁тұрғандай
▁шарттарға
▁қабатында
▁қосындысы
▁өзгерісін
▁өлшенетін
▁historical
▁байланысқа
▁бастығының
▁болашағына
▁корпусының
▁мөлшердегі
▁ылғалдылық
▁әзірленеді
▁ведомствода
▁критерийлер
▁мәжілісінде
▁сейсмикалық
▁өзгерістері
▁мамандығының
▁монополиялар
▁органдарымен
▁принциптерін
▁инвесторлармен
▁параметрлеріне
▁қызметкерлерін
жу
юс
үк
әм
-17
500
ock
ude
ОГИ
атэ
ень
▁ін
anch
АССР
ігін
▁(9)
▁113
▁157
▁Айм
▁СМЖ
▁Тор
▁мун
▁нық
аудан
тамыр
темір
ғаяды
▁600-
▁char
▁done
▁дағы
▁жұту
▁молд
▁сұхб
▁ісік
▁құпт
▁Үкім
▁үгіт
Reduce
ograph
tember
орынды
ульдоз
▁basic
▁Күкір
▁айыру
▁дубай
▁елест
▁клетк
▁комму
▁милан
▁никол
▁прото
▁ішіне
▁қақты
орларын
шілікті
▁having
▁patrio
▁ауысуы
▁бензол
▁реттел
▁шындық
▁қалаул
ляциялық
▁Педагог
▁аяғында
▁жиналыс
▁жүйелеу
▁күнінен
▁көзінің
▁нысанда
▁сенеміз
▁сотының
▁сырттан
▁таиланд
▁топтағы
▁шақырту
▁шығуына
▁қалдыру
▁құралды
▁өлшегіш
▁property
▁Авторлар
▁алаңдары
▁бразилия
▁дағдылар
▁жарылғыш
▁жерлерге
▁комплекс
▁сырықтың
▁сұранысы
▁терминал
▁үйренуге
аторлардың
▁бағалауда
▁елбасымыз
▁конверсия
▁орнындағы
▁оқытушысы
▁секторына
▁тоқталған
▁ғасырдағы
▁қатысуына
▁Өнеркәсіп
тәжірибелік
▁Эксперимен
▁жобаларына
▁жоғарылады
▁кластерлеу
▁консорциум
▁кооперация
▁корреляция
▁минералдар
▁оқиғаларды
▁секторында
▁эффективті
өнеркәсіптік
▁association
▁алгоритмдік
▁жұмыссыздар
▁кәсіпорынға
▁мамандармен
▁нысандарына
▁стандартына
▁тәжірибемен
▁микроқұрылым
▁органдарында
▁сабақтарында
▁орналастыруға
▁орынбасарының
▁қауіпсіздікке
▁қызығушылықты
▁проблемалардың
▁қызметкерлерге
▁біліктіліктерін
LP
SS
СЫ
amb
ПАР
жау
икс
имн
сүй
ызы
▁(«
▁ЖҮ
▁шк
арды
ахан
имен
ская
▁4,6
▁4,9
▁max
▁Айн
▁Бөл
▁кре
▁қош
ially
inder
ОЛОГИ
дықов
ньган
оксик
▁STEM
▁БІЛІ
▁апат
▁брон
▁касс
▁тасы
▁фрон
▁юрий
дүйсен
иллион
ртүрлі
ұлының
▁carry
▁needs
▁press
▁Мұның
▁бақша
▁ешкім
▁жүйке
▁күтім
▁оқуды
▁шаңғы
▁өлімі
алынған
▁higher
▁бұлшық
▁жазады
▁игілік
▁кавказ
▁омаров
▁оқыған
▁пункті
▁салсақ
▁түйірш
▁қазақт
idential
аболалық
қатерлер
▁Жапония
▁жерлері
▁зондтау
▁маршрут
▁пайдасы
▁румыния
▁саралау
▁өтемақы
▁бағалары
▁гибридті
▁енгізеді
▁еңбекақы
▁километр
▁ормандар
▁таратуға
▁топтарға
▁түсірген
▁тұрғанын
▁шаймалау
▁ұлғайған
▁әлеуметт
▁2014-2016
▁алдымызға
▁дәлелдеді
▁жалпылама
▁жүзіндегі
▁машинақұр
▁сапарымен
▁энергияға
▁Қарапайым
▁қабаттағы
▁әңгімелеп
▁өткізілуі
▁priorities
▁аймақтарға
▁бағытталуы
▁жеткізудің
▁жинақтаушы
▁сертификат
▁топырақтар
▁шарттардың
▁қашықтықты
▁authorities
▁corporation
▁айналасында
▁дайындайтын
▁облысымызда
▁параметрлік
▁тұрақсыздық
▁қарашасында
▁жоғарылатуға
▁инвестицияны
▁кепілдендіру
▁отырғандығын
▁төзімділігін
▁қызметкердің
▁орындарындағы
▁тәжірибелерді
▁операторлардың
▁республикадағы
▁станцияларының
▁белсенділігінің
▁корпорациясының
▁қаржыландырылды
TP
АА
йм
уи
eng
ued
виз
иде
көп
көш
мас
мед
сұр
▁1.
▁ba
▁ры
асов
дала
здер
росс
спан
імде
ғытт
▁145
▁she
▁Каз
▁аек
▁жен
▁ког
▁нив
▁отб
rency
гидро
мәнді
төмен
▁0,61
▁0,68
▁dial
▁infl
▁mass
▁Түрк
▁нитр
▁праг
▁реті
▁ролі
ционды
▁rural
▁атлет
▁аустр
▁бетке
▁жігер
▁нығая
▁одақт
▁сұлба
▁түлек
▁шихта
▁әлиев
ауыздан
бойынша
дардағы
▁almost
▁бойлық
▁мыңдай
▁науқас
▁нөмірі
▁шамалы
▁шебері
▁ісінің
▁ұмтылу
▁әртүрл
артылған
▁network
▁Стандар
▁арналды
▁контурд
▁репроду
▁табатын
▁тудырды
▁химияны
▁үрдісті
герлердің
▁congress
▁december
▁алмасуды
▁жалғасып
▁кейбіреу
▁ойындары
▁сауданың
▁сеніммен
▁сүйіспен
▁топтарын
▁үлесінің
▁өсімінің
▁MapReduce
▁байқалуда
▁безендіру
▁белгіледі
▁берушінің
▁даярлауда
▁еңбектері
▁жамылғысы
▁жоспардан
▁ластануын
▁микроэлем
▁объектіге
▁орындауды
▁партиялар
▁саммитіне
▁суреттегі
▁функцияны
▁қаттылығы
▁қолдауына
▁құбырлары
▁өзгертеді
▁жетекшілер
▁комиссияға
▁конкурстық
▁мектептері
▁негізделіп
▁техникамен
▁қарашадағы
▁аудандардың
▁желтоқсанға
▁мекемелерде
▁тақырыптары
▁қабілетінің
▁қарастыруды
▁үдерістерін
▁жетілдірудің
▁операторының
▁бастамаларына
▁биотехнология
▁тәжірибелерін
▁administration
▁стандарттардың
▁өнеркәсібіндегі
»,
ЕК
НҚ
УР
хн
ғи
қк
met
сам
улл
хам
ғас
әрі
▁SO
▁gl
▁Із
▁ЖА
▁СЖ
▁мк
▁хи
.00-
ason
tern
ктік
прет
птік
ятын
өзен
▁154
▁XML
▁ret
▁баш
▁өлк
inary
ттрий
▁0,73
▁5000
▁Сапа
▁дист
▁инкл
▁мойн
▁сырқ
▁ізгі
ингтон
иясына
▁Алдын
▁десек
▁кенді
▁көгал
▁осыны
▁отыны
▁сәлем
▁топта
▁ширек
▁эволю
▁іздеп
апшағай
▁demand
▁strong
▁Байлан
▁аталым
▁вакцин
▁дамиды
▁ықпалы
▁Құмкөл
▁өзіміз
standing
ирленген
кезеңмен
▁friends
▁several
▁алмасып
▁алтыншы
▁банктік
▁метрлік
▁оңтүсті
▁салығын
▁сағатқа
▁тауарлы
▁қалаған
▁әкімнің
▁азаматты
▁анимация
▁дауларды
▁көтереді
▁мәндерді
▁пікірлер
▁тыңдалды
▁шешілген
▁ығыстыру
▁қойылымы
▁құрамның
▁авторлары
▁ауруларды
▁ақорданың
▁бағаланды
▁регрессия
▁сөздердің
▁талданады
▁тотығының
▁тоқаевтың
▁тұтқырлық
▁ферроқоры
▁қасиетіне
▁қоспалары
▁құжаттама
▁басталатын
▁белсендіру
▁бірауыздан
▁жылдығында
▁зерттейтін
▁көмірсутек
▁регламентт
▁сүйемелдеу
▁тұлғаларды
▁тұрғылықты
▁тұтқырлығы
▁үнемдейтін
▁Тәжірибелік
▁басшылығына
▁жыныстардың
▁кеңістігіне
▁мұхамедиұлы
▁қасиеттерді
▁қуаныштымыз
▁әдіснамалық
▁аудандарының
▁декомпозиция
▁кәсіподақтар
▁саясаткерлер
▁таныстырылым
▁өзбекстанның
▁механизмдерін
▁ұйымдастырушы
▁конференциялар
▁лингвистикалық
0)
68
CI
CM
PO
ier
put
Хим
рог
шөп
ұст
әли
▁АЛ
▁Бл
▁Ен
▁Жи
▁ра
,000
ogue
term
изон
флор
ұйым
▁124
▁20%
▁210
▁dev
▁Май
▁Шығ
▁мыз
▁Әрі
arian
аскад
езист
ылмай
ылсын
▁1996
▁idea
▁live
▁Проц
▁када
▁трам
▁қымб
озаның
▁espec
▁БІЛІМ
▁Химия
▁бұлар
▁ерлер
▁жапыр
▁зиялы
▁шаһар
▁өндеу
▁determ
▁Бұндай
▁дуалды
▁жағдая
▁жылуды
▁иондық
▁судағы
▁талшық
▁таңдай
▁темекі
▁түзеді
▁қайтты
аттарына
танымдық
▁азайған
▁арқалық
▁геометр
▁кездест
▁корпусы
▁кіріспе
▁шашырау
▁шешімге
▁ғылымға
▁ӘДІСТЕМ
▁әділбек
сауықтыру
▁Мобильді
▁жалпылау
▁жіберуге
▁компресс
▁реттейді
▁салдарын
▁секторды
▁синтакси
▁ғимараты
▁айналымға
▁бағытының
▁дамытатын
▁дисперсті
▁жандардың
▁келмейтін
▁көздерден
▁номиналды
▁топтастыр
▁шақырымды
▁қолданыла
▁қылмыстар
▁қышқылдық
▁құбырының
▁бөлімшелер
▁ережелерді
▁ляньюньган
▁потенциалы
▁реформаның
▁әрекеттері
▁өзгеріссіз
▁realization
▁аппаратының
▁қосылыстары
▁achievements
▁аймақтарының
▁тасымалдаушы
▁шоғырландыру
▁manufacturing
▁факторларының
▁ынталандыруға
▁компоненттерді
▁оңтайландыруға
na
-18
-30
[2]
ogn
акр
гөз
жық
иял
көк
роз
уқұ
▁Ad
▁Ni
▁ил
мені
птық
спер
ыпты
қары
▁Дир
▁бит
▁вар
▁дев
▁еге
▁хай
▁хам
▁әйт
adoop
duino
erver
ИКАНЫ
жалпы
мәтін
олары
▁both
▁used
▁Кері
▁есту
▁карб
▁неге
▁таяқ
алынды
операт
ілерін
▁benef
▁build
▁байқа
▁васил
▁газға
▁дарын
▁дауыл
▁кіріп
▁мәзір
▁пәнге
▁съезд
▁сәбіз
▁танып
▁құмды
▁өзгеш
▁өңдеп
бұрышты
іңіздің
▁action
▁moment
▁Жолдау
▁тауары
▁тектес
▁тосқау
▁тоқтап
▁транск
▁төндір
▁шалдық
алдарына
естігіне
пайдалан
қылардың
▁defense
▁systems
▁аукцион
▁баталов
▁демпфер
▁дмитрий
▁квадрат
▁көлікті
▁ортадан
▁санынан
▁спектак
▁тізімге
▁шамадан
▁қалдығы
▁dialogue
▁бидайдың
▁кешеніне
▁миграция
▁нүктесін
▁ойымызша
▁сипатына
▁технопар
▁формасын
▁шамасына
▁қолданды
▁өнерінің
шаруашылық
▁financing
▁materials
▁september
▁астындағы
▁жеңімпазы
▁жүргіздік
▁импорттық
▁интерпрет
▁көтеріліп
▁маңыздағы
▁миллионға
▁моральдық
▁орындарда
▁салыстыра
▁сириядағы
▁тақырыпқа
▁тұтынатын
▁әйелдерге
▁challenges
▁especially
▁innovation
▁жасақталды
▁жеткізетін
▁оқытылатын
▁пайдалануы
▁қолбасшысы
▁қорғалатын
▁innovations
▁күрделілігі
▁тазартылған
▁қабаттардың
▁kazakhstanis
▁жамылғысының
▁жылдамдығына
▁кафедрасының
▁мамандықтары
▁механизмдері
▁перспективті
▁қиындықтарды
▁гравитациялық
▁компанияларын
▁өндірушілерге
▁өнімділігінің
▁ведомствосының
▁тыңайтқыштарды
▁артықшылықтарын
▁жекешелендіруге
NN
oS
юр
қи
ece
pri
ung
ves
быс
ена
кте
лес
лык
маш
орб
ьяк
әлі
▁En
▁Ко
▁мж
atus
астр
конг
нүкт
оний
офаг
ұрыс
▁(5-
▁134
▁ris
▁say
▁sen
▁ПӘК
▁меш
thing
егері
ланың
майор
минес
сүлей
тамын
шымен
▁0,72
▁bill
▁half
▁еріт
▁маус
▁мону
▁құрб
ustain
активт
анттар
геннен
дейміз
егенер
ектепт
▁resol
▁Класт
▁батыл
▁екпін
▁жатса
▁мүсін
▁орыны
▁роман
▁сынап
▁тақта
itation
азиялық
проксим
ілімдер
▁aktobe
▁around
▁Лаплас
▁бұндай
▁дәлізі
▁жаңбыр
▁кірісі
▁көшуге
▁толығы
▁фазалы
▁хлорлы
▁қисығы
тациялау
ымыздағы
▁natural
▁Полимер
▁бақытты
▁бейнені
▁дизайны
▁ережесі
▁жүргізе
▁иондары
▁көмегін
▁көмірді
▁мұнымен
▁нақтылы
▁тұлғаға
▁өткенін
астикалық
▁attended
▁байқаушы
▁балалары
▁басталуы
▁еуропаға
▁магнитті
▁мұнаймен
▁отырғызу
▁талданды
▁теңдеуге
▁тырысады
▁цзиньпин
▁қоймайды
▁өңдеуден
ациялаудың
▁logistics
▁provision
▁алматылық
▁асырылуын
▁аудандағы
▁желісінде
▁заттармен
▁индонезия
▁күшейткіш
▁мемлекеті
▁орындарды
▁потенциал
▁тасымалын
▁фундамент
▁хаттамаға
▁қадағалап
▁қорғанысы
▁әкімдікте
электрондық
▁considered
▁алгоритмді
▁дайындаған
▁нысандарға
▁отырғанына
▁қатынастың
▁өлшемдерін
▁interaction
▁Зертханалық
▁сайлаушылар
▁сұйықтықтың
▁тұрақтандыр
▁тәжірибеден
▁қатысатынын
▁әкімдігінен
▁өндірістегі
▁ардагерлерге
▁матрицасының
▁программалар
▁техникасының
▁ілгерілетуге
▁қолданушылар
▁қондырғылары
▁арифметикалық
▁каталитикалық
▁мемлекеттерде
▁тиімділігінің
▁қозғалтқыштың
▁агроөндірістік
▁жартыжылдығында
55
ma
кв
sat
аил
жің
меу
реж
саб
түй
шең
ьев
▁%)
▁02
▁07
▁ГА
▁яс
gart
ised
iter
lash
year
амма
илиз
огид
огур
псих
▁111
▁127
▁bri
▁Сәт
▁атл
▁деф
▁диф
▁көг
▁сәл
дейін
ейтен
изайн
индер
интер
оника
патри
Қазақ
▁0,39
▁0,50
▁west
▁Есіл
▁алым
▁дифр
▁жүзу
▁моно
▁омыр
cement
улярлы
шысына
іктегі
імінің
▁house
▁karag
▁means
▁point
▁reads
▁авиак
▁атына
▁кесен
▁кідір
▁монет
▁объек
▁ставк
▁текст
▁тенни
елерден
▁expect
▁kinder
▁ескерт
▁консул
▁логика
▁нәрест
▁түкпір
ашингтон
енциалды
туристік
▁mission
▁visited
▁ауысады
▁заттары
▁сілтеме
▁табанды
▁төлеген
▁істерді
▁қазылар
▁қашаған
▁құратын
▁өлшеуіш
▁proposed
▁turnover
▁басшысын
▁дерекқор
▁дәрістер
▁жатақхан
▁нейрожел
▁сигналды
▁сызықтар
▁туындады
▁эволюция
▁атмосфера
▁бастамашы
▁векторлық
▁дайындады
▁жақсартып
▁мағынасын
▁мақаланың
▁маңыздысы
▁нақтылады
▁органының
▁реформасы
▁созылмалы
▁татарстан
▁тұздардың
▁ультрадыб
▁экспортты
геологиялық
▁kindergart
▁аумақтарды
▁бағалайтын
▁реакторлар
▁саясаттағы
▁транзакция
▁қабылдауда
▁заңнамасына
▁кемшіліктер
▁сигналдарын
▁түрлендіруі
▁үміттенеміз
▁әкімдерінің
демографиялық
▁аймақтардағы
▁бақылаушылар
▁секторындағы
▁тасымалдауды
▁Технологиялық
▁ерекшеленетін
▁желтоқсандағы
▁құбылыстардың
▁әріптестермен
▁responsibility
▁эксперименттер
▁ұлыбританияның
2(
ee
сқ
анг
анк
аци
мың
нас
қос
▁0-
▁fr
▁Сү
▁жк
естр
ктің
▁5,7
▁5-6
▁gdp
▁jus
▁Жал
▁Кан
▁Мак
▁ШРК
▁жұқ
▁ким
▁төг
▁ұқк
arant
ented
бағыс
дамды
ділік
иссер
▁700-
▁cham
▁just
▁much
▁qual
▁told
▁Төрт
▁алар
▁керн
▁көлі
▁мета
▁қапш
▁ұңғы
coming
govern
амызға
талдау
▁калық
▁канал
▁күзет
▁оқырм
▁рецеп
▁ролін
▁солай
▁соқты
▁физик
▁ұсына
▁әлсір
сіздігі
імізбен
қимылын
▁identi
▁бюросы
▁дәріпт
▁кезден
▁магатэ
▁одақты
▁теңдес
▁тілект
▁уранды
функцион
▁growing
▁parties
▁promote
▁Аталмыш
▁Бүгінде
▁бірінен
▁дистриб
▁кептіру
▁символы
▁тетігін
▁туындау
рополитен
▁meetings
▁бейтарап
▁гидрофоб
▁жерлерін
▁жұмсалды
▁массасын
▁мәскеуде
▁нанокомп
▁негізсіз
▁прогресс
▁таңдайды
▁тосқауыл
▁тыныштық
▁қылмысқа
▁құралады
▁құқығына
▁босатылды
▁жалдамалы
▁жүктемесі
▁зауытында
▁зерттеген
▁келісімін
▁күкірттің
▁мүшелерін
▁оқытудағы
▁респонден
▁сайлауына
▁тұтынудың
▁шақырамыз
▁экспортын
▁corruption
▁electronic
▁indicators
▁industries
▁баспанамен
▁есептеймін
▁ескерілген
▁жерлердегі
▁критикалық
▁мемлекетте
▁наурызында
▁нүктелерін
▁орнықтылық
▁төрағалары
▁форматтағы
▁қазавтожол
▁қолданыста
▁competitive
▁Медициналық
▁жасақталған
▁жеңілдетуге
▁мәслихаттар
▁салтанатына
▁түсіндіреді
▁қолдайтынын
▁contribution
▁жарақтандыру
▁көгалдандыру
▁міндеттеріне
▁нүктелерінің
▁потенциалдық
▁технологияға
▁хабарландыру
▁әрекеттестік
▁мүмкіндігінің
▁қызметшілерді
▁прокуратураның
▁жылуөткізгіштік
-23
era
ikh
ЕЛІ
бик
рет
ҒАН
▁Py
▁Шу
▁уы
merg
zhan
ағыл
етов
шіні
▁0,2
▁1-2
▁aud
▁Сау
▁ФИЗ
▁доғ
▁зай
▁кеб
▁рай
▁тоң
▁Ғал
ained
ister
tober
алану
ағаны
кенің
кесті
ондыр
ышьяк
▁0,64
▁9001
▁Айта
▁Поли
▁ТЕХН
▁алса
▁арғы
▁едім
▁мини
▁отыз
▁сыну
▁тиеу
еңкелі
компон
майтын
тарихи
▁amend
▁bring
▁ералы
▁жасуш
▁жетік
▁кілті
▁мотор
▁номен
▁оралм
▁сәтте
▁сөзді
▁қазын
ограмма
▁academ
▁recogn
▁алқасы
▁ақырғы
▁байқап
▁етуіне
▁жүргін
▁катион
▁күштің
▁көздің
▁көрдік
▁салығы
▁қойдық
▁қоршау
дарыстан
ектелген
жошыбаев
▁Есептің
▁Проблем
▁азаюына
▁бағамен
▁бірінде
▁кадастр
▁мұрағат
▁осцилля
▁тізілім
▁шипажай
▁қамтыды
▁ұлғаяды
▁өкілдер
▁өрістің
ларындағы
логистика
▁agencies
▁practice
▁relevant
▁stations
▁бейнесін
▁білімдер
▁бөлінуде
▁гипербол
▁жақтарын
▁интеграл
▁кестелер
▁курсында
▁мекендер
▁металдың
▁нанобөлш
▁пассивті
▁сұйықтың
▁тексеріп
▁уақыттық
▁экспертт
▁өрісінің
▁өңделеді
қатерлерге
▁алатындай
▁жасалынып
▁кезектегі
▁мәртебелі
▁радионукл
▁тарапының
▁тарихымен
▁тереңірек
▁өңірлерге
отехникалық
▁айналысуға
▁активтерді
▁денелердің
▁жобалаудың
▁итальяндық
▁кедергісін
▁мезгілінде
▁орындаудың
▁отырғандай
▁сынақтарға
▁тексерулер
▁тілдерінде
▁тұсаукесер
▁уағдаласты
▁қонақтарға
▁құрылыстар
▁биохимиялық
▁компьютерде
▁көшбасшылық
▁тұтынушылық
▁украинадағы
▁шекарасында
▁авиакомпания
▁қабаттарының
▁құндылықтары
▁индустриалдық
▁тасымалдаудың
▁трансформатор
▁фотоэлектрлік
▁айырмашылықтар
▁классификациясы
▁қанағаттанарлық
СЖ
ril
zer
ФОР
каш
ода
пат
сеф
тид
унг
▁аи
ever
ауыш
едов
икіз
схем
хром
ышев
әсер
▁138
▁mas
▁Тең
▁жэк
▁кін
▁ота
▁тех
▁шөп
▁ыст
▁ісп
бірін
емний
пейді
қазақ
қанда
▁clim
▁near
▁poin
▁vict
▁біле
▁евро
▁кемі
▁коэф
▁мекс
▁мұхи
▁такс
emical
мостық
▁could
▁court
▁recon
▁НАССР
▁Сарап
▁артқы
▁аслан
▁ауылы
▁жетуі
▁көзге
▁оқыды
▁ретін
▁сорғы
▁шеткі
▁қалуы
инамика
▁target
▁абылай
▁енгізе
▁жақтың
▁таяуда
▁concern
▁conduct
▁october
▁sustain
▁Төменгі
▁жарнама
▁инерция
▁келешек
▁кеңесін
▁күресте
▁мұнайлы
▁номенкл
▁нүктелі
▁фотосур
▁шешілуі
▁іздеуге
▁Құрылым
▁қатарын
▁Әлемдік
кіменстан
▁ағзасына
▁бекітуге
▁бірмәнді
▁бөлімдер
▁даярлығы
▁жіктелуі
▁кабинеті
▁контекст
▁мектепті
▁меңгеруі
▁секторда
▁спектрін
▁тоғжанов
▁өндірген
▁residents
▁анықтауды
▁ауруларға
▁графиктер
▁дағдылары
▁депутатты
▁еуропаның
▁жаһандану
▁игерілген
▁көлігімен
▁орденімен
▁орталықты
▁серверлік
▁топыраққа
▁тырысамыз
▁шығарудың
▁қосымшаны
▁үкіметіне
▁әзірлеуде
мырзахметов
▁agreements
▁generation
▁бастапқыда
▁беріктілік
▁компанияны
▁мекендерде
▁реактордың
▁реттелетін
▁спектрлері
▁формаларын
▁формулалар
▁specialists
▁анимациялық
▁атқарылатын
▁жағалауында
▁механизмнің
▁модельдеуге
▁мүмкіндікті
▁қарастыруда
▁қағидаттары
▁жалғастырады
▁процесстерді
▁алгоритмдерді
▁пайдаланушыға
▁пациенттердің
▁студенттеріне
▁transportation
▁бейорганикалық
▁қоғамдастықтың
))
-(
NO
SM
eo
АБ
оС
ars
ery
ets
ЫҚТ
ағз
жав
код
▁Ac
▁CF
▁Бу
▁Вт
avor
ices
thon
ЕМСТ
банк
бита
бұзу
осси
пери
шіге
қаны
▁260
▁360
▁50%
▁EHR
▁amb
▁sil
▁Диф
▁ашм
▁рмк
▁туу
▁ӘДЕ
ately
алдыр
града
далуы
есігі
мішев
пеген
▁(11)
▁0,69
▁view
▁Жүйе
▁адап
▁газы
▁гарн
▁келб
▁кеск
▁киіз
▁крах
employ
ension
ПАРАТТ
орында
▁asian
▁roads
▁short
▁Судың
▁алсақ
▁ауада
▁кеңсе
▁миним
▁поляк
▁сайыс
▁соққы
▁телев
▁шегін
▁шөлей
▁Құзыр
▁қойма
ividual
▁Server
▁became
▁Атырау
▁Бұлтты
▁бейсыз
▁графит
▁жеріне
▁камера
▁кіруге
▁наубай
▁пәннің
▁сарайы
▁тоқтал
▁түспек
▁қаупін
▁қосуды
▁ұнының
елігінің
▁айналма
▁алаңдау
▁аурудың
▁етудегі
▁жазбаша
▁модифик
▁одақпен
▁сайлану
▁тудырып
▁түсініп
▁форматы
▁істеуін
eminister
▁memorand
▁Германия
▁барысына
▁бастауға
▁бизнесін
▁еркіндік
▁көгілдір
▁мерекесі
▁модифици
▁мұғалімі
▁норвегия
▁съезінде
▁табыстар
▁танысады
▁тоқсанда
▁халқымыз
▁шешіміне
▁шығарушы
патриоттық
ристикалық
▁2016-2017
▁producers
▁абсолютті
▁генерация
▁жыныстары
▁кездескен
▁кеңесінде
▁мәтінінде
▁польшаның
▁сұранысын
▁толқындар
▁түсінеміз
▁тәртіппен
▁учаскелік
▁шалдыққан
▁шығарылып
▁қатысқаны
қатынасының
▁additional
▁individual
▁Технология
▁автобустар
▁асырылуына
▁белгілеген
▁коррозияға
▁көріністер
▁мекендерді
▁мүдделілік
▁порталында
▁семинардың
▁сорбенттер
▁сорбциялық
▁субъектісі
▁техногенді
▁туристерді
▁тізбегінің
▁украинаның
▁қашықтыққа
▁құрылымдау
▁preparation
▁Түйінсөздер
▁дайындалуда
▁дағдарыстан
▁ережелеріне
▁кеңістіктің
▁лицензиялау
▁оқиғалардың
▁парламентке
▁стратегияны
▁instructions
▁Инновациялық
▁бөліктерінің
▁жандандыруға
▁навигациялық
▁салтанатында
▁тасымалдағыш
▁әрекеттердің
▁мәліметтермен
▁тасымалданатын
▁қалыптастыратын
Cu
PS
[1
ИН
ave
dar
rop
ЕРУ
ОЛД
кол
нез
пән
рип
іме
▁2.
▁Wi
▁XX
▁pp
▁ҒА
atis
ules
едиа
икан
имин
мдер
отан
ттай
▁116
▁117
▁135
▁136
▁5,3
▁mor
▁бұт
▁ерт
▁кок
▁тық
▁фор
▁ықп
▁өрі
ийдің
ссоци
тауға
уқұйр
құлық
▁9000
▁hand
▁Воль
▁Отан
▁амил
▁атыс
▁геом
▁екеу
▁плит
▁стил
▁тозу
▁қайс
айынов
кердің
тігіне
▁Гидро
▁Робот
▁графи
▁елмен
▁катар
▁хатта
▁Қатты
▁Құбыр
▁ӘДЕБИ
▁әдемі
лігінен
ытбеков
▁Studio
▁cooper
▁unique
▁аудара
▁баласы
▁баталь
▁болмау
▁дәулет
▁иегері
▁келдік
▁көреді
▁мейман
▁рахмет
▁рөліне
▁сынама
▁сөзбен
▁хоккей
▁шапшаң
▁шығуын
▁ықылас
▁қалуға
▁қолайл
астырғыш
спорттық
▁Arduino
▁village
▁Электро
▁астықты
▁каталог
▁нәресте
▁сұраққа
▁таптырм
▁тартады
▁тағдыры
▁тысқары
▁эстония
▁қадамда
▁құзырлы
тижесінде
қатынаста
▁complete
▁existing
▁position
▁specific
▁алмаймыз
▁артуымен
▁гектарды
▁кезеңдер
▁коалиция
▁курстары
▁пайымдау
▁салмағын
▁триллион
▁Қойылған
▁қайталау
▁ұлғаюына
▁өткеннен
▁өңірлері
▁Мақаланың
▁австралия
▁ашылуымен
▁болғаннан
▁вашингтон
▁жоғарлату
▁жұртшылық
▁теңдессіз
▁Құрамында
▁құрылымға
▁үлестерін
формациялық
▁memorandum
▁registered
▁бесжылдығы
▁дайындайды
▁кластерлер
▁нормаларды
▁тағылымдам
▁тербелмелі
▁қабілетіне
▁Көрсетілген
▁архитектура
▁белгісіздік
▁желісіндегі
▁кездесулері
▁күнтізбелік
▁мәселесінің
▁орындарынан
▁изотермиялық
▁мұнайбитумды
▁пропорционал
▁радиоактивті
▁қиындықтарға
▁өндірушілері
отехнологиялық
▁белсенділікті
▁ерітіндісінің
▁жағдайларының
▁материалдармен
▁тотықсыздандыр
▁визуализациялау
94
aa
ef
мг
-11
LAB
lig
МАТ
ену
енц
зен
сат
спа
ткі
шин
ыра
қам
▁-1
▁[7
▁bi
▁дБ
▁за
▁ым
reme
асақ
атер
илді
йтын
кова
теор
ылғы
▁126
▁occ
▁МАТ
▁афф
▁бок
▁гфр
▁иіл
▁қүр
arter
obile
гімен
елиор
еңбек
одтық
ғанов
өзгер
▁0,78
▁cred
▁rest
▁spir
▁Фосф
▁ерес
▁көшп
▁литв
▁мото
▁тиян
▁Өзен
ембаев
ешелік
▁10-11
▁[1-3]
▁emerg
▁multi
▁units
▁артта
▁ағымы
▁береш
▁демон
▁жоққа
▁мұраж
▁нивел
▁шақты
охирург
▁Hadoop
▁crimin
▁Оларға
▁біріге
▁герман
▁гигиен
▁дархан
▁королі
▁көзіне
▁михаил
▁музейі
▁салдар
▁селект
▁сөздің
▁ғылымы
минесцен
▁finance
▁however
▁Еуразия
▁алмаған
▁бизнесі
▁жазамыз
▁зерттей
▁моменті
▁мәнінің
▁ойларын
▁отбасын
▁сайысқа
▁төлеуге
▁эмиссия
▁қазанды
▁қаржыға
▁құрамда
еляциялық
шараларын
▁айналысу
▁басқарды
▁жемістер
▁тартылып
▁теңгелік
▁іргетасы
▁қатысуды
иметриялық
▁2010-2014
▁karaganda
▁аппроксим
▁болғанына
▁екібастұз
▁командирі
▁кәмелетке
▁ойындарды
▁полициясы
▁толқындық
▁тәуліктік
▁құрылыста
▁өңделетін
▁Жергілікті
▁білесіздер
▁психология
▁режимдерін
▁суреттерде
▁суреттерді
▁тексерілді
▁әзірленуде
▁магистранты
▁ескерткіштер
▁маркетингтік
▁қолданушының
▁құзіреттілік
▁құрылымдарды
▁primeminister
▁ауғанстандағы
▁нәтижелерімен
▁құзыреттілігі
▁кәсіпорындарын
76
CT
Fi
OS
»)
АШ
хо
әз
SiO
bor
ged
ily
ЕГІ
ави
вич
зел
люл
маг
нтт
ура
▁Ca
▁Pl
▁sw
▁ТЖ
▁оя
2011
гізу
кери
отип
рлік
салт
фрам
ғылы
▁(4-
▁5,1
▁5,4
▁ktz
▁Мем
▁Тұз
▁бжк
▁лак
▁мус
▁неб
▁нәз
▁Қыр
▁ҚҰР
▁ұбх
inese
актер
▁(10)
▁0,81
▁acqu
▁hear
▁huge
▁move
▁play
▁tren
▁биат
▁дені
▁жанж
▁саях
▁туып
▁ұпай
▁өтер
гілері
импуль
фосфат
циклоп
энерго
юзивті
▁Flash
▁goals
▁Дәлел
▁байла
▁белок
▁дабыл
▁мәңгі
▁октан
▁секір
▁сүзгі
▁флюор
lements
бетонды
ектерге
иясында
▁compet
▁spirit
▁алқабы
▁атқара
▁беделі
▁держав
▁көшесі
▁пойызы
▁тамшыл
▁телімі
▁тозуға
▁тілдес
▁тұлпар
▁ілгері
активтік
еттілігі
▁harmony
▁transit
▁Тұрақты
▁автомат
▁анализі
▁гонконг
▁диоксид
▁зауытты
▁заңдары
▁синтезі
▁суретті
▁шамалар
▁эстафет
▁өсіруге
▁Бұрғылау
▁ауылының
▁беретіні
▁дереккөз
▁карталар
▁кеңестік
▁мүддесін
▁наурызға
▁светлана
▁тұтынуды
▁шығаруда
▁ғасырлар
▁қазғарыш
▁өлшеудің
гигиеналық
▁бастайтын
▁даярлауға
▁дақылдары
▁деңгейлік
▁еріктілер
▁зерттеуші
▁көшербаев
▁мәжілісте
▁орналасты
▁степногор
▁табиғатқа
▁таралуына
▁бағыттарда
▁жаңғыртуды
▁жерлерінің
▁интернетке
▁көздерінен
▁көкейкесті
▁Келтірілген
▁амплитудасы
▁дақылдардың
▁міндеттерге
▁нүктелердің
▁орналасатын
▁параметрлеу
▁трансформат
▁түзетулерді
▁халықтардың
▁үрдістердің
▁өздеріңізге
▁Интерактивті
▁құрастырылды
▁Статистикалық
▁жетістіктерді
▁мәліметтеріне
▁президенттері
▁геодинамикалық
▁конституцияның
▁машинақұрылысы
▁мультимедиалық
▁орналастырылады
EE
RA
йы
lab
reh
ret
ІНІ
ДАР
ОМП
гек
еци
жам
нар
ноз
ным
фаз
▁Жұ
▁ЭМ
▁зә
▁мб
▁фо
come
баны
берг
бері
мақс
огон
паев
сәул
ғазы
▁14-
▁148
▁5,8
▁fig
▁ЕСЕ
▁лік
▁мәл
▁ққс
onstr
бөкен
ептид
▁0,63
▁150-
▁dear
▁deep
▁iran
▁june
▁ксро
rative
діргіш
мебаев
рондық
цияның
▁early
▁obser
▁sides
▁бергі
▁волон
▁жағын
▁түнгі
▁шаңыр
▁шырын
▁іздел
▁Ғалым
▁қайда
▁өтілі
анипуля
арияның
▁ethnic
▁алаңға
▁біткен
▁геожүй
▁иелену
▁лагерь
▁орбита
▁патрио
▁сөйлеп
▁табуда
▁іздену
▁қорыту
▁digital
▁guarant
▁objects
▁peoples
▁азайтып
▁делегат
▁күшімен
▁молдова
▁облысын
▁саудасы
▁себепші
▁уранның
▁шарттық
▁қабатта
▁өзгерте
ектендіру
▁achieved
▁compared
▁demonstr
▁АҚПАРАТТ
▁ақордада
▁бетонның
▁кернеулі
▁лауреаты
▁медиация
▁нүктенің
▁оңайлату
▁сапардың
▁себептен
▁себептер
▁секторға
▁тартатын
▁тіркеуге
▁тұғырнам
▁істеудің
▁қазақтар
▁қапшағай
▁қателігі
▁үйренеді
▁үйретеді
дықтарының
нығматулин
▁personnel
▁Модельдеу
▁капиталын
▁келісімде
▁нығайтуда
▁пайымынша
▁туроперат
▁шілдедегі
▁қатысында
▁қозғалған
▁әлеуетіне
▁leadership
▁басымдыққа
▁кеңсесінің
▁көрсетеміз
▁мүліктерді
▁мәжілісмен
▁табылатыны
▁табыстарға
▁талқыладық
▁холдингтер
▁экспорттың
▁қонақтарды
▁қорларының
▁қымбаттады
▁үкіметтері
▁әдебиеттер
▁анықтамалар
▁гетерогенді
▁кездесуінде
▁механизмдер
▁миссиясының
▁нығайтудағы
▁террористік
▁қорғаушылар
▁ұйымдарында
▁Экономикалық
▁зейнеткерлер
▁мүгедектерге
▁энергетиканы
▁міндеттемелер
▁тақырыбындағы
▁температуралы
▁тұрақтылықтың
▁энергетиканың
▁өндірісіндегі
▁жетекшілігімен
▁мұғалімдерінің
▁субъектілеріне
▁competitiveness
▁тасымалдаушылар
Cr
ky
ox
ІМ
же
ақб
діл
етч
ино
рис
шал
шею
өрі
▁(8
▁MS
▁hy
▁жы
cast
ided
ling
mart
атай
бест
бина
ихле
омет
▁137
▁5,6
▁Arc
▁Mat
▁dri
▁ple
▁Жаб
▁Тір
▁асы
▁біш
▁бқо
▁гем
▁тун
ences
scale
білік
көмір
омдық
пласт
рқылы
терлі
ғасын
ғылық
▁hope
▁note
▁opin
▁simp
▁Ақсу
▁алаш
▁бұлт
▁жару
▁қағи
▁әбіл
▁өкпе
Script
titude
ататын
ақырып
екбаев
иалдық
сыздық
торлық
цемент
▁apart
▁deleg
▁disab
▁favor
▁medic
▁алмаз
▁жабыс
▁жолақ
▁күшею
▁майда
▁құрық
негізгі
ритерий
өндіріс
▁expert
▁аспауы
▁жемісі
▁күйіне
▁мерген
▁пісіру
▁ректор
▁сүруге
▁сөйтіп
▁теледи
▁телекө
▁юнисеф
▁қиынға
▁үлгіде
▁әдісте
ежүзілік
оңтүстік
▁decreas
▁workers
▁Күрделі
▁ауданға
▁аяқтады
▁елдерді
▁жұқпалы
▁жөнелту
▁инспект
▁кеңсесі
▁маусымы
▁перинат
▁салудың
▁суларын
▁сульфид
▁теорема
▁түрімен
▁түрінен
▁форумды
▁іргелес
дүйсенова
матикалық
▁criminal
▁families
▁involved
▁артиллер
▁ақтөбеде
▁еместігі
▁жапондық
▁жарлыққа
▁лазерлік
▁меңгерту
▁шешудегі
▁қамтылуы
▁қандайда
▁interests
▁Пайдалану
▁ауқымдағы
▁бөлімшесі
▁есептелді
▁еңбегінің
▁жиіліктік
▁журналист
▁жүктеледі
▁кезеңінен
▁масштабты
▁мерекемен
▁пәндердің
▁шақырымға
▁шикізатын
▁қатынаста
▁қысқартып
▁құралының
▁құрметіне
▁үкіметпен
▁ұстанымын
▁әдістерге
бағытталған
▁efficiency
▁principles
▁Дифференци
▁айналғанын
▁болатынбыз
▁жүктемесін
▁жүргіземіз
▁заңнаманың
▁оқшаулағыш
▁рәсімдерді
▁станциясын
▁тапсырысты
▁тұтынушыға
▁цилиндрлік
▁қосымшаның
▁ӘДІСТЕМЕСІ
▁жабдықтарын
▁номенклатур
▁сезімталдық
▁қарастырдық
▁қатынасының
▁қуаныштымын
▁Назарбаевтың
▁ветеринарлық
▁жабдықтармен
▁жолдауындағы
▁жоғарылауына
▁толқындардың
▁эквивалентті
▁Қарастырылып
▁конференцияда
▁қосымшалардың
▁министрлерінің
▁ынтымақтастықта
ОТ
ня
пс
001
cad
cep
org
ove
елу
оды
пеш
тәу
▁5%
▁PH
▁Өң
ject
гелі
ерлі
огип
орны
серу
тынд
▁123
▁165
▁26-
▁270
▁5-7
▁8,5
▁beh
▁gra
▁ori
▁Жақ
▁Мам
▁Сан
▁Сем
▁Сөз
▁ЭЕМ
▁асу
▁ред
▁Қыс
otion
аэроб
коның
оград
сульф
тқышы
▁[16]
▁appe
▁does
▁Міне
▁Орын
▁дест
▁джон
▁егип
▁легі
▁нукл
▁пест
▁сома
▁суын
▁сүзу
▁тігі
▁түст
▁фтор
▁цехы
▁шөгу
▁қыст
▁өлке
детуге
дәстүр
трация
шабуыл
▁april
▁rules
▁Бүкіл
▁МЕМСТ
▁басшы
▁драма
▁коман
▁мысты
▁полик
▁талас
▁теңде
▁эксит
▁ұмтыл
▁ұсақт
дығында
сикалық
тердегі
ханалар
ыңыздың
▁Python
▁summit
▁алулар
▁антенн
▁жарақт
▁парақш
▁сілтем
▁түрткі
▁қазпош
▁құрдық
отехника
розиялық
әрекетті
▁victory
▁асырыла
▁бағалар
▁бейімді
▁жойылып
▁компенс
▁компози
▁көретін
▁ойдамын
▁режимді
▁тоқтала
▁Үлгілер
▁болмасын
▁детоксик
▁жазбалар
▁жоғалған
▁көлемнің
▁проекция
▁пункттер
▁тізбегін
▁түйіндер
▁тәсілдің
▁шақырады
құрылымдық
▁2016-2020
▁ақпаратын
▁байқаймыз
▁бизнеспен
▁болжамдар
▁бірліктің
▁диалогтың
▁енгіземіз
▁жәрдемдес
▁зерттейді
▁интерфейс
▁кодекстің
▁көлемінен
▁нанотүтік
▁нұсқалары
▁сервистер
▁талшықтар
▁түсірілім
▁тәрбиелеп
▁қазанында
▁қаралатын
▁қоймалары
▁әңгімелес
▁белгілерін
▁бөліктерін
▁кезеңдерде
▁мөлшерімен
▁нарықтарға
▁психикалық
▁сарапшылық
▁тартылатын
▁топтастыру
▁қозғалысты
▁қысқартады
қазақстандық
▁деңгейлерін
▁иерархиялық
▁инновацияны
▁мекендердің
▁мектептерді
▁соғысындағы
▁тәжірибеміз
▁құжаттармен
▁бухгалтерлік
▁кеңістігінің
▁объектісінің
▁хабарламалар
▁декларациялау
▁тасмағамбетов
▁тәжірибесінде
▁ұйымдастырады
▁жетістіктеріне
▁сарапшыларының
▁қабілеттілікті
▁қазақстандықтың
42
LI
be
АЗ
ime
СТЫ
бын
моб
оск
рав
▁AB
▁Ti
▁Ав
▁БҚ
▁гв
▁мэ
▁це
▁әз
ames
orda
ауыт
дісі
емес
зомб
этил
ғақт
▁144
▁18-
▁185
▁3,9
▁4.0
▁6,6
▁650
▁MAT
▁nom
▁six
▁Ері
▁ТБТ
▁Фер
▁инг
▁лем
▁мжс
▁скл
▁теу
▁ұак
ished
діңіз
уллин
ықтай
▁meat
▁viol
▁бүрк
▁гөрі
▁кост
▁этил
▁ҚОЛД
▁ұлық
старға
▁15-20
▁gradu
▁trust
▁Мысал
▁абаев
▁диақб
▁жанды
▁жерін
▁күнгі
▁метил
▁поляр
▁призм
▁сында
▁целин
▁үймен
▁өзегі
өсімдік
▁skills
▁stable
▁subsid
▁Алатау
▁Кәсіби
▁алынуы
▁аялдам
▁емделу
▁момент
▁рельеф
▁санаты
▁суретт
▁қоятын
▁ұғымын
▁өнерін
▁өрісін
әрекетке
▁Энергия
▁альтерн
▁атанған
▁болмады
▁ететіні
▁жұмыртқ
▁спутник
▁қалаушы
▁қалдырм
▁әкімдер
▁өлшенді
▁өміршең
▁өтініші
forcement
rehensive
физикалық
шылықтары
▁function
▁Оқушылар
▁аяқтаған
▁жиналады
▁заңдарды
▁иордания
▁санаймын
▁стимулят
▁форматқа
▁шетелден
сүлейменов
▁employees
▁алмасудың
▁дегеніңіз
▁желдеткіш
▁желілерде
▁жолағының
▁идеяларды
▁мазмұндық
▁оқытылады
▁парниктік
▁растайтын
▁формальды
▁қабаттары
▁қолдандық
▁қорғалған
атасымалдау
▁amendments
▁candidates
▁капиталдың
▁кезеңдерін
▁көпшілікке
▁магистраль
▁объектісін
▁сұйытылған
▁теориясына
▁төмендетіп
▁үрдістерін
▁Зерттелетін
▁бейнелейтін
▁бөлшектерді
▁талқылайтын
▁туристердің
▁шектеулерді
▁қазтрансойл
▁өкілдігінің
▁балабақшаның
▁институтында
▁талаптарының
▁тәсілдерінің
▁шешімдерінің
▁энергиясымен
▁өсімдіктерді
▁көшбасшысының
▁орталықтардың
▁құрылғылармен
▁серіктестермен
▁кәсіпорындармен
▁қондырғыларының
72
IM
ko
ux
ІЛ
ПЭ
зе
-16
[3]
aaS
ify
lam
инд
пыл
сим
тақ
чев
▁li
▁ех
▁пи
▁фи
▁ҮШ
2050
lymp
omet
итет
кель
ктур
ници
офил
үнем
▁188
▁fes
▁mer
▁Ген
▁бун
▁төм
▁эйр
▁Қыш
ernal
lodar
thers
айдер
ативт
балық
оскоп
ыруға
▁0,40
▁Data
▁[1].
▁tool
▁кені
▁эстр
▁ұран
energy
ФОРМАТ
дастыр
есімов
инаның
матери
▁money
▁selec
▁Жібек
▁ендір
▁етіне
▁жаққа
▁кеуде
▁кішір
▁оқиды
▁торап
▁тәмам
▁фирма
▁шойын
▁шұжық
▁қанық
лануына
лылықты
оксидан
сенбаев
▁levels
▁recomm
▁Физика
▁алмады
▁асуына
▁бейжің
▁даңғыл
▁индекс
▁иондар
▁курсты
▁көпбал
▁нышаны
▁сарбаз
▁синерг
▁түсіне
▁қабатт
датылған
імдіктер
▁average
▁Жасанды
▁алгебра
▁алмасуы
▁базаның
▁баррель
▁биомасс
▁былайша
▁бәрінен
▁дәнекер
▁ирандық
▁курстың
▁кәсібін
▁мұнайға
▁мәртебе
▁регенер
▁сапарын
▁теңдігі
▁түсуіне
▁форумын
▁шыдамды
ционалдық
қимылының
▁included
▁pavlodar
▁teachers
▁ИНФОРМАТ
▁Компания
▁базасына
▁болаттың
▁бірлікке
▁жойылады
▁игерудің
▁мағынада
▁оқытатын
▁танытуда
▁шиеленіс
▁істердің
▁ұнтақтау
▁ұсынысын
▁introduce
▁organized
▁ТЕХНОЛОГИ
▁Теориялық
▁актілерді
▁анықталуы
▁ашылуында
▁жарлығына
▁жобалауға
▁идеяларын
▁көлеңкелі
▁орындаған
▁процессін
▁ресейдегі
▁тексереді
▁телекөпір
▁instructed
▁transition
▁аминқышқыл
▁баяндалады
▁белгілейді
▁дағдарысты
▁жалғасатын
▁жартысынан
▁жеткіземіз
▁инклюзивті
▁наурыздағы
▁орындардың
▁реформасын
▁түйіршікті
▁қышқылдары
▁sustainable
▁traditional
▁академияның
▁географиясы
▁жемқорлықты
▁жеңімпаздар
▁конвенцияны
▁оператордың
▁потенциалын
▁рейтингінде
▁субсидиялар
▁тауарларына
▁түсініктеме
▁экспортының
▁қабілеттері
▁елбасымыздың
▁идеологиялық
▁механизмінің
▁насихаттауға
▁станцияларын
▁тақырыптарды
▁ықтималдығын
▁қағидаттарын
▁өнеркәсібіне
▁comprehensive
▁Бағдарламалық
▁классификация
▁студенттермен
▁Қарастырылған
▁республикасынан
▁эксплуатациялық
EG
ze
oss
ped
гем
ияз
люз
нда
ней
орг
рег
шай
▁03
▁Mg
▁cy
▁Ам
edic
serv
граф
езім
жайы
жылу
идің
тама
ғышы
үсті
▁4-5
▁Con
▁Дам
▁Кат
▁Лог
▁адр
▁азо
▁бұн
▁еұу
▁жің
anced
ource
utive
ақпан
далау
делді
еттес
ындық
▁(12)
▁0,38
▁1300
▁sold
▁then
▁Орал
▁Тянь
▁ацет
▁бокс
▁жұма
▁прав
▁Ұялы
-2017-
ағанын
болады
етінші
измнің
спанов
ішілік
▁fully
▁north
▁olymp
▁атағы
▁аттан
▁бірің
▁етуін
▁жүйел
▁моном
▁резер
▁стади
▁шынай
ильберт
ымызбен
▁Биогаз
▁Объект
▁айтқым
▁ауысым
▁бағаға
▁берлин
▁болдым
▁гармон
▁жалдау
▁жиынын
▁заңдық
▁мүгеде
▁түлегі
▁түрлер
▁ядросы
Learning
▁justice
▁respect
▁Гумилев
▁бағдары
▁биосфер
▁бульдоз
▁бөлімше
▁еркімен
▁жеңілді
▁жиындар
▁кірісіп
▁көрікті
▁отырмын
▁пакетін
▁резеңке
▁шетелге
▁қойылуы
▁ұзындық
тұрмыстық
шілігінде
▁акцияның
▁атқаруға
▁байқаған
▁газдарды
▁күнбағыс
▁көбейеді
▁меңгеріп
▁отырысты
▁пестицид
▁салиқалы
▁сілтілеу
▁таксоном
▁туындауы
▁істеуіне
▁қазақмыс
▁қорларды
▁қышқылын
▁үлгісіне
▁ұсынамын
математика
▁бәсекелес
▁орындалса
▁салтанаты
▁танытатын
▁топтамасы
▁шектеледі
▁шығыстары
▁ғимаратта
▁айналымына
▁аяқталатын
▁жасалынады
▁жүктеменің
▁нұсқаларын
▁персоналды
▁тексеруден
▁шалғайдағы
▁қателіктер
▁өзендердің
сараптамалық
▁Органикалық
▁делегацияны
▁препараттар
▁проблемасын
▁саналатынын
▁симметриялы
▁таныстырады
▁толтырылған
▁толықтырғыш
▁қазтрансгаз
▁қуаттылығын
▁associations
▁гиперболалық
▁деформациясы
▁жолаушыларды
▁кардиохирург
▁компьютерлер
▁метрополитен
▁салқындатқыш
▁эвристикалық
▁әрқайсысының
▁моноқалаларды
▁параметрлерге
▁шаруашылықтың
▁әрекеттерінің
▁оптимизациялау
▁функцияларының
▁ықпалдастықтың
▁серіктестігінің
49
69
IV
In
рғ
эв
10-
gyz
iar
osp
аум
вок
иті
▁3.
▁Аб
▁Бо
likh
mbol
mola
отор
оғай
план
сынд
ғары
қасы
▁119
▁122
▁35-
▁kyz
▁mat
▁sco
▁tri
▁Ары
▁ДНҚ
▁Кем
▁Шар
▁аэф
▁елу
▁өсе
-2025
ахмет
жақып
▁arch
▁come
▁fair
▁mach
▁БЕРУ
▁Кест
▁Ради
▁аниз
▁ағып
▁жэне
▁жқжк
▁рейс
▁соны
▁әлім
қимылы
қосымш
▁index
▁march
▁Соған
▁анион
▁ауаға
▁аулау
▁ауруы
▁бұның
▁домен
▁йогур
▁көшуі
▁ноқат
▁толып
▁тікұш
▁MATLAB
▁akmola
▁commer
▁exceed
▁Синтез
▁аргент
▁аяқтап
▁данияр
▁желіде
▁капсул
▁коллек
▁кіріст
▁меморг
▁сенаты
▁соттар
▁станок
▁түзуші
▁тұздар
▁фотокө
▁қалуда
▁қанығу
бергенов
▁chamber
▁climate
▁contrac
▁maslikh
▁percent
▁produce
▁prosper
▁алушыға
▁бельгия
▁берумен
▁деграда
▁консалт
▁кулагин
▁күнінде
▁мұрасын
▁саңырау
▁сыйлығы
▁сәулесі
▁тәжірби
▁төлейді
▁химиясы
▁қабатқа
▁қамтама
▁қуандық
▁өсуінің
жекешелік
▁Солардың
▁банкімен
▁бассейні
▁есебімен
▁идеялары
▁көбейген
▁метанның
▁механика
▁мінездем
▁оркестрі
▁парадигм
▁сілтілік
▁шенелген
▁қалыптас
▁үстелдер
▁2016-2019
▁districts
▁executive
▁religious
▁statement
▁алғысымды
▁деңгейлер
▁идеясының
▁курстарын
▁мәжіліске
▁нығайтады
▁нүктесіне
▁польшалық
▁трансферт
▁ықпалдасу
▁құрылуына
▁everything
▁бағытталып
▁бұйымдарын
▁дақылдарды
▁ерітіндіге
▁көтеріледі
▁параметрлі
▁полимерлер
▁станциялар
▁тапшылығын
▁трансферті
▁шақырымдық
▁қалғандары
▁қозғалатын
▁әзірлеудің
▁initiatives
▁ауруханалар
▁белгілейміз
▁кандидаттар
▁мекемелерге
▁оқушыларына
▁сәйкестікті
▁формулалары
▁элементінің
▁қолданғанда
▁commissioned
▁ерітіндідегі
▁машиналардың
▁модельдердің
▁қалыптасатын
▁депутаттығына
▁интеграцияның
▁кәсіпкерлікке
▁мектептерінде
▁пайдаланылуға
▁толеранттылық
▁құрылымдалған
▁бастамаларының
▁конструкциялық
▁кәсіпкерліктер
▁жетістіктерінің
▁зерттеушілердің
▁серіктестерінің
▁қауіпсіздігінің
rs
Ст
ТЖ
ЭК
ое
bus
gen
kaz
ler
ple
ton
ump
ейх
емі
обл
раж
түз
цид
шым
эдр
▁(6
▁ty
▁Де
▁Фр
▁ҚО
atin
rans
rgyz
альд
етон
ктор
мінд
плек
плик
ыңғы
ұнай
әсел
▁16-
▁215
▁7,2
▁got
▁san
▁Бая
▁Жау
▁ЗЕР
▁Сөй
▁ТМД
▁жуу
▁поз
▁тақ
▁ізг
Білім
басар
жайып
жасыл
штейн
өңдеу
▁0,76
▁agro
▁otan
▁Тағы
▁канц
▁келі
▁рефр
▁ығыс
▁ұшып
байұлы
ділігі
еталық
ыларын
▁armed
▁banks
▁renew
▁solve
▁sport
▁while
▁агент
▁адвок
▁арсен
▁аққыш
▁бөлше
▁мұнан
▁рельс
▁тесік
▁Қауіп
▁қорды
▁қоюды
▁қырық
онометр
▁ауызша
▁ағарту
▁достар
▁еріген
▁жүрегі
▁мышьяк
▁қалақш
▁әсерді
ақтарына
ейтенант
еттеріне
▁offices
▁receive
▁related
▁station
▁айтамын
▁айқынды
▁амалдар
▁импульс
▁назарда
▁ресурсы
▁суретші
▁сұрыпты
▁тарапқа
▁туризмі
▁шынымен
▁үлестік
▁Өнімнің
ологиясын
▁contract
▁prepared
▁previous
▁авторлық
▁аномалия
▁аударуға
▁ауыратын
▁біріңғай
▁бұйымның
▁дәлелдеп
▁еңбекпен
▁жансейіт
▁жағалауы
▁желідегі
▁кешендік
▁ойлаймыз
▁пәтерлер
▁сыртында
▁таңдалып
▁фосфогип
▁қолтаңба
▁құрудағы
▁әлеуетке
▁өкілдігі
Ақпараттық
ліметтерді
сіздендіру
фрақұрылым
▁promotion
▁providing
▁terrorism
▁Оптикалық
▁аппаратты
▁вертикаль
▁жаңартуға
▁зерттедік
▁иондардың
▁карталары
▁күшейтеді
▁көпжылдық
▁магистрал
▁мамырында
▁мақалалар
▁нейтронды
▁рейтингте
▁сәуірдегі
▁сәуірінде
▁танымалды
▁таңдалады
▁ұзақтығын
▁өндірумен
▁басымдықты
▁бағалаймыз
▁бақылайтын
▁келісіміне
▁медицинада
▁органдарын
▁орналасуын
▁рационалды
▁тамашалады
▁таралуының
▁тарифтерді
▁қортындысы
▁қоспағанда
шығармашылық
▁enforcement
▁амбулатория
▁бактериялар
▁мембраналар
▁микроскопия
▁орталығымен
▁отанымыздың
▁павильонның
▁турбулентті
▁туындыларын
▁қабатындағы
▁presidential
▁бейнебақылау
▁ведомстволық
▁интеграцияны
▁мөлшерлемесі
▁орнықтылығын
▁ғимараттарды
▁құрылғыларын
▁ардагерлеріне
▁басымдылықтар
▁жалпыхалықтық
▁конструкциясы
▁орталықтарына
▁таныстырылымы
▁үйлестірілген
▁бәсекелестіктің
▁жетістіктерімен
▁шығармашылықпен
▁эксперименталды
-0
.-
вр
нс
сн
эл
ұя
▁]
els
вай
▁06
▁ec
▁ІІ
▁То
▁пе
eres
ward
Шань
карт
лыпт
овал
овка
олок
поль
смен
▁151
▁Көк
▁аақ
▁аяз
▁аян
▁бро
▁кау
▁сил
▁фар
ather
icial
дырық
имова
омбин
путин
эмуль
ілмей
іркеу
ғынды
үйрен
өркен
▁(14)
▁0,79
▁1990
▁800-
▁cere
▁МОДЕ
▁жаға
▁инсу
▁иілу
▁қалқ
▁ұшақ
iation
ануына
атайым
бекұлы
озитті
▁1000-
▁fight
▁kyzyl
▁Алтын
▁Болаш
▁авток
▁елтаң
▁жазда
▁жаман
▁жарма
▁жояды
▁кесіп
▁нәзік
▁орташ
▁панел
▁парам
▁прест
▁скляр
▁суыту
▁тазал
▁шөміш
▁қайшы
еленеді
техника
теңгені
тігінің
энергет
▁branch
▁symbol
▁Мемлек
▁арнасы
▁біржол
▁ниетін
▁нобель
▁отыруы
▁оқудан
▁түстік
▁хлорид
ықтығына
▁certain
▁content
▁install
▁opinion
▁spheres
▁Функция
▁диагноз
▁диссоци
▁мезетте
▁отыруға
▁санымен
▁сериясы
▁сорбент
▁сырттай
▁табысын
▁қозғалу
▁қысымын
▁үлгерді
▁ӘДЕБИЕТ
▁өсуімен
алданатын
аторларды
изациялық
әрекеттік
▁internal
▁астрахан
▁дәстүрге
▁жошыбаев
▁кодекске
▁көшпенді
▁маусымға
▁полиграф
▁рәміздер
▁санатына
▁сақтауда
▁тәртіпте
▁қаппаров
▁қасиетке
▁institute
▁processes
▁supported
▁ауыстырып
▁ауқымында
▁бағаларын
▁даярлығын
▁жиналатын
▁кеңейтуді
▁көпбалалы
▁прокуроры
▁тиімдірек
▁хаттамасы
▁құрылғыны
▁әкелінген
практикалық
▁жарнамалық
▁индикаторы
▁кеңістікке
▁көрсеткені
▁көтермелеу
▁мәлімдеген
▁реакцияның
▁учаскелері
▁өсімдіктің
еорологиялық
▁legislative
▁Эксперимент
▁атқаратынын
▁болдырмауға
▁есептерінің
▁ескерілетін
▁кітапханасы
▁машиналарды
▁орнықтылығы
▁орталығынан
▁оқшауланған
▁учаскесінің
▁шарттарының
▁ғимаратында
▁ғимаратының
▁Қашықтықтан
▁қалыптасуын
▁құрастыруға
▁әңгімелесті
▁өзендерінің
▁өңірлерінің
▁бөлімдерінің
▁жоғарылатады
▁жылдамдықтың
▁мүгедектерді
▁терроризммен
▁электрокарди
▁қазақтелеком
▁қызметіндегі
▁құрылғыларға
▁бөлімшелердің
▁жолаушылардың
▁материалдарға
▁операцияларын
▁тағайындалсын
▁бағдарламаларға
77
CD
ER
].
oy
sp
Би
жө
иу
ңб
әқ
rem
дәл
има
кап
ная
нын
Қар
▁[8
▁fi
▁КС
imum
ones
ront
uted
аври
адыр
асыл
дуақ
ебер
отұр
▁146
▁153
▁30%
▁iii
▁ord
▁sam
▁Ауа
▁Гал
▁акц
▁осі
▁рас
▁тжм
▁тіс
▁әкт
-2012
ерекш
нәтиж
овпен
орват
стегі
тығын
ғымен
ңгірт
▁0,88
▁base
▁even
▁Аман
▁Макс
▁Отын
▁брик
▁март
▁офис
▁прем
▁сына
▁қолд
▁қысу
▁Әзір
▁Өнім
indust
tivity
андшаф
атқару
имидті
лықпен
оресур
эффект
қалыпт
▁petro
▁Тараз
▁Теңіз
▁арқау
▁ингиб
▁ионды
▁күрек
▁судан
▁ісіну
▁әйнек
▁өртке
oration
басқару
дігінде
ингінің
ықтықты
▁announ
▁assess
▁consum
▁remain
▁Сөйтіп
▁аталды
▁балқаш
▁болаша
▁біздер
▁ерлігі
▁жабайы
▁жанғыш
▁жасасу
▁каскад
▁контен
▁муници
▁мұрасы
▁саусақ
▁таныса
▁ұшырау
▁әртісі
стракция
▁conclud
▁Дирихле
▁Сәтбаев
▁артатын
▁бетінен
▁бөлмелі
▁драйвер
▁елдерін
▁жиынның
▁жолдады
▁жіберіп
▁мойнына
▁оқушысы
▁сигналы
▁шайынды
▁штаттық
▁ядролар
▁қорында
▁қосамыз
▁қысымда
▁әсерлер
алдарында
андарының
рессиялық
▁analysis
▁бекітеді
▁берілмек
▁бөлісуге
▁егеуқұйр
▁жолақтар
▁жүгінген
▁жүктеген
▁конвейер
▁кореяның
▁көршілік
▁модельге
▁пайдасын
▁сайланды
▁сағадиев
▁солтүсті
▁фирмалар
▁Қостанай
▁қадамның
▁қолғабыс
мұхамбетов
▁contracts
▁аппаратур
▁диапазоны
▁жандандыр
▁инспекция
▁италияның
▁нығайтуды
▁режимінің
▁emphasized
▁активтерін
▁интенсивті
▁инфрақызыл
▁келімбетов
▁корольдігі
▁көзқарасты
▁ластануына
▁мазмұнының
▁пластмасса
▁сенімдіміз
▁фазалардың
қатынастарын
▁application
▁жасақтаманы
▁жүйелердегі
▁модельдеуді
▁негіздеріне
▁парламентар
▁учаскелерін
▁геофизикалық
▁жұмылдырылды
▁конфигурация
▁президенттер
▁технологиялы
▁әдебиеттерде
▁геоақпараттық
▁денсаулығының
▁жалғастыратын
▁спектроскопия
▁уағдаластыққа
▁инфрақұрылымға
▁қарусыздандыру
▁Дифференциалдық
▁ведомстволардың
▁залалсыздандыру
▁конституциясына
▁кәсіпкерлерінің
▁қарапайымдылығы
2;
ah
yk
ИФ
уғ
-24
asy
esh
iet
біл
ема
жөн
иға
лиц
мұр
хол
▁AS
▁er
▁ФШ
▁ну
adex
amed
apan
fort
Абай
бөлш
дара
лған
таны
▁005
▁13-
▁147
▁28-
▁850
▁jsc
▁old
▁Көр
▁МЕН
▁акв
▁гіз
▁дөң
▁екп
▁кұр
▁нақ
▁сәр
▁шег
▁Үст
-2030
актив
банов
есепт
жітім
манды
оволь
оссер
тының
імова
қасым
құзыр
▁(15)
▁0,74
▁5-10
▁insp
▁sett
▁аэха
▁аңыз
▁бөле
▁гала
▁датч
▁елор
▁микр
zation
абеков
астары
бастау
орынға
ісімен
▁kadex
▁socio
▁takes
▁Ескер
▁ЗЕРТТ
▁Көлік
▁алпыс
▁бедер
▁гамма
▁кораб
▁кросс
▁планш
▁фитос
▁қалам
▁қашан
▁ұнның
▁Әдеби
аттауға
бекстан
оссипол
ілуімен
ілуінің
▁System
▁collec
▁entire
▁values
▁Жердің
▁аламын
▁береке
▁бәсеке
▁көбісі
▁омыртқ
▁спорты
▁тануға
▁тойлау
▁тордың
▁эталон
▁қамтуы
▁involve
▁payment
▁pension
▁prevent
▁quarter
▁айталық
▁аударым
▁бетонды
▁бұрышты
▁бұрышын
▁бөлудің
▁етістік
▁желдету
▁жетінші
▁жүктеді
▁келуіне
▁кеңейте
▁палеонт
▁пәнінен
▁шифрлеу
▁қазақша
▁әзірлік
▁әуежайы
аттарында
▁director
▁judicial
▁speaking
▁академик
▁аралығын
▁ауылдағы
▁бөліктен
▁дағдысын
▁дәлдікті
▁ережесін
▁ескірген
▁жетерлік
▁жіктеуге
▁молибден
▁салықтар
▁сарыағаш
▁терезесі
▁технолог
▁түсінеді
▁қауіптер
▁қоспасын
▁құрылуда
▁үкіметті
қыркүйекте
▁2016-2018
▁questions
▁айқындады
▁аумақтағы
▁бермейтін
▁ескерілді
▁контурдың
▁реттелген
▁рұқсатсыз
▁талшықтың
▁теорияның
▁толығырақ
▁тізбектер
▁төмендігі
▁шеберлері
▁әрекеттің
▁батырмасын
▁гидрофобты
▁жақсаруына
▁көкөністер
▁мерзімінде
▁нақтыланды
▁рентгендік
▁тармақтары
▁түрлерінен
▁үдерістері
▁өткеніндей
▁алатындығын
▁алаңдарында
▁атмосферада
▁деректеріне
▁оқулықтарды
▁оқытушылары
▁серпімділік
▁тапсырылған
▁теңдеулерге
▁тотықтырғыш
▁қанағаттану
▁Атмосфералық
▁визуализация
▁жылдамдықтар
▁морфологиясы
▁мүмкіншілігі
▁операторлары
▁партиялардың
▁тығыздығының
▁финляндияның
▁қосылыстарды
▁ақпараттардың
▁бағытталғанын
▁ерітіндісінде
▁зертханасында
▁кемшіліктерді
▁корреляциялық
▁магистральдық
▁траекториясын
▁қатысушыларын
▁кандидаттардың
▁лабораториялық
▁модификациялау
▁сипаттамаларына
▁технологиясында
93
FB
Ra
ЛЫ
ҒА
ққ
ұй
pro
Рес
дым
онг
тей
чес
ыпт
қыс
▁Ап
▁Ах
▁ПЭ
▁Ту
▁ул
▁цз
▁эВ
orks
utes
ЕМАТ
ағаз
дина
здік
инил
масс
овоз
отоп
ошер
рада
сион
улар
ырда
ыққа
ұран
▁0,1
▁17-
▁21-
▁380
▁API
▁[2-
▁art
▁ath
▁keg
▁Кур
▁бэк
▁гар
▁доц
▁жұр
▁кир
▁сір
▁тит
▁тіг
▁шош
▁іід
2050.
ature
ising
useum
менің
насих
нитті
пікір
шысын
▁0,42
▁side
▁Жылы
▁гимн
▁десе
▁жаза
▁жүрг
▁ситу
▁соты
▁соғу
▁үдеу
иболла
иналар
итофаг
▁oblig
▁reven
▁steps
▁Автор
▁Артық
▁Сұйық
▁айгүл
▁екіге
▁ертіс
▁жойып
▁жылуы
▁махаб
▁санат
▁сосын
▁страт
▁татар
▁таңғы
▁тетра
▁циклі
алығына
отропты
сонымен
терінен
ытқыған
▁abroad
▁formed
▁kyrgyz
▁treaty
▁Металл
▁айғағы
▁басшыл
▁батыры
▁жетпес
▁жүзден
▁заңжоб
▁келуін
▁коллег
▁лардың
▁отырар
▁плазма
▁резина
▁центрі
▁қалқан
▁қауымы
▁үлесті
екторлар
истердің
мұхаммед
сіздігін
термалды
шаралары
ымдылығы
ғылардың
▁citizen
▁germany
▁Бірнеше
▁Желілік
▁Жобалау
▁Сызықты
▁байлығы
▁берілсе
▁бөлікке
▁дамитын
▁замануи
▁кескіні
▁контент
▁полимет
▁рәсімін
▁салайық
▁тезірек
▁тобында
▁тыңдады
▁түзілім
▁қалғаны
▁қараңыз
▁қорытпа
▁қоспаны
петербург
▁veterans
▁атлетика
▁дәрігері
▁ескереді
▁жиынының
▁жолдаған
▁импортты
▁кескінде
▁осциллят
▁съезінің
▁сүзгілер
▁талдауда
▁төлеуден
▁ісіндегі
▁қазпошта
▁қаланған
▁қырымбек
▁құбылысы
▁ұстаздар
▁өзгертіп
▁өтетінін
шылықтарды
▁Негізінен
▁бұрышының
▁даярлауды
▁жағдайдан
▁икемділік
▁канадалық
▁канаданың
▁келісілді
▁кластерін
▁конкурсқа
▁минералог
▁модельдік
▁нысанының
▁провинция
▁табыстары
▁тарихының
▁уақытымен
▁шамасының
▁ғылымдары
▁құрметпен
▁contribute
▁understand
▁Сәйкесінше
▁бұйрығымен
▁дәрумендер
▁жағдайымен
▁жоғарыдағы
▁колледждер
▁көрсетілуі
▁мектебінде
▁реакциялар
▁сабақтарда
▁тұтастығын
▁шамалардың
▁өзгеруінің
▁electricity
▁Механикалық
▁бақылауында
▁горизонталь
▁денсаулықты
▁жүйелерімен
▁институттың
▁капиталының
▁компьютерді
▁мерекесімен
▁президентін
▁жаңартылмалы
▁түркіменстан
▁қыркүйектегі
▁айналасындағы
▁бостандығынан
▁есептеулердің
▁марапатталған
▁палаталарының
▁стратегиясына
▁қасиеттерімен
▁administrative
▁байланыстырғыш
▁қолданушылардың
SD
of
тб
eep
ick
iff
par
ЕСТ
күр
объ
сев
▁kz
▁pm
▁ОР
▁пу
▁әш
gust
roup
АНДЫ
егет
рбір
імше
▁129
▁6,2
▁apk
▁tow
▁Дар
▁Кол
▁Нав
▁Сай
▁дин
▁жэо
▁кас
▁коб
▁раш
▁тру
▁фло
▁қаһ
aster
sized
арлар
баның
батыр
одиод
сынақ
тылуы
уінің
әбдір
▁2500
▁body
▁july
▁sent
▁Сәул
▁гааг
▁квот
▁куль
▁мықт
▁туын
▁қима
елейді
жүргіз
модель
ханова
▁autom
▁board
▁dedic
▁value
▁алиев
▁жаста
▁лебіз
▁полип
▁салты
▁стиль
▁сәрін
▁түйіс
▁құқын
▁ұзарт
▁өтуін
дамалық
дестіру
ктивтік
ттермен
ыңызбен
ғалиева
▁judges
▁museum
▁points
▁ауыртп
▁бұрғыл
▁бөлуде
▁жетісу
▁идеяны
▁класты
▁көздер
▁нысана
▁релакс
▁стресс
▁филиал
▁құрбан
▁өнерге
▁өтеміз
женерлік
ментінің
оссертал
қимылдар
▁Mathcad
▁located
▁sources
▁акцияға
▁басының
▁баяндау
▁бірімен
▁бөлімін
▁дағдысы
▁жерінің
▁жолдама
▁жіңішке
▁жәмішев
▁кенорны
▁пішінде
▁сайттар
▁санатқа
▁тарапты
▁түсінуі
▁формада
▁іргетас
▁істеуді
▁қабықша
▁қайғылы
▁қалатын
▁үнқатыс
▁үшжақты
▁өзендер
▁өлшемін
▁өсіміне
дарындағы
металлург
полковник
▁Белсенді
▁айналуда
▁алматыға
▁елбасына
▁жаңалығы
▁жылдықта
▁жөнделді
▁келгенін
▁констант
▁күштерді
▁кәсіпқой
▁максимал
▁манипуля
▁молекула
▁пәтерлік
▁рекомбин
▁саясатқа
▁теңдікті
▁Құрылған
▁қолдауын
▁қорғаушы
▁әрекетті
играфиялық
▁2011-2020
▁operation
▁аймағынан
▁активтері
▁алаңдарын
▁болмауына
▁жастармен
▁жылдардан
▁келтірген
▁кластерді
▁күшейтуді
▁көркемдік
▁көтеретін
▁мансаптық
▁медалімен
▁суландыру
▁тізбектің
▁тұтастығы
▁шекарасын
▁қалаларды
▁қимасының
▁қозғалады
▁қызметпен
▁қышқылдар
▁ұйымдарын
▁monitoring
▁Президенті
▁артықшылық
▁белоруссия
▁білдіреміз
▁дайындықты
▁дақылдарын
▁дипломатия
▁жүктемелер
▁назарбаева
▁облыстарда
▁органдарда
▁сақталуына
▁тәуекелдер
▁целиноград
▁электролиз
▁қабылдадық
▁болаттардың
▁бөлшектерін
▁жұмысшылары
▁номинациясы
▁нәтижесінің
▁орналасуына
▁тестілеудің
▁шараларымен
▁ынтымақтасу
▁қызықтырады
▁аппараттарын
▁дақылдарының
▁деректерінің
▁зерттеушілік
▁процестеріне
▁қорытындылар
▁үйлесімділік
▁institutional
▁kindergartens
▁technological
▁ардагерлердің
▁мектептерінің
▁мүгедектердің
▁мәселелерімен
▁спортшылардың
▁учаскелерінде
▁шығармашылығы
▁конструкторлық
▁табылатындығын
▁құрылғыларының
▁тотықсыздандыру
▁электрохимиялық
82
=2
AM
NS
ЫР
ык
яқ
ban
hic
ipi
ira
адж
дум
діс
кия
най
рей
ғаз
▁sn
▁Аэ
▁КР
▁Эл
▁шқ
▁Қу
ghan
амай
ауов
ауыс
ахар
горь
онда
қтық
▁164
▁25%
▁4,0
▁6,3
▁III
▁nad
▁Бағ
▁Инд
▁жоң
▁пәр
▁чер
▁шоқ
▁іжө
▁ғұм
▁үшт
ассыз
егеур
елдік
жақсы
жылық
сынов
қадам
қарлы
▁[23]
▁desp
▁face
▁self
▁КОМП
▁едік
▁жақт
▁иісі
▁траф
▁тығы
▁энер
▁әуек
urance
актілі
ауқаты
естегі
лануын
овский
оксида
процес
ранция
стерге
▁islam
▁vehic
▁Дұрыс
▁Тұтын
▁дамым
▁мұғал
▁специ
▁стату
▁сынға
▁талай
▁тотығ
▁ұзару
▁әркім
ақтағыш
ғынының
▁living
▁асырау
▁бағамы
▁детерм
▁диабет
▁етумен
▁жаздық
▁жарықт
▁жарқыр
▁жеңісі
▁иттрий
▁клиник
▁макром
▁мелиор
▁мызғым
▁сатыда
▁субстр
▁сырған
▁сәндік
▁тепкіш
▁цифрлы
▁әлихан
▁өсудің
аттылығы
диагност
критерий
ысындағы
▁consist
▁decided
▁Айталық
▁ЗЕРТТЕУ
▁аммоний
▁анаэроб
▁бәріміз
▁датчигі
▁есептен
▁жапырақ
▁жақтары
▁жүйеден
▁кеңейіп
▁кілттік
▁монопол
▁мүддесі
▁ойлауын
▁себебін
▁тасқыны
▁телевиз
▁тізбесі
▁қазірде
▁қателер
желтоқсан
көшербаев
▁everyone
▁артқанын
▁бағасына
▁бөлімнен
▁кернеуді
▁композит
▁мекенжай
▁орнатуды
▁сабақтан
▁сайлауда
▁сайтынан
▁туризмін
▁шламының
▁қаржысын
байланысты
электронды
▁celebrate
▁favorable
▁insurance
▁transform
▁айналатын
▁байланыст
▁болжануда
▁бұрындары
▁бөлшектің
▁дәлізінің
▁егемендік
▁елордамыз
▁заңдардың
▁импульсті
▁келтіруді
▁мақсатпен
▁музейінің
▁офицерлер
▁рәсімінде
▁сатылатын
▁спектакль
▁тексеруді
▁учаскесін
▁формуланы
▁форумында
▁ғимаратты
▁үлгісінде
▁әйелдерді
▁өтінімдер
▁айқындауға
▁арыстанбек
▁білімдерді
▁жобалармен
▁кристалдық
▁көзқарасын
▁матрицалық
▁машиналары
▁тілдерінің
▁электровоз
▁қозғалмалы
▁губернаторы
▁ерітіндісін
▁жалғастырды
▁концепциясы
▁малайзиялық
▁степногорск
▁түркменстан
▁қазақтардың
▁өркендеуіне
▁жылдарындағы
▁синтаксистік
▁тамақтандыру
▁тұрақтылыққа
▁Қорытындылай
▁қабырғасында
▁дәрігерлердің
▁келіссөздерді
▁келісімдердің
▁мамандықтарға
▁президентіміз
▁тұрақтылығына
▁қалаларындағы
▁қондырғыларын
▁амбулаториялық
▁министрлігінен
▁электрондардың
8%
sy
юк
-14
irt
lan
yle
анс
кек
лоб
ное
нін
ори
фир
фор
қдб
әби
▁1,
▁ШҚ
▁кВ
▁ло
ping
rete
алит
ерий
йорк
науы
оком
сель
ырды
▁6,4
▁act
▁rap
▁won
▁Ван
▁ГТҚ
▁Ман
▁ШЕШ
▁йод
▁рим
▁рио
▁сет
▁төз
▁фиш
▁флу
▁фок
▁цит
▁ұәқ
ounts
агран
амалы
атпен
икаға
несие
шекей
▁0,80
▁kore
▁park
▁pays
▁wide
▁Мұны
▁Ойын
▁Хром
▁амал
▁аром
▁арын
▁верм
▁есен
▁кісі
▁проб
▁соци
▁тары
▁торы
▁хоре
▁ҮШІН
rought
салалы
тайтын
терлер
ғылыми
▁kegoc
▁solar
▁абдул
▁аргон
▁енуге
▁етпек
▁жүруі
▁иници
▁кейіп
▁күзде
▁малды
▁пакет
▁прогр
▁селек
▁трасс
▁түген
▁тұста
▁қырып
алуының
аттарда
рсеткіш
тығымен
▁afghan
▁айырым
▁етеміз
▁етінің
▁костюм
▁осьтік
▁отынын
▁сенімі
▁сортты
▁тоқтау
▁хорват
▁эмоция
▁құрман
▁әсерлі
аторлары
геология
деректер
естердің
керлерді
қыркүйек
▁chinese
▁despite
▁nations
▁passeng
▁signing
▁transpa
▁Адамның
▁Көмірсу
▁МАТЕМАТ
▁Мектепт
▁алексей
▁алғанын
▁ахуалын
▁білемін
▁доценті
▁егілген
▁кинемат
▁көрсетк
▁моратор
▁ойлауға
▁орнымен
▁пәндері
▁соғысқа
▁сөзінің
▁тауарын
▁төрелік
▁файлдар
▁қаптама
▁қатынау
▁қосылыс
▁қуаттыл
▁Өндіріс
▁entities
▁totaling
▁Байланыс
▁Төртінші
▁астықтың
▁аяқтауды
▁дауыстық
▁енгізуде
▁көбейтін
▁көршілер
▁мағлұмат
▁мекемеде
▁ойлаудың
▁олимпиад
▁полиимид
▁прототип
▁салынбақ
▁сағаттан
▁сағатына
▁сметалық
▁төленген
▁фактілер
▁әсерімен
▁байқауына
▁белсендір
▁диаграмма
▁есептерге
▁жазатайым
▁жағындағы
▁заңнамасы
▁идеология
▁консулдық
▁креативті
▁назарында
▁объектіні
▁орнатылып
▁оқытылған
▁рекордтық
▁салмақтық
▁соқтырады
▁спикердің
▁таныстыра
▁таратылды
▁туристтік
▁шығысында
▁қабиболла
▁қатыстыру
▁commercial
▁friendship
▁Студенттер
▁ассортимен
▁белгілерді
▁делегаттар
▁депутаттың
▁жүйелермен
▁карбонатты
▁координата
▁нүктесінен
▁онжылдықта
▁тұрақсызды
▁фракталдық
▁шешімдерге
▁энергиялық
▁қабылдаушы
▁әрекеттегі
▁businessmen
▁аймақтарына
▁анықталынды
▁лаңкестікке
▁малайзияның
▁таныстыруға
▁тәжірибенің
▁шарттарында
▁эстетикалық
▁қонақтарына
▁құрылыстары
▁өкілдерінен
▁applications
▁negotiations
▁депутаттарын
▁кенорындарын
▁компоненттің
▁кәсіпорнының
▁көмірсутекті
▁көрсеткішпен
▁көрсеткіштің
▁миллиондаған
▁сигналдардың
▁толтырғыштар
▁өндірістерді
▁өнімділігіне
▁автоматтандыр
▁басымдықтарын
▁деформациялық
▁келісімшартқа
▁педагогтардың
▁пікірталастар
▁универсиадаға
▁құрылымындағы
▁аймақтарындағы
▁отырғанымыздай
▁қажеттіліктері
▁территориясында
▁тұжырымдамасына
▁ұйымдастырушысы
2%
87
89
ID
IP
TM
Ti
aq
pc
жү
тс
Әл
-13
.00
yra
боз
вин
гип
илі
кок
лоп
түс
▁Pb
▁ив
▁мы
-10-
atab
enda
mber
opol
uled
utor
азды
ақша
бокс
дана
еңіл
конт
опол
ртіс
синг
шықт
іңгі
ғару
▁15%
▁8,6
▁Lab
▁bir
▁wto
▁Ник
▁Сен
▁Шек
▁есі
▁мел
▁хкб
▁шев
ining
анғар
деуіш
ертті
назар
уелді
ілдік
қылар
үлкен
▁1941
▁akim
▁back
▁doct
▁hosp
▁line
▁pati
▁till
▁weap
▁Омар
▁анат
▁арпа
▁асық
▁аттр
▁аула
▁брау
▁кеші
▁нато
▁нені
▁пуль
▁қорш
▁әдет
икуляр
сервис
тиімді
тордың
хирург
құлова
▁30-40
▁Smart
▁coord
▁makes
▁price
▁Бұрын
▁Уақыт
▁дегид
▁дереу
▁жорам
▁келең
▁күллі
▁метро
▁монак
▁такси
▁тұрса
▁шағыл
▁шошқа
▁шыған
▁қатал
андарын
жігерді
пәтерлі
тарымен
▁declar
▁decree
▁festiv
▁friend
▁places
▁secret
▁threat
▁turkey
▁Елбасы
▁асыруы
▁ауылды
▁булану
▁жолағы
▁заңмен
▁зиянын
▁кеннің
▁кітабы
▁көшуді
▁норвег
▁оқудың
▁пәрмен
▁сөйлес
▁талғам
▁туғызу
▁Қандай
▁құнына
▁ұйымын
▁brought
▁reduced
▁Басқаша
▁илемдеу
▁күресті
▁көлінің
▁нормасы
▁нүктеде
▁санитар
▁сериялы
▁соқтығы
▁сүйеніп
▁тобымен
▁шығудың
▁үлгілік
▁ұстауға
▁ұшырады
ациялауға
еттілігін
▁concrete
▁unemploy
▁Функцион
▁алаңының
▁батальон
▁бітірген
▁вольфрам
▁гранттық
▁демонстр
▁дәрежеге
▁жақсаруы
▁заңдарға
▁кеңеюіне
▁кірістік
▁ластағыш
▁мембрана
▁микроағз
▁мойындау
▁мұражайы
▁паркінің
▁құбырдың
▁2017-2021
▁emergency
▁астанадан
▁атамқұлов
▁ақпанында
▁ақтөбелік
▁білімінің
▁екіншілік
▁есептеуді
▁етілмеген
▁жалақысын
▁жеткізуші
▁жеңілдігі
▁калибрлеу
▁навигация
▁орнатудың
▁периодтық
▁пункттері
▁суреттері
▁таптырмас
▁тереңдете
▁термометр
▁топырақта
▁тұрақтысы
▁хатшылығы
Информатика
▁Мәліметтер
▁барлығының
▁бейнелерді
▁еуразияның
▁жиіліктегі
▁инженерлер
▁компанияда
▁мәндерінде
▁нысандарда
▁нұсқасында
▁орнағанына
▁сектордағы
▁табысталды
▁тығыздығын
▁шешілмеген
▁шығындарға
▁шығыстарды
governmental
▁аппараттары
▁есептелетін
▁желілерінде
▁жиынтығының
▁жоспарларды
▁компьютерге
▁параболалық
▁теңдеулерін
▁тәсілдермен
▁қолданушыға
▁қорытындыға
▁құрылысында
▁әкімдігімен
▁өзгертілген
▁өнеркәсіпті
▁араластырғыш
▁беретіндігін
▁жалғастыруды
▁инвесторлары
▁интервалында
▁кейбіреулері
▁көрсеткішіне
▁мемлекетіміз
▁мәселелермен
▁ферроқорытпа
▁фракциясының
▁ұстанымдарын
▁әзірлеушілер
▁communication
▁айнымалыларды
▁процесстердің
▁тақырыптардың
▁тәжірибесінің
▁қорытындысына
▁Эксперименттік
▁институттардың
▁келісімшарттар
▁министрліктері
▁студенттерінің
▁қатынастарының
▁әріптестерінің
▁комиссияларының
▁технологиясымен
44
63
91
EF
Ni
OR
ne
ЗУ
эп
эқ
ғз
-1-
VID
бур
лаг
лит
рға
▁МҚ
▁Пу
▁бә
▁гі
▁иб
▁ян
▁Үй
▁Ұз
ЕГІЗ
ариф
едір
имет
овск
рдің
сауи
ттір
ырып
ығым
ңғым
үрді
әбді
▁131
▁132
▁6,8
▁7,3
▁[3-
▁did
▁mus
▁pil
▁ste
▁sug
▁Жин
▁Кеу
▁Тас
▁дэф
▁жүм
▁лез
▁лен
▁ұлп
офосф
ропил
тінде
уімен
өлшем
▁0,97
▁монғ
▁омбы
▁пнев
▁райы
▁соңы
▁утил
▁хост
▁элев
▁Қала
ельдің
түкпір
ісінен
ғаннан
▁avail
▁award
▁cases
▁costs
▁intel
▁range
▁НЕГІЗ
▁Сынақ
▁Федер
▁баулу
▁жауып
▁кетіп
▁минск
▁тілеу
▁христ
▁шығым
▁істің
▁қызан
▁үйірм
▁ұйымд
едицина
елендір
лығынан
лігімен
▁agenda
▁nadloc
▁prosec
▁repair
▁statis
▁Жоспар
▁асырап
▁атаған
▁банкро
▁бекеті
▁босқын
▁бұрылу
▁ерігіш
▁жинады
▁инверт
▁күндер
▁күттір
▁пептид
▁резист
▁саябақ
▁тірегі
▁төлемі
▁шектен
▁қазпоч
▁қаһарм
▁үйлері
▁әсерге
▁әшекей
аларымыз
байланыс
бековтың
изациясы
орлармен
табылады
тындығын
ілігімен
▁pleased
▁serious
▁supreme
▁аморфты
▁ақаулар
▁балалық
▁банкпен
▁бергені
▁білдіре
▁күңгірт
▁облысқа
▁салынуы
▁сыналды
▁ташкент
▁теңдесі
▁тудыруы
▁шаманың
▁эстрада
▁ізденіс
▁іздеуді
▁қадамын
▁қуатына
▁ұшақтар
▁өңдейді
▁construc
▁currency
▁internet
▁Президен
▁Талшықты
▁басқарып
▁біртанов
▁гарнизон
▁жазықтық
▁жіберген
▁зерттеуі
▁колледжі
▁модельде
▁мәлімдеу
▁орнатады
▁портының
▁пәндерін
▁синусоид
▁тарапына
▁таңдауда
▁тізбесін
▁фильмдер
▁қорғайды
▁қытаймен
▁үйлеріне
▁ұмтылған
▁2017-2019
▁dedicated
▁procedure
▁prospects
▁аккумулят
▁ауруларын
▁аяқталуға
▁ерітілген
▁желілерге
▁заңдылығы
▁казахстан
▁көрінісін
▁нұсқаулар
▁полигонын
▁реттеледі
▁түсінігін
▁шығарылуы
▁шығынының
▁қапталған
▁қысқарады
▁әлеуеттің
▁австриялық
▁жазықтықта
▁жетімділік
▁жылдамдату
▁көздерімен
▁маусымдағы
▁ойындарына
▁позициясын
▁сәрінжіпов
▁тексерудің
▁фильтрация
▁функционал
▁қозғалысқа
▁құзырлылық
▁құралдарға
▁өзгерісіне
орфологиялық
▁Проблемалық
▁арақатынасы
▁болғандығын
▁дипломаттар
▁кеңесіндегі
▁конденсатор
▁мемлекетпен
▁мұғалімдері
▁процедурасы
▁сараптамасы
▁сингапурдың
▁қосымшалары
технологиялар
▁Кәсіпорынның
▁байланыстыра
▁кешендерінің
▁министрлікте
▁нысандарында
▁павильонының
▁пайдаланамыз
▁салыстырылды
▁серіктестері
▁трансферттер
▁қасиеттердің
▁қолданылуына
▁құрылымдарын
▁құрылғысының
▁альтернативті
▁ерітіндісімен
▁ескерткіштері
▁интербелсенді
▁коэффициентті
▁прокуратурасы
▁университетте
▁үміткерлердің
▁reconstruction
▁қорытындыларын
++
3(
CH
бк
-2-
-29
ica
max
ААм
птр
рау
сил
төл
ума
ьют
ҒАЛ
▁5)
▁Sh
▁uz
▁БЛ
▁Кв
▁ЭЛ
▁нө
inux
reci
дені
ныша
отин
стаф
ьяна
ұтас
▁171
▁245
▁6,9
▁9,5
▁fed
▁Кеш
▁Нар
▁кум
▁қақ
iting
ocera
дауыл
жылға
ослав
плазм
пімді
сеңіз
строй
тинді
хабар
әрәби
▁(13)
▁0,77
▁0,86
▁10,5
▁Serv
▁[2].
▁laws
▁mess
▁talk
▁vice
▁Петр
▁адге
▁апри
▁гели
▁мені
▁сопл
▁сүті
▁түйт
▁фрез
▁ірім
▁үзіл
бетова
скемен
қаралы
қорғау
▁20-30
▁estim
▁japan
▁learn
▁optim
▁Бидай
▁МОДЕЛ
▁Сабақ
▁асхат
▁барын
▁бетпе
▁буыны
▁бірте
▁бұлақ
▁евген
▁ербол
▁жарғы
▁кедір
▁күзгі
▁нысты
▁орайл
▁рының
▁солар
▁сізді
▁табуы
▁тракт
▁қозға
▁құдай
▁Өткен
бабының
тылатын
шілікке
▁Matlab
▁august
▁online
▁Күкірт
▁айғақт
▁аршалы
▁атағын
▁банкке
▁бәріне
▁еседен
▁жақтан
▁паспор
▁салқын
▁эрозия
▁үлгілі
жағармай
ционалды
ілерінің
▁century
▁Тапсырм
▁альянсы
▁балансы
▁дәлелді
▁етуімен
▁кезінен
▁корабль
▁механик
▁николай
▁оқиғаға
▁сағатта
▁сезімін
▁сервисі
▁табылып
▁техноло
▁торының
▁шеңбері
▁ғарышқа
▁қойнауы
▁қолынан
суреттегі
сыздандыр
▁maintain
▁Көбінесе
▁ахуалдың
▁бағындыр
▁госсипол
▁детектор
▁дәстүрін
▁иманғали
▁инфекция
▁кодексін
▁мерекеге
▁оқиғаның
▁пошталық
▁процеске
▁саясатта
▁сығылған
▁таратқыш
▁тигізуде
▁фосфорит
▁штабының
▁Қозғалыс
▁қайталан
▁қамтылып
▁қаңтарға
▁құрамасы
▁ұжымдары
▁ұштастыр
▁өткіздік
▁kazenergy
▁kyzylorda
▁авариялық
▁басындағы
▁бағамының
▁бағытымен
▁ететініне
▁жеңісімен
▁көлемдері
▁көпсалалы
▁маусымдық
▁маңайында
▁мүддесіне
▁орындаушы
▁практикум
▁семинарда
▁соттардың
▁студентке
▁табиғатын
▁таңдаудың
▁теңдеумен
▁толқынның
▁тіркеуден
▁шығыстағы
▁қылмыспен
▁құзіретті
▁құқықбұзу
▁үкіметтер
▁confidence
▁Бағдарлама
▁айнымалысы
▁берілмейді
▁композитті
▁контроллер
▁көрсетілім
▁сигналдары
▁сипатталды
▁тренингтер
▁түсініктер
▁төмендеуін
▁қазбаларды
▁қатынасына
▁азаматтарын
▁беріктілігі
▁ететіндігін
▁жеңілдікпен
▁жұмысындағы
▁интегралдау
▁көпшіліктің
▁нормаларына
▁процестерге
▁талқылануда
▁тасымалының
▁толықтыруға
▁қамқорлығын
▁қаражатының
▁қозғалысына
▁қонақтардың
▁құбырлардың
▁үміттенемін
▁ұстанымдары
▁өңірлерінен
▁registration
▁successfully
▁микропроцесс
▁операциялары
▁пайдаланумен
▁пайдаланылып
▁түлектерінің
қатынастарының
▁significantly
▁корольдігінің
▁тұжырымдалған
▁шекарасындағы
▁ынталандырады
▁қалыптасуының
▁үйлестірушісі
▁әдістемесінің
▁материалдарына
▁монополияларды
▁субъектілердің
▁температуралар
▁шаруашылығымен
▁қатысатындығын
▁өкілеттіктерді
▁өндірушілермен
▁массатасымалдау
▁мүмкіншіліктері
88
CC
CN
VM
ИС
МО
нғ
ши
box
lov
omp
жат
льд
ныл
оре
▁3%
▁Pi
▁dr
▁xi
▁Аг
▁КӨ
▁РН
▁жө
▁нұ
▁хэ
▁іт
imov
less
olid
ring
yrau
алык
анға
баян
еуіл
иман
йынд
конц
лынғ
ргия
өзін
▁121
▁166
▁176
▁182
▁256
▁8,3
▁[11
▁len
▁sev
▁Ірі
▁Бес
▁Пер
▁Сут
▁ЭМГ
▁вин
▁дым
▁ием
▁кәс
▁мех
▁рыс
▁соя
▁өне
▁өсі
allur
ambyl
ИПААм
СТЫРУ
аппар
бірте
дақыл
жауап
жәнет
одаль
сенов
серік
уалды
▁0,83
▁0,84
▁[34]
▁case
▁fulf
▁gold
▁khan
▁less
▁Ашық
▁Гаус
▁атын
▁бент
▁дрон
▁шайқ
▁шерт
▁қуыс
Электр
агранж
барлық
матизм
олитті
учинск
фиялық
ілмеуі
▁алуын
▁душар
▁еққдб
▁зиянк
▁кодты
▁колон
▁лазер
▁матер
▁мецен
▁парас
▁сының
▁тілек
▁филип
▁форма
▁фотон
▁фронт
▁қамыр
▁үрлеу
алаудың
дануына
елейтін
иторинг
орларға
ядролық
▁houses
▁observ
▁stated
▁Интегр
▁ақиқат
▁баспал
▁бермей
▁біржан
▁жанасу
▁жарысы
▁жуырда
▁оқытып
▁оңтүст
▁протон
▁төлқұж
▁ұйымды
▁ұсынуы
амыздағы
параметр
▁colleag
▁focused
▁forward
▁persons
▁railway
▁zhambyl
▁Химияны
▁ағзаның
▁бөлшегі
▁жіберді
▁кеңесті
▁контакт
▁күйдегі
▁мұхамед
▁референ
▁тамашал
▁татьяна
▁таңдауы
▁типтері
▁центнер
▁ұйымдық
▁әскерге
центрация
қоғамдаст
▁Learning
▁creating
▁hospital
▁schedule
▁Табылған
▁аймақтан
▁амплитуд
▁арналары
▁ауысуына
▁байқауда
▁байқауды
▁белорусь
▁болжайды
▁дизельді
▁жабылған
▁жүргізуі
▁зауытына
▁келетіні
▁локальды
▁менеджер
▁модульді
▁органына
▁оқытылды
▁режиссер
▁роботтың
▁соғыстың
▁студенті
▁табыстың
▁тастауға
▁түгелдей
▁түйіндес
▁фосфорлы
▁циклінің
▁шығыстар
▁істейміз
▁қабатына
▁қабылдам
▁қалаймыз
▁қауқарлы
▁ұқсастық
оссерталес
қолданбалы
▁structure
▁Еліміздің
▁арзандады
▁бекітіліп
▁вакуумдық
▁дипломмен
▁иелерінің
▁коллектор
▁курорттық
▁көтерілуі
▁принципін
▁профилакт
▁регламент
▁резервуар
▁сапарлары
▁сульфидті
▁сөздіктер
▁таратудың
▁толғандыр
▁халықтары
▁шеберлігі
▁элементар
▁қорлардың
▁үдерістің
▁ұлғайтады
▁foundation
▁prevention
▁векторының
▁гидрогенер
▁жасалғанын
▁жеңілдікті
▁жинақталуы
▁жоспарымен
▁жәрмеңкеге
▁импульстік
▁кинетикасы
▁кремнийдің
▁матрицасын
▁мультиплик
▁саңырауқұл
▁суретшілер
▁туристерге
▁шекарасына
▁қосымшасын
▁үкіметімен
▁ұғымдардың
▁әкімдердің
▁әкімдеріне
изацияланған
▁manufacture
▁Динамикалық
▁агломерация
▁аккумулятор
▁мойындалған
▁мұғалімінің
▁программасы
▁сессиясының
▁спортшылары
▁субъективті
▁сынақтардың
▁талқылаудың
▁теориясында
▁толықтырады
▁қосарланған
▁қыздырылған
инвестициялық
психологиялық
▁Дүниежүзілік
▁ауғанстанның
▁бизнесмендер
▁делегациясын
▁жолаушыларға
▁зейнеткерлік
▁сертификатын
▁тағайындауға
▁заңдылықтарды
▁реакциялардың
▁таныстырылады
▁теңестірілген
1/
No
ІК
ги
мт
по
ҰҰ
ӘС
[4]
cor
iii
row
ДАУ
ЛАР
МАҚ
аят
ето
күш
ола
рай
рез
таш
құн
ұлғ
▁1%
▁ED
▁IV
▁МҰ
▁же
▁сл
inal
itch
евич
едев
офен
роид
ьері
құрт
▁172
▁174
▁225
▁6,1
▁cal
▁fil
▁fis
▁sim
▁МГц
▁ОҚУ
▁Фиш
▁Шөл
▁дік
▁итп
▁рып
▁тег
▁тро
inate
izing
Химия
бионт
леуші
незем
остим
тілік
▁0,27
▁[3].
▁elim
▁hard
▁host
▁kind
▁ағыс
▁балқ
▁жары
▁полю
▁скал
▁сочи
▁сұлы
▁уәли
▁харт
▁шунг
амайды
аторды
атурал
дамыту
дануға
ельдік
ететін
пейтін
руктур
ындагы
▁Analy
▁Excel
▁cerem
▁cover
▁grain
▁pavil
▁shows
▁Австр
▁Интел
▁Тығыз
▁ақмол
▁гастр
▁есімі
▁кілем
▁көшті
▁ларды
▁парыз
▁режім
▁сепар
▁типін
▁түске
▁шегер
▁өтпек
olution
ақтылық
аңыздар
данудың
дығымен
кашенко
ндістан
ристалл
стацион
шығанақ
ыстарда
электро
ғызстан
▁behalf
▁confir
▁divers
▁highly
▁worked
▁артуын
▁ауылға
▁белсен
▁бізбен
▁бұрмал
▁дистил
▁екілік
▁инстру
▁коммун
▁көшкін
▁лайықт
▁майдың
▁теннис
▁толады
▁түсімі
▁шектес
▁этанол
▁қосаяқ
ометрлік
▁appreci
▁consult
▁contain
▁highest
▁product
▁regular
▁traffic
▁австрал
▁алаңдар
▁астамын
▁ауданды
▁бірігуі
▁бірізді
▁залында
▁кеңесші
▁контрол
▁мәнінен
▁намысын
▁органға
▁тикалық
▁тұқымда
▁ынтымақ
▁ығыстыр
▁ірімшік
▁ҚОЛДАНУ
▁үстіңгі
▁өнердің
▁өңдеген
ауқатының
метриялық
тқышқылды
▁chemical
▁metallur
▁recently
▁Сызықтық
▁акциялар
▁ансамбль
▁аударуды
▁ескерген
▁жақындау
▁жеткенін
▁кітаптың
▁көздеген
▁орындауы
▁сағаттық
▁серпіліс
▁танысқан
▁форумдар
▁этикалық
▁ғаламшар
▁қалыптау
▁қуанышты
▁ұмтылады
▁ұсынысты
▁өлшеулер
▁authority
▁indicator
▁Болашақта
▁айтжанова
▁аппаратын
▁ауытқыған
▁бакалаври
▁бағындыру
▁бишімбаев
▁диалогтық
▁замандағы
▁көлемімен
▁мектептен
▁менеджері
▁моделінде
▁мораторий
▁сарапшысы
▁теңдеуден
▁тобындағы
▁тәсілімен
▁шешілімді
▁қарастыра
▁қаңтарына
▁құрамынан
▁үміттеміз
▁ұнтағының
▁ұсынылуда
▁өлшемінің
▁өскеменде
▁өсірілген
▁өткіземіз
жабдықтарды
▁maslikhats
▁Зерттелген
▁адамдармен
▁ауруханаға
▁жарияланым
▁жиынтығына
▁заңдылығын
▁келтіріліп
▁кенорнының
▁кластердің
▁командалар
▁матрицаның
▁сабақтарды
▁салмағының
▁қолдауының
▁өзгеруімен
▁Температура
▁антиоксидан
▁бассейнінің
▁басқарудағы
▁бағаланатын
▁денсаулыққа
▁жарақаттану
▁келешектегі
▁командалары
▁кристалдану
▁критериалды
▁мақсаттарда
▁мекемелерін
▁мәртебесіне
▁мәселесінде
▁нормаланған
▁теңсіздікті
▁қолданудағы
▁құрылысымен
▁әзірлемелер
▁legalization
▁бастамасының
▁бөлімшесінің
▁кедейлендіру
▁лидерлерінің
▁нүктелерінде
▁сақтандыруды
▁терминдердің
▁энерготиімді
▁қалдықтардан
▁қосымшаларын
▁үдерісіндегі
▁конституциясы
▁меморандумның
▁оқытушылардың
▁қалдықтарынан
▁жоспарлаудамыз
▁картографиялық
▁кәсіпкерлермен
▁универсиаданың
▁тәжірибелерімен
Ca
NU
VD
»-
МК
бү
дв
жұ
фи
-1)
acy
ada
bai
lus
ner
orm
uel
вод
ила
кіт
лиф
мез
мир
олы
шат
қаж
▁(7
▁Li
▁ta
▁Им
▁СК
▁Са
▁қү
gest
isco
ison
алақ
атар
ашық
голь
елуі
қаси
қону
▁141
▁156
▁168
▁184
▁2,0
▁27-
▁5,9
▁7,1
▁[20
▁abd
▁Пеш
▁Төл
▁Фот
▁хар
▁іле
▁іқм
алымы
бейне
екеге
люстр
ндықт
сәрін
тагон
ынның
қабат
▁0,34
▁0,37
▁town
▁алюм
▁атай
▁ашыт
▁дары
▁даңқ
▁прок
▁тыру
▁ынша
▁Қосп
▁құры
▁өтім
аптары
ектену
лануға
сандық
сыздар
шығару
▁happy
▁Навье
▁Түрлі
▁ендік
▁жақта
▁жүріс
▁игорь
▁инфро
▁кенін
▁кешкі
▁литий
▁мазут
▁рақым
▁сыйға
▁тілеп
▁улану
▁шаңды
▁шиелі
▁Құрыл
▁қырлы
▁құйып
▁үйіне
▁өсуді
ақорған
белгілі
ропилен
тренинг
шысынан
▁atyrau
▁factor
▁income
▁saving
▁Жетісу
▁айнала
▁асхана
▁бердік
▁бесігі
▁достас
▁дәуірі
▁еткені
▁етіліп
▁жынысы
▁игеріп
▁карточ
▁келсек
▁когнит
▁күйдір
▁нотари
▁ойыншы
▁сатыға
▁симфон
▁сөндір
▁тездет
▁тердің
▁түтікш
▁қаруға
▁қосуда
▁қызылш
▁құрауы
ervation
халықова
электрлі
▁Ресейде
▁абайдың
▁аздаған
▁айырылу
▁бақылай
▁блоктар
▁голланд
▁ертеңгі
▁есептем
▁жайттар
▁жарақат
▁игерген
▁импорты
▁орнатты
▁орынбор
▁оқиғасы
▁перпенд
▁пәтерді
▁сенімге
▁ғылымда
▁өңделді
портфолио
әрекетіне
▁ceremony
▁designed
▁ensuring
▁Сабақтың
▁анықтауы
▁бағдарын
▁бейнелер
▁білімгер
▁бөліміне
▁ескертті
▁жалғасты
▁жақсарып
▁жүктелді
▁келтірді
▁массаның
▁мағынаны
▁меншікке
▁ойластыр
▁реттегіш
▁сапарлар
▁словакия
▁схемасын
▁таңдауды
▁темірдің
▁топтарды
▁тотыққан
▁қазпочта
▁қаралуда
▁ұшқышсыз
▁өлшенеді
алдықорған
назарбаева
▁gratitude
▁Минералды
▁алматыдан
▁аудитория
▁бірлігіне
▁дайындама
▁доллардың
▁енгізетін
▁есептеуде
▁желісімен
▁жолдармен
▁инженерия
▁конвекция
▁корпустың
▁мамырдағы
▁меймандар
▁модулінің
▁орындарға
▁пікірлері
▁санаттары
▁стипендия
▁тамыздағы
▁теледидар
▁терминалы
▁топтарына
▁туғызатын
▁философия
▁шарттарда
▁экотуризм
▁құсайынов
▁әзірлейді
аларымыздың
▁attracting
▁discussion
▁mechanisms
▁алушыларды
▁баршаңызды
▁белгіленіп
▁босатылған
▁жеткізілім
▁комплексті
▁мамандықты
▁мерзімімен
▁нанотүтікш
▁порталының
▁реляциялық
▁сайлаудағы
▁сигналының
▁стандартын
▁тазартудың
▁телефондар
▁қиындатады
▁қоймасының
▁қыркүйекке
▁өзгермейді
▁астанасында
▁жауынгерлер
▁жетілдіруде
▁жоспарлаған
▁институттық
▁картография
▁кеңестердің
▁көмірсутегі
▁марапаттады
▁мәслихаттың
▁себептермен
▁сұрақтардың
▁функциясына
▁эволюциялық
▁электрондар
▁қабылдаймыз
▁қолданылуын
▁әріптестері
▁әуекомпания
▁өрнектеледі
▁бірлестіктің
▁бөліктерінде
▁дайындалатын
▁заңдастыруға
▁координаттар
▁мегаполистің
▁мониторингін
▁нейрожелілік
▁тұрғындармен
▁фабрикасының
▁қысқартылған
▁құжаттарының
▁құралдарында
▁understanding
▁ведомстволары
▁деңгейлерінің
▁жаңғыртылатын
▁көрсеткішімен
▁көрсеткішінен
▁меморандумдар
▁төңірегіндегі
▁қаржыландырды
▁қағидаттарына
▁әкімдіктердің
▁облыстарындағы
▁экономикасында
▁ассоциациясының
▁байланыстарының
▁консультациялық
1(
1=
AX
OD
fy
gs
nO
НЫ
ТК
ФЭ
бс
лк
шө
[5]
ebr
mar
own
ymk
Мат
аки
зым
лик
огр
роц
сет
таз
теж
шер
шеш
ғұр
▁Ag
▁Re
▁Ев
▁ле
abil
etus
tech
till
асай
есеп
етка
иева
лайд
окон
олик
руль
рынд
сату
хлор
ысан
ыған
ыңды
ғыты
▁001
▁163
▁179
▁19-
▁192
▁3-5
▁370
▁6,7
▁[4-
▁ara
▁cos
▁etc
▁exc
▁fru
▁har
▁Дәр
▁ТАЛ
▁бюл
▁вис
▁гур
▁еск
▁кот
▁мүй
▁рін
▁Қож
.2015
chool
берді
етуге
идтік
ингер
инмен
▁0,36
▁0,95
▁[4].
▁dise
▁home
▁silk
▁ways
▁Блум
▁Жану
▁Желі
▁Рейн
▁ағыз
▁ерім
▁педи
▁ынта
ansion
амалық
аторын
деуіне
интерн
ольник
студен
шарада
▁Linux
▁honor
▁neigh
▁Айқын
▁Кеңес
▁Облыс
▁Пласт
▁Пуасс
▁датчи
▁дивиз
▁жарат
▁квота
▁кубог
▁лицей
▁ниеті
▁сахар
▁тежел
▁тежеу
▁тоғыс
▁тығын
▁құнан
▁әркел
▁Өлшем
абельді
демелер
ділігін
егеурін
еліктен
еясының
кеуекті
стандар
▁Академ
▁Сөйлеу
▁алумен
▁атауын
▁бедері
▁гиялық
▁дренаж
▁дүркін
▁енуіне
▁жүктер
▁иранға
▁комбай
▁коммут
▁мынаны
▁мұраны
▁оқылым
▁реестр
▁саздақ
▁суреті
▁сұрады
▁хаттар
▁Қышқыл
▁қазалы
▁құбылы
▁ұйымда
▁ұнынан
▁өңірді
британия
коммуник
ланбаған
ресейлік
▁mineral
▁popular
▁weapons
▁адамдық
▁айырбас
▁ағымдық
▁ақбөкен
▁битумды
▁бөлеміз
▁газының
▁жарықди
▁залдары
▁кішкене
▁күтеміз
▁күтіліп
▁маркасы
▁награда
▁орыннан
▁отынмен
▁пайдаға
▁парадқа
▁санауға
▁сержант
▁съезіне
▁толуына
▁ыстыққа
▁Қаланың
▁қатарда
▁қоздыру
▁құқықты
▁ұжымына
▁ұсынуды
▁өрнегін
▁өскенін
ациялаушы
климаттық
ландырады
ограммасы
қатынасқа
▁advanced
▁forecast
▁produced
▁standard
▁Елімізде
▁Ерітінді
▁акциясын
▁алабының
▁баламасы
▁бөлімнің
▁диалогқа
▁елестету
▁жандарды
▁иеленген
▁күрестің
▁көбейтіп
▁көбеюіне
▁мағыналы
▁мәтіннің
▁саммитке
▁сенімдеу
▁сириялық
▁тамақтан
▁танытады
▁театрдың
▁тетіктер
▁түскенін
▁тәрбиесі
▁шикізаты
▁шығынның
▁қарсылық
▁өкілінің
▁өмірінде
сәрінжіпов
▁expansion
▁graduates
▁therefore
▁алмасылды
▁біртұтаст
▁василенко
▁деңгейдің
▁дизельдік
▁дәуірінде
▁енгізумен
▁жатпайтын
▁жеткізуде
▁заманында
▁кристалды
▁модельден
▁оксидінің
▁режимдері
▁саудадағы
▁сызықтары
▁теоремасы
▁толтыруға
▁трансплан
▁түзілуіне
▁түсіндірм
▁тәртіптік
▁шетелдегі
▁эффектісі
▁іріктеліп
▁қарқынына
конференция
▁connection
▁prosperity
▁атсалысуға
▁бағыттарға
▁бөліктерге
▁кеңейтудің
▁көппәтерлі
▁нивелирлеу
▁органдарды
▁пайдаланды
▁тақырыптың
▁фирмасының
▁қарқындату
▁өркениетті
функционалды
▁interesting
▁байқалмайды
▁медицинаның
▁мерейтойына
▁тексеріледі
▁тенденциясы
▁түлектердің
▁төлемдердің
▁шығыстардың
▁қатынасында
▁әзірленетін
▁өтініштерді
▁декларациясы
▁жемқорлықтың
▁компьютермен
▁магистратура
▁мұғалімдерге
▁облысымыздың
▁перинаталдық
▁эллиптикалық
▁ғалымдарының
▁қолбасшылығы
▁қызықтыратын
▁құрылғыларда
▁әріптестерін
▁алғашқылардың
▁бастамалардың
▁конституцияға
▁наноқұрылымды
▁орталығындағы
▁аккредиттелген
▁алгоритмдердің
▁мемлекеттерден
▁мониторингілеу
3%
CS
Cd
БК
ГЕ
зю
мн
нц
пі
ют
өк
-26
400
ior
map
АҚШ
ЛІК
ити
мик
мос
ома
орк
тот
чур
энь
▁(9
▁[9
▁kh
▁Гц
▁нү
book
айыр
акси
атал
аңды
декв
ения
ифик
олий
отаж
отын
сырм
▁177
▁178
▁183
▁204
▁236
▁237
▁3-6
▁310
▁340
▁7,6
▁GPS
▁bur
▁flo
▁gue
▁rad
▁БОЛ
▁ГЭС
▁Дис
▁Жай
▁Ион
▁Кал
▁Пән
▁Сүт
▁Тот
▁Шал
▁мох
▁мөз
▁раф
▁тжд
▁тіп
▁шап
▁ііі
▁құш
-2009
acter
arily
ening
erves
oviet
ақпыз
ектем
елсіз
интин
мырыш
ольдс
рилам
сағат
соңды
талай
іктір
қалар
▁(17)
▁ArcG
▁NaCl
▁exam
▁febr
▁mean
▁nove
▁ДҚБЖ
▁Порт
▁акті
▁арна
▁арте
▁болғ
▁дегі
▁дири
▁кону
▁спар
▁ішек
▁қиыл
▁әуен
▁өзім
aspian
manent
АНДЫРУ
аятник
ағаның
инарлы
эпидем
іңізде
▁2015-
▁began
▁light
▁objec
▁seven
▁Бірін
▁Еңбек
▁Жарық
▁Спект
▁Транс
▁аймен
▁аспаз
▁аттыр
▁берсе
▁жолғы
▁затты
▁маңай
▁мегав
▁молда
▁мұнар
▁парсы
▁санал
▁скрип
▁сыныб
▁сәкен
▁талан
▁тасты
▁топты
▁тәтті
▁уытты
▁шламы
▁өтсек
алдарда
дарыңыз
дегідей
қосымша
▁advant
▁allows
▁status
▁travel
▁Кернеу
▁Фәрәби
▁алшақт
▁аналық
▁бюллет
▁бүйрек
▁домбыр
▁жалтар
▁жоқпыз
▁жүздің
▁мұхиты
▁небәрі
▁пештің
▁радиус
▁сүрген
▁шаршау
▁шығысы
▁өзінше
зомбылық
▁Білімді
▁Лагранж
▁Суретте
▁алтынды
▁алынуда
▁ауырлық
▁беттері
▁денелер
▁етуіміз
▁жалғаса
▁жинауды
▁жойылуы
▁кабинет
▁климаты
▁конгрес
▁көптігі
▁минимал
▁моделді
▁орналас
▁пайдала
▁сүйікті
▁тармағы
▁теңізге
▁тоннасы
▁тұрмысы
▁шілдеге
▁ыдырауы
▁қарайғы
▁қасымов
▁құрамға
▁құрауыш
▁ұсындық
▁әсердің
▁өлшейді
atization
жылдықтар
лектуалды
охимиялық
түсіндіру
▁dynamics
▁february
▁november
▁upcoming
▁ауысымды
▁бакалавр
▁бақылауы
▁елбасыға
▁еңбектің
▁жойылған
▁жылытуға
▁ирландия
▁итерация
▁кенеттен
▁кіріседі
▁көрмеден
▁логиялық
▁мұсылман
▁оқытудан
▁пайызына
▁пакеттер
▁сарқынды
▁сырдария
▁тасталды
▁түзеткіш
▁тәртіпке
▁химияның
▁ылғалдың
▁қабаттық
▁құралдың
▁ұжымымен
▁әліпбиін
транзиттік
▁permanent
▁principle
▁Автоматты
▁аударатын
▁аударылып
▁байқаулар
▁бастаймыз
▁баяндайды
▁гектарына
▁ермекбаев
▁жасауымыз
▁заңгерлік
▁кейінірек
▁кернеулер
▁лидерлері
▁математик
▁меңгереді
▁позицияға
▁провайдер
▁саясаткер
▁синхронды
▁тазартуға
▁тәрбиелік
▁файлдарды
▁шығарамыз
▁энергетик
▁қайтымсыз
▁қолжеткіз
▁қосылуына
▁құбылысты
▁әрекетіне
▁өзгермелі
▁өндіріліп
дастырылған
▁apartments
▁regulation
▁Графикалық
▁айналысуда
▁аудиторлық
▁ақаулардың
▁демеушілік
▁ерітіндіде
▁жазбаларды
▁жеңілдетіп
▁концентрат
▁нейтрондар
▁сингулярлы
▁топтамасын
▁тұжырымдау
▁украиналық
▁экстрагент
▁істейтінін
▁қадамдарды
▁қондырғыда
▁қоспаларын
▁құбырларын
▁ұзындығына
▁басталуымен
▁дайындығына
▁жартыжылдық
▁итерациялық
▁карьерлерді
▁конденсация
▁коэффиценті
▁максимальды
▁палатасымен
▁проблеманың
▁таратылатын
▁тәрбиелеуге
▁шикізатының
▁электроника
▁қарағандыда
▁құрастырған
▁ұйымдарымен
▁адсорбциялық
▁жақындастыру
▁криптография
▁облыстарынан
▁полипропилен
▁профессорлық
▁сыйымдылығын
▁тәуекелдерін
▁ғимараттарын
сыздандырылған
▁автомобильдер
▁жоспарларымен
▁идентификация
▁компанияларда
▁мүмкіндігімен
▁мәселелерінде
▁наубайханалық
▁орналастырады
▁тұжырымдаманы
▁шеберліктерін
▁әрекеттесудің
▁айнымалылардың
▁аппараттарының
▁аутентификация
▁сипаттамаларды
▁басымдықтарының
▁мемлекеттерімен
41
EC
St
Xe
hr
oo
ББ
ср
ұқ
aya
lin
pce
sky
val
деш
итт
сов
цев
▁cn
▁po
▁ққ
oura
амау
ауыр
бейн
еско
еясы
мдік
мира
стат
ытыр
ығуы
▁139
▁142
▁169
▁216
▁7,7
▁emb
▁Бен
▁айр
▁ддұ
▁мең
▁төң
▁уни
▁шаю
Стокс
анбай
атриц
гелді
деуді
доған
дінің
етеді
етіні
иннов
маның
мізге
пания
спорт
таева
тысты
қақты
қоңыр
үстем
өлшеу
▁000-
▁appl
▁stre
▁zone
▁Бөлш
▁Грин
▁Ерек
▁крас
▁кіре
▁мата
▁мате
▁пред
▁фоль
▁шатқ
▁қыру
▁өзек
ymkent
ектіге
жылдам
кетинг
мектеп
удсмен
циясын
қыштар
ұзақов
▁Байес
▁Гаусс
▁Толық
▁арнал
▁аштық
▁балқу
▁бүрік
▁денис
▁лимфа
▁мульт
▁немер
▁проте
▁токты
▁ханым
▁шешен
▁этика
▁қымыз
atabase
андарға
енконың
жақыпов
оматери
ориметр
скийдің
ылықтар
ықтарда
іңізбен
құрамды
▁credit
▁senate
▁struct
▁timely
▁Баянау
▁арасын
▁бауырл
▁диатом
▁диодты
▁инвари
▁кептел
▁ластау
▁реттеп
▁салуда
▁тамыры
▁тардың
▁тастап
▁тендер
▁теңдей
▁түйіні
▁тұтқын
▁целлюл
▁шаблон
▁шахмат
▁шектер
▁экзист
▁әзірше
▁өзінен
▁өсімге
агенттік
ессиялық
компания
лықтарды
циклопед
▁exports
▁firstly
▁message
▁алудағы
▁антагон
▁ашылмақ
▁ағаштар
▁бастауы
▁ежелден
▁емдеуге
▁ертерек
▁жасаушы
▁итермел
▁нысанға
▁нұсқада
▁ортаңғы
▁ортогон
▁пластик
▁шартына
▁Қалыпты
▁қажырлы
▁қалайды
▁қуаттың
▁қызылша
▁құжатын
▁құрамыз
дауылбаев
ландыруды
университ
▁friendly
▁villages
▁берілуде
▁болуынан
▁бюджетте
▁бұрмалау
▁валентті
▁геодезия
▁жариялап
▁жинайтын
▁кезеңдік
▁мақұлдау
▁мәселеде
▁орнатуда
▁палеозой
▁персонал
▁психолог
▁сандарды
▁стансасы
▁сыйлығын
▁сүйенеді
▁сұрақтың
▁тығыздау
▁тіркеліп
▁түзетуге
▁тұқымдас
▁шаруалар
▁қалдырды
▁қорғауда
▁үшіншісі
отермиялық
▁announced
▁continued
▁reduction
▁renewable
▁scheduled
▁Рейнольдс
▁адаптивті
▁айырылған
▁анаэробты
▁арттырған
▁брифингке
▁брифингте
▁бөлігінен
▁кернеулік
▁көбейтуге
▁машинаның
▁миссиясын
▁мыналарды
▁науқанына
▁отбасында
▁процентке
▁рефлексия
▁сенсорлық
▁соқтығысу
▁тамызында
▁тапсырады
▁тақырыпта
▁техникада
▁тоннасына
▁шабуылына
▁элективті
▁қайталану
▁құрамдағы
▁үлгілерде
▁үнемдейді
▁үрдістері
мұхамедиұлы
процестерді
әрекеттерін
▁colleagues
▁diplomatic
▁enterprise
▁kyrgyzstan
▁абаттандыр
▁барлығында
▁графиктері
▁дәлелдеген
▁ескертулер
▁жобаланған
▁жұмыртқасы
▁жәрмеңкесі
▁көмектесті
▁мерейтойын
▁мәліметіне
▁оперативті
▁оқиғаларға
▁павильонын
▁сақтаудағы
▁талқылауды
▁тамшылатып
▁тереңдікте
▁техникалар
▁тыңғылықты
▁түсетініне
▁хабарланды
▁шілдесінде
▁іріктелген
▁қамтылатын
▁қондырғыны
▁қышқылымен
▁үстемдігін
▁әкімдіктен
▁өңірімізде
▁afghanistan
▁айналдырады
▁болдырмайды
▁дайындықтың
▁жиынтығынан
▁колледжінің
▁мамандарына
▁нарықтарына
▁ойындарының
▁тексерілген
▁топырақтағы
▁тұсаукесері
▁қабылдануда
▁қайырбекова
▁өкілеттігін
▁Салыстырмалы
▁автокөліктер
▁дайындаманың
▁жетекшісінің
▁жүргізудеміз
▁жұмыстарынан
▁микроконтрол
▁сауаттылықты
▁симметриялық
▁шаруашылықты
▁шеберлерінің
▁экспорттауға
▁қайталанатын
диагностикалық
▁бағдарламамен
▁деңгейлерінде
▁интерактивтік
▁кездесулердің
▁кіріктірілген
▁минералдардың
▁пайдаланудағы
▁перпендикуляр
▁энергетикасын
▁қосылыстарының
▁ұйымдастыратын
▁абаттандырылған
▁бұзушылықтардың
IX
lt
uy
МУ
ЭД
ои
ҚЖ
(2-
-22
-27
-35
://
[6]
lim
oub
oud
еул
жүр
иля
она
умб
▁09
▁1/
▁4.
▁Ch
▁OS
▁pi
▁Ыл
▁оа
lier
ажас
алда
аста
биғи
еніп
нигі
онов
рейн
ықша
үдер
үкен
ұлан
▁158
▁203
▁285
▁290
▁31-
▁530
▁7,4
▁Big
▁ipo
▁phd
▁Бор
▁ЖҚС
▁Орн
▁Сей
▁ақс
▁дум
▁наз
▁поч
▁сов
▁уәж
▁цин
▁Қас
-2011
-2022
anium
ender
enses
аданы
атомп
дының
еланд
ертең
еуіне
инкуб
каның
кімді
лауды
оңғар
талды
талуы
тамен
ымнан
ыстау
қырлы
әлиев
▁0,75
▁SDOH
▁gave
▁look
▁snap
▁дель
▁иван
▁отқа
▁псев
▁септ
▁стох
▁триг
▁тунн
▁тұрп
▁шабу
▁элек
▁ұйқы
▁әуес
ctions
айтыны
андыра
асанов
иялары
огенез
імізше
▁effec
▁equal
▁gross
▁retur
▁thing
▁urban
▁автов
▁адамы
▁ақтық
▁будан
▁вегет
▁вольт
▁гвард
▁гылым
▁жанұя
▁зерде
▁инвер
▁капсу
▁параз
▁реадм
▁сарал
▁сүйек
▁терді
▁токио
▁тұнба
▁хатын
▁эллип
▁юнидо
▁қорек
▁қыста
lectual
контент
маңызды
нүктелі
омодуль
сіпорын
тардағы
тациясы
ттеріне
іңіздер
қазіргі
▁agreed
▁courts
▁kazsat
▁police
▁speech
▁График
▁Фараби
▁баллон
▁бөлісу
▁дариға
▁ересек
▁жауабы
▁заттық
▁иілгіш
▁күткен
▁көшеді
▁мастер
▁микроб
▁нұржан
▁сканер
▁суспен
▁ферром
▁қалмай
▁қыруар
▁құрушы
▁үиидмб
▁ұрпағы
▁ұшырап
▁Әуезов
▁өтеуге
аптардың
аттардан
теңдікті
шыларына
шіліктің
▁contest
▁factors
▁islamic
▁Соңында
▁алатыны
▁аналогы
▁араласп
▁атаймыз
▁аяқталу
▁ақтоғай
▁биатлон
▁доктрин
▁жиналуы
▁жойылды
▁кезекке
▁көзінен
▁мекенде
▁мексика
▁мынаған
▁несиеге
▁нығайып
▁ойдамыз
▁оқушыны
▁педиатр
▁престеу
▁профилі
▁рөлінің
▁саудада
▁сүретін
▁тартуда
▁тартқыш
▁тезауру
▁электор
▁ғажайып
▁қазанға
▁құбырын
▁ұмтылыс
▁Әлемнің
▁өнерпаз
▁өніммен
дәрмектер
ландыруға
уляциялық
▁benefits
▁planning
▁servants
▁solution
▁Гильберт
▁азаматқа
▁активтер
▁ағымының
▁биомасса
▁болаттан
▁болжамын
▁бұлардың
▁елордасы
▁жалақыны
▁иелеріне
▁интерпол
▁капиталы
▁кентінде
▁концерті
▁кітабына
▁науқанын
▁сатылған
▁сигналын
▁суреттен
▁сүлеймен
▁сәуірден
▁таралады
▁тегістеу
▁тиянақты
▁толтырып
▁түсіреді
▁шамалары
▁ғарышкер
▁қалдықты
▁қанағатт
▁қатыстыр
▁қосылуға
▁қыстайды
▁үстелдің
▁өнімдегі
▁өркениет
industrial
элементтер
▁buildings
▁confident
▁patriotic
▁positions
▁recommend
▁spiritual
▁Машиналық
▁алғандағы
▁болжамдық
▁бюджетіне
▁білімдері
▁ерекшелеу
▁есептілік
▁еңбегінде
▁жасындағы
▁жобаларда
▁жолдауына
▁жүктердің
▁заңдарына
▁кандидаты
▁курстарды
▁кірістері
▁нашарлауы
▁ниеттіміз
▁процедура
▁радикалды
▁сабағында
▁сабақтары
▁символдық
▁сәулеттік
▁таралатын
▁төрағаның
▁учаскелер
▁фермерлер
▁физиканың
▁шамаларды
▁шоғырлану
▁шығарумен
▁шілдесіне
▁шөлейттен
▁экономист
▁қатарының
▁қисықтары
▁үстіндегі
▁delegation
▁objectives
▁statistics
▁аудандарға
▁ауыстыруға
▁жекеленген
▁индексінің
▁кеңейтілді
▁компанияға
▁ластанудың
▁мазмұндағы
▁макарондық
▁мақұлдаған
▁мемлекттік
▁мәтіндерді
▁нұрымбетов
▁практикасы
▁реадмиссия
▁сахнасында
▁станцияның
▁түрлерінде
▁тұрақтылар
▁шекаралары
▁құрайтынын
▁алмастырғыш
▁анықтамасын
▁бөлімдердің
▁дәрежесінде
▁ерітінділер
▁жоспарланды
▁жоғарылаған
▁жұмыстармен
▁кешеніндегі
▁нашарлауына
▁салыстырған
▁тығыздығына
▁тұйықталған
▁қабылдауына
▁қозғалтқышы
▁құттықтауда
▁үйлестіруді
▁әріптестігі
▁өндірісімен
▁өткізбейтін
▁intellectual
▁бағыттарымен
▁жаңалықтарды
▁жұмысымыздың
▁программаның
▁реформаларға
▁синтезделген
▁сыйлықтармен
▁сәулеленудің
▁форматындағы
▁шығындарының
▁қарастырылуы
▁effectiveness
▁parliamentary
▁деформацияның
▁индикаторлары
▁кандидаттарды
▁менеджменттің
▁репродуктивті
▁субсидиялауға
▁төмендетілген
▁агротехникалық
▁байланыстыруға
▁ерекшеліктерді
▁материалдардан
▁парламентшілер
▁платформасында
▁программалауды
▁тағылымдамадан
▁ерітінділерінің
▁микроконтроллер
▁энерготиімділік
[...]
