<blank>
<s>
</s>
▁t
he
in
▁o
▁the
▁a
on
▁of
re
ti
en
er
▁s
▁c
or
an
▁p
al
▁in
tion
es
is
ed
▁w
at
▁an
▁f
ing
ar
ro
it
▁m
ic
ent
▁and
▁b
▁d
ation
st
▁to
ec
▁re
il
le
ou
as
ve
▁e
om
ment
▁n
▁th
▁pro
lo
▁is
ur
et
id
▁for
uc
ra
▁T
▁h
im
ak
▁st
▁A
ul
▁con
ce
ion
az
ol
▁K
▁g
ts
▁on
us
stan
akh
ith
ill
azakh
el
▁de
ig
ate
▁l
▁with
ter
▁com
▁Kazakh
un
▁I
ac
res
ge
od
ity
ir
ess
▁The
tr
▁2
▁"
▁be
ers
ot
tic
ly
▁Kazakhstan
oun
ad
▁are
ut
▁as
▁ex
ay
▁al
▁1
ort
em
▁S
um
am
▁ac
▁v
ple
ure
qu
ial
▁that
duc
▁C
▁he
per
▁im
ies
▁we
▁M
▁will
ud
▁wor
▁at
port
iz
▁par
ub
os
▁this
▁by
lop
ab
ain
▁y
velop
▁In
if
ren
▁reg
ov
ition
ect
and
▁(
tive
▁P
▁sp
▁20
ear
▁R
▁comp
▁-
ical
▁develop
ip
str
iv
ational
▁en
ding
▁res
▁it
ous
▁not
lic
th
ep
ary
iti
oc
up
▁or
▁pl
▁E
her
rom
ated
▁N
ew
ations
ow
orm
▁work
ore
▁le
▁D
▁int
▁inc
▁wh
ib
ch
est
ld
▁un
▁ch
▁coun
aid
▁produc
▁us
log
▁region
form
ans
ult
▁from
ant
ech
▁was
▁dis
age
▁F
▁k
▁me
▁countr
▁ind
ap
▁ad
ff
ublic
▁state
▁.
ev
yst
▁co
cor
ram
olog
ag
ign
▁development
▁201
econ
ystem
▁year
▁sh
cess
▁system
tiv
ist
igh
dition
se
▁B
ance
ich
▁inter
▁met
ities
▁,
der
▁tr
ern
▁tra
ments
reas
ber
▁r
red
echn
▁3
our
ater
▁cont
inis
low
cording
▁which
ien
tions
illion
▁O
▁ab
erv
▁cre
pp
so
▁mod
ide
ave
▁were
econom
gan
▁ag
struc
▁spec
ast
▁am
▁pres
▁techn
▁stud
▁G
▁new
ds
▁cons
all
ire
op
▁app
ted
ri
▁increas
▁ed
▁has
ell
▁head
ors
gram
▁W
ia
plement
uring
▁proj
ents
▁rep
ace
▁econom
ue
▁trans
ine
ects
▁part
▁educ
▁all
▁exp
▁prov
eo
▁process
hen
ens
▁have
▁qu
▁implement
etw
▁per
▁comm
end
▁inv
▁main
▁noted
▁also
ative
out
ues
▁program
▁man
ice
▁Ac
ks
gy
▁U
▁ar
▁said
ustr
ass
formation
ization
▁form
▁op
▁country
hod
ther
able
▁dep
▁Rep
ct
00
ree
▁ten
▁can
ime
▁ev
ual
ural
ian
eople
▁imp
▁ro
▁our
▁5
▁bas
erm
▁H
▁meet
▁Republic
▁sc
tical
fic
▁ob
peration
enter
▁tenge
▁technolog
ory
▁lo
ution
▁4
▁organ
uss
▁plan
▁method
▁el
▁As
▁L
▁ne
▁iss
▁gro
▁rel
▁partic
▁sol
▁Minis
lud
ard
▁According
▁sup
ach
▁j
▁pol
ating
ayev
▁intern
▁serv
▁Th
▁people
ining
ures
rent
ust
▁meeting
▁Al
▁cap
ital
▁special
▁than
ons
▁import
▁eff
ces
ph
ang
▁fi
▁car
▁production
▁information
irst
ys
ric
▁industr
20
▁their
▁countries
▁soc
ection
eral
een
ates
tit
ong
ident
▁ass
ug
ific
art
▁well
ence
▁mo
▁fun
act
ility
air
▁out
said
▁coo
fe
▁ra
▁str
▁equ
ress
are
etween
▁att
▁pre
▁between
▁its
ousand
vel
▁thousand
▁0
ount
og
▁addition
overn
ery
▁suc
ties
▁first
iness
hed
▁te
▁international
urs
▁num
▁cooperation
▁about
▁det
ergy
ized
▁sign
bayev
▁been
▁provid
▁one
▁includ
▁time
▁billion
▁high
▁em
ulation
av
ivers
ould
▁cl
▁dec
▁comple
te
▁go
enti
▁into
▁disc
▁[
ork
▁invest
ality
▁more
ious
struction
▁world
ver
▁number
▁under
▁economic
hem
tain
▁use
▁there
▁pr
▁inte
▁particip
▁ph
▁other
ive
oin
ction
the
▁exper
usiness
ame
▁products
▁fiel
get
ied
▁pos
▁ins
▁J
▁dire
▁sub
▁dif
▁education
▁impro
iss
▁level
▁6
cy
▁these
▁issues
hip
▁des
ite
▁St
reat
▁tak
pos
ture
▁activ
▁energy
ism
▁gen
▁implementation
▁tw
▁increase
ome
pe
▁condition
▁It
▁you
les
▁This
ults
▁med
▁7
▁million
▁should
▁compan
▁acc
▁field
▁construction
▁elec
▁important
▁projects
iron
▁business
▁project
now
try
pr
▁national
arbayev
▁conc
▁support
▁scien
ight
▁two
urrent
ok
ugh
▁training
▁Ch
▁Pres
▁fin
one
▁years
▁model
▁so
als
▁determ
▁meas
▁capital
ices
anc
▁results
▁used
de
▁Minister
ata
orts
azarbayev
▁discuss
rol
tics
▁val
rough
▁report
▁President
ature
tern
tives
viron
ays
▁An
▁lar
▁modern
ange
▁var
trib
ecess
▁requ
ission
▁vis
overnment
▁mem
vironment
ase
▁rec
ool
aterial
ark
▁conditions
ective
▁necess
▁la
uil
▁such
▁city
▁public
ium
loy
▁during
entr
▁enter
▁material
roduc
▁up
▁leg
ning
tric
▁know
rac
▁necessary
▁10
▁lead
▁them
▁cor
mat
▁only
▁8
▁V
yn
▁mon
tific
ular
▁Un
▁z
▁water
▁social
resent
ish
ists
▁loc
oreign
man
▁environment
▁anal
ined
ants
ble
▁educational
chool
▁through
▁Nazarbayev
▁buil
here
▁0,
▁inf
atives
▁according
▁aut
▁organiz
▁bec
-20
day
▁pers
▁9
ned
ultural
be
feren
ploy
alth
▁need
▁carri
▁rece
▁technologies
▁transport
oint
▁students
tal
maty
▁represent
rit
ential
tim
▁oil
▁gra
,"
▁At
ines
gr
earch
uture
its
▁data
pris
igure
pa
▁quality
ention
▁using
reng
▁held
▁indic
▁open
led
▁control
▁order
▁economy
▁study
ik
▁most
ful
ions
▁Com
▁fram
▁who
▁streng
ient
ultan
▁carried
ilities
▁but
▁vol
▁struc
nov
ollow
▁doc
azakhstan
▁tas
sib
arm
▁exam
▁pop
ected
ting
▁show
ym
▁instit
▁enterpris
▁Almaty
ages
ild
ological
▁col
▁grow
▁future
fter
xt
ft
▁large
▁During
ework
eti
▁complex
▁methods
▁char
▁appro
ie
alc
▁set
▁framework
ati
▁same
▁ty
▁bod
rest
▁present
ability
▁today
▁se
▁school
▁relations
▁industry
▁allow
ulture
▁do
hib
▁result
▁competi
▁services
ticle
▁commun
econd
loc
fore
▁oper
ety
ince
han
▁sm
▁current
▁sec
."
▁group
▁mark
▁regional
agement
▁reduc
▁general
ience
ail
▁introduc
▁various
▁including
ely
▁person
▁Z
▁hous
ources
ade
▁based
▁possib
blem
ving
▁interest
▁created
▁amount
▁gas
▁activities
▁fac
▁ann
▁planned
▁He
▁ens
pl
▁each
▁improve
▁center
urity
rep
▁article
▁Ministry
▁within
▁technology
▁fact
▁problem
▁ent
cep
▁employ
ank
ax
ator
▁exhib
und
▁total
▁kazakhstan
ved
ners
),
▁applic
utions
orth
ord
iod
▁second
▁obtain
til
▁trade
▁obj
ound
▁calc
▁mat
ursultan
▁areas
con
▁investment
▁follow
▁visit
▁market
▁pow
uty
then
▁On
ilit
acter
▁soci
▁hol
rene
▁Russ
▁prof
▁service
▁measures
▁his
▁prot
▁discussed
▁agree
▁ach
▁strengthen
▁developed
▁docu
▁exhibition
ics
▁they
▁tur
▁tour
▁management
▁law
reprene
▁industrial
▁health
▁population
ind
▁great
▁create
ute
▁foreign
▁when
▁fur
eration
▁over
50
ob
▁De
▁area
▁basis
▁tem
▁child
▁2015
▁regions
-201
▁increased
ry
ey
▁good
ession
▁proper
▁place
▁equip
▁effective
▁For
ators
ize
epend
▁pur
%,
▁agric
ysis
uation
▁representatives
udget
▁initi
▁systems
itiz
▁working
▁def
▁volum
▁State
ination
ffic
▁financ
▁materials
cord
▁hy
lear
ector
▁event
artment
▁sim
▁after
▁period
▁many
▁resp
▁aim
▁provided
ced
ision
▁very
▁Nursultan
▁propos
▁design
▁cour
▁character
▁19
icy
ency
uro
▁Pro
▁account
▁sit
▁ful
▁company
▁sur
▁To
▁signific
ived
▁republic
▁budget
▁netw
▁innov
▁contrib
▁est
▁amoun
airman
▁require
▁prac
yl
▁citiz
▁chang
▁air
▁min
▁provides
cil
▁him
▁contin
▁br
iation
▁minis
▁stand
abl
▁hum
▁land
▁plant
omes
echan
▁cent
▁fl
▁2017
ai
▁entreprene
▁government
iversity
bal
▁ter
ology
ile
▁pot
▁independ
▁end
abor
uter
▁research
▁sel
▁lif
ledge
ished
▁cr
ivid
▁hist
▁example
hemical
▁cer
ack
sc
▁direct
▁electr
▁worth
▁formation
▁companies
ieve
▁amounted
▁temper
▁class
ering
▁enterprises
▁organizations
▁rem
aus
▁tim
▁road
▁establ
▁further
entral
idered
▁National
ract
.5
▁aimed
▁power
▁spe
ressed
▁attention
atic
▁considered
▁En
▁Ak
▁integr
▁volume
▁compos
▁giv
par
▁2016
▁non
ost
ended
ilitary
ference
mit
▁active
▁three
inc
▁fe
▁beg
▁Dep
stana
▁creation
ene
▁bo
▁knowledge
▁mechan
angu
▁analysis
amet
structure
lia
hes
lobal
▁di
▁policy
▁2014
▁growth
▁organization
▁ak
eng
▁perform
▁equipment
▁fam
acher
▁technical
raph
▁200
▁There
▁children
▁experience
▁small
▁accord
ferent
ood
▁Figure
▁following
rm
▁accordance
▁consid
▁military
ink
ty
▁We
liament
▁no
▁top
▁conn
▁tons
▁value
▁commission
▁distric
atural
▁since
▁prev
▁adv
▁dev
▁Y
iew
au
▁low
▁being
▁conduc
▁significant
▁implemented
uary
▁mak
▁take
▁conf
▁dra
▁teacher
▁local
▁where
rastructure
▁cost
▁potential
▁different
▁citizens
▁comb
▁ve
▁press
▁ext
▁scientific
▁function
▁due
onic
▁strate
▁1,
ards
bers
▁fr
%.
▁30
▁temperature
aj
▁15
▁bodies
▁processing
fer
▁langu
▁tasks
▁joint
▁partners
▁legal
▁100
▁participants
▁ele
▁eng
▁human
▁life
▁solution
▁structure
▁made
dro
▁security
ina
▁11
▁entrepreneurs
▁environmental
▁every
velopment
▁last
portun
▁labor
isl
▁infrastructure
▁must
bek
▁participation
▁global
cr
istics
▁communic
▁alloc
▁auth
▁direction
▁12
▁phys
▁opportun
▁agreement
▁success
ars
▁president
hema
alled
▁profession
▁provide
▁building
ited
ateral
itical
▁25
atory
▁possible
▁composition
ove
▁resid
▁medical
▁begin
▁requirements
cept
oung
▁lear
▁processes
▁Intern
urope
▁natural
▁computer
ified
▁Con
-1
▁Sh
airs
ification
▁ref
gor
▁become
▁term
▁=
pes
▁achieve
▁rele
▁presented
iqu
ale
▁id
▁bi
ption
ember
amp
).
conom
ending
▁assoc
▁works
ctions
yz
ared
▁importance
▁received
▁pass
omestic
ynam
▁Econom
go
▁given
▁Pr
▁Development
ases
▁among
▁domestic
▁famil
▁supp
▁test
rop
ss
▁Tur
br
▁mul
▁pe
ipl
▁institutions
▁obtained
▁read
▁instruc
▁states
uras
eness
nel
▁young
▁resources
▁[1
▁facilities
▁Zh
▁calcul
▁step
▁specific
wn
way
▁fund
▁issue
ense
▁legisl
▁paramet
face
▁ensure
▁activity
ova
▁situation
yr
▁add
▁dem
▁society
▁properties
▁coll
▁content
▁any
▁clo
other
▁if
▁specialists
ix
▁aff
▁improving
▁exch
▁effic
itive
▁application
▁Am
▁times
▁then
▁programs
▁ce
▁regard
▁financial
▁Europe
▁without
▁reac
▁particular
▁hig
▁conv
▁now
▁problems
▁consum
▁pat
▁territ
▁purpos
emb
▁change
▁types
sk
▁determined
▁housing
▁(1
▁bil
▁changes
icro
▁offic
▁sk
▁decreas
▁akim
▁Ex
▁dr
▁space
istance
▁hydro
com
▁inst
rior
▁funds
anuary
▁mathema
▁sector
▁agricultural
▁rad
ness
pec
itor
▁allocated
▁department
▁political
tiveness
▁pros
▁tourism
▁month
ividual
urasian
▁prom
▁bilateral
ithm
ased
▁Rec
▁stage
tee
▁job
▁assess
▁parties
overnor
reen
▁day
▁Astana
iev
▁took
▁Turk
▁language
▁forum
▁rev
old
▁network
▁district
▁some
▁author
▁found
med
ings
▁sing
▁prior
▁capac
tration
▁values
▁gr
▁real
▁signed
▁individual
-2017
▁developing
▁role
▁cultural
▁13
▁adop
imum
ose
▁prepar
▁strengthening
uclear
oms
rem
cc
▁related
▁document
to
ash
▁qual
▁Prime
▁es
igital
uk
▁sev
▁goal
▁14
▁sa
aces
leg
▁January
▁identi
▁innovative
▁i
iency
omen
▁professional
ually
▁flow
▁chemical
ode
▁competition
▁Current
tice
gorithm
▁adm
atpa
▁occ
▁expressed
▁subj
agn
embly
▁Ab
ick
▁minister
▁Therefore
ote
istan
▁science
▁culture
▁indicators
gen
▁2013
ule
▁electronic
ek
ex
▁creating
▁surface
▁tool
▁partnership
▁50
pon
▁18
▁course
▁reform
▁off
▁distrib
▁Ang
▁struct
.2
▁rate
osp
▁supply
▁heads
▁turn
bo
.6
▁Currently
▁University
▁2020
inal
ights
▁medium
ever
▁Also
▁Governor
▁electric
uel
▁Coun
▁Russian
aste
▁inform
gether
▁together
ets
▁hel
lan
fact
▁noting
▁interac
▁Eurasian
▁micro
▁goods
▁objects
▁operation
.3
▁Sec
▁expand
▁lim
▁learning
ret
▁capacity
read
▁compon
▁single
▁dynam
▁ge
▁communication
datpa
▁pay
▁members
▁Ass
▁algorithm
ides
▁therm
▁task
por
rete
▁lay
ise
ten
▁how
▁mass
alf
ills
pects
▁taking
▁Angdatpa
▁Russia
▁type
▁jobs
▁long
▁priv
▁autom
irc
ware
▁mess
outh
▁log
▁tax
▁heat
atis
▁access
▁care
▁Re
▁leaders
▁purpose
▁Kar
▁protection
tist
▁ur
▁16
▁Ind
io
▁engine
▁nuclear
▁requi
▁additional
▁attended
serv
ees
▁av
▁With
.4
▁make
▁exchange
▁fre
▁soil
aev
verage
▁descr
▁mechanism
▁Deputy
aching
▁member
▁case
▁sports
▁higher
▁tradition
ause
▁bel
ves
.7
lus
▁Council
▁parameters
ules
▁increasing
▁Aff
▁17
tle
▁Comm
▁zone
▁mut
▁sum
iversary
▁bank
▁associ
▁anniversary
▁princ
ird
▁events
▁territory
omet
▁determine
inary
▁does
▁'
.8
▁ques
▁deputy
▁transfer
▁documents
▁efficiency
ner
▁concentr
▁digital
.1
▁certain
oll
ters
▁food
▁concept
▁proposed
▁Par
▁Recall
▁laun
▁harm
▁date
▁stability
▁circ
▁help
▁republican
▁contain
▁China
ered
atures
▁optim
fficient
▁strateg
lu
▁fuel
▁elements
▁central
▁ide
▁introduction
▁built
▁univers
▁chairman
▁Affairs
utes
▁standards
▁gu
ufact
▁bene
▁common
▁Res
▁Union
ivil
met
▁diffic
▁point
▁cust
▁institution
▁physical
▁modernization
sh
▁way
▁compet
▁next
▁several
▁youth
ats
▁student
▁average
▁monitor
oth
▁equation
▁multi
▁message
▁manufact
▁holding
▁Chairman
▁su
▁nam
sive
▁think
▁history
▁measure
vant
▁body
▁acqu
▁established
▁schools
▁Economic
▁If
▁Gen
oints
▁independence
▁enti
▁vill
▁taken
edag
respon
▁Foreign
ension
▁regul
▁independent
tial
▁reduce
▁located
▁Kaz
▁ear
▁move
▁understan
▁compared
isting
▁respons
▁km
▁allows
bass
ible
▁tar
oday
▁identif
▁grad
▁view
▁observ
▁best
▁free
▁mathematical
▁attract
ony
▁cities
acy
▁fil
▁exec
▁solve
▁commit
▁LL
▁mob
ier
▁concrete
▁poll
▁correspon
uties
erc
▁groups
ource
▁Today
▁equations
uch
erg
▁sem
▁parliament
ecting
▁characteristics
▁Sc
.9
▁Thus
▁invol
▁official
izing
▁sources
pecial
▁practical
▁along
▁means
000
▁approved
gress
▁technological
IS
▁called
▁opening
▁histor
▁che
bon
▁peace
▁proced
rehen
▁consider
▁substan
▁cop
▁tal
▁prim
▁Ar
▁conference
▁When
▁again
▁Head
ogical
rup
▁Government
▁X
-2
any
▁ox
▁treat
▁share
▁export
▁five
▁waste
ones
▁personnel
▁until
rehensive
▁investments
▁teachers
▁paid
▁One
tivity
▁third
▁terms
▁successful
▁meters
▁Off
ck
ify
▁acid
▁less
ward
▁May
▁sal
▁soft
ograph
▁product
▁positive
iving
▁includes
ends
▁expl
▁programm
fety
▁reports
amb
erve
land
iver
▁squ
▁opportunities
ares
▁plants
ibility
▁enterprise
atform
▁21
▁LLP
▁Wor
▁civil
▁memor
▁past
▁legislation
▁decision
▁corre
▁strategic
anda
▁connection
▁own
▁currently
▁organized
▁centers
ury
▁port
edagogical
▁ec
▁dist
▁ste
▁position
▁et
zh
▁plans
▁establish
▁Ag
▁points
rices
▁mix
arch
▁council
▁get
▁teaching
▁agriculture
▁General
ilk
▁reported
▁introduced
▁Office
▁side
let
▁refl
▁max
▁employees
iplom
▁priority
tists
▁intens
▁European
▁comprehensive
▁integration
▁elections
▁raw
abilities
▁deg
▁initiative
amber
stant
▁bor
▁months
orks
▁lit
over
▁your
▁coord
▁influ
hol
iment
anks
▁phot
▁socio
▁engineering
ectors
economic
inear
idence
▁internal
▁action
▁factors
▁platform
▁may
▁list
▁Is
▁nature
▁diplom
▁Or
▁safety
▁contribute
round
zhan
titution
▁UN
▁formed
▁subject
▁studies
▁2018
▁differen
▁eth
ising
po
▁40
▁customs
▁arch
▁thermal
for
▁practice
▁larg
cies
▁map
▁text
▁assessment
ulated
▁remain
aking
▁farm
▁units
▁party
▁private
▁ren
▁green
▁experts
gh
▁full
▁Central
ength
ceed
▁eval
▁adopted
uit
▁rail
▁investors
▁leading
▁square
▁standard
▁describ
▁Asia
▁beginning
▁applications
ically
▁assistance
omm
▁win
artments
▁here
▁places
▁congr
▁shows
adem
▁prices
▁mineral
▁2015,
▁began
▁interaction
▁graph
▁completed
▁cur
▁appl
ror
▁rest
▁congrat
▁Ad
▁shown
▁skills
ock
▁ret
▁software
▁sens
▁er
ins
▁deleg
iar
lusion
▁basic
▁receive
ogn
▁achiev
▁doll
▁able
▁devices
▁constant
▁clos
▁forces
ched
▁Key
▁intell
ough
▁opened
aving
▁calculation
tig
▁included
▁four
▁improvement
30
▁employment
▁above
▁frien
aged
▁subs
▁mach
▁mast
▁Since
▁effect
▁object
▁ensuring
amples
▁deputies
▁team
▁functions
bassad
▁networks
▁residents
▁transition
▁70
ternal
▁continue
▁personal
▁depos
put
▁hect
▁continu
▁range
raction
▁director
▁wind
▁fully
▁models
ilis
▁mus
▁bill
▁norm
▁components
cel
▁mutual
▁Dec
▁days
▁industries
▁How
▁historical
▁another
▁solving
oke
▁analyz
▁difficult
▁words
ked
▁draw
▁expert
▁treatment
ept
rad
arian
▁fore
▁impact
▁reforms
▁line
▁actions
▁liqu
line
▁relevant
yk
▁workers
▁traditional
tor
▁reached
▁preparation
▁Germ
isions
▁clear
▁before
▁produced
▁Techn
▁abs
▁World
AT
▁ways
▁prospects
▁instructions
▁dollars
▁opportunity
tobe
▁goals
▁recogn
▁monitoring
▁24
▁light
▁recent
▁vari
▁resol
▁committee
▁)
▁And
▁achievements
tual
ration
ruption
▁directions
▁needs
▁features
▁possibility
tification
▁distribution
▁both
▁named
▁maximum
SC
atus
road
ges
sized
▁post
▁solutions
une
▁jud
epar
▁house
▁mobile
encies
▁tools
▁consists
inistration
▁start
▁Educ
▁sphere
▁conclud
uted
▁Kazakhstanis
▁deep
quality
▁People
On
▁etc
▁whole
▁traffic
▁Cons
bassador
▁coe
quency
sel
▁veter
aganda
▁hectares
▁concentration
▁sl
▁depending
▁sent
▁steps
uly
▁maj
▁rights
▁transportation
▁community
▁universities
ude
etic
▁see
rio
▁right
▁short
▁%
▁pa
▁ris
ily
▁providing
▁No
▁speed
▁cases
▁syn
▁unit
eptember
▁increases
▁199
▁depend
▁aud
▁previous
▁sul
▁metal
▁Internet
PO
▁draft
pecially
▁include
▁actively
▁beh
ustain
▁structures
iy
oks
▁fer
▁2016,
▁studied
▁meat
▁benef
Figure
▁creative
istic
▁strategy
riter
els
▁Pol
ainted
▁separ
▁pressure
▁station
ctor
▁she
▁x
▁22
▁regis
▁liquid
▁inves
▁samples
▁layer
▁solar
▁against
▁indicator
▁2,
▁60
gyz
reed
▁give
retary
▁liter
▁2014,
▁meetings
▁[2
▁force
▁decrease
inder
▁pip
▁quan
hev
ocus
▁del
▁avail
▁23
▁Met
▁ability
▁South
term
▁investig
▁vi
ula
▁0,4
▁sam
utive
graph
▁Bel
▁key
inate
yrgyz
▁substances
▁contribution
isis
▁Kazakhstani
▁pedagogical
▁Maj
▁roads
▁classes
▁costs
▁length
▁agreements
▁cat
ersion
lation
▁movement
▁acquainted
▁applied
▁largest
▁proposals
▁whe
▁spoke
▁village
▁parts
▁degree
▁property
▁hand
pared
▁emerg
▁visited
ope
▁28
▁cy
vest
oration
▁(2
▁East
▁half
▁explain
▁section
▁calculations
avlo
▁install
▁Bank
ict
wor
government
▁operating
);
▁phase
▁thanks
▁mechanical
▁demand
not
anced
▁Assembly
▁focus
▁26
▁Sp
redit
ON
▁especially
▁participate
▁anti
▁union
ectiveness
▁geo
▁gener
▁university
pro
▁copper
ober
ox
▁These
▁sectors
▁However
▁Education
▁wid
ways
▁dynamic
▁path
▁buildings
▁site
▁what
▁launched
▁load
▁rules
▁cho
▁relig
▁levels
▁princip
▁experiment
arus
▁0,5
ening
▁carbon
▁theory
sy
rew
osph
▁By
▁presid
less
▁Fin
▁rural
▁generation
▁scientists
3]
▁sil
inese
▁consumption
▁Fed
▁settle
erb
ran
▁got
ables
▁known
▁self
ustrial
men
ogue
▁women
▁ministry
▁EX
▁2012
▁office
▁theore
andum
ique
coming
▁sustain
▁influence
lim
▁ir
row
mittee
▁search
▁instructed
words
▁interested
▁clim
▁purch
▁Parliament
ectro
▁ready
▁reserv
▁approach
▁ap
▁Committee
ko
avor
ross
▁exc
▁stages
▁size
▁because
▁distance
▁performance
▁gl
▁dial
▁base
▁effectiveness
ond
▁opin
rain
▁board
ike
atiz
▁Within
ests
fill
goti
▁hold
▁Aktobe
▁associated
ctober
cent
ored
▁Dire
▁sched
▁depends
▁27
▁First
▁exceed
▁December
ban
lam
orda
▁dise
ament
▁Kyrgyz
▁2017,
scale
▁want
▁existing
▁factor
▁principles
▁CIS
▁ethn
▁family
▁statement
▁forms
utr
▁EXPO
▁Tra
▁Ins
▁ser
▁Security
▁became
▁my
▁criter
▁primary
▁therefore
▁requires
ubl
▁repl
▁mining
▁election
▁memorandum
arant
▁equal
▁assembly
▁reli
▁negoti
▁Keywords
▁Information
▁near
ression
▁designed
ised
aches
▁From
hy
mol
▁March
▁advant
▁International
sis
ont
▁correct
▁strength
▁expo
▁statis
▁speech
ulate
eum
▁upd
▁80
▁So
▁cam
▁wide
▁subsid
▁heating
▁Department
▁financing
▁questions
val
▁century
▁growing
▁award
▁29
cast
▁Karaganda
▁code
▁bring
▁simple
▁achieved
▁modeling
dar
▁cannot
▁anim
▁find
▁initial
▁dat
elec
ha
▁viol
▁leadership
▁lot
▁Mod
▁caus
▁legislative
agram
▁conduct
yzyl
▁Ba
phas
▁favor
▁implementing
▁showed
▁logistics
ason
bol
▁pack
4]
▁clust
▁table
▁defined
▁September
dis
king
int
ians
ately
itect
aw
rec
▁businesses
▁Def
▁cate
▁accur
▁unity
▁nation
▁target
insk
▁passeng
▁determining
urg
▁topic
▁bl
▁June
rative
▁railway
baev
▁procedure
tif
▁build
▁manufacture
25
mber
▁added
▁major
▁poly
▁limit
▁external
▁maintain
▁initiatives
▁sym
▁reduced
▁publ
▁put
▁tren
▁did
▁administration
▁cover
unic
▁Sen
▁emphas
▁confidence
1,
gart
▁Majilis
▁Secretary
▁performed
ll
inist
▁informed
app
▁Fe
▁summ
▁delegation
▁understanding
▁semin
▁strong
▁Belarus
▁dialogue
▁sustainable
ison
▁sulf
indergart
▁provision
▁po
▁bal
reg
▁differential
gl
kent
▁vide
▁manag
▁authorities
▁ver
▁frequency
▁Ro
▁US
▁Vice
▁concluded
▁executive
▁elim
▁recon
pril
anium
avlodar
▁discussion
ung
▁complete
▁kindergart
▁electricity
▁white
▁laboratory
▁bar
▁holid
▁solid
▁linear
▁significantly
edic
▁required
▁competitiveness
--
▁Co
▁radiation
ps
mosp
lebr
▁web
▁selected
▁quantit
▁Expo
▁carry
▁idea
▁[1]
▁divid
▁polym
▁Reg
▁magn
▁address
▁responsibility
iple
▁celebr
roduction
▁October
inistrative
▁identified
▁phen
manent
▁Tr
hern
▁Soc
▁corresponding
▁vo
istered
▁attrac
▁session
▁element
ses
▁Director
▁decreased
▁mechanisms
zbek
ovember
▁guarant
▁close
▁annual
▁flour
▁those
▁Federation
▁entire
▁geograph
ives
▁highly
▁specialized
5%
▁prevent
ilar
andid
▁Comp
▁adap
own
▁OF
▁would
▁competitive
ES
▁Ph
▁crim
▁After
▁lower
▁estim
▁tourist
▁programming
▁registered
▁art
▁expected
li
ises
▁nan
▁cell
▁grain
▁Organ
lean
▁opinion
▁mixture
▁0,6
▁fill
aff
▁source
ef
▁families
ext
year
▁architect
▁ties
yzylorda
ake
ior
ring
na
▁El
▁final
▁candid
▁Bo
enda
▁follows
ath
▁amend
apan
▁hon
▁Stud
▁preserv
ape
▁compar
▁datab
lov
▁pollution
▁structural
▁Le
ugust
▁extrem
▁Chinese
▁question
▁stations
▁Commission
ert
▁ground
▁Af
▁progress
▁interests
▁constitution
,000
▁hour
▁crisis
▁prepared
aly
organ
estern
▁medic
▁atmosp
▁coefficient
▁methodological
tan
▁coal
▁early
▁Center
▁agenda
▁repair
ometric
co
▁speak
utor
▁image
▁stor
▁weight
▁fulfill
▁phenomen
▁play
▁leader
annel
▁occup
ee
▁500
▁July
▁clin
nover
▁Road
▁gradu
atization
▁conducted
orb
▁device
▁fields
amin
ather
mola
▁reduction
titute
▁check
▁unique
▁relationship
cl
▁Table
orption
▁price
▁figure
5]
▁crop
▁Economy
▁All
▁zhol
▁Asian
▁arr
▁entities
ustry
▁favorable
▁nom
▁issu
▁user
▁Follow
▁secondary
▁negotiations
▁presidential
10
▁Pl
▁topical
▁turnover
▁mol
▁border
▁innovation
.0
▁pipel
▁similar
▁Science
lex
▁advanced
▁involved
▁Following
ped
▁milk
▁quar
▁persons
▁planning
cement
▁thanked
▁operations
irit
▁vir
uests
▁announ
▁presence
tau
raft
▁administrative
▁cross
▁drawing
▁theoretical
hic
▁behalf
▁Ambassador
40
ION
▁Health
▁recomm
ademy
▁corpor
▁thinking
hemis
gative
▁regulation
▁mainly
hemistry
▁veterans
▁Em
▁views
▁zones
▁upcoming
▁Man
ready
▁35
▁decl
▁sample
▁formula
▁climate
▁contract
▁Senate
ences
▁houses
dra
izes
sequ
▁renew
▁November
▁districts
▁2013,
▁stable
▁u
oting
ma
▁pati
employ
▁Pavlodar
ke
pt
▁optimal
▁Im
▁flo
▁cars
▁always
▁confir
▁widely
▁Kyzylorda
▁Energy
▁Of
▁war
▁resistance
ese
iet
▁video
ospital
▁States
▁principle
▁manufacturing
EC
▁Des
▁had
▁often
▁channel
governmental
tis
hous
▁altern
ambyl
ymkent
itative
9,
car
▁ang
▁chamber
industrial
▁association
▁pred
▁Uzbek
mission
▁deposits
▁competence
▁even
▁Institute
iff
▁simpl
▁vehic
eric
uting
▁oxid
▁occur
▁displ
▁Method
▁agency
▁detail
▁negative
astic
▁April
▁living
▁installed
ikh
▁guests
▁mor
▁sug
cious
▁accum
▁dedic
▁agreed
▁spirit
IN
imov
rency
▁minimum
▁associations
lig
▁JSC
▁phosph
▁divided
▁transit
▁sw
▁gold
▁mode
▁master
▁Int
▁fes
▁much
▁benefits
ane
hest
▁age
▁users
▁studying
▁indicated
kaz
▁mov
▁accel
rix
aries
-3
▁evalu
60
sw
ron
▁mission
map
▁appe
▁others
▁percent
▁integrated
▁300
icial
▁around
▁forecast
▁residential
▁New
ectual
▁terror
▁holiday
▁markets
▁3,
▁Iran
ercial
yt
▁agro
▁income
▁ath
▁mar
wards
uments
▁popular
▁testing
▁metals
▁producers
▁selection
▁Ko
▁clean
▁[2]
lor
onstr
▁Serv
apons
▁familiar
▁submit
▁hospital
agnos
cepts
▁done
▁Organization
▁mm
▁index
▁directly
▁diseases
ided
▁departments
iber
▁laws
forcement
odes
▁train
▁already
▁discipl
▁harmony
▁available
▁dedicated
ief
alls
▁hom
▁stressed
▁decisions
▁amendments
▁conclusion
▁90
▁affect
▁enc
▁diagram
▁Arm
▁Nur
▁stre
ional
▁veget
IC
ying
▁gave
ensity
▁takes
▁synthe
80
eth
titude
▁urban
▁settlements
pite
▁Program
ites
▁apply
▁System
▁cerem
▁demonstr
till
▁supported
▁Str
▁flu
▁rati
▁Japan
▁mom
▁feed
ibr
ographic
▁awarded
▁limited
▁produce
▁introduce
▁1)
heres
▁calculated
▁productivity
▁hor
▁Fund
▁coordin
hab
▁quantitative
ictory
▁relative
ocol
oney
▁Sup
▁component
▁abroad
▁partner
bor
tically
▁weapons
▁published
▁congratulated
▁Uk
etro
▁entr
▁Great
▁Trans
▁machine
▁measurement
▁tests
▁Akmola
▁underway
▁approaches
itarian
▁spectr
▁commercial
▁understand
▁institutional
▁nit
selves
igures
tation
▁astana
▁Sum
▁let
▁Islam
▁status
▁efforts
▁ceremony
▁Zhambyl
avil
ogen
▁Cont
▁star
▁schem
▁storage
ST
cks
▁observed
▁attracting
asp
ton
▁live
sych
istau
riotic
▁metall
▁pension
▁emergency
▁emphasized
▁registration
rly
erse
▁0,7
▁Anal
▁retur
▁capabilities
▁commissioned
▁bound
▁colle
▁collection
elf
lock
▁reducing
.,
ops
▁Plan
▁They
inition
▁launch
▁electro
idd
urance
olution
▁threat
▁concepts
▁functional
pid
uts
ument
▁alternative
▁film
▁super
▁complet
kh
▁sold
▁August
▁Germany
▁disabilities
ump
▁media
▁paper
▁certific
ounds
▁signal
vis
▁But
▁insp
▁conven
▁portal
▁diagnos
▁kaz
▁construc
▁consideration
▁reve
▁pavil
▁database
▁specified
▁responsible
▁competitions
▁representative
▁answ
▁uranium
oud
▁32
▁trillion
▁announced
▁characterized
▁suppl
Kazakhstan
▁Kyrgyzstan
▁friend
icon
▁name
bruary
▁reven
▁mathematics
▁leads
▁intellig
hmet
▁trip
▁armed
▁expense
▁connected
rig
iyev
ansion
ames
▁[3]
bekov
being
▁instr
▁ratio
▁investigated
▁changing
dyk
▁come
arding
▁Chamber
▁exports
uls
▁Az
tors
▁stim
▁measuring
mp
itation
▁judicial
▁Fr
▁Se
▁bur
▁Mang
uration
▁Wh
▁Kore
▁loans
▁operator
of
▁spheres
iel
▁experimental
6]
ukh
▁150
▁old
▁writ
▁obtaining
▁diss
▁east
▁combat
▁respect
▁virtual
▁explained
▁disp
▁fire
▁density
▁intellectual
▁Invest
▁cooper
▁online
▁aspects
▁happ
iction
ildren
▁normal
▁symbol
▁friends
▁languages
▁matrix
▁review
▁command
▁format
▁conducting
▁Defense
ecutor
uations
▁dynamics
▁readiness
▁sat
▁Based
▁banks
▁wheat
atics
▁risk
▁Turkey
osc
▁2017.
▁engaged
enses
stanay
▁expansion
▁determination
▁drew
▁location
▁evaluation
%)
▁presents
▁corruption
arily
otion
▁Summ
▁Mangistau
▁least
▁invited
▁reserves
▁efficient
iption
ensive
▁seminar
▁presentation
ari
▁eas
▁2010
▁thus
▁Over
▁mas
▁defense
▁continuous
▁jus
▁explo
ountain
▁courses
▁supporting
alt
▁tre
▁assign
▁organic
▁congress
▁participating
kar
ients
▁consumer
pri
▁Social
▁Shymkent
▁passenger
▁algorithms
▁acts
▁hard
▁combus
▁textbo
▁consult
15
jan
opol
illing
▁analy
ler
▁cluster
▁species
▁transform
etus
ghan
▁loss
avy
cle
tage
▁methodology
▁sen
▁tele
▁museum
▁humanitarian
▁installation
▁mean
▁expanded
▁[4]
▁dou
▁regulatory
▁ion
▁qualitative
▁Us
▁Conc
▁impetus
▁equipped
100
abil
▁fix
▁hours
▁psych
▁renewable
aspian
▁App
▁big
▁hot
▁tariff
▁criteria
ival
▁employed
▁operational
▁Cl
▁reveal
airy
lymp
▁credit
▁landsc
▁stress
▁accuracy
▁agencies
▁definition
ah
enov
▁appear
▁appropri
▁friendly
▁hydrogen
▁difference
▁ore
▁honor
▁remov
▁kazakh
▁benefic
▁quarter
▁apartments
▁underg
▁acceler
▁45
anov
liminary
▁priorities
▁bat
▁integral
letes
▁diff
▁Islamic
▁resource
alle
▁voc
▁slag
inished
▁output
▁believe
▁Research
thing
▁like
▁record
▁Lat
operation
ling
▁wave
▁quick
▁apprec
▁completely
▁diplomatic
oy
▁arm
▁iron
vision
▁conver
▁annually
▁criminal
▁successfully
70
▁cut
▁exerc
▁expanding
▁organizing
▁appropriate
▁distributed
▁organize
▁vac
hold
▁transpa
▁permanent
▁constantly
▁entrepreneur
▁look
liance
▁vehicles
▁pil
fication
▁Kostanay
▁san
glish
▁left
▁biological
▁enforcement
hing
▁Mus
-2050
▁purchase
▁sections
▁promising
▁fertil
▁timely
▁Be
iate
▁sure
▁effectively
imension
▁beneficial
▁31
anch
▁cri
▁say
▁furn
omp
ray
urement
▁remote
▁athletes
▁procedures
▁act
▁sho
▁reconstruction
umin
▁mot
▁boil
▁decree
▁improved
▁(3
▁steam
▁exchang
▁chemistry
▁dependence
▁33
▁moment
▁allowed
▁harmful
▁however
OR
gn
▁Day
▁Public
▁effects
▁unemploy
▁Cooperation
▁oblig
vey
▁dry
aired
tices
▁scale
▁significance
abet
▁ideas
▁thick
▁territor
▁bir
▁court
▁makes
ensions
▁orient
▁English
▁polymer
ged
idity
iform
▁interv
▁indicates
▁spiritual
▁adj
▁mig
▁promote
▁graduates
▁chain
oph
▁satis
▁compounds
▁Uzbekistan
AL
eds
▁36
aced
▁route
▁sides
▁while
▁everyone
▁protocol
▁themselves
▁sav
aijan
▁audit
▁Americ
▁Op
▁Otan
▁That
ifying
▁fruit
erbaijan
▁figures
▁optical
▁interactive
bul
oul
▁prob
▁petro
edia
▁says
▁2016.
▁still
▁Academy
▁terrorism
▁hope
▁orig
unications
▁34
level
▁religious
▁literature
oming
paign
5,
▁Law
▁Dis
▁circuit
rought
▁highest
▁Industry
▁react
▁issued
▁campaign
▁separate
▁combustion
▁consisting
▁innovations
▁War
▁photo
▁staff
▁previously
▁cm
▁Inc
▁gard
▁lack
ta
▁prep
▁color
▁compliance
▁steel
▁summit
▁contains
▁insurance
rab
▁Afghan
▁rating
▁release
-4
uz
raine
▁sites
tificial
▁payment
▁Internal
▁preliminary
iers
oscow
▁Prot
▁dairy
▁round
▁schedule
▁Investment
▁examination
▁characteristic
likh
▁robo
▁reason
▁convers
▁described
2,
uled
going
▁drug
▁Agric
▁crops
▁lines
▁conscious
▁advantages
▁2015.
ken
▁fight
ER
ns
21
▁stabil
▁chall
▁cryst
▁Culture
▁citizen
▁ke
▁Due
▁heavy
▁German
▁qualified
▁six
▁money
▁sulfur
▁anc
▁bus
▁dam
ATION
▁branch
▁maslikh
▁February
▁prop
▁authors
▁consist
▁electron
▁deformation
▁link
▁Mayor
▁express
▁protect
▁transferred
ally
iddle
children
▁adoption
▁subjects
ajik
vered
▁prepare
▁Analysis
ae
▁rapid
▁Akhmet
know
▁Tok
▁Ent
▁cargo
▁covered
▁statistical
7]
iated
intayev
ochemical
ole
▁Then
▁electrical
▁establishment
3,
kz
sky
▁divers
agintayev
IT
we
oxide
ademic
uction
▁famous
▁hydrocar
▁Entreprene
8,
▁fair
▁decided
▁regular
▁reliable
▁automated
▁kindergartens
org
▁lat
▁book
▁front
▁travel
▁reaction
▁Spe
▁neigh
▁communications
▁River
▁impos
▁package
idge
▁Mat
▁wel
based
ulties
▁Scien
▁farms
▁assets
▁worked
▁updated
▁mountain
▁determines
▁back
▁useful
▁consumers
▁parameter
▁Sem
▁div
allel
erous
itable
▁horiz
ectives
▁clearly
▁context
▁preschool
▁classification
ero
▁4,
▁Such
▁reach
▁belong
▁analytical
▁ago
▁rational
reme
▁fish
position
▁towards
▁candidates
▁scheme
▁Roadmap
▁quickly
▁[5]
usion
▁layers
▁identify
tering
▁Board
▁molec
▁shall
▁trust
▁libr
▁Results
▁irrig
oples
tingu
▁physics
house
▁neural
▁raised
▁Azerbaijan
▁atmosphere
AN
▁Ge
▁2050
▁Summary
▁mutually
▁geographical
▁card
▁Olymp
▁satisf
▁brought
▁magnetic
▁convenient
▁friendship
▁Entrepreneurs
▁Sw
▁ow
gory
▁Bec
▁victory
aration
▁prosper
▁zh
aily
▁vocational
▁Now
▁park
action
▁spect
▁needed
▁conversation
▁certification
arab
▁fundament
▁organizational
ances
▁gain
▁akimat
▁positions
▁recognition
▁legalization
▁cloud
urgical
▁phosphor
▁2)
▁37
rive
▁Ear
▁You
▁Tajik
▁festiv
▁voltage
▁constitutional
EN
EU
rov
alik
▁North
▁IN
▁bri
▁upper
ologies
▁combined
▁variable
▁accounting
▁loan
▁Moscow
▁pavilion
▁complexes
rag
▁fo
apital
▁Inter
▁Ukraine
▁Assoc
▁shell
ections
▁Caspian
▁purposes
ED
EM
II
▁lect
▁radio
urities
▁(4
▁Me
▁ions
ography
▁prevention
▁patients
▁revealed
▁considering
▁IS
etov
▁cov
▁2011
▁2019
▁gives
▁concern
▁deposit
▁drilling
▁pipeline
4,
rek
▁prin
▁pharm
▁smart
▁recognized
scill
▁Because
▁difficulties
by
▁barri
▁itself
▁trends
ifications
▁vector
▁identification
rs
▁IT
craft
▁angle
▁reserve
▁uniform
▁category
mon
fort
uable
▁cool
▁expos
▁focused
▁transmission
%),
▁ine
▁Work
▁week
▁could
▁finished
11
cer
▁CO
overy
▁remains
▁execution
▁II
▁kg
ject
known
tries
▁came
▁topics
▁categor
eous
time
▁call
▁nutr
▁proc
▁sound
▁cement
▁wished
ectively
▁Finance
▁peoples
oted
▁ord
▁run
▁United
me
nic
▁tit
essor
▁sand
▁charge
▁contact
▁analyzed
▁submitted
▁artificial
▁mand
▁having
▁affairs
▁emission
▁Rel
▁seen
▁sout
▁fixed
▁intensity
In
omic
▁pul
ogene
▁rocks
▁Strate
▁height
▁describes
▁Note
▁sale
▁wast
▁fourth
▁thickness
▁webs
▁Austr
▁feature
▁specialties
oss
olid
aratus
▁pilot
▁spring
▁Business
▁sea
▁making
▁visual
▁oscill
▁changed
▁signing
▁abilities
▁primarily
▁ecological
▁simulation
▁architecture
agro
elting
ynamic
▁earth
▁worksh
▁Service
▁involve
iological
MS
sp
ourn
▁nazarbayev
▁More
▁cogn
▁entered
▁fraction
▁apparatus
-5
▁recre
▁facility
most
ogenic
▁depth
▁motor
▁accept
▁coating
▁parallel
ired
iring
▁rule
▁flows
▁medicine
▁spectrum
▁operators
6,
AS
----
▁host
▁swit
anches
▁herit
▁advantage
arabi
izers
▁West
▁soils
▁compil
▁expect
▁trained
▁sufficient
▁contributes
▁Introduction
90
uan
▁pan
▁2014.
▁risks
sequent
▁interesting
▁schoolchildren
ulov
▁(1)
▁bro
-2020
aster
▁Trade
▁colleag
▁creates
▁practices
▁00
▁Ser
▁led
iments
▁begun
▁daily
▁forming
▁heritage
▁migration
▁Management
▁Can
▁down
▁Environment
▁transformation
▁pen
▁2018,
▁chrom
▁series
▁foundation
▁learn
ilitation
▁aircraft
▁authority
▁reliability
ara
rid
spe
racts
▁Last
ticles
▁spent
▁govern
▁concert
▁bre
▁"100
▁dang
▁sequ
▁started
7,
cher
ipal
▁0,8
▁600
▁mort
▁mac
▁note
▁lesson
▁recently
▁categories
AEU
▁1.5
water
▁rich
▁visc
▁socially
aur
▁38
▁Mr
cont
ocra
▁alph
▁closed
▁solved
▁payments
iting
vance
▁champ
▁trend
▁server
▁statistics
▁procurement
bit
oviet
▁gran
▁gross
▁neutr
▁affects
▁display
▁winners
▁absorption
▁informatics
ull
▁outs
▁challeng
imensional
▁preparing
▁recommend
▁Agriculture
ne
▁(5
▁cal
▁nur
ishing
▁Among
▁Agency
▁window
▁academic
pol
yle
▁42
▁Bal
estan
sible
▁Data
unction
▁occurs
▁exercises
▁44
hood
▁her
▁Main
▁regime
▁closely
▁completion
▁400
▁Cor
▁town
▁Latin
▁motion
▁conflic
▁horizon
▁servants
▁totaling
▁computing
ET
asons
▁repe
▁river
▁Turkic
▁American
▁revenues
▁collected
▁situations
▁traditions
▁Afghanistan
ift
tified
▁akims
▁distingu
▁cognitive
▁Tajikistan
▁preservation
12
▁MP
tity
abled
▁Hung
▁doctors
▁festival
AC
▁Sing
▁pattern
▁specialist
kal
▁ax
orient
▁glass
▁balance
▁consciousness
eterm
▁despite
▁signals
▁universal
▁possibilities
ING
iary
▁word
tenance
▁France
▁scheduled
oultry
▁tourists
The
ivest
▁brief
▁Sports
▁police
▁volumes
▁promotion
lem
▁Ur
▁0,3
▁bit
▁minutes
▁oxidation
▁75
educ
ulating
ivestock
▁speaker
▁phenomenon
▁functioning
ower
▁poli
ameter
▁actual
▁mother
▁respon
▁version
▁textbooks
▁Technology
14
rel
▁aviation
dimensional
ivate
▁Turkish
▁controlled
▁parliamentary
oman
▁advis
▁below
▁operate
▁branches
▁machines
▁geological
-10
▁Process
▁silicon
▁automatic
▁reference
▁certificate
8]
ield
rogen
▁util
▁accep
▁games
▁volun
▁alumin
▁description
ids
ruk
rous
itary
▁Phys
▁chair
▁sensor
▁phenomena
▁relevance
▁objectives
▁respectively
ropol
▁broad
▁proved
atically
▁experien
▁contracts
▁livestock
▁challenges
Al
oz
▁har
▁Modern
▁caused
atriotic
▁systematic
fol
▁48
▁Cre
▁moving
▁interval
▁processed
▁Conclusion
▁43
isms
▁theme
▁choice
▁ethnic
▁routes
▁website
▁villages
▁resolution
bra
▁Sa
▁pays
▁Korea
alikova
ping
▁uses
▁serve
▁synthesis
dr
rau
▁won
ental
▁home
luding
▁cycle
▁transmit
▁coordinate
loys
linear
▁talks
acement
▁benefit
▁communal
▁literacy
▁reporting
▁automation
akov
heric
▁entry
▁written
▁supports
▁competent
▁eliminate
▁maintenance
lad
rents
▁weak
▁memory
▁Constitution
▁optimization
▁Kh
uits
▁shar
▁prote
▁shape
▁owners
▁arrived
habilitation
oir
▁Ob
aceu
disc
▁Sea
state
▁analyze
▁finance
▁released
▁availability
▁46
▁bu
onom
▁told
▁Consid
▁poultry
ocultural
lier
▁belt
▁catal
▁enough
▁shared
▁confirm
▁ambassador
▁achievement
▁instruments
PP
aves
▁250
aging
apore
ented
▁images
oriented
eter
soil
▁Each
▁radi
▁journ
▁plays
▁winter
▁reasons
▁Turkestan
▁observers
▁colleagues
▁exploration
▁kindergarten
▁transparency
iang
▁EAEU
▁euro
aceutical
▁targeted
iec
▁55
vere
▁Shu
rolog
▁Arab
▁criterion
▁wat
liamentary
▁continues
den
ven
char
inks
umen
▁prec
▁causes
▁secret
▁logical
▁alphabet
▁everything
▁Here
▁fall
▁Represent
▁congratulate
▁Mon
▁kil
ether
▁1000
▁ampl
▁game
▁salt
ictions
▁managing
▁corporation
ky
ams
▁dest
▁adjust
▁valuable
▁Col
iterek
▁Armen
▁Forum
▁destr
▁barriers
▁exchanged
▁reception
▁prosperity
▁Calc
▁vice
▁south
▁equality
▁measured
▁producing
▁extraction
▁[6]
▁flex
▁iden
osystem
▁forward
▁minerals
▁impossible
▁individuals
▁ethnocultural
▁privatization
▁qualifications
▁Pros
▁assigned
▁intensive
▁Association
9]
▁block
orthern
▁almost
▁numbers
▁critical
▁intended
▁violations
▁introducing
▁Br
▁Prof
▁perm
▁talk
▁2020,
▁becoming
▁neighbor
▁correspond
▁Er
rench
▁tick
▁birth
▁chlor
▁Special
▁response
▁confirmed
atau
▁Adm
▁akimats
▁Protection
▁combination
▁disciplines
free
▁tro
▁envis
▁thing
▁passed
▁outside
▁fruitful
-6
come
▁powers
▁resolved
▁corresponds
▁der
▁Hous
▁pump
▁desire
▁remaining
23
▁far
techn
▁rank
▁cattle
▁season
▁trading
▁channels
▁starting
▁subsidies
▁metallurgical
AR
oid
scop
▁Alt
draul
▁ship
▁noise
▁rates
▁restr
▁colleg
iplinary
▁relation
▁receiving
▁reservoir
ada
rap
▁grant
▁names
acts
▁Code
▁begins
▁inside
fficients
▁preparations
▁39
▁47
▁garden
chemical
▁Tokayev
eed
ibek
▁coming
ulations
▁becomes
▁accepted
▁examined
▁programme
▁obligations
OL
care
vity
ernal
insky
istant
▁Earth
▁Thanks
▁multil
▁propag
▁boundary
aul
▁EU
▁mi
leum
▁bet
▁Under
▁middle
▁spread
disciplinary
▁fundamental
▁competencies
ecul
folio
lined
draulic
private
▁reflected
▁subsequent
▁throughout
gent
self
idents
eculiar
▁boiler
▁module
▁offices
▁request
▁mandatory
▁nursultan
parliamentary
17
▁Tal
▁room
▁Using
▁fiber
▁resear
▁dioxide
▁expression
▁err
▁plo
▁disabled
▁variables
lood
▁silk
CT
TO
erce
oles
faces
ointed
▁powder
ibration
▁Methods
▁reactor
aparbayev
▁gratitude
▁dom
▁club
▁error
▁summer
▁consolid
▁diameter
▁Singapore
▁orientation
▁aw
tegr
inking
▁oxide
uilding
▁animal
▁facilit
ought
advant
entive
▁decom
▁satell
▁counter
▁lending
▁Strategy
▁nitrogen
▁emissions
ems
▁hub
▁clar
timedia
▁corrid
▁doctor
▁animals
▁pressing
▁reflects
▁fertilizers
▁coefficients
▁manufacturers
▁pharmaceutical
▁rehabilitation
ux
▁zero
▁deliv
▁macro
▁healthy
▁detection
▁independently
ened
▁Zhe
▁ess
▁core
▁return
▁Turkmen
▁meaning
▁coverage
▁comparison
▁conversion
▁inspection
▁declaration
▁Technologies
▁temperatures
▁supplement
▁:
▁"-
▁53
▁Cong
▁safe
▁library
▁Regional
▁humidity
▁metropol
▁institute
▁probability
-8
16
lemn
oura
yrau
▁sto
▁Part
▁rare
Farabi
ourism
▁physic
▁Control
▁underground
ots
xim
▁Aut
▁fed
▁tex
▁Elec
▁Vlad
▁turb
▁double
▁microc
▁solemn
▁attracted
▁containing
raz
▁Our
▁save
▁household
▁translation
nd
▁eg
arov
▁tub
throp
▁join
▁prize
▁teams
▁appoint
▁preserve
af
▁ISO
-2017.
ometers
▁savings
▁sensors
▁deepening
▁Pedagogical
cted
ples
▁once
▁Kazagro
▁airport
500
inter
osity
▁rock
▁absence
▁furnace
▁powerful
▁regarding
▁experiments
amm
▁(6
▁Cr
imir
▁bak
▁sets
▁wells
▁devoted
▁inj
▁lic
▁Khan
▁asph
inated
otechn
▁India
▁input
ogeneous
▁subsoil
▁organizers
▁recommendations
-7
Ch
▁[7]
▁deb
▁emp
▁manif
▁sugar
▁ancient
▁peculiar
▁diffusion
24
des
pati
▁120
▁Mal
▁seg
▁psychological
mal
back
rite
▁imm
hanov
uries
▁tested
tivation
▁Another
▁Western
▁ongoing
▁southern
▁maslikhats
▁coordination
uge
▁Let
▁Web
▁pain
▁accoun
▁choose
▁judges
▁sagintayev
yri
▁56
▁seats
▁establishing
▁architectural
OST
▁(2)
-2017,
ameken
▁Model
▁norms
essions
ditional
▁achieving
ze
load
mans
▁cad
ander
undred
zhanov
▁brand
▁Second
▁saving
electric
lication
▁objective
asma
▁Med
ferences
▁atmospheric
akes
▁Sim
▁freed
elecomm
▁Policy
▁screen
▁MW
▁face
▁fail
aliyev
▁bright
▁grants
▁compens
▁territorial
bot
▁Tar
▁What
▁cause
▁extreme
▁proposal
▁Patriotic
▁calculating
▁ratification
ades
▁Car
▁isol
▁rein
▁Plant
▁attac
▁bread
▁stock
▁better
▁stored
▁cutting
▁ecology
▁pipelines
▁rub
▁Exper
▁blood
entioned
▁firstly
▁journal
▁unified
▁colleges
▁assessing
▁purchased
▁appreciated
18
east
▁sun
actic
chron
▁Determ
▁catalyst
▁restoration
45
▁Di
▁eve
▁vic
▁currency
▁celebration
▁recommended
ley
▁Ev
▁dim
pections
▁Technical
▁considers
▁extremism
2)
umn
▁nav
itude
▁dust
▁cells
ologists
▁recovery
▁rotation
▁calculate
▁petroleum
▁provisions
▁settlement
▁professionals
ato
▁Pet
▁Sam
▁consequ
▁democra
▁reduces
▁landscap
corruption
▁substance
▁passengers
▁researcher
▁inspections
▁documentation
iade
▁Leg
▁aer
▁lab
▁gases
▁custom
▁workshop
▁authorized
▁phosphorus
97
uman
▁Oil
▁cyl
▁plen
▁alloy
regional
▁promoting
▁Prosecutor
ka
▁(7
sion
▁vent
▁ware
▁medicines
▁productive
etary
▁band
▁Mamin
▁induc
▁taxes
▁reading
▁evaluate
▁original
▁robotics
dykalikova
amps
obile
▁army
▁warm
agnetic
ferential
▁entering
▁hydraulic
▁horizontal
▁ministries
▁prosecutor
▁Environmental
▁emb
▁visa
▁Micro
▁break
▁stric
▁Mathema
▁defines
▁eastern
▁hundred
▁envisaged
▁maintaining
▁strengthened
22
RO
dom
▁mg
made
▁Ext
▁gre
▁Abay
▁sorb
▁zinc
xtures
▁almaty
▁parents
▁graphics
▁champions
.5%
ygen
▁few
▁obst
▁breed
▁music
▁nodes
▁spati
mediate
novative
▁harvest
▁plastic
▁Vladimir
▁recorded
▁57
▁wa
rael
▁men
▁clay
▁pace
▁strict
▁tempor
▁irrigation
yna
▁65
band
hane
▁kar
raord
▁whose
▁French
▁Armenia
▁peaceful
raordinary
▁Transport
▁geometric
▁Sm
ches
ishev
▁grade
inations
▁reaches
▁corporate
nam
▁membr
▁survey
▁aluminum
▁delivery
▁accession
▁disadvant
▁nutrition
28
aps
▁vers
▁propor
▁foundations
▁propagation
ipt
▁ST
amed
zech
▁fif
lands
vereign
▁imports
▁cleaning
▁continued
▁gradually
13
uct
▁Tem
ussian
▁meets
▁invested
▁sanitary
▁guarantee
▁destruction
▁decomposition
95
ino
▁5,
▁kn
orph
▁50%
▁mer
▁ones
▁2012,
▁matter
▁Supreme
▁estimated
▁complexity
▁healthcare
▁represented
pre
cing
▁Bak
bassy
okshe
ipalat
amination
▁unemployed
irm
cell
alian
▁laid
energy
ivered
▁Labor
▁placed
▁appearance
▁protecting
zone
▁700
▁Bas
▁cub
▁sew
eland
▁errors
▁silver
▁earlier
permanent
▁appointed
▁entrepreneurial
enz
▁Eng
cohol
ticip
▁page
▁slow
▁offer
ervation
▁ensures
▁manifest
▁register
ipalatinsk
▁delivered
▁employers
▁sovereign
ogy
▁54
onal
▁bul
▁sod
▁Askar
earning
▁asphalt
▁spatial
▁usually
▁diplomat
▁repeated
▁multimedia
▁consequences
▁familiarized
2]
ead
▁wish
akhmet
▁doing
▁mixed
▁bridge
▁coordinates
▁environmentally
ye
inem
osen
pread
▁curve
▁signs
ultanov
▁forest
▁triang
▁mortality
.3%
▁Hy
roup
▁just
ectrom
▁chief
▁clinic
▁courts
▁intend
▁examples
▁adaptation
▁diagnostic
aut
ulin
▁30%
▁Abd
▁bot
▁cry
▁fib
osing
▁scal
▁wire
▁flood
▁Forces
idespread
osm
iven
▁stra
▁define
▁patrio
▁mixtures
▁resulting
▁intelligent
▁commissioning
▁Communications
▁haz
iesel
ishes
▁2009
▁atomic
ployment
▁identity
▁secondly
▁decreases
▁Turkmenistan
▁qualification
ows
usp
▁3)
▁97
bons
ogas
▁2.5
asing
▁damage
▁former
▁switch
▁younger
▁corridor
▁evidence
▁periodic
▁qualities
▁98
▁lives
▁toler
okshetau
▁Despite
▁alcohol
▁justice
▁dimensions
▁performing
▁proportion
▁widespread
fin
▁41
iced
▁ple
lysis
▁Mukh
▁grew
▁Italy
▁sales
ectoral
odynamic
▁elected
▁produces
▁seminars
▁collective
▁AN
enova
eping
inding
▁tariffs
▁Speaking
▁computers
▁Iss
▁sch
trans
▁easy
▁fast
▁lands
▁headed
▁retail
▁transl
▁metrolog
▁officers
▁discipline
▁impurities
▁multilateral
izer
▁800
▁Zhum
▁north
▁teach
▁united
▁factory
▁ul
▁GOST
▁hero
active
ception
▁Congress
▁appeared
▁49
▁hear
making
▁sharp
ativity
▁funding
▁threats
▁Chemical
▁Training
▁900
eshev
fully
▁bacter
▁rivers
▁flights
▁lessons
▁drinking
▁duration
▁exceeded
1]
HE
quar
▁(10
▁pal
utors
▁2025
▁books
▁obstac
▁interface
ENT
▁Inf
▁Many
▁Mass
uality
ordable
▁visitors
▁additions
▁religions
▁viscosity
▁gar
ylene
▁Sary
▁bitumen
▁farmers
▁publication
dy
▁""
▁don
▁opp
▁wear
▁acids
▁mayor
▁accomp
▁oxygen
▁theater
▁homeland
▁supplied
▁composite
▁constructive
-9
ooth
▁10,
▁Ber
rical
▁grid
▁latest
▁troops
▁artists
▁circles
▁manager
▁passing
▁proceed
ultaneous
▁Akhmetov
▁terminal
▁patriotic
▁neighboring
1)
atal
▁Syri
ytzhan
▁ranks
▁chosen
▁inters
▁letter
▁methane
iferation
▁systemic
▁kilometers
▁regulations
.2%
augh
▁buy
▁Soviet
▁anthrop
▁polling
▁reverse
▁clinical
▁telecomm
▁inflation
▁specialty
▁hydrocarbons
roy
▁6,
antic
▁Cour
▁cond
▁Czech
▁Water
▁polic
vention
▁cooling
▁protein
▁printing
▁landscape
▁nonlinear
▁particles
▁greenhouse
▁commissions
▁accumulation
▁conductivity
OD
.6%
▁IR
ellow
ureau
▁poor
▁upon
▁exist
▁grown
▁commod
▁diesel
▁disease
▁plenary
▁sciences
▁affecting
▁intensify
▁vegetables
itz
acec
▁(20
▁ads
▁red
assym
▁Form
▁thin
ritain
▁2013.
▁seven
▁Atyrau
▁urgent
▁voiced
requency
▁patient
▁directed
▁surfaces
▁confident
bay
▁Ca
▁il
▁egg
▁Meas
▁feel
▁news
▁modes
▁Malays
▁curric
▁diction
▁financed
▁satellite
▁stimulate
ife
▁58
ifts
▁Step
ometry
ulsory
▁Afric
▁opens
reement
▁profile
▁raising
▁convention
▁Semipalatinsk
▁Administration
equ
abol
ibri
tech
▁10%
▁Cer
▁Vol
oline
▁cast
▁node
▁went
▁corps
▁excess
▁accumulated
▁digitalization
▁52
.6%,
even
▁Serb
ilibri
▁assum
▁moist
▁2017-201
▁employee
▁measurements
eva
▁Map
gebra
▁2030
▁drugs
▁Museum
▁forced
▁steppe
ilibrium
▁Increas
▁Olympic
▁lecture
▁resolve
▁streets
▁percentage
gra
▁99
henko
▁send
▁towns
▁duties
▁Computer
▁monument
▁sequence
▁informatization
▁66
vious
▁Most
▁piec
▁Poland
▁appeal
▁dispos
▁explan
▁filter
acecraft
▁northern
▁interview
▁memoranda
▁differenti
▁guarantees
▁involvement
ream
rich
▁fat
▁Alex
▁High
▁minim
▁Britain
▁Yes
▁crus
▁Impro
▁arena
▁voice
ecurity
manship
▁plasma
▁Univers
▁emergence
▁violation
▁instrument
▁interregional
yrz
▁Its
▁Mar
▁cav
▁vit
▁yet
etric
income
▁cubic
▁links
▁pulse
▁answer
▁select
standing
▁container
asi
hai
▁63
ulum
unds
▁550
▁hall
ietnam
▁crime
▁applying
▁articles
▁audience
▁vertical
▁certificates
▁simultaneous
▁unemployment
▁physicochemical
▁(8
▁Ec
▁Te
inery
itish
▁salts
▁offers
▁serious
▁accounts
▁connecting
▁characterizing
kol
tism
▁cot
▁100%
▁wall
▁2020.
▁manage
▁servic
▁smooth
▁Natural
▁festive
asc
▁78
ikon
▁1,0
▁doub
▁Therm
patient
▁biogas
▁crimes
▁jointly
.4%
olars
ongol
trict
uleim
▁bloc
▁Roman
▁alkal
▁bills
▁highway
▁western
ependence
▁2015-201
▁Baiterek
▁approval
▁portfolio
▁scientist
▁microorgan
▁homogeneous
ava
los
tem
▁pH
aith
ires
urgy
▁WTO
▁aqu
▁sell
tronic
▁newly
▁Israel
industry
▁commodity
▁geography
▁officials
▁Production
▁personality
",
▁(9
▁Om
▁XX
▁Bul
▁veloc
▁sugges
▁Iranian
▁removed
▁analyzing
▁Industrial
▁compulsory
▁equilibrium
27
▁PC
▁raise
control
▁extrac
▁banking
▁Professor
19
SR
200
ysh
ingu
▁Bek
▁morph
▁sodium
▁exceeds
▁freight
▁policies
▁Agreement
▁dangerous
▁partnerships
▁05
▁64
like
onds
▁enh
▁rot
lines
ikonur
orders
▁wages
essimov
▁circle
▁waters
▁Article
▁reflect
▁initiated
▁monuments
▁dynamically
▁73
▁[3
asant
ancial
struct
▁Given
▁alloys
national
▁melting
▁exported
▁recording
▁spacecraft
roliferation
▁groundwater
▁(0
▁59
▁68
▁Ty
mark
▁box
▁kha
otive
▁plane
▁medals
▁turned
▁Consider
▁expenses
▁combating
▁conservation
▁Representatives
▁85
arin
flow
▁[10
ently
ickel
▁Stand
▁camer
▁coinc
▁fifth
quarters
▁arising
▁symbols
▁suitable
▁modernize
▁creativity
▁Abdykalikova
▁participated
IV
xic
.1%,
medi
▁Bay
Kazakh
▁monthly
▁electrom
▁managers
▁occupies
▁correctly
▁ministers
dep
urk
ucle
dress
green
phone
▁flight
▁Vietnam
▁extract
▁multiple
▁thousands
▁regardless
▁Construction
▁chairmanship
AZ
▁7,
.2%,
anes
ured
▁20,
▁Oper
▁orph
▁rice
▁stop
▁moral
▁oppos
▁rental
▁theorem
▁affected
▁installations
.3%,
ayer
▁Sol
isher
estyle
utants
▁heart
▁scope
▁silic
▁comput
▁algebra
▁comfort
▁shortage
▁ecosystem
▁supervision
▁headquarters
▁consultations
ME
cm
sm
tar
onym
rees
▁180
▁Val
▁2000
▁sulph
▁Design
▁Korean
▁manner
akhmetov
perature
▁finding
▁accurate
▁cooperate
▁extensive
▁patriotism
▁contributed
):
rd
ils
udi
▁[8]
▁kine
▁replen
▁instead
▁Japanese
▁estimate
▁accidents
▁metallurgy
▁Mathematical
▁95
from
▁20%
▁Hol
▁era
▁row
ariat
▁file
▁items
▁Future
▁overha
▁poison
▁predic
▁Hungary
mediately
▁generated
▁specially
▁vegetable
▁Saparbayev
proliferation
kov
▁1.
comp
ries
▁pra
▁slop
▁write
▁Engine
▁School
▁harmon
▁Yessimov
▁missions
▁scholars
▁sectoral
▁guaranteed
Ex
VI
burg
head
enced
iding
▁love
▁About
▁Armed
▁black
▁served
▁spectra
▁detailed
▁gasoline
▁imported
▁optimize
▁Kokshetau
▁tolerance
▁recreation
▁connections
▁immediately
▁intelligence
▁anthropogenic
▁peculiarities
MP
RA
.7%
che
auti
ging
▁King
▁duty
▁foot
▁slud
▁cardi
entiary
▁Issues
▁covers
▁formal
▁profit
▁trains
ffective
▁filling
▁treated
▁compiled
▁sensitive
▁championship
▁investigation
▁microorganisms
sek
▁130
baeva
iance
kazgan
kazyna
▁prime
▁rooms
lusions
▁fruits
▁Kazakhs
▁Tourism
▁intends
▁contamin
▁lighting
▁outlined
▁spectral
▁induction
▁positively
▁Air
▁agr
▁ill
luded
times
▁bric
▁diam
▁scan
▁attrib
▁orders
▁eurasian
▁electoral
▁demonstrate
▁hydrocarbon
▁researchers
▁distinguished
aim
uck
.8%,
itan
peti
ship
▁Tim
▁10-1
▁ores
▁navig
▁skill
▁Canada
▁attack
▁handed
▁things
▁wastes
building
▁college
▁turbine
▁describe
▁modified
▁television
-19
thnic
▁phil
▁Nation
▁heated
▁limits
▁graphic
▁Baikonur
▁velocity
▁preventive
▁continuation
▁intermediate
DS
▁67
▁Per
▁las
acing
▁Four
▁cash
▁huge
▁2018.
certain
▁Taking
▁hazard
▁monopol
▁revenue
▁variety
▁marketing
▁invitation
▁72
ancy
atar
lusive
ometer
ourage
urasia
▁excav
zkazgan
▁Mongol
▁estate
▁permits
▁allocate
▁indicate
▁investor
▁moisture
▁repaired
▁temporary
▁boundaries
▁preserving
▁territories
och
▁nm
lets
▁dual
length
▁arise
▁codes
▁floor
▁heard
▁stone
▁waves
▁Integr
▁refers
▁academy
▁specifics
imb
▁74
▁Kur
▁why
fered
▁Some
ewater
▁phone
▁cybers
▁radius
▁vision
armament
▁clinics
▁himself
▁briefing
▁choosing
▁governor
▁microdis
▁receives
▁thematic
▁hospitals
▁nomination
▁computational
8.
▁EC
otes
▁Pal
▁THE
▁den
▁Zhan
▁frequ
▁illeg
▁width
▁Kassym
▁pieces
▁visits
▁amounts
▁contrad
▁freedom
▁letters
▁waiting
▁approxim
▁hardware
▁estimates
▁insulation
.8%
ded
idu
use
▁resc
anghai
▁encry
▁irrad
ambetov
▁Corpor
▁Khanate
▁checked
▁overall
▁conflict
▁amplitude
aksy
▁Tas
▁[9]
Table
pical
▁susp
▁wealth
▁elastic
▁modules
▁reactions
▁restrictions
gar
aker
akup
▁11,
ulner
▁fine
crisis
▁helps
▁penet
▁greater
▁ranking
▁carrying
▁celebrate
▁integrity
▁reflecting
▁compression
▁relationships
lar
▁Go
▁hyp
iture
ports
ussia
▁axis
atorium
▁easily
▁senior
▁advance
▁predict
▁clusters
▁religion
▁protected
▁differences
▁microcredit
▁demonstrated
▁metrological
▁occupational
la
.5%,
.7%,
utin
▁Test
▁flat
▁flux
▁mill
ancing
saving
▁Green
▁comes
▁drive
▁pages
rethnic
▁ensured
-0
St
ij
▁;
▁01
▁Gu
.4%,
with
▁Jus
class
bekova
▁basin
▁monit
▁Company
▁autonom
▁Atameken
▁generator
//
.1%
▁76
▁Bi
-200
comm
gien
inov
wide
▁cou
heast
iling
▁guid
▁Study
▁logic
▁career
▁native
--------
▁contest
▁praised
▁setting
▁patterns
▁pollutants
▁experienced
.9%
ymp
▁Tw
ipot
▁Yer
▁sed
▁deal
▁Serge
▁adver
▁Legisl
idential
▁calcium
▁feedback
▁recalled
▁inequality
3)
ita
artz
ball
enty
▁Aks
▁ash
▁perce
▁robot
▁borrow
▁enrich
▁gained
▁slight
▁tables
▁capable
▁options
▁returned
etherlands
▁conclusions
▁diversification
UR
ulo
aren
iles
ming
▁Kal
igmat
▁exem
▁frag
▁wood
▁Civil
▁Taraz
▁pasta
rainian
▁summar
▁answers
▁chaired
▁Learning
▁carriers
▁disposal
▁regulating
▁realization
AB
Si
cal
▁AC
▁ov
work
erman
▁Spec
▁eggs
itives
▁Georg
▁differ
▁defects
▁dischar
▁veteran
ufficient
▁lifestyle
▁interstate
▁circulation
▁verification
▁concentrations
nex
nik
scr
enge
iter
mium
soft
▁fol
scopy
▁born
▁kind
though
▁deriv
▁cylind
Business
sekeshev
▁respond
▁covering
▁centuries
▁platforms
ipotentiary
▁membership
▁requirement
kt
tise
ulas
▁140
▁sow
-2015
agers
pping
stock
▁Java
▁dead
▁seed
▁compl
inating
raining
▁sludge
▁Compared
▁breeding
▁Alexander
▁signature
▁reflection
▁familiarize
▁interethnic
35
▁Ne
▁nar
▁soon
▁wage
riched
▁adapt
▁nucle
▁absorb
▁dissem
▁vulner
▁Italian
igmatulin
technical
▁crystall
▁eurozone
▁mastering
▁vibration
▁accordingly
▁disarmament
▁instability
▁manufactured
▁purification
iad
uum
▁RK
emen
▁via
▁evap
arians
ithuan
ulator
▁Human
▁drawn
▁store
iations
▁Suleim
▁analys
▁street
▁consent
▁sincere
▁bringing
UT
kin
▁()
onel
▁ice
▁Court
▁Found
▁Games
autiful
▁Produc
▁batter
▁client
▁Justice
▁offered
fficiency
▁updating
▁evaluated
▁applicants
▁appointment
▁problematic
▁transported
tile
▁198
▁Mam
▁Min
anges
▁Wind
▁crypt
▁ferro
▁expend
▁nominal
▁removal
unctional
▁combining
▁molecular
▁uncertain
▁elimination
▁51
▁87
▁Use
issov
manov
▁pure
erland
imbayev
▁hygien
▁Digital
▁weather
▁apartment
▁economies
▁generalized
▁generations
una
▁jo
▁Max
andom
▁sown
▁Class
▁buses
▁lingu
▁mobil
▁basics
dykorgan
▁Capital
▁Embassy
▁advisory
▁conceptual
▁separation
CO
kg
▁q
oil
speed
▁Polish
▁biology
▁eternal
▁councils
▁extended
▁mentioned
▁wastewater
▁attractiveness
▁8,
requ
▁110
stand
▁mine
▁wool
▁2019,
▁Words
▁china
▁Holding
▁contacts
▁lectures
▁monetary
mag
▁Ir
▁reag
-2017"
rosion
▁panel
▁losses
▁voting
▁workpl
speaking
▁reality
▁sulfide
▁involves
▁semantic
▁Belarusian
▁comparative
ML
wh
▁77
▁uk
▁350
istor
▁2005
ground
overed
▁nickel
▁phases
plements
▁connect
▁Particip
▁Shanghai
▁humanity
▁curriculum
▁Netherlands
▁conditional
EL
ga
▁83
▁Dr
▁Sat
▁firm
▁Spain
▁hyper
▁equival
▁majilis
▁attitude
▁politics
Nazarbayev
▁additives
▁attraction
▁outpatient
▁preventing
▁Corporation
AD
AP
OG
sen
▁9,
▁py
▁debt
▁ceram
▁grand
▁attacks
▁politic
▁roadmap
political
▁develops
▁exhibitions
▁economically
▁nationalities
da
irl
▁Mo
.9%,
radu
▁Equ
kulov
rence
ethnic
▁avoid
▁deter
▁quasi
taining
▁potato
▁rubber
▁volunt
▁textbook
▁addressed
▁beautiful
otechnology
▁contributions
▁cybersecurity
tom
▁ju
ably
ried
uxil
▁70%
▁bio
▁scat
▁snow
▁Saudi
▁death
▁lists
▁precip
learning
uxiliary
▁tickets
▁detected
▁titanium
▁expensive
▁secretary
▁Application
▁participant
▁secretariat
▁Commissioner
▁cooperatives
▁electromagnetic
ESC
bas
▁cold
▁maps
▁semi
▁vote
▁happy
▁leave
▁medal
▁unite
itivity
cultural
▁Finland
▁combine
▁restore
inational
▁Mongolia
▁fulfilled
▁ownership
▁Engineering
▁scholarship
29
gest
▁Dan
▁Egy
▁Red
▁Land
houses
itness
▁walls
▁parade
chronous
▁British
▁partial
▁propose
▁sulfuric
▁Scientific
▁correction
▁discussing
▁Calculation
-30
rak
▁86
▁Mul
▁flag
▁solv
ysical
▁highl
▁sport
comings
ishment
▁Statis
▁origin
▁destroy
▁rapidly
▁volunte
▁delegates
▁professor
▁continuity
▁contamination
IP
Sh
ba
iety
▁Pre
▁Netw
▁[12]
▁Every
▁behav
▁thank
atories
▁facing
▁loading
▁Sultanov
▁climatic
▁division
▁biometric
▁classified
▁developers
▁filtration
▁replacement
▁recreational
▁stabilization
uh
esh
▁194
▁AND
board
▁[10]
▁ball
▁plot
wealth
▁adopt
▁exped
▁track
ecutive
ologist
▁voters
▁formulas
▁strategies
▁wavelength
▁businessmen
▁disadvantages
ny
ala
urt
▁69
▁Av
uble
▁Bor
▁cul
▁mag
scope
▁blue
▁defic
▁seeds
▁strip
keeping
▁Common
▁driver
▁Diagram
▁periods
▁advertis
▁accelerated
85
ush
▁Ay
▁KZ
▁Si
Turk
▁Fur
▁pair
▁Enter
▁alone
▁emuls
▁frame
▁later
▁trees
▁yield
isition
▁sowing
▁illegal
▁Sciences
▁refining
▁obstacles
▁attractive
▁navigation
▁macroeconomic
▁CH
enko
ynom
▁14,
▁Doc
▁song
▁meter
▁convey
▁europe
▁labour
▁subscr
▁Eurasia
itzerland
▁soldiers
▁auxiliary
▁deviation
▁legalized
ultinational
ume
▁Pe
▁ba
Expo
orsk
tier
▁ICT
dered
▁Myrz
▁Altai
▁acous
▁laser
ynomial
▁random
▁Studies
▁genetic
frequency
tribution
▁quantity
▁intention
▁programmes
▁Universiade
urb
fers
pect
▁try
▁uns
▁drop
▁2020"
▁Basic
▁opera
areness
▁Intell
▁effort
▁filled
▁undergo
▁Students
▁Including
▁multinational
▁standardization
36
di
ESCO
▁pup
▁biom
▁cere
▁Putin
▁Their
astered
unately
▁mixing
▁update
▁bacteria
▁overhaul
▁maslikhat
▁transparent
▁contaminated
▁shortcomings
▁simultaneously
DP
cles
nish
room
ymer
▁Gul
▁Sub
▁bed
▁sac
▁2008
▁glad
ighted
▁posts
▁toxic
anguage
▁mental
▁spectro
▁interloc
▁speaking
▁dispersion
▁separately
75
Cl
ady
▁62
.5%.
opar
psum
▁Party
▁Treat
▁Where
▁little
▁Address
▁Lithuan
▁crystal
▁essence
▁largely
▁replace
▁whether
▁exposure
▁mastered
▁observer
▁simplify
▁commander
▁molecules
▁Conference
▁particularly
▁functionality
▁[4
rome
▁Dzh
▁mel
atomp
eries
razil
▁camp
inistr
▁Relig
▁locom
▁prove
▁title
▁excell
▁treaty
atomprom
▁borders
unication
▁talented
▁metropolis
▁securities
▁centralized
min
▁96
▁FOR
▁amb
▁mal
▁saw
khash
romet
▁twice
▁multif
▁really
▁termin
▁allowing
▁Innovative
▁protective
▁simplified
▁peacekeeping
aya
▁Dem
▁arg
▁keep
▁quite
▁recor
umbayev
▁UNESCO
▁cotton
▁appeals
▁charity
▁typical
▁Election
▁interact
▁overcome
▁replaced
▁pavilions
▁dictionary
▁relatively
▁delegations
ket
brid
expo
ulty
▁12,
▁Est
ester
▁Anti
▁Mark
▁true
▁asked
▁sense
▁shares
▁wholes
▁sometimes
▁accelerate
▁laboratories
▁Extraordinary
▁Modernization
mor
▁84
aeva
conn
glom
▁(3)
▁Che
▁skin
▁touc
▁turk
▁vacc
▁vess
agraph
▁ammon
▁fluct
▁Region
▁ancest
▁graphs
▁passes
echanical
▁accompan
▁didactic
▁Depending
▁Convention
▁Employment
▁democratic
▁flexibility
box
▁IP
▁MS
agan
▁Geo
▁goes
▁keys
▁archae
▁comply
▁Victory
▁Physical
▁amending
▁everyday
▁operates
▁realized
▁vegetation
▁Switzerland
▁advertising
▁forecasting
▁journalists
▁concentrated
▁microdistrict
73
:00
rev
▁93
alia
bage
▁KZT
▁roll
elling
▁Group
▁audio
▁awards
▁dissol
▁though
iability
▁adapted
▁managed
▁mobility
▁evolution
▁expertise
fortunately
▁harvesting
▁proceedings
▁automatically
Zh
ilic
▁170
▁80%
ifier
inity
▁Akim
▁Next
▁Only
▁Prov
▁Year
▁aged
▁fate
▁loop
▁mini
ulates
▁Serbia
▁assist
▁compat
▁relief
▁russia
▁joining
▁vehicle
▁instruct
▁proposes
▁restored
▁classical
plementation
▁Determination
▁comprehensively
Fe
lin
▁ED
atov
best
odal
pass
▁30,
▁que
comes
▁Arch
▁Zhol
▁dism
▁tank
▁west
▁agent
akistan
▁Compar
▁Support
▁Theater
▁condens
▁peasant
▁planted
▁chloride
▁complain
▁flexible
▁occurred
▁successes
▁deviations
do
hko
hor
▁kW
irov
▁104
ashev
ifies
irtau
olden
▁Lead
▁Plen
▁dear
▁2011,
▁Autom
▁artis
▁cheap
▁parks
riction
▁analog
▁column
▁Competi
▁Housing
▁parking
▁radical
▁realize
▁Amending
▁declared
▁packages
▁discusses
▁polynomial
PI
avlov
cling
ubric
ogorsk
▁Order
▁pipes
▁Global
▁bottom
▁quartz
▁scales
▁geometry
▁membrane
▁irrigated
▁regulated
▁autonomous
▁reconstruc
▁servicemen
▁oscillations
omb
▁4)
osis
▁Gas
▁Loc
▁Mem
power
▁surg
urated
▁absol
▁never
▁salary
▁talked
▁twenty
▁Concept
▁burning
▁unknown
▁acquired
▁discrete
▁honorary
▁diversity
▁forecasts
▁Issekeshev
▁transformations
UL
ira
que
▁5%
aught
usted
▁Cust
esides
requis
ferrous
▁Budget
▁Samruk
▁capita
▁interf
▁worthy
▁Nations
▁pleased
▁Standard
▁databases
▁economics
▁transfers
▁wholesale
▁affordable
▁veterinary
▁Plenipotentiary
26
.6%.
otal
ulse
▁Rad
▁fle
riots
store
▁tend
usband
▁recip
▁refer
▁Further
▁collect
▁decline
▁modular
▁actually
▁chromium
▁isolated
▁messages
▁awareness
▁conflicts
▁officially
▁revolution
▁acquisition
▁transmitted
bet
set
▁ml
obic
plic
▁15%
▁mic
▁Pers
▁fract
▁loads
▁option
▁shells
▁stated
▁degrees
▁Hungarian
▁celebrated
▁optimizing
▁Legislative
▁comfortable
▁uncertainty
▁displacement
no
▁15,
▁40%
▁60%
ogram
▁Youth
▁blocks
▁deepen
▁drying
▁stream
ethylene
▁touched
▁withdra
plementing
▁containers
▁facilitate
▁sensitivity
▁sovereignty
▁insufficient
SP
▁94
▁Su
arya
rate
▁Acc
▁Kul
▁MPC
▁Two
▁pun
ories
▁2007
▁cult
▁girl
abayev
odetic
▁drain
▁gifts
▁score
ynamics
▁Alatau
▁Brazil
▁circum
▁danger
▁geopol
employed
▁neutron
▁thought
▁defining
▁offenses
▁ordinary
▁regulate
▁Financial
▁Microsoft
▁candidacy
▁placement
▁residence
▁activation
▁publications
EO
aks
ued
.2%.
athe
part
says
▁Big
▁Kap
▁SME
▁dig
acent
▁Doss
storey
▁maxim
▁bureau
▁grades
▁Georgia
▁belongs
▁budgets
▁cellular
▁grinding
▁Ministers
▁machinery
▁prerequis
▁Akhmetzhan
▁developments
AM
Kaz
▁Cu
ders
▁0,9
▁Pop
▁tac
emble
▁gate
▁Syria
▁proud
▁texts
▁turns
inafter
▁narrow
▁panels
▁static
▁summed
▁vacuum
▁victim
cription
▁supreme
▁opposite
▁pensions
▁segments
▁Ukrainian
▁administr
▁formations
▁microscope
▁reservoirs
▁compatriots
▁diagnostics
▁additionally
2%
gic
yes
▁Du
rown
▁29,
▁Silk
▁Ural
▁rose
erview
▁2010,
▁Hydro
▁exact
▁surve
▁attach
▁paying
▁husband
▁january
▁conclude
▁Executive
▁Id
.3%.
ogle
plex
▁Math
▁nano
▁suff
metric
▁firing
▁rector
▁rescue
▁ticket
tainment
▁arrival
▁obvious
▁segment
▁talking
▁behavior
▁improves
▁accompanied
78
tra
▁125
▁160
amins
orgos
tible
▁Know
▁beam
produc
▁Optim
▁athle
▁brain
Russian
▁Zhumag
▁acting
▁invent
▁Network
▁Systems
▁failure
▁passage
▁pumping
▁reinfor
▁accident
▁ventures
▁candidate
▁Republican
▁equivalent
▁identifying
ali
▁2.
▁88
▁[5
ophy
▁Ash
▁Tog
▁bra
▁asia
▁rect
global
hentic
ospace
▁files
▁Report
▁fibers
▁lubric
▁compare
▁nanopar
▁crossing
▁disputes
▁friction
▁selecting
▁implements
▁conferences
▁coordinating
39
4)
bi
lip
mar
tees
▁106
▁25%
▁Dif
▁Idr
▁Ste
ching
▁rise
▁Women
▁coast
▁films
▁Sergey
▁domain
▁except
▁Medical
▁Thermal
▁driving
▁records
▁Massimov
▁requests
▁Resources
▁corrosion
▁preserved
▁enrichment
▁compositions
▁accessibility
▁entertainment
▁representation
▁79
▁pum
aliev
ously
▁spon
orters
▁House
▁White
▁facts
▁fluor
▁going
▁moved
▁plots
actions
▁diamond
▁residue
aksybekov
▁Malaysia
▁Pakistan
▁coatings
▁polymers
▁triangle
▁ancestors
▁Independence
AK
bank
kind
▁3.5
▁MPa
▁bad
ovich
▁late
▁pool
▁tell
▁config
▁winner
▁Society
▁aqueous
▁leasing
uneration
▁Planning
▁acoustic
▁adjacent
▁diplomas
▁drawings
▁holidays
▁thoughts
▁visiting
▁belonging
▁carefully
▁customers
▁terrorist
▁utilities
hereinafter
▁Zhezkazgan
▁confection
▁professions
▁Participants
▁metropolitan
▁transnational
6.
ger
▁sn
aper
ores
ovol
▁195
▁26,
eting
oring
▁Acts
▁City
▁Open
▁folk
stable
▁Power
▁Recon
▁adequ
▁lamps
▁theat
forming
stances
▁ethics
▁played
▁sessions
▁continent
▁designing
▁excellent
▁acceptance
▁consistent
▁hydrolysis
▁governments
▁kazakhstani
▁qualitatively
5)
conc
rect
▁90%
▁Bol
▁Vis
▁tel
chest
odern
▁lost
▁scen
▁Abdra
▁Graph
▁yeast
▁cancer
▁father
▁filler
essional
ractions
▁applies
▁ceramic
▁mankind
▁masters
▁mothers
▁startup
▁employer
▁opinions
▁expedition
▁stimulating
34
IM
inf
ota
ral
▁Na
▁SC
OLOG
prof
▁Park
▁crew
▁elev
change
▁eight
▁faced
▁knows
▁matte
▁agglom
▁believ
▁curves
▁manual
▁quanti
▁Physics
▁brother
▁repairs
▁supplies
▁diagnosis
▁requiring
▁villagers
▁discovered
▁indicating
▁preferential
▁Infrastructure
..
tes
▁pp
adow
▁Sel
lying
prise
▁seism
redited
▁Inform
▁advice
▁barrel
▁permit
▁angular
▁compact
▁complic
▁potatoes
▁sorption
▁discharge
▁warehouse
▁vulnerable
▁remuneration
IL
PU
Ata
lot
raf
▁Ma
erts
uten
▁Fam
▁Hon
▁prem
▁bonds
▁brick
▁cinem
▁hotel
chestra
itoring
▁Fourier
▁grounds
▁looking
▁victims
▁comments
▁geodetic
▁slightly
▁smelting
▁contained
▁recognize
▁Taldykorgan
▁Reconstruction
▁25,
▁Var
point
▁bond
▁dark
abetes
strain
▁dream
▁hands
▁pedag
avlovsk
formity
▁behind
▁burden
▁photos
▁issuing
▁sending
▁tension
▁alkaline
▁husbandry
▁evaluating
▁internship
▁occurrence
▁intersection
▁Supplementing
▁petrochemical
▁Implementation
zing
▁0,55
▁Lake
▁Port
▁root
▁Until
athered
iconduc
theless
▁closer
▁prizes
▁samruk
issenova
▁indices
▁summing
▁answered
▁majority
▁suggests
ropavlovsk
▁technique
▁committees
▁compensation
▁systematically
74
acc
▁AB
▁Fl
▁af
down
lers
oxid
▁(4)
▁105
▁bron
▁miss
▁trib
phosph
▁Tatar
▁array
▁copol
▁sizes
▁Treaty
▁artistic
▁gathered
▁oriented
▁remained
▁vitamins
▁Foundation
▁discussions
▁acceleration
▁satisfaction
▁supplemented
▁simplification
ris
▁89
▁UK
▁aid
▁ign
▁wing
ganese
iaries
▁stars
▁treas
▁tender
▁African
▁compati
▁senator
▁cultures
▁inclusion
▁occurring
▁stationary
▁coordinated
▁penetration
▁transferring
".
ECT
III
agai
book
▁31,
▁MET
▁obs
▁oct
hydro
urric
▁Char
▁Latv
▁cham
akupov
ancies
▁resin
▁across
▁turbul
▁Certain
▁cadmium
▁evening
▁gardens
▁2014-201
▁animation
▁encryption
▁semiconduc
▁trafficking
PS
new
▁61
.4%.
▁115
▁ped
▁por
iques
▁Coll
nament
jectory
▁critic
▁planet
▁pupils
ependent
zumbayev
▁Speaker
▁details
▁suggest
▁visible
▁openness
▁residues
▁allocation
▁presidents
ID
RC
gaz
oty
utch
anged
droid
endar
kelet
umber
▁lake
ierarch
orative
▁Arabia
▁Nurlan
▁extent
▁Kingdom
▁learned
▁hygienic
▁graphical
▁happiness
▁adsorption
▁monopolies
▁motivation
▁correlation
▁cylindrical
▁confectionery
lon
.1%.
rist
▁NPP
▁PRO
antum
isive
▁rear
▁atoms
▁bases
▁shift
Western
▁performs
▁residual
▁senators
▁collecting
▁reinforced
ms
▁PH
▁fa
tify
▁18,
▁2-3
inant
jects
phase
▁0,48
▁Alma
▁foun
erator
ponent
▁calls
▁delay
▁marks
▁night
▁Middle
▁aktobe
▁remove
hibition
▁Android
▁venture
▁Balkhash
▁absolute
▁sediment
▁converter
▁existence
▁telephone
▁Electronic
▁countering
▁trajectory
▁correctness
▁geopolitical
▁nanoparticles
osh
▁IC
▁ha
akol
gage
resh
▁XXI
adium
pidem
pling
▁Soft
▁purs
assium
▁Karim
▁Paris
▁cable
▁guard
▁assemb
▁decade
▁enters
▁occupy
formance
▁neutral
▁receipt
▁agrarian
▁enriched
▁algebraic
▁fractions
▁furniture
▁Suleimenov
▁negatively
38
eg
aza
clin
tite
▁CEC
▁Sal
▁Syr
▁lik
▁pic
▁too
-2014
ailov
ergen
ograp
▁tree
▁sheet
▁thres
oskelet
▁Master
▁Rights
▁joined
▁stores
▁carries
▁inverse
▁sorbent
▁welding
▁exercise
reditation
▁interconn
▁regularly
▁statehood
temperature
▁communities
▁dissemination
▁archaeological
oshy
▁196
▁Sun
▁agg
▁cis
▁joy
esium
imide
ondon
tered
tious
▁METH
▁edge
ieties
tained
visory
▁Indic
▁Timur
▁incom
▁tight
ditions
iratory
plicity
thermal
▁camera
▁hybrid
▁uneven
▁kinetic
▁chambers
▁diabetes
▁executed
▁broadcast
▁directors
▁Population
▁continuing
▁controlling
▁transactions
32
DM
yb
mic
off
rla
yan
▁Lo
ilev
itud
opes
post
▁103
▁cab
ender
icted
▁0,49
▁Aral
▁[11]
▁race
▁sort
▁fluid
▁Identi
▁forums
▁resort
▁yellow
ioration
▁engines
▁farming
▁gradual
▁permiss
▁writing
▁decisive
▁spending
▁Relations
▁authentic
▁generally
▁movements
▁demographic
ker
pped
▁cos
▁ton
ields
ympto
▁0,47
▁Comb
▁Heat
▁carb
▁lies
▁mind
alytic
itures
▁ahead
▁arbit
▁girls
▁wheel
related
▁METHOD
▁quarry
▁spaces
▁taught
▁Nuclear
▁Commerce
▁balanced
▁incoming
▁outcomes
▁reactors
▁wireless
entilation
▁voluntary
▁consulting
▁exposition
▁retraining
▁techniques
▁undergradu
▁fluctuations
▁reconstructed
SA
▁("
▁1%
▁IV
arka
roph
▁Any
▁LED
▁rid
asion
stage
▁Node
▁SMEs
abolic
asters
▁Yesil
▁Google
▁palace
▁museums
▁observe
▁viscous
▁Recently
▁clothing
▁sorbents
▁entrusted
▁paragraph
▁accredited
▁fulfilling
3/
HR
ao
nas
vol
hene
uous
▁13,
bound
idden
▁corn
▁disk
▁recy
▁guest
▁sheep
ocation
▁Before
▁gender
▁hotels
▁philos
▁prosec
▁varies
▁Customs
▁lifting
▁witness
September
▁Mukhamed
▁unstable
▁Processing
▁interfaith
▁regression
▁outstanding
▁expenditures
";
65
▁Do
onia
pose
▁16,
▁[1-
▁ecu
▁shr
andon
▁phyt
irtual
▁2012.
▁Space
▁grate
▁incor
▁owner
Chinese
essment
▁Change
▁parent
▁serves
▁enhance
▁reaching
▁conductor
▁landscapes
▁sanatorium
PC
SM
mb
bai
exp
iro
ague
heat
▁Jud
▁Nor
▁ban
▁eye
▁onc
▁unf
▁Swed
▁Heads
▁Major
▁heter
▁saved
inister
▁Finnish
▁carrier
▁shooting
▁libraries
▁sentences
▁eliminating
▁observation
▁characterizes
EG
OH
Cor
.8%.
enth
pret
used
▁Den
▁scr
▁0,53
▁Mold
▁Rail
▁nerv
morrow
▁falls
▁spend
▁trial
▁epidem
▁fisher
▁kaznex
▁massif
▁oxides
▁besides
▁cheaper
▁garbage
▁musical
oshybayev
▁Austrian
▁Idrissov
▁taxation
▁telegram
▁Improving
▁intervals
▁suppliers
▁background
▁influenced
▁quantities
▁subsidiary
▁modification
▁deterioration
zo
ORM
ora
ucl
zym
▁82
▁Ly
▁gy
tian
▁III
▁Sch
▁Sur
▁USA
▁ski
ammad
inger
▁Disc
▁Sign
▁imag
▁khan
ensing
▁1,500
▁dance
▁spons
ersburg
organic
▁checks
esterday
▁abandon
▁liquids
▁sulphur
▁compress
▁exhibits
▁occupied
▁tomorrow
▁protocols
▁conformity
▁linguistic
▁repeatedly
▁synthesized
▁civilization
▁physiological
...
▁ep
▁1.7
▁197
▁Ele
▁Exp
▁LLC
▁mis
anish
stood
▁aims
▁copy
▁breat
▁arises
▁button
▁neighb
othermal
▁Austria
▁Indones
▁quantum
▁thirdly
▁polyclin
▁Bakytzhan
▁carbonate
▁comparing
▁electroly
▁yesterday
▁accessible
▁similarity
▁evaporation
▁authoritative
9.
▁92
atyr
reet
▁Dal
▁Ter
▁Way
▁fro
agash
ordan
▁abst
▁atom
▁stay
preced
▁notes
▁vital
otional
▁agents
▁aspect
▁bronze
▁degrad
▁desert
▁phased
▁diploma
▁running
▁painting
▁resident
▁destroyed
▁involving
▁justified
▁ourselves
▁workshops
precedented
▁instruction
▁configuration
98
ICS
ras
rav
sol
aken
crib
stry
▁450
▁Sar
arity
othes
trary
▁0,46
▁exit
rupted
▁Along
▁nanoc
▁pairs
▁plate
▁valid
▁defend
▁subord
ithmetic
▁washing
ibusiness
▁conducts
▁customer
▁graphite
ynchronous
information
▁describing
▁perception
▁concentrate
▁circumstances
")
Th
du
ips
zhar
plete
▁0,51
▁dias
erical
▁Aktau
▁Opera
▁Total
▁arsen
▁London
▁blades
▁metric
▁orphan
▁contrary
▁pedagogy
▁scanning
▁theories
▁divisions
▁engineers
▁automotive
▁parametric
▁constructing
TS
▁eld
▁gel
aling
betov
educe
▁evac
▁fell
▁frat
▁iner
▁Semey
▁Urals
▁fleet
▁lakes
▁serge
Capital
capital
▁Colonel
▁Karatau
▁mastery
▁picture
▁renewal
▁Software
▁educated
▁versions
▁Knowledge
▁liability
▁monitored
▁packaging
▁resolving
▁Petersburg
▁complaints
▁convenience
▁distinguish
▁Petropavlovsk
▁visualization
31
fr
kib
.9%.
ache
▁Ili
▁sin
▁Euro
▁Requ
▁surv
Astana
elecom
▁Initi
▁asset
▁euros
▁inhab
▁outer
▁roots
▁Palace
▁invite
▁island
▁laying
▁robots
▁strive
▁Abishev
▁Windows
▁approve
▁constit
▁gaining
▁revised
▁smaller
urricular
▁Together
▁diagrams
▁holdings
▁injection
▁organisms
▁synthetic
▁fulfillment
▁irradiation
▁ventilation
64
-40
azh
dif
▁3%
▁71
▁81
▁ID
FORM
haus
rows
uses
▁000
▁102
▁Pos
chlor
dybek
imary
onite
where
▁0,43
▁0,52
▁York
border
scopic
▁Serik
▁dated
▁embank
▁funded
novation
▁cereals
▁incomes
▁grateful
▁hierarch
▁remember
▁dimension
▁diplomacy
▁electrons
▁perceived
▁elementary
▁expectancy
▁volunteers
▁derivatives
▁preparatory
▁performances
▁consolidation
▁interlocutors
▁unprecedented
Em
eu
kel
.7%.
itew
ster
▁190
▁mud
affin
itors
▁Prac
▁cosm
▁poet
ledged
▁Nodal
▁ambul
▁penal
▁style
ulatory
▁Winter
▁Yerlan
▁centre
▁hydrog
▁magnet
containing
▁collector
▁displayed
▁fertility
▁membranes
▁sincerely
▁permissible
▁Commonwealth
td
fil
ham
win
▁Xi
city
mail
pers
▁Nik
▁She
▁Vas
▁ask
▁hal
▁tun
cence
plain
▁2021
▁anom
▁gram
▁lawy
entsia
ulosis
umilev
▁enzym
▁munic
▁vivid
-2017."
▁Street
▁deploy
▁divide
▁sacred
▁Federal
▁crystals
▁catalysts
▁addressing
▁institutes
▁lubricants
▁modernized
▁communicate
▁nutritional
▁extraordinary
▁precipitation
▁intelligentsia
UC
UN
ea
bac
uez
apes
prec
rose
▁MAT
▁sti
aring
oding
osion
▁Slov
▁neur
▁pipe
anging
flower
▁enlar
▁neuro
▁tours
eternal
itewash
ographs
osphere
▁Server
▁Theore
▁aggreg
▁golden
▁deficit
▁diaspor
erculosis
including
▁assessed
▁producer
▁appreciate
▁politicians
▁universiade
fl
ano
gro
reek
▁1,4
▁1.2
▁rod
adian
astuz
ffect
ronic
▁bulk
bayeva
hesion
public
▁slags
khmanov
▁Baibek
▁Mobile
▁brings
▁Maximum
▁asympto
▁deliver
concluded
▁boarding
▁calendar
▁graduate
▁Algorithm
▁Lithuania
▁admission
▁explosive
▁fraternal
▁Duissenova
▁Nigmatulin
▁Sagintayev
▁profitable
▁Integration
▁progressive
tt
ele
rast
real
▁21,
▁220
▁Bur
▁fel
relig
ynthe
▁[13]
elines
illary
inping
unding
▁Other
▁Satpa
▁queue
fledged
▁assumed
▁assured
▁desired
▁dismiss
▁focuses
▁seismic
▁vectors
▁attached
▁strictly
nazarbayev
▁converted
▁disasters
▁manganese
▁orchestra
▁arithmetic
▁permission
▁systematiz
▁cultivation
▁oscillation
▁polyethylene
33
En
▁3.
irty
▁1.6
▁ADS
▁Kum
erage
unaig
▁cruc
▁ends
▁nine
▁tube
achine
zation
▁Colle
▁pride
finance
▁engage
▁sponge
▁arrange
▁chromat
▁thereby
▁Olympiad
▁Protocol
▁airports
▁overview
▁committed
▁hazardous
▁interpret
▁mechanics
▁southeast
▁statements
▁convocation
▁inefficient
▁globalization
▁contradictions
99
OS
su
ney
▁5)
▁HT
iode
ymph
▁ber
opper
seeds
urban
▁Inde
▁arms
▁died
irates
overty
ucture
▁anten
▁dried
▁ellip
▁slope
nership
lamation
▁College
▁Various
▁honored
▁analyses
▁Australia
▁polyimide
▁Regulation
▁Statistics
▁continuously
▁intensifying
▁transporting
2.
ann
▁SD
▁TB
▁aa
▁zo
abek
anim
orge
urov
▁Lab
▁RES
▁fab
▁hole
▁orth
ovolta
▁Prize
▁blade
▁brown
▁orbit
▁paths
istence
▁Access
▁Member
▁Mother
▁attend
▁giving
▁phones
▁unions
itudinal
▁Eastern
▁Romania
▁biomass
▁decades
▁schemes
▁ensemble
▁guidance
▁hypothes
▁ratified
▁speakers
Corruption
▁bakytzhan
▁exoskelet
▁saturated
▁Monitoring
▁understood
▁accreditation
NA
▁/
ulf
▁1-
▁Gl
▁PP
agad
▁(5)
▁tet
▁dram
▁exha
▁birds
▁honey
▁minor
▁moves
ectonic
station
▁Jordan
▁adoles
▁bakery
▁infant
▁strain
▁trying
▁America
▁serving
▁2016-201
▁collabor
▁greatest
▁oilseeds
▁railways
▁mountains
▁municipal
▁threshold
▁Educational
▁Traditional
▁unification
▁Myrzakhmetov
CE
sat
van
▁IE
acry
ptic
step
▁(6)
apers
irect
▁Prep
istory
▁holes
working
▁deform
▁forget
▁gather
▁listed
▁notice
▁thread
▁crushed
▁differs
▁exposed
▁gravity
▁heights
▁landfill
▁reagents
▁analogues
▁graduated
▁potassium
▁reforming
odernization
▁definitions
▁electronics
▁thermodynamic
▁professionalism
68
OC
TP
zz
mas
zen
Nrla
ener
▁3-4
▁SiO
▁TRA
▁meg
▁org
▁wise
▁Local
▁marat
▁refin
▁Proced
▁cadets
▁dishes
▁Project
▁amended
▁drivers
▁fillers
▁terrain
▁although
▁circuits
▁emerging
▁historic
▁inventory
▁compressed
▁federation
▁experiences
▁investigate
▁subsidiaries
▁Representative
IR
bod
ius
▁ka
bert
tras
▁19,
▁4.5
▁Bar
▁Lar
▁gym
▁hun
light
order
otrop
payev
shara
▁0,56
▁meth
called
▁Egypt
▁empty
▁helic
▁horse
▁nomad
▁polar
▁pumps
▁cavity
computer
ovoltaic
▁Average
▁Content
▁auction
▁mapping
▁poverty
▁surgery
▁toponym
▁uniting
▁vessels
▁Language
▁champion
▁synchron
▁treasury
innovative
▁Structure
▁ambulance
▁dependent
▁electrode
▁essential
▁Considering
▁subsidizing
▁mobilization
▁spectroscopy
▁agglomeration
▁hydroelectric
▁congratulations
▁extracurricular
▁Ed
ette
oper
tium
tron
ubai
uchy
uren
▁Mer
▁gap
adays
ensus
fills
▁Abai
▁feas
▁ring
▁vast
▁Coord
▁Never
▁cyber
▁ended
iration
▁chains
▁cheese
▁closure
▁formats
▁helicop
mentioned
religious
▁Dossayev
▁Features
▁Services
▁granules
▁literary
▁copolymer
▁radically
▁sunflower
▁capacities
▁formulated
▁sequential
▁tournament
▁degradation
▁practically
▁presentations
bs
iat
raw
▁2%
▁Bl
▁Ku
▁ON
▁kh
card
▁280
▁Her
▁Rev
▁gam
▁lib
INING
amara
garia
ijing
illed
▁jury
▁nurs
▁recr
▁Petro
▁antim
oleptic
▁Africa
▁Analyz
▁detect
▁sewage
business
kibastuz
▁disturb
▁earthqu
▁rectang
▁checking
▁coincide
▁contrast
▁drainage
▁injuries
▁reproduc
▁numerical
▁vacancies
econference
▁Assessment
▁traditionally
3%
MA
.00
alk
att
oye
tur
ubs
▁DB
crip
▁101
▁23,
▁glo
auryz
ither
orses
▁Food
▁Sout
▁lamb
▁lith
▁whom
bility
ieuten
inates
▁2019.
▁Three
▁crude
▁dense
▁inner
▁judge
▁parad
▁redis
▁shoes
▁taste
▁wrest
▁Indian
▁autumn
▁worker
commerce
location
▁getting
▁prevail
efficient
▁awarding
ecological
▁Indonesia
▁discovery
▁inclusive
▁satisfied
▁varieties
▁governance
▁landscaping
▁modernizing
▁longitudinal
db
-25
las
▁1:
▁Es
tysh
word
▁17,
▁202
▁240
▁28,
▁EHR
▁Eth
▁ant
▁dro
▁net
▁2006
▁Bish
▁Phot
▁[14]
▁astr
▁auto
▁away
▁Cloud
▁Solar
▁Temir
▁attem
▁lived
▁tanks
pliance
▁ballet
▁slopes
▁courage
▁doubled
▁federal
▁orphans
▁Material
▁Solution
▁legality
▁stresses
▁factories
▁mediation
▁maintained
▁importantly
▁supervisory
▁confirmation
▁morphological
▁familiarization
▁pharmaceuticals
HN
uth
▁[6
alse
grow
west
▁(18
▁175
▁230
▁Mur
▁kul
paper
▁0,45
▁Cent
▁calm
▁stic
▁tiss
▁bands
▁guide
▁motiv
▁relax
▁templ
pective
veloped
▁adsorb
▁gypsum
▁heroes
▁latter
▁liquef
▁marked
▁octane
▁plates
▁causing
▁educate
▁hearing
▁license
▁morning
▁nervous
▁storing
▁Creation
▁Geograph
▁airlines
▁alliance
▁fragments
▁magnesium
▁worldwide
▁characters
▁comparable
▁reclamation
▁respiratory
▁Nevertheless
▁asynchronous
▁proportional
▁manifestation
▁semiconductor
----------------
▁intensification
48
SS
avt
▁EM
cons
hers
piec
type
▁Gre
▁Kus
▁Nov
▁mir
▁pit
inent
ormal
posed
▁arts
▁benz
▁grav
▁mail
▁roof
August
ashing
ayment
inging
▁2050,
▁Altyn
▁Darya
▁finis
▁grids
▁juice
▁reson
▁trips
ashkent
▁INFORM
▁editor
izations
▁Virtual
▁battery
▁disclos
▁nations
▁sorting
▁turning
ciousness
ieutenant
▁believes
▁disaster
▁hundreds
▁reviewed
Employment
▁exception
▁highlighted
▁Abdrakhmanov
▁differentiated
37
Ak
BR
IES
Pro
▁Py
icts
utic
view
wise
▁Non
▁fit
▁hyd
plant
ungan
▁2004
▁eyes
▁incl
▁mood
▁oral
liness
▁Swiss
▁immun
▁novel
rometer
▁2020,"
▁Cauchy
▁Latvia
▁Number
▁cinema
▁discon
▁linked
▁nurlan
▁proves
▁traine
▁Country
▁Figures
▁Through
▁diverse
▁edition
▁founded
▁stopped
▁Concrete
▁Malaysian
▁saturation
▁warehouses
▁subordinate
▁unfortunately
Hz
LE
OP
YS
ICAL
iany
itim
oses
▁1.3
▁Dar
▁Kab
▁Out
depth
first
ticed
ullah
▁Kazk
▁ahko
▁seek
Soviet
ailand
amping
athlon
▁fresh
▁halls
▁uncon
ameters
▁Syrian
▁artist
▁microb
▁wishes
ermanent
▁erosion
▁moments
▁targets
effective
ophysical
precision
resistant
▁TRAINING
▁diaspora
▁emulsion
▁emotional
▁photograp
▁turbulent
▁Enterprise
▁Experiment
▁Simulation
▁adjustment
▁modulation
▁frequencies
▁microcontrol
▁observations
▁tuberculosis
▁cryptographic
1.
ashk
rape
thes
▁rig
OLOGY
rafts
▁king
odrome
terror
▁aware
▁tract
▁wants
▁organs
▁Complex
▁Israeli
▁flowers
▁printed
ergencies
▁automate
▁inclined
▁neutrons
▁numerous
▁Permanent
▁switching
▁whitewash
development
▁asymptotic
▁morphology
▁scattering
▁utilization
▁prerequisites
mm
odor
rupt
unov
▁Bir
▁Kok
grade
rants
▁[15]
urpose
▁Dutch
▁Liter
▁Multi
▁Tenge
▁songs
ascular
ecember
▁speaks
▁stones
▁therap
inematic
▁casting
▁paradig
▁Cultural
▁matrices
▁rotating
▁sponsors
▁straight
▁diplomats
▁exclusive
▁poisonous
▁projected
▁replacing
▁resistant
▁Increasing
▁feasibility
▁respondents
▁transformer
▁Agricultural
▁photovoltaic
▁supplementing
▁Classification
3;
We
ola
▁ww
atch
estr
ucas
▁Act
▁Dev
▁GDP
▁mid
▁wet
ersed
▁buck
▁vary
Almaty
author
▁Greek
▁Large
▁extra
logical
▁Bureau
▁Consum
▁Family
▁fabric
▁freely
▁steady
▁tunnel
standard
▁Student
▁adverse
▁chronic
▁nitrate
▁russian
▁servers
▁Bulgaria
▁Creating
▁gradient
▁shopping
▁withdraw
▁Procedure
▁Religious
▁nominated
▁screening
▁simplicity
▁intervention
▁interconnected
De
era
kum
inet
zhip
▁Rob
▁bis
▁pel
▁pig
azing
eline
ethyl
ifted
licit
ucose
▁0,57
▁draf
▁2009,
▁Amend
▁faith
▁false
▁fuels
▁infra
UCATION
ectious
ificant
▁Aliyev
▁helped
▁hydrod
▁rising
arinzhip
entation
▁Spanish
▁satisfy
bassadors
▁chairmen
▁enlarged
▁addresses
▁Abishevich
▁Scientists
▁prosperous
▁suspension
EV
dm
eks
got
lav
▁7%
▁Sk
▁Ze
▁az
▁ko
▁kt
June
auyr
igen
ivic
pted
sing
▁1.4
▁108
▁Ens
▁Fac
▁Mak
▁Sev
▁vap
▁ven
cript
▁0,60
▁Belg
▁crac
▁lens
▁rays
▁rent
ermany
▁Steps
▁arose
▁trace
verages
▁decide
▁distil
December
rapeutic
▁Gumilev
▁closing
▁filters
▁Canadian
▁Electric
▁compound
structured
▁EDUCATION
▁batteries
▁dissolved
▁exceeding
▁inorganic
▁optimized
▁undergone
▁workplaces
▁replenished
58
6)
LP
dp
ml
UPU
▁SP
agin
food
roid
▁(17
▁Fil
▁Log
▁Mad
▁NAS
▁Rem
andyk
cents
iates
proof
shift
usoid
▁0,54
▁1995
▁ease
▁ment
etence
istors
omorph
▁Activ
▁Peace
▁While
▁acute
▁arous
▁doubt
▁pyram
▁stops
▁exclud
▁larger
▁steels
▁unanim
▁Section
▁clothes
▁intense
▁restaur
▁rolling
ianyungan
▁Children
▁Measures
▁ammonium
▁attaches
▁counting
▁cylinder
▁european
vironments
▁wrestling
▁clustering
▁complement
▁disability
▁publishing
▁inclination
▁sufficiently
▁interpretation
3.
47
EF
He
ply
▁91
aped
lies
▁27,
osmos
▁Aksu
▁marg
encing
iology
otives
▁datas
▁doors
▁ideal
▁verte
▁copies
▁horses
▁leaves
▁ultras
▁unites
▁videos
ectivity
▁cameras
▁inhabit
▁leaving
▁sensing
education
▁Although
▁Berdybek
▁Thailand
▁consumed
▁molecule
▁oxidized
▁challenge
▁detecting
▁explosion
▁recycling
▁welcoming
▁workplace
▁Amendments
▁Partnership
▁explanatory
▁expressions
▁teleconference
▁undergraduates
-50
enn
ios
tia
ura
▁2-
▁AT
alin
wave
▁Hel
▁Set
▁bey
▁fod
▁orb
ikhan
oleum
▁0,65
▁Omsk
imming
school
stance
▁inhib
zhanova
▁Comput
▁Having
▁Uralsk
▁adding
▁brands
▁hidden
ilingual
▁Beijing
▁Ecology
▁ferroal
▁founder
▁hectare
▁welcome
▁Northern
▁download
▁kinetics
▁memorial
▁outgoing
▁tactical
▁Economics
▁breathing
▁designers
▁encourage
▁incidence
▁normative
▁poisoning
▁regulates
differential
▁Azerbaijani
▁Temperature
▁locomotives
67
DF
km
aeu
oly
atom
▁(7)
▁abd
▁dog
▁hab
▁lag
▁mes
▁shu
▁ult
ategy
▁Soil
▁mukh
acific
irical
▁Citiz
▁Maple
▁Media
▁amino
▁chick
▁inval
▁older
process
▁Commun
▁Sweden
▁fellow
▁namely
▁prison
▁proven
▁stimul
▁boilers
▁impress
▁metabol
▁minimal
▁showing
▁soldier
▁solvent
Nursultan
▁doctoral
▁excluded
▁indirect
▁precious
▁proteins
▁theaters
▁activated
▁capillary
▁extension
▁variation
Information
▁accurately
▁Measurement
▁arbitration
▁constructed
▁simplifying
▁environments
▁gasification
▁participates
▁substitution
▁transmitting
69
hi
For
can
▁Tu
▁Ul
▁Up
acet
aryn
▁22,
▁Ait
▁bag
▁gal
▁tow
oured
trium
▁Kair
▁spin
▁thor
-2020.
elfare
▁Andre
▁Veter
▁surro
anitary
factory
tifying
uhammad
▁Irtysh
▁adults
▁akmola
▁fodder
▁inflow
▁wanted
anctions
auyrzhan
irements
tization
▁acidity
▁centres
▁clarify
▁greatly
▁Modeling
▁displays
▁prevents
▁salaries
▁silicate
▁Strategic
▁governing
▁liquefied
▁organizer
▁cooperative
▁explanation
▁radioactive
▁conventional
▁disadvantage
▁manufacturer
▁Communication
▁understandable
44
ESS
Gen
ado
ana
apl
ece
mod
mys
ste
▁107
▁Agr
▁GAZ
▁Kam
▁gly
▁www
story
ubile
▁Dmit
▁Harm
▁gene
▁hair
▁item
▁lose
▁Rules
▁civic
▁voter
nogorsk
ounting
through
▁Decree
▁extend
▁finger
▁honest
ecessary
▁explore
▁glucose
▁hydroph
▁utility
▁wishing
▁internet
▁issuance
▁paraffin
authorized
▁phosphate
▁stabilize
▁worldview
▁historians
▁incomplete
▁ambassadors
▁therapeutic
▁representing
NO
iph
tys
▁CD
▁TV
▁ai
arsh
prop
▁1.8
▁Rus
anova
bulak
group
▁0,41
▁Inst
▁Phil
▁nozz
▁taxp
points
▁Level
▁Third
▁chose
▁march
▁moder
▁paint
▁reads
service
▁beyond
▁cathod
▁ranges
▁granted
▁builders
▁entrance
▁examines
▁nowadays
▁yourself
arinzhipov
▁accompany
▁filtering
▁isolation
▁oxidizing
Development
interrupted
▁2017-2018.
▁Ministries
▁infectious
▁pensioners
▁presenting
▁Informatics
▁adolescents
▁Distribution
▁communicative
▁demonstration
▁Constitutional
▁interreligious
55
300
LIC
def
▁BC
agon
aman
atab
imil
life
ragm
rote
▁24,
▁KAZ
▁ait
▁cup
▁lad
▁ont
eless
inite
▁0,58
▁Eval
▁gaps
▁wild
Sultan
iatric
▁faces
▁fines
▁olymp
▁ships
Turkish
ighters
▁Muslim
▁depart
▁hydrox
▁multic
ausoleum
ynthesis
▁adviser
▁archive
▁derived
▁placing
▁reviews
▁windows
▁Intellig
▁Satpaeva
▁combines
▁forestry
▁interpre
▁licenses
▁maternal
▁validity
▁certainly
▁exporters
▁memorable
▁neighbors
▁sanctions
▁acceptable
▁embankment
▁personally
▁sanitation
▁arrangement
▁inhabitants
▁justification
▁authentication
2-
IG
Str
gas
iid
nis
uzz
▁SO
berg
more
uler
▁Not
▁arc
▁hex
▁jun
March
▁0,66
▁0,67
▁COMP
chenko
integr
phones
▁Asset
▁camps
▁proof
▁weeks
illance
ritical
▁Akorda
▁Mining
▁Proper
▁Struct
▁angles
▁disapp
November
herbayev
▁Machine
▁charter
▁convert
▁descrip
▁embassy
▁fractal
▁linking
▁summary
▁textile
▁monitors
▁nutrient
▁tendency
magambetov
ustainable
▁Mukhamedi
▁applicant
▁childhood
▁emphasize
▁extremely
▁incorrect
▁translated
▁emergencies
▁specificity
▁expectations
▁Technological
ewel
iper
okes
olec
stud
▁114
▁EEC
▁zon
ambet
layer
ocial
opoly
▁0,44
▁Conf
▁chap
▁dose
▁oils
▁sett
▁shel
artite
▁elder
▁imped
▁metro
▁rotor
▁stick
entions
▁Norway
▁Safety
▁excurs
▁secure
National
finished
▁compete
▁disconn
▁employs
▁exhaust
itational
▁commands
▁floating
▁frequent
▁ideology
▁promotes
▁properly
▁receiver
▁switched
▁tectonic
department
▁incentive
▁licensing
▁providers
▁Innovation
▁confirming
▁hydropower
▁prediction
▁surveillance
▁Consciousness
▁crystallization
Am
HO
UD
aph
isk
lab
vet
▁Ga
▁Ye
2015
July
anol
apac
exic
ucks
▁2.4
▁95%
▁fis
▁sky
field
metry
ompos
quare
yshev
▁0,62
▁Shan
▁beds
▁eaeu
▁eidu
▁grap
▁iter
▁lamp
▁saus
future
ipment
ximity
▁fairs
▁firms
▁holds
▁lymph
▁tried
▁wires
western
▁Contin
▁couple
▁faster
▁frames
▁guided
▁victor
▁Mineral
▁Problem
▁Summing
▁barrier
▁impulse
▁matters
▁prototy
▁Military
▁fragment
▁sewerage
allurgical
▁activists
▁democracy
▁excessive
▁earthquake
ertification
▁consolidate
▁crystalline
▁subsistence
▁surrounding
▁unanimously
▁uninterrupted
▁Identification
▁epidemiological
63
AO
As
ii
ya
-80
Kar
gat
hin
▁4.
▁da
atin
omer
▁1.1
▁Mil
▁fem
arest
iends
tanov
▁Agro
▁USSR
▁vibr
contin
limate
ortium
▁cance
▁laure
▁shock
▁smoke
▁uniqu
▁Action
▁Carbon
▁Direct
▁arrive
▁entity
▁floors
▁nuclei
generous
▁Opening
▁charged
▁faculty
▁lawyers
▁officer
▁passive
▁sliding
▁sulfate
component
▁Kaztrans
▁adaptive
▁concerns
▁discover
▁engineer
▁graphene
▁paradigm
▁Chemistry
▁aluminium
▁extracted
▁karaganda
▁necessity
▁prominent
▁relatives
▁completing
▁foreigners
▁microscopy
▁popularize
▁recipients
departmental
▁ideological
▁peculiarity
▁unauthorized
▁approximation
▁compatibility
▁correspondence
▁multifunctional
9%
Ar
SO
uri
▁Ap
▁Po
▁ze
lose
▁Aer
▁TEC
▁eco
▁rif
meter
onomy
ptian
smart
▁0,59
▁menu
▁perp
▁synt
aceous
asting
ttrium
▁Nikol
▁carro
▁merit
▁teeth
General
avtodor
changed
imetric
resents
section
ulators
▁Doctor
▁KazUPU
▁easier
▁retain
▁unlike
▁valley
▁History
▁benzene
▁contour
▁holders
▁players
▁reagent
▁Specific
▁freedoms
▁passport
▁aerospace
▁catalytic
▁proximity
▁searching
▁suggested
▁Comparison
▁Vietnamese
▁concluding
▁structured
▁trilingual
▁undergoing
▁hospitality
▁Intellectual
▁reinforcement
▁differentiation
yg
aki
dem
iop
ozo
sil
▁07
▁08
▁Li
▁Ni
▁TO
Best
hydr
iton
itus
▁2.2
▁2.7
▁4.0
▁Kas
▁eeo
▁phr
bolic
ermek
orial
orter
▁0,71
econds
henium
ifiers
ionucl
vement
▁Smart
▁cards
▁clubs
▁ridge
hematic
holders
▁Father
▁bypass
▁intake
▁photon
▁postal
▁Moldova
▁cardiac
▁forests
▁surpris
▁vitamin
▁Secondly
▁generate
▁maximize
▁monoxide
▁obstacle
▁pastures
▁refinery
▁Practical
▁initially
▁partially
▁Laboratory
▁assignment
▁eliminated
▁explaining
▁fractional
▁guidelines
▁Description
▁Kazatomprom
▁nominations
▁Presidential
▁fundamentally
2/
CC
Cr
May
eor
she
▁CR
▁Gr
amen
ench
gots
obel
ropy
▁1-2
▁128
▁320
▁MOD
▁Mor
▁mos
▁rob
itage
▁0,70
▁Auez
▁enem
▁mist
▁urge
▁3,000
▁Guard
▁grows
▁intra
▁magaz
▁plain
aughter
▁explos
▁prohib
bringing
▁Serbian
▁assimil
▁damping
▁digitiz
▁multipl
▁sharing
▁Citizens
▁Olympics
▁Satpayev
▁Tashkent
▁abstract
▁Bauyrzhan
▁borrowers
▁landfills
▁summarize
▁unchanged
▁locomotive
▁Independent
▁limitations
▁terminology
▁transaction
▁Experimental
▁contributing
▁corporations
▁dictionaries
6%
61
CH
-60
600
kas
▁Jo
▁VI
▁[7
acks
ldoz
mukh
▁(9)
▁Mir
▁alg
▁fee
▁sex
abaev
igher
naire
radle
south
ybden
▁1200
▁2022
▁Kash
▁brig
▁caps
▁tens
▁Chief
▁inver
▁reput
▁tetra
entives
ogenous
stanbul
tillery
▁Conduc
▁Effect
▁Farabi
▁deeply
▁nitric
▁rocket
▁speeds
▁starts
February
▁Earlier
▁Railway
▁Working
▁belarus
▁binding
▁ratings
▁soluble
▁Managing
▁charging
▁premises
▁turbines
▁vertices
▁Increased
▁constrain
▁disturbed
▁diversify
▁identical
▁kinematic
▁radionucl
▁terminals
▁Collective
▁Functional
▁automobile
▁predicting
▁projection
▁propaganda
▁refineries
▁throughput
▁volumetric
▁Zhoshybayev
▁biochemical
▁contracting
▁pollination
▁gravitational
▁sustainability
▁synchronization
ama
bar
pus
alov
iant
init
khan
▁Arc
▁Kan
▁Pot
▁gin
allic
ample
ilbek
rison
under
▁1997
▁Ardu
▁Breg
▁Hong
▁Less
▁Time
▁mesh
▁pill
▁rapp
▁scul
Reduce
erated
▁Karak
▁TECHN
▁wrote
ergency
imbetov
onopoly
▁Caucas
▁enable
▁lights
▁shadow
▁shifts
▁tenges
ifically
▁Several
▁grouped
▁football
▁grouping
▁implicit
▁planting
▁violence
electronic
▁biosphere
▁broadband
▁construct
▁fisheries
▁probation
▁evacuation
▁incentives
▁irradiated
▁overcoming
▁Composition
▁dissolution
▁establishes
▁rectangular
▁Requirements
▁Zhumagaliyev
▁organoleptic
43
SE
bus
gle
hyd
▁MI
amil
auty
eper
▁Art
▁Ver
▁iod
▁van
-2016
anche
aties
bolat
ommod
white
▁HTML
▁KazN
▁List
▁STEM
▁Tool
▁asym
▁bicy
▁bike
▁emit
▁rain
▁zher
▁annum
▁flora
▁hopes
▁incub
▁jewel
▁print
▁sixth
ybdenum
▁remind
▁athlete
istration
▁accommod
▁analyzes
▁cavities
▁crushing
▁harmonic
▁particle
▁supplier
▁template
▁treating
▁MapReduce
▁certified
▁clarified
▁clearance
▁mausoleum
▁geodynamic
▁geographic
▁polyclinic
▁reasonable
▁represents
▁tripartite
▁Professional
▁consolidated
MM
bed
cyc
iga
pen
pts
son
uff
yal
▁02
▁OS
▁Ox
▁eu
▁mr
STEM
side
▁(8)
▁109
▁155
▁2.3
▁750
▁Aud
▁CHP
▁PRC
▁bon
▁tor
ovsky
▁Fore
▁Kong
▁biod
▁bits
▁depr
▁desc
▁dorm
▁mell
▁merg
▁rope
▁sail
▁shut
golden
iguous
redits
▁Appro
▁Honor
▁Mexic
▁query
▁quota
▁rails
▁relay
▁votes
estrian
romatic
ubility
ulative
▁Slovak
▁anyone
▁either
▁malign
▁poured
▁tennis
▁thirty
▁geology
▁impacts
▁legitim
▁massive
▁nucleus
▁conveyor
▁december
▁profiles
▁disappear
▁separated
▁suspended
▁attributes
▁bozumbayev
▁electrodes
▁generating
▁solidarity
▁Methodology
▁Preparation
▁documentary
▁intensively
▁nanotechnology
49
62
AG
IF
yc
yp
VID
abs
aft
asm
▁3-
▁4-
enes
idal
sten
well
▁(19
▁Akt
▁Ast
▁Gal
▁Low
▁rej
herom
▁(10)
▁(200
▁0,61
▁0,68
▁0,73
▁Lyap
▁Text
▁Zhas
▁drip
▁mamm
Europe
aplace
munaig
▁Light
▁Young
▁batyr
▁ethno
▁manip
▁naval
▁stret
▁strug
▁Senior
▁Unlike
▁cycles
▁parlia
▁Leaders
▁Product
▁ammonia
▁happens
▁noticed
▁obliged
lications
▁Academic
▁Istanbul
▁Obtained
▁commerce
▁controls
▁furnaces
▁horizons
▁treaties
▁Effective
▁allowance
▁investing
▁Efficiency
▁Literature
▁exchanging
▁generators
▁hypothesis
▁nanocompos
▁satellites
▁upbringing
▁complicated
▁parliaments
▁conditioning
▁urbanization
▁Comprehensive
An
Br
CS
MF
OT
dec
iya
▁Ce
ager
inct
plan
sole
▁112
▁2.1
▁Cup
▁Del
▁bub
▁gul
▁sle
April
iolet
lings
▁1998
▁Book
▁Mikh
▁fees
▁verb
mobile
umines
▁2025.
▁2050.
▁Types
▁[1-3]
▁crews
▁erlan
▁pragm
digital
otropic
▁2020."
▁Greece
▁Higher
▁Search
▁Visual
▁binary
▁buyers
▁exhaus
▁timing
▁unload
▁Arduino
▁barrels
▁profess
▁seconds
▁specify
▁yttrium
ovascular
▁Gulshara
▁infrared
▁mellitus
▁occasion
▁removing
▁sentence
▁sinusoid
▁temirtau
▁Formation
▁advisable
▁compiling
▁concerned
▁regulator
performance
▁stabilized
▁phosphorite
▁sedimentary
▁demonstrates
▁biotechnology
/(
EP
Un
ani
▁pm
late
rens
text
tysu
▁Cub
▁Det
▁Kel
▁Lim
▁bay
▁hem
▁ltd
ashak
nikov
owned
▁Pass
▁bath
▁casc
▁oath
Health
abling
profit
▁Legal
▁Small
▁clock
▁stake
centers
limited
▁Andrei
▁Nature
▁boards
▁fairly
▁flower
▁happen
▁listen
▁repeti
Strategy
▁acquire
▁antenna
▁exclude
▁jewelry
▁leather
▁orbital
▁winding
▁Distance
▁Lyapunov
▁Metrolog
▁Products
▁purified
▁Religions
▁assistant
▁geosystem
▁happening
▁integrate
▁newspaper
▁september
▁Indicators
▁Structural
▁compressor
▁fertilizer
▁harmonious
▁managerial
▁greenhouses
▁preferences
▁kazakhstanis
▁spectrometer
▁harmonization
▁Administrative
aa
aos
aud
▁6%
▁ic
▁ip
▁od
-100
ario
ocks
thon
▁Osp
▁VAT
▁XML
▁dre
adoop
ayers
clock
hetic
ibers
ograd
piece
▁2001
▁Aman
▁Bakh
▁abol
▁spot
aceted
carbon
ffness
rocess
shaped
▁Clust
▁Index
▁Minsk
chloric
uristic
▁Christ
▁Kumkol
▁akhmet
▁beauty
▁liters
▁offset
▁openly
▁shapes
Learning
▁airline
▁ambient
▁bulldoz
▁elderly
intensive
necessary
▁absorbed
▁confirms
▁failures
▁granular
▁minimize
▁revision
▁swimming
▁Character
▁Kassymbek
▁chemicals
▁coalition
▁servicing
residential
▁Activities
▁Fatherland
▁Lianyungan
▁electrocard
▁intensified
▁restriction
▁Calculations
▁notification
▁specifically
▁questionnaire
▁administrations
1%
7%
8%
88
AA
At
-70
aer
ald
col
▁4%
▁BL
▁MB
▁SY
▁Ti
MENT
cour
geon
oice
spec
test
thal
▁5-6
▁DNA
▁tum
ilism
ipher
range
verse
wheat
▁(11)
▁0,39
▁Crim
▁cart
cribed
mented
reason
system
ubilee
uctive
▁Dubai
▁brows
▁clays
▁deeds
▁infer
▁match
▁weigh
initely
▁Establ
▁Studio
▁player
▁triple
▁wheels
iendship
▁careful
▁chicken
▁coolant
▁crucial
▁entropy
▁faction
▁sharply
▁welfare
ashington
▁Examples
▁Exchange
▁Saryarka
▁concerts
▁freezing
▁moreover
▁mortgage
▁relating
▁trainees
rientation
▁seedlings
▁subjected
▁subsystem
▁withstand
▁dielectric
▁hyperbolic
▁indication
▁interfaces
▁solubility
▁Sarinzhipov
▁collectives
▁exoskeleton
▁interacting
▁strengthens
▁antimonopoly
▁biologically
4%
▁EF
▁5.5
▁Mom
▁Muk
▁Sit
▁Top
▁cle
▁gdp
▁kum
▁yog
▁zhe
Third
alymp
arios
bacco
isure
oking
trial
▁0,72
▁Free
▁Mart
▁lung
▁peak
▁reti
health
iances
timate
▁Abdik
▁Final
Caspian
atabase
▁deeper
▁female
▁gifted
▁prompt
▁rather
▁trucks
▁undert
▁verify
▁Changes
▁appears
▁liberal
▁subsidy
▁tobacco
▁Heritage
▁chlorine
▁circular
▁limiting
▁pavlodar
▁perceive
▁province
▁shymkent
▁standing
▁stopping
▁struggle
▁criticism
▁defenders
▁hydrogels
▁scenarios
▁selective
▁Additional
▁Evaluation
▁celebrates
▁installing
▁psychology
▁submission
▁uniqueness
▁Competition
▁prosecutors
▁approximately
▁cardiovascular
▁specialization
1-
4.
CD
-90
ITY
aik
cad
hat
▁CF
▁Ts
▁Wi
▁Zn
ault
grad
vers
▁127
▁210
▁360
▁Pan
▁bol
▁esc
ockey
party
ymbek
▁0,50
▁1300
▁1990
▁1991
▁2003
▁Fact
▁Mama
▁beef
▁bent
▁coat
▁gala
▁volt
-2020,
luence
raphic
▁Crime
▁Vasil
▁apple
▁claim
▁donor
▁mines
ungsten
▁Dmitry
▁colors
▁ingots
▁longer
▁posted
▁raises
▁recall
ogeneity
▁Electro
▁boiling
▁classic
financial
▁Consumer
▁analysed
▁dividing
▁explains
▁leaching
▁precipit
▁unreason
▁Aerospace
▁Kazakhmys
▁Tatarstan
▁attribute
▁distances
▁respected
▁symmetric
▁Definition
▁consortium
▁derivative
▁moratorium
▁performers
▁procedural
▁processors
▁professors
▁Theoretical
▁calibration
▁agribusiness
▁redistribution
":
IZ
hr
800
New
aug
sum
▁kV
apse
ieva
long
olds
rays
umes
▁Luk
▁MSW
▁Mac
▁Mag
▁tes
olite
▁bioc
▁evid
▁fans
▁hung
▁merc
▁poss
▁till
▁zhan
aneous
center
ibayev
identi
invest
tifies
▁Bayan
▁Kyzyl
▁Princ
▁Super
▁balls
▁cater
▁ethyl
▁reset
▁usual
chement
edicine
nuclear
pically
tlement
▁Danial
▁Hadoop
▁battal
▁defect
▁layout
▁nozzle
agadiyev
arations
stations
▁braking
▁charges
▁feeding
▁landing
▁october
▁powders
patriotic
portfolio
▁Programs
amenogorsk
▁Architect
▁Commander
▁Emergency
▁accounted
▁artillery
▁deadlines
▁inspected
▁iterative
▁purchases
▁scattered
continental
▁Affordable
▁Dependence
▁elasticity
▁influences
▁introduces
▁invaluable
▁efficiently
▁excavations
▁helicopters
▁oncological
▁perspective
▁photographs
Modernization
▁considerable
▁interference
▁systematization
92
hm
ki
eli
gal
hel
rim
▁ii
▁os
arma
bone
cean
fold
iyar
urch
▁2.6
▁Ecu
▁Nav
▁Sad
▁San
▁Sil
▁amm
about
ozoic
tiles
▁0,64
▁9001
▁Sens
▁pose
▁quad
uccess
▁Bregg
▁Reduc
▁Staff
▁alarm
▁asian
▁diode
▁drops
▁flash
▁secre
amishev
embayev
onation
telecom
ymbetov
▁bricks
▁crafts
▁lowest
▁patent
▁predom
▁severe
▁turkey
ociation
polation
▁Develop
▁ceiling
▁pellets
▁selling
▁strains
developed
istorical
phosphate
▁Criminal
▁Egyptian
▁Veterans
structures
▁Associate
▁Ekibastuz
▁Reference
▁departure
▁elemental
▁stiffness
▁Washington
▁ionization
▁legitimate
▁subscriber
▁waterproof
organization
▁Interactive
▁Statistical
▁checkpoints
▁contractors
▁smartphones
▁commissioner
71
Cu
xy
700
ERS
ITH
cre
eke
▁5-
▁AD
▁DC
▁My
▁dB
epti
▁137
▁138
▁75%
▁DEV
▁Dos
▁aks
added
chain
estic
iants
oster
ounts
space
▁Cost
▁Oraz
▁STUD
▁carp
▁enth
▁gray
▁mang
▁pric
▁stri
ouring
▁2008,
▁2025,
▁Flash
▁Marat
▁Milan
▁Zholy
▁chaos
▁fatty
▁owned
▁perin
▁Object
▁basket
▁marine
▁microp
▁purity
▁solves
▁zoning
ilateral
▁Dalenov
▁Laplace
▁Teacher
▁capsule
▁leisure
▁robotic
▁Southern
▁parental
▁Kazavtodor
▁cosmodrome
▁difficulty
▁extractant
▁popularity
▁Programming
▁citizenship
▁unnecessary
▁breakthrough
▁dependencies
▁individually
▁multifaceted
42
Fig
ida
obe
uma
▁Mg
▁ho
azar
emic
ideo
qual
vent
▁157
▁185
▁260
▁Cal
▁Cam
▁ast
idges
pring
table
trine
▁0,78
▁9000
▁DBMS
▁[1].
▁acet
▁flas
▁holy
▁pale
bright
cyclop
rakhan
ushing
▁10-15
▁COVID
▁beets
▁camel
▁enemy
▁ports
apacity
ytbekov
▁Export
▁Python
▁Streng
▁Sultan
▁Tamara
▁barley
▁dollar
▁exempl
▁hockey
▁hosted
▁lenses
▁nearby
▁refrig
▁Example
▁Primary
▁Samples
▁bending
▁khanate
▁nearest
▁recruit
mentation
▁Building
▁archives
▁stronger
▁symbolic
▁classroom
▁convicted
▁dispersed
▁empirical
▁exporting
eorological
▁attributed
▁commitment
▁ecosystems
▁orphanages
▁philosophy
▁Mathematics
▁appreciates
▁coordinator
▁expenditure
▁facilitated
▁geophysical
▁productions
▁interruption
▁scholarships
▁Unfortunately
▁informational
▁Competitiveness
EA
HS
NN
itr
▁03
▁6)
▁du
andy
anth
play
▁118
▁Att
▁CON
▁Ily
▁VII
▁Voc
▁dup
clean
dated
lored
venue
▁0,69
▁0,81
▁bear
▁blow
▁clic
▁teen
▁unsc
abilis
export
period
ultans
▁1,200
▁2030.
▁MathC
▁Nobel
▁bench
▁cream
▁dates
▁gamma
cession
orphous
▁Create
▁Employ
▁Nauryz
▁Review
▁Yermek
▁equity
▁relate
▁sought
▁starch
▁Estonia
▁arsenic
▁cathode
▁ethical
▁extingu
▁legally
▁mandate
abilistic
sequently
▁Ensuring
▁archival
▁aromatic
▁doctrine
▁budgetary
▁evidenced
▁workpiece
▁economical
▁inspectors
▁destructive
▁discoveries
▁electrolyte
▁completeness
▁hydrochloric
41
El
GP
KZ
-15
LAB
bel
lev
▁"(
▁Cy
▁[8
agle
anal
apon
esis
isov
link
▁113
▁amy
▁enj
▁5-10
▁Arys
▁Pack
▁Shar
▁Thai
▁felt
▁june
▁shop
▁stat
astana
garian
rement
▁5,000
▁Analy
▁Talas
▁ionic
▁knife
▁smell
▁woman
ambayev
electro
viously
▁Berlin
▁Geneva
▁Ruslan
▁SYSTEM
▁alkali
▁anomal
▁boxing
▁corpus
▁indeed
▁pilots
▁sewing
▁shrubs
language
▁Belgium
▁Honored
▁Kulagin
▁Mikhail
▁Reserve
▁capture
▁cascade
▁portals
▁smailov
▁Function
▁Romanian
▁adhesion
▁biathlon
▁diamonds
▁focusing
▁singular
▁vacation
production
▁2017-2018
▁Saryagash
▁bulldozer
▁coincides
▁quarrying
▁restoring
▁Motherland
▁concerning
▁converting
▁disclosure
▁distribute
▁eliminates
▁landscaped
▁observance
▁confidently
▁termination
▁transistors
▁Abdikalikova
▁reproduction
▁clarification
asy
ena
irs
uds
▁XV
▁12-
▁145
▁2.9
▁7.5
▁85%
▁Bit
▁CEO
▁TPP
akers
atile
atism
aulet
human
parov
roati
ymers
▁10%.
▁1999
▁Good
▁Yuri
▁[16]
▁gift
▁kern
▁leak
▁rows
▁shot
asants
itting
strate
vetlan
▁15-20
▁Check
▁argon
▁ferry
▁grass
▁reimb
▁shaft
inograd
ogypsum
▁10,000
▁distor
▁drople
▁pestic
▁pulses
▁rappro
▁thermo
titative
▁Discuss
▁Optimal
▁Purpose
▁carbide
▁cycling
▁hunting
▁inertia
▁marking
▁warning
▁attracts
▁exploits
▁fighters
▁followed
▁lecturer
▁millions
▁provider
▁Additions
▁Materials
▁cylinders
▁excavator
▁highlight
▁modelling
▁perinatal
tifications
▁meaningful
▁subsidized
▁compilation
▁kazatomprom
▁negotiating
▁registering
▁subscribers
▁biodiversity
▁explanations
▁hydrodynamic
▁reproductive
▁profitability
▁rapprochement
72
89
Fi
IA
Ph
TA
IAL
ica
kul
nur
olf
▁Da
▁Ra
esty
inds
seud
will
▁(15
▁117
▁5-7
▁6.5
▁Bud
▁GPS
▁Kos
▁tok
accur
aming
asive
itory
ossil
rooms
▁0,63
▁1500
▁Paul
▁iran
▁yons
ambets
arkhan
bestos
bodied
erican
ernity
ibekov
itious
▁april
▁borne
▁detox
▁polyg
▁prism
▁unamb
ersible
herical
vetlana
▁Active
▁Avenue
▁Copper
▁Square
▁Territ
▁evapor
▁loaded
▁minors
▁pherom
▁vessel
▁washed
▁anticip
▁briefly
▁calling
▁distinc
▁equally
▁hosting
▁imposed
▁kingdom
▁ordered
▁returns
▁Emirates
▁adjusted
▁instance
▁operated
▁sampling
▁strongly
▁predicted
▁withdrawn
Orientation
ternational
▁controller
▁politician
▁spectromet
▁subjective
▁Bishimbayev
▁hydrophobic
▁synchronous
▁accompanying
▁radionuclides
46
Ba
CP
OB
xi
usi
▁AR
▁AS
▁eo
eles
iler
luor
otor
puts
tral
▁(30
▁1,5
▁14%
▁270
▁Ust
▁lin
▁pet
▁spr
amruk
boxyl
inced
stein
▁Draw
▁acry
▁aids
▁egov
Script
aseous
ibrary
itects
manned
method
ograms
vestig
ystall
▁2011.
▁Murat
▁Nodes
▁pregn
▁storm
▁tower
▁Theory
▁astron
▁drinks
▁joints
▁junior
▁miners
▁serial
▁shovel
▁Mathcad
▁Members
▁Zhetysu
▁pharmac
▁publish
▁someone
▁surveys
odynamics
terrorism
▁Moreover
▁Provides
▁birthday
▁highways
▁referred
▁tungsten
structural
▁convinced
▁curricula
▁organizes
▁trainings
▁triangles
▁unlimited
▁victories
uminescence
▁Australian
▁Mechanical
▁appliances
▁compaction
▁ultrasonic
▁collections
▁influencing
▁departmental
▁unreasonable
▁mineralization
4-
Kh
Ni
din
isp
yly
▁Bu
▁Pi
▁ib
▁sq
Iran
conf
isco
ocon
pine
wood
▁1.9
▁3,0
▁APP
▁Ann
▁Dir
▁sco
▁som
-2021
empor
ermic
ganov
iquid
neigh
theta
ukhan
usual
▁0,40
▁2002
▁Abyl
▁Type
▁beet
▁diet
▁otan
▁seal
▁slic
agulov
ilbert
rensic
▁2,000
▁Avail
▁buyer
▁demol
▁edges
▁frost
▁habit
alympic
ashenko
berbank
housing
▁Import
▁Linear
▁MATLAB
▁broken
▁exists
▁lasted
▁mirror
▁repeat
▁stands
▁wonder
▁wooden
aluation
▁Democra
▁Kazpost
▁Testing
▁finally
▁fishing
▁readers
▁warming
▁weights
▁winning
osanitary
▁Aviation
▁Caucasus
▁Decision
▁catering
▁collapse
▁simulate
▁sporting
▁thorough
▁Political
▁acquiring
▁aggregate
▁endurance
▁exemplary
▁heuristic
▁paintings
▁pediatric
▁translate
▁accumulate
▁commanders
▁economists
▁normalized
▁uniformity
▁visibility
▁Accordingly
▁Comparative
▁METHODOLOGY
▁accountable
▁advancement
▁continental
▁facilitates
▁stabilizing
▁Dzhaksybekov
▁characterize
▁diversifying
▁hierarchical
▁heterogeneous
▁strategically
▁congratulation
▁desertification
Is
TR
gi
Con
rat
▁TR
▁ma
▁pn
abul
aral
avan
hess
hour
ilov
isen
meas
phot
▁005
▁Adv
▁Cat
▁dzh
▁gau
▁spl
▁tea
-2030
optic
▁0,38
▁Grow
▁cows
-2050"
access
icting
khanov
osphor
rophic
umping
▁Reven
▁anaer
▁bache
▁deals
▁deduc
▁enrol
▁expon
▁indif
▁mined
▁nanot
▁stead
▁story
▁Lesson
▁Omarov
▁Recomm
▁deaths
▁encoun
▁multip
▁newbor
▁talent
amentals
boundary
enriched
raviolet
▁fluores
▁jinping
▁knowing
▁neurons
▁novelty
▁stadium
▁therapy
▁Armenian
▁Increase
▁Interior
▁Judicial
▁connects
▁infinite
▁striving
▁amorphous
▁beverages
▁replenish
▁sediments
▁Bozumbayev
▁Experience
▁calculates
▁manifested
▁nationwide
▁relaxation
▁reputation
▁satisfying
▁accelerator
▁combustible
▁consistency
▁controllers
▁countryside
▁distinctive
▁reconstruct
▁Mukhamediuly
▁accelerating
▁assimilation
▁examinations
▁Certification
▁Metallurgical
bl
1.5
ipe
irt
max
orn
▁ts
ibir
idth
omon
ugal
▁RSA
▁UNT
▁adb
▁son
▁Arts
▁Eidu
▁Fuel
▁Orth
▁Robo
▁ecot
▁kept
▁plug
atalov
estone
server
▁Allow
▁Peter
▁Radio
▁Waste
▁advoc
▁align
▁anion
▁annex
▁briqu
▁chest
▁forth
▁homes
▁label
▁screw
▁sends
▁shany
▁urged
▁vapor
utorial
▁Neural
▁cation
▁cradle
▁decent
▁guides
▁knives
erations
▁Faculty
▁bedding
▁conting
▁rhenium
▁seaport
▁unusual
hydration
▁Deputies
▁animated
▁convicts
▁designer
▁junction
▁offering
▁weighing
geological
▁Assistant
▁buckwheat
▁charitable
▁contractor
▁deployment
▁transplant
▁suggestions
▁ultraviolet
▁Applications
▁abdykalikova
▁localization
▁microprocess
▁prerequisite
▁demonstrating
▁phosphogypsum
▁electrochemical
tz
ua
ASS
GIS
UCT
ean
eff
gin
gov
iol
oot
top
▁Cd
▁wr
IONS
aint
atts
inyl
itov
usal
velo
wear
▁(14
▁111
▁123
▁3.3
▁35%
▁4-5
▁4.4
▁Are
▁Gaz
▁Mas
▁Tri
▁alt
▁cow
▁cyc
▁erg
South
ainov
amine
ctive
econt
enger
erves
isely
itics
place
shore
trust
▁0,76
▁Army
▁Prom
▁Shal
▁Teng
▁kair
chagai
ingual
normal
retion
udsman
urable
▁NASSR
▁Short
▁embed
▁fires
▁humid
▁irrev
▁rifle
▁sands
▁touch
▁voted
-2017,"
raising
regular
tigious
veloper
▁breast
▁commem
▁masses
▁paints
▁poorly
▁tissue
ountered
▁Element
▁cleaned
▁enthusi
▁jubilee
▁printer
▁seventh
▁squares
▁Kashagan
▁analogue
▁fighting
▁inertial
▁solvents
▁steadily
▁survived
compliance
controlled
▁ambitious
▁anaerobic
▁capacitor
▁harvested
▁kyzylorda
▁maternity
▁wonderful
▁Individual
▁Integrated
▁Parameters
▁depression
▁presidency
▁punishment
▁Improvement
▁encountered
▁prestigious
▁satisfactory
▁phytosanitary
.)
91
uv
-12
-18
400
ecc
zak
▁1/
▁TF
coun
hyth
ider
lead
ques
roke
uity
ynov
zens
▁12%
▁122
▁136
▁PPP
▁Sab
▁ate
▁mil
-2025
acted
endic
erity
holds
ocene
olved
▁Find
▁Fram
▁Long
▁Rakh
▁coke
▁intr
▁luck
▁nitr
▁perf
▁pulp
▁trig
acchar
shagai
▁Karas
▁algae
▁mills
▁mixer
▁sandy
▁tells
entials
itories
▁Argent
▁Matlab
▁Volkov
▁fiscal
▁kernel
▁methyl
▁motors
▁reflex
▁runoff
esthetic
▁Khorgos
▁Mukhtar
▁amazing
▁ferrous
▁gaseous
▁helping
▁nothing
▁reveals
▁sealing
apartment
chemistry
▁INFORMAT
▁Svetlana
▁Transfer
▁adequate
▁detector
▁emphasis
▁garrison
▁hearings
▁leveling
▁sergeant
▁shanyrak
▁suburban
▁sultanov
▁watering
▁Vasilenko
▁corrected
▁corridors
▁declining
▁taxpayers
uantitative
▁Zhumagulov
▁adequately
▁conductors
▁designated
▁sinusoidal
▁attractions
▁voluntarily
▁experiencing
otechnological
77
AV
SD
US
gu
oe
Pol
aco
bic
kil
mer
ups
ELOP
ails
hmed
imet
mato
odox
pons
prin
sens
shak
usup
uzzy
yrov
▁144
▁4.2
▁Bab
▁Dav
▁His
▁Joh
▁Kun
▁Net
▁PSC
▁Rau
▁Tax
▁jsc
▁sid
iable
ontal
reach
rying
ysics
▁(12)
▁30%.
▁Auto
▁Post
▁Real
▁Rust
▁Task
▁Turg
▁glac
▁pave
-2014,
German
imeter
ogonal
second
social
▁Batyr
▁Bayes
▁Press
▁Siber
▁Start
▁axial
▁decor
▁deple
▁elong
▁juven
▁lease
▁noble
▁overs
▁perme
▁probe
▁spont
▁watch
explain
ticular
tifacts
uchinsk
▁Auezov
▁Govern
▁Unions
▁adhere
▁advent
▁aliyev
▁battle
▁census
▁cooled
▁decont
▁minute
▁sheets
unctions
▁DEVELOP
▁bridges
▁coastal
▁hygiene
▁pricing
▁streams
endicular
▁Bayanaul
▁Zhakupov
▁altitude
▁civilian
▁elevator
▁feelings
▁migrants
▁offshore
▁2015-2019
▁Kazkosmos
▁bentonite
▁developer
▁disorders
▁educating
▁exemption
▁guarantor
▁unloading
▁volunteer
Kamenogorsk
▁attachment
▁decorative
▁excitation
▁graduation
▁metabolism
▁multilayer
▁constraints
▁diffraction
▁precipitate
▁transformed
▁evolutionary
▁hydrogenation
▁Standardization
66
Co
GC
-11
2.5
bat
bur
enk
isc
nes
vil
▁-1
▁CM
▁ub
akas
chen
core
eozo
haps
iday
ogai
olov
unus
urve
zinc
▁154
▁Enc
▁ICD
▁Ire
▁Kha
▁Kon
▁Pat
▁Pen
▁Sym
▁TBT
▁[2-
▁nas
▁ram
agent
aurus
evich
ienna
iodes
timat
▁0,74
▁50%.
▁Even
▁actu
▁anis
▁bone
▁plas
▁worn
ifting
market
sultan
weight
▁2010.
▁2050:
▁Erlan
▁Unity
▁shale
▁taraz
▁versa
▁visas
akhanov
aulbaev
ivation
▁Expert
▁Simple
▁acidic
▁atyrau
▁burial
▁coding
▁dozens
▁elabor
▁finite
▁gymnas
▁silica
▁tomato
▁yields
ortheast
resource
▁dealing
▁dispens
▁imaging
▁mercury
▁pyramid
▁skating
▁sultans
▁tractor
▁updates
explained
tifically
▁currents
▁finances
▁ionizing
▁learners
▁momentum
▁seasonal
▁ultimate
▁Bulgarian
▁Frequency
▁amplifier
▁battalion
▁emulsions
▁nutrients
▁penalties
▁processor
▁responses
▁watercour
▁Lithuanian
▁identifies
▁molybdenum
▁stimulants
▁transistor
▁consultants
▁contractual
▁formulation
▁integrating
▁stimulation
▁unambiguous
▁historically
▁polymerization
▁recommendation
▁microcontroller
AKH
CIS
akb
fit
him
▁GP
▁Ka
▁Mi
▁cu
grav
igul
kara
umns
▁151
▁165
▁2.8
▁3.7
▁API
▁Bat
▁Dus
▁Lin
▁Mel
▁Sey
▁Vic
▁apk
▁nec
▁thr
EMENT
lamic
▁(15)
▁0,79
▁Flow
▁Gate
▁Hard
▁Rece
▁Reyn
▁Sars
▁Tour
▁Your
▁biof
▁rats
▁scar
▁solo
▁tang
▁2005,
▁Block
▁Joint
▁Proof
▁batch
▁boron
▁conqu
▁pepti
▁resum
▁saves
IZATION
ULATION
eastern
heduled
ictures
soluble
▁Labour
▁condol
▁detach
▁facial
▁finish
▁fought
▁frozen
▁kyrgyz
▁likely
▁paired
▁tracks
European
hindered
resident
timately
▁Created
▁Harmony
▁Ireland
▁Jinping
▁brigade
▁depress
▁dispute
▁encoura
▁falling
▁germany
▁leakage
▁missing
▁Projects
▁adapting
▁additive
▁capitals
▁juvenile
▁mobilize
▁salinity
selinograd
stationary
▁Computing
▁Influence
▁Standards
▁artifacts
▁assembled
▁infection
▁parabolic
▁satisfies
▁Conditions
▁architects
▁limitation
▁nigmatulin
▁relational
▁withdrawal
▁dehydration
▁vaccination
▁sociological
▁perpendicular
▁manifestations
▁popularization
EW
IX
SU
ru
Par
lag
rin
rob
see
sim
▁5.
▁7)
▁TE
▁eV
▁ta
▁ye
abai
anse
azan
chem
itic
leys
roys
syan
▁192
▁3.2
▁380
▁45%
▁65%
▁650
▁Abu
▁Dam
▁ECE
▁PCM
▁SOL
▁Tul
▁kap
▁rib
Chief
Uzbek
adata
allow
force
hanol
phony
skaya
works
▁0,42
▁0,88
▁Ansh
▁Kras
▁Move
▁bird
▁crow
▁dign
▁gall
▁july
▁mams
▁melo
▁pole
▁shaf
▁sket
▁soul
bohydr
hammed
hedral
rected
trical
▁Image
▁Offic
▁chess
▁ozone
amkulov
▁Advant
▁Alakol
▁KAZAKH
▁Worker
▁chance
▁fossil
▁pillar
▁proton
▁sights
▁tablet
▁vermic
▁Batalov
▁Dynamic
▁Hilbert
▁Library
▁chapter
▁descend
▁enzymes
▁feeling
▁hazards
▁imagine
▁interim
▁justify
▁mention
▁putting
▁talents
▁Changing
▁Investig
▁Reynolds
▁Teaching
▁borrowed
▁composed
▁elective
▁forensic
▁founders
▁offences
▁scenario
▁startups
▁unmanned
▁violated
▁weakness
▁2014-2015
▁Programme
▁Zhamishev
▁dismissed
▁iteration
▁maintains
▁metrology
▁microwave
▁supplying
▁Automation
▁collectors
▁condensate
▁convection
▁interviews
▁phosphoric
▁restaurant
▁signatures
▁unhindered
▁destination
▁understands
▁consultation
▁interlocutor
▁photographed
▁resettlement
▁Kazakhtelecom
▁nanocomposite
▁theoretically
▁unconditional
))
79
GO
VD
].
BRD
URE
ael
gue
how
key
nar
ube
uli
yry
▁9%
▁CL
▁PM
▁Ve
▁oz
-300
atil
gree
inth
olin
open
prom
rena
shim
ulus
▁124
▁3.1
▁4.3
▁ECD
▁Lag
▁idr
▁iso
State
riage
start
tales
titud
ubaev
▁1992
▁20-2
▁2500
▁Baim
▁Baku
▁Poly
▁[23]
▁[2].
▁anch
▁dens
▁gear
▁phon
▁seam
▁tear
growth
iciary
winner
▁30-40
▁Hague
▁imper
▁mercy
▁rally
▁ruler
October
akupova
enbayev
idation
special
version
▁Mechan
▁absent
▁actors
▁afghan
▁errone
▁floods
▁humans
▁merits
▁mosque
▁stator
▁suffer
igration
othermic
▁Experts
▁Optical
▁Traffic
▁anomaly
▁cabinet
▁columns
▁discrim
▁extends
▁fibrous
▁paleont
▁activate
▁announce
▁anywhere
▁baiterek
▁bankrupt
▁hardness
▁peasants
▁reconcil
▁settings
processing
▁adsorbent
▁anomalies
▁excluding
▁governors
▁initiator
▁launching
▁musicians
▁precisely
▁spherical
▁wintering
▁Artificial
▁Competence
▁Ecological
▁Lieutenant
▁exhaustion
▁expressing
▁repetition
▁triangular
▁Directorate
▁Interaction
▁Nazarbayeva
▁Performance
▁differently
▁homogeneity
▁spontaneous
▁commonwealth
▁improvements
▁transformers
▁contradiction
▁intercultural
▁psychologists
▁Methodological
▁accountability
▁generalization
▁nanostructured
▁scientifically
▁microbiological
2;
BG
BM
DB
bre
ozh
pys
sub
▁AI
▁AL
ella
khat
salt
size
▁(11
▁116
▁126
▁135
▁215
▁850
▁Bri
▁Has
▁MHz
▁PHP
▁Ren
▁[3-
▁fly
▁wto
bered
entau
ieval
itime
▁Help
▁Rost
▁Unit
▁Vari
▁Word
▁dele
▁inex
▁negl
▁ride
▁tape
anbaev
herent
taking
tition
▁2007,
▁Bolat
▁Excel
▁Memor
▁Steam
▁exams
▁flame
▁grams
▁ingot
▁newsp
▁param
armonic
atility
limatic
primary
ractive
uminous
▁Croati
▁Mexico
▁aerial
▁aggrav
▁breeds
▁butter
▁cracks
▁denote
▁influx
▁muscle
▁papers
▁rotary
▁shafts
▁sounds
▁vertex
anguages
▁Adilbek
▁Climate
▁Cluster
▁Firstly
▁exactly
formatics
inization
ulometric
▁deadline
▁interior
▁respects
ignificant
▁Different
▁Investors
▁Selection
▁Transform
▁gathering
▁irregular
▁manifesto
▁northeast
▁substanti
▁witnessed
▁Exhibition
▁creatively
▁newspapers
▁obligation
▁refraction
▁simplifies
▁smartphone
▁linguistics
▁ministerial
▁necessarily
▁concentrates
▁declarations
▁microcredits
▁conditionally
%;
DD
rt
001
ait
arg
auc
hex
mel
non
▁ej
▁kz
▁tu
ENCE
STAN
imes
rama
user
▁153
▁3.6
▁Fig
▁GSM
▁INT
▁Ord
▁Rio
▁Tat
▁coc
▁sud
▁swe
▁wal
agons
pares
river
▁0,80
▁1994
▁5000
▁Card
▁Circ
▁Coal
▁Rele
▁kore
▁pend
▁plus
fields
ophage
▁admit
▁enjoy
▁liver
▁regen
▁remem
aryarka
ertales
growing
uitable
▁Acting
▁Atmosp
▁Reform
▁Vienna
▁assume
▁cosmon
▁lactic
▁senate
▁singer
riterion
▁aroused
▁chinese
▁demands
▁emitted
▁expands
▁missile
▁pursued
▁zhambyl
▁Critical
▁Muhammad
▁analyzer
▁antioxid
▁blasting
▁centners
▁enhanced
▁magazine
▁pictures
▁selfless
▁taxonomy
▁visually
▁Equipment
▁Languages
▁associate
▁colleague
▁collision
▁hydroxide
▁medicinal
▁prototype
▁realizing
▁strongest
▁transient
realization
▁Friendship
▁Particular
▁compatible
▁disruption
▁pesticides
▁Intelligent
▁adjustments
▁internships
▁interpreted
▁oscillators
▁transitions
▁condensation
▁consistently
▁digitization
▁distributing
▁extinguishing
82
ih
yo
.0%
Ind
rik
sin
▁EN
▁GW
▁NO
▁Pa
▁Pb
beam
imal
oval
regn
▁Fer
▁Hor
▁Rah
▁dil
▁kid
▁kur
berry
books
endix
width
▁(100
▁(14)
▁Baur
▁Club
▁Life
▁Loss
▁Risk
▁Term
▁View
▁ages
▁sear
▁stur
anseit
design
itance
steppe
▁20-30
▁Bashk
▁Field
▁Stage
▁belts
▁chore
▁compe
▁decay
▁elite
▁poets
▁rescu
▁rises
Turkmen
abulary
bitumen
defined
ourable
oxidase
renburg
▁Tengiz
▁enzyme
▁hostel
▁trials
▁yogurt
American
▁Similar
▁closest
▁dietary
▁erected
▁ethanol
▁polymet
▁revival
▁sausage
▁scanner
▁secrets
▁sitting
ferencing
propylene
▁Abdullah
▁Temirtau
▁airspace
▁biogenic
▁deterior
▁discount
▁enabling
▁laureate
▁sunlight
▁textiles
▁toponyms
▁Logistics
▁Operation
▁adjusting
▁approving
▁distilled
▁exchanges
▁feedstock
▁immediate
▁judiciary
▁passports
▁prisoners
▁resonance
▁Analytical
▁Democratic
▁assumption
▁compensate
▁ecotourism
▁isothermal
▁noticeable
▁theatrical
▁vocabulary
▁DEVELOPMENT
▁Sustainable
▁condolences
▁deprivation
▁informative
▁liquidation
▁manipulator
▁unscheduled
▁Optimization
▁broadcasting
▁cartographic
▁correctional
▁electrolysis
▁guaranteeing
▁regeneration
▁commemorative
▁polypropylene
▁congratulatory
▁specifications
3-
93
My
-17
.).
/20
Bel
EAT
IVE
uke
unc
▁)/
▁EL
▁Ke
▁La
▁ca
2050
asty
bean
gers
iger
ineu
itig
ocal
riot
▁5.2
▁Ach
▁Gra
▁KPI
▁Vik
▁[4-
▁jac
▁rhe
▁sad
▁soy
eches
omers
onian
peace
▁0,77
▁Adap
▁Buil
▁Conn
▁EBRD
▁Kuan
▁[34]
▁foam
▁malt
▁pyro
▁taxi
amedov
angali
ashion
bridge
hrined
illage
onsist
tening
torney
tricts
▁1992,
▁2030,
▁Child
▁Tasks
▁anode
▁eagle
▁flamm
▁inher
▁liber
▁tubes
ilismen
ivision
oshenko
▁Single
▁august
▁carrot
▁cutter
▁macrom
▁priori
▁ratios
▁revise
▁skiing
avorable
itations
omething
tributed
▁Ability
▁Identif
▁Surface
▁Yerzhan
▁armored
▁attempt
▁auditor
▁drafted
▁gateway
▁inaccur
▁mukhtar
▁outcome
▁privacy
▁summits
avourable
etermined
uccessful
▁Attorney
▁Baurzhan
▁Concentr
▁Document
▁abnormal
▁backbone
▁borrower
▁competit
▁datasets
▁dominant
▁emirates
▁inferior
▁inverter
▁severity
▁Automatic
▁Dzhakupov
▁aesthetic
▁contempor
▁dominated
▁enshrined
▁equipping
▁excursion
▁magnitude
▁Lukashenko
▁Situations
▁everywhere
▁geothermal
▁multiplier
▁prohibited
▁submitting
▁ultimately
▁academician
▁systematize
▁appreciation
▁disciplinary
▁fermentation
▁irreversible
▁Tasmagambetov
▁authorization
▁collaboration
▁developmental
▁virtualization
▁decontamination
.[
94
DA
TC
oo
sa
-1)
ACT
Ass
EST
SiO
awa
eld
fam
kek
osa
pan
tas
tiy
uar
▁AK
▁si
enza
ikov
pace
went
zhko
▁17%
▁310
▁Bah
▁EMG
▁GAN
▁ara
▁kWh
▁pix
▁rap
▁tot
▁unt
after
akova
front
isson
ister
restr
ulite
world
▁0,83
▁0,84
▁0,86
▁0,97
▁30%,
▁PHYS
▁Read
▁Ulan
▁ster
Stokes
abekov
awatts
ibirsk
▁1,000
▁MODEL
▁Turan
▁badge
▁chips
▁eigen
▁fauna
▁pseud
▁scene
▁spong
▁truth
▁unres
atorial
bassies
graphic
▁Monaco
▁Status
▁advise
▁apples
▁enclos
▁mesoph
▁parity
▁shield
▁stroke
▁tasked
▁valves
ficiency
iffusion
osibirsk
▁Dossaev
▁Finally
▁Revenue
▁browser
▁damaged
▁declare
▁fitness
▁impregn
▁rectors
▁tablets
▁teaches
criptions
▁Agrarian
▁Equation
▁External
▁Honorary
▁Resource
▁Robotics
▁Suleimen
▁hydrogel
▁organism
▁outdated
▁outreach
▁solemnly
▁topology
▁workings
Saparbayev
▁Analyzing
▁Reduction
▁alcoholic
▁amounting
▁embassies
▁hierarchy
▁inconsist
▁malignant
▁schematic
▁subsidize
▁substrate
traditional
▁2014-2015,
▁Especially
▁Paralympic
▁capability
▁converters
▁indicative
▁Kusherbayev
▁Tselinograd
▁approaching
▁exponential
▁oscillatory
▁polyclinics
▁microfinance
▁salinization
▁subsequently
▁systematized
▁transitional
▁accommodation
▁transboundary
01
96
HA
TU
Tr
py
EAR
ika
kat
mus
▁MR
▁Ov
▁bn
East
Hung
aksh
auov
bour
habi
heme
keev
lied
lite
ouse
that
uryk
▁(40
▁10-
▁119
▁134
▁204
▁3.4
▁ATM
▁RGP
▁Run
▁Ush
▁Yel
▁[11
▁ale
▁alk
▁mur
▁pyr
▁sou
adloc
cycle
racle
uated
▁1970
▁Core
▁SDOH
▁WITH
▁[3].
▁bags
▁bakh
▁blog
▁door
▁drum
▁heli
▁lots
▁snap
▁suit
agonal
eozoic
ighter
ounted
ournal
▁KazNU
▁Solid
▁Zhang
▁cited
▁coins
▁drill
▁drink
▁fuzzy
▁genre
▁hosts
▁inaug
▁lanes
▁motto
▁pests
▁somew
Digital
uniform
▁Artist
▁Leader
▁Navier
▁Output
▁Values
▁Vocera
▁excise
▁mayors
▁scored
▁writes
onuclear
▁Airport
▁Initial
▁Minimum
▁Workers
▁biofuel
▁defence
▁dismant
▁domains
▁premium
▁selects
▁skilled
▁Accounts
▁Everyone
▁Platform
▁assisted
▁attempts
▁classify
▁deformed
▁mistakes
▁precinct
▁privatiz
▁speeches
▁surgical
▁Equations
▁abandoned
▁assigning
▁fattening
▁inability
▁informing
▁observing
▁something
▁underwent
▁Compliance
▁concession
▁ferroalloy
▁lieutenant
▁methodical
▁overhauled
▁purchasing
▁rationally
▁summarized
▁transverse
▁unsuitable
▁dormitories
▁ferroalloys
▁sponsorship
▁stepnogorsk
▁warehousing
▁Coordination
▁deformations
▁fluorography
▁standardized
▁interpolation
▁specification
▁Kazagrofinance
Be
CN
OM
fa
ku
tw
5%)
HEM
ais
opl
raq
uni
unt
▁..
▁04
▁6.
▁OR
▁PR
alzh
basy
dens
etyl
hand
lots
olar
osat
urts
▁001
▁188
▁4.1
▁Ald
▁Bod
▁Por
▁[20
aires
chief
dykov
etova
ighth
irova
ophyt
oplas
ullin
▁0,27
▁0,34
▁0,37
▁3000
▁Gulf
▁Kosh
▁Mirz
▁User
▁[4].
▁hash
▁medi
▁nest
▁tail
-2050:
ariant
factor
iative
omencl
search
solete
▁Hence
▁Linux
▁Metal
▁Phase
▁Sochi
▁Tokyo
▁click
▁count
▁crown
▁fifty
▁illum
▁inert
▁japan
▁retro
▁rhyth
▁shops
▁spare
eccable
estinal
tronics
voltage
▁Dauren
▁Golden
▁Kentau
▁Result
▁Viktor
▁Volume
▁births
▁courty
▁exempt
▁firmly
▁fixing
▁helium
▁holder
▁joyful
▁legacy
▁neuron
▁outlet
▁porous
Shymkent
gressive
ochastic
physical
sibility
▁Already
▁Denmark
▁coaches
▁dataset
▁exciton
▁fertile
▁queries
▁relates
▁tissues
▁valleys
▁Medicine
▁Orthodox
▁contents
▁fixation
▁patriots
▁shipping
▁vicinity
▁Astrakhan
▁Employees
▁Kazmunaig
▁Paleozoic
▁civilized
▁connector
▁decentral
▁festivals
▁oxidative
▁polluting
omenclature
▁2017-2018,
▁Electrical
▁KAZAKHSTAN
▁bankruptcy
▁criticized
▁decreasing
▁emphasizes
▁estimation
▁impeccable
▁impression
▁opposition
▁tightening
▁zhezkazgan
▁Kaztransgaz
▁Legislation
▁Preliminary
▁Significant
▁alternating
▁existential
▁microscopic
▁negotiation
▁readmission
▁recognizing
▁Architecture
▁distillation
▁permeability
▁replenishment
▁professionally
86
Me
my
oS
bir
dic
ona
pak
▁2]
▁GB
▁Hz
▁KM
▁Ms
▁Os
▁ly
ales
arys
ceum
gian
iner
ktop
lore
lyar
osov
rons
uing
▁...
▁1-3
▁129
▁13%
▁147
▁225
▁340
▁5%,
▁7%,
▁Age
▁Mix
▁Myn
▁Nit
▁Ref
▁Why
▁ker
▁lob
▁mad
▁nor
▁und
aland
comed
dogan
elled
print
stral
utine
visor
young
▁(13)
▁0,36
▁20%,
▁Coss
▁Kozh
▁Mess
▁Zone
▁dams
▁gest
▁gets
▁lime
▁logo
▁quot
▁rely
▁wars
cripts
ennium
iogram
patial
summed
terest
▁Chris
▁Grain
▁Maxim
▁blank
▁chart
▁dough
▁logis
▁looks
▁ocean
▁optic
▁poses
▁rated
▁sculp
▁usage
▁wrong
titudes
unition
winners
▁Madina
▁anchor
▁corner
▁crises
▁dining
▁drives
▁legend
▁studio
▁sudden
▁venues
▁wagons
Building
Minister
relation
▁Congrat
▁Ospanov
▁Persian
▁Smailov
▁bearing
▁clients
▁dignity
▁habitat
▁illustr
▁lithium
▁phrases
▁refined
▁refract
▁retains
▁singers
▁viewing
▁zeolite
▁Slovakia
▁Telecomm
▁aeration
▁brothers
▁cohesion
▁consular
▁droplets
▁explored
▁founding
▁logistic
▁maritime
▁password
▁readings
▁rescuers
▁suppress
▁traction
bohydrates
ditionally
otechnical
▁Christmas
▁Potential
▁Provision
▁enhancing
▁exhibited
▁flammable
▁inpatient
▁megawatts
▁otherwise
▁repayment
▁slaughter
▁Advantages
▁Discussion
▁Mamytbekov
▁Presidents
▁classifier
▁corrective
▁excavation
▁explosions
▁macromolec
▁prescribed
▁recognizes
▁saparbayev
▁stabilizer
▁vertically
▁assessments
▁campaigning
▁circulatory
▁cleanliness
▁descendants
▁indifferent
▁Differential
▁Geographical
▁confidential
▁dramatically
▁Understanding
▁photochemical
8)
Na
RT
SI
://
ACH
ila
isa
net
umb
▁OP
▁Ol
▁tg
-500
Fund
agay
anas
atai
balt
irus
mang
obil
ront
urol
▁148
▁16%
▁178
▁193
▁206
▁4,0
▁6%,
▁ACT
▁BAS
▁Imp
▁Jac
▁Mun
▁Obj
▁Rap
▁bow
▁gab
▁gun
▁hat
▁kit
▁kus
▁omb
actor
akhan
chers
imova
kalyk
stroy
using
▁Berd
▁Erik
▁Full
▁Tole
▁alum
▁arys
▁beer
▁buff
▁chip
▁conj
▁hydr
▁legs
▁lift
▁nove
energo
hedron
ineral
kulova
orphic
robion
samruk
umbers
urgery
uzakov
ybayev
▁2009.
▁Drama
▁Prior
▁Value
▁bones
▁bytes
▁crust
▁gauge
▁insol
▁kumys
▁liked
▁pneum
▁theft
▁trium
▁valve
Eternal
issance
▁Baltic
▁Remote
▁Survey
▁Turgai
▁anthem
▁arrays
▁assort
▁coated
▁cobalt
▁dialog
▁disinf
▁ignore
▁iodine
▁mostly
▁nomads
▁slowly
Eurasian
Pavlodar
arantine
atameken
harmonic
omponent
training
uestions
utrition
▁Nikolai
▁Reports
▁Sources
▁designs
▁flooded
▁impover
▁inequal
▁insects
▁insulin
▁nomadic
▁referen
▁tenders
▁tranche
agambetov
computers
electroly
▁2012-201
▁Contract
▁Mohammed
▁Siberian
▁adopting
▁autonomy
▁converts
▁enrolled
▁favorite
▁february
▁filtered
▁informal
▁november
▁pavement
▁pendulum
integrated
▁airmobile
▁allowable
▁athletics
▁chlorides
▁composers
▁crossings
▁envisages
▁erroneous
▁extremist
▁republics
▁sequences
identiality
structuring
▁allocating
▁composites
▁decoration
▁intentions
▁logistical
▁pheromones
▁Atmospheric
▁brotherhood
▁exclusively
▁impressions
▁substantive
▁constituting
▁dissociation
▁inequalities
▁instrumental
▁insignificant
▁notifications
▁administrators
▁electronically
▁microdistricts
▁Informatization
76
Az
bu
kk
mg
Tok
giz
olo
oxy
pot
sur
▁"[
▁AF
▁Mc
▁Yu
▁[9
▁yu
EAEU
cost
high
lora
opic
prot
rypt
this
ulph
▁(13
▁146
▁179
▁18%
▁183
▁237
▁3.0
▁370
▁4.8
▁Erm
▁Fes
▁Lux
▁NET
▁Pay
▁bab
▁cas
▁dyn
▁ipo
▁saf
▁tin
▁unc
ieved
molec
ostim
ugees
▁(16)
▁50%,
▁ANAL
▁Base
▁Hero
▁Igor
▁ausp
▁feet
▁isot
▁lact
▁pron
▁sees
▁soda
▁sole
▁tran
▁walk
▁zhum
Kyrgyz
anical
eworks
itrile
olland
omatic
orbent
otions
▁1995,
▁Brief
▁Champ
▁Gauss
▁conve
▁crane
▁mouth
Belarus
country
meeting
raduate
riteria
▁COMPUT
▁Growth
▁Judges
▁Models
▁Online
▁Talgat
▁binder
▁diatom
▁encaps
▁gravel
▁ladder
▁patrol
▁prefer
▁pumped
▁queues
▁raster
acrylate
minister
▁Usually
▁antagon
▁captain
▁colonel
▁descent
▁drought
▁evasion
▁execute
▁prolong
▁steppes
▁threads
▁triumph
▁violent
neighbour
▁Database
▁Overview
▁Proposed
▁Semantic
▁admitted
▁advances
▁auditors
▁coupling
▁fracture
▁immunity
▁marginal
▁metadata
▁obsolete
▁plastics
▁smallest
▁websites
kazakhstan
▁consisted
▁elevators
▁responsib
▁schedules
▁ammunition
▁assembling
▁biometrics
▁clarifying
▁impressive
▁kyrgyzstan
▁pragmatism
▁retirement
▁Enforcement
▁INFORMATION
▁afghanistan
▁extradition
▁structuring
▁transmitter
▁variability
▁anticipation
▁nomenclature
▁predetermined
▁restructuring
▁experimentally
▁reconciliation
▁hydrogeological
ei
ja
pc
1.3
ADA
ART
Res
goc
ini
ksh
nom
ttp
udb
was
▁0)
▁09
▁BI
▁CI
▁NP
▁SM
-202
-400
agul
arse
dehy
hani
iend
igil
ipov
iral
kova
loom
othe
ouds
seat
yana
▁025
▁139
▁174
▁182
▁255
▁530
▁Ate
▁Bot
▁Cap
▁Hot
▁Mut
▁aea
▁cum
▁lie
▁rip
2050.
HEMAT
ITIES
airov
anies
ectin
eller
itter
nesty
ogens
ordai
ourse
psych
▁(17)
▁0,95
▁10%,
▁20%.
▁Iron
▁MCIS
▁Sarg
▁Used
▁Wars
▁bure
▁burn
▁feat
▁glor
▁gone
▁heav
▁impl
▁mono
▁pian
▁sick
▁wait
▁whey
atever
azarov
holder
kazakh
▁2006,
▁9001:
▁Franc
▁Raman
▁akhko
▁askar
▁autoc
▁inlet
▁might
▁nanob
▁poems
▁rings
▁stack
▁trail
▁winds
▁yards
Germany
angible
leyball
plastic
ryption
▁Allows
▁Annual
▁Atomic
▁Course
▁Credit
▁Friday
▁Karach
▁Reduce
▁Secret
▁anonym
▁caring
▁ferrom
▁hydrom
▁tribal
▁versus
▁writer
▁yonson
LICATION
expected
metallic
ogenesis
specific
▁Erdogan
▁Poisson
▁Solving
▁Zealand
▁cottage
▁docking
▁enables
▁fashion
▁instant
▁islamic
▁succeed
▁tubular
▁valence
ternative
▁District
▁Hydrogen
▁Kapparov
▁Orenburg
▁asbestos
▁auspices
▁canceled
▁commonly
▁confront
▁findings
▁incorpor
▁moderate
▁pharmacy
▁publicly
▁shutdown
▁simplest
▁slowdown
▁switches
▁tractors
▁tutorial
▁volatile
▁Brazilian
▁Champions
▁Territory
▁Typically
▁economist
▁limestone
▁ombudsman
▁surprised
▁visionary
▁workforce
▁Memorandum
▁Properties
▁brightness
▁cooperates
▁dependency
▁orthogonal
▁spectators
▁stochastic
▁unresolved
▁vibrations
▁Demographic
▁Singaporean
▁algorithmic
▁ineffective
▁prosecution
▁recruitment
▁topographic
▁combinations
▁consultative
▁ethnographic
▁increasingly
▁subscription
omorphological
▁consolidating
▁confidentiality
▁paleontological
1/
7.
84
GA
Or
TZ
Ti
Uk
iu
ji
vo
6.5
Cre
JSC
dig
dum
ecd
eph
tin
▁4]
▁8%
▁OL
▁PI
▁wt
aria
circ
gold
ieli
mass
oded
path
rend
tery
tige
ubes
ulat
urse
ysts
▁"20
▁121
▁132
▁152
▁164
▁168
▁4%.
▁Don
▁NIP
▁PCE
▁dol
▁kok
▁lap
▁mys
▁nov
▁pus
▁zhu
ached
acuum
airam
athon
isdom
locks
odium
orage
ropyl
sided
ulous
▁0,75
▁1996
▁Answ
▁Best
▁Poll
▁Tien
▁Wave
▁bubb
▁carc
▁curv
▁fort
▁leaf
▁male
▁toll
aneiro
dering
ewable
ilings
people
ungite
wegian
▁10-20
▁1991,
▁Alash
▁Alpys
▁Trump
▁aktau
▁beams
▁const
▁drama
▁gorge
▁nerve
▁stere
▁venue
angarin
anovich
anthrop
balance
competi
ophical
ophilic
osphate
▁Amount
▁George
▁Ground
▁Kurgan
▁Summit
▁Warsaw
▁arable
▁basins
▁catast
▁duplic
▁forgot
▁melons
▁oldest
▁recomb
▁unused
ognition
periodic
restrial
umptions
▁Install
▁Journal
▁Pacific
▁Unified
▁cooking
▁envelop
▁milling
▁numeric
▁pointed
▁recover
▁regimes
▁retreat
▁secular
▁surfact
▁willing
ropolitan
▁Georgian
▁MATHEMAT
▁defended
▁dissolve
▁flooding
▁impaired
▁marriage
▁metering
▁normally
▁portable
▁prepares
▁symmetry
▁welcomed
▁workflow
▁workload
accounting
▁2011-2020
▁2015-2016
▁Disadvant
▁Initially
▁Measuring
▁Stability
▁bandwidth
▁condensed
▁cosmonaut
▁depletion
▁encrypted
▁returning
▁revealing
▁simulated
environment
▁Historical
▁delivering
▁displaying
▁distortion
▁elongation
▁frameworks
▁references
▁volleyball
▁APPLICATION
▁Governments
▁Specialists
▁restaurants
▁Agribusiness
▁Akhmetzhanov
▁Registration
▁nevertheless
▁polarization
▁stakeholders
▁Establishment
▁administrator
▁civilizations
▁hydrogenerator
▁meteorological
▁microprocessor
▁Characteristics
05
:1
CM
ui
Met
izh
mir
mul
sup
war
▁//
▁Nr
▁Vy
▁ah
YSIS
ampe
arev
auer
holm
idat
lyab
ocur
orov
ragg
rant
rise
▁(0)
▁(2-
▁0.5
▁131
▁22%
▁256
▁288
▁3.8
▁Ary
▁Bet
▁NGO
▁Nan
▁aul
▁fra
▁rol
▁rye
Roman
ashid
crime
diakb
esian
isons
media
metov
odesy
opark
scape
ubark
utely
▁Cart
▁Five
▁Kark
▁Will
▁Zhub
▁cred
▁hide
▁math
▁pand
▁pled
Golden
Russia
atinum
enbaev
izable
lamide
prises
▁Below
▁Forms
▁Tools
▁beeke
▁choir
▁depot
▁doses
▁mitig
▁peaks
▁prost
▁remot
British
grounds
▁Bozhko
▁Bridge
▁Indeed
▁Length
▁Monday
▁dreams
▁eighth
▁impede
▁myself
▁optics
▁preval
▁quotas
▁string
▁subbot
▁weekly
▁wisdom
omorphic
▁Applied
▁Defines
▁Germans
▁Latvian
▁Muslims
▁Regions
▁acetate
▁bicycle
▁colored
▁comprom
▁lattice
▁nursing
▁perhaps
▁seeking
▁ukraine
▁viewers
endrobion
expensive
sectional
▁ANALYSIS
▁Advanced
▁Birtanov
▁COMPUTER
▁Sargsyan
▁appealed
▁ceilings
▁constitu
▁embedded
▁overhead
▁pleasant
▁retained
▁sturgeon
positional
▁Framework
▁Nutrition
▁Synthesis
▁Zhakupova
▁abolition
▁bilingual
▁curvature
▁generates
▁mesophile
▁sergeants
▁viability
▁Transition
▁assortment
▁definitely
▁geosystems
▁mathematic
▁motherland
▁pedestrian
▁permitting
▁referendum
▁stimulates
▁Yermekbayev
▁assumptions
▁celebrating
▁cooperating
▁nationality
▁simulations
▁vermiculite
effectiveness
▁Metrological
▁exoskeletons
▁humanization
▁hydrological
▁Participation
▁thermonuclear
▁humidification
7)
83
BC
EB
LC
SK
aaS
bin
bio
gab
hyl
ido
ipp
lik
unk
▁".
▁06
▁7.
▁9-
▁FP
▁Iz
▁WW
▁ku
Comp
atas
auts
berd
heel
iffs
imed
inki
itis
lass
prob
racy
site
uris
writ
ykov
▁","
▁(16
▁158
▁430
▁APC
▁Alm
▁Cab
▁Get
▁Kin
▁Kob
▁Mes
▁PAK
▁Ray
▁Rys
▁bid
▁hay
▁ppm
▁rio
UTION
apest
lanks
ostat
press
ratic
skoye
ystal
▁Bukh
▁Care
▁Ibra
▁Insp
▁Iraq
▁Oral
▁Peru
▁Rout
▁axes
▁cess
▁cycl
▁doss
▁dyes
▁kaum
▁mega
▁pine
▁retr
Center
Energy
conduc
father
inance
ochlor
▁Beket
▁Black
▁Turks
▁conin
▁cores
▁draws
▁glory
▁megac
ametric
economy
ialogue
igrants
ireless
program
▁Centre
▁Ethiop
▁Scheme
▁cancel
▁evenly
▁pseudo
▁script
▁seized
▁shores
▁symmet
▁syntax
baiterek
lyabinsk
ogenetic
▁Bahrain
▁Daniyar
▁catalog
▁fission
▁granite
▁modeled
▁mounted
▁movable
▁outputs
▁passion
▁photons
▁settled
▁thermoc
Chemistry
Hungarian
eminister
magambets
▁Lagrange
▁Mountain
▁Movement
▁Studying
▁alcohols
▁antennas
▁emotions
▁granting
▁handling
▁landmark
▁ontology
▁supposed
▁uniforms
efficiency
mechanical
▁Obviously
▁Processes
▁Prospects
▁accepting
▁analytics
▁consensus
▁interoper
▁shortages
▁suffering
▁Kelimbetov
▁Multimedia
▁dispensary
▁enthusiasm
▁extractive
▁instructor
▁motherhood
▁phosphates
▁qualifying
▁turbulence
▁whiteboard
▁Novosibirsk
▁competitors
▁devaluation
▁expositions
▁temporarily
▁thermometer
▁unfavorable
▁contaminants
▁destinations
▁hydrothermal
▁interrelated
▁shareholders
▁southwestern
▁uncontrolled
▁probabilistic
▁undergraduate
▁centralization
▁geoinformation
▁liberalization
▁plenipotentiary
54
Ge
OO
TB
ho
sn
2),
Rep
Tal
hov
iny
mut
oft
rey
▁Dz
▁Iv
▁ND
▁OH
▁iv
CESS
ENTS
adam
alco
appe
cien
efte
enez
erge
main
neys
tons
ugar
▁(50
▁0.7
▁11.
▁141
▁245
▁27%
▁290
▁420
▁440
▁PCs
▁Ret
▁SDR
▁bib
▁chi
▁cyt
▁die
▁lem
▁muk
▁ric
▁xen
LICIT
astre
enium
ibull
olith
oping
ulose
ungar
which
▁1941
▁1980
▁Decl
▁Line
▁Must
▁NaCl
▁Nano
▁Once
▁Schr
▁Self
▁bail
▁biot
▁chem
▁cook
▁defe
▁fear
▁jams
▁lump
▁oven
▁pear
▁thes
charge
dinger
formed
ichlet
icious
mother
onomic
ounded
raying
static
ussels
volume
▁Audit
▁Chile
▁Cross
▁Delph
▁Dhabi
▁Fiber
▁SCADA
▁Stock
▁finds
▁giant
▁shelf
▁sleep
▁slice
▁tends
Pacific
channel
ecology
enezuel
enozoic
heating
holding
ponents
without
▁Abayev
▁Ballet
▁Combus
▁Define
▁ELICIT
▁Guests
▁Presid
▁Rector
▁chrome
▁circus
▁dissip
▁grains
▁harves
▁immune
▁impair
▁multiv
▁ranked
▁rarely
▁spongy
▁superv
products
▁Akishev
▁Alikhan
▁Bishkek
▁Karasai
▁Storage
▁aquatic
▁equated
▁gallery
▁outlets
▁pasture
▁tokayev
▁turnout
▁vaccine
knowledge
molecular
▁Division
▁Parallel
▁Phosphor
▁Strength
▁bicycles
▁ceramics
▁hydromet
▁oncology
▁polyacry
▁replaces
▁settling
▁tomatoes
▁variants
regulation
▁2017-2021
▁Companies
▁Interface
▁Renewable
▁Solutions
▁Southeast
▁antitrust
▁campaigns
▁cessation
▁diatomite
▁finishing
▁forgotten
▁gymnasium
▁inspector
▁mangistau
▁metallurg
▁reimburse
▁Geological
▁consultant
▁cybercrime
▁elaborated
▁excursions
▁fatherland
▁helicopter
▁purposeful
▁refractive
▁refractory
professional
▁Kaztransoil
▁Stepnogorsk
▁competences
▁counterpart
▁memorandums
▁politically
▁substations
▁technically
international
▁Championship
▁Intelligence
▁cryptography
▁purposefully
▁watercourses
▁Disadvantages
▁primeminister
▁neutralization
▁semiconductors
0)
Pr
RP
Sm
UM
mo
zd
-1,
-13
GAN
aoz
azy
bps
dam
eco
esc
ols
sea
uda
▁Il
▁Mn
▁PV
▁pi
astr
good
hole
ilst
mira
omod
oral
umps
▁1).
▁162
▁163
▁176
▁2%.
▁236
▁238
▁3%,
▁4.9
▁8.5
▁97%
▁98%
▁Aid
▁Ile
▁Jan
▁Ram
▁SEC
▁Say
▁Uly
▁cuc
▁dan
▁dip
▁ole
▁rab
▁unp
-2000
arbek
arded
block
cetic
darya
onald
usten
yroid
▁0,85
▁0,87
▁0,89
▁25%,
▁Asyl
▁Bang
▁Bash
▁Clin
▁Duma
▁Gold
▁John
▁Oleg
▁[17]
▁arab
▁intu
▁jump
▁musc
▁oecd
▁tent
▁trap
▁yard
ancers
ariate
betova
cation
eletal
enosis
graphy
kaznex
naires
native
skills
spring
zholov
▁2008.
▁ACTIV
▁Moroc
▁Pharm
▁Shows
▁adult
▁amate
▁boxes
▁burns
▁calor
▁gloss
▁humus
▁prone
▁reaff
▁roles
▁seams
▁serik
▁slabs
▁timed
▁tries
▁uzbek
izhanov
silicon
▁Ankara
▁Arabic
▁ArcGIS
▁Cement
▁Kinect
▁Kordai
▁Liquid
▁Physic
▁Select
▁Sergei
▁Sloven
▁asphal
▁convex
▁failed
▁fluids
▁header
▁radial
▁refine
▁robust
▁router
▁scalar
▁sniper
▁solids
▁souven
▁staged
▁strips
▁talgat
agaliyev
aspberry
▁Drawing
▁Persons
▁Proceed
▁adheres
▁amnesty
▁consume
▁examine
▁expects
▁injured
▁painted
▁profits
▁roadway
▁watched
dependent
terrorist
tigraphic
▁Forecast
▁Graphics
▁Kassymov
▁Portland
▁Property
▁acquires
▁arriving
▁carbides
▁depicted
▁happened
▁listened
▁magnetod
▁prestige
▁prevails
▁relieved
▁selenium
▁spraying
▁tolerant
▁toxicity
cyclopedia
generation
▁2010-2014
▁Argentina
▁TECHNOLOG
▁cellulose
▁defective
▁flotation
▁guardians
▁invention
▁liquidity
▁locations
▁nanotubes
▁orphanage
▁subbotnik
roysberbank
▁2015-2016,
▁Conversion
▁Kairbekova
▁aggressive
▁asymmetric
▁autogenous
▁collateral
▁convective
▁countrymen
▁deficiency
▁networking
▁peroxidase
▁regulators
technologies
▁Institution
▁commitments
▁distributor
▁inexpensive
▁suppression
modernization
▁Availability
▁antagonistic
▁facilitating
▁pathological
▁specializing
▁spectrometry
▁spirituality
▁carbohydrates
▁mineralogical
02
52
56
GB
.),
1),
900
ALC
Bal
ECD
ISO
ROM
emp
inv
lox
mem
zha
▁ML
▁PA
JECT
VIEW
arti
atio
base
coin
coll
esov
ford
hard
hran
ilon
iyaz
ogic
rank
shev
tein
ubak
ukov
ytes
▁171
▁184
▁4.6
▁43%
▁5.3
▁5.4
▁CES
▁DoS
▁ECG
▁IEE
▁Jew
▁KCl
▁Mah
▁PAC
▁Sap
▁Sav
▁Tel
▁Tro
▁Yas
▁dos
▁hit
▁kdb
▁ktz
▁sar
▁sko
▁zoo
China
angle
impro
ittal
lated
rites
value
▁0,82
▁Area
▁CALC
▁IEEE
▁Refl
▁Shak
▁Shol
▁Ways
▁ahco
▁baur
▁cass
▁dogs
▁geom
▁melt
▁pent
▁pits
▁puts
▁rink
▁trad
earing
embles
ishers
mukhan
rovers
tifier
tility
ykbaev
▁2000,
▁Chern
▁Cisco
▁Color
▁Grand
▁Karab
▁Music
▁TEACH
▁biore
▁enorm
▁flask
▁radar
▁tenth
▁truly
▁tumor
▁wider
azhilis
galiyev
increas
iveness
izontal
lifting
orgalzh
thening
▁Fisher
▁Market
▁Stream
▁Weight
▁blanks
▁dental
▁flying
▁mature
▁portra
▁reward
▁saline
▁schema
▁subway
▁warmly
appeared
carboxyl
ergistic
printing
▁Holland
▁Princip
▁Swedish
▁caravan
▁cations
▁glasses
▁grammar
▁mammals
▁polygon
▁servant
according
ederation
kilometer
titutions
▁adequacy
▁akhmetov
▁crucible
▁flushing
▁hardened
▁marathon
▁monomers
▁peroxide
▁refugees
▁sausages
▁vanadium
▁variance
▁whatever
Sagintayev
competence
management
▁2014-2016
▁2016-2018
▁Automated
▁Countries
▁Marketing
▁Norwegian
▁Olympiads
▁Providing
▁Secondary
▁forefront
▁influenza
▁kaumetova
▁kokshetau
▁modifying
▁penetrate
▁repeating
▁testifies
▁undergoes
▁violating
▁2015-2019,
▁Generation
▁Prevention
▁controvers
▁copolymers
▁depositors
▁detachment
▁equestrian
▁explosives
▁floodplain
▁intangible
▁maximizing
▁megacities
▁separating
▁suggestion
▁unexpected
Fundamentals
▁accumulator
▁aerodynamic
▁breadwinner
▁exceptional
▁polynomials
▁vacationers
▁TECHNOLOGIES
▁periodically
▁granulometric
▁normalization
▁trilingualism
▁chromatographic
▁representations
PR
Ra
VM
kp
ww
yu
aba
aga
bak
cos
eve
exc
gel
kan
kyu
mur
oma
tax
uce
▁FS
▁Ta
▁cn
▁kw
▁mW
Ital
amel
amic
anka
brev
fall
lish
mash
otic
rack
tles
tory
unch
zhin
▁0.8
▁05%
▁133
▁156
▁159
▁172
▁203
▁325
▁330
▁5%.
▁540
▁720
▁ABC
▁Ale
▁Aqu
▁Ben
▁Boz
▁Har
▁LMS
▁SEM
▁Tay
▁WDM
▁XVI
▁dus
▁jet
▁kal
▁sap
▁wed
aping
assic
azard
basar
doing
enzhe
evsky
forms
geons
iston
onies
reens
silic
▁Bekt
▁Both
▁Ivan
▁Karm
▁Pred
▁Week
▁[18]
▁[20]
▁bish
▁cone
▁eman
▁hack
▁mart
▁oily
▁sacr
ailure
aksyly
arithm
asbaev
consum
iendly
ievich
ontent
ounced
vector
weapon
▁100%.
▁1997,
▁Maced
▁Noise
▁Petri
▁Seoul
▁Shard
▁austr
▁bioin
▁bolat
▁botag
▁coach
▁collo
▁drone
▁entit
▁fault
▁infot
▁ladle
▁ninth
▁subro
▁virus
Iranian
alinsky
▁Fourth
▁Island
▁Rustem
▁Sensor
▁Sunday
▁Tokaev
▁Volter
▁bought
▁camels
▁cereal
▁debate
▁embark
▁france
▁handle
▁hearts
▁learns
▁leased
▁losing
▁microf
▁photol
▁phrase
▁planes
▁preced
▁resume
▁sculpt
▁simply
▁stocks
▁tranqu
▁welded
ractical
▁Besides
▁Heating
▁MathCAD
▁PROCESS
▁Tatyana
▁Without
▁assault
▁cabbage
▁carrots
▁caspian
▁compile
▁editors
▁english
▁muscles
▁possess
▁sponges
equipment
financing
onometric
▁Budapest
▁Dynamics
▁Starting
▁Venezuel
▁argument
▁baurzhan
▁breaking
▁deployed
▁impurity
▁inaccess
▁lowering
▁prospect
▁protects
▁resonant
▁temporal
▁tensions
▁videocon
productive
▁Calculate
▁Communist
▁Dirichlet
▁Elemental
▁Geography
▁Important
▁Sagadiyev
▁Sometimes
▁briquette
▁compacted
▁discarded
▁encounter
▁exclusion
▁listening
Informatics
yrzakhmetov
▁Assistance
▁accidental
▁elliptical
▁estimating
▁liquidated
▁practition
▁topography
▁Lianyungang
▁conventions
▁forthcoming
▁instructors
▁populations
▁proficiency
▁prohibition
▁terrestrial
▁facilitation
▁illumination
▁motivational
▁Concentration
▁grandchildren
▁philosophical
▁Transportation
▁chromatography
▁geographically
▁photosynthesis
▁reorganization
/3
5.
9)
GE
Im
TE
ca
ci
kl
-45
ARS
ATE
App
Arm
IST
Ins
PON
adm
hiz
kok
omy
▁";
▁BM
▁LA
▁Pu
▁Sy
▁Xe
▁Zo
▁li
▁mb
Elec
amal
ands
bets
door
fits
five
iyoy
mits
oder
pack
uate
yota
▁11%
▁166
▁169
▁189
▁315
▁4%,
▁5.1
▁6.3
▁7.2
▁Add
▁Gar
▁Hum
▁Tom
▁[12
▁[5-
▁asp
▁dye
▁lig
▁phd
▁yer
atisf
chair
ensed
erted
inals
inces
onyms
opter
puted
ropri
ulfur
yrene
▁0,35
▁1960
▁Bait
▁Beis
▁Bund
▁Hels
▁Magn
▁Mont
▁Rate
▁[56]
▁bisc
▁brom
▁emir
▁olig
▁pock
▁rack
▁situ
▁uiid
ellite
hesive
iating
▁(2011
▁1998,
▁Abdyk
▁Bragg
▁Kurch
▁Rober
▁Steel
▁USING
▁Urban
▁Video
▁abund
▁armen
▁fewer
▁foods
▁fores
▁loose
▁meals
▁melon
▁monot
▁repos
▁seeks
▁seems
▁wasps
ekeshev
naments
teacher
▁Alumin
▁Degree
▁Normal
▁Sample
▁Source
▁Zhanak
▁affine
▁airbus
▁dances
▁gluten
▁lawyer
▁margin
▁sealed
▁sexual
▁stamps
▁telesc
▁tragic
altitude
ceptions
election
everance
graduate
ineering
▁Cossack
▁England
▁Erbolat
▁Station
▁arsenal
▁ellipse
▁journey
▁massifs
▁olympic
▁reconna
▁refusal
▁resumed
▁spectac
▁technic
▁writers
orgalzhyn
ventional
▁Drilling
▁anything
▁bailiffs
▁competed
▁elliptic
▁enormous
▁idrissov
▁legalize
▁manually
▁monopoly
▁newborns
▁pandemic
▁peptides
▁remotely
▁sulphate
▁surprise
▁symphony
▁totality
technology
▁Determine
▁Functions
▁Metrology
▁Radiation
▁consulate
▁cucumbers
▁decorated
▁educators
▁evacuated
▁examining
▁incompati
▁meritocra
▁quarterly
▁teenagers
▁toponymic
mukhambetov
▁Continuous
▁beekeeping
▁cumulative
▁predictive
▁preference
▁prevalence
▁remembered
construction
registration
▁CALCULATION
▁Determining
▁Enterprises
▁Lossertales
▁classifying
▁disappeared
▁invitations
▁selectivity
▁summarizing
▁translating
technological
▁Subsequently
▁perseverance
▁Investigation
▁amplification
▁modifications
▁recombination
▁impoverishment
▁multicomponent
▁reconnaissance
▁electrification
Ca
Cd
DC
PH
PN
RS
TK
Te
va
"),
-00
-14
-23
-35
6.9
cts
div
hal
lak
lay
mes
oba
oub
uko
yev
▁8)
▁CT
▁HC
▁HV
▁Kr
▁OK
▁PL
▁SK
▁SU
▁TH
▁Uz
▁lg
Ural
abay
anta
axis
body
calc
dust
omas
ourg
rian
rick
roil
uber
wing
xial
▁(60
▁142
▁15.
▁167
▁2.0
▁216
▁234
▁285
▁3-5
▁4.7
▁480
▁6-8
▁640
▁Cho
▁Dom
▁GIS
▁HIV
▁Ion
▁KHA
▁Lav
▁Pip
▁Rod
▁SCI
▁SSR
▁Tai
▁Van
▁Vit
▁lac
▁lex
▁oph
▁pin
-2022
Trans
aimed
ansky
aozen
exper
iforn
labor
matic
month
omart
pharm
tival
ynkum
ystau
▁0,28
▁0,30
▁Anat
▁Arsh
▁Deep
▁FORM
▁Fire
▁Kine
▁Load
▁Mand
▁Mort
▁Publ
▁Ulba
▁Very
▁Well
▁Writ
▁abai
▁amar
▁arid
▁bind
▁bomb
▁chev
▁fron
▁hubs
▁knew
▁knit
▁runs
▁soap
Crisis
Kazyna
accept
actics
ampere
atches
insula
iyoyev
logram
▁100-1
▁1993,
▁2003,
▁Alger
▁Almat
▁Brown
▁Elena
▁Kanat
▁Kuryk
▁Leban
▁Lower
▁Marsh
▁Tests
▁Zhold
▁centr
▁denom
▁email
▁footh
▁juris
▁lasts
▁mound
▁oscil
▁piece
▁slide
▁slows
▁straw
▁vocal
Healthy
atively
embourg
erating
geology
ifornia
igenous
iritual
mathema
natural
ourcing
project
timated
village
▁10-11,
▁Bakhyt
▁Border
▁Consul
▁Tables
▁asympt
▁baking
▁belief
▁bucket
▁buffer
▁deterg
▁kaolin
▁kassym
▁lasers
▁lining
▁nauryz
▁parcel
▁runway
▁seeing
▁sultan
▁themes
▁verbal
▁warned
shipment
udgetary
urbances
▁Darkhan
▁Geology
▁PHYSICS
▁Polymer
▁amylose
▁biggest
▁buttons
▁comment
▁geodesy
▁keeping
▁liberty
▁manages
▁manuals
▁ophthal
▁oxidant
▁postpon
▁shallow
▁wording
aksylykov
criterion
haustible
ictionary
organized
▁Ethiopia
▁Pressure
▁Syrdarya
▁accessed
▁atameken
▁athletic
▁captured
▁composer
▁demanded
▁deserves
▁generous
▁gulshara
▁ignition
▁invented
▁metallic
▁olympiad
▁outlines
▁proceeds
▁registry
▁reinvest
▁releases
▁suffered
▁theorems
▁wildlife
Belarusian
▁2016-2017
▁Detection
▁Developed
▁Directors
▁Efficient
▁Insurance
▁Migration
▁Passenger
▁Presidium
▁Principle
▁allocates
▁biography
▁emanating
▁historian
▁illegally
▁invariant
▁logically
▁motivated
▁pragmatic
▁recipient
▁registers
▁requested
▁uniformly
ophytophage
▁Ashimbayev
▁Biological
▁Jaksybekov
▁JavaScript
▁astronauts
▁blockchain
▁contingent
▁deliveries
▁downloaded
▁extracting
▁favourable
▁originally
▁programmer
▁reactivity
▁recordings
▁relocation
humanitarian
▁Chelyabinsk
▁assignments
▁emphasizing
▁monopolists
▁operability
▁playgrounds
▁predominant
▁synergistic
▁undeveloped
▁versatility
▁Installation
▁Metropolitan
▁celebrations
▁distributors
▁fundamentals
▁interactions
▁neighborhood
▁popularizing
▁championships
▁chromatograph
▁inexhaustible
▁intersections
▁investigating
▁socialization
▁discrimination
▁multiplication
▁democratization
81
Ab
Ag
Sp
Wh
oT
zi
-16
-24
ERM
USA
dry
has
hot
ilt
kdb
kub
oda
ois
yme
▁BA
▁CC
▁ET
▁FL
▁HS
▁MA
▁OB
▁PU
▁ia
Made
agat
asan
feed
idae
iest
imer
isef
llor
mann
ords
renn
uret
zhas
▁(25
▁1,3
▁10.
▁205
▁235
▁24%
▁265
▁28%
▁283
▁5.8
▁6-7
▁9.5
▁Aim
▁Far
▁Ice
▁Ltd
▁Nic
▁Pow
▁Rub
▁Suz
▁Wel
▁hos
▁ing
-2010
.8%),
agric
artak
avkat
backs
energ
gence
kenov
ollar
opher
pulse
tedly
tiyar
ugeot
vedev
▁0,32
▁0,90
▁1,00
▁1100
▁40%,
▁Bene
▁GANs
▁Lack
▁Lear
▁Lect
▁Mich
▁Nurg
▁Path
▁VIII
▁[19]
▁ever
▁extr
▁fati
▁gent
▁herb
▁hook
▁mold
▁oval
▁pork
▁pots
▁synd
▁syri
-2050,
apping
copper
cribes
edical
iaxial
import
isible
ooling
otherm
ptions
rasive
single
▁100%,
▁Adobe
▁Glory
▁Krasn
▁Layer
▁Pulse
▁Runge
▁Zhans
▁clink
▁india
▁lungs
▁plato
▁rainf
▁rocky
▁seman
▁sidew
element
ykbayev
▁2020).
▁Donald
▁Markov
▁Sheikh
▁Talgar
▁audits
▁bubble
▁burned
▁cables
▁cipher
▁consul
▁cyclic
▁demuls
▁diodes
▁elbasy
▁faiths
▁intent
▁kazsat
▁killed
▁patron
▁rented
▁rolled
▁slides
▁sympos
Republic
adastral
cheology
mountain
olecular
omonosov
ritorial
skeletal
▁Croatia
▁Express
▁Failure
▁Janeiro
▁METHODS
▁Shalkar
▁Spatial
▁Theorem
▁alumina
▁bounded
▁clarity
▁dehydro
▁desktop
▁dreamed
▁fellows
▁flowing
▁hydroly
▁implies
▁integer
▁kazagro
▁logging
▁milking
▁modulus
▁perfect
▁pouring
▁scaling
Ukrainian
producing
▁Alliance
▁Capacity
▁Elements
▁Official
▁Personal
▁STUDENTS
▁Textbook
▁amaranth
▁billions
▁defender
▁explores
▁flooring
▁kostanay
▁maturity
▁medieval
▁optional
▁platinum
▁rigidity
▁somewhat
▁subgroup
▁taxpayer
▁trusting
▁2015-2017
▁2015-2025
▁absorbing
▁cryptocur
▁directory
▁ekibastuz
▁federated
▁insoluble
▁inversion
▁laureates
▁logarithm
▁negotiate
▁optimally
▁populated
▁provinces
▁pyrolysis
▁repairing
▁retention
▁sagadiyev
▁traveling
ostimulator
▁Dendrobion
▁Luxembourg
▁assemblies
▁automating
▁discharges
▁immigrants
▁indigenous
▁journalism
▁possession
▁simulators
▁subsystems
▁ultrasound
▁underwater
▁INFORMATICS
▁Secretariat
▁accelerates
▁anisotropic
▁competently
▁embankments
▁philanthrop
▁secretaries
▁substantial
▁disturbances
▁photographic
▁controversial
▁photographers
▁polyelectroly
▁microstructure
▁classifications
▁interconnection
▁technologically
Li
Sw
Zn
8.4
Fin
ICE
ICT
aka
big
dyr
ili
izz
kap
ums
urn
www
yak
yon
▁3]
▁8.
▁AV
▁BR
▁RE
▁kv
▁xi
-600
Comm
GOST
West
adze
fast
ilot
ipts
kash
last
olev
onov
orms
plus
uran
▁(12
▁143
▁177
▁19%
▁2,0
▁254
▁257
▁304
▁4-6
▁460
▁470
▁6.2
▁802
▁830
▁960
▁ASP
▁Aul
▁Bag
▁Hal
▁Ish
▁Kor
▁Moy
▁Ros
▁Syn
▁Tor
▁aef
▁alm
▁aug
▁dar
▁din
▁hik
▁mln
.9%),
Asian
adows
ailed
ained
akrab
arden
areto
eosat
filov
holic
irmed
islav
orous
orsky
ostok
stone
uartz
ukeev
▁15%.
▁1700
▁1993
▁4000
▁Alim
▁Born
▁Chen
▁Cuba
▁Farm
▁OECD
▁Oryn
▁Size
▁Stef
▁Take
▁anth
▁aval
▁byte
▁evol
▁judo
▁mask
▁neck
▁palm
▁sary
▁shoe
anched
dehyde
ieving
ractal
rained
rovsky
sector
verter
▁1992.
▁2021,
▁2021.
▁25-30
▁Aslan
▁Mount
▁Photo
▁Ratio
▁Rural
▁alley
▁birch
▁brake
▁endoc
▁grace
▁paste
▁polls
▁polys
-2050,"
Khorgos
general
onomous
purpose
reasury
rencies
▁Albert
▁Almost
▁Compet
▁Ethics
▁Newton
▁Noting
▁Observ
▁Resear
▁Tehran
▁Valery
▁academ
▁arbitr
▁breaks
▁canned
▁claims
▁curved
▁escape
▁hatred
▁heater
▁heroic
▁misfit
▁torque
▁tribes
▁upgrad
curement
gression
irmation
lopectin
tilities
▁Arystan
▁Century
▁Crimean
▁Diagnos
▁LabVIEW
▁Subsoil
▁accepts
▁copying
▁corners
▁crossed
▁crusher
▁dynasty
▁fatigue
▁ignored
▁implant
▁interfe
▁isolate
▁proving
▁sailors
▁simpler
▁slowing
▁tactics
▁varying
▁weaving
chuchinsk
transport
unciation
▁Cenozoic
▁Defender
▁Domestic
▁Helsinki
▁Karmaksh
▁Manufact
▁Positive
▁Zhubanov
▁arranged
▁bachelor
▁blocking
▁cadastre
▁creators
▁entitled
▁envelope
▁genetics
▁improper
▁ornament
▁pregnant
▁promptly
▁rainfall
▁reactive
▁roadside
▁striking
ographical
▁2016-2019
▁Combating
▁Kapchagai
▁Landscape
▁Orchestra
▁Raspberry
▁Reporting
▁Treatment
▁disclosed
▁hairdress
▁magazines
▁metabolic
▁postponed
▁pregnancy
▁pressures
▁prismatic
▁sculpture
▁separator
▁sulphates
▁zhuasbaev
uloskeletal
▁Combustion
▁Determined
▁Determines
▁TECHNOLOGY
▁critically
▁fruitfully
▁harvesters
▁innovators
▁multilevel
▁surprising
▁symbolizes
▁undertaken
▁Recommended
▁approximate
▁complements
▁constitutes
▁determinant
▁federations
▁grandfather
▁mountainous
▁ontological
understanding
▁contemporary
▁disconnected
▁metalworking
▁similarities
▁southeastern
▁transmitters
▁Parliamentary
▁hydrodynamics
▁intersectoral
▁transshipment
ilstroysberbank
▁thermodynamics
▁unconventional
MT
Ro
SL
kn
-2-
1.1
1.2
7.4
ACE
Aty
HEO
ads
arn
bes
gem
ifc
jud
pat
ser
zed
▁1;
▁KR
▁PO
▁Tb
▁VK
▁ol
Stud
URES
akat
aton
bris
erde
igan
ikip
isha
list
lors
obol
oler
ovsk
▁(23
▁0.9
▁214
▁224
▁293
▁32%
▁47%
▁5.7
▁6.6
▁Fre
▁Ful
▁Gib
▁LCD
▁Sid
▁Sob
▁Syz
▁Yak
▁akk
▁dug
▁eat
▁fan
▁rac
▁sax
▁yes
-2013
Japan
agrom
angel
araly
birth
erate
estag
genov
letin
urial
uvial
ygurt
▁(199
▁0,33
▁0,91
▁1090
▁1800
▁Abdr
▁Acid
▁Elim
▁Expl
▁Mbps
▁Sene
▁Star
▁[1]:
▁cord
▁dend
▁fats
▁font
▁glue
▁goat
▁limb
▁pref
▁tram
▁yurt
atomic
chrome
famous
igence
inants
lessly
stanai
terbel
utting
walled
▁12:00
▁Ahmed
▁Ahmet
▁Apple
▁Buudb
▁Euler
▁Force
▁Goods
▁Heavy
▁Kazan
▁Point
▁Upper
▁amine
▁beach
▁compr
▁dwell
▁embod
▁korea
▁lonel
▁lying
▁pitch
▁reper
▁salty
▁temir
▁timur
akasova
complex
dynamic
iencies
redholm
rennial
▁Delphi
▁Editor
▁Kairat
▁Stress
▁Things
▁acetic
▁badges
▁delays
▁geomet
▁helmet
▁incomp
▁merged
▁novice
▁poland
▁ridges
▁spices
▁volcan
cellular
personal
services
▁Cabinet
▁Karimov
▁Mission
▁Nurzhan
▁bureauc
▁cleared
▁convene
▁couples
▁discrep
▁fathers
▁ferrite
▁integro
▁kazakhs
▁monovol
▁neoplas
▁persist
▁resting
▁screens
▁silence
▁smoking
▁telecom
▁unclear
▁warrior
▁wedding
divisions
▁Brussels
▁Estonian
▁Interest
▁Networks
▁Problems
▁Received
▁Reducing
▁abrasive
▁acquaint
▁collects
▁conveyed
▁formulae
▁holistic
▁honestly
▁matching
▁probably
▁smoothly
▁watermel
Government
functional
▁Operating
▁Otherwise
▁Oxidation
▁bacterial
▁benchmark
▁cadastral
▁declaring
▁diameters
▁didactics
▁dismissal
▁expresses
▁formulate
▁inductive
▁modernity
▁multiplex
▁receivers
▁rectifier
▁rejection
▁sulphuric
atisfactory
▁2015-2019.
▁Addressing
▁Amanzholov
▁Extraction
▁Majilismen
▁Poroshenko
▁Zhasuzakov
▁activating
▁loneliness
▁microflora
▁millennium
▁quarantine
▁Recognition
▁Reliability
▁Zhumangarin
▁enhancement
▁meritocracy
▁potentially
▁shareholder
▁stabilizers
▁supplements
▁technogenic
▁electrolytes
▁inauguration
▁luminescence
▁refrigerator
▁segmentation
▁systemically
▁metallurgists
▁reimbursement
▁stratigraphic
▁nanostructures
▁musculoskeletal
▁vulnerabilities
Fr
If
Mo
PT
ht
kb
ls
oa
40,
ZhK
ami
avi
bag
oti
sec
tik
utt
▁-2
▁6]
▁ea
▁ms
▁ni
DUCT
adex
azon
chik
comb
dies
eses
gysh
ibly
igur
oglo
ondo
star
ubat
unis
ybal
▁01%
▁1%.
▁1,1
▁1,6
▁173
▁2).
▁20.
▁208
▁218
▁226
▁233
▁244
▁375
▁5.6
▁55%
▁7.1
▁770
▁860
▁93%
▁CNN
▁DIS
▁DLP
▁Did
▁Exc
▁Jup
▁Kir
▁RDF
▁Rud
▁STR
▁alb
▁lux
.5%),
antal
axial
ensky
erved
hedra
ilisi
iller
legal
nefte
olded
omach
reduc
ropic
scien
ursyn
ushev
utsal
waste
wheel
while
▁0,93
▁10.5
▁2024
▁2061
▁Baid
▁Cell
▁Dear
▁Game
▁Khal
▁Nura
▁Omar
▁Page
▁Rich
▁Shim
▁True
▁WWII
▁XVII
▁ZHEO
▁Zhak
▁[21]
▁aver
▁flue
▁hill
▁isop
▁none
▁odor
▁smel
▁smok
▁wolf
atican
galiev
ibbean
illity
person
pieces
ported
stream
▁1994,
▁2004,
▁4,000
▁Hyper
▁Lingu
▁Users
▁Volga
▁Zhark
▁affil
▁afric
▁attor
▁blast
▁debts
▁feels
▁globe
▁kinds
▁loses
▁minds
▁nanom
▁paras
▁pupil
▁revol
▁rigid
▁royal
▁spill
▁squee
▁viral
average
etylene
gestion
iferous
iophene
opolies
orphism
playing
student
technic
tourism
unaigas
▁Actual
▁Device
▁Diplom
▁Houses
▁Matrix
▁Merkel
▁Module
▁Mustaf
▁Police
▁Series
▁Seyful
▁Steppe
▁Vasily
▁akorda
▁behavi
▁bowels
▁dauren
▁deprec
▁ending
▁flakes
▁fusion
▁german
▁imperf
▁ingred
▁lovers
▁magate
▁melted
▁microm
▁nurses
▁penetr
▁scores
▁sketch
▁soviet
▁traces
▁tumors
▁undoub
activity
artakiad
atalytic
aterials
capacity
communic
critical
exchange
ikipedia
ropriate
▁Balapan
▁Between
▁Kuandyk
▁Kurmang
▁MathCad
▁Morocco
▁Objects
▁Payment
▁Reduced
▁Senegal
▁Thirdly
▁Weapons
▁acrylic
▁advised
▁amateur
▁assumes
▁audited
▁clinker
▁dispers
▁dissert
▁distort
▁editing
▁ejected
▁feedlot
▁glazing
▁lateral
▁paralle
▁peugeot
▁privile
▁protons
▁regener
▁relying
▁scratch
▁shelves
▁trainee
▁variant
▁vending
▁vertebr
▁viruses
▁wounded
paragraph
▁2018-201
▁Activity
▁Festival
▁Hospital
▁Medvedev
▁Operator
▁auditing
▁baseline
▁believed
▁centroid
▁folklore
▁fountain
▁glaciers
▁infinity
▁labeling
▁latitude
▁licensed
▁melodies
▁oralmans
▁overload
▁photomod
▁staffing
insulating
investment
▁2011-2015
▁2017-2019
▁Bundestag
▁Christian
▁Community
▁Direction
▁Jordanian
▁Kapshagai
▁Macedonia
▁Petroleum
▁Pollution
▁Residents
▁Venezuela
▁Vibration
▁addiction
▁arguments
▁balancing
▁concludes
▁depicting
▁detectors
▁detention
▁magnetron
▁presently
▁principal
▁prioritiz
▁prolonged
▁statesman
▁undefined
▁Accounting
▁Commercial
▁Confidence
▁Dictionary
▁Monopolies
▁azerbaijan
▁basketball
▁classrooms
▁harmonized
▁initiators
▁journalist
▁stretching
▁EDUCATIONAL
▁aggravation
▁designation
▁macroscopic
▁permanently
▁sanatoriums
▁spectrophot
▁symmetrical
▁Ratification
▁compensating
▁fluorescence
▁multivariate
▁tranquillity
▁workstations
▁Computational
▁commissioners
▁complementary
▁differentiate
▁intellectuals
▁practitioners
▁questionnaires
▁inconsistencies
▁transplantation
FA
OV
gs
1.8
9.6
9.8
Aff
Hon
Nur
STM
dex
doc
gos
omo
rar
rot
san
▁HA
▁NT
▁PE
Road
abag
arks
aser
ayan
bols
buil
code
data
date
engh
ente
lane
lave
omed
pres
reli
sign
spon
stom
such
ulet
wind
▁0.2
▁161
▁186
▁275
▁6%.
▁780
▁ACS
▁Abs
▁Bio
▁DAT
▁EFB
▁God
▁Ham
▁IMP
▁Isk
▁Jur
▁Kay
▁Ken
▁Ker
▁Moh
▁Nat
▁Num
▁PhD
▁Tek
▁Tex
▁Wil
▁bin
▁das
▁dot
▁iid
▁sab
.2%),
ATIVE
Austr
acial
amond
andex
atern
ayeva
beton
borne
idine
illic
kubas
local
metal
noise
osene
revan
right
tarov
tings
▁(18)
▁1,23
▁15%,
▁1600
▁40%.
▁70%,
▁8-10
▁80%.
▁Belt
▁Bern
▁Case
▁Damu
▁Face
▁Fish
▁Gran
▁Hall
▁Home
▁Kara
▁Makh
▁Shin
▁Tian
▁Uran
▁Uses
▁[24]
▁aksu
▁boat
▁boys
▁cups
▁ekyu
▁evil
▁flaw
▁inev
▁mism
▁ozon
▁stip
▁viet
▁wors
Aktobe
Atyrau
French
celain
etwork
idated
iduous
mation
nickel
osilic
reated
romtau
terday
ulsion
usable
▁10-11
▁70-80
▁Catal
▁Denis
▁Early
▁Instr
▁STUDY
▁Socio
▁Solov
▁Sulph
▁acord
▁altyn
▁eclip
▁filed
▁fraud
▁hills
▁incon
▁loops
▁loyal
▁mutag
▁piggy
▁prosp
▁relic
▁risen
▁sweet
▁tooth
▁verbs
▁wings
aliyeva
circuit
eliness
ethanol
inction
otation
ranking
tribute
▁20,000
▁2019).
▁206110
▁Apache
▁Assign
▁Church
▁Denote
▁League
▁Points
▁Shieli
▁austen
▁buying
▁caught
▁caviar
▁coarse
▁disass
▁drones
▁eating
▁emblem
▁equals
▁futsal
▁halved
▁hunger
▁injury
▁looked
▁meadow
▁perpet
▁phonon
▁pulmon
▁rubles
▁woolen
chairman
friendly
invasive
ymebayev
▁1941-19
▁Aktogai
▁Andatpa
▁Arkalyk
▁Bakanas
▁Bitcoin
▁Defined
▁Density
▁Jupiter
▁Peoples
▁Shavkat
▁Zhansug
▁alikhan
▁blocked
▁cheeses
▁constan
▁decrees
▁divides
▁excited
▁forever
▁heroism
▁nitrite
▁outdoor
▁patriot
▁reperto
▁shipped
▁sounded
Karaganda
ajikistan
akrabarti
alikhanov
lographic
parabolic
uleimenov
▁Benefits
▁Clinical
▁Yesilsky
▁attacker
▁biofuels
▁chapters
▁conscien
▁cracking
▁diffract
▁fairness
▁gestures
▁globally
▁homework
▁keyboard
▁resistor
▁scarcity
▁shortest
▁syndrome
Affordable
▁Cartesian
▁Lomonosov
▁Yesterday
▁accretion
▁answering
▁assurance
▁bachelors
▁basically
▁colloidal
▁deciduous
▁employing
▁exchanger
▁imbalance
▁incubator
▁interfere
▁obstetric
▁pathology
▁societies
▁specifies
▁spreading
▁stateless
▁targeting
▁thesaurus
neighbourly
portunities
▁2015-2016.
▁Resistance
▁Resolution
▁adsorbents
▁applicable
▁carbonates
▁cardiology
▁congestion
▁dedication
▁deductions
▁encouraged
▁frequently
▁granulates
▁monovoltin
▁privatized
▁refinement
▁subroutine
▁unilateral
▁uzbekistan
▁weaknesses
Construction
▁Alternative
▁Specialized
▁Transformer
▁Translation
▁amylopectin
▁convergence
▁disseminate
▁evaluations
▁fingerprint
▁graphically
▁impregnated
▁influential
▁resolutions
▁rheological
▁worldskills
environmental
▁Aimagambetov
▁acquaintance
▁announcement
▁chlorination
▁electrocardi
▁inaccessible
▁malignancies
▁polycarboxyl
▁sequentially
▁transforming
▁disconnection
▁documentaries
▁waterproofing
▁capitalization
▁distinguishing
▁petrochemistry
▁Physicochemical
▁computerization
87
=0
CR
Gy
MB
No
Up
Zr
lp
wa
3.2
ARY
ASE
ENC
ERT
Inf
RON
Sec
but
fee
law
ros
sco
tai
two
zer
▁8-
▁Au
▁Dy
▁GC
▁KA
▁NH
▁Ps
▁[0
▁dy
▁kJ
▁ut
-10]
-13]
-800
.0%.
ABLE
Data
Educ
Test
arim
esco
news
note
nson
oken
olat
orld
rapy
uffs
▁(1/
▁(70
▁207
▁21%
▁227
▁229
▁248
▁3,5
▁33%
▁510
▁6.1
▁7%.
▁8.6
▁99%
▁Anc
▁Bro
▁Dim
▁EFF
▁Eff
▁IMF
▁MAP
▁MyS
▁Nys
▁SIM
▁Sag
▁Tag
▁Tig
▁Tit
▁UAT
▁XIX
▁kam
▁kas
▁keV
▁lon
▁nic
▁osm
▁ppp
▁rup
▁sus
▁tom
.7%),
amide
amira
asure
ataev
azhol
dinov
isual
izure
makov
model
ocins
since
tians
unity
ursed
worth
▁(1),
▁0,96
▁15-2
▁1950
▁2,58
▁Aidu
▁Bran
▁Film
▁LEDs
▁Like
▁Link
▁Perm
▁Show
▁Shui
▁Sino
▁Wang
▁Wood
▁[5].
▁accr
▁anar
▁bore
▁coag
▁dirt
▁dump
▁lane
▁nets
▁panc
▁pond
▁slog
▁sour
Method
aganak
alysis
effect
geolog
lining
rorism
stones
▁1.1%,
▁1999,
▁2015;
▁Chrom
▁Curve
▁David
▁Psych
▁Thank
▁Wheat
▁abdra
▁aging
▁allox
▁conce
▁cruel
▁denti
▁diges
▁dress
▁dubai
▁fungi
▁greet
▁kegoc
▁latin
▁nodal
▁renal
▁reuse
▁swing
▁tires
changes
ecution
elihood
entieth
gyshlak
inistic
olithic
ostress
racting
titions
trained
yryanov
▁Akimat
▁Colomb
▁Impact
▁Philip
▁Plasma
▁Travel
▁Vector
▁buried
▁clouds
▁debris
▁devote
▁enamel
▁extrab
▁galvan
▁gentle
▁glycol
▁ionite
▁kairat
▁merger
▁plains
▁pursue
▁recalc
▁storms
acheslav
function
gankulov
rational
shevroil
▁Bashkir
▁Belgian
▁Defence
▁Kuanysh
▁Message
▁armenia
▁bubbles
▁carpets
▁conserv
▁costume
▁decides
▁delayed
▁illness
▁locally
▁sellers
▁stretch
▁tribute
▁walking
President
iologists
radiation
retaceous
▁Baimenov
▁Beketaev
▁Improved
▁Mortgage
▁Moyynkum
▁SOLUTION
▁TEACHING
▁Teachers
▁analysts
▁balances
▁disorder
▁embarked
▁exporter
▁interrup
▁kaztrans
▁literate
▁ophthalm
▁orbitals
▁oxidizer
▁quarries
▁traveled
▁youngest
▁Atambayev
▁Financing
▁Intensive
▁Nauryzbay
▁abundance
▁acoustics
▁assisting
▁astronaut
▁courtyard
▁drawbacks
▁immersion
▁mentality
▁offspring
▁olympiads
▁realities
▁syntactic
▁tightened
▁travelers
▁typically
electronics
territorial
▁Autonomous
▁Developing
▁Encryption
▁Kazkontent
▁Korgalzhyn
▁absolutely
▁autoterbel
▁conscripts
▁impairment
▁likelihood
▁repertoire
▁thermostat
▁usefulness
▁witnessing
▁Declaration
▁Examination
▁Proceedings
▁Zhansugurov
▁abstraction
▁aggregation
▁compartment
▁compensated
▁contactless
▁dismantling
▁fluorescent
▁geochemical
▁photography
▁situational
▁suitability
▁accelerators
▁electrolytic
▁inscriptions
▁polymetallic
▁subparagraph
▁vaccinations
▁Organizations
▁communicating
▁complications
▁denominations
▁zoophytophage
▁extrabudgetary
,8
/2
4;
FD
GL
IO
LS
NH
bc
dh
uf
uj
za
),"
-27
1.9
2.6
Can
ENS
Kap
Man
Mat
PAN
abe
daq
ekw
gul
gyn
lep
oto
pal
ref
rog
sar
sch
tag
thy
▁(-
▁6-
▁AA
▁AP
▁DO
▁Ep
▁GR
▁Kt
▁RC
▁RN
▁kN
▁tv
Plan
adyr
akim
alks
ansk
asis
asov
enic
ikpe
ixed
loid
magn
obyl
oron
park
pars
prov
tane
uduk
ulak
ulia
zero
▁(00
▁(42
▁(80
▁-4-
▁0.1
▁0.6
▁191
▁2-5
▁217
▁253
▁38%
▁410
▁48%
▁560
▁680
▁950
▁Ayd
▁CST
▁Cyr
▁End
▁LAN
▁Len
▁MED
▁Mov
▁Sus
▁USE
▁baa
▁eeu
▁lip
▁muc
▁osp
▁tag
▁xxi
-1000
Green
ILITY
World
adequ
altyn
ammer
antry
astro
avail
brids
eners
eptic
grand
hanbe
ighur
image
inova
irsco
lides
micro
ollah
oodle
ouble
ourag
raeli
third
▁1,04
▁25%.
▁60%,
▁60%.
▁Aksh
▁Blum
▁Grid
▁HTTP
▁LoRa
▁Mode
▁NDVI
▁Prob
▁Sadv
▁Sent
▁Wide
▁asyl
▁diph
▁fasc
▁fing
▁naph
▁owns
▁scor
▁seem
▁sixt
▁slip
▁trem
▁worm
-2050.
credit
grable
linked
option
osmukh
plasma
riarch
strong
uganov
ursday
ymbets
▁0.6%,
▁2006.
▁2022,
▁3.4%,
▁Accel
▁Annex
▁Carlo
▁Clean
▁Kabib
▁Limit
▁Recep
▁Suzak
▁Those
▁Voice
▁Works
▁aquac
▁bears
▁craft
▁dilap
▁disag
▁eleph
▁fired
▁forty
▁goats
▁keeps
▁manus
▁mouse
▁nurly
▁poles
▁scrap
▁sympt
▁ultra
▁xenon
Tokayev
ankulov
bearing
ekwondo
erglass
healthy
ipheral
medical
obility
oscopic
sighted
▁Compos
▁Martin
▁Massim
▁Mutual
▁Period
▁Person
▁Rakhim
▁Saving
▁Signal
▁abbrev
▁accent
▁campus
▁canada
▁damper
▁depths
▁foster
▁fulfil
▁molten
▁moscow
▁packet
▁parach
▁pusher
▁spinal
Atameken
menistan
ouraging
urements
▁Achieve
▁Mexican
▁Organic
▁SCIENCE
▁Shukeev
▁Tourist
▁Uranium
▁Vatican
▁Yerevan
▁antibio
▁battles
▁crirsco
▁filming
▁fingers
▁flashes
▁heavily
▁hybrids
▁kazpost
▁learner
▁lexical
▁lowland
▁newborn
▁optimum
▁pillars
▁pollute
▁posters
▁rupture
▁staging
izational
olutional
▁Criteria
▁Defining
▁Fredholm
▁Integral
▁Nitrogen
▁Portugal
▁Senators
▁Variable
▁averages
▁coherent
▁costumes
▁delegate
▁factions
▁kerosene
▁searched
▁soloists
▁stimulus
▁traveler
▁vaccines
biological
employment
monitoring
▁Caribbean
▁Diffusion
▁Graphical
▁Hydraulic
▁Specifies
▁duplicate
▁favorably
▁interacts
▁pneumatic
▁shortened
▁smoothing
competitive
ogenization
pedagogical
▁2016-2017,
▁Calculated
▁Phosphorus
▁Principles
▁adjustable
▁archeology
▁biomedical
▁childbirth
▁constructs
▁encourages
▁herbaceous
▁inhibitors
▁physically
▁physicians
▁researches
▁timeliness
▁validation
mathematical
▁Operational
▁Procurement
▁Zhanakorgan
▁contingents
▁credentials
▁cytogenetic
▁directorate
▁geolocation
▁undoubtedly
▁Conservation
▁Institutions
▁Organoleptic
▁antioxidants
▁horizontally
▁introductory
▁microclimate
▁multiplicity
▁structurally
▁unsuccessful
▁correspondent
▁spectrometers
▁Pharmaceutical
▁Rehabilitation
▁Tengizshevroil
▁archaeologists
57
PE
Pe
Ts
mk
ng
oi
-9]
1.6
145
3),
4),
8.3
9.3
ADM
Big
Box
EGO
GRA
Tar
ago
asa
del
het
jar
kir
ktz
pit
ria
sym
▁AG
▁AW
▁BP
▁BS
▁CE
▁GN
▁Ib
▁PK
▁SH
▁Zr
-11]
2017
Agro
Free
amak
amsh
atan
azov
egiy
icit
idel
inea
ixle
lift
poly
pone
rier
risk
subs
take
tirt
usts
zier
▁"25
▁1),
▁149
▁2-4
▁23%
▁247
▁3%.
▁305
▁580
▁78%
▁8%,
▁8.3
▁CSS
▁EEO
▁Kuz
▁Mos
▁Nag
▁RAD
▁SED
▁SMS
▁Sha
▁Win
▁ded
▁dys
▁iOS
▁kGy
▁odd
▁rut
▁uro
Italy
Young
alley
ambul
cloud
engir
equal
itsky
jiang
large
oseph
shima
tance
there
total
trons
vinyl
ymbet
▁0,29
▁Days
▁Dise
▁Drug
▁Mend
▁Saki
▁Salt
▁Sand
▁Shok
▁Site
▁XIII
▁XXII
▁[45]
▁alex
▁bark
▁cott
▁cuts
▁ears
▁epic
▁gend
▁guys
▁hang
▁lign
▁malf
▁nucl
▁prol
▁push
▁seat
▁smes
▁sons
▁trol
▁virt
▁warn
Moscow
UATION
alieva
alling
apsari
arkand
arming
asimov
asitic
desert
ersely
ethoxy
hexane
imedes
inburg
isters
jector
shagay
taaral
timely
uesday
▁(2015
▁1.3%,
▁2002,
▁60-70
▁Aigul
▁Bloom
▁Crypt
▁Error
▁Funds
▁Gibbs
▁Polyt
▁Sched
▁Separ
▁Sound
▁alien
▁anuar
▁catch
▁fairy
▁flush
▁harms
▁loved
▁piano
▁pixel
▁proxy
▁recul
▁serum
▁skull
▁tired
▁yurts
abergen
aikazan
ikhanov
isation
located
oglobin
orbents
stantin
ymbekov
yrissov
▁Askhat
▁Biruni
▁Chance
▁Comple
▁Excess
▁Moodle
▁Repair
▁Speech
▁Stefan
▁Timely
▁Zhunus
▁arisen
▁broker
▁carcin
▁dialec
▁giants
▁nasdaq
▁paraff
▁thesis
▁toyota
Sultanov
cleaning
climatic
echanics
rekbayev
security
spective
▁100,000
▁Barakat
▁Conduct
▁Gazette
▁Graphic
▁Private
▁Silicon
▁Sobolev
▁Subject
▁analogy
▁astroph
▁beliefs
▁chromos
▁deserts
▁fencing
▁granule
▁instill
▁layered
▁loyalty
▁magneti
▁mentors
▁pushing
▁pyromet
▁sawdust
▁seizure
▁stomach
▁synergy
▁synthes
▁vietnam
ikpebeton
novations
▁2011-201
▁Bolashak
▁Chapsari
▁Colombia
▁Creative
▁Doctoral
▁Offenses
▁Panfilov
▁Practice
▁Rayymbek
▁Russians
▁Wireless
▁airborne
▁auditory
▁backward
▁cardinal
▁complies
▁consumes
▁daughter
▁dramatic
▁fluoride
▁greening
▁imangali
▁immersed
▁journals
▁meanings
▁memories
▁morality
▁pleasure
▁radicals
▁shungite
▁unifying
accharides
omposition
▁2013-2014
▁Atamkulov
▁Ayymbetov
▁Geometric
▁Karkaraly
▁Obtaining
▁Peruashev
▁Recommend
▁amendment
▁bioenergy
▁bordering
▁coincided
▁compilers
▁configure
▁counterfe
▁disintegr
▁exhausted
▁faculties
▁hayfields
▁kilograms
▁legendary
▁modulated
▁photocell
▁polymeric
▁projector
▁scratches
▁semantics
▁sidewalks
▁sociology
▁strengths
▁symposium
▁twentieth
▁2014-2016,
▁Aitzhanova
▁Algorithms
▁Cretaceous
▁checkpoint
▁chemically
▁congresses
▁demolition
▁detonation
▁encounters
▁fiberglass
▁infections
▁mechanized
▁oscillator
▁potentials
▁procession
▁quantified
▁reflective
▁repression
▁terrorists
▁translator
▁Deformation
▁Distributed
▁Exploration
▁Kazmunaigaz
▁accumulates
▁associative
▁classifiers
▁coincidence
▁consciously
▁descriptive
▁discrepancy
▁duplication
▁hostilities
▁inspiration
▁metabolites
▁multiplying
▁plantations
▁prospecting
▁woodworking
International
ystallization
▁Insufficient
▁agrochemical
▁descriptions
▁inefficiency
▁neighbouring
▁northeastern
▁constructions
▁interventions
▁personalities
▁Congratulating
▁unsatisfactory
▁INFORMATIZATION
▁internationally
,0
,3
Ad
BD
BE
EX
KP
MC
MR
Sc
TH
cs
pi
").
%).
-2,
1.7
120
2.2
2.7
:30
FER
ICI
MPC
ORK
Reg
STR
UNT
Way
bec
dan
kur
mbh
obi
oon
rer
roc
tex
upe
vin
▁"1
▁":
▁([
▁Ho
▁Ki
▁Kn
▁PS
▁PT
-15]
.0%,
acid
azed
dire
film
fire
iana
ille
ipol
ktzh
oids
ongo
ossy
outs
rhen
shan
tank
ubin
wall
ycle
zhou
▁045
▁1):
▁10)
▁2%,
▁20-
▁242
▁274
▁30-
▁365
▁520
▁54%
▁6.9
▁7.7
▁Ain
▁BAZ
▁GMA
▁Ger
▁Han
▁Job
▁Occ
▁Ore
▁Rog
▁Sky
▁TiO
▁Ven
▁axi
▁cec
▁gyn
▁neg
▁pie
▁rom
.4%),
achev
ancer
andin
atted
curve
digit
ettes
great
habar
idual
indic
ipers
isted
ketch
means
medic
ouple
pting
resis
small
tyrar
ukhov
ultai
utant
video
ville
▁0,23
▁1,01
▁1,02
▁1.2%
▁5725
▁70%.
▁Amir
▁Camb
▁Does
▁EHRs
▁Iman
▁Mach
▁Name
▁Repl
▁Saur
▁Shay
▁Shev
▁Zhig
▁[67]
▁adhe
▁aifc
▁arre
▁aven
▁cope
▁cyan
▁else
▁epit
▁forb
▁icao
▁pigs
▁puls
▁raid
▁reed
▁unde
▁wife
People
Polish
cology
combus
cycles
dollar
enghis
intell
itimic
liquid
oustic
racted
roland
vacuum
▁(2014
▁0.7%,
▁Glass
▁Karag
▁Logic
▁MAPLE
▁Maria
▁Means
▁Morph
▁Oshak
▁Roads
▁Shell
▁Speed
▁Veget
▁alpha
▁antiv
▁baton
▁centi
▁decel
▁delic
▁fence
▁firef
▁gates
▁icing
▁maker
▁needy
▁peers
▁spots
▁stain
▁tough
▁unden
abekova
antalum
condens
instein
network
ogether
patitis
rection
ropical
written
▁Akzhar
▁Amazon
▁Answer
▁Hybrid
▁Robert
▁Sharyn
▁Troops
▁Valley
▁antiqu
▁arrest
▁disrup
▁esters
▁fences
▁halide
▁hemisp
▁hiking
▁kidney
▁nadloc
▁photod
▁psycho
▁pyrite
▁reader
▁revive
▁rhythm
▁ribbon
▁thrust
▁troupe
▁turkic
▁vacant
▁weapon
aminated
analysis
arketing
bekovich
imbayeva
particip
reements
temirtau
▁Actions
▁Atbasar
▁Dirixle
▁Factors
▁Package
▁Provide
▁Respons
▁Symbols
▁Voltage
▁adilbek
▁aerobic
▁aleurol
▁console
▁densely
▁durable
▁genomic
▁heading
▁inadequ
▁inbound
▁inspect
▁intoler
▁legumes
▁molding
▁scoring
▁sensory
▁shaping
▁shrines
▁singing
▁violate
Institute
akhmetova
▁Communal
▁Introduc
▁Position
▁Slovenia
▁Spectral
▁assesses
▁berdybek
▁beverage
▁botagose
▁brigades
▁destabil
▁drafting
▁evenings
▁fourthly
▁headings
▁humanism
▁incident
▁inconven
▁inherent
▁initiate
▁intermed
▁isotopes
▁openings
▁porosity
▁promised
▁promoted
▁reliably
▁resulted
▁tracking
▁unaccept
▁upgraded
▁urgently
scientific
▁Available
▁Bashmakov
▁Basically
▁Mongolian
▁Universal
▁actuators
▁constants
▁dormitory
▁integrals
▁intuitive
▁kazenergy
▁moderator
▁motorized
▁neglected
▁neoplasms
▁northwest
▁pathogens
▁patronage
▁perennial
▁precision
▁ratifying
▁rectangle
▁singapore
▁sustained
▁taekwondo
▁templates
ethoxyethyl
▁2015-2017,
▁2016-2020.
▁Alpysbayev
▁Inspection
▁Mirziyoyev
▁Tuymebayev
▁bioreactor
▁discretion
▁excellence
▁expiration
▁hypotheses
▁indirectly
▁integrable
▁intestinal
▁liberation
▁maturation
▁partitions
▁pronounced
▁simulating
▁tajikistan
▁Investments
▁antioxidant
▁aquaculture
▁capacitance
▁consecutive
▁dilapidated
▁diversified
▁ingredients
▁interchange
▁objectivity
▁predictions
▁revolutions
▁surfactants
▁taldykorgan
▁zhoshybayev
Parliamentary
probabilistic
▁Humanitarian
▁Relationship
▁accumulating
▁artificially
▁catastrophic
▁dissertation
▁methacrylate
▁personalized
▁postgraduate
▁predominance
▁unacceptable
▁Biotechnology
▁Opportunities
▁Strengthening
▁collaborative
▁distinguishes
▁impossibility
▁proliferation
▁vulnerability
▁agglomerations
▁mathematicians
▁thermoelectric
▁parliamentarian
,5
5;
BS
ZU
aS
bb
bk
mi
si
tu
-92
2.3
978
EDO
Geo
Rel
UND
Zhe
agg
cul
dor
hum
idi
pha
rah
sem
zin
▁9)
▁Ax
▁EP
▁NC
▁NK
▁RF
▁Ry
▁TG
▁VR
▁mw
-250
ERAT
adov
alya
aque
beks
chak
cled
four
furt
gate
geny
inok
lake
look
noye
odon
ovna
ozem
raid
sand
tiev
urer
when
yles
zhol
▁1.0
▁15-
▁187
▁219
▁264
▁268
▁36%
▁6.7
▁610
▁630
▁670
▁7-8
▁9%,
▁AIS
▁Aea
▁Ata
▁Bes
▁Bog
▁CVD
▁Cad
▁DES
▁Eeo
▁Jak
▁KTZ
▁Lob
▁Men
▁Ont
▁PEO
▁SiC
▁TDM
▁Tam
▁akt
▁gaz
▁llp
▁mcm
▁muh
▁spa
.6%).
acies
adild
anbai
aters
icals
ienko
insic
losed
lower
orite
study
ulati
ulink
urate
▁1,14
▁1,17
▁1,19
▁Asar
▁Boch
▁Cosm
▁Koks
▁LEGO
▁Neum
▁Pars
▁Priv
▁Rock
▁Shah
▁Zhal
▁Zinc
▁[1-2
▁abay
▁adds
▁alim
▁apps
▁arcs
▁audi
▁baby
▁coff
▁curb
▁fant
▁fisu
▁glyc
▁gond
▁horm
▁nice
▁osce
▁styl
▁tale
Intern
aevich
agnose
asilov
estine
gevity
mitage
otropy
region
values
winter
yright
▁1.4%,
▁1.5%,
▁10-12
▁2005.
▁5.5%,
▁50-60
▁6,000
▁7,000
▁Abaya
▁Chain
▁Goals
▁Karaz
▁Visit
▁aeros
▁alkyl
▁arrow
▁berry
▁greed
▁lever
▁maneu
▁merch
▁molar
▁onset
▁posed
▁punch
▁seals
▁shore
▁shots
▁spark
▁swamp
▁throw
▁tiles
Biology
Figures
Natural
correct
emption
ilisman
jection
outhern
surgery
ubarkol
▁10-15%
▁Asanov
▁Biogas
▁Bodies
▁Branch
▁Cities
▁Daulet
▁Expand
▁Factor
▁Marine
▁Memory
▁Portal
▁Sairam
▁Sketch
▁Sklyar
▁Uighur
▁allied
▁arouse
▁barium
▁carpet
▁combin
▁cranes
▁daulet
▁dombra
▁donors
▁drafts
▁excite
▁fluent
▁garlic
▁habits
▁median
▁nearly
▁phytoc
▁piston
▁premie
▁ratify
▁redund
▁refuse
▁robber
▁roller
▁thrown
▁viewer
Baiterek
Chemical
carrying
dynamics
eningrad
imebayev
muhammad
neftegaz
platform
pressure
reliable
▁Anatoly
▁Ancient
▁Centers
▁Dosmukh
▁Dzungar
▁Karatal
▁Khairov
▁Logical
▁Manager
▁Michael
▁Musinov
▁Neumann
▁Overall
▁Senator
▁Typical
▁Uniform
▁annular
▁arrears
▁arrives
▁compass
▁credits
▁dropped
▁emerged
▁grazing
▁illicit
▁lowered
▁markers
▁offense
▁origins
▁oversee
▁packing
▁penalty
▁playing
▁refused
▁revital
▁salidat
▁stories
▁survive
▁tunnels
▁upgrade
▁varnish
▁wheeled
economics
geography
secondary
▁Appendix
▁Applying
▁Archives
▁Customer
▁Electron
▁Jurassic
▁Location
▁Magnetic
▁Multiple
▁Oralmans
▁Railways
▁Selected
▁Thursday
▁alluvial
▁browsers
▁carboxyl
▁culinary
▁diagnose
▁interfer
▁kostanai
▁portrait
▁postpone
▁recycled
▁restrain
▁reusable
▁revising
▁solvency
▁tantalum
▁weekends
▁weighted
▁welcomes
Azerbaijan
exhibition
historical
nigmatulin
▁2016-2020
▁Adaulbaev
▁Attention
▁Objective
▁Peninsula
▁Wikipedia
▁advancing
▁alignment
▁anonymous
▁asymptote
▁autoclave
▁behaviour
▁cassation
▁cognition
▁commented
▁hepatitis
▁hypochlor
▁longevity
▁mediators
▁perimeter
▁premature
▁proactive
▁quadratic
▁silicosis
▁southwest
▁stressing
▁weakening
bersecurity
▁California
▁Chancellor
▁Collection
▁Corruption
▁Mangyshlak
▁Systematic
▁Vyacheslav
▁aitzhanova
▁animations
▁approached
▁assistants
▁behavioral
▁constraint
▁correcting
▁incubation
▁infinitely
▁minimizing
▁multiplied
▁pharmacies
▁prototypes
▁publishers
▁reaffirmed
▁regularity
▁repository
▁sandstones
▁supervised
▁Compression
▁coagulation
▁compactness
▁conjunction
▁containment
▁corrections
▁distortions
▁equivalence
▁specializes
▁ActionScript
▁Myrzagaliyev
▁accumulative
▁analytically
▁burikpebeton
▁deceleration
▁regularities
▁subdivisions
▁technostress
▁Architectural
▁Confederation
▁conscientious
▁nanocomposites
)"
,9
/0
0-
1;
BA
GI
Ob
RF
UG
UI
],
ez
fi
pm
vi
wt
-05
-1-
-2)
/10
2.8
250
7.6
8.8
IAC
IDO
IEC
MAX
Mod
Mus
Sat
UAL
gly
har
kay
kit
ody
oor
osk
pek
pur
pyr
sey
sts
urm
ysk
▁3:
▁EV
▁Ha
▁MG
▁MK
▁Ri
▁Vi
▁vs
Asia
Kutt
Open
PORT
Sary
Zhab
ador
case
elve
emia
fuel
gali
hero
icef
ichi
igin
illa
oped
orto
rade
reco
refl
ttps
ucic
ycet
▁-10
▁1,8
▁228
▁25-
▁26%
▁301
▁414
▁441
▁7.3
▁72%
▁DEC
▁ESP
▁Emp
▁MeV
▁Naz
▁Rab
▁Sah
▁Sri
▁TFE
▁Tle
▁WEB
▁Wed
▁Yar
▁aib
▁awa
▁dum
▁gad
▁gor
▁iii
▁kan
▁kzt
▁nog
▁ray
▁tri
.3%).
EARCH
Organ
acerb
ascal
asses
aysan
color
ectic
ginov
ivals
llium
oices
ontin
opers
otene
rentz
sarin
style
talgo
usova
ymova
▁0,31
▁1,05
▁1,06
▁10-4
▁17.5
▁Ampl
▁CuCl
▁DATA
▁Esen
▁FeSi
▁Flex
▁Grad
▁Hiro
▁Ilya
▁MODE
▁Mans
▁PROF
▁Prin
▁SPEC
▁SaaS
▁Slav
▁Stra
▁Upon
▁anod
▁bull
▁cnpc
▁coin
▁earn
▁fest
▁kios
▁mont
▁mush
▁prox
▁rakh
▁rhiz
▁serb
▁toug
acting
alumin
boards
corbic
declar
enders
endous
ergies
format
imbets
matory
methyl
stract
timova
▁(1/3)
▁(2013
▁0.2%,
▁0.3%.
▁1.6%,
▁15:00
▁3.1%,
▁Abdul
▁Akkol
▁Anton
▁BASED
▁Dairy
▁Famil
▁Frank
▁Induc
▁Route
▁Saken
▁Spect
▁Vital
▁[1-2]
▁[1-4]
▁abuse
▁acted
▁atten
▁bibli
▁diary
▁excit
▁fibre
▁figur
▁gland
▁knots
▁login
▁minus
▁nitro
▁ruble
▁shrub
▁split
▁wired
▁worse
ATIONAL
Mathema
ashakov
azhanov
bagatai
caliber
claimed
edagogy
egiyaev
erbolat
habilit
obvious
ouville
ovisual
udaiber
ykhanov
yrbekov
▁Accept
▁Bezier
▁Conver
▁Dariga
▁Famous
▁Garden
▁Jewish
▁Manual
▁Pareto
▁Rashid
▁Respon
▁Supply
▁Target
▁Tulpar
▁Victor
▁adapts
▁afraid
▁cosmic
▁dosing
▁essays
▁gastro
▁genres
▁grapes
▁herbic
▁jurisd
▁lyceum
▁madina
▁marble
▁nanocr
▁pocket
▁ranged
▁resins
▁saxaul
▁spiral
▁suburb
▁tamara
▁titles
▁tradem
▁twelve
▁warmth
Internet
aulbayev
creative
distance
elestial
irkulova
ognitive
oplastic
otherapy
phosphor
southern
▁Biology
▁Finding
▁Guarant
▁Highway
▁Instead
▁Lorentz
▁Parties
▁Satpaev
▁alloxan
▁amirova
▁cutters
▁deliber
▁depicts
▁destiny
▁distant
▁emotion
▁eurasia
▁existed
▁fabrics
▁gondola
▁hostels
▁ingress
▁invites
▁islands
▁jumping
▁lagging
▁legends
▁metrics
▁opposed
▁packets
▁pressed
▁ranging
▁rubella
▁shorter
amytbekov
echnology
rendinsky
sensitive
ystalline
▁2007-200
▁Baidibek
▁Cyrillic
▁Electrom
▁Facebook
▁Humidity
▁Kazmedia
▁Kusainov
▁Mesozoic
▁Monetary
▁Presence
▁Rational
▁Relative
▁Tulkubas
▁assemble
▁chairing
▁colonies
▁compiler
▁deprived
▁disclose
▁doubtful
▁encoding
▁epidemic
▁ethnopol
▁extremum
▁fortress
▁nominate
▁polluted
▁pursuing
▁searches
▁surround
especially
reparation
▁Biometric
▁Correspon
▁Leningrad
▁Maktaaral
▁Pakistani
▁Seyfullin
▁Terrorism
▁Togzhanov
▁ambiguous
▁craftsmen
▁editorial
▁ensembles
▁gardening
▁hermitage
▁importing
▁intrinsic
▁naturally
▁parachute
▁photosens
▁polyhedra
▁presidium
▁recovered
▁reflexive
▁removable
▁simulator
▁telescope
▁therapist
▁valuation
independent
▁Arystanbek
▁Conducting
▁Connection
▁Konstantin
▁certifying
▁continents
▁demolished
▁deposition
▁detergents
▁discharged
▁documented
▁excavators
▁inadequate
▁incubators
▁mobilizing
▁photograph
▁stipulated
▁supporters
▁thermogram
▁thoroughly
▁traditimic
▁undeniable
▁watermelon
declarations
▁Academician
▁Correlation
▁Sarsembayev
▁Zhaksylykov
▁encouraging
▁extractants
▁inscription
▁logarithmic
▁periodicity
▁projections
▁sufficiency
▁translators
agromarketing
otechnologies
▁Consequently
▁Coordinating
▁Fundamentals
▁deficiencies
▁determinants
▁functionally
▁lithological
▁magnetodiode
▁myrzakhmetov
▁replenishing
▁Accreditation
▁Consideration
▁Visualization
▁combinatorial
▁decentralized
▁deterministic
▁encapsulation
▁geoecological
▁investigative
▁summarization
▁trigonometric
▁mathematically
3:
BP
CL
KA
NF
NS
ZH
-26
-74
10]
3.5
45.
6%)
7.5
ARI
Bul
Dep
Lab
Our
asu
azz
cho
ekt
iac
iii
mid
myr
ott
pou
var
wan
yla
yny
zhe
▁2:
▁BY
▁GO
▁LC
▁MO
▁SE
▁Sl
▁au
▁ds
▁ig
▁um
▁xn
▁xx
.6%)
HOOL
IGIT
Kore
UTZU
View
adic
aili
arsk
asat
asic
drop
egov
eing
ells
fins
heng
http
iled
izen
lova
neft
race
rors
tled
tops
tsev
uick
usse
zers
▁1-4
▁2,4
▁2,7
▁2,8
▁232
▁24.
▁269
▁298
▁303
▁322
▁34%
▁344
▁355
▁44,
▁46%
▁487
▁525
▁56%
▁58%
▁6.8
▁Ban
▁FBG
▁Hom
▁IBM
▁IoT
▁Okh
▁PET
▁PON
▁RAM
▁Zar
▁[14
▁auc
▁bun
▁cit
▁cod
▁hen
▁ich
▁ket
▁nut
▁tul
-2012
.1%),
.2%).
.4%).
IFFER
IONAL
White
alloy
alone
amura
esity
genic
inson
ircon
irrad
luoro
marks
notes
ograv
optim
oslav
otype
plate
resin
tarma
uling
undai
urday
ushed
youth
▁0,24
▁1,12
▁1,28
▁12.5
▁14%,
▁14.5
▁1400
▁18.5
▁22-2
▁Agen
▁Ages
▁Back
▁Bron
▁Camp
▁Kham
▁Kiev
▁Mill
▁NGOs
▁OJSC
▁Oman
▁RSAs
▁Sark
▁Swit
▁Tule
▁Weak
▁Zhay
▁Zher
▁[22]
▁[25]
▁[5]:
▁canv
▁dish
▁onto
▁opto
▁pall
▁pick
▁pisa
▁rods
▁suic
▁tong
▁uter
▁wake
▁yarn
-2020"
ENTIAL
France
akalov
ametov
atered
bulent
ekater
eresis
ervice
figure
iences
imetry
irable
ixture
lantic
likely
lorida
object
octane
orting
ovable
silver
▁1,600
▁2,500
▁2.2%,
▁20-25
▁2001,
▁2022.
▁3.2%,
▁3.6%,
▁Advis
▁Arena
▁Azilk
▁Daily
▁Dalen
▁Dream
▁ELECT
▁Gorge
▁Input
▁Irgiz
▁Ishim
▁Karin
▁Later
▁Occup
▁Ocean
▁Pilot
▁Suret
▁TRACE
▁Taras
▁UNIDO
▁antic
▁aslan
▁balne
▁bonus
▁chern
▁dirty
▁felds
▁italy
▁lemma
▁maize
▁merid
▁polyt
▁verge
-2050."
DUCTION
anbaeva
central
contact
mineral
ophosph
ossypol
polymer
quarter
respons
ursynov
▁Abylai
▁Author
▁Bacter
▁Berdim
▁Danish
▁KazNTU
▁Macrom
▁Motion
▁Oracle
▁Otyrar
▁Recent
▁STRUCT
▁Spring
▁Trilon
▁Ulytau
▁Valent
▁alpine
▁ballot
▁banner
▁builds
▁clergy
▁cultiv
▁dipole
▁diving
▁elders
▁hydrot
▁indoor
▁inflam
▁insert
▁isomer
▁karach
▁marker
▁onions
▁outbre
▁pledge
▁poetry
▁rectil
▁relies
▁resign
▁rotors
▁safely
▁shocks
▁slogan
▁slowed
▁stairs
▁unisef
▁uptake
▁vapors
▁virgin
Computer
azardous
district
illonite
judicial
oretical
ormittal
osphoric
otrophic
pectives
prepared
shymkent
tificate
urations
▁Advisor
▁Akbulak
▁Contact
▁Creates
▁Display
▁Kinetic
▁Limited
▁Protein
▁Tuesday
▁analyse
▁biaxial
▁chooses
▁dealers
▁doubles
▁exacerb
▁headers
▁illumin
▁invests
▁kuandyk
▁lobster
▁martens
▁nesting
▁outflow
▁planets
▁retired
▁routing
▁sludges
▁snipers
▁springs
▁wherein
astically
excluding
mukhanbet
ographics
president
protected
structive
▁Belgrade
▁Combined
▁Designed
▁Dushanbe
▁Einstein
▁Ospanova
▁Peculiar
▁Pipeline
▁Possible
▁actuator
▁approves
▁averaged
▁bisector
▁branched
▁compares
▁cottages
▁cuttings
▁diagonal
▁exempted
▁fittings
▁flourish
▁indexing
▁linearly
▁medalist
▁minority
▁modifier
▁overpass
▁printers
▁pyramids
▁regiment
▁renaming
▁surveyed
▁trainers
▁treasure
▁unlikely
▁untimely
▁verified
Industrial
extraction
individual
intestinal
measurable
molybdenum
othiophene
▁Mechanics
▁Similarly
▁Spiritual
▁augmented
▁brotherly
▁celestial
▁copyright
▁directing
▁enclosing
▁exploring
▁intersect
▁inventors
▁minimized
▁parasitic
▁performer
▁physician
▁primitive
▁privately
▁profiling
▁publishes
▁rehabilit
▁residency
▁sentenced
▁shoulders
▁souvenirs
▁stainless
▁tutorials
▁urbanized
demographic
ysiological
▁2014-2015.
▁Adaptation
▁Geographic
▁Kazalinsky
▁Previously
▁automakers
▁compromise
▁coniferous
▁contradict
▁diagnosing
▁ferrosilic
▁households
▁identifier
▁peacefully
▁polyhedron
▁privileges
▁receptions
▁redemption
▁tremendous
agricultural
geographical
▁MATHEMATICS
▁Regulations
▁Zerendinsky
▁biomedicine
▁directories
▁earthquakes
▁inheritance
▁interfacial
▁objectively
▁oscillogram
▁photoeffect
▁positioning
▁rectilinear
▁restricting
▁willingness
▁advantageous
▁carbonaceous
▁complication
▁conscription
▁depreciation
▁hypochlorite
▁implantation
▁inflationary
▁interchanges
▁jurisdiction
▁minimization
▁perspectives
▁phosphorites
▁polymorphism
▁turkmenistan
▁conversations
▁interactivity
▁pediatricians
▁spectroscopic
▁subsidization
▁transmissions
▁serviceability
▁supercomputers
▁polycarboxylate
▁polyelectrolyte
,7
BL
FE
SH
TL
XT
mu
nb
pH
-28
1,3
1,8
350
4%)
5%,
550
6),
6.7
859
CoV
Dan
IID
ILE
adi
aux
bow
cap
iko
isy
len
mud
nia
oli
run
sto
tel
ulu
xin
▁-0
▁-3
▁5]
▁CU
▁EK
▁KB
▁LP
▁LV
▁VM
▁ae
▁rk
-239
Cons
Zhas
aire
ania
arth
asts
avod
crim
disp
elli
este
hyra
ilik
inat
kers
loss
odka
oglu
ompl
paev
pakd
quan
rece
trum
uang
unai
vili
ybek
▁(29
▁(45
▁(90
▁1%,
▁213
▁223
▁23.
▁24-
▁29%
▁30.
▁308
▁313
▁317
▁345
▁425
▁435
▁455
▁5.9
▁52%
▁6.4
▁8.9
▁ALG
▁Adj
▁Akb
▁Aug
▁Bad
▁Bus
▁CBR
▁Dig
▁Gel
▁Gro
▁Ide
▁Ott
▁Raw
▁Rom
▁SVM
▁Squ
▁Tan
▁XIV
▁Zel
▁[13
▁bek
▁eao
▁ios
▁lam
▁nce
▁nik
▁obl
▁rat
▁tab
▁ubh
Honor
Logic
Peace
Taraz
arent
arsak
arsky
aulen
bauer
black
earth
gabat
gling
gulov
iders
ignal
iline
ismic
omega
ophos
solid
terol
ughal
▁(2),
▁0,20
▁0,92
▁0.3%
▁0.7%
▁0000
▁1,15
▁1.5%
▁10-3
▁103,
▁11.8
▁1150
▁13%,
▁1987
▁1988
▁21-2
▁7-10
▁APCS
▁Akzh
▁EDTA
▁Feed
▁GRID
▁Gene
▁Give
▁Kazg
▁Ktzh
▁Leon
▁Malt
▁NaOH
▁PEOU
▁Play
▁Plot
▁Repe
▁Rest
▁Sher
▁Tele
▁Volo
▁Wast
▁Yass
▁Zhap
▁ally
▁asks
▁bery
▁coil
▁cube
▁curd
▁dash
▁dece
▁didn
▁fanc
▁gamb
▁grey
▁hire
▁hosp
▁inks
▁kozh
▁morb
▁nose
▁oraz
▁peti
▁poin
▁sang
▁shol
▁ulan
▁varn
-2016"
-2021,
ECTION
Econom
IGITAL
blocks
during
except
hevron
master
meters
mining
modern
nesday
number
omotor
ortion
ourist
phthal
sphere
square
streng
uating
utable
▁0.5%.
▁0.8%.
▁1.2%,
▁1.3%.
▁1996,
▁2.5%,
▁2.6%,
▁2015"
▁2050"
▁Award
▁Chart
▁Cuban
▁Ether
▁Koshi
▁Mongo
▁Motor
▁Stone
▁Tokai
▁Zhety
▁[3-5]
▁[4-6]
▁atlas
▁cease
▁cheer
▁chron
▁desks
▁georg
▁https
▁incur
▁overl
▁rapes
▁rides
▁sells
▁spray
▁syria
▁truck
▁tuple
Private
Program
agadiev
agulant
amilton
anbayev
asbekov
enbaeva
enbekov
imeters
ivalent
markets
ophages
optical
uantity
ventory
▁30,000
▁Anshka
▁Beineu
▁Filter
▁Guinea
▁Kaskel
▁Kenzhe
▁Metall
▁Plants
▁Propos
▁SCHOOL
▁Sarysu
▁Sodium
▁Summer
▁Yandex
▁Zhanar
▁acclim
▁admire
▁anatom
▁anions
▁baibek
▁coffee
▁copied
▁gadget
▁gaming
▁housew
▁juices
▁malays
▁melody
▁micros
▁misuse
▁mortar
▁orthop
▁photoc
▁plural
▁poster
▁purely
▁rounds
▁rubble
▁shubat
▁slices
▁styles
▁surren
▁throne
▁unable
▁waterf
Balkhash
ervasive
estrians
hembayev
medicine
paraffin
pleasant
reditary
stelecom
▁Anthrop
▁Chechen
▁Consult
▁Devices
▁Diamond
▁Genghis
▁Imashev
▁Mapping
▁Natalya
▁Regular
▁Satybal
▁Savings
▁Tbilisi
▁Vicente
▁accompl
▁ballots
▁berries
▁briefed
▁broiler
▁bromide
▁chilled
▁conical
▁daytime
▁deviate
▁donated
▁eclipse
▁entries
▁frontal
▁granary
▁infants
▁kidneys
▁maltose
▁neither
▁nursery
▁obesity
▁pigment
▁plaster
▁pursuit
▁roaming
▁shifted
▁texture
▁thyroid
accharide
ansorbent
consuming
emotional
magnesium
ughalzhar
▁Agencies
▁Analyzer
▁Constant
▁Daulbaev
▁Ethernet
▁Existing
▁Khromtau
▁RESEARCH
▁SketchUp
▁Thinking
▁Zyryanov
▁achieves
▁agroland
▁alloying
▁antimony
▁avoiding
▁classics
▁contests
▁contours
▁drawback
▁excludes
▁glorious
▁inviting
▁kazeosat
▁keywords
▁knitting
▁missiles
▁outbound
▁patience
▁phishing
▁predicts
▁prompted
▁prosthes
▁quantify
▁quarters
▁recorder
▁rejected
▁semester
▁shipment
▁spelling
▁sulphide
▁symptoms
▁volcanic
▁voltages
▁wormwood
▁Cambridge
▁Corporate
▁Elections
▁Indicates
▁Personnel
▁Regarding
▁Relevance
▁Zhanazhol
▁advertise
▁attractor
▁botanical
▁colorless
▁discontin
▁displaced
▁enriching
▁impressed
▁incidents
▁intercity
▁isotropic
▁justifies
▁morbidity
▁occupying
▁paralysis
▁paramount
▁porcelain
▁reporters
▁reviewing
▁seriously
▁signaling
▁spreadshe
▁usability
Zhoshybayev
combustible
▁Dimensions
▁Publishing
▁Shevchenko
▁Tarbagatai
▁bioethanol
▁carbonated
▁clinicians
▁complicate
▁disappears
▁generalize
▁inaccurate
▁issekeshev
▁mineralogy
▁obligatory
▁occupation
▁peripheral
▁persistent
▁playground
▁programmed
▁respective
▁robustness
▁summarizes
▁thresholds
▁variations
Turkmenistan
communicable
ekaterinburg
▁Experiments
▁Kazmunaigas
▁Kazneftegaz
▁Mukhambetov
▁Supervision
▁Turgankulov
▁bishimbayev
▁conflicting
▁consumables
▁dialectical
▁distributes
▁eigenvalues
▁ferrochrome
▁financially
▁geopolitics
▁pedestrians
▁perceptions
▁periodicals
▁photomodule
▁technicians
▁tournaments
luoroethylene
▁Karachaganak
▁Philharmonic
▁Presentation
▁Verification
▁authenticity
▁choreography
▁conferencing
▁ecologically
▁firefighters
▁hospitalized
▁immeasurable
▁incompatible
▁journalistic
▁philharmonic
▁unproductive
▁unstructured
▁Biostimulator
▁Peculiarities
▁Thermodynamic
▁compositional
▁convolutional
▁formalization
▁recultivation
▁configurations
▁macromolecules
▁thermochemical
,4
Af
BI
Bo
CI
Hy
Mn
OF
Re
Se
-8]
150
2,5
2.4
4.1
7,4
9.9
ANS
Ban
Bol
Eng
One
auf
aui
boy
gym
ias
kop
obo
pop
sha
soc
wer
▁);
▁9.
▁FT
▁GA
▁GI
▁HR
▁KK
▁dx
▁ef
▁ik
▁mM
▁xv
-10-
-12]
Ener
IFIC
NiFe
Soft
This
amzh
arkh
arms
benz
efir
eman
emes
galy
inar
inic
ione
iped
koye
logy
mind
nady
reti
tine
tran
utyl
wich
zhen
▁";"
▁0.4
▁002
▁006
▁015
▁1,7
▁1..
▁266
▁273
▁279
▁444
▁660
▁7.6
▁74%
▁8.7
▁9%.
▁ACM
▁Ath
▁Bok
▁CdS
▁Dry
▁FDD
▁Fab
▁Gab
▁HAS
▁Lib
▁Lis
▁MAN
▁NLP
▁NoS
▁Ori
▁Ric
▁Six
▁Sof
▁TEM
▁Tyn
▁UES
▁Ufa
▁ata
▁caf
▁dub
▁ebr
▁eut
▁ger
▁hur
▁ink
▁von
-2006
-2007
-2011
First
IVERS
ORITH
amila
amkas
appro
arbon
arial
avian
bonds
ceans
ifice
iotic
irati
ivial
izhan
kazyn
kirts
ocard
olean
onial
oraig
ovets
polar
repar
rophe
urers
ynsky
yrova
▁0,99
▁1,08
▁1,09
▁1,16
▁1.3%
▁18%,
▁4,11
▁Clay
▁Dust
▁FEAT
▁File
▁Fort
▁Kush
▁Lore
▁NIPA
▁News
▁Past
▁Pipe
▁SARS
▁Scan
▁Smol
▁Unix
▁Zhur
▁[2]:
▁[78]
▁auez
▁cant
▁capt
▁cave
▁coca
▁coup
▁csto
▁eras
▁flew
▁genu
▁gyms
▁kcal
▁neon
▁ruth
▁sars
▁stem
▁tere
▁vain
▁wash
▁zeol
-2015.
Korean
Zhabag
alpine
bergen
bolite
determ
filled
hances
incing
itudes
lement
locked
manova
persed
pukhov
scopes
source
stress
tariff
ulette
usions
ycetes
▁0.2%.
▁1.9%,
▁2.4%.
▁2.7%,
▁4,500
▁4.3%.
▁40-50
▁5.1%,
▁5.2%.
▁Akims
▁Broad
▁Chair
▁Costa
▁Costs
▁Greco
▁Lanka
▁Medeu
▁SMART
▁Tobol
▁Trust
▁Vucic
▁Yelem
▁Zerde
▁[2-4]
▁actor
▁ampou
▁aside
▁blind
▁cartr
▁coals
▁disks
▁feeds
▁genus
▁harsh
▁joins
▁kilow
▁lacqu
▁meant
▁nanof
▁ponds
▁racks
▁radii
▁saudi
▁talgo
▁tents
▁trunk
▁unsat
▁worms
▁zholy
Central
akovlev
amental
ategory
awaited
diagram
ferenti
hydroxy
lopkova
ommerts
▁20-25%
▁Abylay
▁Kurban
▁Medium
▁Negoti
▁OBJECT
▁PROGRA
▁Prince
▁Rustam
▁Samara
▁Shadow
▁Stabil
▁Thomas
▁Tigran
▁Ustirt
▁acuity
▁alstom
▁armies
▁asking
▁boiled
▁calibr
▁crowds
▁diverg
▁driven
▁faulty
▁folded
▁folder
▁french
▁gladly
▁hortic
▁ichthy
▁inputs
▁league
▁modify
▁mounds
▁needle
▁nerves
▁packed
▁pellet
▁pixels
▁suscep
▁traded
▁traged
▁unreal
▁voices
▁winged
Database
Saryarka
aircraft
amzharov
ationing
designed
internal
military
ographer
ophysics
projects
reatment
startups
ynthetic
▁Analyze
▁Angular
▁Burabai
▁Calcium
▁Charter
▁Command
▁Compton
▁Consent
▁Johnson
▁Kazzinc
▁Keyword
▁MongoDB
▁Museums
▁Musical
▁PROFESS
▁Related
▁Removal
▁UNIVERS
▁abolish
▁caustic
▁centric
▁chevron
▁conquer
▁dancers
▁darkhan
▁denoted
▁drilled
▁droplet
▁enabled
▁endemic
▁evident
▁fastest
▁hungary
▁ionites
▁meadows
▁nozzles
▁offline
▁patents
▁platoon
▁precise
▁recipes
▁removes
▁renting
▁routers
▁seasons
▁soybean
▁tripled
Geography
ibullayev
jectories
propelled
ustrative
ysteresis
▁ALGORITH
▁Croatian
▁Detailed
▁Dialogue
▁Dusenova
▁Emission
▁FEATURES
▁Geometry
▁Imangali
▁Modified
▁Mohammad
▁Printing
▁Sanitary
▁Zhanseit
▁Zhigalov
▁ancestor
▁anionite
▁bloggers
▁blowdown
▁bolashak
▁carriage
▁declined
▁decompos
▁donation
▁editions
▁elevated
▁enhances
▁faithful
▁fulfills
▁imprison
▁infantry
▁infected
▁insights
▁inspires
▁multiply
▁oilfield
▁rapeseed
▁referral
▁responds
▁survival
▁yonsonic
components
connection
horizontal
irradiated
parametric
regulating
▁Chernobyl
▁Describes
▁Generator
▁Karazhyra
▁Portfolio
▁Promotion
▁Schematic
▁Shardarin
▁Yelemesov
▁accessing
▁austenite
▁beginners
▁breakdown
▁companion
▁convening
▁criminals
▁dissatisf
▁entrances
▁evaluates
▁flowering
▁gardeners
▁hardening
▁inhabited
▁intervene
▁monograph
▁ozonation
▁preserves
▁separates
▁sharpness
▁supporter
▁threatens
morillonite
▁2015-2017.
▁Cosmodrome
▁Diagnostic
▁Difference
▁Healthcare
▁Indonesian
▁Reflection
▁acrylamide
▁birthplace
▁convincing
▁descriptor
▁exchangers
▁excitement
▁exothermic
▁highlights
▁inductance
▁lianyungan
▁neuropsych
▁reimbursed
▁sculptures
▁specifying
▁stationery
▁technopark
▁treatments
▁undertakes
▁unpleasant
▁velocities
▁vertebrate
▁Calibration
▁Electricity
▁Innovations
▁Shchuchinsk
▁Underground
▁audiovisual
▁consequence
▁constituent
▁counterfeit
▁endothermic
▁imagination
▁motorcycles
▁photometric
▁refinancing
▁spectacular
▁topological
▁unsaturated
▁Competitions
▁MATHEMATICAL
▁Universities
▁encyclopedia
▁recognizable
▁thermocouple
▁dimensionless
▁geomechanical
▁nanomaterials
▁retrospective
▁semipalatinsk
▁statistically
▁petrochemicals
▁Desertification
▁hospitalization
▁instrumentation
Ko
Le
UO
gt
kr
oh
oj
rc
");
-4-
-65
1%,
1.4
2.9
8.5
AGE
Com
Int
Map
NIP
ORY
cur
det
due
ecu
eur
hom
hyt
ibe
iva
kes
lat
lib
nev
opy
ovy
pet
rie
ski
tec
tub
uov
zhi
▁Fo
▁GL
▁Lp
▁MF
▁Pt
▁Rn
▁TD
▁TP
▁WA
▁XE
▁ay
▁hu
▁ns
.04.
Rise
Time
UNIC
adap
adeh
alad
asia
blue
clay
cola
erne
grap
held
hmad
kets
klah
lued
mers
mode
oter
oven
sted
uery
ymov
▁(28
▁-20
▁0,0
▁0.0
▁11]
▁12.
▁2):
▁212
▁258
▁26.
▁272
▁3-6
▁306
▁316
▁318
▁323
▁335
▁336
▁337
▁38,
▁385
▁49%
▁490
▁5-8
▁53%
▁615
▁8-9
▁87%
▁88%
▁925
▁ASS
▁Asa
▁Bre
▁CaO
▁Cur
▁Eco
▁Esk
▁GAS
▁Jum
▁Ket
▁Kyn
▁Lew
▁MES
▁MOB
▁Mic
▁Omb
▁REM
▁ROB
▁Sho
▁Sin
▁USB
▁WHO
▁Zen
▁dav
▁fic
▁ham
▁hoc
▁iCE
▁kHz
▁kmg
▁sor
▁syr
▁tug
.6%),
Latin
Youth
arova
atesh
chrom
elong
etraf
icing
icirc
ipova
maker
ocond
omura
ouses
roids
uresh
▁0.4%
▁100-
▁11.2
▁13.1
▁1900
▁1930
▁2.5%
▁2.9%
▁3.3%
▁3500
▁90%.
▁Beke
▁Cold
▁Disp
▁Diss
▁Docs
▁ECDs
▁Fair
▁Goal
▁Grig
▁Guid
▁Kain
▁KazM
▁LADM
▁NASA
▁Pale
▁Pave
▁Plus
▁Prop
▁Riga
▁Ship
▁Uraz
▁[6].
▁bulb
▁bund
▁clan
▁defl
▁desk
▁epis
▁forg
▁gmbh
▁jack
▁oats
▁para
▁peer
▁pier
▁saig
▁shan
▁tone
▁toys
▁ural
▁vlad
▁wine
▁zhas
Samruk
Turkey
aimbek
aktobe
arkhoz
besgue
comput
corpor
degree
ecycle
enters
gozhin
linsky
medium
monium
rowser
stuffs
ubayev
ulfate
usupov
▁0.1%.
▁1993.
▁2.1%,
▁2.4%,
▁2007.
▁2017"
▁3.8%,
▁Above
▁Accum
▁Areas
▁Boris
▁Brick
▁Darbu
▁Deleg
▁Excav
▁Flour
▁Focus
▁Koksu
▁Learn
▁Poles
▁Recre
▁Simpl
▁Sugar
▁aerob
▁agron
▁alleg
▁allot
▁argue
▁cabin
▁climb
▁doesn
▁gastr
▁indef
▁jumps
▁kefir
▁lamin
▁limbs
▁locks
▁monoc
▁paleo
▁rapil
▁recur
▁reeds
▁renov
▁resil
▁tache
▁traps
-2020,"
Israeli
Spanish
achenko
agulova
angered
ariance
atogram
atology
centric
dumping
ersonal
estyles
fficial
filling
grative
istracy
kazagro
machine
ossipol
planned
present
rentiev
rically
support
uggling
ukhanov
utative
▁Bronze
▁Cradle
▁Demand
▁Estate
▁Kalash
▁Oscill
▁Pavlov
▁Philos
▁Shinzo
▁Sulfur
▁Summar
▁Tynysh
▁Vitaly
▁Vostok
▁accust
▁arabia
▁breath
▁bronch
▁carved
▁closes
▁hammer
▁hexane
▁hiring
▁korean
▁notary
▁oceans
▁orbits
▁payers
▁polyph
▁poplar
▁thinks
▁traced
▁tribut
▁varied
▁zircon
Economic
aternary
inokurov
istocene
loporite
neighbor
ortostan
osystems
piration
rometric
thousand
▁Analyst
▁Artists
▁Balkash
▁Bangkok
▁Betpakd
▁Ecuador
▁Eternal
▁Explain
▁Extreme
▁Formula
▁Jakupov
▁KAZUTZU
▁Karakiy
▁Maykeev
▁Outcome
▁Present
▁Release
▁Sulphur
▁Sustain
▁Vitamin
▁Yelzhan
▁accrued
▁alloyed
▁annexes
▁bakauov
▁binders
▁bonding
▁calorie
▁cargoes
▁concret
▁cookies
▁crosses
▁debates
▁deleted
▁denotes
▁distill
▁empower
▁fighter
▁imposes
▁keyword
▁laptops
▁monomer
▁nitride
▁parcels
▁peptide
▁portion
▁resorts
▁salting
▁seventy
▁soloist
▁spreads
▁toolbar
▁totally
▁trusted
▁underes
▁watered
Education
depending
improving
inematics
itentiary
olesterol
phthalate
plemented
represent
resources
▁9001:200
▁AnyLogic
▁Aquamira
▁Choosing
▁Hardware
▁Lebanese
▁Lebesgue
▁Mazhilis
▁Monument
▁Progress
▁Province
▁Requires
▁Residual
▁Sagadiev
▁Sampling
▁Simulink
▁Sorption
▁absentee
▁arbolite
▁bioindic
▁biscuits
▁coloring
▁deciding
▁dispatch
▁elephant
▁endocrin
▁equalize
▁ethnoaul
▁excitons
▁feldsher
▁fluorine
▁harmless
▁hydroxyl
▁inhibits
▁inspired
▁interrog
▁kindness
▁luminous
▁malaysia
▁mismatch
▁petition
▁premiere
▁punished
▁receipts
▁regarded
▁rhizomes
▁roulette
▁saryarka
▁semicirc
▁shippers
▁swinging
▁trustees
▁weakened
assessment
entreprene
friendship
generating
innovation
▁Argentine
▁Caucasian
▁Comparing
▁Exoskelet
▁Expansion
▁FORMATION
▁Mandatory
▁Molecular
▁Ordabayev
▁Wednesday
▁antivirus
▁avalanche
▁bypassing
▁chernozem
▁commended
▁comprehen
▁executing
▁fasteners
▁foothills
▁forbidden
▁immovable
▁inhibitor
▁kilometer
▁latitudes
▁malicious
▁mangystau
▁obviously
▁outskirts
▁pheromone
▁phosphine
▁photoelec
▁pollutant
▁pyramidal
▁radiators
▁rendering
▁retrieval
▁streaming
▁terminate
▁visualize
▁witnesses
▁yellowish
appropriate
educational
hentication
▁2014-2016.
▁Kabibullah
▁Vocational
▁anisotropy
▁courtyards
▁descending
▁dismissing
▁embodiment
▁formalized
▁hemisphere
▁hereditary
▁instituted
▁majilismen
▁microphone
▁monolithic
▁motorcycle
▁substation
▁successive
▁synthesize
▁threatened
▁tomography
▁unreliable
▁vaccinated
confessional
▁Coefficient
▁Groundwater
▁Kokrekbayev
▁Possibility
▁Researchers
▁challenging
▁comparisons
▁complicates
▁dissipation
▁fluctuation
▁geoeconomic
▁geometrical
▁impractical
▁intolerance
▁millimeters
▁outsourcing
▁programmers
▁prospective
▁rationality
▁recommender
▁tetrahedral
▁workstation
▁Additionally
▁Disabilities
▁Kalmukhanbet
▁Modification
▁Mukhamediuli
▁Occupational
▁Tasmagambets
▁arrangements
▁cardiologist
▁compensatory
▁designations
▁disseminated
▁dzhaksybekov
▁hydromineral
▁psychologist
▁radiological
▁superplastic
▁tangirkulova
▁telemedicine
▁trajectories
▁translations
▁disseminating
▁terephthalate
▁Transformation
▁cryptocurrency
▁homogenization
▁methodologists
▁Congratulations
▁Electromagnetic
▁microprocessors
)]
59
=1
BT
EE
GK
IB
Mr
Nr
PD
Pb
To
UK
ni
tv
011
11]
12]
40.
CaO
Che
DER
ERN
IPT
Ivo
LET
Sem
Tem
Vol
ahu
cop
dev
edy
enc
eni
eri
fat
flo
isi
kyo
odi
oni
opt
oys
pez
pow
pox
pto
sit
tam
tib
viz
yld
▁")
▁0;
▁7]
▁8]
▁AU
▁DG
▁ES
▁Ek
▁GS
▁HY
▁IF
▁IX
▁Lu
▁MV
▁RP
▁Sn
▁WS
▁Za
▁iz
▁mV
▁ru
-25,
2...
Coun
HSAS
Lite
Mass
Shan
What
adec
akte
amat
appy
aray
atro
azev
eart
fare
fram
host
icks
ifth
istr
iyad
kali
kaya
lick
mill
ococ
olas
omal
osyn
some
tebr
turk
ubar
wait
▁(32
▁(35
▁14.
▁181
▁209
▁282
▁3.9
▁348
▁367
▁37%
▁373
▁390
▁4,5
▁41%
▁415
▁43,
▁51,
▁514
▁55,
▁66,
▁7.8
▁82%
▁9.2
▁92%
▁920
▁940
▁CRM
▁ERP
▁Fis
▁GAC
▁Los
▁MPI
▁OLT
▁PAN
▁Raz
▁Sak
▁Sok
▁Sor
▁Tol
▁akb
▁ank
▁bif
▁dBA
▁els
▁kab
▁kel
▁lug
▁ode
▁ove
▁rav
▁sms
▁thi
▁ubx
-8859
Armen
ITION
Kadex
Today
Union
amedi
arism
aziev
brown
ensis
eshov
estro
gages
ibenz
igent
isine
ivery
kulan
ortal
orthy
overe
price
rague
rease
ronym
therm
trade
▁(19)
▁0,22
▁1,03
▁1,10
▁1...
▁1.7%
▁107,
▁12%,
▁3,30
▁3.5%
▁3300
▁35%.
▁4.7%
▁80%,
▁COND
▁COUR
▁FPGA
▁Fast
▁Foot
▁Karl
▁Kass
▁Made
▁Male
▁Milk
▁Much
▁Need
▁Olga
▁Prec
▁Role
▁Rome
▁Seit
▁Sequ
▁Shap
▁TFBG
▁Zheo
▁[5],
▁bars
▁bees
▁beta
▁boom
▁eaeo
▁ebrd
▁erup
▁fist
▁glob
▁kits
▁mash
▁meta
▁ngos
▁pink
▁slot
▁thyr
▁wins
Integr
Ivoire
Modern
abaeva
adyrov
agadat
agency
aminif
commod
echnic
ellate
ellers
family
ifteen
inator
inflam
iyarov
kolnik
lovkin
metall
minded
osaurs
oyarsk
phabet
posure
roying
solute
sports
tiform
ukenov
yellow
▁0.5%,
▁4.3%,
▁4.5%,
▁50001
▁6.8%,
▁Abaev
▁Ainur
▁Aisha
▁Chang
▁Hardy
▁Irina
▁Julia
▁Laser
▁Money
▁Nural
▁OHSAS
▁Obama
▁RESUL
▁ROBOT
▁Right
▁Shakh
▁Which
▁[1-5]
▁[2-3]
▁alert
▁alive
▁aubak
▁baths
▁drift
▁ether
▁fried
▁halal
▁humic
▁karim
▁lunch
▁maybe
▁murat
▁narco
▁roofs
▁samat
▁tense
▁tokyo
▁troub
▁undis
▁unify
▁vodka
ILITIES
Kazagro
actical
arnikov
ashvili
elastic
ergetic
klahoma
legenov
omotive
ontakte
product
regions
riozers
skilled
speople
udation
uestion
uterres
virtual
▁15-20%
▁Akhmed
▁Baybek
▁Boiler
▁Cambod
▁Finger
▁MOBILE
▁Mynbai
▁Pascal
▁Possib
▁Sahara
▁Strain
▁agrees
▁anhydr
▁askhat
▁backup
▁bakhyt
▁basalt
▁canvas
▁conjug
▁guards
▁handic
▁helioc
▁hinder
▁honors
▁idriss
▁impose
▁incred
▁inland
▁inviol
▁kiosks
▁rapper
▁repaid
▁rotate
▁sklyar
▁sleeve
▁smoked
▁spills
▁strike
▁tongue
Japanese
Physical
Tashkent
chloride
endarbek
enkatesh
ressible
rupulous
software
▁Applies
▁Aryskum
▁Bitumen
▁Courage
▁DIGITAL
▁Factory
▁Gazprom
▁Humilev
▁Improve
▁Krymbek
▁Located
▁Meeting
▁Methane
▁Officer
▁Plastic
▁Records
▁SPECIAL
▁Saryark
▁Spectra
▁Sydykov
▁aerosol
▁broader
▁courier
▁cruelty
▁cuisine
▁deepens
▁deserve
▁detects
▁disable
▁enlarge
▁fiction
▁foundry
▁gadgets
▁grating
▁imagery
▁insured
▁intoxic
▁kitchen
▁magnets
▁miracle
▁myocard
▁obliges
▁oblique
▁patrons
▁plotted
▁reacted
▁sagadat
▁sailing
▁secured
▁simplex
▁sisters
▁starter
▁strives
▁suburbs
▁sucrose
▁surgeon
▁synonym
▁tankers
▁teenage
▁tragedy
▁trolley
atography
hydraulic
licensing
saturated
urability
▁Advisory
▁Approxim
▁Ashgabat
▁Aslanbek
▁Carrying
▁Complete
▁Diseases
▁Duration
▁Freebase
▁Mustafin
▁Register
▁Reserves
▁Sberbank
▁Schedule
▁Sidorsky
▁Treasury
▁Yakovlev
▁adhesive
▁adsorbed
▁advocacy
▁analytic
▁appendix
▁astronom
▁auctions
▁birtanov
▁cheapest
▁checkers
▁checksum
▁clicking
▁cryocond
▁detained
▁disperse
▁displace
▁educates
▁entirely
▁evolving
▁explicit
▁formalin
▁gasified
▁gossypol
▁invoices
▁knitwear
▁launches
▁massimov
▁mazhilis
▁mediator
▁microbes
▁mitigate
▁nitrates
▁notation
▁oriental
▁polygons
▁powdered
▁profound
▁reminded
▁rhythmic
▁ripening
▁seamless
▁shoulder
▁surgeons
▁toponymy
▁tropical
▁worsened
Electronic
controller
methodical
udaibergen
▁Aksakalov
▁Bukhtarma
▁Condition
▁Mechanism
▁Patriarch
▁Tarasenko
▁Zhanaozen
▁airfields
▁announcer
▁arbitrary
▁atamkulov
▁attacking
▁audiences
▁avoidance
▁beryllium
▁borrowing
▁breakfast
▁communiqu
▁completes
▁deduction
▁delighted
▁demanding
▁densities
▁designate
▁extending
▁freestyle
▁hexagonal
▁importers
▁inherited
▁insulated
▁invisible
▁isolating
▁machining
▁meanwhile
▁messaging
▁microbial
▁mortgages
▁normalize
▁optimizes
▁permitted
▁pervasive
▁plaintext
▁propagate
▁pulmonary
▁renovated
▁reputable
▁resistors
▁silicates
▁versatile
IFFERENTIAL
application
kazatomprom
obilization
▁Aldabergen
▁Bolashakov
▁Initiative
▁Productive
▁Spartakiad
▁Zheenbekov
▁abandoning
▁amplitudes
▁cavitation
▁connectors
▁constitute
▁currencies
▁cyberspace
▁destroying
▁endangered
▁extinction
▁geologists
▁graduating
▁granulated
▁gymnastics
▁herbicides
▁initiating
▁inventions
▁landslides
▁laundering
▁lifestyles
▁monographs
▁ornamental
▁possessing
▁prevailing
▁requesting
▁respecting
▁surrounded
▁unfinished
constructive
inflammatory
▁Electronics
▁Linguistics
▁Polytechnic
▁accommodate
▁attenuation
▁bureaucracy
▁expeditions
▁hydrophilic
▁interrupted
▁lianyungang
▁occupations
▁polymorphic
▁predictable
▁reorganized
▁researching
▁townspeople
▁watercourse
▁alternatives
▁colorimetric
▁generalizing
▁inflammation
▁interpreting
▁masterpieces
▁morphometric
▁radionuclide
▁renunciation
▁synthesizing
neighborliness
▁Bashkortostan
▁disappearance
▁ethnopolitics
▁fluorographic
▁mechanization
▁methodologies
▁nanofrequency
▁revolutionary
▁congratulating
▁contemporaries
▁differentiable
▁exhaustiveness
▁investigations
▁functionalities
/4
53
Ac
EK
Er
HT
KS
jm
▁]
-08
-1"
-85
.2.
3,4
3.1
4.2
4.4
5.3
Bir
DFS
EGR
EOL
MMA
Mal
NiP
RIC
TPE
aku
amk
arc
aze
das
ede
flu
fly
gau
igu
inn
iry
iza
jus
kon
muh
nit
owl
sac
sal
tay
tyn
▁Ai
▁Eg
▁HB
▁Hi
▁MM
▁MT
▁Ns
▁Oh
▁Ru
▁SN
▁SW
▁TM
▁TS
▁Um
▁VS
▁XI
▁je
▁kr
▁om
-90%
:200
ATED
Abay
Buil
SCAP
adan
aled
ardo
asco
aved
aven
ayed
bral
brig
came
farm
ften
hips
inel
inol
irds
itos
ivol
iyak
lein
ovan
ovka
ozin
peis
rage
rail
sson
stra
sung
tigh
ubek
unte
very
▁(22
▁(38
▁003
▁021
▁12)
▁1:1
▁2),
▁2,3
▁29.
▁295
▁297
▁371
▁372
▁42%
▁446
▁50,
▁517
▁558
▁619
▁63%
▁730
▁760
▁817
▁9.9
▁94%
▁Akm
▁Bos
▁CAD
▁CGI
▁CrN
▁DBK
▁DKZ
▁DUO
▁Eld
▁Gum
▁Jav
▁Jun
▁LTE
▁Lay
▁Nam
▁Ohm
▁Ost
▁PAR
▁SES
▁Sko
▁Uak
▁[15
▁ary
▁bos
▁eec
▁fax
▁fog
▁inn
▁jum
▁kay
▁tan
▁tip
▁ukp
▁usa
Inter
abola
aceae
ading
akozh
anbay
asaki
asser
astau
azbek
beksh
china
enous
erica
erson
famil
heavy
index
ipped
jamin
liter
ludes
luene
obium
odesk
olian
parts
rends
roads
separ
super
talyk
tayev
unova
users
usive
▁(198
▁0,94
▁1,13
▁1,27
▁1,30
▁1018
▁108,
▁11%,
▁12.7
▁1250
▁13.5
▁15.5
▁2023
▁3,50
▁Ahko
▁Aida
▁Anim
▁BLEU
▁Body
▁ENVI
▁Gram
▁Gree
▁Holy
▁IDEF
▁Meat
▁Moon
▁Mpro
▁Ogem
▁PPPs
▁Pear
▁Slag
▁Spon
▁Tent
▁Urum
▁ZhKZ
▁[3],
▁[89]
▁alik
▁aset
▁asyk
▁awak
▁bend
▁cohe
▁culm
▁fide
▁gels
▁herd
▁hind
▁hipp
▁http
▁iaea
▁insu
▁ises
▁kash
▁ktzh
▁lion
▁logs
▁mare
▁mech
▁myst
▁octa
▁pray
▁refe
▁rust
▁sink
▁tied
▁tire
▁titr
▁ward
▁woll
▁yuan
Energo
School
UTIONS
around
entric
erusal
gymnas
hanova
hering
hetics
itably
makers
meable
mental
metics
nikova
ologic
olytic
prints
ractor
ranean
screen
sponge
target
ussein
ystals
▁(2018
▁10:00
▁1994.
▁2.3%,
▁2000.
▁2020;
▁3,500
▁3.2%.
▁3.5%,
▁30-50
▁4.1%,
▁4.2%,
▁4.6%,
▁4.8%,
▁5.5%.
▁Aksay
▁Alban
▁Build
▁Canal
▁Davos
▁Draft
▁Front
▁Ilyin
▁JavaF
▁Kirov
▁Medic
▁Mixed
▁Neuro
▁Often
▁Pavel
▁Penal
▁Place
▁Shaim
▁afore
▁allev
▁apric
▁bloom
▁boost
▁cafes
▁chalc
▁czech
▁dulat
▁essay
▁excer
▁gabid
▁helpl
▁hemat
▁karab
▁khans
▁magne
▁nanos
▁noisy
▁piles
▁punct
▁quiet
▁races
▁sight
▁spain
▁stamp
▁switz
Finnish
Masimov
angular
cooling
ediment
estones
factors
genital
graders
grading
grained
ielding
istingu
loading
nazarov
olation
payment
univers
▁Abdrah
▁Alexei
▁Altaev
▁Dulati
▁Forced
▁Forest
▁Joseph
▁Kazyna
▁Khabar
▁Momysh
▁OpenGL
▁Oxygen
▁Petrov
▁Rahman
▁Stages
▁Static
▁Taiwan
▁Tyumen
▁Yasavi
▁aiming
▁allies
▁arched
▁avenue
▁cosine
▁costly
▁defeat
▁fallen
▁fleets
▁gasket
▁genera
▁hourly
▁israel
▁luxury
▁makers
▁maxima
▁recipe
▁relics
▁remark
▁serbia
▁socket
▁sooner
▁trapez
▁unesco
▁unprof
▁upward
▁welder
Creating
Honorary
astonite
calation
constant
elements
erusalem
lability
munaigaz
onitrile
oscosmos
overeign
question
research
siveness
uhamedov
undering
▁100-150
▁Asympto
▁Aytalyk
▁Correct
▁Dosayev
▁Growing
▁Mukanov
▁Salidat
▁Saratov
▁Schools
▁Sensors
▁Twitter
▁Veteran
▁Welfare
▁android
▁bidding
▁blowing
▁burdens
▁cinemas
▁concess
▁consign
▁creator
▁dispose
▁exhibit
▁fragile
▁gearbox
▁gelatin
▁genuine
▁guiding
▁hanging
▁heaters
▁hydrate
▁infotur
▁invalid
▁irrepar
▁maestro
▁motives
▁payback
▁pledged
▁postage
▁proudly
▁samsung
▁slipper
▁sponsor
▁sterile
▁subcont
▁suicide
▁surpass
▁toluene
▁useless
▁wearing
▁whereas
▁worried
aminifera
iguration
iltration
otectonic
othermite
practical
▁Airlines
▁Altynkol
▁Builders
▁Councils
▁Discrete
▁Distingu
▁Evidence
▁Familiar
▁Forestry
▁Gaussian
▁Guterres
▁Identify
▁Kazygurt
▁Koshanov
▁Literacy
▁Nowadays
▁Oklahoma
▁Payments
▁Pedagogy
▁Ryskulov
▁Saturday
▁Zharkent
▁adopters
▁ammophos
▁apparent
▁ascorbic
▁calcined
▁crushers
▁cyclists
▁defatted
▁disposed
▁disputed
▁downtime
▁fluidity
▁galvanic
▁lifetime
▁maneuver
▁manifold
▁narcotic
▁numbered
▁overcame
▁promises
▁randomly
▁reformed
▁roasting
▁sacrific
▁sketches
▁skillful
▁sulfides
▁vascular
▁writings
ophosphate
ophosphite
orrelation
sagintayev
▁Abdibekov
▁Accession
▁Aituganov
▁Criterion
▁Documents
▁Hiroshima
▁Kulibayev
▁Kurchatov
▁Kyzylzhar
▁Necessary
▁Nonlinear
▁Ombudsman
▁Proposals
▁Situation
▁acetylene
▁adversely
▁astronomy
▁attending
▁attentive
▁bacterium
▁banknotes
▁centroids
▁coherence
▁collegium
▁competing
▁complaint
▁diagnoses
▁distorted
▁dividends
▁ergonomic
▁harmonics
▁harmonize
▁histogram
▁honeycomb
▁impedance
▁isopropyl
▁listeners
▁lymphatic
▁mentoring
▁nanobiles
▁paperwork
▁paraffins
▁perfectly
▁polymetal
▁rationing
▁ruthenium
▁sacrifice
▁sectional
▁similarly
▁simulates
▁smuggling
▁softening
▁statesmen
▁untreated
▁varnishes
▁virtually
Environment
engineering
ophosphoric
orientation
▁2010-2014,
▁Absorption
▁Aydarbayev
▁Lavrentiev
▁Mughalzhar
▁Objectives
▁Parametric
▁SIMULATION
▁Tuimebayev
▁Ualikhanov
▁aggregates
▁aidarbayev
▁akhmetzhan
▁capacitors
▁collegiate
▁collisions
▁congenital
▁dissolving
▁duissenova
▁figurative
▁insulating
▁magistracy
▁perfection
▁physiology
▁recommends
▁resumption
▁skillfully
▁surfactant
▁underlying
▁volatility
Organization
ogravimetric
▁Abibullayev
▁Bocharnikov
▁Certificate
▁Chakrabarti
▁Conclusions
▁Consumption
▁Forecasting
▁Krasnoyarsk
▁Probability
▁Sadvakasova
▁Territorial
▁Zhaksybekov
▁abbreviated
▁aggloporite
▁agrotourism
▁antibiotics
▁carbonation
▁centimeters
▁compensator
▁compressive
▁descriptors
▁electrician
▁flourishing
▁grandmother
▁indications
▁infertility
▁kaztransoil
▁malfunction
▁microscopes
▁persistence
▁philosopher
▁spiritually
▁supermarket
▁switzerland
▁symbolizing
consciousness
▁Negotiations
▁Preparations
▁cancellation
▁carcinogenic
▁concentrator
▁discontinued
▁ferrosilicon
▁guardianship
▁hydrographic
▁monothermite
▁multifractal
▁nanoparticle
▁programmatic
▁streamlining
▁supermarkets
▁unprofitable
▁Decomposition
▁Institutional
▁Manufacturing
▁Physiological
▁Possibilities
▁Psychological
▁architectures
▁balneological
▁confrontation
▁contradictory
▁fractionation
▁hypophosphite
▁inappropriate
▁inconsistency
▁individuality
▁insufficiency
▁macromolecule
▁microorganism
▁multicultural
▁supercomputer
▁technologists
▁unsustainable
▁Authentication
▁Berdimuhamedov
▁aforementioned
▁constructively
▁establishments
▁intermediaries
▁videoconference
2:
9;
DR
Go
LV
Op
PV
Pl
Sa
VN
VR
XI
hu
iM
mn
nm
-1.
-68
-95
1%)
10)
104
160
2,0
3.3
6.3
9%)
9,7
9.4
Aut
Bee
LED
Med
Pet
Rev
Shu
Sim
Sup
WER
agu
akk
cat
erk
iam
ibi
ktj
nan
oca
oci
oro
pix
shk
six
ugu
ulg
yuz
▁2;
▁7-
▁Bj
▁CS
▁DD
▁Ef
▁FI
▁HP
▁IA
▁Ky
▁LE
▁PG
▁Pd
▁TC
▁db
▁mA
▁sy
-150
-20%
-40%
.9%)
ANCE
Draw
ENCY
Four
Park
Silk
aday
asim
born
days
epid
eron
full
gray
ifer
iyah
myrs
naya
obac
ogan
otle
ours
past
phen
phos
resp
shin
taev
took
turn
umor
utov
verd
yrak
▁(97
▁11-
▁13.
▁17.
▁18.
▁211
▁222
▁241
▁263
▁271
▁278
▁3,4
▁3-3
▁31%
▁324
▁328
▁329
▁341
▁346
▁35,
▁393
▁41,
▁437
▁496
▁5.0
▁505
▁537
▁590
▁740
▁77%
▁8.2
▁89%
▁9.4
▁9.7
▁96%
▁ACC
▁Box
▁EDT
▁FPI
▁FUT
▁HAC
▁Kat
▁Kyp
▁Lev
▁Lif
▁MRI
▁PPE
▁Pit
▁Pod
▁Sax
▁Ten
▁Tug
▁Tup
▁VLC
▁Yev
▁Zig
▁cel
▁egy
▁erm
▁fon
▁gmp
▁gum
▁lyc
▁unw
▁ush
▁ust
-2003
-5000
.1%).
.8%).
.9%).
/2011
/2014
Great
Impro
Jones
Keles
LETIN
Relig
Smart
activ
afael
ailau
alpha
alsky
anose
auges
autom
avage
beans
brane
butyl
civil
eding
eleev
emann
epers
estin
ighed
ilers
illar
ingly
iscus
magan
multi
omite
oprom
osaur
ovoye
ranty
rieze
short
sters
ullar
utral
▁1,11
▁104,
▁105,
▁12%.
▁12.6
▁13.7
▁14.7
▁1975
▁22.5
▁2200
▁3,03
▁3.2%
▁30-3
▁6000
▁7.5%
▁80.9
▁90%,
▁Abil
▁Asem
▁Cher
▁Crop
▁Drop
▁Eliz
▁Emir
▁Ethn
▁Eucl
▁Grab
▁Jean
▁Krav
▁Make
▁Mast
▁Mean
▁Norm
▁Nurs
▁OneF
▁Perc
▁Prix
▁Rica
▁Save
▁Turb
▁Ware
▁Wild
▁Yuko
▁[26]
▁[3]:
▁amph
▁arsh
▁arti
▁attr
▁bold
▁clog
▁cras
▁deaf
▁dict
▁dock
▁edit
▁fals
▁fare
▁flax
▁geoc
▁kaol
▁kick
▁kins
▁lend
▁migr
▁nuts
▁obey
▁sine
▁tern
▁tops
▁twin
▁unno
-2015,
Baibek
OGICAL
Public
Social
Studio
akasov
annual
anyahu
arimov
asheva
auxite
chairs
ercive
ibulla
ichlor
ictive
ionics
kaline
ladesh
locity
loving
ording
orship
otypes
owners
rector
risons
simple
tzmann
ullina
vienko
visual
within
▁0.3%,
▁0.7%.
▁0.8%,
▁14-15
▁1995.
▁2.9%,
▁2003.
▁2015)
▁5.6%,
▁9,000
▁Abdel
▁Akmol
▁Anshk
▁Basis
▁Bound
▁Corps
▁DECOR
▁ESCAP
▁Hotel
▁IPSec
▁Kabul
▁Lewis
▁Ordab
▁Paper
▁Polym
▁Price
▁Range
▁Rapid
▁Royal
▁Symph
▁Times
▁Write
▁Yerik
▁boats
▁bulat
▁discs
▁fails
▁frank
▁horns
▁iidmb
▁infar
▁karak
▁mains
▁mazar
▁melts
▁nurse
▁owing
▁radon
▁senti
▁sixty
▁stair
▁triad
▁unreg
▁zhola
▁zonal
English
ULLETIN
agation
aldinov
bekshik
casting
eldinov
entayev
ernight
etector
eworthy
ickness
matical
maximum
overing
porteur
raphene
ternoon
tourist
▁2015).
▁25,000
▁Arynov
▁Attack
▁Basics
▁COMPET
▁Coding
▁Depend
▁EFFECT
▁Ensure
▁Events
▁FUTURE
▁Graphs
▁Greeks
▁Height
▁Insert
▁Issued
▁Kaizen
▁Ketpen
▁Prague
▁Rahmon
▁Rostov
▁Rubber
▁Screen
▁Sector
▁Stable
▁Taylor
▁Threat
▁Twenty
▁Vacuum
▁Voting
▁Wealth
▁Window
▁Zaysan
▁acorda
▁amines
▁arrows
▁boxers
▁capill
▁causal
▁chiefs
▁concil
▁concre
▁cooler
▁coupon
▁depots
▁derive
▁digits
▁dispat
▁earned
▁fronts
▁fungic
▁gauges
▁gloves
▁gorges
▁humate
▁insect
▁lethal
▁mapped
▁microd
▁multim
▁oligos
▁overes
▁phenol
▁purify
▁reacts
▁rebuil
▁seller
▁septic
▁sergey
▁splits
▁spruce
▁steril
▁syntin
▁transf
▁unlock
Kostanay
Romanian
atabases
compared
lessness
lohexane
ollinear
strategy
truction
▁200,000
▁Adviser
▁Boolean
▁Circuit
▁Classes
▁Dzhaksy
▁Harmful
▁Healthy
▁Iceland
▁Kargaly
▁Landsat
▁Mediter
▁Narkhoz
▁Percent
▁RESULTS
▁SYSTEMS
▁Satbaev
▁Writers
▁absorbs
▁alkalis
▁assigns
▁biscuit
▁breadth
▁cappars
▁careers
▁counsel
▁cyanide
▁dancing
▁debtors
▁disconf
▁dubious
▁encoded
▁encrypt
▁feather
▁fifteen
▁geograp
▁indexed
▁inflows
▁khorgos
▁kulagin
▁laminar
▁lengths
▁longest
▁martial
▁mosques
▁niobium
▁ospanov
▁outlook
▁precurs
▁pumpkin
▁rappers
▁recalls
▁richest
▁spouses
▁stoichi
▁tangent
▁turkish
▁unequal
▁visitor
▁weekend
▁worship
Liouville
automatic
diffusion
geometric
gymnasium
ineration
ipitation
lonitrile
mediation
opolymers
osilicate
treatment
▁Abstract
▁Acoustic
▁Aluminum
▁Athletes
▁Bahraini
▁Catholic
▁Disaster
▁Kaskelen
▁Mamyrova
▁Sergeant
▁Symphony
▁Volterra
▁atomizer
▁attorney
▁balkhash
▁banknote
▁borehole
▁cheerful
▁colorful
▁defeated
▁denoting
▁depended
▁impeding
▁integers
▁mistaken
▁notaries
▁nuclides
▁olympics
▁ozonator
▁pleasing
▁pointing
▁poisoned
▁refriger
▁rendered
▁sandwich
▁souvenir
▁soybeans
▁vladimir
▁watching
Suleimenov
University
assistance
evaluation
increasing
phosphorus
▁9001:2015
▁Aluminium
▁Amplitude
▁Composite
▁Corrosion
▁Emissions
▁Eurobonds
▁Gratitude
▁Kapshagay
▁Mendeleev
▁Mukhtarov
▁Serpukhov
▁afternoon
▁aitzhanov
▁analysing
▁antiquity
▁appellate
▁attitudes
▁brokerage
▁childcare
▁cinematic
▁concretes
▁cosmetics
▁disinfect
▁dissolves
▁elongated
▁embedding
▁exogenous
▁extrusion
▁garrisons
▁gradients
▁inception
▁instantly
▁invertebr
▁legislate
▁manifests
▁moistened
▁narrowing
▁pedagogic
▁plurality
▁polyvinyl
▁realistic
▁recession
▁releasing
▁symbolism
▁telephony
▁unnoticed
▁violators
▁waterways
Association
Mathematics
ommertsbank
sufficiency
▁Azilkhanov
▁DECORATIVE
▁Humanities
▁Importance
▁Macromedia
▁Mathematic
▁OneFlorida
▁Operations
▁Oshakbayev
▁Philosophy
▁anatomical
▁dehydrogen
▁dismantled
▁generously
▁hemoglobin
▁hospitable
▁humanistic
▁humanities
▁infarction
▁kinematics
▁moderating
▁multiphase
▁positional
▁respectful
▁responding
▁terminated
▁undisputed
condensation
▁Baitursynov
▁Exoskeleton
▁Furthermore
▁bacterocins
▁commodities
▁compensates
▁cryocondens
▁depressions
▁ethnography
▁granulating
▁illuminated
▁interviewed
▁lightweight
▁martensitic
▁oscillating
▁susceptible
▁tacheometer
▁unprotected
▁Encyclopedia
▁circumstance
▁conciliation
▁connectivity
▁disinfection
▁exploitation
▁formaldehyde
▁harmoniously
▁highlighting
▁imperfection
▁imprisonment
▁indifference
▁multiplexing
▁photographer
▁programmable
▁redistribute
▁robotization
▁shipbuilding
▁subjectivity
▁unscrupulous
implementation
▁Anthropogenic
▁Mediterranean
▁Petrochemical
▁illustrations
▁isomerization
▁mathematician
▁photoelectric
▁prescriptions
▁Organizational
▁considerations
▁electrocardios
▁metallographic
▁Entrepreneurial
.-
CA
It
Ne
PA
Pa
Us
Xe
[1
aq
dk
tm
vy
xn
2%,
2.1
20,
4,5
6%,
6.2
6.8
ACS
Ast
CIP
CrN
Egy
Gas
IGN
INE
Spe
Ter
WTO
Yes
add
chi
cue
cut
dak
dyz
dzh
ela
elt
jol
may
nab
nut
ono
rum
soi
ugw
vir
viv
▁"0
▁2/
▁3/
▁4;
▁AH
▁BE
▁CW
▁DK
▁NS
▁Od
▁SS
▁bb
▁hp
▁ki
▁mu
▁tb
-70%
.4%)
/100
2000
2014
City
EPSC
Mere
OOOO
ROUG
TiAl
acic
aked
alpy
alyk
alyn
area
arta
aryk
ativ
beit
cers
chev
clip
coal
cyth
echo
exts
eyev
fied
fish
foot
gels
gene
hank
ikes
itol
mith
otka
rele
shed
silk
stop
uder
uese
unay
uton
week
what
ysov
▁(57
▁(83
▁(95
▁0.3
▁1-5
▁15]
▁16-
▁2,9
▁243
▁251
▁259
▁292
▁312
▁33,
▁343
▁37,
▁379
▁389
▁39,
▁423
▁424
▁443
▁445
▁448
▁476
▁491
▁521
▁62%
▁620
▁64%
▁8%.
▁83%
▁86%
▁9.6
▁ADI
▁Abr
▁Amb
▁Aym
▁CFD
▁COM
▁Coe
▁Enh
▁Erd
▁Esc
▁Flo
▁Flu
▁Gor
▁IIS
▁JSP
▁Jam
▁Kim
▁Koz
▁Lee
▁MAX
▁MOS
▁MgO
▁Mik
▁NON
▁Nsk
▁Pie
▁Pur
▁RNA
▁See
▁Shi
▁TSM
▁Tun
▁VIP
▁Yun
▁bip
▁ble
▁dpt
▁fox
▁hop
▁ibn
▁kob
▁kon
▁orn
▁sag
▁sme
▁vko
▁yel
Cloud
Labor
Talgo
akhov
alent
alkar
antau
ashov
assis
athan
basic
batyr
chart
coord
ecton
ekeev
elmes
epper
erkin
herol
ideal
ietic
ingbo
inium
ipbek
itium
iyadh
kegoc
ombus
onson
osaly
phalt
repov
romov
sulph
temis
terek
thane
their
three
tiers
tight
tites
today
uited
urgan
zhans
▁(4),
▁0,26
▁0,98
▁1,07
▁1,20
▁1060
▁11.6
▁12.8
▁13.2
▁18.6
▁1933
▁1940
▁1942
▁1945
▁2,78
▁2,92
▁2.2%
▁21.4
▁28%,
▁3,28
▁35%,
▁5.5%
▁50-5
▁65%,
▁Apps
▁Asan
▁BZhK
▁Ball
▁Balt
▁Buch
▁Caus
▁Chap
▁Conv
▁Edge
▁Gork
▁Host
▁ICAO
▁IDAN
▁IMPL
▁INST
▁IaaS
▁Khaz
▁Lean
▁Mari
▁Mega
▁Meir
▁NASR
▁Nary
▁Nich
▁OLAP
▁PSCs
▁Pugw
▁Shau
▁TTPE
▁Tang
▁Yeek
▁[121
▁[1],
▁[4]:
▁amir
▁brew
▁cafe
▁chat
▁cher
▁cite
▁citi
▁cock
▁drag
▁etym
▁hool
▁kvts
▁mats
▁mole
▁moon
▁piez
▁rash
▁sake
▁scra
▁seas
▁subt
▁tast
▁tril
▁typh
▁weld
▁york
.04.20
Afghan
Samara
adding
atayev
chestr
comple
dating
echten
erting
establ
ficial
forget
heated
itosan
khimov
mainly
nadloc
ocytes
onesia
orance
output
plates
[...]
