<blank>
<s>
</s>
▁t
he
in
▁a
▁o
▁the
re
on
▁of
at
▁s
er
en
▁c
▁w
an
is
ion
or
▁p
it
▁in
al
es
ed
▁f
ing
▁m
ar
ou
▁d
ic
om
▁b
▁to
▁an
ent
st
▁T
▁and
ct
le
ro
ation
▁th
as
▁h
▁I
▁re
ve
il
▁e
▁n
▁is
et
id
lo
▁g
im
ment
▁pro
▁for
ur
▁y
▁st
ak
▁Tom
ra
▁l
▁be
ce
ut
▁A
▁on
ch
ul
ol
ot
▁con
us
▁he
ill
ay
ly
ith
▁The
▁you
▁de
az
ig
▁K
ver
▁that
▁with
ad
el
un
ies
ate
▁M
▁com
stan
ist
ir
od
▁S
akh
azakh
nt
ge
am
▁al
▁are
res
ect
▁as
ess
ort
ow
du
ity
▁Kazakh
▁"
▁me
▁we
▁2
▁ex
if
ld
ial
▁ne
ive
ant
▁was
▁int
▁W
ary
art
▁at
ers
op
▁Kazakhstan
▁this
um
qu
ction
▁C
ure
▁1
▁it
iv
se
▁wor
port
est
▁will
▁k
ical
▁do
▁not
iz
▁wh
▁comp
▁v
▁im
ain
▁D
ud
em
▁ha
her
▁by
ount
ry
ab
ri
ec
cc
and
▁sp
▁su
ition
▁le
▁P
ult
th
ore
rom
▁H
lop
velop
▁pl
▁reg
os
▁us
ac
pp
▁go
▁en
ru
▁20
▁sh
ding
ous
▁ch
▁E
▁R
▁work
ep
▁un
▁(
▁part
▁develop
aid
ip
ear
▁lo
▁-
▁N
igh
ational
▁have
▁In
per
▁or
lic
ated
▁from
▁te
▁res
ern
ould
ub
ations
orm
ere
▁inc
▁imp
▁ab
▁F
▁r
▁B
ans
▁ad
▁count
age
▁produ
▁co
ff
ap
▁can
▁region
▁has
ag
form
▁year
end
out
ell
oc
our
▁Th
ast
▁.
▁state
ign
der
ject
log
▁cont
ublic
ram
▁sy
ren
olog
ok
▁201
ov
very
▁development
cess
ire
ber
▁kn
all
stem
▁were
con
ime
ance
▁all
ich
▁j
▁tra
ase
▁ag
ice
ccor
▁se
▁met
ust
ities
▁Mary
dition
ight
ard
▁system
are
▁O
ater
ib
▁Y
lement
uc
ter
▁L
one
hen
▁said
ence
▁G
▁am
gh
▁know
▁,
▁tr
ev
▁It
ident
▁new
ik
act
ome
▁cre
▁stud
▁dis
▁qu
inist
▁ar
▁which
ide
ric
chn
▁He
▁3
▁man
conom
ccording
illion
ree
▁We
oun
pt
so
erv
ific
ace
ine
▁app
▁about
▁out
ong
▁pe
stru
low
gan
ther
▁pres
ution
▁mod
▁his
▁did
▁want
ost
ia
ass
up
▁exp
▁time
▁head
ors
ink
▁techn
▁spec
ough
ue
ople
ens
▁incre
▁than
ments
uring
▁cons
▁Wh
▁You
ative
able
▁project
▁trans
▁ed
gram
ew
erm
▁our
▁econom
▁been
▁one
▁inv
▁comm
lect
▁prov
▁act
▁educ
etw
▁ro
▁ent
▁also
▁him
▁sc
▁implement
▁car
▁meet
eration
ization
ents
ang
ual
ake
▁process
ame
▁noted
▁U
ach
▁main
▁rep
▁people
▁country
▁This
▁ten
▁program
ks
▁should
▁pre
ll
▁dep
gy
▁my
▁there
ian
00
ries
ory
▁per
▁form
formation
▁ind
▁so
ues
▁lik
▁pol
hod
ased
▁ob
ural
irst
ating
dust
uss
▁rel
▁As
▁more
▁well
▁plan
▁5
ays
▁need
▁sol
▁J
ces
▁don
▁import
vers
ound
▁tenge
▁your
▁their
▁organ
▁Rep
▁result
▁think
▁meeting
▁iss
▁technolog
▁att
▁up
▁partic
▁method
▁4
ress
▁ev
▁According
▁op
day
ys
ital
▁any
ite
▁Minist
▁very
ics
lud
ures
ph
hed
▁fin
te
▁Republic
▁cap
ining
ates
ions
air
iff
▁intern
og
▁fun
▁first
ons
▁like
ayev
▁special
▁ra
▁product
▁eff
int
▁under
ish
ious
av
ient
▁them
here
▁countries
▁into
▁cl
▁serv
▁acc
▁production
▁soc
vel
▁information
ility
ob
een
▁other
▁bus
get
▁indust
ced
▁pr
▁dec
20
▁cent
▁what
ied
row
▁fi
ds
▁her
etween
said
▁between
▁invest
iss
iness
▁its
struction
▁coop
▁tw
▁em
ousand
▁equ
ized
▁thousand
▁gr
▁diff
reat
▁num
vern
▁sec
▁ph
▁high
▁Al
▁who
▁St
▁world
▁ass
ork
▁sign
ives
▁addition
ract
▁use
▁det
▁0
rib
urs
▁but
ool
▁international
▁comple
▁cooperation
▁bu
▁disc
ning
ie
▁good
ergy
mat
▁didn
tain
bayev
▁billion
▁provid
▁pos
amp
▁number
▁these
▁includ
ulation
ark
▁two
▁only
oint
▁get
ried
▁exper
▁years
▁report
eral
ild
ality
▁des
▁does
▁particip
▁amount
▁off
▁[
xt
▁here
▁sub
cy
ivers
▁economic
ble
▁dire
hip
les
▁used
ack
▁Ch
▁impro
▁fiel
chool
▁bo
ism
▁products
pr
ft
ally
▁sup
▁important
▁level
▁bec
▁issues
▁education
▁She
aw
▁hel
▁6
▁compan
the
▁inst
ange
▁support
ists
ants
ered
▁gen
▁energy
▁had
▁dist
▁med
▁activ
▁vis
▁business
▁conc
▁What
ices
ave
▁ac
▁help
▁implementation
ond
rough
▁million
▁rec
▁increase
▁condition
pe
mb
ned
ience
urre
▁art
▁elect
▁construction
▁today
▁every
ted
ade
▁no
▁field
▁7
rit
als
▁projects
▁national
iron
▁Do
ind
▁pers
urrent
arbayev
▁There
▁mon
▁school
fore
▁effect
ration
ful
▁lar
▁sm
▁when
▁consid
▁going
▁discuss
▁such
ek
▁oper
▁water
▁training
▁capital
resident
▁compet
▁city
ts
▁col
fter
cture
ection
▁meas
▁President
▁would
▁model
alk
ctions
▁results
▁val
▁some
ature
▁requ
▁determ
azarbayev
▁now
▁spe
▁inter
▁over
▁cor
▁modern
de
▁bas
▁they
vernment
▁necess
ata
▁during
ular
ible
▁Minister
▁open
▁var
viron
▁public
loy
▁lead
▁proble
ined
▁V
▁loc
▁leg
▁study
▁through
vironment
▁necessary
▁par
ium
▁enter
aterial
▁How
▁show
ng
omet
▁conditions
ail
alth
oreign
pris
▁Un
▁problem
▁most
ency
▁material
itution
▁intere
▁child
▁differe
▁10
resent
▁z
▁same
▁8
▁che
ife
ose
arm
▁social
▁students
▁many
rodu
oup
▁aut
▁inf
hing
▁rece
▁look
ving
▁take
ince
ral
."
ention
▁just
▁fe
▁last
ron
▁three
▁interest
▁At
atives
▁anal
iven
▁environment
ploy
its
ines
▁according
▁Nazarbayev
▁0,
▁person
▁happ
cu
▁if
ultural
▁conf
▁educational
▁gra
ank
▁organiz
▁order
ission
rol
▁9
-20
uture
▁They
eg
▁tak
▁transport
ollow
ord
▁held
▁represent
▁pop
▁large
▁oil
pos
ited
ages
ty
man
thing
▁see
led
anc
elf
▁str
ove
ood
▁read
urn
▁That
▁technologies
ick
ilities
reng
ption
▁each
▁made
▁using
▁could
▁how
▁economy
loc
▁vol
▁poss
,"
other
▁stru
▁buil
▁after
▁quality
▁indic
▁data
▁mat
ile
▁great
▁grow
▁streng
▁fram
rial
▁future
au
▁rem
▁right
pect
▁set
▁allow
▁Sam
▁present
▁carried
tal
▁Com
▁appro
ived
▁char
arch
▁tas
ultan
io
uch
ved
▁must
▁got
azakhstan
▁ty
▁bod
▁De
ared
▁told
▁During
▁day
▁where
▁sur
▁place
ieve
▁relations
icle
▁enterpris
ished
▁complex
▁tell
iet
ize
▁framew
use
ax
▁On
▁different
hib
riend
▁Is
▁ann
ological
▁fact
▁Sami
▁framework
▁gu
▁group
▁long
▁mark
▁cal
maty
▁commun
▁sit
ting
▁call
▁methods
▁dr
▁current
▁working
▁really
orth
ability
ulture
hes
▁introdu
▁industry
cept
ases
ey
▁general
▁never
▁agree
▁follow
▁hol
▁services
▁planned
▁An
▁mil
▁require
▁control
▁second
▁she
▁est
▁Z
ification
▁regional
▁created
▁min
▁talk
▁redu
▁doesn
▁def
ouse
▁various
▁scient
▁law
▁br
ator
▁ext
▁including
▁fam
▁based
▁health
▁improve
rep
ources
▁within
ners
ctor
▁children
▁activities
▁life
▁institution
▁employ
agement
ample
urity
▁center
uty
ession
▁prof
▁exhib
ought
red
▁won
▁article
▁pow
ified
▁make
▁prot
▁total
▁Ministry
▁Almaty
▁fac
imes
▁market
▁supp
▁Go
ked
▁kazakhstan
▁fl
▁trade
▁gas
▁tour
▁foreign
▁object
▁technology
way
▁applic
lear
▁Russ
▁ens
▁class
ute
acher
▁solution
iod
nov
▁much
ursultan
icy
▁areas
▁investment
ings
▁discussed
mber
▁again
▁ach
then
ision
▁tem
▁being
▁company
▁pur
angu
rene
▁isn
▁service
ten
▁job
▁obtain
uation
▁air
▁ful
▁area
▁docu
▁developed
▁exhibition
▁lear
▁measures
▁calc
artment
▁strengthen
▁population
▁sect
han
▁sim
),
reprene
▁For
▁account
▁end
▁teacher
▁chang
▁stand
▁bel
▁clo
▁Int
yn
▁prep
acter
ven
▁create
▁ref
▁proper
▁home
▁friend
▁president
▁2015
▁event
▁regions
▁industrial
▁Why
uro
ination
▁My
▁increased
50
epend
▁cour
ators
▁basis
ressed
▁19
▁ter
-201
▁effective
▁representatives
▁To
oston
imed
▁Boston
ars
▁management
▁rese
▁contin
▁ve
▁way
▁comput
▁init
udget
▁langu
▁visit
read
▁agric
▁adv
▁volum
wn
▁beg
▁hum
%,
▁since
▁test
▁come
▁design
▁cer
ffic
▁took
itary
ysis
itiz
▁back
▁pract
iation
▁speak
▁systems
▁period
▁hy
ict
▁land
▁small
▁Nursultan
ended
igure
cil
▁pat
▁provided
▁point
▁State
▁contrib
▁signific
▁propos
▁pot
▁materials
▁somet
▁still
▁worth
▁lot
▁road
▁ins
pl
▁young
▁citiz
▁attention
▁start
ential
▁government
ily
itive
▁budget
ways
▁hist
▁republic
▁plant
nce
ise
urther
▁netw
▁character
mer
▁innov
▁minist
▁Pro
sc
yl
▁without
chan
lish
▁financ
▁house
▁care
▁pass
airman
▁provides
ports
ather
▁entreprene
ering
lease
▁independ
▁2017
ology
ivid
▁If
iversity
▁cost
▁turn
▁temper
bal
▁example
ccess
abor
▁found
istics
▁power
▁next
inc
▁research
rict
ouncil
▁further
▁Don
▁amounted
▁considered
mit
ledge
▁companies
▁before
mical
oney
ards
▁say
▁sing
▁lit
.5
own
self
ually
▁aimed
▁experience
▁policy
▁formation
▁let
▁estab
eng
ipment
▁volume
▁integ
▁organizations
▁hous
▁top
▁book
▁enterprises
▁active
▁2016
▁Ak
▁always
▁non
oth
▁cr
▁When
▁sk
▁perform
iew
▁compos
▁play
▁low
▁too
stana
raph
ins
▁prev
▁possible
lia
▁mechan
▁ak
▁Dep
▁become
▁quest
▁times
ene
▁2014
▁eng
▁creation
▁200
▁doing
▁month
▁knowledge
▁organization
gether
▁together
▁dev
▁growth
▁equipment
▁military
▁National
▁following
▁works
ss
ties
structure
lobal
▁analysis
▁conn
ense
▁change
lection
duct
atural
▁Can
▁success
▁prom
aj
▁understan
ina
▁happen
▁building
▁technical
com
▁significant
liament
ause
icial
airs
▁something
▁press
▁tons
▁ge
▁Sh
rm
atic
▁ide
▁value
▁local
▁comb
ibility
▁citizens
ale
▁potential
amet
ai
▁implemented
af
▁due
▁30
iety
▁money
▁dom
▁human
▁then
▁joint
rop
▁Let
▁polit
ner
▁scientific
rastructure
▁1,
urope
▁temperature
portun
▁100
▁strate
%.
▁partners
▁add
▁thought
▁participants
rench
▁bet
▁bodies
▁find
▁opportun
▁auth
la
urk
▁tasks
▁give
▁conduct
▁security
▁language
ait
▁wanted
▁di
▁15
ected
▁processing
▁entrepreneurs
tle
▁phys
▁given
▁direction
▁structure
▁problems
▁competition
▁received
▁sure
▁real
▁function
▁French
▁situation
hemat
▁legal
iving
ret
▁aff
▁profession
til
▁pay
iqu
▁communic
▁provide
▁agreement
▁opt
▁commission
▁initi
ending
▁labor
velopment
▁best
▁alloc
▁infrastructure
▁natural
▁participation
ness
ccord
▁computer
▁hand
▁global
▁accord
▁12
▁term
▁mult
▁Intern
atory
▁resp
▁medical
▁11
go
▁dra
▁25
▁accordance
iev
▁hyd
▁Con
ateral
estic
▁achieve
▁dem
▁typ
ck
▁begin
ipl
▁space
▁anything
▁among
▁composition
▁importance
erence
▁Are
▁presented
▁requirements
▁Europe
▁done
▁el
old
▁element
▁attract
orrow
▁processes
ym
ilateral
▁assoc
▁better
).
▁Pr
erman
yz
▁flow
▁issue
▁ident
-1
▁old
▁went
▁room
nel
gor
ote
ynam
▁domestic
ify
ograph
▁sw
▁May
▁rest
▁party
▁Development
▁ser
▁food
▁Econom
icult
▁win
▁facilities
▁fund
▁states
▁ear
▁wasn
▁may
▁difficult
▁institutions
▁gre
isl
▁bl
osp
▁electron
▁seem
▁particular
▁society
▁exch
uras
ope
bek
face
▁put
▁activity
ash
▁list
fer
▁content
▁resources
lev
ically
▁calcul
me
▁ensure
▁Zh
▁bro
ember
▁obtained
ired
▁rad
▁regard
▁financial
▁[1
▁hig
▁environmental
▁improving
▁concept
▁specific
▁effic
omen
▁eat
▁specialists
action
▁programs
▁properties
▁direct
▁Ex
▁try
▁changes
anu
▁called
▁consum
▁own
▁Did
▁application
ody
asing
gr
aking
li
▁decre
▁expl
▁mess
▁paramet
▁types
struct
▁determined
▁akim
ets
▁territ
ova
pose
▁sum
▁Rec
▁bi
rior
▁housing
▁even
▁department
▁thir
▁tru
▁left
istance
ves
▁mathemat
lished
▁author
▁Turk
▁able
▁sector
anuary
▁political
▁step
▁taking
▁legisl
▁stage
med
▁Sec
▁Cent
▁love
iveness
leg
▁saf
ever
▁agricultural
itor
▁funds
▁parties
minist
▁allocated
gest
▁depend
vernor
▁stay
▁memb
verage
tee
semb
▁wast
alf
▁free
▁adop
icro
▁until
▁bilateral
▁buy
▁both
▁prior
▁signed
▁forum
▁No
▁asked
urasian
▁prepar
▁Lay
▁wr
▁learning
▁assess
▁gl
▁certain
yr
▁Astana
aces
imum
ividual
▁subject
▁cultural
▁feel
▁network
▁tourism
▁mar
ithm
▁aw
▁another
▁(1
▁course
oll
-2017
▁role
▁cat
▁2013
▁document
uclear
▁related
▁capac
▁resident
▁occ
▁goal
▁strengthening
▁values
▁qual
ex
▁district
▁Layla
▁developing
▁i
▁live
▁science
▁ret
▁days
▁Prime
▁teach
▁13
▁hydro
▁expressed
▁down
▁tax
▁January
▁tool
imin
ready
agn
▁av
▁bank
▁individual
▁wait
▁professional
iency
▁hard
▁priv
▁student
▁chemical
▁ste
▁Current
▁sent
▁single
ides
igital
▁needs
▁Ab
▁desc
▁innovative
▁week
▁electric
gen
▁18
ills
▁stop
▁Russian
▁14
▁lim
▁tom
▁mem
sembly
oke
▁friends
ustom
▁already
▁heads
▁members
▁rate
let
▁50
ched
▁culture
▁partnership
istan
▁five
▁sever
▁sports
▁surface
▁ur
▁Therefore
ix
▁inform
pects
▁often
▁engine
▁indicators
▁regist
▁lay
▁reform
▁type
▁creating
▁Governor
gorithm
▁Eng
▁goods
▁Currently
akes
▁With
▁electronic
▁case
▁jobs
▁Also
▁wind
▁supply
uel
▁medium
▁noting
▁struct
▁2020
.6
aun
ug
ules
▁several
▁expand
▁date
▁purpose
.2
▁distrib
▁why
▁move
▁Kar
▁heat
▁believe
▁operation
▁Russia
▁understand
fact
▁attended
▁objects
▁along
▁everything
▁taken
▁mor
outh
▁gave
▁dynam
▁leave
gic
incip
▁capacity
▁communication
.3
▁fre
▁task
▁idea
ats
▁mass
▁night
▁Eurasian
ees
▁member
▁built
▁message
▁sal
▁paid
▁name
▁autom
▁body
▁therm
▁leaders
▁neg
▁less
▁China
▁micro
put
oday
▁complete
amed
▁because
ee
▁hour
▁tomorrow
rete
ung
omic
▁compon
bo
▁One
▁exchange
ept
▁16
▁nuclear
▁'
▁harm
▁obs
.4
pec
▁Today
▁algorithm
ming
▁mut
be
ross
▁mov
▁princip
▁University
▁higher
▁history
▁minister
▁tradition
▁install
▁administ
▁annivers
▁common
▁laun
▁cir
▁came
▁anniversary
▁doll
▁little
▁events
▁ready
▁associ
▁beh
▁soil
▁respons
▁mechanism
▁increasing
30
sw
▁pros
▁concent
▁ever
▁protection
cing
.7
land
▁Council
ode
▁Aff
▁light
▁Deputy
▁Who
ert
apan
▁zone
▁fil
▁past
▁family
▁means
ony
aev
▁vill
▁custom
eep
▁ask
▁transfer
▁contain
▁territory
ivil
▁infl
anks
▁proposed
▁arr
ware
▁commit
▁drink
used
▁Please
▁17
▁deputy
ath
idence
▁hope
▁team
▁documents
ised
enef
▁wat
▁solve
▁around
augh
▁determine
▁stat
▁optim
▁efficiency
▁saw
atures
.8
uk
amb
ason
▁parameters
▁Where
▁stability
.1
▁sat
▁full
▁youth
▁fuel
▁decision
▁plans
▁holding
lected
ple
earch
▁Recall
▁months
▁text
▁digital
▁began
▁acqu
▁Every
▁big
▁Union
resp
▁consider
irl
▁Gen
▁cop
▁close
▁benef
▁chairman
▁says
▁wide
▁central
▁republican
und
▁view
gress
ock
▁Affairs
▁bor
▁answ
▁side
▁peace
000
utes
▁average
met
tical
▁treat
▁modernization
▁elements
▁introduction
▁ce
▁invol
▁corre
▁univers
▁fav
sive
stant
▁reac
▁Pe
▁physical
cle
fficient
▁happy
ension
▁additional
▁located
ivity
ares
ising
▁waste
▁standards
▁cities
▁Te
▁famil
▁monitor
▁independence
▁eas
ufact
▁German
lan
▁measure
oh
▁schools
▁compared
▁independent
▁squ
▁Japan
acy
▁knows
▁export
oration
ource
▁Foreign
arent
▁mob
▁manufact
▁And
▁wants
▁official
▁tar
▁log
▁share
▁remain
▁km
▁abs
izing
ky
▁dollars
▁reduce
▁office
▁established
▁sem
▁exec
▁successful
rate
ester
▁relev
▁crit
isting
▁equation
▁po
▁teachers
ech
▁early
▁short
ury
▁corresp
▁conference
▁Economic
▁ap
▁et
▁Sc
▁poll
▁bre
ones
▁prob
▁phot
▁opening
▁Par
ordin
▁station
▁Chairman
▁girl
▁knew
▁regul
ernal
▁enough
▁exam
▁allows
▁groups
aster
▁Comm
▁sil
▁whole
▁third
▁All
▁clear
▁opened
pecial
▁English
▁parliament
oy
▁four
▁En
uties
▁question
▁port
▁characteristics
▁favor
erc
ceed
rehen
▁access
▁meters
▁seen
▁proced
etic
▁histor
▁fore
▁Kaz
▁sources
leep
imate
▁approved
ences
▁whe
istic
▁mother
▁concrete
▁interested
▁ox
▁soft
bon
▁ele
▁Thus
amples
▁These
aged
▁yet
▁explain
▁cho
▁memor
▁father
not
▁position
body
ogn
▁LL
▁positive
ier
rices
▁terms
.9
ety
▁farm
▁civil
▁soon
▁words
▁mathematical
IS
▁against
▁es
▁teaching
ror
iar
▁ang
rated
▁prim
▁plants
ole
rehensive
esterday
▁Off
edag
▁gradu
▁happened
▁currently
▁investments
▁acid
▁Res
▁personnel
▁private
▁Head
▁organized
aut
▁near
▁equations
▁tri
▁thing
-2
▁mot
▁technological
irt
sh
less
▁ant
▁green
▁expert
▁cur
▁connection
▁poly
▁reports
iplom
atform
lied
▁points
econ
usion
▁opportunities
▁late
▁er
itative
▁practice
ided
▁General
▁introduced
▁beginning
iment
▁European
▁Government
▁Ag
▁People
▁reported
▁deg
▁influ
▁became
anda
▁Have
orks
▁dog
▁studies
▁questions
▁enterprise
▁recogn
▁cle
▁includes
▁mach
▁tur
▁deep
▁employees
▁centers
▁action
▁council
▁heard
▁strategic
ery
▁couldn
▁wish
▁table
▁establish
▁21
▁those
▁train
▁diplom
stitution
aper
▁Office
▁practical
ran
▁nature
oss
▁line
▁elections
▁priority
▁things
▁cry
▁affect
▁raw
▁max
▁exc
▁adopted
▁comprehensive
▁LLP
▁post
ogical
▁recent
zh
▁contribute
app
erg
▁describ
▁initiative
ison
▁Wor
▁intens
▁cannot
▁bad
▁agriculture
ese
▁sens
▁sug
▁platform
po
▁Since
▁safety
▁internal
aly
▁integration
▁ris
economic
▁substan
▁mus
▁places
▁sl
amber
anced
ulated
▁prices
▁continu
▁rail
▁norm
▁away
▁socio
▁engineering
▁clos
▁eth
▁formed
▁experts
▁reached
▁bir
for
▁above
▁while
▁square
▁factors
ude
▁continue
cies
grat
▁key
▁kin
▁leading
▁congrat
▁40
▁arch
▁units
▁customs
▁Man
▁hot
most
▁2018
▁meat
▁Asia
▁shows
▁UN
inear
▁constant
▁bill
▁Central
abilities
▁writ
▁yesterday
▁half
▁spoke
ength
▁investors
ires
▁dre
▁completed
ably
itation
une
ober
▁respect
▁aren
line
▁Ad
▁eval
artments
▁assessment
▁assistance
▁receive
▁jud
▁map
edagogical
▁spect
▁war
▁achiev
▁standard
▁applications
▁Ar
▁walk
illed
▁skills
▁2015,
adem
▁thermal
▁visited
▁rev
mp
zhan
iate
▁known
▁himself
▁started
ored
▁opportunity
arian
▁correct
▁forces
over
▁deleg
▁interaction
▁Figure
▁mineral
▁studied
▁contribution
▁opin
▁graph
▁pret
▁living
▁impact
▁named
▁software
▁Or
inal
▁base
ainted
▁might
▁shown
▁ways
▁ec
arth
aving
▁wrong
▁sche
▁instruction
▁legislation
▁basic
ames
▁workers
▁run
▁maj
▁depos
tern
▁strong
▁employment
▁fully
assad
▁hect
▁World
▁residents
▁improvement
▁included
sy
structed
▁looking
▁parent
▁personal
▁contract
▁women
▁ensuring
els
obe
▁aud
river
▁accept
▁mutual
▁bring
▁devices
▁networks
aring
▁70
▁range
▁hours
▁keep
▁clean
▁historical
uly
▁deputies
erve
▁actions
isions
▁transition
oud
▁park
▁cert
▁vi
epar
▁goals
▁solving
▁planning
▁committee
▁few
▁zh
▁mom
▁analyz
▁possibility
▁correspon
▁liqu
▁director
▁treatment
inese
▁resol
▁anim
▁tried
▁mobile
▁nothing
▁relevant
▁industries
▁calculation
▁morning
▁Pol
▁draft
▁sleep
ixt
riot
▁almost
▁So
▁alone
ump
▁fire
▁functions
▁tools
▁24
▁kind
▁quant
▁produced
▁components
▁models
▁prospects
▁separ
▁protect
ests
▁preparation
uted
▁Fin
▁miss
raction
▁reforms
▁rat
▁speech
▁rules
▁speed
ening
▁village
▁decided
▁achievements
▁showed
▁bed
encies
▁community
▁directions
▁wouldn
▁prevent
▁Techn
▁thinking
▁monitoring
▁pressure
▁Comp
ring
vest
▁conclud
▁traffic
▁veter
▁consists
ruption
▁sn
▁features
ospital
▁Internet
▁solutions
▁Am
▁199
▁ago
ctober
▁demand
▁largest
meric
▁door
SC
duc
▁Akt
assador
▁investig
▁maximum
ounds
▁learn
▁ca
▁sphere
retary
▁avail
▁self
pecially
▁rights
▁hectares
▁transportation
omm
▁frequ
▁steps
pped
eptember
▁Kazakhstanis
▁bar
▁conv
ler
▁ru
iable
▁metal
ha
▁instructions
▁relig
▁depending
▁university
▁distribution
▁hold
▁mean
▁expected
▁everyone
▁cases
quality
▁creative
cent
▁Key
▁trust
PO
ling
▁classes
ilis
▁watch
▁stre
▁hospital
▁previous
ival
cember
▁hon
▁concentration
ables
▁costs
▁emerg
▁meetings
▁lost
▁foc
reme
▁Ind
▁flo
▁pip
aganda
▁solar
▁sett
▁force
▁increases
hemical
▁Re
ians
isis
lock
▁2016,
▁liter
▁universities
▁Sy
▁ir
▁thanks
▁wonder
▁Educ
lam
▁Bel
▁busy
▁unit
▁include
▁strategy
▁60
▁traditional
AT
▁coe
▁etc
▁makes
iy
▁sul
itute
▁After
▁white
▁providing
▁carry
▁%
▁viol
▁2014,
▁weight
▁actively
▁hor
▁expect
▁roads
▁structures
▁parts
▁parents
▁police
ique
▁gener
▁coming
▁probably
ords
▁swim
▁layer
Figure
▁By
▁having
▁search
▁simple
▁opinion
▁2,
▁liquid
▁studying
▁South
▁haven
▁proposals
▁corp
▁ability
▁ver
▁milk
▁property
▁22
▁mixt
▁looks
▁indicator
▁Mon
▁acquainted
▁samples
▁x
▁tal
oot
sel
▁else
▁anyone
▁path
illing
▁0,4
▁sor
▁needed
▁especially
utive
▁reserv
aches
▁decrease
ape
▁load
▁length
▁Americ
▁observ
▁applied
On
rec
ront
term
▁However
▁approach
▁agreements
gyz
rad
ients
▁bought
▁degree
▁movement
▁Kazakhstani
ke
men
▁23
▁cy
iful
▁hur
▁East
▁site
▁buildings
▁pack
▁pain
▁subs
▁quite
ula
▁[2
reed
▁Maj
▁coordin
dum
itude
▁participate
yrgyz
▁size
▁theory
▁distance
▁figure
▁substances
▁pretty
▁age
▁operating
▁launched
▁dise
▁experiment
▁ey
▁Bank
▁medic
▁fight
▁phase
abil
▁break
▁colle
▁remember
government
▁bit
▁looked
▁October
▁section
eb
▁)
hev
ters
▁seems
iations
▁dial
▁union
osed
roll
▁depends
▁purch
▁quick
autiful
▁28
ament
sized
▁carbon
▁address
▁0,5
▁Assembly
coming
▁election
▁scientists
stain
ression
▁copper
▁levels
rid
▁New
▁board
▁reason
▁pedagogical
▁Would
▁holid
▁talking
▁consumption
avlo
ogue
▁performance
arant
▁rout
▁accident
▁mechanical
▁cand
▁beautiful
▁influence
▁rural
▁advant
▁answer
▁trying
more
▁fish
▁sectors
▁Met
▁dynamic
ged
ohn
▁fru
▁mist
▁once
cast
▁His
ior
▁sustain
lik
urg
arus
▁Chinese
▁tre
▁price
▁calculations
▁generation
▁instructed
▁bal
▁major
▁First
leb
▁26
▁others
yk
▁negot
rain
oman
andum
▁John
▁ministry
▁boy
anger
▁entire
rans
▁Fed
▁vide
3]
▁2012
road
▁settlement
▁easy
▁brother
▁growing
▁waiting
▁(2
▁Some
▁hear
▁build
▁manag
▁Education
ional
icles
▁rob
▁repl
▁requires
bor
▁agreed
ensive
▁upd
▁web
▁Within
▁stages
▁theore
▁prepared
▁therefore
ouble
ges
▁news
itect
▁From
▁strength
▁transl
▁statement
▁trip
book
▁mind
▁award
);
osph
mittee
▁Parliament
▁lives
▁existing
ms
▁Tra
▁ren
side
▁principles
useum
▁town
▁March
▁exceed
ulate
▁2017,
▁celeb
▁please
▁passeng
▁Committee
scale
indust
selves
▁associated
▁camp
▁flu
▁married
▁achieved
▁ethn
ON
▁fer
▁interv
▁designed
▁memorandum
erb
idd
ola
tion
ward
▁added
▁effectiveness
hy
▁af
▁cut
▁expo
▁forms
▁window
ban
ises
▁Tell
▁effort
ko
▁sold
ibr
▁primary
ses
▁cross
▁Kyrgyz
▁informed
▁confidence
lusion
▁Security
▁States
▁December
▁27
▁US
▁factor
▁CIS
▁Aktobe
▁assembly
▁fix
▁June
▁doctor
orda
▁cold
▁tele
▁likes
▁getting
ilar
▁usually
▁moment
▁finished
▁code
▁topic
▁century
▁Be
pril
▁Dire
▁collect
▁Department
oon
▁80
▁nation
▁heating
▁criter
▁September
▁International
▁equal
▁mining
,000
▁financing
▁leadership
▁music
ef
phas
▁takes
▁subsid
▁Mod
▁ground
▁amb
▁cere
▁Aust
▁least
▁accur
▁initial
itiveness
▁minutes
▁popular
▁maintain
inary
▁required
▁Sp
▁Sen
▁circ
▁procedure
▁pict
▁anymore
▁recon
▁target
▁administr
▁logistics
▁detail
▁convers
▁books
▁master
▁recomm
▁cars
▁front
▁modeling
▁businesses
▁understanding
▁electricity
▁legislative
▁Co
▁railway
▁responsibility
▁paper
▁progress
sec
▁cell
gart
▁Def
▁unity
▁emphas
▁Af
▁Karaganda
▁Dan
▁highly
▁29
▁Does
▁far
▁manufacture
dar
▁authorities
edic
▁dat
dergart
▁Information
▁interesting
▁divid
▁initiatives
▁semin
▁implementing
▁relationship
yzyl
▁matter
bers
▁dest
▁phone
raft
▁perm
usiness
▁concluded
▁performed
▁cate
▁dialogue
▁reduced
▁stor
▁involved
▁delegation
▁kindergart
aur
▁Secretary
4]
▁letter
▁sustainable
agram
▁invited
▁travel
▁competitive
?"
▁worked
▁word
▁discussion
▁six
▁tren
▁architect
▁Belarus
▁glass
▁external
▁fall
▁repair
mosp
▁pub
ellig
▁identified
▁administration
cks
reg
year
▁magn
▁promot
▁guarant
▁radiation
25
inner
▁Your
rought
▁solid
▁making
▁executive
▁determining
lex
oad
anium
▁neigh
▁source
▁completely
▁lower
aff
▁clust
hern
ying
▁Vice
▁sulf
▁languages
▁significantly
words
▁spent
▁leader
ief
unic
▁suggest
▁surpris
▁draw
▁frequency
raid
▁Our
ovember
▁danger
▁announ
▁Germany
▁Bo
▁abroad
▁defined
▁similar
▁provision
▁super
▁candid
▁ton
▁Majilis
▁machine
▁laboratory
ountain
▁session
▁Reg
▁adap
▁ties
▁flour
▁limit
▁competitiveness
▁fulf
▁decreased
▁Ph
avlodar
▁selected
▁corresponding
ane
▁died
active
▁tourist
▁birth
▁defin
▁crisis
▁registered
▁Expo
▁face
▁heav
▁fel
▁anti
▁drive
▁afraid
▁Mr
▁check
uth
▁quickly
ext
▁gold
▁true
▁vict
▁amend
▁tired
▁annual
▁contact
▁differential
mist
▁phen
▁linear
▁mechanisms
▁u
▁forg
ma
oes
▁Pl
▁unique
▁arrived
▁specialized
kent
zbek
▁connect
ken
arter
ugust
▁appe
▁produc
1,
▁Inst
astic
▁Stud
▁families
ES
▁Ass
▁decl
▁video
▁gard
▁pred
▁geograph
▁Of
rical
▁final
▁guests
▁reflect
▁constitution
ids
▁Now
▁July
▁spir
▁thanked
amin
▁grain
▁[1]
ule
▁becom
▁Keywords
▁Federation
▁programming
fort
▁rich
eth
▁feed
▁atmosp
▁fast
utor
▁0,6
▁nan
▁nice
▁Islam
▁image
▁write
▁cover
▁veget
▁brought
▁climate
yt
asp
▁500
ifying
▁holiday
▁Director
▁conducted
enda
▁OF
▁bur
estern
▁houses
▁familiar
▁ow
hest
▁crop
▁preserv
▁pollution
▁Road
atization
▁hom
ricts
▁clin
iction
▁outside
ocol
▁chan
▁fest
▁Asian
yzylorda
employ
▁border
5%
▁red
aught
verse
▁weap
▁follows
▁someone
▁stations
▁Amb
▁nom
▁coal
▁April
▁mixture
▁presidential
▁Organ
▁agenda
▁difference
▁Soc
mitted
▁device
▁Se
▁shouldn
▁advanced
▁vo
▁sound
▁structural
gs
sequ
organ
cement
▁datab
▁interests
▁negotiations
ton
▁jo
baev
▁cook
▁game
▁coff
▁fields
▁careful
▁Commission
izes
▁phenomen
ometric
▁bat
het
--
by
ray
▁enc
of
ift
lig
cious
▁link
▁occup
▁views
▁myself
▁summer
▁threat
▁available
▁enj
▁issu
▁altern
mola
▁appoint
▁changed
▁favorable
▁synt
▁turnover
▁upcoming
▁ath
ball
mistry
▁behalf
▁confir
▁presence
▁Cons
▁fair
▁secondary
▁methodological
ately
▁apprec
▁allowed
▁topical
▁coffee
▁Economy
reen
aries
▁Health
▁spirit
isc
▁cred
▁dedic
work
▁But
▁pipel
▁renew
▁entities
eld
rance
▁persons
▁reading
▁pen
▁hung
▁zhol
▁reduction
▁coefficient
.0
▁ord
▁November
▁innovation
5]
▁user
▁veterans
▁stable
▁percent
▁Des
▁Tok
▁divided
▁Ambassador
▁responsible
▁Center
▁mainly
▁sample
▁operations
▁Science
▁robot
▁Indust
▁dinner
▁terror
ends
▁safe
leased
▁reach
▁Follow
▁serious
▁administrative
40
lor
uses
▁Ac
ademy
▁sist
▁negative
▁300
▁veh
▁2013,
▁Table
▁appear
10
▁Iran
▁income
▁intellig
▁explained
▁introduce
▁regulation
ctors
▁agency
▁famous
▁minimum
▁districts
to
▁apply
▁later
▁Energy
▁Senate
olution
▁oxid
▁directly
▁principle
lov
ildren
▁river
rient
omp
▁earth
▁zones
▁forecast
▁decisions
▁tow
▁truth
pro
onst
▁pul
governmental
rency
rig
imov
▁resistance
▁simpl
▁installed
ien
▁belong
▁Abd
▁displ
▁channel
▁Pavlodar
ites
▁risk
▁supposed
map
adil
craft
▁Uzbek
▁secret
▁deposits
▁35
unch
▁cerem
▁residential
▁transit
▁Following
pite
▁formula
▁yourself
tan
▁vot
ambyl
▁acce
ellect
▁Kyzylorda
▁dedicated
▁wife
▁markets
sk
▁laws
▁stressed
▁Ent
▁del
▁evalu
▁forget
raz
▁sav
▁closed
▁widely
EC
▁JSC
ipped
▁song
▁mountain
where
▁vers
▁demonst
▁associations
irtual
▁partner
▁diseases
mission
▁conven
ellectual
▁association
ights
▁Great
▁emergency
-3
isf
▁explo
▁efforts
na
▁sus
iated
▁weapons
▁Ge
▁rot
▁metals
▁competence
▁libr
▁exact
▁users
▁instru
▁chamber
▁manufacturing
car
industrial
▁indicated
ogen
▁arm
▁ceremony
▁producers
▁supported
▁3,
▁Arm
▁testing
ymkent
▁harmony
▁tonight
sych
▁hair
▁mode
▁phosph
▁concern
forcement
▁benefits
▁announced
▁selection
▁rain
▁optimal
▁conclusion
iddle
urance
▁Fadil
▁accum
▁limited
▁turned
ographic
▁enjoy
▁museum
▁relative
▁theoretical
▁friendly
ION
▁choice
▁Japanese
▁controll
▁congratulated
60
mbol
▁sun
obody
▁signal
▁departments
iminal
▁compar
▁integrated
ively
cl
kaz
uck
▁agro
▁index
9,
▁exerc
▁awarded
▁amendments
▁Just
▁produce
bed
▁normal
▁Institute
lier
▁pil
▁glad
▁bound
▁heavy
pid
▁Uk
▁[2]
▁shop
▁urban
▁engaged
rix
▁90
▁diagn
▁tests
alt
▁men
▁nit
80
ercial
▁smart
▁United
▁commercial
ingu
iver
▁Trans
▁Monday
▁settlements
.,
▁tick
▁elimin
▁Everyone
oub
▁Kore
▁discipl
▁color
▁August
▁cooper
▁listen
▁Organization
▁mm
▁Could
▁calculated
heres
▁changing
▁fruit
▁Invest
▁athlet
▁underway
▁alternative
▁pension
▁collection
ox
▁pet
▁loss
▁reven
issions
▁astana
▁institutional
▁Ko
▁ideas
▁status
ruary
▁drew
▁gone
arding
▁hands
▁media
▁credit
▁observed
▁san
▁sick
▁Method
▁Program
▁mathematics
riotic
▁armed
ermanent
ah
▁Cl
ither
▁Fund
▁Plan
▁felt
▁leads
▁Akmola
▁emphasized
▁sand
▁record
▁commissioned
▁Over
friend
itarian
▁approaches
▁eyes
igures
odes
▁Cont
▁absor
▁heart
▁Turkey
▁diagram
▁connected
▁launch
room
▁snow
▁storage
▁1)
riate
ensity
▁System
▁online
▁Zhambyl
▁0,7
▁dam
▁div
arily
▁uranium
▁attracting
▁quantitative
avil
dule
▁wall
▁inside
▁symbol
▁competitions
▁representative
vered
▁multi
▁likely
▁command
▁measurement
vis
▁App
▁hasn
▁concepts
▁reducing
IC
rist
ansion
▁concert
▁trillion
par
rly
▁lived
▁presents
▁registration
▁box
▁themselves
hood
▁reve
▁Part
▁kiss
▁winter
▁capabilities
gn
ping
▁son
▁Mang
ST
▁dru
istau
▁covered
▁component
▁har
being
▁angry
▁chance
▁consult
▁furn
▁Thanks
▁garden
▁exports
▁productivity
▁loans
▁longer
▁defense
iary
icon
▁pavil
▁return
olit
ped
iced
▁born
▁east
▁electro
▁certific
▁mas
▁Many
▁fail
▁Chamber
den
ead
rab
hmet
▁iron
▁psych
▁vac
▁card
▁portal
ently
▁judicial
▁Kyrgyzstan
▁sea
▁metall
▁review
▁database
▁specified
▁wheat
▁combat
▁expense
▁extreme
▁War
▁cam
enses
▁banks
istical
▁measuring
oph
▁Day
▁approp
▁sister
▁characterized
cer
▁Canad
▁circu
▁species
▁efficient
▁investigated
bit
▁Az
secutor
▁schedule
osc
▁[3]
▁dry
▁remov
ription
iability
aced
▁kaz
ebruary
▁conver
▁Lat
▁orig
▁estim
▁honor
▁lunch
▁satisf
▁forward
oura
▁150
▁Nur
▁cool
▁spheres
▁weather
▁boil
▁raised
▁intellectual
rest
▁suit
▁2017.
▁death
▁aspects
▁operator
▁presentation
▁consideration
rel
aled
lymp
ustion
▁location
oul
▁radio
▁sorry
▁passed
▁Defense
▁written
▁criminal
▁published
anov
▁tou
▁hurt
▁talked
▁picture
▁readiness
▁mix
▁deal
▁react
▁Austral
▁American
▁medicine
pper
▁ratio
▁assign
▁format
▁obtaining
▁conducting
▁32
▁emb
▁grand
band
sing
▁clearly
▁seminar
Kazakhstan
▁corruption
▁appropriate
▁participating
ger
etus
uration
▁recently
6]
ots
▁Here
▁dynamics
ured
▁Sum
▁quarter
▁reserves
▁examination
▁disabilities
▁wear
▁woman
▁whether
▁textbook
uz
▁save
▁Maybe
▁constantly
▁continuous
▁TV
▁fell
▁thus
▁court
uations
▁seemed
▁sen
anged
▁employed
▁passenger
IN
kn
▁acts
▁stress
▁expansion
▁evaluation
▁Anal
▁comes
▁landsc
▁impetus
▁eg
ghan
▁functional
hat
▁blo
▁slow
▁organic
▁equipped
▁priorities
▁supporting
▁lat
iform
riers
▁dead
▁foot
▁chall
▁unemploy
abet
▁adj
▁output
▁courses
▁congress
▁installation
uls
▁virtual
▁Sw
aired
▁imposs
100
▁mast
stanay
▁neighbor
▁Mangistau
▁diplomatic
aves
▁2010
▁apartments
▁Her
▁stim
▁forgot
▁mine
▁rent
▁Based
▁remote
▁select
▁density
▁successfully
jan
acks
▁bot
▁Social
▁resource
iyev
▁film
▁shall
▁thick
▁behind
▁useful
▁consumer
▁improved
ults
▁note
▁playing
▁algorithms
▁Not
▁ore
▁photo
▁expanded
▁Me
▁Brit
▁round
▁matrix
▁acceler
▁qualitative
iences
▁agencies
tage
aspian
▁humanitarian
ny
▁hungry
▁tariff
ims
ukh
anch
▁voc
▁adapt
▁religious
hesis
▁determination
oly
▁Bec
▁aft
bekov
▁deli
▁sell
▁gives
▁transp
▁entered
▁criteria
▁renewable
▁operational
▁nut
▁charge
▁annually
ook
▁gain
▁however
▁hydrogen
▁chemistry
▁promising
▁transform
mon
umin
▁[4]
▁doub
iminary
▁express
▁Shymkent
▁definition
▁regulatory
▁methodology
▁street
▁accuracy
▁purchase
▁experimental
▁aftern
▁Islamic
▁conversation
▁45
▁ate
▁insurance
uled
▁hop
▁goes
▁hund
▁prop
▁compl
▁oblig
▁actually
%)
▁lack
▁steam
▁athletes
eds
▁Spe
▁bri
▁dream
▁permanent
▁beneficial
alle
nces
▁cluster
▁afternoon
▁expanding
▁impossible
▁spend
▁kazakh
▁harmful
▁separate
▁31
▁black
▁entrepreneur
▁reconstruction
mar
oid
ground
▁helped
▁sections
val
▁occur
▁literature
▁sides
▁exactly
▁organize
▁procedures
▁obser
▁spring
▁trouble
:30
time
▁ion
imension
▁organizing
▁enforcement
▁Ser
▁slag
▁bread
▁chair
▁France
vey
atics
▁regular
▁conscious
▁spiritual
ops
▁anc
▁fine
▁Because
▁prepare
▁Mar
▁die
▁fixed
▁thinks
▁library
umb
▁chain
▁lines
▁plays
▁timely
▁promote
▁vehicles
▁mig
▁analy
▁effects
▁favorite
going
▁poor
▁story
▁wished
operation
hold
▁highest
▁reliable
▁graduates
airy
▁biological
▁distributed
ensions
ifest
▁Last
▁scale
▁contains
▁orient
▁friendship
aign
▁noise
▁inspect
▁recommend
unk
▁ill
▁motor
▁staff
▁steel
▁summit
▁Kostanay
▁terrorism
▁Serv
▁warm
▁store
▁branch
70
ush
insk
idity
▁pump
▁Nobody
▁rapid
ificial
▁campaign
▁Australia
▁Otan
▁Will
▁rule
ference
urement
▁February
▁indicates
▁recognized
enov
oking
▁dark
▁route
▁Christ
▁drinking
▁webs
▁figures
▁mission
▁towards
▁described
nic
erbai
▁crops
▁thirty
▁package
▁effectively
▁significance
▁33
raine
erbaijan
▁payment
▁release
▁qualified
▁protocol
▁dangerous
▁interactive
▁Ba
▁issued
▁compounds
▁transferred
-2050
▁stup
▁audit
▁Public
▁moving
▁consist
▁polymer
▁wearing
▁integral
ara
children
▁construct
mediate
▁disapp
▁dependence
AL
ari
▁Mat
▁Pet
▁borrow
▁citizen
▁territor
▁Uzbekistan
▁Cooperation
▁fa
▁hate
▁cryst
▁rating
▁animals
▁expensive
15
aps
▁2016.
▁repe
▁Afghan
ae
▁Act
▁decree
▁combustion
▁Such
▁pick
▁print
ography
▁younger
▁surprised
▁innovations
-4
nis
▁36
idge
▁host
▁Academy
▁consisting
▁Inc
▁prel
▁possib
ifications
▁preliminary
▁(3
▁Give
uable
▁Mayor
▁Industry
▁tree
▁2015.
▁eating
▁advantages
▁convenient
▁electrical
yle
▁sale
▁cargo
▁horiz
▁sites
▁killed
▁college
roduction
▁Internal
▁considering
ta
org
itage
oscow
▁mole
▁Agric
▁Olymp
▁petro
▁stupid
▁wel
▁loan
▁dairy
▁circuit
▁immediate
▁Investment
▁Em
iers
▁weak
▁farms
unications
house
▁movie
▁Culture
▁complain
▁previously
aily
ourn
▁Col
▁plane
▁itself
▁context
▁optical
▁victory
▁airport
▁earlier
▁mistake
▁adoption
▁atmosphere
▁characteristic
ps
cont
▁More
▁cm
ademic
▁authors
▁subjects
lies
▁send
▁lesson
21
rum
▁fat
▁monu
▁offer
▁caused
▁sulfur
▁advantage
uge
por
▁guy
▁coup
▁stabil
▁speaker
▁Entreprene
▁statistical
5,
OR
▁profess
▁reaction
▁Due
vious
▁North
▁pilot
▁maslik
▁evening
▁updated
▁patients
rag
rote
thes
▁talks
▁Akhmet
▁middle
▁34
▁focus
▁assets
▁diction
▁preschool
alc
▁deb
agint
ented
▁brief
▁sugar
ochemical
▁candidates
▁Sem
ances
▁Prot
▁Roadmap
▁uniform
agintayev
▁identify
ajik
come
▁Then
▁blood
▁champ
▁Research
▁kindergartens
oples
▁remains
▁rational
▁difficulties
▁Mus
overy
▁rare
▁broke
▁layers
▁physics
▁stopped
▁volun
▁scheme
▁healthy
▁mutually
▁fundament
IT
▁forest
▁kil
iring
liance
we
enty
iling
▁grew
7]
▁wa
▁consumers
▁analytical
▁pan
based
▁clothes
▁focused
▁prosper
▁starting
▁deformation
▁communications
level
▁cloud
▁games
aughter
mary
▁Sup
▁finish
▁4,
▁bab
usband
▁shell
▁patient
▁compliance
▁Entrepreneurs
▁establishment
▁ut
pers
▁led
known
poses
▁club
▁sched
▁anybody
▁birthday
▁classification
ER
▁names
▁neural
▁automated
▁recognition
oz
▁akimat
▁tennis
iological
kz
mas
ened
▁Art
▁arg
iding
▁deposit
▁accepted
itch
ender
▁River
2,
rogen
position
▁restaur
▁Azerbaijan
allel
▁irrig
▁solved
asons
▁Hung
▁advice
▁Ukraine
▁determines
arat
phone
▁floor
ologies
▁affairs
AN
▁constitutional
osy
head
▁Imp
▁uses
▁begun
aration
▁speaking
▁preparing
▁organizational
The
ike
▁mel
▁kept
▁hotel
▁website
▁purposes
▁complexes
▁positions
gory
▁fif
▁lic
▁liked
▁pharm
▁doctors
▁certification
EU
abi
ches
▁proc
▁risks
▁Caspian
▁Sm
▁[5]
▁Work
▁ball
▁retur
▁Moscow
8,
▁mand
▁turb
▁upper
▁fulfill
nd
▁blue
▁insp
▁lose
▁pavilion
▁geographical
II
ero
cell
▁shoes
▁combined
▁artificial
rs
rap
▁II
fect
▁2:30
▁colleag
▁husband
▁Analysis
▁hydrocar
▁salt
▁daily
spe
▁ice
▁fill
▁driver
▁peoples
ED
▁Rel
▁tit
▁Board
▁Tajik
▁wrote
▁request
lus
set
▁Arab
▁Latin
▁assum
▁variable
▁vocational
▁identification
▁Ask
ATION
▁trends
▁Turkish
▁trained
▁revealed
3,
sis
▁2050
▁mort
▁angle
▁sense
▁fourth
alik
▁2019
▁ions
apital
ogenic
▁motion
acc
▁37
▁closely
▁challeng
▁festival
▁tourists
▁bak
▁vari
▁cause
▁believ
▁season
▁Business
▁immediately
MS
▁IS
▁rock
▁sout
▁Earth
▁resid
▁bright
▁feature
▁signing
▁homework
▁pipeline
des
rian
inter
scill
▁Aren
▁category
▁phosphor
▁accounting
gra
▁2)
cher
rier
▁2011
urities
▁attack
▁OK
etov
requ
▁kill
▁ship
▁below
▁journ
▁offic
urgical
▁cement
▁reserve
▁drilling
▁authority
▁sometimes
sem
▁bul
▁alph
▁camer
▁caught
▁magnetic
▁describes
▁submitted
▁prevention
▁IN
ging
olid
vere
▁height
▁prison
arp
like
▁Assoc
▁flows
▁memory
▁speaks
▁vector
▁visual
▁voltage
EN
eed
▁(4
▁inj
▁flowers
▁analyzed
▁swimming
▁abilities
▁parameter
cor
assy
▁clim
▁diagnost
▁facility
▁execution
eous
▁cup
▁nur
erent
▁tall
▁voice
▁animal
▁nazarbayev
sky
rown
▁West
▁gross
▁thank
▁topics
▁IT
▁ran
oviet
▁cogn
▁Finance
▁categor
▁specialties
▁shape
▁govern
▁involve
▁exercises
▁nerv
▁Elect
▁depth
▁serve
▁seven
▁series
▁Law
▁worry
▁reasons
▁worried
▁released
▁primarily
pat
ores
▁Each
▁diss
▁2014.
▁older
▁balance
▁aircraft
▁apartment
▁thickness
▁sufficient
▁kg
ield
▁mac
anches
elect
water
▁hundred
▁heritage
▁hit
▁vent
▁visc
▁rocks
▁choose
▁intend
▁oscill
▁played
▁spread
▁valuable
▁ecological
▁CO
▁extra
▁respon
▁display
▁practices
▁foundation
▁transmission
ato
▁Ob
▁ine
tiliz
▁Note
▁affects
agro
▁band
▁wood
▁shared
▁worksh
▁becoming
▁intensity
▁legalization
▁schoolchildren
rov
▁Med
cular
▁2018,
▁Strate
▁horizon
11
▁ax
ivate
▁"100
▁Most
iments
▁block
▁conflic
▁servants
▁contributes
sp
▁lie
▁meaning
▁academic
▁watching
▁scheduled
▁statistics
90
AS
▁bag
ynamic
▁parallel
▁payments
▁socially
rem
▁Cor
▁coll
▁spectrum
imensional
▁confident
▁continued
▁simulation
AEU
▁44
▁0,8
▁Among
▁rather
▁numbers
▁winners
▁architecture
ider
ower
vant
▁gar
▁hall
▁kids
▁neut
▁recre
▁soils
▁bridge
▁coating
▁distingu
▁challenges
▁600
▁operate
▁transformation
-5
ns
eys
▁ess
-2020
▁Sing
▁feeling
▁intended
▁proposal
▁possibilities
EM
gent
▁broad
▁despite
▁leaving
▁completion
▁400
▁proud
▁trend
▁creates
▁Afghanistan
▁consciousness
rat
▁gets
▁learned
▁Agriculture
%),
ria
▁Inter
actions
▁apparat
▁fraction
▁collected
▁operators
▁controlled
fast
▁1.5
▁belt
▁easily
▁regime
▁pattern
▁writing
▁procurement
▁Su
▁Sat
▁pays
▁sequ
▁stra
▁Which
▁begins
▁server
▁Service
▁forming
▁mention
▁fertiliz
▁cognitive
▁migration
▁Management
▁resolution
14
fin
iled
ohol
▁Pat
▁prize
▁desire
▁multip
▁absorption
▁reliability
ipal
▁occurs
▁totaling
▁opp
istant
▁Trade
▁though
▁alphabet
lad
▁euro
rivers
▁dance
eks
ulov
▁Put
▁Sea
▁akims
▁chrom
▁volumes
▁promotion
▁categories
aul
iox
abled
▁grant
▁Agency
▁signals
▁sentence
▁Environment
onds
ffect
▁bicy
▁Sports
▁aviation
▁oxidation
▁traditions
▁38
▁42
▁Per
▁Was
unction
▁apparatus
▁phenomenon
▁preservation
try
▁MP
char
▁Sun
▁den
▁guys
▁prec
▁Korea
▁advis
▁polic
▁theme
▁Turkic
▁situations
chen
▁0,3
▁south
▁adjust
▁alumin
▁Kh
light
orient
▁Modern
▁benefit
▁version
▁returned
▁reception
▁universal
▁specialist
fol
ruk
cked
▁Det
▁imm
habil
co
▁(1)
▁fed
ogene
oultry
▁causes
▁proved
▁replace
▁Tajikistan
rupt
▁sole
tenance
ulating
▁parliamentary
6,
ius
▁00
▁75
▁sharp
▁divers
▁owners
▁revenues
▁automatic
▁contracts
▁translation
comm
▁mag
▁double
▁stayed
▁exchanged
▁ambassador
▁congratulate
arabi
▁girls
▁actual
▁branches
▁colleagues
▁dictionary
▁description
▁kindergarten
isms
▁entry
▁sensor
▁continues
▁reference
oted
▁swe
▁army
levision
▁becomes
▁manager
▁functioning
ript
ental
▁ones
ameter
▁moved
▁quiet
▁cataly
▁ethnic
▁walked
▁geological
▁systematic
▁achievement
ley
----
▁crime
atically
▁cleaning
▁Technology
uil
▁48
▁Fe
▁tea
ether
▁Main
arency
roduct
▁Summary
▁eliminate
▁relevance
▁Constitution
▁Le
▁ign
▁eggs
▁Somet
▁routes
▁Results
▁silicon
▁response
▁villages
4,
mn
rau
erek
ivest
▁Data
▁susp
▁comfort
▁supports
▁restaurant
▁respectively
uff
loys
cohol
▁wave
▁2013.
▁processed
▁textbooks
▁certificate
12
7,
ux
estan
rates
▁detect
ivestock
▁driving
▁breakfast
▁instruments
CT
oir
iber
load
▁250
▁hat
rolog
▁flex
▁2:30.
▁cycle
▁freed
▁powers
▁analyze
▁perfect
roy
▁err
▁rates
▁extract
▁finally
▁machines
▁resolved
▁computing
▁kid
apore
linear
ometers
▁daughter
liamentary
▁automation
▁coordinate
▁objectives
▁transparency
▁43
state
▁images
8]
lot
luding
▁logical
ocultural
▁examined
▁reporting
▁maintenance
▁1000
▁finance
▁nervous
▁observers
free
▁Cre
▁huge
▁exist
▁twice
orthern
▁cattle
ordination
▁attracted
▁livestock
▁synthesis
▁television
▁combination
aging
antic
olute
▁EAEU
▁Phys
ourage
▁receiving
▁remaining
habilitation
-10
▁46
alled
▁ampl
▁Armen
▁error
▁fiber
▁stock
ivation
▁poultry
▁critical
▁literacy
▁powerful
dom
▁gun
▁baby
▁weeks
alikova
▁phenomena
▁correspond
ne
ze
soil
▁vice
osystem
▁corpor
▁counter
▁communal
▁Christmas
mes
▁Op
aceut
▁rank
▁India
▁facil
oriented
▁absence
▁measured
▁introducing
▁qualifications
▁(5
▁55
onic
ucky
▁prote
▁profit
▁Represent
▁prosperity
▁Kok
▁pun
lined
▁gran
▁wine
▁whose
▁handed
▁saving
▁obvious
▁privatization
uries
▁seats
▁explan
ulations
▁appeared
▁competent
▁throughout
▁informatics
▁dro
▁tub
matic
▁scre
▁Under
▁catch
aceutical
▁targeted
▁Everybody
▁intelligent
▁ethnocultural
akov
▁grat
▁loves
▁destru
▁ancient
▁consequ
▁running
▁producing
▁corporation
▁availability
▁optimization
any
ows
▁Tw
ushed
▁lawy
▁dress
▁loved
▁couple
▁extrem
▁Process
▁barriers
▁passengers
▁individuals
▁zero
▁Italy
▁scared
▁akimats
▁assigned
▁minerals
▁certainly
▁confirmed
▁esc
heric
▁drop
▁shot
▁eight
▁incom
▁flight
▁interval
Al
▁Cong
▁laid
▁alcohol
▁freedom
▁offered
▁corresponds
▁preparations
PP
oles
▁Shu
▁envis
▁colleg
▁saying
ppe
uan
▁der
folio
▁hero
▁sitting
▁theater
▁evidence
▁managing
▁criterion
▁exploration
techn
▁Look
▁join
▁chlor
▁Tokayev
▁mandatory
▁Er
ishes
▁keys
▁Forum
▁Special
▁fruitful
▁extraction
▁vegetables
▁Association
▁fundamental
9]
mark
rust
▁[6]
▁mad
▁clar
▁duty
▁page
▁2020,
▁newsp
private
▁factory
▁instead
▁channels
parliamentary
atau
▁cad
▁silk
▁Afric
▁doubt
▁flood
▁either
▁reflected
▁reservoir
▁expression
▁violations
23
ams
ded
▁EU
back
▁rice
▁teams
▁supplement
bra
ird
uman
advant
▁brand
▁nitrogen
▁gratitude
▁recommended
ecul
osity
eculiar
▁afford
▁filter
rium
▁Car
rition
▁physic
▁propag
▁elected
▁letters
▁trading
fficients
▁Turkestan
▁nursultan
▁girlfriend
▁47
scop
▁mer
▁Calc
▁suff
iscipl
▁laugh
▁raise
▁toler
▁realize
▁weekend
▁absolute
▁mistakes
▁carefully
-6
ING
umn
▁il
care
▁Get
▁Both
▁Code
▁Take
▁diox
▁Using
ibek
oral
▁beer
▁macro
▁boiler
▁resear
▁satell
▁America
▁telling
▁subsidies
▁appreciated
bs
500
ket
▁Ext
▁eye
rible
▁dust
▁tast
▁democ
▁trees
aiterek
▁damage
chemical
▁pressing
▁Singapore
▁emissions
17
sion
ronic
▁Vlad
▁cast
▁perce
▁forced
▁powder
▁bicycle
▁harvest
▁relation
▁comparison
▁obligations
ady
amm
▁Gr
osen
▁behav
▁novel
▁Comput
▁journal
▁offices
aparbayev
▁promised
TO
che
ems
lim
▁sales
▁headed
▁devoted
▁dioxide
▁subsequ
▁Administ
▁variables
isciplinary
▁temperatures
▁Prof
▁upon
▁drunk
▁input
▁taxes
▁tested
olitical
▁computers
▁institute
▁orientation
ades
▁Tal
▁avoid
▁horse
▁corrid
▁predict
▁consolid
▁disabled
▁equality
▁disciplines
▁39
▁Ne
▁Tar
▁poison
▁strict
▁taught
▁plastic
▁coefficients
▁Ber
▁hub
ondon
▁judges
▁metrop
▁module
▁native
▁Another
▁lending
▁savings
▁diameter
▁Protection
tic
gypt
rell
▁tro
▁sets
▁oxide
▁except
▁ticket
▁detection
▁declaration
▁manufacturers
▁metallurgical
▁Gu
raul
▁Che
▁lab
▁mis
▁rub
▁expos
▁touch
▁Western
▁coverage
▁realized
▁shopping
▁programme
▁underground
AR
▁pi
imir
ander
insky
imedia
▁sensors
▁audience
▁preserve
▁drug
▁facilit
▁boundary
▁deepening
▁objective
▁purchased
▁pharmaceutical
arov
osis
▁isol
▁Paris
▁solemn
▁fertilizers
▁competencies
itely
▁Come
▁thin
▁reflects
▁containing
▁inspection
▁independently
▁rehabilitation
dyk
ects
leum
▁visa
▁grade
▁honest
▁Turkmen
▁lessons
▁peculiar
kal
ifts
▁core
▁breat
▁lying
ibration
▁reactor
▁entering
▁regarding
▁organizers
▁Technologies
▁53
icip
onom
ship
▁nav
▁umb
raulic
▁placed
▁tempor
▁wealth
▁ongoing
▁subsoil
▁Strategy
▁experien
▁champions
▁happening
▁cult
ivered
uilding
▁peaceful
▁recovery
▁household
su
ache
yrau
▁cash
vision
▁decom
▁across
▁southern
nam
▁God
▁Map
▁kit
▁seg
faces
▁obst
▁pace
-2017.
▁London
▁manage
▁humidity
▁considers
▁everybody
▁unemployed
In
▁Id
umen
▁sew
clock
▁enem
▁flat
ancing
▁mayor
erences
ordinary
▁checked
▁justice
▁sagintayev
▁celebration
▁experiments
Ch
eces
eter
▁Has
▁Even
▁Khan
▁fing
overed
▁broken
▁furnace
▁umbrell
▁establishing
AC
ino
ygen
▁Mal
▁wells
▁camera
▁grants
▁Kazagro
▁conserv
▁disease
▁appearance
45
urch
▁Bak
▁Yes
chron
obile
▁stri
▁norms
▁Second
▁Regional
▁:
hats
▁dim
▁sch
▁arrive
lication
▁colleges
▁restrict
dimensional
▁probability
mal
rael
▁ISO
asant
▁Their
▁cheap
standing
▁streets
▁delivery
▁gradually
▁recommendations
-8
16
resh
vent
▁120
▁ult
lands
▁pian
ourism
▁Thank
▁compens
▁achieving
▁delivered
dy
▁Model
▁Policy
▁accomp
▁patriot
▁Mathemat
▁extremely
▁consequences
▁architectural
▁professionals
▁psychological
yp
east
▁Sim
▁Web
▁[7]
▁Stop
▁imag
-2017,
▁homel
unately
ditional
▁answers
▁helping
▁landscap
▁guarantee
▁medicines
▁pipelines
▁coordination
ET
orn
iade
▁Red
alian
▁rein
▁ware
aliyev
▁smell
▁interp
▁microc
▁silver
▁recorded
▁repeated
▁Patriotic
▁Prosecutor
▁inspections
▁restoration
ka
▁56
▁MW
▁mur
ifies
iting
▁arrest
▁minute
ogeneous
▁cutting
▁ecology
▁pleased
▁currency
▁original
▁authorized
hyd
ull
▁mo
asma
▁ast
atial
▁grown
▁guess
▁north
▁compat
▁imports
▁umbrella
24
RO
▁cub
▁bath
▁chosen
▁integr
▁happens
▁Vladimir
▁substance
▁Everything
▁Cr
mans
▁eve
▁Mamin
▁lucky
▁former
▁strange
▁register
▁appointed
▁calculate
▁kilometers
▁territorial
ilk
iles
▁Aut
▁pref
▁vote
▁Egypt
▁firstly
corruption
▁extremism
▁maslikhats
▁protecting
▁appointment
▁documentation
zhanov
▁asleep
▁urgent
▁treated
▁Speaking
▁researcher
St
iece
osing
▁decide
▁latest
▁evaluate
▁examples
18
cr
▁"-
▁Ant
▁agg
▁kar
▁Plant
▁cells
▁gases
▁interm
▁invested
▁rotation
▁disadvant
▁estimated
▁conversion
▁(2)
▁2.5
▁quit
▁surv
▁zinc
ameken
▁twenty
regional
▁Despite
▁tickets
▁catalyst
▁assessing
▁promoting
▁prosecutor
itar
▁cyl
actic
otechn
▁notice
▁robotics
▁telephone
▁maintaining
▁strengthened
yo
ancy
zech
anges
▁York
▁Water
▁drugs
▁survey
▁reduces
▁graphics
▁workshop
▁Technical
▁atmospheric
▁(6
▁65
▁Di
▁GO
▁ST
olic
▁aer
ishev
▁Only
ietnam
▁meets
▁signs
▁errors
▁switch
▁unified
▁aluminum
▁diffusion
▁envisaged
▁productive
made
ooth
▁ash
▁anth
▁coat
▁Exper
▁illeg
▁almaty
▁attend
inations
ologists
▁Supreme
▁identity
▁painting
▁pictures
▁ministries
▁mg
▁sad
hanov
▁Methods
▁eastern
▁proport
rons
redit
▁jump
Farabi
arters
▁alloy
▁mixed
▁Armenia
▁flights
▁promise
▁smoking
▁visitors
▁interview
▁invitation
▁calculating
▁represented
-7
▁Oil
oline
ylene
▁plen
▁ahead
▁Canada
▁Determ
▁prefer
▁stored
▁destroy
pty
right
▁Scient
▁served
▁Italian
▁lecture
▁reaches
▁nutrition
sor
yna
vert
alace
atoes
▁pair
▁race
inated
▁chief
earning
▁Transport
▁accession
▁petroleum
▁irrigation
▁provisions
▁ratification
2)
97
lets
▁Tem
▁fly
▁Micro
▁coinc
▁excell
▁produces
▁sentences
aud
▁41
rees
▁aim
▁ple
▁bills
▁Britain
▁defines
▁sanitary
▁disappoint
▁propagation
▁familiarized
▁Gree
▁clay
▁desk
▁dies
▁lamp
▁stone
▁atomic
▁clinic
▁orders
▁Control
▁volunte
▁diplomat
▁mortality
▁subsequent
▁5,
hane
ulin
stood
▁scal
▁wire
▁beach
▁const
▁nodes
▁dispers
▁managed
▁removed
.3%
▁30%
▁700
enced
▁asph
perman
▁Tokyo
▁Soviet
▁guitar
▁troops
▁officers
▁employers
▁57
zone
▁ban
uting
▁crow
▁exha
▁2012,
▁Roman
▁slight
▁farmers
▁proceed
▁carrying
▁geometric
▁scientist
▁destruction
22
cel
icted
udden
▁cake
▁oxygen
▁seminars
▁phosphorus
ogy
pread
▁roll
ipalat
olding
▁courts
▁recognize
▁complexity
▁healthcare
".
▁pra
▁row
▁sod
iture
▁atom
▁diam
energy
▁lands
▁finding
idespread
▁commissioning
itz
▁54
▁id
shet
▁50%
hetic
ories
utors
▁Alex
▁Shan
▁apolog
▁filled
▁pieces
novative
permanent
▁corridor
ipalatinsk
▁religions
▁foundations
▁ski
▁pool
ussian
▁opens
agnetic
rations
▁define
▁sovere
erential
▁Congress
▁decreases
▁intensive
▁multimedia
",
raw
empt
▁800
▁argu
▁Askar
▁Labor
▁helps
▁recor
▁weren
▁obstac
ployment
▁spatial
▁hydraulic
fortunately
.5%
comp
▁rid
using
uality
▁saved
▁giving
▁salary
▁noticed
▁passing
▁describe
▁diagnostic
▁Environmental
yd
▁fit
▁bott
▁skin
anging
▁rooms
▁schol
▁Poland
▁School
▁neighb
▁united
▁drawing
▁ensures
▁options
amination
▁mixtures
▁thousands
▁dimensions
▁widespread
▁coordinates
▁entrepreneurial
▁Oper
▁debt
▁sorb
inding
▁shoot
▁corporate
▁landscape
▁performing
▁environmentally
ira
idth
▁craz
▁curve
ilation
ultanov
▁triang
▁Olympic
▁manifest
▁interface
▁adaptation
▁neighboring
13
2]
aus
dist
orph
▁cot
anish
ratic
▁file
▁fool
▁phil
akhmet
shetau
▁British
▁tariffs
▁homeland
▁resulting
▁decomposition
▁qualification
ont
▁(7
▁900
▁sym
▁2009
▁Zhum
▁star
▁prove
▁Forces
▁funding
▁watched
▁directed
▁exceeded
▁97
ogas
razil
▁lake
ytzhan
▁polym
▁crimes
▁dishes
▁artists
▁profile
▁Canadian
▁soldiers
▁accidents
ij
osm
enova
eshev
▁Mass
▁Serb
though
▁Czech
▁advance
▁threats
▁periodic
▁politics
▁religion
▁secondly
▁patriotic
-9
ils
▁syn
▁cond
ativity
▁rivers
▁respond
▁qualities
▁Communications
bul
enz
▁3)
▁98
eding
▁bloc
▁crying
▁retail
▁belongs
▁herself
▁answered
▁clinical
▁sciences
▁intention
28
lu
▁Two
▁ranks
▁Someone
▁metrolog
▁terminal
▁inflation
▁viscosity
▁horizontal
▁Turkmenistan
OL
▁Ste
ureau
▁King
▁Mukh
▁calls
▁missed
▁origin
▁anthrop
▁circles
▁willing
▁repaired
▁supplied
▁collective
▁experienced
.6%
▁""
oned
rect
view
▁Vol
▁vit
inced
atever
making
▁About
▁acids
▁piano
▁batter
▁excess
▁inters
▁polling
▁correctly
xic
cles
rich
teen
▁bio
▁Sary
▁ring
▁funny
▁towns
▁Israel
▁Korean
▁voiced
▁raising
▁approval
▁printing
▁appreciate
▁personality
HE
equ
▁Inf
ellow
ometer
▁Abdyk
▁trains
▁asphalt
▁details
▁highway
▁accompan
▁affected
▁systemic
▁excellent
▁satellite
▁greenhouse
▁unemployment
rd
ENT
ras
rew
▁49
aker
etary
▁gift
▁crazy
▁eaten
▁empty
▁pulse
▁submit
▁kitchen
▁politic
▁resolve
ultaneous
▁Akhmetov
▁behavior
▁discipline
.2%
tech
▁Val
▁nar
▁suc
▁2025
▁duties
▁headqu
▁cooling
▁employee
▁nonlinear
▁particles
▁attractive
ugh
▁ju
isher
▁boss
▁apple
▁sport
▁career
▁diesel
odynamic
iferation
▁celebrate
▁intensify
▁ourselves
▁somewhere
▁instrument
▁comfortable
▁constructive
ume
bons
▁haz
point
▁oppos
▁bacter
▁convention
▁impurities
fa
▁99
rous
▁Bas
▁Cour
▁GOST
▁grid
ometry
ulsory
▁fifth
▁modes
▁numer
▁upset
▁Vietnam
▁Training
▁suitable
▁definitely
▁multilateral
bay
ysh
▁Es
▁IR
▁Im
opol
▁Bul
▁amaz
▁corps
▁sounds
▁duration
▁financed
▁northern
▁vacation
gar
olf
hous
onal
onym
▁10,
▁fir
ongol
▁High
▁Meas
orders
▁moist
igation
▁Should
▁steppe
▁contest
▁methane
▁strateg
▁articles
▁expenses
▁monument
▁standing
▁newspaper
▁secretary
▁Pedagogical
▁Semipalatinsk
tt
iel
▁10%
▁aqu
board
▁Park
▁fault
▁intends
▁intermed
▁memoranda
▁sensitive
ser
▁AN
▁Dr
▁2030
▁orph
▁birds
▁newly
▁Malays
▁lawyer
▁paying
▁waters
▁capable
▁composite
▁mentioned
▁officials
▁portfolio
lin
▁58
▁6,
conn
even
▁(10
▁Spain
▁arena
▁blame
▁Atyrau
▁cancer
▁fruits
▁jointly
▁plenary
▁anywhere
▁applying
▁scholars
▁cooperate
▁guarantees
▁championship
lar
flow
▁wal
iance
itors
▁node
▁Stand
reement
▁Brazil
▁Compet
▁circle
▁contrad
▁refused
▁accurate
▁policies
▁telecomm
▁specialty
▁stimulate
▁investigation
▁Administration
..
ster
▁Its
aling
▁calm
▁shirt
▁Sunday
▁gained
▁manner
▁visits
requency
▁festive
▁protein
▁affecting
▁container
▁recording
▁commissions
▁involvement
▁accumulation
1]
DS
los
▁PC
.6%,
▁cubic
▁links
▁wages
▁commod
▁curric
▁lifest
▁multid
▁permit
▁Natural
▁reverse
▁Chemical
▁accounts
▁vertical
▁convinced
▁wonderful
▁regardless
▁conductivity
▁intelligence
▁participated
▁interregional
ilib
▁Alt
▁Incre
▁acting
▁offers
▁smooth
▁Iranian
▁suspect
imination
▁2017-201
▁surfaces
▁professor
▁understood
▁digitalization
!"
izz
▁52
otic
▁Stre
▁slop
▁prime
ilibrium
industry
▁gasoline
▁talented
▁additions
▁geography
▁temporary
▁regulations
▁simultaneous
.4%
:00
ipp
▁1,0
▁Any
▁fle
▁mic
▁Form
▁relax
▁smoke
manship
▁Spanish
▁banking
▁western
▁sleeping
▁emergence
▁contributed
▁measurements
enge
▁Ken
▁sle
gebra
inery
▁ride
▁minim
▁accred
▁servic
▁waited
▁Hungary
▁Univers
▁freight
▁illegal
▁Consider
▁headquarters
99
roid
rome
▁sky
lysis
▁bric
▁mood
▁shut
▁till
▁stuff
▁Museum
▁advert
▁approx
▁sudden
▁succeed
▁shortage
▁terrible
▁analyzing
▁extensive
▁tolerance
▁spacecraft
▁accumulated
▁dynamically
▁hydrocarbons
▁characterizing
eal
haps
▁Were
▁dogs
▁flag
▁pages
▁biogas
▁plasma
▁unlike
▁monthly
▁remained
▁sequence
▁Production
▁compulsory
▁connecting
▁physicochemical
ulum
▁Opt
ickel
▁Lind
▁gate
income
▁Impro
▁medals
▁glasses
ava
ita
▁66
ears
▁Leg
▁Zhe
▁kha
▁lif
▁unp
▁100%
▁Stat
father
▁alkal
▁kissed
▁leaves
▁limits
▁player
▁senior
▁vision
▁melting
▁detailed
▁modernize
▁certificates
kin
▁550
▁WTO
etric
trans
▁sort
▁hurry
essimov
▁dispos
▁interd
▁advised
▁confirm
▁attitude
▁microorgan
▁informatization
1)
8.
aug
aken
arin
ucle
▁cav
ductor
▁Given
vention
▁rental
▁bitumen
▁filling
▁fishing
▁parking
▁imported
▁occupies
▁listening
▁monuments
▁suggested
▁vegetable
▁violation
▁partnerships
dress
fully
luded
▁Step
▁knife
▁worse
▁formal
▁contamin
▁combating
▁ecosystem
▁initiated
▁creativity
▁percentage
roliferation
▁Representatives
imb
burg
ikon
ught
▁180
▁sam
essor
oring
▁2000
▁emot
▁moral
patient
▁heated
▁exceeds
▁missing
▁sincere
▁variety
ependence
▁exported
▁surprise
▁protected
▁guaranteed
200
▁[3
▁pH
urgy
▁emp
merce
▁Linda
certain
▁complic
▁Baiterek
▁homogeneous
▁supervision
▁conservation
▁consultations
omb
▁78
part
roph
▁Air
hered
▁Abay
▁wash
eeping
▁aware
▁veloc
▁bother
▁2015-201
▁governor
▁managers
▁straight
▁demonstrate
▁differences
▁equilibrium
▁installations
kol
▁63
omot
green
▁grav
▁2020.
▁alive
▁fresh
▁morph
▁salts
▁greater
▁satisfied
ama
ora
▁Bay
▁mid
▁pure
▁Therm
▁marry
▁waves
▁Mongol
▁critic
▁screen
▁symbols
▁commodity
▁lifestyle
▁positively
SR
▁64
▁era
ariat
▁wage
elling
▁adsor
▁cardi
▁ought
▁scope
▁silic
▁hardly
▁arising
▁exhaust
▁reality
▁singing
▁Computer
▁optimize
▁electoral
▁specially
▁publication
▁relationships
27
sek
▁vul
acing
▁arms
▁beat
▁brain
▁uncle
▁attrib
▁yellow
▁Nothing
▁amounts
▁calling
▁revenue
▁choosing
▁exercise
▁indicate
▁concerned
▁ministers
▁Abdykalikova
▁particularly
▁anthropogenic
audi
▁Emb
▁las
▁tim
ifier
ancial
▁facts
ologist
▁alloys
▁asking
▁drinks
national
▁missions
▁marketing
▁recreation
proliferation
▁chairmanship
IV
cue
▁(8
▁68
oken
▁20%
▁Dis
▁[10
ikonur
▁Design
▁injured
▁Yessimov
▁estimate
▁interact
▁Saparbayev
▁patriotism
rz
kov
urt
▁05
▁7,
▁73
▁85
.3%,
stic
▁(20
▁Min
▁cab
▁glo
agers
urred
▁Zhan
▁rose
▁Green
▁stars
▁Future
▁Taking
▁messages
▁Kokshetau
▁connections
▁Construction
▁distinguished
▁(0
brid
▁Iss
▁fol
▁fro
▁wet
apers
▁dual
▁frag
▁lies
▁2018.
▁items
▁tight
▁basket
▁planet
▁graphic
ilization
▁believes
▁lighting
▁Agreement
▁intermediate
):
19
AZ
cm
.7%
tra
bage
▁bra
▁sac
andom
▁elev
▁mail
kazyna
▁arise
▁fired
▁sulph
▁desert
▁island
armament
perature
▁Learning
▁arrested
▁receives
▁generated
▁nomination
▁peculiarities
ID
...
att
hab
ghai
▁wed
class
lines
uleim
▁Next
▁boys
▁Armed
▁Human
▁pasta
▁songs
▁walls
▁sodium
▁algebra
▁planted
▁conflict
▁eurasian
▁visiting
▁estimates
▁Industrial
▁researchers
ME
.2%,
aped
wide
▁Use
stand
▁mill
▁nine
ateful
ishing
▁buses
▁ended
▁track
▁overha
▁replen
▁Kazakhs
▁overall
▁setting
▁instruct
▁sectoral
▁spending
▁hospitals
▁reactions
▁discovered
▁continuation
▁demonstrated
▁microorganisms
do
idu
.1%,
.4%,
.8%,
emen
▁130
▁198
▁Bek
▁Dec
▁Hel
owing
store
▁scan
▁surg
▁match
▁Polish
▁covers
▁estate
▁harmon
akhmetov
▁Article
▁earthqu
▁license
▁praised
▁bringing
▁hardware
▁investor
▁boundaries
Ex
tar
▁72
aeva
inem
rakh
heast
▁filt
▁guid
▁tend
▁wond
istrib
urasia
▁Those
▁aband
▁delay
▁distur
▁faster
▁refers
▁wastes
▁academy
▁courage
▁veteran
▁briefing
▁modified
▁Alexander
▁Professor
▁happiness
▁metallurgy
sm
▁59
▁20,
▁dig
▁wit
idden
▁width
duction
entiary
▁client
▁closer
▁regret
▁Finland
▁Tourism
▁spectra
▁staying
▁outlined
etherlands
▁groundwater
▁(9
▁nm
akup
from
▁hyp
▁nor
▁unh
▁Open
▁bike
▁seat
arians
▁Georg
▁Women
▁codes
▁enemy
▁consent
▁ranking
▁turbine
▁humanity
romagnetic
▁microdist
▁preventive
tem
uum
iter
▁Tur
▁[8]
▁und
cules
thnic
▁hadn
▁ores
▁slud
olitan
utants
▁paint
atorium
▁Nation
▁vulner
▁conclus
▁walking
▁baseball
▁restrictions
▁computational
box
ips
▁cla
▁sed
▁hide
ambetov
▁Engine
▁Khanate
▁elastic
▁permits
▁propose
▁wedding
▁compiled
▁moisture
▁translate
▁membership
▁Mathematical
asi
▁Ir
okes
▁THE
▁10-1
▁Wind
itable
▁chick
▁differ
▁facing
ffective
▁Baikonur
▁multiple
▁potatoes
▁velocity
▁Something
▁uncertain
▁conclusions
▁microcredit
CO
-19
▁74
▁95
.7%,
nish
crisis
ctures
▁Games
▁crypt
▁irrad
▁button
▁invite
▁seeing
▁tables
▁clinics
▁feedback
▁specifics
▁discussing
▁insulation
▁permission
▁preserving
eba
que
ste
▁67
appy
atar
olar
Kazakh
▁medal
ecurity
▁bottom
▁narrow
▁voting
electric
▁rapidly
▁spectral
▁applicants
▁accordingly
▁diversification
▁cru
▁unf
igmat
▁roof
▁Civil
▁Serge
▁basin
▁lingu
▁nucle
▁opera
▁yours
▁rescue
speaking
▁biology
▁Compared
▁allocate
▁covering
▁thematic
▁centuries
▁furniture
-200
aksy
atal
soft
▁via
ached
▁Integ
▁Never
▁encry
▁logic
▁teeth
▁touched
▁carriers
▁clusters
▁updating
▁amplitude
▁signature
▁circulation
▁instability
MP
.1%
.8%
oil
▁Yer
▁fib
itzer
ussia
▁axis
ewater
▁magaz
▁Issues
▁cybers
▁summar
building
▁membran
▁washing
▁transmit
▁addressed
▁integrity
▁reflection
▁territories
▁metrological
artz
ipot
mium
▁Tas
eless
▁Year
▁seed
▁wise
▁Court
▁Study
▁circum
poration
sekeshev
▁degrees
▁enjoyed
▁contacts
▁crystall
▁extended
▁patterns
▁disarmament
▁hydrocarbon
▁transported
-0
3)
kh
ala
asc
▁01
.5%,
inov
racy
▁[9]
▁pup
aming
ithuan
saving
▁drawn
▁gifts
▁guard
▁seeds
rainian
▁Street
▁appeal
▁radius
▁autonom
▁burning
▁dischar
▁impress
▁partial
▁windows
▁holidays
▁recalled
▁generations
cyc
nik
▁EC
aren
lots
onel
▁bes
orses
▁Test
▁copy
▁adopt
▁penet
ception
▁grades
ractions
▁failure
igmatulin
itzerland
▁disposal
▁grateful
▁monetary
▁realization
oo
with
▁140
Table
▁quar
itives
kazgan
▁Before
▁assist
▁enrich
▁finger
▁invent
▁losses
▁random
Business
▁Company
▁Embassy
▁defects
▁councils
▁eurozone
▁wondered
▁boyfriend
▁revolution
▁grandfather
▁problematic
UR
▁Aks
▁Class
▁mouth
▁stick
▁cheese
▁Justice
▁amazing
▁charity
▁Netherlands
▁compression
▁manufactured
▁verification
Si
.9%
▁Kn
gage
▁194
issov
▁Mark
▁Vict
▁diet
▁taxi
▁cream
▁stole
▁turns
▁hazard
▁cooking
▁football
▁generator
▁graduated
▁requirement
▁scholarship
35
▁76
▁akt
▁mir
▁sex
▁simp
atoeba
riched
▁subsc
▁ensured
▁modules
▁ordered
▁removal
▁Shanghai
▁occurred
▁purification
AB
uh
▁51
▁El
ctive
riage
stock
▁guil
aching
▁persu
▁storm
zkazgan
▁apples
▁artist
▁cylind
▁termin
▁Capital
▁chaired
fficiency
▁ordinary
▁thoughts
▁evaluated
▁mastering
▁molecular
▁platforms
▁interstate
▁reflecting
asy
▁Est
▁Keep
▁lied
▁dissem
▁harder
▁workpl
▁declared
▁lectures
▁classical
▁economies
ipotentiary
▁regulating
▁interethnic
▁concentrations
//
AP
▁uk
case
irty
▁11,
▁350
▁fate
▁king
▁luck
▁sown
itions
▁White
▁china
▁excav
▁landf
▁meant
▁skill
▁failed
▁rubber
▁update
▁attacks
▁calcium
▁hearing
▁nominal
▁raining
unctional
▁semantic
▁combining
▁familiarize
arr
zen
agan
mbek
ulas
▁Good
lation
▁2019,
▁score
▁taste
▁Suleim
▁basics
▁bottle
▁expend
▁movies
▁equival
▁Atameken
▁whatever
▁destroyed
▁pollutants
▁elimination
▁generalized
▁disappointed
▁attractiveness
unt
▁py
▁mal
▁hole
▁Saudi
▁piece
▁unite
anguage
jection
▁church
▁slowly
▁roadmap
▁sulfide
▁involves
▁Hungarian
▁relatively
▁explanation
73
▁RK
▁Mil
scopy
speed
▁Hous
▁Port
▁bird
▁dism
▁hopes
taining
▁nickel
▁phases
▁sludge
▁comments
▁convince
▁followed
▁attraction
▁separation
iro
▁AC
▁Av
mail
▁Isn
▁adm
▁tot
▁asym
▁evap
▁Taraz
▁joined
▁option
▁voters
▁deliver
▁witness
▁Children
▁Mongolia
▁Particip
▁advisory
▁opinions
▁delegates
▁ownership
▁Belarusian
▁conceptual
▁wastewater
kt
ikh
▁1.
ayer
lice
orge
▁Gul
▁maps
▁poet
▁tank
▁deriv
▁title
imbayev
▁relief
▁typical
▁vehicle
▁Students
▁believed
▁breeding
▁fulfilled
▁neighbors
▁vibration
▁inequality
▁accelerated
▁contributions
De
▁q
min
oto
▁83
.9%,
olat
olen
cript
▁Diff
▁plot
▁semi
▁turk
-2017"
▁exped
▁slept
▁diamond
technical
▁develops
▁replaced
Nazarbayev
▁exhibitions
75
AD
wh
aks
iot
▁Max
▁hyg
-2015
rence
▁Java
▁shel
▁judge
▁easier
▁volunt
controll
▁Holding
▁customers
▁obstacles
▁Corporation
▁businessmen
▁Ur
▁Tim
▁Try
▁inn
scope
▁lots
▁west
▁wool
houses
▁Extra
▁chess
▁analys
▁parade
▁shares
chronous
▁Tatoeba
▁borders
▁loading
▁majilis
▁unknown
inational
▁brothers
▁division
▁slightly
▁additives
▁curriculum
▁comparative
▁conditional
▁participant
▁secretariat
▁economically
6.
olis
▁70%
▁Acc
▁enh
ogram
▁Didn
ethnic
▁Jacks
▁Three
▁defic
▁deter
▁panel
▁stood
--------
cultural
velength
▁detected
▁somebody
▁classroom
▁induction
▁cooperatives
▁macroeconomic
29
nex
itud
▁Hey
asure
baeva
manov
oured
▁2005
▁Pers
▁agent
▁frame
▁hyper
▁lists
▁meter
▁yield
▁handle
▁mental
▁picked
▁singer
▁Digital
▁combine
▁compact
▁excited
▁restore
▁apologize
▁evolution
▁disadvantages
▁nationalities
sen
ogle
▁Sor
▁Stru
bekova
uction
▁Putin
▁cinem
▁recip
▁fairly
▁spoken
▁transf
▁adapted
▁genetic
▁monopol
▁theorem
political
▁greatest
▁opposite
▁overcome
▁biometric
▁absolutely
▁preventing
▁separately
▁stabilization
kg
ESC
▁Dem
▁Kal
▁pig
▁Netw
▁reag
▁smel
▁vacc
rosion
▁Relig
▁ferro
▁laser
▁plate
▁quasi
comings
itivity
stances
learning
▁arrival
▁eternal
▁joining
▁periods
▁impressed
▁developers
▁Universiade
▁Commissioner
▁contamination
oe
esh
lete
obic
▁Equ
inder
▁Land
▁withd
▁Mother
▁hoping
▁horses
▁multif
▁precip
▁sleepy
▁treaty
dykorgan
▁commander
▁outpatient
▁Application
▁Switzerland
▁advertising
▁cybersecurity
EL
ML
mag
▁Ang
▁scen
▁Altai
▁Enter
▁Found
keeping
▁winner
▁compare
▁maslikhat
▁molecules
▁earthquake
▁shortcomings
iad
▁8,
.5%.
ager
uxil
ynom
ously
▁dear
▁rise
erator
rating
▁parks
▁refer
▁toxic
▁truck
riction
▁buying
▁disput
▁flower
uxiliary
▁undergo
▁Sultanov
▁feelings
▁interloc
▁quantity
▁committed
▁legalized
▁classified
▁officially
▁protective
-30
▁Ca
▁KZ
tier
istor
ushing
▁usual
isition
ounding
umbayev
▁Eurasia
▁crystal
▁flexible
▁celebrated
▁navigation
▁strategies
▁multinational
mic
▁()
▁Bi
orsk
▁aid
▁cow
acent
gradu
▁crew
▁flux
ysical
▁coast
▁wheel
atories
ynomial
▁Common
▁convey
▁cotton
▁passes
▁receip
▁Lithuan
▁appeals
▁largely
▁bacteria
▁majority
▁mastered
▁sulfuric
▁titanium
▁Conference
▁correction
▁simplified
aig
lom
ris
▁Si
alkh
aure
enko
▁Hyd
▁gym
romet
▁2008
▁Myrz
▁Time
ourier
▁2020"
▁Party
▁audio
▁delic
▁Serbia
▁blocks
▁philos
▁stolen
▁wholes
▁Nations
▁Product
▁crossing
▁supplies
▁deviation
▁continuity
▁wavelength
▁Calculation
▁accompanied
emb
▁62
expo
▁0,9
▁ICT
▁gat
▁bare
▁bear
ounded
▁Count
▁liber
▁posts
▁trial
▁absent
▁essence
▁victims
frequency
▁climatic
▁confused
▁formulas
▁refining
▁dispersion
▁replacement
▁transparent
▁contaminated
▁simultaneously
hol
Turk
ophy
oung
▁110
▁que
▁shy
▁acou
▁aged
▁gram
▁pock
wealth
▁House
▁Treat
▁ancest
▁europe
▁lights
▁Perhaps
▁Studies
▁decline
▁smaller
▁everyday
▁exposure
▁simplify
otechnology
▁securities
▁Engineering
PS
aya
▁CH
▁[4
ESCO
izer
lace
▁owe
▁tie
atomp
chest
▁Life
▁[10]
▁[12]
▁feet
▁mini
▁rect
▁brown
▁cards
▁honey
▁pipes
akistan
ishment
owledge
▁defend
▁labour
▁magnet
▁worthy
▁dressed
▁records
▁isolated
▁operates
▁passport
▁generally
▁delegations
▁Modernization
Sh
uzz
▁69
▁87
uble
olved
under
▁City
▁laug
stairs
▁divor
▁drank
alkhash
▁scales
▁vacuum
atomprom
cription
▁attempt
▁laughed
▁sending
▁gathered
▁observer
▁auxiliary
▁candidate
▁entertain
▁programmes
▁journalists
ails
irov
▁170
▁lad
▁Exec
▁Swed
▁clock
▁films
▁juice
▁uncon
▁Africa
▁awards
▁pulled
▁sowing
▁Theater
▁garbage
▁Election
▁restored
▁expecting
▁successes
▁democratic
▁proportion
▁forecasting
▁electromagnetic
▁standardization
65
85
ali
Expo
▁eld
▁joy
ocked
▁fert
rissov
ulator
▁2011,
▁emuls
▁incor
▁innoc
▁sheep
▁shift
▁theat
raining
▁mixing
▁photos
▁Support
▁dropped
▁acquired
▁allowing
▁overhaul
▁economics
▁expertise
▁highlight
▁regularly
▁seriously
▁Employment
▁Scientific
▁flexibility
▁concentrated
▁recreational
▁77
psum
▁Dzh
▁tun
▁insu
▁legs
▁vess
▁analog
▁stated
▁Project
▁diversity
▁mountains
▁filtration
▁functionality
▁microdistrict
▁MS
What
kind
pass
▁Jud
▁Sub
comes
▁eats
▁surr
agraph
mother
▁ammon
▁files
▁throw
▁tough
▁UNESCO
▁remind
▁washed
▁Concept
▁Diagram
▁discusses
▁centralized
▁peacekeeping
UT
off
rip
▁9,
▁14,
▁Kur
▁Rad
▁hun
riots
ubric
▁Frid
▁Lead
▁ends
▁lend
▁wake
▁hates
▁Region
▁comply
▁guilty
▁peasant
▁surgery
unication
▁displace
▁childhood
▁metropolis
▁occupational
▁Extraordinary
▁comprehensively
▁;
best
ilic
▁Gas
▁KZT
▁ing
etics
inity
onent
▁Prov
▁cats
urated
▁doors
areness
▁cheaper
▁chicken
▁synthes
▁wholesale
onstruction
▁accelerate
▁concentrate
▁automatically
PI
Zh
cur
nty
▁86
▁93
▁Ec
olden
▁folk
▁Syria
▁ceram
▁drove
▁fluct
▁guest
▁notes
▁hybrid
▁resort
▁Georgia
▁Housing
▁repairs
▁proposes
▁Depending
▁Including
▁conflicts
▁pavilions
▁Innovative
▁complaints
▁vulnerable
DP
HO
ao
ana
apt
ntil
zing
▁104
▁AND
▁Nor
▁Var
ograp
▁chose
▁style
▁sweet
▁shells
▁Address
▁Jackson
▁locomot
▁welcome
▁Issekeshev
▁contradict
▁laboratories
▁Determination
Cl
Th
hko
down
▁60%
▁Hon
▁Kul
henko
irtau
▁Jane
▁biom
lusive
ogorsk
storey
▁faced
▁fract
▁loads
▁smile
▁Global
▁archae
▁escape
▁graphs
▁quartz
▁russia
▁starts
▁amending
▁fighting
▁mobility
▁Implement
▁continent
▁residence
▁harvesting
▁polynomial
▁proceedings
▁84
▁96
rary
utch
▁12,
▁80%
ignty
▁Conc
▁Well
▁root
▁unre
▁tells
▁Samruk
▁bureau
▁condens
▁clothing
▁geometry
▁graduate
▁forgotten
▁transmitted
ga
sat
▁5%
uten
word
▁(3)
▁197
▁Vis
▁Plen
▁jail
▁loop
nament
▁Budget
▁Middle
▁firing
▁pupils
▁Finnish
▁Victory
▁publish
▁radical
▁Physical
▁admitted
▁cellular
▁chloride
▁Microsoft
▁Sometimes
▁irrigated
▁regulated
▁terrorist
▁transfers
▁servicemen
▁uncertainty
AM
di
▁kW
lose
▁bey
▁mol
▁fort
itutes
▁inert
▁surve
▁capita
▁panels
▁summed
▁approve
▁painted
▁supreme
▁conclude
▁didactic
▁candidacy
▁containers
▁deviations
▁microscope
▁veterinary
▁acquisition
▁oscillations
azy
.6%.
adow
odal
onge
wise
▁30,
aliev
▁Mult
▁Group
▁Until
▁owner
ferrous
▁Alatau
▁attach
▁column
▁fibers
▁hiding
chanical
employed
▁African
▁mankind
▁traject
▁visible
▁Standard
▁executed
▁honorary
▁facilitate
▁transformations
tes
ued
rets
says
▁Big
▁cra
eries
iques
▁fear
arrass
▁ambul
▁drain
▁feels
▁keeps
▁nanop
▁texts
essions
imately
inafter
▁incent
▁murder
▁wallet
ilingual
▁modular
▁passage
▁Pakistan
▁disputes
▁Ukrainian
▁embarrass
▁forecasts
▁affordable
▁sovereignty
▁metropolitan
▁Plenipotentiary
26
EO
.2%.
auty
rite
▁15,
▁Loc
▁Sal
ridge
▁Arch
▁Spec
▁bond
▁edge
▁geop
apping
iating
market
▁While
▁maxim
▁manual
▁poured
▁carries
▁january
▁mothers
▁neutron
▁pumping
▁receipt
▁Malaysia
▁chromium
▁packages
▁regulate
▁Akhmetzhan
▁activation
▁complicated
39
▁Us
▁ml
arya
▁195
adays
avlov
kulov
▁Doss
▁Silk
abetes
▁brick
▁lamps
▁sandw
theless
▁barrel
▁lubric
▁stores
▁wishes
▁assumed
▁musical
▁friction
▁grinding
▁segments
▁placement
▁technique
istribution
▁consistent
▁developments
▁Unfortunately
IP
gg
ios
ccer
cean
▁160
▁40%
▁Pop
▁vir
allow
asion
▁Math
▁wild
ealous
▁2010,
▁Youth
▁falls
▁proof
▁threw
▁Custom
▁beyond
▁rector
▁Further
▁applies
▁budgets
▁adjacent
▁discrete
▁listened
▁databases
▁machinery
▁autonomous
▁equivalent
▁conferences
▁governments
▁sensitivity
▁circumstances
▁entertainment
▁94
▁Du
ague
anto
reds
▁Fam
▁SME
adium
ronze
▁Anti
▁purs
odetic
ulates
▁faith
▁Friday
▁Google
▁butter
▁deepen
▁resign
▁static
▁Systems
▁leasing
▁segment
▁turning
▁employer
▁pensions
▁collecting
▁additionally
▁coordinating
SP
▁Bal
amins
ector
print
▁beam
metric
▁Greek
▁minor
▁sheet
▁sight
▁Sergey
▁Zhumag
▁brings
▁burden
▁ethics
▁mirror
ethylene
▁masters
▁Recently
▁drawings
▁villagers
▁Republican
▁formations
▁translated
34
dep
ota
▁Bl
▁ep
ovol
ulse
▁15%
▁Ash
▁fem
▁ped
umber
▁burn
▁capt
▁dram
▁neck
▁swit
▁wing
abayev
▁domain
▁remove
▁Medical
▁Network
▁arrange
▁reinfor
▁awareness
▁preserved
▁Convention
▁basketball
▁Participants
▁displacement
▁insufficient
▁intersection
UL
rog
▁4)
otal
tees
▁3.5
assym
chlor
▁nano
iology
ospace
requis
stable
▁Order
▁Power
▁marks
chestra
▁drying
▁prohib
▁improves
▁requests
▁shooting
▁Yesterday
▁belonging
▁selecting
hereinafter
▁acceptance
▁implements
▁communicate
▁diagnostics
▁identifying
▁professions
▁satisfaction
▁accessibility
omy
cial
hent
serv
▁MPa
▁Mem
▁Tog
▁asia
▁boat
▁cute
▁firm
▁pizz
▁trib
rupted
▁adequ
▁alarm
▁shock
working
▁Muslim
▁agglom
▁extent
▁hotels
▁larger
▁prizes
▁Austria
▁jealous
▁tension
▁Massimov
▁Sciences
▁offenses
▁Financial
▁Ministers
▁ancestors
▁existence
▁requiring
▁warehouse
▁confection
▁optimizing
▁reasonable
▁vegetation
▁publications
▁qualitatively
▁representation
IL
Kaz
▁Na
ench
▁125
▁Att
▁MPC
▁por
endar
▁Supp
▁hang
▁joke
▁spot
ancies
▁Esper
▁admit
▁cable
▁fluor
▁plots
▁config
▁Kingdom
▁Society
▁imagine
▁startup
aksybekov
▁Planning
▁artistic
▁defining
▁diplomas
▁nanopart
▁ventures
▁Executive
▁designing
▁utilities
▁presidents
▁stimulating
▁neighborhood
IM
da
▁88
▁Fr
▁Oh
▁[5
exic
onia
▁FOR
▁spl
▁Akim
▁Lake
▁carp
▁golf
global
▁Autom
▁Optim
▁dirty
▁habit
▁matte
▁Compar
▁Father
▁infant
▁nobody
▁palace
essional
▁Although
▁acoustic
▁laughing
▁suddenly
▁Resources
▁ambulance
▁enrichment
▁reservoirs
▁compatriots
▁kazakhstani
2%
▁61
▁ID
▁MO
▁dy
▁pp
inet
▁fal
eting
order
orgos
hentic
licity
▁Graph
▁bonds
▁bored
▁pairs
▁Arabia
▁Things
▁asympt
▁issuing
▁observe
uneration
▁customer
▁occupied
▁suggests
▁diagnosis
▁prerequis
▁internship
mod
mun
son
prof
▁25%
▁90%
▁Rem
▁Sar
▁mud
▁oct
▁sin
atter
isive
lying
▁0,55
▁2007
▁Latv
▁euros
▁sizes
▁deserv
▁filler
▁serves
▁spaces
▁stream
▁tender
zumbayev
▁gardens
▁matters
▁sorption
▁triangle
▁discharge
▁preferential
▁systematically
▁Cu
▁IP
▁UK
bank
bing
lass
ulty
▁29,
▁bow
arest
▁List
▁exit
▁sail
semble
▁Basic
▁seism
▁yeast
▁Consid
▁orphan
▁prosec
▁worker
▁angular
▁grounds
▁officer
▁marriage
▁background
▁indicating
▁compositions
▁extraordinary
2.
ker
▁ED
▁106
▁196
▁USA
ovich
oxide
▁Char
▁Ural
▁jack
ganese
▁Satur
▁atoms
ynamics
▁Report
▁assume
▁dating
▁deeply
issenova
▁aqueous
▁museums
▁summing
▁totally
▁diabetes
▁stronger
▁unlikely
▁corrosion
▁repeatedly
▁transnational
36
lon
▁od
king
▁ble
▁hug
faith
▁corn
▁loud
▁moon
▁whom
akupov
iaries
▁Space
▁dated
▁decor
▁inhab
▁motiv
Russian
▁curves
▁gotten
▁locked
▁soccer
▁battery
▁spectro
▁checking
▁coatings
▁smelting
▁Esperanto
▁contained
▁coordinated
▁outstanding
▁remuneration
▁Infrastructure
AK
Ata
aza
whe
.3%.
ders
erts
plex
▁CEC
▁Pre
▁Satp
▁evac
▁rear
icious
icking
▁guide
▁astron
▁samruk
▁turbul
▁Fourier
▁Physics
▁besides
▁entrust
▁forgive
▁cultures
▁geodetic
▁magazine
▁oriented
▁residues
▁substant
▁inclusion
▁committees
▁continuing
▁evaluating
▁discussions
▁Independence
▁supplemented
▁petrochemical
▁Reconstruction
van
▁2.
▁AB
▁PRO
asury
erous
icked
usher
▁Show
▁ease
▁unus
▁annoy
▁arbit
▁helic
▁reads
▁subst
▁valid
▁Change
▁decade
▁depart
▁hidden
▁nearly
▁appears
▁cadmium
▁unhappy
▁balanced
▁sessions
▁vitamins
▁broadcast
▁essential
▁exception
▁occurrence
▁trajectory
▁correctness
RC
hor
lah
uts
educ
ammad
eness
inate
▁Mexic
▁bases
▁pride
avlovsk
▁Inform
▁Treaty
▁assemb
▁decent
▁fisher
▁Speaker
▁Thermal
▁helicop
▁neutral
▁senator
▁alkaline
▁educated
▁theories
▁civilization
▁compensation
▁79
card
uous
▁(4)
▁agr
▁mos
ienic
▁grap
▁jury
▁pipe
▁seek
asters
▁Tatar
▁email
▁stamp
related
▁Nurlan
▁chocol
▁pencil
ifically
▁Nuclear
▁borrowed
▁engineer
ropavlovsk
▁husbandry
▁monopolies
▁stationary
▁volunteers
▁controlling
78
ann
eva
rot
▁Ay
▁Ky
.4%.
agai
crib
iant
▁115
▁26,
▁LED
▁Mom
ained
ulous
▁cart
▁lone
assium
▁array
▁awake
▁moves
▁pizza
▁autumn
▁beauty
▁gather
▁sooner
▁Indones
▁engines
▁soldier
▁2014-201
▁Austrian
▁animation
▁elementary
▁expedition
▁influenced
▁retraining
▁undergradu
▁transferring
▁confectionery
▁Implementation
9.
III
ima
osh
ype
eren
post
▁105
▁Bar
▁Sur
▁geo
ields
▁blow
▁prem
▁rope
▁Rober
▁accel
formity
▁cinema
▁enters
▁pocket
▁sacred
▁varies
▁encoura
▁enriched
▁violence
▁converted
▁directors
▁Zhezkazgan
▁motivation
▁Taldykorgan
▁acceleration
▁dissemination
CD
uy
.1%.
▁2-3
▁25,
▁Den
▁Sch
eldom
ordan
pidem
▁0,48
▁Alma
▁tact
ambers
change
system
▁dried
▁pedag
▁strip
▁wears
entions
ographs
▁Winter
▁lonely
▁taller
▁crushed
▁contrary
▁decisive
▁disaster
▁performs
▁polymers
▁Relations
▁converter
▁explosion
▁graphical
▁Foundation
▁allocation
▁countering
▁landscapes
▁convenience
▁politicians
No
RA
edu
rla
conc
hene
▁31,
▁Exc
▁Way
▁hid
erest
verty
▁Aral
▁Stay
▁phyt
▁prox
▁teen
ieties
▁Ident
▁pregn
ierarch
▁checks
▁plates
▁seldom
▁skiing
▁warned
▁Android
▁Neither
▁deserve
▁suppose
▁Balkhash
▁injuries
▁residual
▁speakers
▁challenge
▁communities
▁observation
▁penetration
▁simplification
pa
▁CD
▁IV
ukas
▁van
imide
liers
▁0,49
▁Heat
▁Sign
▁Soft
▁Karim
▁blank
▁dense
▁vital
▁wrest
forming
iratory
pective
▁aktobe
▁gender
▁causing
▁residue
▁semicon
▁serving
▁venture
alization
▁chambers
▁reaching
▁sediment
▁senators
▁telegram
▁occurring
▁complement
▁eventually
▁reconstructed
32
5)
NA
bye
rav
▁89
aked
▁103
cycle
kelet
night
▁0,47
▁warn
itures
visory
▁Major
▁Timur
▁false
▁shower
▁farming
▁counting
▁hygienic
▁openness
▁unstable
▁assistant
▁dependent
▁fractions
▁libraries
▁Suleimenov
▁demographic
▁distinguish
▁geopolitical
▁nanoparticles
ji
bas
aste
▁sha
opoly
stage
▁math
▁spin
▁woke
▁blind
▁penal
▁traff
▁Legisl
▁bakery
▁battle
▁hydrog
▁occupy
▁rarely
▁rising
▁carrier
▁enhance
▁inverse
▁lifting
▁poverty
▁unusual
September
▁outcomes
▁properly
▁sorbents
▁wireless
▁movements
▁paragraph
▁accredited
▁encryption
▁everywhere
▁hydrolysis
▁reinforced
▁techniques
4)
74
HR
▁Fl
akol
▁Kab
▁Ter
▁cos
itate
▁Comb
▁Wait
▁buck
▁nose
▁rude
ensing
tained
▁1,500
▁Heads
▁spons
▁bigger
▁drives
▁forums
▁retire
▁strugg
ependent
formance
▁Windows
▁cookies
▁diploma
▁dismiss
▁granted
▁kinetic
▁sorbent
▁viscous
▁exhibits
▁Enterpris
▁emotional
▁expenditures
▁transactions
OG
SA
ba
no
tyn
▁Ly
▁Tr
.8%.
clin
▁NPP
▁cyc
▁Make
▁Indic
▁hypot
▁worst
Western
▁losing
▁charged
▁Idrissov
▁attached
▁champion
▁innocent
▁Bakytzhan
▁breathing
▁engineers
▁justified
temperature
▁Electronic
▁consulting
▁negatively
▁correlation
▁cylindrical
▁1.7
▁18,
▁egg
▁jew
-2014
ergen
esium
losis
rants
▁soup
▁dying
▁fluid
▁reput
▁vivid
Chinese
oskelet
▁Having
▁Rights
▁barely
▁flying
▁golden
▁metric
▁robots
▁gradual
▁indices
▁welding
▁winning
connected
▁hundreds
▁algebraic
▁authentic
▁delicious
▁voluntary
▁quantities
▁regression
▁sanatorium
▁trafficking
3/
rose
▁Ary
▁Typ
▁fab
agash
ailov
cking
plete
reced
riter
▁Euro
▁[11]
▁gent
▁nurs
▁vert
▁wore
▁2012.
▁arsen
▁faces
▁lakes
ustible
▁Indian
▁boring
▁bronze
▁dreams
▁epidem
▁strive
▁uneven
ographer
▁ceramic
▁liquids
▁permiss
▁Mukhamed
▁boarding
▁conducts
▁entrance
recedented
▁chocolate
▁injection
▁interpret
▁fulfilling
▁interfaith
▁linguistic
▁eliminating
EG
zz
och
vol
▁1%
▁SC
anes
oshy
▁Syr
▁[1-
bound
ecess
▁0,53
▁SMEs
▁disp
▁frat
▁lady
▁ment
▁sang
abolic
itored
ledged
▁Yesil
▁bench
▁disag
▁nanoc
essment
▁agents
▁breath
▁degrad
▁fright
▁assured
▁cleaned
▁decades
▁Solution
▁calendar
▁incoming
▁membrane
▁obviously
▁packaging
▁statehood
▁synthetic
▁Population
▁perception
▁subsidiary
▁tournament
▁fluctuations
1.
ulf
▁Br
arka
▁Har
▁III
▁cis
▁ecu
ifted
otive
▁aims
itious
▁Aktau
▁Opera
▁Other
▁heter
▁stops
thermal
▁Palace
▁Robert
▁blades
▁embank
▁laying
▁oxides
▁phones
▁severe
▁tunnel
ioration
ithmetic
othermal
▁drivers
▁gaining
▁agrarian
▁suitcase
▁carbonate
▁diplomacy
▁entrusted
▁protocols
▁sincerely
▁suppliers
▁adsorption
▁personally
▁modification
38
icts
▁dad
iates
rying
▁Prep
▁Rail
▁grad
▁pale
▁soul
▁thor
acters
▁Sever
▁conve
▁roots
ersburg
iration
▁fellow
▁female
▁therap
▁desired
▁quantum
▁showing
▁Saturday
▁electroly
▁monitored
▁organisms
information
▁accessible
▁expectations
▁authoritative
▁archaeological
PC
TS
bi
aka
iat
apes
city
ercu
▁450
▁Dal
▁abd
▁onc
▁rod
ijing
inant
▁2021
▁anom
▁khan
▁meal
▁scar
▁Sorry
▁cried
▁ideal
▁kinds
ocation
▁Kassym
▁centre
▁funded
▁ignore
▁infect
▁repeat
▁England
▁ceiling
▁encount
▁sulphur
▁strictly
▁taxation
▁discovery
▁incorrect
▁intervals
▁liability
▁resolving
▁difficulty
▁expectancy
▁grandmother
▁understands
▁physiological
OH
SM
eo
chy
▁("
▁82
▁gy
eted
rast
▁Nik
▁org
ioned
▁abst
▁meth
▁tent
▁Along
▁elder
▁fleet
▁orbit
organic
ricular
▁Jordan
▁Master
▁burned
▁gentle
▁massif
lamation
▁Customs
▁captain
▁exposed
▁founded
▁nations
▁thirdly
erculosis
▁Commerce
▁Language
▁holdings
▁nowadays
▁producer
▁sandwich
▁disasters
▁automotive
▁characters
▁interlocutors
▁visualization
VI
bai
oye
atov
zhar
▁13,
▁190
▁gel
▁yen
arity
ashed
▁0,46
▁Karl
▁carb
▁pron
▁tube
comput
flower
itants
scopic
▁flash
▁divide
▁phased
▁Federal
▁Romania
▁heights
▁renewal
▁revised
▁graphite
curricular
ynchronous
▁Improving
▁comparing
▁electrons
▁involving
▁orchestra
▁evaporation
▁investigate
▁preparatory
▁synthesized
▁characterizes
▁configuration
▁unprecedented
▁3%
▁Sk
eman
inct
▁1,4
▁Mur
▁pal
▁yes
▁zoo
inent
oding
relig
▁dent
istory
▁thres
itoring
▁Yerlan
▁adults
▁marked
▁bedroom
▁forever
▁players
▁collabor
▁crystals
▁discover
▁elevator
▁inclined
▁survived
▁versions
▁conductor
▁explosive
▁searching
▁describing
▁similarity
▁experiences
▁irradiation
▁constructing
3.
ucl
▁81
llip
▁Ili
▁som
dybek
elled
osion
▁0,51
▁Inde
▁Mold
▁cous
▁disk
▁Serik
▁chest
▁crowd
▁plain
▁queue
▁recyc
▁slope
▁weigh
ulatory
▁aspect
▁deploy
▁kaznex
▁thread
▁Colonel
▁cereals
▁differs
▁incomes
▁nearest
▁seconds
▁sisters
oshybayev
▁download
▁historic
▁polyclin
▁Knowledge
▁admission
▁catalysts
▁dimension
▁displayed
▁divisions
▁perceived
▁workshops
▁Petersburg
▁Processing
▁foreigners
▁lubricants
▁universiade
▁performances
▁Petropavlovsk
▁consolidation
▁deterioration
isk
▁92
bert
cule
host
ilev
▁16,
▁Ear
▁Exp
▁Mad
▁Mer
▁Vas
▁enz
olite
omach
▁0,43
▁0,52
elines
entsia
isfact
▁Bring
▁Dutch
▁Peace
▁Semey
▁asset
▁hired
▁outer
▁Object
▁arises
▁copies
▁steady
▁selling
including
▁internet
▁precious
▁collector
▁modernized
▁parametric
▁profitable
▁ventilation
▁intelligentsia
";
Cor
hus
▁71
eles
ryst
▁102
▁LLC
▁fur
phase
▁Init
icting
irates
▁enlar
▁grass
▁parad
▁stret
▁voted
▁dollar
▁strain
▁dancing
▁deficit
▁illness
▁mastery
▁Software
▁compress
▁guidance
▁pleasure
▁reactors
▁encourage
▁fertility
▁poisonous
▁suspended
▁Duissenova
▁conformity
▁statements
▁precipitation
ea
-40
tau
anim
arsh
inds
▁Bat
▁Lar
▁alt
▁hal
▁tet
▁Call
▁Sout
▁cosm
▁dish
▁hire
▁neur
▁tiss
Astana
illary
ovolta
▁anten
▁munic
▁shaft
▁slags
-2017."
Capital
eternal
▁Server
▁aggreg
▁colors
▁corner
▁interf
▁smiled
▁writer
▁Karatau
▁Several
▁closing
▁gravity
▁putting
isfactory
▁although
nazarbayev
▁Lithuania
▁manganese
▁Nigmatulin
▁institutes
▁fulfillment
95
ica
new
▁Ed
.7%.
.9%.
itew
▁000
▁1.6
▁ber
cence
dered
isted
▁bulk
▁exem
border
icular
inping
olymer
pected
public
▁blade
▁neuro
▁ocean
▁paths
▁tours
▁trips
finance
osphere
▁writes
finished
itudinal
ordinate
▁accused
▁auction
▁convert
▁doubled
▁stomach
▁warning
▁Together
▁hierarch
▁incident
▁pedagogy
▁Algorithm
▁fraternal
▁pretended
▁relatives
▁sovereign
▁Sagintayev
▁acceptable
▁arithmetic
▁nutritional
▁unfortunately
64
Em
He
PU
300
ano
azh
▁3.
▁kh
ropy
▁Kum
▁net
irect
oning
▁Belg
▁Food
▁Mach
▁Paul
▁lazy
acific
ipping
▁Total
▁cance
▁diasp
▁fifty
▁reply
▁serge
▁Baibek
▁denied
▁jacket
▁papers
▁refrig
▁Abdrakh
▁Eastern
▁comment
▁compete
▁embassy
▁falling
▁honored
▁stories
▁teaches
▁vectors
concluded
▁interpre
containing
ribusiness
▁inventory
▁southeast
▁oscillation
▁Commonwealth
▁continuously
▁globalization
▁SD
bits
ette
▁Ram
▁See
▁gap
itter
proof
▁Read
▁bags
▁lift
▁menu
▁vast
hesion
raphic
▁Maria
▁Nodal
▁hated
▁holes
capital
fledged
▁Bulgar
▁listed
▁Abishev
▁Through
▁intense
▁thereby
▁Indonesia
▁bakytzhan
▁mechanics
▁saturated
▁threshold
▁cultivation
▁practically
▁polyethylene
▁contradictions
gu
msk
ura
▁fan
▁rif
ensus
plant
▁Bill
▁kidn
▁lamb
▁pray
rative
▁Swiss
▁resin
▁Mobile
▁defect
▁engage
▁lasted
▁plenty
▁prompt
▁silent
▁stones
▁unions
attering
ovoltaic
▁biggest
▁charges
▁greatly
▁ignored
▁secrets
▁terrain
religious
▁landfill
▁midnight
▁thirteen
▁analogues
▁polyimide
▁Statistics
▁addressing
▁cooperative
▁permissible
▁progressive
▁Nevertheless
td
▁ba
Nrla
aint
▁21,
▁4.5
▁ADS
▁Cer
▁gal
affin
ibast
icide
imary
seeds
▁Requ
▁feas
▁runs
inking
jected
phosph
▁Colle
▁Solar
▁Urals
▁cyber
▁ellip
▁stuck
▁tears
▁weird
ditions
▁adoles
▁ballet
▁organs
ractical
▁Beijing
▁amended
▁fillers
▁seismic
▁concerns
▁railways
▁ratified
▁reviewed
▁switched
conference
▁abandoned
▁respected
▁sunflower
▁maintained
▁definitions
▁derivatives
▁transporting
")
Is
UN
eu
cal
ozo
▁Os
acry
aded
agad
diff
roat
▁230
▁Bor
▁Kap
enter
▁Phil
▁[13]
▁radi
ailand
▁nomad
▁scrat
imation
itewash
utenant
▁Proced
▁cadets
▁spends
▁videos
novation
▁cameras
▁argument
▁assessed
▁emerging
▁treasury
ernization
▁factories
▁potassium
▁vacancies
▁Considering
▁Integration
▁Traditional
▁supermarket
▁Myrzakhmetov
31
DM
SS
.00
ECT
kar
▁IE
atch
conf
iode
prec
ubai
umor
▁(5)
▁1.2
▁220
▁3-4
▁jun
amara
lings
▁None
▁aunt
▁orth
▁Alice
▁badly
▁crude
▁marat
▁owned
▁trace
▁Sweden
▁freely
▁jumped
▁College
▁focuses
▁rolling
▁trusted
▁canceled
▁numerous
▁occasion
▁oilseeds
▁overview
▁persuade
▁scanning
▁systemat
▁democracy
▁hazardous
▁poisoning
▁worldwide
▁capacities
▁politician
▁inefficient
▁intensifying
▁agglomeration
▁presentations
▁congratulations
Mod
avt
enn
she
sum
▁EM
▁aa
ptic
▁Jim
▁Rob
eared
ropic
▁Kyoto
▁bands
▁ships
▁spare
ectonic
ibastuz
stanbul
▁incomp
▁proven
▁sponge
ecessary
▁Maximum
▁adverse
▁formats
▁moments
▁airports
▁circuits
▁coincide
▁contrast
▁ensemble
▁punished
▁synchron
▁withdraw
▁fragments
▁municipal
▁wrestling
▁degradation
▁confirmation
▁tuberculosis
▁accreditation
▁Representative
▁extracurricular
bet
gaz
▁ON
▁PH
▁Set
▁Sit
▁lob
▁rig
grade
shara
▁0,56
▁vary
phones
▁craft
▁ghost
▁inhib
▁manip
▁pumps
▁refin
▁tanks
▁Excuse
▁Member
▁deform
▁desper
▁microb
▁sewage
commerce
izations
location
▁closure
▁distort
▁envelop
▁mapping
▁vessels
▁Olympiad
▁analyses
▁deserves
▁handsome
▁reagents
▁mediation
▁Regulation
▁comparable
▁federation
▁sequential
▁Educational
▁importantly
▁landscaping
▁spectroscopy
▁subsidiaries
▁traditionally
▁HT
▁Po
▁TB
agon
ault
born
erce
ouch
west
ymph
▁Mam
▁SiO
olded
opper
▁chap
ustain
▁Alger
▁Young
▁antim
▁coach
▁inner
▁jokes
▁tooth
nership
▁Norway
▁Syrian
▁fabric
▁liquef
▁proves
▁stands
▁Country
▁biomass
▁educate
▁federal
▁goodbye
▁neither
mentioned
▁2016-201
▁Amending
▁alliance
▁diagrams
▁exoskelet
▁nominated
▁numerical
▁policeman
▁formulated
▁reputation
▁convocation
▁inhabitants
▁reclamation
▁subsidizing
▁intensification
▁professionalism
IR
MA
OC
my
ald
def
isp
▁1:
▁Ev
▁[6
ener
oses
type
▁Bur
▁Cal
▁RES
▁anx
▁cig
▁phr
auryz
ommod
▁arts
▁oral
olving
▁2019.
▁Andre
▁Words
▁arose
▁postp
veloped
▁Analyz
▁lately
▁nearby
▁recall
▁sevent
▁chromat
▁dentist
▁rectang
▁satisfy
▁shocked
▁sweater
▁toponym
▁Bulgaria
▁Concrete
▁Istanbul
▁radically
▁traveling
▁varieties
▁Scientists
▁compressed
▁thermodynamic
58
98
TP
ORM
eor
lav
yun
▁PP
abek
alin
▁(6)
▁Ann
▁MAT
▁Pay
▁vap
ashev
ormal
raint
▁0,45
▁tong
August
athlon
weight
▁Lukas
▁Prize
▁polar
ashkent
istence
lective
▁2020,"
▁heroes
▁traine
business
▁Average
▁Washing
▁crossed
▁schemes
▁storing
▁uniting
▁Dossayev
▁Features
▁Thailand
▁automate
▁headache
▁outgoing
▁stopping
▁Structure
▁exhausted
▁separated
▁warehouses
▁electronics
▁highlighted
3%
ago
era
ida
las
▁DB
▁Py
odor
stig
urov
utic
▁Dar
▁EHR
▁Rev
▁gam
▁kul
▁unn
▁Face
▁lock
▁worn
umilev
▁immun
▁miles
ordable
rometer
▁Latvia
▁fought
▁secure
▁Various
▁anticip
▁erosion
▁lawyers
▁leather
▁airlines
▁traveled
Corruption
▁addresses
▁batteries
▁diplomats
▁prosperous
▁respiratory
▁proportional
▁understandable
33
4.
Hz
kel
oys
grow
ucas
▁202
▁Eth
▁Fil
▁Lab
▁Out
▁Saf
▁pit
▁ven
▁Bish
▁Poly
▁fash
▁lith
▁none
▁owns
Soviet
liness
ounder
▁2050,
▁enzym
▁jewel
▁pyram
▁reson
▁scene
▁templ
uhammad
▁Greece
▁adding
▁chains
▁latter
▁linked
▁nurlan
▁slopes
▁unanim
▁escaped
▁explore
▁prestig
▁printed
▁targets
▁Creation
▁awarding
▁drainage
▁granules
▁misunder
Employment
▁identical
▁volunteer
▁Assessment
▁Supplement
▁adjustment
▁governance
▁saturation
▁scattering
▁simplicity
▁suspicious
▁supervisory
▁unification
▁Abdrakhmanov
▁photovoltaic
68
BR
How
IES
bar
bre
yal
▁5)
agin
fall
ouds
uant
▁101
▁280
▁Dev
▁Nov
▁meg
depth
first
licit
▁1995
▁ahko
▁beds
▁damp
▁noon
bayeva
called
contin
▁Darya
▁acute
▁holds
▁hoped
▁march
ificant
▁Family
▁Israeli
▁aggress
▁sorting
ophysical
▁Protocol
▁literary
▁upstairs
▁disturbed
▁magnesium
▁perfectly
▁disability
▁explaining
▁frequencies
▁asynchronous
▁longitudinal
▁differentiated
48
-25
Int
ada
col
uez
▁az
▁ug
▁ww
ICAL
June
airo
alyk
edia
geon
hand
husi
life
rape
umer
▁1.4
▁28,
▁Bob
▁Gal
▁Log
▁Non
▁eae
eline
onite
▁0,57
▁Disc
▁Love
▁[14]
▁gray
▁lung
▁marg
lishes
▁Large
▁Whose
▁brave
▁camps
▁grows
▁halls
▁idiot
▁rescu
oleptic
▁advise
▁gypsum
▁unable
▁Content
▁athlete
▁disclos
▁orphans
▁Olympics
▁Somebody
▁sponsors
ecological
innovative
▁Procedure
▁inclusive
▁replacing
▁turbulent
development
▁Enterprise
▁arrangement
▁differently
▁disappeared
▁modernizing
▁subordinate
▁observations
▁microcontroll
▁morphological
db
key
▁Bu
abol
gone
ibly
iler
unov
well
▁Bol
▁NAS
▁bis
▁ham
▁lag
▁pic
▁Conf
▁ears
ermany
irical
▁Activ
▁grids
ascular
▁extend
▁thirst
kibastuz
▁enemies
▁fingers
▁retired
▁servers
resistant
▁Northern
▁chairmen
▁diaspora
▁emission
▁legality
▁Americans
▁exceeding
▁extension
▁paintings
▁reforming
▁Increasing
▁respondents
▁suggestions
▁dictionaries
▁intervention
▁manifestation
We
▁/
exp
oro
uct
▁2%
FORM
oper
▁Squ
▁pel
▁rab
andyk
▁Turn
▁bark
▁cows
▁item
▁saus
▁sons
▁summ
▁sung
▁urge
ifiers
▁Cairo
▁Local
▁meals
olation
▁Bureau
▁Effect
▁cavity
▁incred
▁octane
▁shadow
standard
▁nitrate
▁russian
efficient
▁Material
▁excluded
▁molecule
▁oxidized
▁shoulder
▁stresses
▁theaters
▁Religious
▁activated
▁dissolved
▁electrode
▁switching
▁workplace
▁asymptotic
▁modulation
▁publishing
▁semiconductor
▁familiarization
▁pharmaceuticals
3;
CE
EV
ivic
tysh
▁240
▁dow
ullah
▁Kash
▁Omsk
▁Stef
odrome
rocess
stance
yungan
▁Leave
▁Peter
▁Steps
▁Temir
▁argue
▁blast
▁fence
▁infin
▁metro
▁recru
▁shelf
▁George
▁floors
▁posted
▁refuse
expected
▁Complex
▁diverse
▁suicide
▁Creating
▁Cultural
▁Electric
▁attaches
▁compound
▁consumed
▁discount
▁envelope
▁frequent
▁ambitious
▁Simulation
▁suspension
▁radioactive
▁Introduction
HN
Wh
ua
May
aki
ube
▁1-
▁AT
▁Ku
▁Up
igen
lims
olds
zhip
▁17,
▁23,
▁San
▁tor
lovak
story
usoid
▁0,54
▁bent
▁gluc
▁incl
angers
encing
▁cheer
▁rains
▁shout
verages
▁Commun
▁exists
▁hydrod
▁simply
▁tongue
arinzhip
assadors
rapeutic
▁boiling
▁clarify
▁fashion
▁hunting
▁paradig
▁survive
ianyungan
mentation
▁Intellig
▁Measures
▁cylinder
▁floating
▁gradient
▁mistaken
▁possibly
▁tendency
▁depressed
▁optimized
▁projected
▁undergone
▁assignment
▁checkpoint
▁motorcycle
▁workplaces
▁Azerbaijani
▁Legislative
▁hospitality
▁replenished
▁utilization
▁mobilization
▁cryptographic
▁supplementing
▁Classification
▁teleconference
▁undergraduates
37
LE
can
fil
iny
kay
▁kt
iest
ompl
▁1.3
▁19,
▁GDP
ikhan
shift
▁0,65
▁Pass
▁Zhol
▁defe
▁sear
elfare
iatric
school
▁2009,
▁3,000
▁Veter
▁fuels
▁stiff
▁subur
▁truly
logical
▁Arabic
▁accent
▁advent
▁anyway
▁claims
▁editor
▁exclud
▁Certain
▁Figures
▁Without
▁accompl
▁acidity
▁casting
▁chronic
▁crowded
▁curious
▁hectare
▁recover
▁sensing
▁vitamin
▁Facebook
▁Tomorrow
▁abstract
▁pregnant
▁rotating
▁Permanent
▁convicted
▁predicted
▁regulates
▁resistant
▁welcoming
▁whitewash
▁Washington
▁suggestion
▁arbitration
▁feasibility
▁disadvantage
77
dis
nes
uri
▁7%
inte
uran
▁(18
▁Fac
▁mes
apped
ethyl
ockey
ozoic
▁0,60
▁2006
▁Aksu
▁depr
▁grab
▁pill
itting
▁Kassy
▁Third
▁fines
▁forty
▁homes
▁stake
▁Berlin
▁angles
▁rocket
▁talent
▁valley
▁Student
▁Virtual
▁emergen
▁enthusi
▁ferroal
▁hydroph
▁skating
precision
roductive
▁Berdybek
▁Services
▁ammonium
▁bathroom
▁emulsion
▁prevents
▁designers
▁detecting
▁inorganic
▁isolation
▁sanctions
▁Vietnamese
▁accurately
▁infectious
▁emergencies
▁Agricultural
▁manufacturer
▁participates
▁hydroelectric
▁interconnected
DF
UC
dm
mm
Gen
eli
inf
iph
▁Ni
▁ri
berg
lick
olin
▁175
▁Cup
▁Kan
▁Mak
▁cha
▁yog
▁[15]
▁abol
▁beef
▁benz
▁rays
-2020.
▁Tenge
▁baked
▁moder
illance
ritical
through
viously
▁Theore
▁excurs
▁pushed
▁turkey
▁unites
December
▁History
▁elderly
▁employs
▁founder
▁sharing
effective
▁doctoral
▁enlarged
▁freezing
▁memorial
▁neutrons
▁pleasant
▁thorough
magambetov
vironments
▁departure
▁disappear
▁governing
▁liquefied
▁normative
▁partially
▁screening
▁automobile
▁morphology
▁newspapers
▁pensioners
▁prediction
▁constructed
▁approximately
▁prerequisites
----------------
As
It
NO
ICS
LIC
rah
▁SO
▁ko
amil
bent
iyar
oked
▁1.8
▁Ast
▁fod
▁pie
▁www
akers
ammed
bital
cents
irrel
itted
osmos
pring
▁Kazk
▁Rome
▁Soil
▁Text
▁evil
▁hill
▁shru
▁unsu
author
ceived
urpose
▁Light
▁Maple
▁amino
▁inval
▁votes
▁wires
pliance
▁Access
▁Number
▁inflow
▁timing
▁wooden
▁anxious
▁charter
▁dealing
▁divorce
▁jewelry
▁passive
itational
▁accommod
▁european
▁horrible
▁planting
▁salaries
▁tactical
▁incidence
▁prominent
▁suffering
▁Monitoring
▁eliminated
▁embankment
▁incomplete
▁explanatory
▁simplifying
▁surrounding
▁unanimously
▁sufficiently
▁surveillance
▁demonstration
▁interreligious
yg
ado
bel
▁SP
oxid
rine
▁Bet
▁Cau
▁Kam
▁bub
▁gly
▁sho
ocial
rison
▁Cert
▁Four
▁dorm
▁dose
▁obey
▁puzz
oluble
terror
▁Doing
▁acted
▁civic
▁datas
▁digit
▁firms
▁infra
▁kinem
▁tower
imental
nthesis
station
▁Almost
▁Cauchy
▁Irtysh
▁Stefan
▁orange
▁rememb
▁stairs
▁Muslims
▁adviser
▁boilers
▁glucose
▁obliged
▁staring
▁forestry
▁indirect
▁maternal
▁Conscious
▁criticism
▁intersect
▁memorable
▁oxidizing
▁Abishevich
▁exposition
▁impression
▁philosophy
▁Temperature
▁transformer
▁Constitutional
▁interpretation
LP
-50
ESS
asm
gon
imp
iop
pay
vet
July
OLOG
irts
▁(7)
▁DNA
▁Moh
▁Sad
▁bon
▁shu
March
field
group
mates
oleum
ompos
venue
▁Fore
▁Help
▁Kair
▁fans
▁fant
▁perp
▁balls
▁dehyd
▁olymp
▁akmola
▁brands
▁fodder
▁guided
▁polite
▁stared
▁steels
▁suffer
▁damaged
▁filters
▁fractal
▁minimal
▁silence
▁utility
▁wishing
▁absorbed
▁combines
▁licenses
▁password
▁unreason
structured
▁Malaysian
▁copolymer
▁emphasize
▁necessity
▁stabilize
▁worldview
▁frightened
▁historians
▁presenting
▁expressions
▁therapeutic
▁unnecessary
▁conditioning
▁confidential
▁environments
▁fundamentally
55
IG
UD
azz
dry
nas
top
▁2-
▁91
▁Ga
▁Lo
▁Ox
▁Ul
▁ai
▁fo
auyr
bone
ulpt
umes
writ
▁2.4
▁GAZ
▁Pot
▁Ref
▁Rus
▁fee
▁ric
asive
essed
imity
▁0,58
▁Abai
▁drow
▁liar
▁tail
▁Media
▁Smith
▁deals
▁Portug
▁cathod
▁cigare
▁explos
▁hockey
▁loaded
▁derived
▁linking
▁precise
▁textile
▁Modeling
▁attacked
▁commands
▁descript
▁ideology
▁kinetics
▁proteins
▁suffered
▁Strategic
▁initially
▁licensing
▁phosphate
▁prisoners
▁recycling
Development
interrupted
▁propaganda
▁Partnership
▁adolescents
▁ambassadors
▁inclination
▁specificity
▁conventional
▁gasification
▁Supplementing
ih
▁?
ena
isy
mel
▁fr
▁ka
atin
itus
late
ocks
step
text
▁Bir
▁EEC
▁arc
▁hem
▁hob
orney
piece
▁0,41
▁Emer
▁Harm
▁bite
▁bomb
▁lens
astics
▁Polit
▁boxes
▁voter
ameters
lectric
looking
nogorsk
ulative
▁Proper
▁Uralsk
▁buried
▁hydrox
▁multic
▁oldest
November
generous
▁centres
▁climbed
▁metabol
▁reviews
education
▁builders
▁concerts
▁generous
▁matrices
▁silicate
arinzhipov
▁Mukhamedi
▁capillary
▁variation
▁2017-2018.
▁confirming
▁threatened
▁unexpected
▁ideological
▁photographs
▁Technological
▁crystallization
OP
ean
tor
▁Li
acco
avor
blem
imet
▁108
▁Bud
▁Hig
▁nob
▁uns
ancer
auren
ching
▁0,59
▁Eval
▁Mart
▁drum
▁dump
▁irre
▁leak
▁nozz
▁shan
▁tens
▁yard
▁Asset
▁Citiz
▁Cloud
▁clubs
▁mouse
▁sewer
▁thief
attered
▁Carbon
▁Doctor
▁Mexico
▁breast
▁fallen
▁gifted
▁namely
▁ranges
▁sculpt
▁unload
ausoleum
▁Ecology
▁Machine
▁barrier
▁dreamed
▁forests
▁Egyptian
▁displays
▁examines
▁notebook
▁tectonic
ustainable
▁Kassymbek
▁aluminium
▁filtering
▁proximity
▁Ministries
▁completing
▁complaining
▁crystalline
▁Distribution
▁contributing
▁substitution
▁Consciousness
▁justification
7)
CC
ii
km
gas
▁Tu
ashk
▁24,
▁Ens
▁Mac
▁Ust
▁hes
▁nap
▁rom
smart
ubile
▁Dmit
▁Less
▁Long
▁Pres
▁Thai
▁blog
▁eidu
▁ugly
compet
shaped
▁dates
▁frost
▁intra
▁uncom
resents
ringing
▁Akorda
▁Search
▁frames
▁intake
▁kicked
▁parked
▁Element
▁Summing
▁Teacher
▁knowing
▁passion
▁summary
▁Military
▁exciting
▁monitors
▁Economics
▁applicant
▁otherwise
Information
▁documentary
▁locomotives
▁Intellectual
▁representing
▁transmitting
▁Communication
▁gravitational
▁reinforcement
69
71
aik
gat
see
amen
aved
cour
eday
▁22,
▁27,
▁Ins
▁Wel
▁gul
▁ont
▁sli
about
anova
icago
icing
lecom
▁Book
▁Hong
▁Kong
▁lean
▁oath
▁oils
▁rely
▁terr
henium
ighted
ortium
▁Analy
▁Petro
▁downt
▁finds
▁mobil
▁ridge
▁rifle
▁rotor
▁urged
▁winds
General
ampling
avtodor
changed
ounting
▁Contin
▁Slovak
▁clouds
▁frozen
▁indeed
▁junior
▁ladder
▁nuclei
▁picnic
▁protot
▁sewing
▁weapon
irements
▁Mineral
▁abandon
▁acquire
▁archive
▁constit
▁figured
▁hanging
▁keeping
▁nucleus
▁placing
▁privacy
▁pronoun
▁thirsty
Nursultan
▁freedoms
▁graphene
▁issuance
▁millions
▁nutrient
▁obstacle
▁patience
▁subscrib
▁validity
authorized
▁borrowers
▁desperate
▁organizer
▁guidelines
▁popularize
▁Measurement
▁biochemical
▁uninterrupted
6)
EF
ya
awa
ocu
▁Gl
Best
anas
atab
atom
olyb
rots
▁95%
▁Ait
▁Fun
▁Mir
▁Pan
▁Say
▁gin
eterm
pping
range
riber
tains
▁0,66
▁Once
▁Prom
▁chop
▁earn
▁sees
Almaty
chenko
rategy
teness
ttrium
▁Brown
▁Smart
▁fairs
▁merit
▁salad
▁screw
orative
service
▁Friend
▁Safety
▁distin
▁exempt
▁garage
▁presid
▁shifts
auyrzhan
bringing
▁Initial
▁Section
▁feeding
▁grouped
▁pointed
▁solvent
▁sounded
▁Specific
▁Tashkent
▁basement
▁horizons
▁promotes
▁receiver
▁strongly
allurgical
▁aerospace
▁extracted
▁investing
▁summarize
▁terminals
▁constraint
▁sanitation
▁undergoing
▁embarrassed
▁limitations
▁considerable
▁satisfactory
▁authentication
▁multifunctional
2-
Do
Kar
hel
how
mys
apac
ario
osan
stud
test
what
▁107
▁109
▁206
▁Mel
▁sar
▁tip
▁tob
▁unt
ataly
ermek
iolet
ipher
ovsky
▁0,62
▁0,71
▁1997
▁2004
▁Acts
▁USSR
▁pric
▁trig
health
illery
istors
▁Check
▁Super
▁assim
▁legit
▁nurse
▁sixth
Turkish
estrian
inister
ogenous
western
▁Caucas
▁Mining
▁cooked
▁excuse
▁liters
National
▁Chicago
▁Earlier
▁Railway
▁Serbian
▁edition
▁faculty
▁holders
artmental
▁arriving
▁controls
▁diamonds
▁disagree
▁generate
▁maximize
▁monoxide
▁paraffin
▁Chemistry
▁excessive
▁exporters
▁incentive
▁interrupt
▁karaganda
▁landfills
▁Innovation
▁structured
▁trilingual
▁consolidate
▁peculiarity
▁restaurants
▁approximation
49
600
For
Yes
bot
ika
rys
itis
uler
wood
▁2.2
▁Aud
▁Mag
▁caf
owned
power
uated
wards
▁0,67
▁bits
▁flas
▁mell
▁solv
aneous
ernity
ograms
omorph
▁Level
▁exams
▁rails
cession
ulators
▁Higher
▁absorb
▁bypass
▁gloves
▁microw
▁nitric
▁photon
▁toward
▁Moldova
▁ashamed
▁binding
▁cardiac
▁soluble
component
lications
▁Kaztrans
▁designer
▁pastures
▁sometime
▁struggle
▁treating
▁activists
▁unchanged
▁Comparison
▁Laboratory
▁aggressive
▁projection
▁represents
▁throughput
▁Description
▁Informatics
▁unreasonable
▁compatibility
▁Identification
▁correspondence
SO
-60
-80
Pro
VID
ett
iid
law
oms
sil
▁4.
▁TO
apse
food
iper
isco
▁114
▁2.7
▁Dav
▁KAZ
▁MET
▁Sil
▁alg
▁dil
▁rib
abaev
bolat
gency
isure
layer
orial
usain
▁1990
▁Free
▁brig
▁brow
▁eaeu
▁fees
▁gaps
▁trap
▁vibr
mobile
▁Altyn
▁arous
▁climb
▁fever
arently
holders
olybden
▁Farabi
▁INFORM
▁malign
▁speeds
▁subway
▁Gumilev
▁Opening
▁briefly
▁landing
▁ratings
▁sliding
▁warming
▁Secondly
▁adaptive
▁charging
▁entirely
▁harmonic
▁paradigm
▁premises
▁refinery
▁sewerage
▁vertices
▁certified
▁chemicals
▁clarified
▁neighbour
▁probation
▁attributes
▁clustering
▁concluding
▁nanocompos
▁prohibited
▁psychology
▁punishment
▁remembered
▁Kazatomprom
▁countryside
▁corporations
▁sustainability
▁differentiation
▁epidemiological
Fe
IF
SE
dp
ml
You
aim
ani
iya
▁CR
▁[7
▁eu
aryn
cond
long
mukh
omer
▁1-2
▁2.3
▁320
▁Aer
▁MOD
▁eco
▁hex
▁iod
▁unc
▁wis
-2016
ambet
anche
ilism
ivals
metry
naire
south
yshev
▁0,44
▁STEM
▁acet
▁peak
arming
artite
future
vement
▁Crime
▁Karak
▁hurts
▁spong
▁straw
▁woods
imbetov
limited
onopoly
section
▁Action
▁Unlike
▁enjoys
▁potato
▁stamps
▁trucks
▁verify
▁damping
▁impulse
▁sulfate
▁wounded
istration
▁explains
▁grouping
▁mellitus
▁astronaut
▁diversify
▁motivated
▁providers
▁bozumbayev
▁hypothesis
▁overcoming
▁professors
▁dissolution
▁fingerprint
▁intensively
▁transaction
▁urbanization
AO
CS
hi
ups
▁4-
▁Cy
▁MI
▁VI
ldoz
oice
rant
▁Lie
▁PRC
▁TEC
▁dup
▁gau
▁thr
place
stein
▁2022
▁caps
▁prag
▁push
▁rapp
▁unsc
▁zher
asonic
cribed
iguous
▁coins
▁lymph
▁relay
▁verte
▁10,000
▁Andrei
▁enable
▁lovely
▁marine
▁postal
▁raises
▁reluct
▁reveal
February
▁Algeria
▁antenna
▁arguing
▁geology
▁quietly
▁refract
▁sharply
▁shorter
▁stadium
▁winding
olybdenum
ovascular
▁crushing
▁musician
▁removing
▁sinusoid
▁squirrel
▁underest
▁Architect
▁allowance
▁catalytic
▁mausoleum
▁membranes
▁Collective
▁Functional
▁evacuation
▁impressive
▁locomotive
▁upbringing
▁volumetric
▁Independent
▁Mathematics
▁Zhoshybayev
▁appreciates
▁contracting
▁destination
▁nominations
▁perspective
▁reconstruct
▁strengthens
▁terminology
▁Zhumagaliyev
▁refrigerator
▁unauthorized
54
sub
win
▁Ah
▁BC
▁Pa
agle
alym
illy
vard
▁750
▁Hil
▁Nav
▁odd
allic
bulak
hetys
ilbek
▁0,61
▁1200
▁1998
▁Breg
▁Mikh
▁auto
▁biod
▁drip
▁fasc
▁holy
▁iter
▁mamm
▁nuts
▁oven
▁shoe
▁symp
imated
ionucl
▁Democ
▁Milan
▁adult
▁advoc
▁bache
▁camel
▁deeds
▁ethno
▁forth
▁tetra
▁walks
ubility
▁2020."
▁Nature
▁Visual
▁analyt
▁deeper
▁mosque
▁parlia
▁robber
▁shovel
▁sought
▁belarus
▁classic
▁crucial
▁equally
▁prevail
▁tobacco
▁violent
▁commerce
▁province
connection
▁Increased
▁advisable
▁broadband
▁frequently
▁irradiated
▁predicting
▁refineries
▁satellites
▁Composition
▁citizenship
▁establishes
▁parliaments
▁Presidential
▁demonstrates
▁notification
▁Comprehensive
▁communicative
▁synchronization
88
AG
At
GO
▁!
edy
irs
▁3-
▁OS
▁mr
abul
iger
link
▁112
▁4.0
▁5-6
▁5.5
▁Nob
▁Top
▁ait
▁alb
▁kok
herom
izers
lored
meter
otics
▁0,70
▁Find
▁Lyap
▁Omar
▁Tele
▁flew
▁mukh
▁plug
▁tape
aceous
invest
▁Guard
▁Honor
▁Spect
▁incub
▁irrit
▁mines
▁naval
▁poems
▁repet
▁Argent
▁buyers
▁humans
▁layout
▁lowest
▁wheels
▁Finally
▁ambient
▁camping
▁impacts
▁legally
▁leisure
▁printer
▁pyramid
▁reagent
▁returns
▁Citizens
▁Managing
▁Products
▁cavities
▁composed
▁december
▁furnaces
▁granular
▁interdep
▁particle
▁supplier
▁template
▁clearance
▁corrected
▁distances
▁fisheries
▁radionucl
▁reluctant
performance
▁incentives
▁solidarity
▁stabilized
▁tripartite
▁intensified
▁Professional
▁consolidated
6%
94
Cr
EP
OS
aty
dec
isa
tur
▁Ce
plan
▁1.1
▁2.1
▁CHP
▁Jew
▁bay
▁eeo
▁gro
▁kum
aulet
eches
oster
roche
▁0,68
▁Ardu
▁appl
▁chat
▁dare
▁merg
▁poem
▁stro
▁tear
iverse
luence
scious
▁Dubai
▁actor
▁conqu
▁crews
▁drops
▁erlan
▁ferry
▁laure
▁query
▁strat
imetric
otropic
ropower
▁Decree
▁barley
▁boxing
▁ammonia
▁barrels
▁contour
▁encrypt
▁entropy
▁ethical
▁instant
▁multipl
▁therapy
▁wealthy
▁welfare
▁yttrium
▁breaking
▁captured
▁careless
▁revision
▁inspected
▁integrate
▁kinematic
▁regulator
▁scattered
▁seedlings
▁servicing
▁succeeded
▁Activities
▁exchanging
▁fertilizer
▁generating
▁microscopy
▁polyclinic
differential
▁preferences
▁rectangular
▁Experimental
▁specifically
62
67
Ar
Un
tr
aer
dem
jud
kum
▁02
▁6%
2015
alov
khan
orld
ream
sten
usal
▁155
▁Bab
▁Ecu
▁Far
▁Kas
▁Low
▁Rat
▁cas
▁god
aigas
cient
space
tingu
▁(10)
▁Bakh
▁Cost
▁Mama
▁blew
▁pond
Europe
Health
garian
profit
▁Amend
▁Chief
▁Clust
▁Nikol
▁Small
▁TECHN
▁cater
▁couch
▁immig
▁label
▁quota
UCATION
centers
iculous
tically
version
▁Aliyev
▁admire
▁binary
▁bricks
▁knives
▁openly
▁shapes
▁tracks
▁triple
▁undert
fortable
▁Belgium
▁Leaders
▁Working
▁closest
▁exclude
▁extingu
▁insects
▁kingdom
▁someday
▁subsidy
▁Lyapunov
▁Romanian
▁Southern
▁adjusted
▁analyzes
▁deadline
▁divorced
▁implicit
▁leaching
▁respects
▁turbines
electronic
▁Effective
▁biosphere
▁withstand
residential
▁Efficiency
▁commitment
▁geographic
▁graduation
▁indication
▁installing
▁managerial
▁recipients
▁efficiently
▁electrocard
▁greenhouses
▁phosphorite
▁prosecutors
▁organoleptic
▁nanotechnology
89
MF
YS
800
chi
cut
iam
▁BL
▁MB
▁Ye
▁du
arma
elve
lead
thal
▁Cub
▁Kin
▁VAT
▁nin
April
chief
ograd
plain
radle
▁0,39
▁0,72
▁0,73
▁Tool
▁arom
▁bioc
▁dess
▁lapt
▁merc
▁mesh
▁peas
carbon
effect
iances
▁Grand
▁Watch
▁[1-3]
▁beard
▁catal
▁chaos
▁cough
▁donor
▁rough
▁sends
▁swear
▁tries
▁Studio
▁akhmet
▁cancel
▁entity
ogeneity
▁Harvard
▁airline
▁braking
▁cycling
▁depress
▁helpful
▁orbital
▁smarter
▁specify
developed
▁Academic
▁Gulshara
▁Obtained
▁invented
▁mortgage
▁temirtau
▁trainees
▁Bauyrzhan
▁EDUCATION
▁Religions
▁compiling
▁geosystem
▁subjected
▁Lianyungan
▁complained
▁electrodes
▁encouraged
▁generators
▁geodynamic
▁harmonious
▁legitimate
▁moratorium
▁popularity
▁solubility
▁surprising
▁waterproof
▁Competition
▁pollination
▁restriction
▁subsistence
▁Calculations
▁kazakhstanis
▁questionnaire
▁Administrative
▁cardiovascular
63
8%
Ak
ITY
ibi
▁CF
▁EF
▁pm
acts
fold
prop
thon
ulus
yrak
▁Hot
▁Lap
▁MSW
Third
alymp
arios
ieved
▁HTML
▁Mike
▁Sche
▁ages
▁bell
▁bone
▁fond
ermans
golden
umines
▁2025.
▁Abdik
▁Minsk
▁Rules
▁anger
▁sells
▁stead
zhanova
▁Senior
▁betray
▁boards
▁crafts
▁joking
▁offset
▁pilots
▁refuge
arations
▁benzene
▁bulldoz
▁dessert
intensive
▁attracts
▁confirms
▁fragment
▁limiting
▁purified
▁watering
rientation
▁attribute
▁purchases
▁scenarios
▁celebrates
▁concerning
▁criticized
▁downstairs
▁fractional
▁optimistic
▁Preparation
▁approaching
▁collectives
▁discoveries
▁necessarily
▁sedimentary
▁Requirements
▁antimonopoly
▁spectrometer
▁uncomfortable
▁administrations
2/
NN
awn
unc
▁4%
cuit
ideo
itic
zens
▁360
▁Arc
▁Dam
▁Del
▁Men
▁gdp
▁ltd
ashak
imova
nikov
▁0,64
▁1300
▁1991
▁2003
▁STUD
▁Sens
▁Zham
▁casc
▁phon
▁rang
abling
center
ctural
▁2050.
▁Appro
▁COVID
▁Emily
▁METHO
▁annum
▁imped
▁inver
▁naked
▁noisy
▁spite
▁toile
digital
▁battal
▁elabor
▁ingots
▁novels
▁purity
▁serial
▁supper
▁unless
▁Arduino
▁Changes
▁Dalenov
▁carrots
▁comprom
▁delayed
▁heavily
▁imposed
portfolio
▁Criminal
▁Saryarka
▁chlorine
▁collapse
▁conveyor
▁moreover
▁profiles
▁symbolic
▁Christian
▁Different
▁accounted
▁answering
▁artillery
▁infection
▁prevented
▁stiffness
▁Australian
▁Fatherland
▁derivative
▁economical
▁hydropower
▁influences
▁performers
▁helicopters
▁interacting
▁biologically
▁breakthrough
▁interference
▁photographer
▁harmonization
1%
1-
47
CH
En
irm
▁Ap
▁Ti
▁Wi
▁zo
Redu
atpa
ille
oker
play
qual
▁(8)
▁Lim
▁Rio
▁spr
atile
bolic
chain
rable
wheat
▁Fact
▁Jack
▁KazN
▁Yuri
▁deaf
▁gala
▁male
▁puts
▁sket
▁stub
Reduce
ealand
hetysu
ubilee
▁2008,
▁Allow
▁Index
▁Start
▁beets
▁candy
▁cares
▁cruel
▁diary
▁fatty
▁humid
▁inher
chloric
nuclear
uristic
▁Dmitry
▁clever
▁fluent
▁indiff
▁smells
▁solves
▁tenges
▁unfair
hibition
iqueness
▁Conduct
▁journey
▁massive
▁robotic
▁seventh
▁useless
▁Distance
▁Metrolog
▁Satpayev
▁Veterans
▁circular
▁connects
▁dividing
▁infinite
▁infrared
▁minimize
▁normally
▁offering
▁operated
▁searched
▁shymkent
▁speeches
▁steadily
▁whenever
amenogorsk
▁defenders
▁hydrogels
▁microwave
▁september
eorological
▁Affordable
▁Indicators
▁compressor
▁consortium
▁intentions
▁introduces
▁retirement
▁transplant
organization
▁Sarinzhipov
▁redistribution
7%
TA
UPU
ael
cad
kas
ros
MENT
esis
hour
hyth
rays
▁(19
▁138
▁185
▁Dom
▁Tan
▁Ver
▁0,50
▁2001
▁9001
▁Agro
▁Flow
▁doct
▁lent
▁volt
▁zhan
integr
reland
▁Bayan
▁Marat
▁Types
▁Vasil
▁Zholy
▁awful
▁erect
▁foods
▁magic
▁repay
atabase
aurzhan
leyball
onation
process
▁Danial
▁Geneva
▁Kumkol
▁colour
▁cycles
▁hosted
▁poorly
▁sheets
▁faction
▁fifteen
▁pharmac
▁reminds
▁settled
▁talents
financial
patriotic
rochement
▁Examples
▁archives
▁relieved
▁somewhat
▁weakness
ographical
▁Emergency
▁Formation
▁MapReduce
▁Practical
▁principal
▁Additional
▁Kazavtodor
▁dielectric
▁ecosystems
▁helicopter
▁invaluable
▁subscriber
▁uniqueness
▁Methodology
▁calibration
▁contractors
▁subscribers
▁explanations
▁specialization
Cu
-90
ati
pen
▁AD
▁Fu
▁je
▁ma
▁ze
-100
fuel
imal
▁(9)
▁128
▁Fel
▁Fer
▁Ily
▁jog
added
empor
human
opher
posed
▁(11)
▁(200
▁[1].
▁brid
▁evid
▁fake
▁pose
aceted
mbetov
ptions
urable
▁dough
▁gamma
▁ports
Caspian
inating
▁Police
▁Streng
▁Tamara
▁equity
▁fixing
▁lenses
▁microp
▁predom
▁relate
▁scored
▁struck
▁tastes
▁tissue
language
olecular
▁Example
▁Ireland
▁Zealand
▁demands
▁expects
▁readers
▁strains
▁wasting
istorical
▁Heritage
▁perceive
▁relating
▁stubborn
▁Aerospace
▁Character
▁bothering
▁cylinders
▁dismissed
▁empirical
▁interfere
▁selective
▁subsystem
▁symmetric
▁wondering
▁Amendments
▁Dependence
▁Evaluation
▁apologized
▁attributed
▁converting
▁distribute
▁hyperbolic
▁procedural
▁processors
▁smartphone
▁volleyball
▁smartphones
4%
bl
ki
ti
bag
uma
upp
▁5-
▁SY
▁dB
▁ii
▁ip
▁kV
▁ly
ales
athy
auna
aven
ella
grav
pack
wear
▁Jam
▁Kel
▁unw
▁COMP
▁Move
▁cups
▁intr
▁quad
▁tire
▁weld
bestos
bright
cyclop
estone
itudes
▁5,000
▁Frank
▁Music
▁Osaka
▁Staff
▁artif
▁batyr
▁demol
▁enhan
▁flora
abulary
product
regular
ungsten
ytbekov
▁Avenue
▁anomal
▁dining
▁nozzle
▁twelve
▁zoning
Strategy
agadiyev
▁arsenic
▁bending
▁cabinet
▁capsule
▁cathode
▁dispute
▁foolish
▁nowhere
▁october
▁pellets
▁powders
▁smailov
ontaneous
▁Building
▁Exchange
▁Programs
▁emotions
▁referred
▁alcoholic
▁coalition
▁coincides
▁deadlines
▁witnessed
▁elasticity
▁interfaces
▁meaningful
▁ridiculous
▁vocabulary
▁accountable
▁checkpoints
▁coincidence
▁destructive
▁geophysical
▁negotiating
▁oncological
▁interruption
▁biotechnology
9%
HS
MM
ERS
New
iko
ney
uds
▁DC
▁Hy
▁Mo
▁Pi
▁Zn
anal
anth
asty
azar
icks
▁2.6
▁VII
▁aks
▁fog
▁hik
▁reb
▁toy
clean
dated
optic
table
▁0,78
▁0,81
▁Mond
▁Phot
▁Poss
▁foss
▁mira
▁perf
-2020,
astana
hedral
ibrary
lasses
monaut
▁2025,
▁Defin
▁Hello
▁Kyzyl
▁airpl
▁asian
▁detox
▁diode
▁eager
▁feder
▁gorge
▁imper
▁ionic
▁maybe
▁pants
▁tends
▁tense
▁Export
▁Listen
▁Review
▁Ruslan
▁Square
▁deaths
▁debate
▁exempl
▁paints
▁pestic
▁pillow
▁resett
ociation
▁Kulagin
▁Mikhail
▁Mondays
▁chapter
▁mandate
▁analysed
▁fighters
▁prospect
▁singular
▁sporting
▁treaties
▁violated
structures
▁Saryagash
▁associate
▁elemental
▁evidenced
▁gentleman
▁precisely
▁unlimited
▁workpiece
continental
▁Structural
▁cosmodrome
▁depression
▁Programming
▁distinctive
▁excavations
▁hydrophobic
▁productions
Modernization
▁scholarships
▁informational
72
Fi
OT
hr
ls
xi
700
Che
Fig
LAB
ipe
▁ul
emic
ieva
rawn
▁CEO
▁DEV
▁Kos
▁Mas
▁Muk
▁Voc
berry
enger
olves
white
▁10%.
▁DBMS
▁Hold
▁Pale
▁Tues
▁asks
▁aust
▁beet
▁dign
▁exag
▁gall
▁nest
▁yons
Sultan
arents
export
herent
ibayev
letion
rolled
vetlan
▁Bregg
▁Estab
▁Money
▁amate
▁apart
▁chips
▁crash
▁eleph
▁infer
▁minds
▁saves
▁slice
▁tract
edicine
indered
▁Expert
▁Python
▁Yermek
▁bullet
▁corpus
▁forens
▁insult
▁patent
▁rained
▁rented
▁script
▁toilet
▁wisdom
aughters
▁Develop
▁Estonia
▁Reserve
▁Samples
▁bridges
▁coolant
▁Consumer
▁bankrupt
▁focusing
▁parental
▁sampling
▁tomatoes
▁Kazakhmys
▁TECHNOLOG
▁bulldozer
▁colleague
▁exporting
▁musicians
▁Motherland
▁extractant
▁spectromet
▁submission
▁Statistical
▁Theoretical
▁advancement
▁coordinator
▁exoskeleton
▁synchronous
▁Abdikalikova
▁completeness
▁dependencies
▁examinations
▁hydrodynamic
CP
EA
IA
KZ
Ph
ca
gin
lab
▁03
▁AR
▁Ka
▁os
Iran
anol
ieth
olve
seit
seud
uing
▁127
▁260
▁3,0
▁6.5
▁Adv
▁Ven
▁Whe
ergic
hydro
itory
▁0,69
▁9000
▁Docu
▁Sund
▁hell
▁jazz
▁june
▁leaf
▁melo
▁rack
▁rows
▁ultr
-2050"
aseous
ibekov
icians
ultans
▁1,200
▁10-15
▁2030.
▁Nobel
▁Press
▁Reven
▁Talas
▁abdyk
▁album
▁clays
▁ethyl
▁fires
▁frust
▁purse
▁resum
▁scary
▁socks
▁stays
apacity
telecom
vetlana
▁KazUPU
▁condol
▁pherom
▁quarry
▁shrubs
▁thermo
▁yogurt
Learning
▁Optimal
▁Princip
▁annoyed
▁grabbed
▁khanate
▁weights
abilistic
▁Armenian
▁Moreover
▁Whatever
▁allergic
▁archival
▁biathlon
▁emphasis
▁instance
▁pavlodar
▁rejected
▁Bulgarian
▁Ekibastuz
▁Obviously
▁beverages
▁budgetary
▁iterative
▁magazines
▁sentenced
▁strongest
▁trainings
▁victories
▁Bozumbayev
▁observance
▁surrounded
▁Interactive
▁compilation
▁confidently
▁electrolyte
▁facilitated
▁registering
▁accompanying
▁agribusiness
▁hydrochloric
43
py
ITH
ili
raq
rup
sts
uit
was
▁6)
▁Ts
▁cu
gust
ixty
uest
▁85%
▁Bes
▁Cho
▁Ele
▁Pos
▁dug
▁lug
▁ram
elesc
igned
party
umors
works
▁Auez
▁cave
▁kern
▁plus
▁quot
▁soap
▁tort
▁vain
ambets
embers
ifting
ilayer
ternal
▁2,000
▁Black
▁Flash
▁Legal
▁Murat
▁Point
▁april
▁argon
▁brush
▁buyer
▁conce
▁excit
▁hobby
▁liver
▁mercy
▁perin
▁rainy
▁troub
▁twins
hematic
irtanov
ogypsum
▁Employ
▁Lesson
▁Nauryz
▁Sultan
▁alkali
▁breeds
▁masses
▁minors
▁muscle
▁starch
▁vessel
▁Honored
▁Members
▁assault
▁conting
▁fortune
▁individ
▁inertia
▁adhesion
▁animated
▁demanded
▁doctrine
▁downtown
▁failures
▁highways
▁sunlight
▁universe
▁Political
▁Tatarstan
▁dispersed
▁permitted
▁recovered
▁restoring
▁returning
▁shoulders
▁appliances
▁disclosure
▁inspectors
▁normalized
▁subsidized
▁ultrasonic
▁Comparative
▁encountered
▁kazatomprom
▁Applications
▁biodiversity
▁conservative
▁individually
▁reproductive
▁investigating
▁rapprochement
▁congratulation
▁recommendation
▁Competitiveness
▁systematization
2;
ja
ku
uv
-15
-70
1.5
avy
bat
eev
sev
▁AS
▁TR
▁[8
▁eo
▁ib
▁na
▁sq
▁ts
avan
expl
grad
iped
oded
uity
▁1.9
▁118
▁12-
▁Dad
▁GPS
▁Geo
▁Mot
▁Run
▁dzh
amruk
neigh
onomy
shore
▁0,40
▁Arts
▁Atam
▁Eidu
▁Type
▁gamb
▁okay
▁otan
▁sofa
▁stab
access
locked
rakhan
rients
rophic
▁15-20
▁2010.
▁Reduc
▁anaer
▁discr
▁edges
▁grams
▁impat
▁knock
▁noble
▁rings
▁shook
housing
inograd
rystall
▁Create
▁Neural
▁actors
▁bucket
▁cooled
▁immers
▁Electro
▁Pacific
▁blocked
▁cascade
▁fluores
▁funeral
▁opposed
▁skilled
▁stepped
osanitary
▁Aviation
▁Caucasus
▁Deputies
▁Ensuring
▁adequate
▁exploits
▁lecturer
▁migrants
▁striving
usherbayev
▁developer
▁modelling
▁organizes
▁pediatric
▁persuaded
▁requested
Orientation
▁contractor
▁designated
▁landscaped
▁orphanages
▁sunglasses
▁accelerator
▁celebrating
▁collections
▁consistency
▁expenditure
▁influencing
▁prestigious
▁multifaceted
▁reproduction
▁mineralization
Ag
Ni
400
IAL
erk
rin
uko
yan
▁08
▁FB
▁PM
aire
akas
ibir
loid
omon
will
▁(14
▁157
▁210
▁7.5
▁75%
▁Gaz
▁Lin
▁Osp
▁Pen
▁asp
▁rap
▁tok
erted
force
ienna
▁0,38
▁0,63
▁1999
▁Abyl
▁Answ
▁Army
▁Draw
▁Five
▁Oraz
▁Zhas
▁[16]
▁fibr
▁glac
▁verb
Script
acchar
agulov
manned
▁Franc
▁Write
▁bones
▁boots
▁eagle
▁embed
▁flame
▁roses
▁vapor
alympic
electro
▁cadast
▁cousin
▁dozens
▁facial
▁guides
▁miners
▁packed
▁stroke
versible
▁Germans
▁Primary
▁flooded
▁knocked
▁rhenium
▁surveys
▁tractor
▁updates
▁Judicial
▁Muhammad
▁accustom
▁aromatic
▁arranged
▁interior
▁momentum
▁promises
▁weekends
▁youngest
production
▁Commander
▁Materials
▁daughters
▁endurance
▁impatient
▁accumulate
▁charitable
▁commanders
▁presidency
▁subjective
▁accelerating
▁commissioner
▁hierarchical
▁profitability
▁strategically
▁desertification
cre
ilt
kul
max
nur
▁Cd
▁ub
enth
lers
usup
▁117
▁145
▁270
▁4.4
▁Bit
▁CON
▁Cle
▁Leb
▁Net
▁Tri
▁adb
▁amy
▁mit
▁sco
▁tag
-2021
athon
fight
trial
▁5-10
▁Aman
▁Gate
▁Hard
▁Orth
▁SYST
▁forb
▁gest
▁hook
▁iran
▁pity
▁pulp
Americ
iciary
method
▁Croat
▁humor
▁loose
▁nanot
▁reimb
▁shops
▁sixty
▁split
▁theft
herical
orphous
▁Copper
▁Import
▁Vienna
▁blamed
▁breaks
▁closet
▁commem
▁cradle
▁danced
▁floods
▁incons
▁reflex
amentals
raviolet
▁Faculty
▁Laplace
▁Mathcad
▁Tuesday
▁aroused
▁chances
▁cleared
▁clients
▁disgust
▁grammar
▁kidding
▁killing
▁marking
▁reveals
apartment
hezkazgan
▁Provides
▁altitude
▁announce
▁catering
▁hearings
▁learners
▁leveling
▁murdered
▁peasants
▁provider
▁weighing
▁2017-2018
▁Associate
▁acquiring
▁amplifier
▁capacitor
▁exemplary
▁gathering
▁irregular
▁maternity
▁microcred
▁classmates
▁compaction
▁conductors
▁controller
▁deployment
▁economists
▁nationwide
▁relaxation
▁visibility
▁Bishimbayev
▁spontaneous
▁voluntarily
▁Dzhaksybekov
▁departmental
▁clarification
▁radionuclides
":
AA
Kh
My
Te
aa
ei
zo
aph
boy
uce
▁AI
▁Ms
andy
atts
isen
isov
neum
riev
rise
roys
tery
yard
▁111
▁113
▁124
▁137
▁14%
▁3.3
▁APP
▁Add
▁Cur
▁Dos
▁Enc
▁Hum
▁PSC
▁TPP
▁UNT
▁pin
▁shr
accur
boxyl
heart
ighth
iscal
stery
ysics
▁2002
▁Balt
▁Club
▁Dist
▁Kate
▁Rakh
▁aids
▁butt
▁coke
▁fuzz
▁mart
▁pear
▁pull
imeter
mented
normal
payers
server
strain
▁1,000
▁2011.
▁Hydro
▁MathC
▁NASSR
▁Waste
▁borne
▁crane
▁debts
▁pitch
▁probe
▁scare
▁unamb
-2017,"
apparov
defined
▁Active
▁Linear
▁carpet
▁evapor
▁illust
▁legend
▁pulses
▁rolled
▁runoff
aluation
computer
esthetic
ortheast
▁Airport
▁Kazpost
▁Sundays
▁Swedish
▁carbide
▁distill
▁gaseous
▁hosting
▁justify
▁neurons
▁perhaps
▁sausage
▁singers
explained
▁Emirates
▁Kashagan
▁analogue
▁currents
▁finances
▁garrison
▁insisted
▁offshore
▁tungsten
controlled
ernational
▁Brazilian
▁Reference
▁aggregate
▁anaerobic
▁declining
▁exclusive
▁invention
▁perinatal
▁processor
▁triangles
▁eliminates
▁expressing
▁incredible
▁metabolism
▁attractions
▁condolences
▁facilitates
▁transformed
▁ultraviolet
▁Mukhamediuly
▁Certification
▁Metallurgical
▁demonstrating
▁heterogeneous
▁phytosanitary
tw
bod
kil
usp
weg
▁07
▁Mt
IONS
anta
arks
core
esus
iene
odox
▁(30
▁Dir
▁Gra
▁Gun
▁Kha
▁Kon
▁dol
▁fra
▁jet
▁soy
ganov
iders
ilers
phony
tales
ukhan
▁Care
▁Fuel
▁Grow
▁Pack
▁Teng
▁cock
▁dedu
▁desp
▁egov
▁kair
▁lion
▁pine
▁rats
▁sacr
▁solo
atalov
chagai
istent
itance
onents
sultan
taking
▁Avail
▁algae
▁burst
▁enorm
▁rally
▁sands
▁sandy
▁tires
berbank
raising
▁MATLAB
▁Recomm
▁Territ
▁adhere
▁aggrav
▁carrot
▁census
▁dancer
▁finite
▁joints
▁mostly
▁pillar
▁sights
▁silica
▁tablet
▁telesc
boundary
enriched
▁Library
▁Purpose
▁Zhetysu
▁bedding
▁blanket
▁butterf
▁ferrous
▁happier
▁jinping
▁luggage
▁novelty
▁seaport
endicular
ibilities
▁Svetlana
▁confront
▁enjoying
▁seasonal
▁ultimate
▁Assistant
▁disorders
▁harvested
▁heuristic
▁kyzylorda
▁nutrients
▁postponed
uminescence
▁Definition
▁Individual
▁Lieutenant
▁Zhumagulov
▁nigmatulin
▁sinusoidal
▁Accordingly
▁Institution
▁combustible
▁constraints
▁continental
▁controllers
▁imagination
▁stabilizing
▁vaccination
▁abdykalikova
▁appreciation
▁assimilation
▁characterize
▁phosphogypsum
92
SD
US
gi
UCT
Why
aco
akb
eve
iga
▁5.
onna
sens
unus
vell
▁122
▁123
▁35%
▁5-7
▁Jul
▁Ren
▁Tax
▁iso
▁nas
▁nic
▁vic
-2025
South
adoop
agent
erson
iquid
leted
▁Cath
▁Gulf
▁Hope
▁Iraq
▁acry
▁dumb
▁pept
▁pole
▁pour
▁wolf
osphor
social
▁Bayes
▁Erlan
▁Karas
▁Radio
▁Siber
▁bears
▁briqu
▁lease
▁outdo
▁steal
▁visas
eastern
itories
▁Theory
▁castle
▁cracks
▁detach
▁fossil
▁hunger
▁string
▁yields
American
ccessful
▁Jinping
▁coastal
▁costume
▁cousins
▁jumping
▁leakage
▁mercury
▁pricing
▁sealing
▁servant
▁stabbed
phosphate
▁annoying
▁elective
▁junction
▁kindness
▁prisoner
▁scenario
▁shanyrak
▁Establish
▁curricula
▁maintains
▁quarrying
▁replenish
▁taxpayers
▁withdrawn
Kamenogorsk
▁Friendship
▁Lithuanian
▁adequately
▁instructor
▁ionization
▁manifested
▁opposition
▁relational
▁satisfying
▁withdrawal
▁Improvement
▁reservation
▁termination
▁consultation
▁evolutionary
▁experiencing
▁microprocess
.)
66
Co
MC
tz
-18
GIS
bus
eyn
iac
zak
▁ye
azan
iner
shak
▁005
▁136
▁2.9
▁4-5
▁4.2
▁Dus
▁Hor
▁ICD
▁Ice
▁RSA
▁Ret
▁Wed
▁Won
▁elb
▁sax
▁unl
▁wag
-2030
comed
count
lamic
locks
mbuds
omers
orthy
ounts
rooms
start
unate
▁0,79
▁Baku
▁Card
▁Post
▁burg
▁gear
▁sink
▁twin
▁virt
ounted
▁anion
▁boron
▁chart
▁click
▁drama
▁elong
▁jeans
▁mills
▁mined
▁shale
ULATION
ourable
▁Advant
▁anonym
▁atyrau
▁belief
▁drawer
▁fiscal
▁fridge
▁kernel
▁resist
anguages
resource
▁Harmony
▁Instead
▁Khorgos
▁Optical
▁Testing
▁Traffic
▁Welcome
▁anomaly
▁cottage
▁descend
▁germany
▁muscles
▁outcome
▁pursued
▁selfish
sequently
▁Function
▁Increase
▁Interior
▁adapting
▁assisted
▁athletic
▁forensic
▁inferior
▁memories
▁simulate
▁sultanov
geological
▁amorphous
▁artifacts
▁battalion
▁buckwheat
▁detective
▁excursion
▁finishing
▁responses
▁Conditions
▁Experience
▁identifies
▁molybdenum
▁obligation
▁formulation
▁interpreted
▁consistently
▁resettlement
▁grandchildren
▁hydrogenation
▁nanocomposite
▁perpendicular
▁theoretically
▁accountability
▁popularization
▁scientifically
▁Standardization
▁electrochemical
▁microcontroller
4-
41
GC
GP
Go
SU
VD
2.5
AKH
Tom
ais
ayy
iol
▁"(
▁IC
▁Mc
▁Mg
aral
five
inyl
leys
syan
umns
zinc
▁192
▁3.1
▁Fig
▁Ish
▁Rau
▁TRA
▁[2-
▁apk
▁tat
EMENT
bohyd
eller
produ
▁0,42
▁0,74
▁0,76
▁2500
▁Auto
▁Fire
▁Kras
▁Loss
▁Real
▁Tour
▁actu
▁anch
▁pave
▁pork
▁snap
▁soda
▁sour
arkhan
itated
ogonal
period
ritish
shagai
wegian
winner
▁Child
▁Jesus
▁Joint
▁Thurs
▁Trump
▁annex
▁belts
▁choir
▁colon
▁giant
▁lobby
▁perme
▁rhyth
▁rises
▁swing
▁taraz
▁versa
fficial
tending
utorial
▁Volkov
▁cation
▁circus
▁hostel
▁proton
▁studio
▁violin
itations
mbudsman
munition
▁Congrat
▁Hilbert
▁Persian
▁auditor
▁brigade
▁chinese
▁declare
▁disturb
▁examine
▁fastest
▁jubilee
▁laundry
▁mystery
▁prefers
▁pressed
▁recruit
▁scratch
▁seeking
▁smiling
▁squares
terrorism
unciation
▁Bayanaul
▁Remember
▁Zhakupov
▁capitals
▁civilian
▁convicts
▁detector
▁inertial
▁organism
▁stealing
▁treasure
▁2015-2019
▁Influence
▁Languages
▁Vasilenko
▁anomalies
▁approving
▁assembled
▁cosmonaut
▁decorated
▁emulsions
▁guarantor
▁unloading
uantitative
▁accustomed
▁approached
▁architects
▁attachment
▁calculates
▁interviews
▁noticeable
▁uniformity
▁Intelligent
▁consultants
▁interlocutor
▁prerequisite
▁polymerization
42
7.
AV
CIS
abs
bur
ecc
ini
non
rob
uli
-300
ELOP
STAN
anni
aria
fire
kara
meas
ogai
open
rief
rile
urry
went
▁Cir
▁Mrs
▁Sey
▁TBT
aires
hanol
iforn
oting
▁(12)
▁1994
▁30%.
▁5000
▁Fort
▁Fram
▁Send
▁Tony
▁[2].
▁cher
▁coin
▁herb
▁onto
▁pink
▁pupp
▁rele
▁wars
ronics
▁Batyr
▁Unity
▁cheek
▁decay
▁tubes
▁unsat
▁virus
October
angible
ertales
▁Hadoop
▁KAZAKH
▁affair
▁ending
▁firmly
▁methyl
▁motors
▁paired
▁riding
▁ruined
▁thrown
▁victim
▁DEVELOP
▁Dynamic
▁Experts
▁Mukhtar
▁Problem
▁arrives
▁claimed
▁drought
▁enzymes
▁erected
▁fertile
▁fibrous
▁imaging
▁portals
▁sultans
▁2012-201
▁additive
▁appealed
▁centners
▁mobilize
▁refugees
▁salinity
▁startups
▁suburban
▁unmanned
ignificant
structural
▁Zhamishev
▁civilized
▁collision
▁contempor
▁corridors
▁educating
▁sediments
▁supplying
▁Artificial
▁Integrated
▁ammunition
▁assumption
▁compatible
▁compensate
▁limitation
▁multilayer
▁phosphoric
▁pretending
▁unhindered
▁homogeneity
▁impressions
▁declarations
▁diversifying
▁embarrassing
▁microcredits
▁generalization
/(
DB
RI
].
fe
pi
-12
fam
hem
mir
rik
rue
tte
war
▁Ve
▁ic
anna
bean
days
enes
esty
igul
illa
irus
omes
rent
rypt
uese
▁(15
▁165
▁2.8
▁215
▁3.7
▁45%
▁650
▁API
▁Div
▁ECE
▁MHz
▁PCM
▁PPP
▁Tul
▁cel
▁jam
▁kur
▁lux
▁sou
INING
bents
chair
essim
itime
onian
orous
storm
▁1992
▁Ansh
▁Mich
▁Shar
▁ecot
▁foam
▁lact
▁lips
▁rink
▁slic
▁tied
▁toys
German
bodied
incess
second
▁2005,
▁Block
▁Close
▁Linux
▁Short
▁arrog
▁babys
▁batch
▁burns
▁dozen
▁juven
▁loyal
▁nerve
▁ozone
▁pneum
▁poets
▁shame
▁stack
▁towel
▁trunk
▁usage
akhanov
akupova
enbayev
ifornia
▁Direct
▁Simple
▁Unions
▁acidic
▁caring
▁coding
▁dances
▁folded
▁hammer
▁heater
▁hiking
▁impecc
▁kyrgyz
▁loudly
▁mature
▁merits
▁reward
▁robbed
▁strike
▁surren
European
avorable
▁Cluster
▁Created
▁crashed
▁deliber
▁dispens
▁expands
▁pretend
▁profits
odynamics
▁Abdullah
▁Transfer
▁airspace
▁bicycles
▁commonly
▁deterior
▁reminded
▁sergeant
▁stranger
▁teenager
▁tolerant
▁websites
compliance
selinograd
▁Frequency
▁Kazkosmos
▁bentonite
▁excavator
▁manifesto
▁metrology
▁northeast
▁penalties
▁repeating
▁satisfies
▁watercour
▁wintering
realization
▁Mechanical
▁Particular
▁decorative
▁exhaustion
▁repetition
▁Directorate
▁contractual
▁counterpart
▁diffraction
▁indifferent
▁linguistics
▁ministerial
▁translating
▁concentrates
▁historically
▁sociological
otechnological
An
tm
EST
ona
osa
sin
▁..
▁AL
▁GP
▁TF
▁ke
▁ry
arse
comb
iang
ikov
rama
rong
uine
▁...
▁1,5
▁126
▁144
▁3.2
▁4.3
▁Jac
▁Vik
▁[3-
▁jsc
endix
ioxid
theta
ymers
▁0,88
▁1500
▁Baim
▁Camb
▁Lear
▁Must
▁Term
▁bowl
▁deny
▁goss
▁kore
▁seam
▁typh
▁vase
agonal
dering
fields
iators
upiter
▁30-40
▁Cross
▁Steam
▁axial
▁essay
▁ignor
▁mosqu
▁ruler
▁sings
berries
project
soluble
uchinsk
▁Golden
▁Reform
▁Select
▁Wednes
▁Worker
▁behavi
▁decont
▁electr
▁favour
▁grapes
▁helmet
▁influx
▁injury
▁laptop
▁leaned
▁onions
▁pounds
▁profic
▁resume
▁safely
▁sexual
▁shafts
▁Batalov
▁Climate
▁Concent
▁Denmark
▁Mexican
▁amateur
▁armored
▁columns
▁fitness
▁interim
▁kissing
▁polymet
▁unlucky
▁watches
ulometric
▁airplane
▁climbing
▁defended
▁handwrit
▁marathon
▁overhead
▁romantic
▁solvents
▁taxonomy
▁uniforms
▁watermel
▁welcomed
reliminary
▁Dzhakupov
▁Investors
▁bilingual
▁fantastic
▁launching
▁parabolic
▁passports
▁remembers
▁teenagers
▁underwent
▁Portuguese
▁apparently
▁collectors
▁compromise
▁decreasing
▁enthusiasm
▁journalist
▁pesticides
▁triangular
▁ultimately
▁yourselves
▁dehydration
▁informative
▁negotiation
▁thermometer
▁transistors
▁condensation
▁improvements
▁increasingly
▁Tasmagambetov
▁contradiction
%;
44
91
.0%
Are
BRD
ila
ozh
tas
▁9%
▁CL
▁GW
▁kz
▁oz
ands
ford
omas
regn
▁12%
▁151
▁380
▁850
▁ATM
▁Ben
▁Bre
▁EMG
▁PHP
▁hay
▁wto
Where
aurus
betov
iodes
reach
skaya
▁0,80
▁20-2
▁Coal
▁anis
▁bubb
▁glob
▁inev
▁knee
▁mams
▁ours
▁ster
▁wins
growth
ibirsk
rovers
▁1992,
▁2007,
▁Champ
▁Hague
▁Happy
▁Image
▁antit
▁arrow
▁chore
▁elite
▁equip
▁gauge
▁hosts
▁loses
▁mixer
▁paras
▁prost
▁punch
▁safer
▁salty
▁squee
atility
idation
usainov
▁Matlab
▁Output
▁Valent
▁agrees
▁burial
▁errone
▁fooled
▁nerves
▁nights
▁phrase
▁planes
▁revise
▁tragic
onential
osibirsk
othermic
▁Adilbek
▁Firstly
▁Jupiter
▁Station
▁emitted
▁extends
▁furious
▁heading
▁inaccur
▁phrases
▁robbery
formatics
inization
organized
▁Projects
▁attempts
▁contents
▁enhanced
▁enrolled
▁explored
▁fluently
▁founders
▁hardness
▁juvenile
▁offended
▁outdated
▁selfless
▁settings
▁smallest
stationary
▁Norwegian
▁Standards
▁adsorbent
▁distilled
▁exchanges
▁excluding
▁governors
▁hydroxide
▁initiator
▁iteration
▁judiciary
▁malignant
▁medicinal
▁prototype
▁screaming
▁transient
▁Competence
▁Lukashenko
▁controvers
▁excitation
▁geothermal
▁impeccable
▁prescribed
▁recognizes
▁Nazarbayeva
▁adjustments
▁precipitate
▁unambiguous
▁disciplinary
▁dramatically
▁localization
▁intercultural
▁psychologists
▁unconditional
▁microbiological
))
82
br
va
vy
110
din
now
ott
▁6.
▁Hi
▁NO
▁Ru
▁TE
▁eV
▁pa
▁ta
beam
bour
harm
hole
just
mate
ocon
pine
salt
spec
umph
urea
wing
▁116
▁65%
▁Abu
▁Ald
▁Bad
▁Bah
▁Cam
▁Kun
▁Lag
▁Lux
▁Neg
▁Sab
▁Ten
▁ank
▁fox
▁spo
▁wid
State
Uzbek
akova
alkar
cases
chers
gsyan
loven
ubaev
ulite
visor
while
▁1970
▁3000
▁50%.
▁Conn
▁Gold
▁Mars
▁Reyn
▁Rost
▁Turg
▁bail
▁buff
▁july
▁mang
▁pend
▁pier
▁pist
▁rush
▁synd
angali
assies
erable
khanov
umbers
▁Bolat
▁Clean
▁Felix
▁lanes
▁polyg
▁pseud
▁silly
▁trick
Turkmen
atorial
growing
oxidase
▁Alakol
▁Indeed
▁Labour
▁aerial
▁afghan
▁excise
▁exclus
▁lactic
▁legacy
▁pessim
▁poetry
▁senate
▁shield
▁souven
▁vermic
▁wasted
▁Shouldn
▁Surface
▁coaches
▁colonel
▁dietary
▁dignity
▁drafted
▁exagger
▁liberal
▁possess
▁premium
▁resting
▁scanner
▁streams
▁summits
▁swallow
▁triumph
▁zhambyl
criptions
▁Attorney
▁Satpaeva
▁Slovakia
▁Teaching
▁Temirtau
▁Thursday
▁backbone
▁blasting
▁borrower
▁enormous
▁handling
▁ionizing
▁pharmacy
▁solemnly
▁visually
▁cigarette
▁embassies
▁exemption
▁exhibited
▁spherical
▁subsidize
▁suspected
▁Ecological
▁condensate
▁creatively
▁overweight
▁permitting
▁simplifies
▁theatrical
▁unsuitable
▁Sustainable
▁integrating
▁internships
▁liquidation
▁stimulation
▁accidentally
▁broadcasting
▁cartographic
▁commonwealth
▁digitization
▁Understanding
▁collaboration
▁extinguishing
▁congratulatory
▁specifications
.[
DD
IO
.).
50.
IVE
Par
URE
cho
ham
hex
pan
pys
ref
▁7)
▁7.
▁rh
East
alzh
bear
elen
igil
itov
opes
prom
that
them
user
zhko
▁(11
▁10-
▁134
▁154
▁Agr
▁Ord
▁Rah
▁SOL
▁ale
▁cuc
▁cul
▁lin
amine
angle
front
indic
ister
▁0,83
▁0,84
▁Base
▁Kent
▁Ulan
▁View
▁[23]
▁[34]
▁bars
▁buys
▁fuck
▁guns
▁mall
▁mask
▁mush
▁tran
anbaev
hrined
itrile
mature
rained
retion
▁20-30
▁Being
▁Doesn
▁Excel
▁Yanni
▁align
▁cakes
▁crush
▁drill
▁grave
▁ingot
▁motto
▁naive
▁punct
▁rumor
▁sidew
▁skept
▁wings
aulbaev
element
heduled
imeters
issance
primary
▁Answer
▁Gunter
▁Mechan
▁Tengiz
▁baking
▁courty
▁farmer
▁holder
▁immune
▁insane
▁privat
▁sleeps
▁stocks
▁Dossaev
▁Minimum
▁Usually
▁bearing
▁browser
▁defence
▁dismant
▁gateway
▁genuine
▁impregn
▁jogging
▁protest
▁retreat
▁tissues
▁Critical
▁Platform
▁Reynolds
▁abnormal
▁advances
▁analyzer
▁declined
▁emirates
▁enabling
▁marginal
▁patriots
▁precinct
▁prepares
▁reconcil
▁suppress
▁surgical
▁2014-2015
▁accepting
▁adjusting
▁aesthetic
▁consisted
▁enshrined
▁equipping
▁magnitude
▁resonance
▁substrate
▁Democratic
▁Especially
▁Paralympic
▁bankruptcy
▁convection
▁indicative
▁lieutenant
▁originally
▁purchasing
▁signatures
▁transverse
▁Interaction
▁ferroalloys
▁microscopic
▁oscillators
▁prosecution
▁correctional
▁distributing
▁fermentation
▁standardized
▁subsequently
▁accommodation
▁commemorative
▁Kazagrofinance
▁manifestations
▁nanostructured
▁professionally
▁virtualization
01
76
BM
DA
RT
bu
-1)
ASS
IST
Pol
ami
bec
lag
lob
nar
ogs
opl
▁EN
▁bn
▁ol
abai
enza
erer
lant
mers
oval
uryk
▁119
▁193
▁204
▁3.4
▁3.6
▁5.2
▁Ach
▁Age
▁Nag
▁Old
▁[4-
▁bid
▁dye
▁ink
▁kWh
Chief
actor
aigaz
esome
isson
ollar
▁(100
▁0,36
▁0,77
▁0,97
▁EBRD
▁Fuji
▁Like
▁Mirz
▁Miss
▁Play
▁Pros
▁Task
▁cope
▁cust
▁dece
▁goat
▁indo
▁inex
▁logo
▁lump
▁owes
▁pled
▁stur
▁toll
awatts
holder
isible
matism
racted
solete
tening
ussels
▁2009.
▁2030,
▁Field
▁Solid
▁Stage
▁anode
▁claim
▁fauna
▁gonna
▁inaug
▁japan
▁scand
▁shake
▁sunny
control
ilismen
oshenko
special
▁Berber
▁Govern
▁Online
▁assort
▁august
▁behave
▁bitter
▁campus
▁catast
▁coated
▁defeat
▁devast
▁earned
▁eighth
▁eleven
▁enzyme
▁genius
▁macrom
▁mayors
▁outlet
▁parity
▁pumped
▁rotary
▁stator
▁tasked
▁weekly
erencing
restrial
riterion
▁Present
▁Workers
▁breathe
▁designs
▁drowned
▁lowered
▁missile
▁prolong
▁rectors
chemistry
etermined
expensive
propylene
▁Accounts
▁Catholic
▁Honorary
▁Orthodox
▁Robotics
▁Studying
▁activate
▁antioxid
▁baiterek
▁droplets
▁keyboard
▁offences
▁publicly
▁topology
▁workings
Saparbayev
ditionally
▁Analyzing
▁Argentina
▁Canadians
▁Computing
▁Equations
▁Logistics
▁Potential
▁Selection
▁Transform
▁dominated
▁evacuated
▁fattening
▁festivals
▁observing
▁repairing
▁Advantages
▁Parameters
▁Situations
▁decoration
▁immigrants
▁methodical
▁spectators
▁submitting
▁tightening
▁DEVELOPMENT
▁Performance
▁Significant
▁alternating
▁exponential
▁nationality
▁philosopher
▁sponsorship
▁warehousing
▁guaranteeing
▁irreversible
▁permeability
▁transitional
▁interpolation
▁polypropylene
▁specification
46
5.
HA
Pe
dr
-11
001
Bel
EAT
kek
sty
ugg
▁Ro
Fund
Hung
ceum
ilov
ineu
laud
prot
▁178
▁188
▁7%,
▁GAN
▁GSM
▁Ham
▁Haw
▁KPI
▁Meg
▁[11
▁bil
▁mug
aping
arded
irosh
isons
itual
▁0,37
▁0,86
▁1980
▁20%,
▁Core
▁Hand
▁Mess
▁Resp
▁SDOH
▁Shut
▁Wars
▁arys
▁brib
▁conj
▁curv
▁heli
▁lime
▁malt
▁mono
▁nons
▁publ
▁sake
▁sary
ennium
illage
people
steppe
summed
▁Chile
▁MODEL
▁Sochi
▁cited
▁fewer
▁flamm
▁genre
▁poses
▁rated
▁regen
▁spell
▁twent
▁whist
▁yards
olitics
uminous
uniform
winners
▁Atmosp
▁Vocera
▁births
▁duplic
▁excite
▁hearts
▁helium
▁induct
▁iodine
▁killer
▁parcel
▁porous
▁priori
▁rabbit
▁wagons
ervation
friendly
▁Already
▁Revenue
▁Yerzhan
▁descent
▁dialect
▁domains
▁enables
▁hazards
▁hygiene
▁liberty
▁mukhtar
▁refined
▁relaxed
▁rescued
▁snowing
▁surgeon
▁tablets
▁threads
▁valleys
▁viewing
▁Actually
▁Agrarian
▁Baurzhan
▁Changing
▁External
▁Resource
▁Suleimen
▁TRAINING
▁acquaint
▁autonomy
▁biogenic
▁carbohyd
▁datasets
▁deformed
▁fixation
▁fountain
▁necklace
▁pavement
▁toponyms
▁worrying
▁Operation
▁Programme
▁Reduction
▁Wednesday
▁arguments
▁elevators
▁lightning
▁orphanage
▁polluting
▁realizing
▁schedules
▁telescope
traditional
▁Electrical
▁KAZAKHSTAN
▁capability
▁concession
▁converters
▁disruption
▁isothermal
▁rationally
▁summarized
▁vertically
▁Preliminary
▁cooperating
▁dormitories
▁exclusively
▁manipulator
▁recognizing
▁systematize
▁transmitter
▁unscheduled
▁electrolysis
▁salinization
▁Kazakhtelecom
▁authorization
▁civilizations
▁conditionally
▁developmental
▁Methodological
"?
8)
IZ
TU
/20
5%)
://
hal
oft
pot
yly
▁AK
▁Yu
:30.
aksh
atyr
high
hran
lore
osat
pace
seat
this
▁(40
▁135
▁147
▁16%
▁17%
▁18%
▁340
▁Blo
▁Cab
▁Eat
▁Eve
▁INT
▁Jan
▁Pal
▁dyn
▁feb
▁jac
▁pix
▁rhe
▁sla
ATICS
after
block
ensed
gence
rator
round
ulose
world
▁(14)
▁0,27
▁0,34
▁30%,
▁Iron
▁Kuan
▁Risk
▁Unit
▁[4].
▁bakh
▁dawn
▁fare
▁feat
▁flaw
▁fuss
▁reck
▁tram
Stokes
iogram
kbayev
nasium
ophage
ophile
orphic
person
remist
▁2050:
▁Bashk
▁Jamal
▁Memor
▁Zhang
▁badge
▁crown
▁fuzzy
▁glory
▁kumys
▁monot
▁ninth
▁risky
autious
renburg
voltage
▁Kazmun
▁Monaco
▁Prices
▁SYSTEM
▁Spring
▁Values
▁anthem
▁begged
▁beside
▁coward
▁cutter
▁faults
▁hugged
▁invari
▁joyful
▁melons
▁neuron
▁nomads
▁seized
▁trials
Pavlodar
igration
ochastic
onuclear
relation
ropriate
uestions
▁Between
▁Nikolai
▁biofuel
▁crusher
▁lottery
▁mounted
▁nursing
▁relates
▁swimmer
▁worries
▁Decision
▁Equation
▁Mohammed
▁bachelor
▁converts
▁dominant
▁findings
▁gambling
▁informal
▁maritime
▁outreach
▁rescuers
▁resigned
▁shipping
▁simplest
▁textiles
▁tractors
▁volatile
integrated
▁Employees
▁Paleozoic
▁amounting
▁behaviour
▁delighted
▁economist
▁envisages
▁extremist
▁inability
▁inconsist
▁informing
▁oxidative
▁publisher
▁strangers
▁2014-2015,
▁Analytical
▁assembling
▁clarifying
▁emphasizes
▁ferroalloy
▁overhauled
▁photograph
▁saparbayev
▁Kusherbayev
▁Tselinograd
▁academician
▁assessments
▁circulatory
▁influential
▁oscillatory
▁politically
▁substantial
▁transitions
▁Architecture
▁fluorography
▁microfinance
▁regeneration
▁transformers
▁insignificant
▁transboundary
/2
86
EW
dh
fl
kk
cir
ifc
mol
opt
uar
zed
▁2]
▁Hz
▁Iz
▁Pb
▁Ty
▁[9
-500
EAEU
atai
balt
imer
izon
mind
ocur
okie
olov
ppes
▁129
▁164
▁174
▁179
▁3.0
▁4,0
▁4.1
▁BAS
▁ECD
▁Mut
▁Nit
▁[20
▁bol
▁cum
▁fig
▁lip
▁xen
adloc
apest
blems
cible
evich
grand
ician
ocene
odium
stroy
width
young
▁20%.
▁50%,
▁Bang
▁Coss
▁Fest
▁Fish
▁Rece
▁Very
▁[3].
▁chip
▁cops
▁dams
▁gang
▁latt
▁seas
▁shit
▁surf
agnost
iative
olland
omencl
▁Drama
▁Haven
▁Liter
▁Metal
▁Mount
▁Nancy
▁Turan
▁Value
▁abund
▁aside
▁blond
▁bloom
▁crack
▁crust
▁draws
▁eigen
▁filed
▁incon
▁knees
▁lasts
▁lungs
▁pests
▁prone
▁skirt
▁stain
▁sweat
Eternal
mercial
ophilic
respons
▁Acting
▁Artist
▁Atomic
▁Baltic
▁Dauren
▁METHOD
▁Navier
▁Volume
▁anchor
▁beaten
▁candle
▁cobalt
▁habits
▁intest
▁melted
▁myster
▁patrol
▁portra
▁ratios
▁recipe
▁remark
▁sniper
▁vertex
▁warmly
acrylate
resolved
utrition
▁Coordin
▁awesome
▁bananas
▁dataset
▁ethanol
▁planets
▁queries
▁reprodu
▁resumed
▁revival
▁secular
▁selects
▁shallow
▁yelling
▁Georgian
▁Mountain
▁asbestos
▁billions
▁charming
▁classify
▁february
▁obsolete
▁plastics
▁traction
▁Astrakhan
▁Automatic
▁Champions
▁Equipment
▁airmobile
▁assigning
▁athletics
▁connector
▁gymnasium
▁limestone
▁megawatts
▁naturally
▁repayment
▁slaughter
▁suitcases
▁workforce
omenclature
▁2017-2018,
▁Mamytbekov
▁biometrics
▁composites
▁dependency
▁estimation
▁explosions
▁pheromones
▁translator
▁Enforcement
▁brotherhood
▁deprivation
▁inexpensive
▁polyclinics
▁stepnogorsk
▁technically
▁accomplished
▁acquaintance
▁announcement
▁anticipation
▁deformations
▁nevertheless
▁systematized
▁experimentally
▁microdistricts
/3
App
Eng
dig
flu
net
nom
roc
sim
uni
▁CM
▁EL
▁GB
▁NP
▁OP
▁Ra
▁da
agen
auov
cost
dehy
enez
fish
hani
iana
kova
nerg
opic
osov
ulla
ypes
▁"20
▁001
▁11.
▁370
▁5%,
▁Cut
▁Deg
▁Myn
▁Sus
▁din
▁gab
▁ipo
▁ker
ITIES
akhan
anies
datpa
dogan
doing
ogens
orocc
ursed
▁0,75
▁Berd
▁Full
▁Igor
▁Kozh
▁Lord
▁Mill
▁Shuk
▁WITH
▁Word
▁Zone
▁barn
▁gast
▁isot
▁nail
▁pand
▁tale
▁zhum
amedov
ancers
atinum
ewable
idated
izable
lessly
search
ulants
▁Gauss
▁Prior
▁Stock
▁Turks
▁alley
▁fairy
▁humil
▁overs
▁snake
▁stere
▁sympt
▁tatto
▁tenth
▁valve
Germany
enezuel
lifting
meeting
ryption
teacher
▁Bridge
▁Church
▁Donald
▁Island
▁Judges
▁Omarov
▁Single
▁Survey
▁Talgat
▁Viktor
▁amazed
▁cereal
▁cipher
▁dental
▁dialog
▁driven
▁kaolin
▁learns
▁overhe
▁preced
▁preval
▁valves
▁venues
▁versus
Building
Eurasian
LICATION
arantine
minister
omponent
training
▁Latvian
▁Reports
▁Similar
▁Solving
▁William
▁actress
▁antagon
▁barking
▁buttons
▁choices
▁consume
▁docking
▁insulin
▁nomadic
▁painful
▁referen
▁retains
▁shelter
▁spectac
▁tranche
▁vaccine
▁vending
▁writers
computers
electroly
knowledge
ropolitan
▁Contract
▁Database
▁Russians
▁Telecomm
▁backyard
▁cohesion
▁collects
▁doubtful
▁founding
▁laureate
▁moderate
▁portable
▁prevails
▁resulted
▁slowdown
▁trusting
▁vicinity
▁chlorides
▁complaint
▁enhancing
▁erroneous
▁feedstock
▁flammable
▁inpatient
▁republics
▁simulated
▁Automation
▁California
▁Presidents
▁brightness
▁classifier
▁cooperates
▁downloaded
▁ecotourism
▁explosives
▁logistical
▁medication
▁multiplier
▁physically
▁programmer
▁references
▁suggesting
▁vibrations
▁descendants
▁recruitment
▁substantive
▁unconscious
▁unfavorable
▁Coordination
▁instrumental
▁photochemical
▁administrators
▁Informatization
▁decontamination
79
Ge
RP
TC
Ti
xy
-17
ACH
ADA
Can
Com
Tok
aii
div
gov
ido
occ
oxy
sur
yry
▁04
▁Ol
▁WW
▁ho
▁tg
▁wt
-202
apon
foot
four
hard
prep
race
sole
ttes
ynov
▁13%
▁146
▁153
▁6%,
▁Mah
▁Nic
▁Suz
▁Yel
▁alk
▁amn
▁jur
▁ket
▁pyr
▁tab
▁thy
adata
dykov
peace
ribly
sters
▁(15)
▁1960
▁Arys
▁Best
▁Erik
▁Laur
▁MCIS
▁Self
▁beek
▁coag
▁cycl
▁hash
▁intu
▁peel
▁whey
-2014,
anical
azarov
energo
object
ported
samruk
▁Alash
▁Farid
▁Hurry
▁Maced
▁Maxim
▁Phase
▁Raman
▁aktau
▁breed
▁bytes
▁chees
▁entit
▁fores
▁hello
▁shore
▁spill
country
galiyev
ophical
▁Annual
▁Karach
▁Madina
▁Models
▁Newton
▁Secret
▁Sloven
▁Status
▁Thomas
▁Warsaw
▁binder
▁camels
▁crises
▁ghosts
▁gluten
▁guards
▁ingred
▁intent
▁resemb
▁rushed
▁tribal
▁unused
▁voices
▁volcan
▁yonson
Minister
harmonic
▁Besides
▁Janeiro
▁Michael
▁Smailov
▁Unified
▁admired
▁awfully
▁cheated
▁execute
▁greeted
▁lithium
▁manners
▁richest
▁tallest
▁tenders
▁zeolite
iologists
neighbour
▁Overview
▁Semantic
▁adopting
▁aeration
▁auditors
▁consular
▁coupling
▁dramatic
▁fracture
▁honestly
▁inviting
▁logistic
▁persever
▁princess
▁promoted
▁severity
▁unlocked
kazakhstan
▁Disadvant
▁Southeast
▁attempted
▁crossings
▁hierarchy
▁negotiate
▁sequences
▁visionary
▁allocating
▁assortment
▁excitement
▁motherland
▁pedestrian
▁thoroughly
▁underwater
▁unresolved
▁APPLICATION
▁Demographic
▁algorithmic
▁assumptions
▁businessman
▁campaigning
▁commitments
▁existential
▁hardworking
▁temporarily
▁Differential
▁Optimization
▁Registration
▁consolidating
▁controversial
▁undergraduate
▁meteorological
3-
:1
Az
CN
OO
SI
jo
ui
Fin
JSC
SiO
arn
bir
bro
inv
mut
pak
ttp
udb
▁BI
▁CI
▁KM
▁OL
▁Pu
▁li
-400
aman
arys
dies
egoc
gold
good
hips
ieli
iffs
inki
ixed
lora
mass
ovna
owed
real
ugar
ulat
wife
yles
▁139
▁163
▁168
▁225
▁256
▁3.8
▁APC
▁Ate
▁Erm
▁Few
▁Gre
▁Mor
▁Nan
▁PCE
▁Tai
▁Ush
▁nov
Roman
airam
airov
crime
diakb
etime
heses
iants
iches
irate
ordai
sided
▁Fred
▁Luck
▁Save
▁Used
▁User
▁Wood
▁Writ
▁axes
▁cage
▁cess
▁dyes
▁junk
▁melt
▁outs
▁pean
▁pigs
▁tore
accept
alking
atered
formed
incing
ineral
kazakh
minded
ournal
uzakov
▁1995,
▁2006,
▁Adapt
▁Grain
▁KazNU
▁Right
▁Think
▁akhko
▁alien
▁autoc
▁brake
▁creep
▁lemon
▁panic
▁pills
▁poker
▁slipp
▁venue
angarin
ankulov
riteria
▁Ankara
▁Auezov
▁Ethiop
▁Hallow
▁Leader
▁Morocc
▁Summit
▁Wouldn
▁arable
▁blanks
▁chairs
▁crimin
▁denote
▁diatom
▁dissip
▁gravel
▁landed
▁lovers
▁loving
▁nurses
▁quotas
▁scream
▁sealed
▁settle
▁superv
election
physical
▁Erdogan
▁Poisson
▁colored
▁custody
▁deleted
▁distant
▁donated
▁habitat
▁impover
▁inequal
▁islamic
▁oranges
▁sailing
▁shortly
▁steppes
▁stretch
▁unclear
▁valence
ternative
▁Advanced
▁Angdatpa
▁District
▁Hydrogen
▁Kapparov
▁Siberian
▁agglomer
▁avoiding
▁backpack
▁betrayed
▁cautious
▁cheating
▁cheerful
▁constitu
▁defeated
▁flooding
▁hydrogel
▁immunity
▁impaired
▁nonsense
▁postpone
▁regarded
▁semester
▁shutdown
▁workflow
▁workload
otechnical
▁Halloween
▁Measuring
▁Processes
▁Stability
▁accompany
▁allowable
▁consensus
▁decentral
▁examining
▁inspector
▁schematic
▁Historical
▁consultant
▁delivering
▁excavation
▁fatherland
▁pragmatism
▁stochastic
▁zhezkazgan
▁Kaztransgaz
▁Novosibirsk
▁pessimistic
▁Intelligence
▁consultative
▁exoskeletons
▁inequalities
▁nomenclature
▁predetermined
▁electronically
▁confidentiality
59
Ad
Or
RS
kp
pc
Ass
Con
Met
bol
kok
mur
obi
oln
▁9-
▁KT
Sary
auer
edly
habi
idat
ipse
keev
look
lyab
lyar
mang
mira
oner
ragg
rout
tles
uate
ulph
urts
▁1-3
▁10.
▁131
▁148
▁152
▁182
▁184
▁530
▁Bot
▁NET
▁Sap
▁aea
▁ali
▁aul
▁bib
▁bin
▁bug
▁dip
▁gum
▁nod
▁sib
azing
esian
iator
kalyk
media
oping
orage
▁(13)
▁10%,
▁1996
▁Bush
▁Decl
▁PROC
▁Poll
▁Rest
▁Rima
▁Schr
▁Wang
▁bees
▁cass
▁cone
▁coun
▁fron
▁glor
▁hypo
▁lawn
▁nove
▁rash
▁tang
▁trem
▁util
Kyrgyz
bergen
cripts
dinger
factor
idents
ilings
import
kulova
reated
urgery
volume
▁10-20
▁2008.
▁9001:
▁Below
▁Bible
▁David
▁Photo
▁Tasks
▁abuse
▁arche
▁depot
▁grace
▁navig
▁peaks
▁pupil
▁roast
▁roles
▁swamp
▁timed
▁wiped
Digital
alinsky
anovich
grounds
igenous
instein
▁Allows
▁Ballet
▁Bozhko
▁Easter
▁Kentau
▁Tehran
▁banana
▁basins
▁cloudy
▁doubts
▁encaps
▁equals
▁fluids
▁hatred
▁heaven
▁queues
▁ranked
▁raster
▁robust
ognition
▁Ability
▁Regions
▁Sources
▁Twitter
▁bottles
▁caravan
▁corners
▁exciton
▁fission
▁heavier
▁matches
▁packing
▁puzzled
▁sailors
▁shouted
▁tubular
agambetov
▁Birtanov
▁Sargsyan
▁Teachers
▁Venezuel
▁bleeding
▁darkness
▁elephant
▁incompat
▁inverter
▁november
▁pendulum
▁poisoned
▁prestige
▁readings
▁screamed
▁switches
▁symmetry
▁throwing
▁tutorial
accounting
osynthesis
processing
ratization
▁Companies
▁Prospects
▁Renewable
▁Synthesis
▁Zhakupova
▁attending
▁cessation
▁composers
▁defective
▁encrypted
▁favourite
▁hairdress
▁illegally
▁innocence
▁kilograms
▁ombudsman
▁shortages
▁skeptical
▁terrified
▁violating
▁Properties
▁corrective
▁distortion
▁elongation
▁engagement
▁frameworks
▁kyrgyzstan
▁motherhood
▁preference
▁referendum
▁turbulence
▁Atmospheric
▁Singaporean
▁afghanistan
▁extradition
▁handwriting
▁ineffective
▁topographic
▁variability
▁constituting
▁dissociation
▁distillation
▁interrelated
▁stakeholders
▁subscription
▁administrator
▁replenishment
▁reconciliation
CM
GA
LC
SK
mg
6.5
ART
aaS
ecd
eur
izh
sea
tin
yme
▁)/
▁8.
▁Dy
▁Dz
▁FP
▁Il
▁PI
▁PO
ENTS
anka
azon
corn
inea
path
▁(13
▁(2-
▁025
▁132
▁15.
▁158
▁183
▁22%
▁4%.
▁4.8
▁4.9
▁ACT
▁Cap
▁ECG
▁Luc
▁PCs
▁Por
▁Tek
▁Van
▁lem
▁sne
▁tin
LICIT
acuum
books
erend
ework
inces
irova
kward
olith
opark
ophyt
scape
ubark
ungar
ushes
▁(17)
▁ANAL
▁Bukh
▁Farm
▁Ivan
▁Line
▁Lore
▁Mand
▁Oleg
▁Shak
▁Week
▁bore
▁carc
▁doss
▁ener
▁grey
▁mild
▁palm
▁pent
cience
lights
lorida
native
raying
rystal
static
▁Alpys
▁Dania
▁Forms
▁Multi
▁Santa
▁beams
▁cores
▁earns
▁fraud
▁goats
▁intol
▁merch
▁optic
▁polls
▁porch
▁selen
▁shots
▁smoot
▁spots
▁tiger
▁tumor
▁wider
▁wound
British
Pacific
ecology
economy
plastic
uddenly
▁Cookie
▁ELICIT
▁Either
▁Ground
▁Kinect
▁Kurgan
▁Length
▁Rector
▁Result
▁attent
▁deterg
▁evenly
▁makeup
▁overse
▁pseudo
▁retain
▁smoked
▁snakes
▁strips
▁tranqu
Shymkent
atameken
lyabinsk
pleasant
▁Alikhan
▁Bishkek
▁Croatia
▁Discuss
▁Finding
▁Install
▁baggage
▁blowing
▁cancell
▁compass
▁hurried
▁miracle
▁photons
▁shelves
▁travell
▁turnout
▁ukraine
umination
▁Medicine
▁Orenburg
▁Proposed
▁ceilings
▁competed
▁composer
▁deceived
▁disorder
▁embedded
▁filtered
▁hydromet
▁ignition
▁polyacry
▁retained
▁salesman
▁sausages
▁smoothly
▁spelling
▁terribly
efficiency
▁2015-2016
▁Additions
▁Communist
▁abolition
▁biography
▁condensed
▁depletion
▁firefight
▁interoper
▁pregnancy
▁travelers
▁viability
environment
▁Compliance
▁cigarettes
▁displaying
▁geosystems
▁incredibly
▁networking
▁orthogonal
▁qualifying
▁INFORMATION
▁Yermekbayev
▁breadwinner
▁cleanliness
▁devaluation
▁exceptional
▁memorandums
▁structuring
▁vermiculite
▁Akhmetzhanov
▁combinations
▁destinations
▁perseverance
omorphological
▁Disadvantages
▁carbohydrates
▁notifications
▁microprocessor
▁underestimated
BC
Me
Cre
ECD
ROM
aze
bow
hew
hyl
mad
myr
olo
pre
▁0)
▁06
▁4]
▁8%
▁OR
▁PR
▁ah
agay
brev
holm
ikip
ilst
izzy
kele
laus
ourg
ride
ubak
ubes
▁(50
▁121
▁237
▁255
▁27%
▁288
▁420
▁97%
▁ABC
▁DoS
▁Gar
▁PAK
▁RGP
▁Rod
▁SDR
▁Tor
▁chi
▁dus
▁ole
▁rut
backs
ectin
isfit
odesy
ostat
shirt
ungle
which
▁0,95
▁Girl
▁Home
▁Kark
▁Karm
▁Sand
▁True
▁arab
▁atam
▁ausp
▁bake
▁cuts
▁gene
▁panc
Energy
abekov
atyana
imatic
iotics
lantic
porate
robion
▁Hence
▁Kabib
▁Karab
▁Krasn
▁SCADA
▁Shall
▁alibi
▁cabin
▁conin
▁flask
▁hills
▁intim
▁risen
▁spoon
▁toast
▁verbs
Belarus
embourg
ismatic
▁Amount
▁Centre
▁Credit
▁Define
▁Guests
▁Hirosh
▁Marika
▁Presid
▁Sergei
▁Turgai
▁bubble
▁dispat
▁diving
▁impede
▁jungle
▁nightm
▁optics
▁staged
▁thesis
▁waiter
aspberry
ikipedia
products
specific
▁Defines
▁Heating
▁Holland
▁Karasai
▁Ospanov
▁adheres
▁anytime
▁awkward
▁cabbage
▁cations
▁couples
▁disrupt
▁haircut
▁illumin
▁listens
▁movable
▁outlets
▁outputs
▁pockets
▁polygon
▁privile
▁sixteen
▁tokayev
▁watered
Hungarian
sectional
▁Movement
▁Strength
▁antennas
▁arrogant
▁attorney
▁entitled
▁forgiven
▁granting
▁inaccess
▁inconven
▁infected
▁knitting
▁metering
▁replaces
▁selenium
▁wherever
mechanical
positional
▁2011-2020
▁2017-2021
▁Otherwise
▁Territory
▁advertise
▁analytics
▁bookstore
▁curvature
▁forbidden
▁mangistau
▁miserable
▁populated
▁realistic
▁revealing
▁sergeants
structuring
▁Exhibition
▁Multimedia
▁collateral
▁convincing
▁countrymen
▁cybercrime
▁deficiency
▁detachment
▁elaborated
▁equestrian
▁extractive
▁possession
▁purposeful
▁refraction
▁transistor
▁unpleasant
Fundamentals
professional
▁Kaztransoil
▁Specialists
▁assignments
▁competences
▁distributor
▁interpreter
▁readmission
▁substations
modernization
▁Agribusiness
▁contaminants
▁contemporary
▁ethnographic
▁pathological
▁uncontrolled
▁probabilistic
▁thermonuclear
▁hydrogeological
Be
GB
GR
sa
-1,
900
EAR
ISO
aba
akt
dam
kat
oli
pes
ryn
tub
two
yev
▁09
▁AF
▁Iv
▁Jo
▁Ke
▁Ma
▁Mn
▁Nr
▁PA
▁SU
▁Ta
This
axis
berd
egov
gers
ivar
main
omod
otes
uter
wait
worm
ytes
▁(16
▁0.7
▁2%.
▁3%,
▁310
▁5%.
▁540
▁98%
▁Bro
▁CES
▁Cop
▁HIV
▁IEE
▁Kob
▁Rub
▁Sav
▁avo
▁muk
2050.
China
adows
assic
borns
etaev
incre
otion
riest
silic
▁0,82
▁0,85
▁1941
▁Cart
▁Cuba
▁Duma
▁Hels
▁IEEE
▁Link
▁Milk
▁Tien
▁[17]
▁alum
▁arid
▁craw
▁cure
▁dirt
▁neat
▁stew
▁ward
Russia
asures
botnik
charge
enosis
imming
incoln
issors
kaznex
rapped
redict
spring
ungite
ureauc
▁1991,
▁Audit
▁Chern
▁Fiber
▁Force
▁Guess
▁Learn
▁Obama
▁Ocean
▁Sound
▁Tools
▁Trust
▁appet
▁askar
▁aspir
▁cared
▁doses
▁harsh
▁inlet
▁melon
▁nails
▁nanob
▁paral
▁queen
▁radar
▁seeks
▁shave
▁sword
▁trash
▁uzbek
▁vocal
ductors
healthy
izhanov
orgalzh
osphate
parents
technic
thening
▁ArcGIS
▁Cement
▁Growth
▁Kordai
▁Multip
▁Summer
▁academ
▁bitten
▁greedy
▁horror
▁impair
▁lifted
▁microf
▁radial
▁refine
▁ribbon
▁saline
▁sorrow
▁surviv
▁symmet
▁talgat
▁throat
atalytic
igraphic
ogenesis
ophistic
▁Akishev
▁Applied
▁Johnson
▁Journal
▁PROCESS
▁Persons
▁Proceed
▁acetate
▁amnesty
▁apology
▁arsenal
▁beliefs
▁capture
▁equated
▁islands
▁longest
▁modeled
▁pasture
▁pianist
▁popcorn
▁pushing
▁regards
▁regimes
▁restric
▁roadway
▁slowing
▁spilled
▁thermoc
▁tightly
Chemistry
equipment
kilometer
magambets
▁Budapest
▁Lagrange
▁Portugal
▁attacker
▁auspices
▁deserved
▁faithful
▁homeless
▁magnetod
▁ontology
▁peroxide
▁protects
▁rainfall
▁roadside
▁striking
▁symphony
▁syndrome
▁tensions
▁Automated
▁Countries
▁Initially
▁Provision
▁Typically
▁antitrust
▁cellphone
▁criminals
▁diatomite
▁generates
▁mesophile
▁physician
▁subbotnik
▁testifies
▁Conclusion
▁Kelimbetov
▁Luxembourg
▁accidental
▁accomplish
▁asymmetric
▁deliveries
▁depositors
▁excursions
▁favourable
▁flashlight
▁indigenous
▁intangible
▁peroxidase
▁persistent
▁phosphates
▁pronounced
▁refractory
▁regulators
▁stimulates
▁whiteboard
technologies
▁Stepnogorsk
▁competitors
▁encouraging
▁inspiration
▁populations
▁simulations
▁Metrological
▁fingerprints
▁hospitalized
▁humanization
▁motivational
▁photographic
▁polarization
▁purposefully
▁shareholders
▁southwestern
▁specializing
▁spectrometry
▁watercourses
▁Concentration
▁Establishment
▁granulometric
▁restructuring
▁centralization
▁humidification
▁hydrogenerator
▁Characteristics
▁plenipotentiary
▁representations
56
84
DC
GE
MB
Sm
Uk
pm
1.3
2),
ACT
ALC
ARS
Res
bps
exc
gab
giz
ois
oma
rug
sid
thy
umi
wan
zer
▁ML
▁PV
▁ku
▁yu
YSIS
asts
aver
beks
egal
feed
ican
ilon
itim
orov
rank
rick
urol
urse
whel
▁0.8
▁330
▁720
▁8.5
▁Boz
▁PAC
▁Pub
▁Tit
▁Vit
▁bom
▁fax
▁lig
▁ppm
Japan
arked
forms
geons
hthal
omics
oplas
oseph
ranch
rites
ulfur
usive
value
▁0,87
▁Amel
▁Asyl
▁Bash
▁CALC
▁Fail
▁Grab
▁Hang
▁Magn
▁Manu
▁Peru
▁Shol
▁Ways
▁[18]
▁bind
▁bish
▁flir
▁font
▁mega
▁oecd
▁olig
▁ruin
▁thes
Golden
aksyly
amburg
arithm
estion
ichlet
ickets
rances
vector
▁100%.
▁1992.
▁Brief
▁Color
▁Delph
▁Hotel
▁Lower
▁Pract
▁Speak
▁Steel
▁Video
▁Works
▁alert
▁aston
▁attic
▁clink
▁cooks
▁dealt
▁dilig
▁drone
▁fatig
▁gloss
▁reaff
▁royal
▁tempt
▁trail
▁wanna
Iranian
balance
rasound
rencies
▁Forest
▁Jewish
▁Reduce
▁Remote
▁Scheme
▁Travel
▁Weight
▁arrays
▁grains
▁insect
▁ladies
▁modest
▁photol
▁primem
▁reader
▁scalar
▁shirts
▁shores
▁skinny
▁solids
▁spider
▁statue
▁sunset
▁unreal
▁welded
agaliyev
ographed
periodic
▁Bahrain
▁aquatic
▁collaps
▁compile
▁congest
▁gallery
▁granite
▁intoxic
▁lattice
▁learner
▁mammals
▁manages
▁penalty
▁polyhed
▁regrets
▁revenge
▁spiders
▁surfact
▁testify
▁travels
▁viewers
▁weaving
istically
▁ANALYSIS
▁Einstein
▁Ethiopia
▁Forecast
▁Graphics
▁Kassymov
▁Suddenly
▁acquires
▁crucible
▁harmless
▁impurity
▁newborns
▁oncology
▁optional
▁overwhel
▁polluted
▁promptly
▁punctual
▁releases
▁scissors
▁spraying
▁sturgeon
▁tolerate
▁toxicity
▁variance
▁wildlife
cyclopedia
generation
regulation
technology
▁Framework
▁Interface
▁Radiation
▁bandwidth
▁basically
▁contacted
▁cryptocur
▁disclosed
▁encounter
▁foreigner
▁kokshetau
▁macromole
▁neglected
▁recipient
▁sculpture
▁spreading
▁talkative
▁twentieth
omechanical
roysberbank
▁Geological
▁Kairbekova
▁astronauts
▁autogenous
▁dispensary
▁elliptical
▁estimating
▁frustrated
▁inevitable
▁practition
▁predictive
▁remarkable
▁stabilizer
▁stretching
▁terrorists
▁watermelon
ophisticated
▁Legislation
▁Lossertales
▁earthquakes
▁expositions
▁interrupted
▁millionaire
▁proficiency
▁suppression
▁undeveloped
effectiveness
▁cryptography
▁fundamentals
▁hydrothermal
▁similarities
▁Participation
▁normalization
▁philosophical
▁primeminister
▁pronunciation
▁trilingualism
▁discrimination
▁geoinformation
▁liberalization
▁photosynthesis
▁semiconductors
0)
PN
PR
Pr
TB
zi
-14
.),
1),
6.9
Akt
Arm
GAN
HEM
PON
Tal
ads
aoz
kyu
ols
rar
▁"[
▁ET
▁Je
▁OH
▁Ry
▁mb
▁si
akat
atas
cers
efte
mann
sers
size
stau
▁(0)
▁156
▁159
▁162
▁166
▁186
▁20.
▁203
▁325
▁4.6
▁430
▁440
▁5.3
▁Aid
▁Aqu
▁Buy
▁Fif
▁Flu
▁Mic
▁Mun
▁NGO
▁Rog
▁Rys
▁Tun
▁[12
▁bru
▁ecl
▁jar
▁kal
▁ktz
▁obl
▁rye
▁sau
UTION
basar
etova
glass
ieval
irmed
metov
opter
psych
rones
stone
tered
▁(16)
▁(199
▁0,89
▁Ages
▁Area
▁Bait
▁Bekt
▁Cats
▁Malt
▁Nano
▁Rich
▁Rout
▁Shin
▁Zhub
▁[20]
▁athe
▁aval
▁eman
▁flot
▁glue
▁knit
▁subt
▁toss
-2050:
consum
etings
liable
mukhan
naires
ocracy
rehens
skills
usable
weapon
▁1998,
▁2006.
▁Apple
▁Dhabi
▁Jones
▁Kanat
▁Nodes
▁Noise
▁Seoul
▁USING
▁Visit
▁alleg
▁biore
▁boats
▁cloth
▁compr
▁fried
▁gunsh
▁needy
▁races
▁serik
▁slide
▁stove
▁waved
▁whisp
atively
channel
conduct
connect
ialogue
natural
ogether
ropical
silicon
without
▁Alumin
▁Liquid
▁Market
▁Person
▁Sensor
▁Though
▁assure
▁banned
▁curved
▁heroic
▁inexha
▁lining
▁monkey
▁patron
▁sketch
▁spongy
▁synerg
▁tattoo
▁themes
baiterek
communic
ivariate
▁Cossack
▁Daniyar
▁Express
▁Lincoln
▁Smoking
▁applaud
▁beating
▁bounded
▁chopped
▁console
▁divides
▁fathers
▁grammat
▁honesty
▁logging
▁olympic
▁pouring
▁reconna
▁scandal
▁slipped
cientious
orgalzhyn
terrorist
▁Brussels
▁Drilling
▁Festival
▁ceramics
▁chapters
▁cracking
▁depicted
▁deployed
▁detained
▁evenings
▁exploded
▁hopeless
▁ignoring
▁instinct
▁interrog
▁landmark
▁platinum
▁quarters
▁railroad
▁reinvest
▁settling
▁symptoms
▁touching
▁vanadium
▁videocon
management
▁2014-2016
▁Important
▁Macedonia
▁Marketing
▁Nutrition
▁Providing
▁Secondary
▁collapsed
▁confessed
▁cucumbers
▁educators
▁exclusion
▁gardening
▁influenza
▁irritated
▁liquidity
▁locations
▁modifying
▁nanotubes
▁statesman
▁undergoes
▁whispered
appropriate
▁2015-2016,
▁2015-2019,
▁Memorandum
▁Prevention
▁Transition
▁convective
▁devastated
▁journalism
▁mysterious
▁peacefully
▁prevalence
▁recordings
▁refractive
▁separating
▁vegetarian
▁conventions
▁emphasizing
▁forthcoming
▁invitations
▁mountainous
▁polynomials
▁secretaries
▁terrestrial
international
▁Metropolitan
▁facilitation
▁hydrological
▁illumination
▁photographed
▁popularizing
▁unsuccessful
▁championships
▁conscientious
▁inexhaustible
▁intersections
▁mineralogical
▁modifications
▁Transportation
▁reconnaissance
▁reorganization
52
83
93
Ab
Ra
UM
iu
ww
-24
Not
Who
cos
lay
obo
oda
▁CC
▁CT
Ital
That
They
Tube
amas
arev
aser
atan
base
date
eing
idae
ipov
lesh
ogic
prob
rade
stop
ucks
uffs
ulak
▁","
▁(17
▁1).
▁141
▁238
▁3-5
▁43%
▁5.1
▁5.4
▁5.8
▁Ale
▁Fre
▁GIS
▁Kat
▁Mes
▁Rap
▁Uly
▁bee
▁cit
▁lex
▁rip
▁yer
Trans
ailed
anded
azard
ctory
ighed
losed
pharm
press
ropyl
▁25%,
▁Anat
▁Clin
▁Hall
▁Hero
▁Ibra
▁Mort
▁NaCl
▁Oral
▁bald
▁biot
▁cant
▁cord
▁extr
▁fats
▁jams
▁judo
▁lane
▁limb
▁nick
▁oval
▁pots
▁stun
alieva
amount
anched
aranth
copper
entric
famous
ievich
logram
▁1993,
▁1997,
▁2000,
▁Build
▁Glory
▁Kuryk
▁Petri
▁Shard
▁TEACH
▁Tests
▁angel
▁antib
▁autot
▁beans
▁birch
▁bolat
▁calor
▁denom
▁diver
▁feeds
▁galax
▁juris
▁ladle
▁loser
▁manus
▁puppy
▁renov
▁rides
▁unmar
▁verge
Healthy
ametric
azhilis
dispers
gencies
holding
naments
rolysis
▁Albert
▁Amazon
▁Course
▁Degree
▁Fisher
▁Fourth
▁Talgar
▁airbus
▁argued
▁babies
▁boiled
▁canned
▁chrome
▁consul
▁convex
▁cookie
▁devote
▁eighty
▁france
▁hydrom
▁leased
▁luxury
▁nauryz
▁phoned
▁punish
▁purple
▁recomb
▁runway
▁storms
▁syntax
▁traged
▁transm
▁trusts
▁undoub
▁vacant
▁verbal
▁yelled
carboxyl
vernight
▁Belgian
▁Describ
▁Morocco
▁Storage
▁accepts
▁caspian
▁desktop
▁emerged
▁emotion
▁evident
▁hurting
▁illiter
▁loyalty
▁numeric
▁percept
▁quarrel
▁relying
▁screens
▁spinach
▁tremend
▁varying
according
aksylykov
endrobion
onometric
▁Estonian
▁Official
▁Parallel
▁Property
▁Starting
▁accessed
▁atameken
▁bailiffs
▁costumes
▁dissolve
▁gulshara
▁idrissov
▁lowering
▁manually
▁matching
▁meanings
▁medieval
▁metadata
▁mustache
▁peptides
▁philanth
▁proceeds
▁resonant
▁sympathy
▁totality
sufficient
▁Functions
▁Generally
▁Geography
▁Insurance
▁Sagadiyev
▁Solutions
▁Venezuela
▁briefcase
▁campaigns
▁cellulose
▁compacted
▁consulate
▁detention
▁directory
▁expresses
▁forefront
▁guardians
▁historian
▁insoluble
▁instantly
▁metallurg
▁penetrate
▁pragmatic
▁quarterly
▁redistrib
▁reimburse
▁unmarried
▁witnesses
Informatics
▁Assistance
▁Biological
▁Continuous
▁extracting
▁maximizing
▁practicing
▁sandwiches
▁stimulants
▁symbolizes
▁CALCULATION
▁Governments
▁INFORMATICS
▁Lianyungang
▁accumulator
▁approximate
▁classifying
▁embankments
▁operability
▁predominant
▁versatility
▁Availability
▁Geographical
▁arrangements
▁distributors
▁periodically
▁amplification
▁personalities
▁disappointment
▁geographically
▁multicomponent
▁neutralization
▁democratization
Ba
If
Oh
TK
-13
1.1
ATE
Rep
She
VII
bic
big
eem
iri
mot
pow
uki
zha
▁//
▁BA
▁GR
▁Uz
▁Vi
▁cn
▁ia
▁mW
-600
:00.
ador
amel
chem
coin
ilot
isef
lors
moon
ondo
oyyn
plus
rapy
shev
tein
▁0.5
▁05%
▁133
▁176
▁189
▁2.0
▁236
▁24%
▁6-8
▁6.3
▁640
▁Akh
▁Bag
▁Bio
▁CNN
▁Cat
▁Han
▁Ile
▁Lav
▁Mos
▁SEM
▁Sid
▁Tam
▁Tro
▁Yak
▁Yas
▁dys
▁eru
▁lou
▁rug
▁sab
▁une
-2000
arbek
atisf
getic
impro
labor
month
skoye
▁0,30
▁0,32
▁0,35
▁1,00
▁4000
▁Arsh
▁Bund
▁Chen
▁Dear
▁Deep
▁Drop
▁Norm
▁OECD
▁Rate
▁Shav
▁Star
▁Taro
▁epic
▁hers
▁mold
▁murd
▁pits
▁trad
▁wink
Center
acting
cation
cycles
inance
insula
lamide
omatic
ooling
ricane
rophot
usions
ybayev
▁2021,
▁Ahmed
▁Cisco
▁Elena
▁Heavy
▁Leban
▁Marsh
▁Pharm
▁Rural
▁disgu
▁dizzy
▁humus
▁infot
▁lacks
▁megac
▁oscil
▁prism
▁slave
▁wasps
▁worms
akorgan
bitumen
iritual
isation
program
▁Amelia
▁Bakhyt
▁Stream
▁Tokaev
▁affine
▁aliyev
▁amends
▁cables
▁cherry
▁dishon
▁garlic
▁header
▁hunter
▁misfit
▁perpet
▁prejud
▁rotten
▁schema
▁traces
▁upgrad
graduate
ineering
metallic
rational
shipment
udgetary
▁Correct
▁Tatyana
▁YouTube
▁audited
▁catalog
▁dresses
▁dynasty
▁ellipse
▁english
▁fatigue
▁fighter
▁fitting
▁implies
▁ophthal
▁refusal
▁subrout
▁synonym
▁tactics
▁typhoon
▁warrior
ederation
oneliness
▁Helsinki
▁Interest
▁Portland
▁Positive
▁STUDENTS
▁Thousand
▁addicted
▁akhmetov
▁alcohols
▁amaranth
▁blocking
▁defender
▁discoura
▁elliptic
▁genetics
▁improper
▁licensed
▁metallic
▁monomers
▁monopoly
▁notified
▁ornament
▁pandemic
▁reactive
▁shortest
▁sulphate
▁temporal
▁traveler
Sagintayev
competence
▁2016-2017
▁2016-2018
▁Calculate
▁Dirichlet
▁Efficient
▁Elemental
▁Migration
▁Passenger
▁Presidium
▁Wikipedia
▁addiction
▁anonymous
▁astronomy
▁carpenter
▁discarded
▁emanating
▁flotation
▁fortunate
▁ignorance
▁logarithm
▁overnight
▁pressures
▁prolonged
▁provinces
▁recession
▁strengths
▁therapist
▁toponymic
▁uniformly
▁Confidence
▁Conversion
▁Generation
▁JavaScript
▁blockchain
▁contingent
▁cumulative
▁floodplain
▁innovators
▁reactivity
▁topography
▁ultrasound
humanitarian
registration
▁Chelyabinsk
▁Secretariat
▁competently
▁ingredients
▁playgrounds
▁predictions
▁resolutions
▁summarizing
▁synergistic
technological
▁TECHNOLOGIES
▁antagonistic
▁celebrations
▁facilitating
▁grandparents
▁interactions
▁southeastern
▁spirituality
▁Investigation
▁communicating
▁inappropriate
▁electrification
05
9)
Cd
Na
OM
Sp
VM
ye
-23
-35
3.5
USA
ele
has
lox
mus
okk
rac
sed
ulu
▁8-
▁AV
▁FS
▁HC
▁HV
▁Mi
▁Ns
▁PL
▁SK
▁eb
▁lg
Aust
abay
amic
cker
isha
iyaz
iyoy
llor
mult
name
nial
oard
onov
poly
ueen
zhas
▁142
▁169
▁172
▁19%
▁208
▁216
▁254
▁290
▁4%,
▁4.7
▁480
▁Abs
▁Dub
▁Jur
▁KCl
▁KHA
▁LMS
▁Ltd
▁Nar
▁Pip
▁Pow
▁Roy
▁[5-
▁akk
▁kan
▁kap
▁phd
▁sev
▁sir
▁sko
▁spy
▁tap
-2013
ardon
artak
ayeva
icate
idine
ieves
ifice
inger
itant
legal
payer
separ
tedly
ullin
wheel
▁0,28
▁0,90
▁1100
▁40%,
▁Auth
▁Back
▁Cell
▁Cold
▁Film
▁GANs
▁Lack
▁Lect
▁Moon
▁Sher
▁Uran
▁WWII
▁Wave
▁Wire
▁[19]
▁[56]
▁asyl
▁barg
▁bull
▁cafe
▁chol
▁cube
▁drag
▁epis
▁fork
▁gymn
▁maid
▁odor
▁pant
▁pige
▁snee
▁tant
▁toug
-2050,
Kazyna
atican
boards
chrome
dehyde
dollar
ergies
headed
hesive
ibbean
iyarov
iyoyev
lanbek
losing
ractal
rators
zholov
▁100%,
▁2021.
▁ACTIV
▁Almat
▁Bragg
▁Goods
▁Layer
▁Shows
▁Urban
▁brace
▁flush
▁footh
▁frank
▁korea
▁mound
▁piggy
▁rigid
▁scarf
▁scrap
▁slows
▁thumb
▁viral
akasova
athetic
climate
embayev
entials
izontal
keletal
olymers
onomous
ourcing
purpose
▁2020).
▁Abayev
▁Diplom
▁Markov
▁Martin
▁Merkel
▁Noting
▁Rustem
▁Stress
▁buffer
▁closes
▁delays
▁dumped
▁faiths
▁impart
▁kazsat
▁margin
▁prayer
▁pursue
▁refere
▁scores
▁semant
▁sympos
▁tomato
▁treats
cellular
ensation
kerchief
mathemat
ogenetic
omonosov
sembayev
stations
▁Century
▁Geology
▁Senegal
▁amusing
▁bureauc
▁curtain
▁discrep
▁editors
▁evasion
▁existed
▁fellows
▁implant
▁isolate
▁kazakhs
▁lobster
▁massifs
▁milking
▁milling
▁painter
▁picking
▁proving
▁pulling
▁punched
▁replied
▁ringing
▁tragedy
▁trigger
conscious
criterion
financing
▁Defender
▁Division
▁Nowadays
▁Phosphor
▁adequacy
▁cadastre
▁deprived
▁dreaming
▁eighteen
▁explores
▁flooring
▁glaciers
▁hesitate
▁inspired
▁legalize
▁lifetime
▁olympiad
▁portrait
▁secretly
▁subgroup
▁superior
▁taxpayer
▁theorems
▁variants
▁2010-2014
▁2015-2025
▁Determine
▁Kapchagai
▁Metrology
▁Raspberry
▁Treatment
▁absorbing
▁allocates
▁attentive
▁beginners
▁butterfly
▁dissatisf
▁duplicate
▁invisible
▁rejection
▁responded
▁retention
▁typically
▁unpredict
▁violinist
mukhambetov
▁Ashimbayev
▁Jaksybekov
▁Majilismen
▁activating
▁congestion
▁loneliness
▁millennium
▁relocation
romechanical
▁federations
▁instructors
▁potentially
▁shareholder
▁translators
▁undoubtedly
▁Subsequently
▁handkerchief
▁metalworking
▁documentaries
▁intellectuals
▁photographers
▁polyelectroly
▁socialization
▁transshipment
▁underestimate
▁chromatographic
CR
PT
SL
Sy
vo
yc
-2-
ACE
Did
but
idy
itt
jar
kub
oba
run
urd
www
yon
▁8)
▁FL
▁Lu
▁PU
▁SM
▁TH
▁Vy
▁kv
▁kw
▁ni
ENCE
Road
acqu
ania
cons
disc
ente
igan
lave
lift
lite
mash
oder
oven
star
wall
wind
▁(25
▁1,3
▁2,0
▁205
▁235
▁265
▁28%
▁6-7
▁7.1
▁7.2
▁802
▁9.5
▁960
▁Alm
▁Cyr
▁Hen
▁Hol
▁Ker
▁Kir
▁LCD
▁Los
▁Mov
▁RDF
▁Rab
▁aef
▁kdb
▁rac
Asian
alley
aozen
apons
culos
darya
enite
eshov
exper
gener
gment
holds
imony
ittal
izard
izure
odies
orsky
ourse
style
uartz
uvial
▁1600
▁1800
▁Balk
▁Born
▁Fill
▁Foot
▁Load
▁Matt
▁Path
▁Perm
▁Pred
▁Prob
▁Rock
▁Shim
▁Shui
▁Wake
▁Wide
▁adds
▁ahco
▁bart
▁byte
▁clic
▁dict
▁eleg
▁fist
▁fled
▁hats
▁hubs
▁keen
▁mile
▁situ
▁sore
▁uiid
▁worm
▁wors
actics
ampere
edical
gently
otherm
scient
stanai
strong
▁2003,
▁2004,
▁Adobe
▁Buudb
▁Kurch
▁Proof
▁centr
▁dwell
▁endoc
▁flies
▁gates
▁hered
▁homet
▁manif
▁poles
▁reper
▁seams
▁skate
▁slabs
▁spicy
▁spray
▁suits
▁swims
▁swore
circuit
iophene
located
oyynkum
reasury
sighted
stanbek
ursynov
village
▁10-11,
▁20,000
▁Columb
▁Consul
▁Normal
▁Sample
▁Volter
▁Zerend
▁acetic
▁beings
▁bowels
▁colony
▁consec
▁debris
▁essays
▁german
▁gossip
▁lasers
▁plural
▁poland
▁priest
▁puzzle
▁ridges
▁tribes
▁tumors
▁washes
altitude
omorphic
▁Balapan
▁Cabinet
▁Darkhan
▁Erbolat
▁Failure
▁Peoples
▁Reading
▁copying
▁dissert
▁ferrite
▁fiction
▁flowing
▁geodesy
▁glanced
▁heroism
▁hitting
▁hydroly
▁mosquit
▁neoplas
▁oxidant
▁scaling
▁scolded
▁seventy
▁simpler
▁suburbs
▁telecom
▁trainee
▁wording
▁Alliance
▁Document
▁Dynamics
▁Karmaksh
▁Networks
▁Opportun
▁Pressure
▁Progress
▁Reducing
▁Syrdarya
▁appetite
▁baseline
▁beverage
▁conveyed
▁creature
▁curtains
▁exporter
▁flushing
▁folklore
▁globally
▁gorgeous
▁hometown
▁kostanay
▁melodies
▁remotely
▁reserved
▁sensible
▁traditim
▁2016-2019
▁Detection
▁Hopefully
▁Olympiads
▁Principle
▁Thousands
▁bachelors
▁benchmark
▁briquette
▁invariant
▁presently
▁registers
▁regretted
▁separator
▁sociology
▁surrender
▁sustained
▁undefined
▁Combustion
▁Poroshenko
▁TECHNOLOGY
▁applicable
▁assemblies
▁automating
▁beekeeping
▁belongings
▁classrooms
▁critically
▁dedication
▁discharges
▁disgusting
▁fruitfully
▁harvesters
▁megacities
▁supporters
▁undertaken
culoskeletal
▁Enterprises
▁Zhumangarin
▁accelerates
▁aerodynamic
▁aggravation
▁complements
▁consequence
▁constitutes
▁meritocracy
▁resignation
▁symmetrical
▁sympathetic
▁vacationers
▁inaccessible
▁inauguration
▁introductory
▁segmentation
▁chromatograph
▁sophisticated
▁chromatography
▁impoverishment
▁microstructure
▁interconnection
96
?!
BG
Ca
Re
Sw
TR
kb
oT
si
yu
za
"),
-45
120
7.4
Aff
dal
ela
hot
isu
lak
oko
oug
ouv
squ
▁1/
▁La
▁RE
▁VK
▁au
▁iv
▁ms
-150
Cent
Made
West
acon
agat
aido
alks
anie
ansk
heva
igin
keep
lane
ocal
oupe
ovsk
ruit
site
ukov
wave
▁1%.
▁1,6
▁167
▁171
▁177
▁191
▁244
▁315
▁4-6
▁460
▁47%
▁470
▁6.6
▁99%
▁Aim
▁Aul
▁Beg
▁DLP
▁FBI
▁Gib
▁Gur
▁Heb
▁Kim
▁Kor
▁Ont
▁Rom
▁Ros
▁SEC
▁Six
▁Tig
▁WDM
▁Zar
▁bud
▁cyt
▁dan
▁dar
▁dot
▁erg
▁gay
▁gor
▁kam
▁lun
▁sto
akrab
ansky
areto
ceans
enzhe
ettes
image
makov
omart
pulse
steps
tiyar
vedev
▁15%.
▁1993
▁8-10
▁Acid
▁Chan
▁Damu
▁Much
▁Need
▁Size
▁Tole
▁Uigh
▁Ulba
▁aver
▁brom
▁dend
▁dens
▁gods
▁haun
▁kios
▁mere
▁myrz
▁raid
▁skip
▁slog
▁wand
Crisis
French
alzhar
bances
believ
celain
design
ellite
inants
inning
ixture
ounced
skirts
walled
worthy
▁12:00
▁25-30
▁Benef
▁Buddh
▁Chrom
▁Clear
▁Kazan
▁Marie
▁Ratio
▁Relev
▁STUDY
▁Volga
▁Zhark
▁aging
▁anhyd
▁ankle
▁ballo
▁devil
▁dilap
▁globe
▁india
▁lover
▁polys
▁posed
▁rocky
▁sting
-2050,"
IZATION
bearing
ekeshev
elihood
ethanol
general
geology
iencies
iferous
ificent
ilinear
respect
ymbetov
▁206110
▁Anyone
▁Choose
▁Danish
▁Laurie
▁MATHEM
▁Mustaf
▁Palest
▁Physic
▁Sheikh
▁Symbol
▁audits
▁balcon
▁chased
▁cyclic
▁dauren
▁elbasy
▁escort
▁fusion
▁geomet
▁kidney
▁louder
▁meadow
▁needle
▁notify
▁novice
▁phonon
▁prayed
▁redund
▁relies
▁rubles
▁slices
▁slowed
▁sultan
▁tasted
▁thrust
▁warmer
activity
akrabart
erennial
idelines
personal
printing
ritorial
services
▁Charles
▁Crimean
▁Explain
▁Karimov
▁Kuandyk
▁Luckily
▁Shalkar
▁Tickets
▁Vatican
▁acrylic
▁amylose
▁analogy
▁astroph
▁battles
▁candles
▁carpets
▁cheeses
▁clarity
▁cleaner
▁decides
▁destiny
▁ejected
▁excuses
▁filming
▁flashes
▁fragile
▁intoler
▁kazagro
▁letting
▁manuals
▁monovol
▁paralle
▁retriev
▁scenery
▁sponges
▁teenage
▁texting
▁thunder
▁viruses
▁warrant
Ukrainian
divisions
producing
transport
ventional
▁Capacity
▁Domestic
▁Hospital
▁auditing
▁creators
▁flirting
▁formulae
▁gestures
▁imprison
▁incompet
▁maturity
▁outlines
▁registry
▁unaccept
▁urgently
Affordable
functional
▁2015-2017
▁2017-2019
▁Combating
▁Community
▁Developed
▁Direction
▁Directors
▁Jordanian
▁Kapshagai
▁Orchestra
▁Reporting
▁adventure
▁balancing
▁concludes
▁declaring
▁demanding
▁dormitory
▁energetic
▁federated
▁metabolic
▁optimally
▁resembles
▁sagadiyev
▁stressful
▁struggled
▁sulphates
ophytophage
▁Addressing
▁azerbaijan
▁distracted
▁likelihood
▁microflora
▁playground
▁quarantine
▁unfinished
▁unreliable
▁weaknesses
construction
▁Determining
▁compartment
▁determinant
▁enhancement
▁evaluations
▁financially
▁magnificent
▁monopolists
▁remembering
▁selectivity
▁spectrophot
▁Installation
▁Ratification
▁alternatives
▁deliberately
▁disconnected
▁electrolytes
▁prescription
▁sequentially
▁systemically
▁translations
▁unacceptable
▁Computational
▁differentiate
▁hydrodynamics
▁metallurgists
ilstroysberbank
▁multiplication
▁Congratulations
▁musculoskeletal
▁transplantation
EB
Li
TE
Zr
oS
-16
1.2
Aty
ZhK
afe
ekw
hik
sch
sco
ums
▁(-
▁1;
▁3]
▁BR
▁KB
▁NH
▁PE
▁Tb
▁xi
RUCT
URES
abag
adan
adex
adze
alia
azed
chik
esar
esco
etra
ichi
know
note
obia
roil
sary
xial
▁0.1
▁11%
▁161
▁2).
▁20-
▁229
▁234
▁245
▁248
▁275
▁5.7
▁6%.
▁6.2
▁93%
▁ASP
▁Ain
▁Ali
▁DAT
▁Dim
▁EFB
▁EFF
▁Emp
▁Foc
▁IMP
▁Ion
▁Kay
▁Rud
▁SIM
▁SMS
▁Syn
▁Syz
▁Tak
▁Tex
▁Tob
▁Wow
▁aug
▁ppp
▁sip
-1000
-2010
ading
agric
amira
andex
araly
aters
avail
axial
birth
borne
dinov
erbel
estag
filov
graph
great
hetti
ilisi
isine
islav
kenov
maker
nefte
noise
oglob
osene
ostim
reeze
third
ugeot
urial
utsal
ygurt
▁(18)
▁0,91
▁0,93
▁1,23
▁1090
▁15%,
▁1700
▁2040
▁Bern
▁Game
▁Half
▁Hokk
▁Insp
▁Kosh
▁LEDs
▁Mbps
▁Monu
▁Nurg
▁Sent
▁Sino
▁VIII
▁Yere
▁[1]:
▁chev
▁flue
▁malf
▁oily
▁torn
▁yurt
aganak
atomic
edient
herapy
iduous
illity
ophone
rorism
stones
stream
▁Carlo
▁Denis
▁Famil
▁Girls
▁Upper
▁Zhold
▁abras
▁accus
▁acord
▁amine
▁bunch
▁fungi
▁latin
▁locks
▁loops
▁maker
▁moody
▁sauce
▁steak
▁ultra
▁unint
Khorgos
complex
ekwondo
illiant
otation
ranking
umption
▁Accept
▁Daulet
▁Guinea
▁Hawaii
▁Kairat
▁League
▁Living
▁Module
▁Mutual
▁Plasma
▁Points
▁Shieli
▁Speech
▁Steppe
▁Valery
▁Vasily
▁Victor
▁abbrev
▁aboard
▁aliens
▁badges
▁blonde
▁carved
▁costly
▁demuls
▁elders
▁fierce
▁foster
▁fulfil
▁gladly
▁marble
▁merged
▁nodded
▁pepper
▁plains
▁scarce
▁slides
▁torque
▁tricks
artakiad
capacity
curement
invasive
lopectin
security
ymebayev
▁Ancient
▁Contact
▁Frankly
▁MathCAD
▁Senator
▁Shavkat
▁Silicon
▁Success
▁Weapons
▁alikhan
▁assumes
▁bubbles
▁clinker
▁concret
▁convene
▁cuisine
▁dislike
▁editing
▁forgave
▁grazing
▁integer
▁legumes
▁modulus
▁newborn
▁outdoor
▁posters
▁renewed
▁reperto
▁seizure
▁suffers
▁torture
▁visitor
▁worship
▁wrapped
President
ictionary
parabolic
▁Baimenov
▁Elements
▁Hokkaido
▁Improved
▁Manufact
▁Personal
▁Problems
▁Yesilsky
▁backward
▁biofuels
▁carbides
▁chickens
▁deciding
▁diffract
▁drowning
▁inherent
▁literate
▁morality
▁murderer
▁orbitals
▁pursuing
▁quarries
▁recycled
▁resistor
▁rigidity
▁scarcity
▁staffing
▁terrific
▁troubled
▁unbeliev
Belarusian
investment
▁Bundestag
▁Caribbean
▁Landscape
▁Pollution
▁Residents
▁cadastral
▁courtyard
▁detectors
▁diameters
▁ekibastuz
▁elsewhere
▁footsteps
▁inherited
▁irrespons
▁laureates
▁logically
▁magnetron
▁mentality
▁mushrooms
▁obstetric
▁performer
▁preferred
▁privately
▁receivers
▁rectifier
▁scratches
▁societies
▁stretched
▁targeting
▁unwilling
neighbourly
▁Accounting
▁Apparently
▁Commercial
▁Determines
▁Encryption
▁Resistance
▁accountant
▁copolymers
▁correcting
▁courageous
▁demolished
▁forgetting
▁initiators
▁liquidated
▁refinement
▁respectful
▁supportive
▁Alternative
▁EDUCATIONAL
▁anisotropic
▁discouraged
▁dismantling
▁fluorescent
▁macroscopic
▁ontological
▁permanently
▁rheological
▁spectacular
▁stabilizers
▁technogenic
▁Championship
▁compensating
▁electrocardi
▁fluorescence
▁inscriptions
▁multivariate
▁polymetallic
▁tranquillity
▁transmitters
▁workstations
▁unpredictable
▁capitalization
'.
?)
MT
NH
%).
45.
ASE
ICE
ICT
STM
bak
elt
gue
joy
kap
kdb
nia
oca
olt
sar
six
tax
▁6-
▁6]
▁BM
▁HA
▁Ib
▁KA
▁Kt
▁LA
▁Sl
▁Ze
▁tv
-10]
.0%.
Data
VIEW
adyr
agne
alum
aque
ayan
calc
data
elli
iche
list
onse
prov
reet
ubat
uilt
ykov
yrov
▁(60
▁0.2
▁143
▁218
▁226
▁257
▁285
▁304
▁32%
▁375
▁5.6
▁6.1
▁860
▁Ayd
▁Ban
▁CST
▁End
▁Gor
▁Ill
▁LAN
▁Ott
▁PhD
▁Ric
▁USE
▁Vic
▁Wil
▁alm
▁iid
▁mln
▁muc
-2022
ATIVE
arium
atted
cuits
eosat
eptic
esity
hanbe
idate
ignal
irsco
isual
ittle
lower
mbets
ocins
ostok
since
waste
▁10.5
▁15-2
▁2,58
▁80%.
▁Alim
▁Baid
▁Beis
▁Coll
▁Eliz
▁Expl
▁FORM
▁Hund
▁Jean
▁Kara
▁Makh
▁Sadv
▁Tian
▁Uses
▁Zhak
▁[21]
▁audi
▁cans
▁dash
▁deer
▁ekyu
▁hipp
▁kick
▁rode
▁seal
▁stir
▁styl
▁tiny
▁yell
ective
etwork
figure
iaxial
imedes
irable
ituted
laimed
loidal
ontent
ranean
riarch
rymbek
uganov
upport
▁1994,
▁4,000
▁Above
▁Ahmet
▁Ashyk
▁Betty
▁Crypt
▁Death
▁Early
▁Glass
▁Honey
▁Irish
▁Limit
▁Lingu
▁Psych
▁Pulse
▁Susan
▁Tower
▁Users
▁Zhans
▁[11-1
▁affil
▁antiv
▁cease
▁fails
▁float
▁handy
▁nurly
▁relic
▁repos
▁ruled
▁spark
▁tajik
▁trump
▁wrist
▁xenon
aghetti
dynamic
ections
eliness
opolies
orphism
orption
ostress
playing
stantin
trained
ullayev
unaigas
▁Abdras
▁Akimat
▁Always
▁Border
▁Colomb
▁Delphi
▁Ethics
▁Forget
▁Hebrew
▁Native
▁Resear
▁Reserv
▁Tables
▁Valley
▁builds
▁coarse
▁diodes
▁extrab
▁ferrom
▁hiring
▁magate
▁mentor
▁offend
▁parach
▁prince
▁pulmon
▁rested
▁rhythm
▁roller
▁rumors
▁sweets
▁temple
▁unlock
▁victor
▁virgin
▁weighs
Republic
acheslav
distance
irmation
▁1941-19
▁Iceland
▁MathCad
▁Mission
▁Nurzhan
▁Organic
▁Polymer
▁balcony
▁burglar
▁conquer
▁counted
▁crirsco
▁decrees
▁eclipse
▁feather
▁feedlot
▁lateral
▁lexical
▁literal
▁locally
▁offense
▁peanuts
▁rabbits
▁reacted
▁refuses
▁regener
▁sellers
▁shrines
akrabarti
▁Activity
▁Criteria
▁Medvedev
▁Operator
▁Received
▁Textbook
▁analysts
▁balances
▁belonged
▁cardinal
▁centroid
▁coherent
▁coughing
▁deserted
▁embarked
▁fairness
▁journals
▁labeling
▁overtime
▁photomod
▁recorder
▁refriger
Government
employment
▁2011-2015
▁Atambayev
▁Lomonosov
▁Mongolian
▁Nauryzbay
▁abundance
▁assisting
▁borrowing
▁commented
▁confusing
▁deciduous
▁didactics
▁dismissal
▁drawbacks
▁employing
▁exploring
▁favorably
▁formulate
▁honeymoon
▁immersion
▁kidnapped
▁offspring
▁pathology
▁proactive
▁projector
▁reporters
▁sacrifice
▁sidewalks
▁souvenirs
▁syntactic
▁thesaurus
ontological
▁Autonomous
▁Korgalzhyn
▁Monopolies
▁Zhasuzakov
▁adsorbents
▁archeology
▁cardiology
▁disturbing
▁graduating
▁monovoltin
▁privatized
▁repertoire
▁simulators
▁subroutine
▁subsystems
▁thoughtful
▁tremendous
▁uzbekistan
▁Declaration
▁Proceedings
▁Recognition
▁compensated
▁consecutive
▁contactless
▁convergence
▁designation
▁geolocation
▁grammatical
▁impregnated
▁photography
▁predictable
▁reluctantly
▁sanatoriums
▁supplements
▁accelerators
▁artificially
▁chlorination
▁disturbances
▁electrolytic
▁malignancies
▁neighbouring
▁northeastern
▁psychologist
▁vaccinations
▁commissioners
▁complications
▁disconnection
▁recombination
▁reimbursement
▁spectrometers
▁stratigraphic
▁extrabudgetary
▁nanostructures
▁questionnaires
▁unconventional
▁unsatisfactory
▁classifications
▁computerization
▁inconsistencies
▁technologically
FA
GL
LS
OD
Up
gl
1.8
150
3.2
8.4
ENS
ERM
HEO
Hon
Imp
avi
duk
fee
gal
hin
kes
meg
neg
ori
var
vin
▁".
▁BP
▁CE
▁Ho
▁MA
▁NT
▁RO
▁Sa
▁ay
▁la
ABLE
DUCT
GOST
Plan
Stud
Test
agul
arts
asan
asis
aulo
bell
cuff
erde
icit
idal
ione
park
rena
rors
uber
vity
zero
▁(1/
▁(12
▁(23
▁(42
▁(70
▁-4-
▁0.9
▁01%
▁1,8
▁21%
▁214
▁283
▁293
▁30-
▁48%
▁680
▁7%.
▁780
▁8.6
▁911
▁Bog
▁EEO
▁IMF
▁MyS
▁Naz
▁SED
▁Sah
▁Tel
▁UAT
▁amm
▁ded
▁dub
▁keV
▁paj
▁rud
▁sue
▁xxi
,000.
.7%),
ILITY
agrom
ambul
amond
andin
anule
azhol
energ
ensky
erate
evsky
hield
isans
kubas
large
lated
liest
rophe
stick
urate
▁(1),
▁0,33
▁0,96
▁1,19
▁60%,
▁60%.
▁70%,
▁Aidu
▁Anth
▁Blum
▁Dogs
▁Gran
▁Grid
▁Jews
▁Name
▁Nura
▁Page
▁Pick
▁Sars
▁Scot
▁Shah
▁Sure
▁Upon
▁[24]
▁[5].
▁abai
▁aksu
▁bump
▁cyan
▁deck
▁dyed
▁horm
▁hosp
▁isop
▁jerk
▁nets
▁numb
▁ozon
▁rupt
▁sank
▁sher
▁sits
▁tune
▁whis
Atyrau
Method
alling
angeld
atable
enbaev
ernary
length
linked
nickel
roller
rovsky
single
sticks
yright
yshlak
▁1.1%,
▁10-11
▁1999,
▁Gengh
▁Gibbs
▁Later
▁Logic
▁Place
▁Runge
▁Socio
▁Throw
▁Voice
▁accru
▁await
▁chron
▁comic
▁desks
▁disas
▁disob
▁dubai
▁irrep
▁minus
▁overc
▁serum
▁skull
▁tiles
▁whale
abergen
ambayev
chanics
gration
inction
olithic
otional
pectral
racting
student
yrbekov
yrissov
▁2019).
▁Askhat
▁Desert
▁Device
▁Excess
▁Houses
▁Joseph
▁Kuwait
▁Observ
▁Rakhim
▁Saving
▁Seyful
▁Source
▁Taiwan
▁absurd
▁acclim
▁acoust
▁akorda
▁caviar
▁copied
▁cranes
▁deprec
▁depths
▁drones
▁flakes
▁futsal
▁giants
▁halved
▁kairat
▁laughs
▁melody
▁merger
▁molten
▁moscow
▁orbits
▁purely
▁racket
▁recalc
▁relied
▁retros
▁seated
▁sleeve
▁slower
▁spices
▁suspic
▁tossed
Atameken
agnostic
aterials
critical
rupulous
ymmetric
▁Aktogai
▁Angeles
▁Arkalyk
▁Bakanas
▁Defence
▁METHODS
▁Mediter
▁Melanie
▁Parents
▁Payment
▁Subsoil
▁Thirdly
▁Yerevan
▁abolish
▁alumina
▁bargain
▁confess
▁deserts
▁durable
▁easiest
▁fantasy
▁invests
▁kazpost
▁mentors
▁monster
▁routine
▁shifted
▁thieves
▁tribute
▁tunnels
▁upgrade
▁variant
▁violate
alikhanov
chuchinsk
dependent
mukhanbet
paragraph
radiation
▁Beketaev
▁Benefits
▁Offenses
▁Whenever
▁carriage
▁consumes
▁delicate
▁diligent
▁epidemic
▁holistic
▁judgment
▁kerosene
▁latitude
▁minority
▁ophthalm
▁oxidizer
▁pathetic
▁peripher
▁revising
▁survival
▁thrilled
▁tracking
▁tropical
▁unifying
accharides
celeration
insulating
▁Cartesian
▁Europeans
▁Graphical
▁Intensive
▁Obtaining
▁Operating
▁Oxidation
▁Recommend
▁amendment
▁assurance
▁bacterial
▁breakdown
▁brilliant
▁companion
▁configure
▁exchanger
▁incubator
▁intervene
▁intuitive
▁kilometer
▁nightmare
▁olympiads
▁outskirts
▁paperwork
▁policemen
▁precision
▁prismatic
▁rectangle
▁shortened
▁smoothing
▁stateless
▁waterfall
competitive
electronics
▁2015-2016.
▁Dendrobion
▁Developing
▁Extraction
▁adjustable
▁carbonates
▁childbirth
▁discretion
▁encourages
▁mechanized
▁quantified
▁questioned
▁reflective
▁usefulness
▁validation
▁Fortunately
▁Recommended
▁Translation
▁Zhanakorgan
▁aggregation
▁capacitance
▁credentials
▁dilapidated
▁geochemical
▁graphically
▁hostilities
▁inheritance
▁intoxicated
▁motorcycles
▁suitability
▁worldskills
environmental
▁Conservation
▁antioxidants
▁dissertation
▁firefighters
▁interrupting
▁microclimate
▁polycarboxyl
▁transforming
rystallization
▁Mediterranean
▁Parliamentary
▁collaborative
▁complementary
▁correspondent
▁misunderstood
▁practitioners
▁Rehabilitation
▁mathematicians
02
BS
Gy
PE
bb
fi
rt
vi
-2,
9.6
ERT
Way
aga
cop
daq
hum
nut
osk
pit
rey
san
tai
zes
▁";
▁-1
▁AA
▁Au
▁HS
▁Mu
▁PK
▁RN
▁Zr
▁ae
▁ds
▁hi
▁iP
▁mi
-800
2017
Free
answ
ardo
asov
code
drop
egiy
give
heat
isia
itas
last
odka
ongo
oron
pher
pton
tyns
uick
ummy
when
ybal
▁"25
▁(00
▁15-
▁173
▁224
▁23%
▁247
▁38%
▁410
▁8%,
▁Had
▁Ide
▁Len
▁Nap
▁Occ
▁RAD
▁Sag
▁Sky
▁Tag
▁Ton
▁ary
▁axi
▁cod
▁eeu
▁nep
▁osp
▁rav
▁upt
▁uro
.5%),
.8%),
.9%),
Green
acial
arden
cloud
digit
engir
equal
ernet
gered
illic
local
model
oodle
orite
oslav
overs
resis
rings
tally
tyrar
unity
▁1.2%
▁1950
▁2024
▁25%.
▁40%.
▁5725
▁Bell
▁Belt
▁Case
▁Dise
▁Feed
▁Jeff
▁Khal
▁LoRa
▁Meat
▁Oryn
▁Prop
▁Rayy
▁Repe
▁Salt
▁Snow
▁ZHEO
▁alex
▁apps
▁dock
▁empt
▁fict
▁fits
▁icao
▁plat
▁smes
▁swam
▁tint
▁vest
▁yuan
Indust
asimov
corbic
ervice
ethoxy
galiev
icides
lining
makers
mbayev
osilic
pieces
romtau
sector
teenth
▁0.6%,
▁0.7%,
▁1.3%,
▁2022,
▁3.4%,
▁70-80
▁Break
▁Claus
▁Funds
▁Gradu
▁Julia
▁Kokre
▁Liber
▁Morph
▁Solov
▁Speed
▁Sulph
▁Suzak
▁afric
▁alpha
▁anuar
▁baton
▁boxer
▁chalk
▁charm
▁crank
▁embod
▁gland
▁harms
▁hepat
▁hypoc
▁lever
▁mitig
▁nanom
▁nodal
▁peers
▁pixel
▁renal
▁retro
▁timur
▁urine
▁utter
▁windy
aikazan
ikhanov
inative
markets
oglobin
oscopic
warming
▁Actual
▁Akzhar
▁Chance
▁Cities
▁Denote
▁Filter
▁Prince
▁Supply
▁Timely
▁Uighur
▁amused
▁antiqu
▁ballot
▁cockro
▁condom
▁cosmet
▁damper
▁deduct
▁dragon
▁fasten
▁folder
▁glycol
▁handic
▁harbor
▁hemisp
▁insert
▁league
▁magist
▁oceans
▁packet
▁praise
▁refund
▁revive
▁soviet
▁spinal
▁throne
▁traded
▁upload
▁warmth
▁wounds
analysis
exchange
hemistry
menistan
mountain
shevroil
▁100,000
▁Andatpa
▁Bitcoin
▁Ecuador
▁Kuanysh
▁Kurmang
▁Message
▁Private
▁Shukeev
▁Spatial
▁Subject
▁avoided
▁balloon
▁ballots
▁brushed
▁chooses
▁crosses
▁dancers
▁dealers
▁fencing
▁granule
▁haunted
▁hybrids
▁insured
▁layered
▁massage
▁nitrite
▁optimum
▁origins
▁pajamas
▁paramed
▁peugeot
▁pollute
▁protons
▁pyromet
▁sarcast
▁shipped
▁showers
▁surfing
izational
lographic
olutional
▁2018-201
▁Clinical
▁Complete
▁Mortgage
▁Rayymbek
▁Senators
▁Slovenia
▁TEACHING
▁Thinking
▁Wireless
▁Zhubanov
▁advocate
▁airborne
▁auditory
▁cheapest
▁complies
▁donation
▁factions
▁fluoride
▁fortress
▁gardener
▁grandson
▁handcuff
▁hesitant
▁illusion
▁infinity
▁insulted
▁multiply
▁nickname
▁oralmans
▁outdoors
▁overload
▁pyramids
▁reusable
▁sacrific
▁skillful
▁slippery
▁soloists
▁upgraded
biological
▁Basically
▁Cambridge
▁Diffusion
▁Financing
▁Hydraulic
▁Petroleum
▁Valentine
▁actuators
▁compilers
▁depicting
▁discrimin
▁hurricane
▁impartial
▁incidents
▁inversion
▁kazenergy
▁legendary
▁motorized
▁neoplasms
▁notebooks
▁objection
▁perennial
▁pneumatic
▁premature
▁pyrolysis
▁realities
▁southwest
▁spaghetti
▁specifies
▁surprises
▁taekwondo
pedagogical
▁2014-2016,
▁2015-2019.
▁2016-2020.
▁Algorithms
▁Amanzholov
▁Determined
▁Dictionary
▁anticipate
▁autoterbel
▁biomedical
▁chemically
▁congresses
▁conscience
▁conscripts
▁continents
▁deductions
▁exceptions
▁harmonized
▁humiliated
▁impairment
▁infections
▁inhibitors
▁microphone
▁occupation
▁timeliness
▁windshield
▁witnessing
▁Deformation
▁Examination
▁Reliability
▁amylopectin
▁butterflies
▁consciously
▁discrepancy
▁diversified
▁duplication
▁objectivity
▁plantations
▁agrochemical
▁horizontally
▁Opportunities
▁conversations
▁denominations
▁impossibility
▁intersectoral
▁distinguishing
▁petrochemistry
▁thermodynamics
▁Physicochemical
▁internationally
▁vulnerabilities
1/
57
87
FD
bc
ez
ni
sn
-9]
1.9
7.6
ICI
Ind
Inf
Kap
Let
MPC
Mat
PAN
RON
ako
aky
dan
gos
gun
him
mud
rev
utt
▁AW
▁GN
▁PT
▁RC
▁SH
▁TG
▁VR
▁hu
▁ig
▁ll
▁yo
Comm
Comp
acet
adov
agus
amak
belt
ctic
efin
film
furt
ifer
keys
kins
mbet
nova
outs
rage
rhen
shan
such
usts
ylie
zhin
zhou
▁0.6
▁1):
▁1.0
▁149
▁2%,
▁2-4
▁2-5
▁233
▁25-
▁264
▁274
▁3%.
▁30.
▁33%
▁365
▁560
▁6.9
▁7.3
▁770
▁8.3
▁950
▁Ayt
▁Bos
▁Cad
▁Dig
▁ESP
▁Ger
▁Hom
▁IPS
▁Job
▁Lib
▁Luk
▁Ora
▁Ore
▁SSR
▁Sir
▁Som
▁awa
▁baa
▁cec
▁cem
▁gad
▁hij
▁mah
▁muh
▁rew
▁rou
▁sap
▁tul
▁tup
.6%).
Italy
World
Young
acies
adian
aline
amide
apper
arova
ashid
ataev
celer
ctane
iably
idual
inova
insic
ipers
ivial
ketch
lette
metal
oming
ortal
plate
raeli
ralia
study
tanov
tarov
video
▁0,23
▁0,29
▁1,01
▁1,04
▁1,14
▁12.5
▁70%.
▁Aksh
▁Asar
▁Elim
▁HTTP
▁Lucy
▁Mode
▁Zhig
▁[45]
▁arre
▁bold
▁bulb
▁chew
▁diph
▁dull
▁envy
▁epit
▁gend
▁gond
▁heir
▁lign
▁pens
▁prol
▁shed
▁subm
▁tone
Comput
People
achine
apsari
enters
eplace
geolog
ilevel
inburg
iosity
ippers
ispens
minute
obolev
oustic
plasma
roland
taaral
uating
ulsion
▁(2015
▁1.4%,
▁2003.
▁2005.
▁2015;
▁6,000
▁60-70
▁Aigul
▁Broad
▁Dream
▁Euler
▁Fight
▁Hyper
▁Oshak
▁Print
▁Roads
▁Separ
▁Shell
▁Texas
▁Veget
▁Wheat
▁aeros
▁alike
▁amuse
▁aquac
▁bibli
▁bonus
▁cliff
▁figur
▁flesh
▁guilt
▁icing
▁kegoc
▁maneu
▁picky
▁proxy
▁reuse
▁temir
▁wired
alcohol
angered
average
changes
emption
esterol
heating
ophobia
uggling
yryanov
▁Apache
▁Author
▁Bacter
▁Dinner
▁Greeks
▁Marine
▁Massim
▁Recent
▁Repair
▁Sharyn
▁Signal
▁Sketch
▁Troops
▁Venice
▁arisen
▁arouse
▁backed
▁broker
▁canada
▁disple
▁donors
▁emblem
▁glance
▁halide
▁jurisd
▁locker
▁misses
▁nasdaq
▁nephew
▁photoc
▁photod
▁pusher
▁ratify
▁rounds
▁shaved
▁spiral
▁troupe
cleaning
climatic
function
imebayev
ribution
temirtau
▁Atbasar
▁Centers
▁Consult
▁Defined
▁Drawing
▁Introdu
▁Promise
▁Publish
▁Ramadan
▁Uranium
▁Whether
▁Whoever
▁adilbek
▁annular
▁assimil
▁constan
▁counsel
▁dangers
▁daytime
▁exhibit
▁glazing
▁handled
▁indoors
▁legends
▁mailbox
▁pencils
▁portion
▁ranging
▁roaming
▁rupture
▁seasons
▁slavery
▁trailer
▁vietnam
▁weighed
▁Atlantic
▁Chapsari
▁Colombia
▁Creative
▁Investig
▁Jurassic
▁Moyynkum
▁agreeing
▁averages
▁bothered
▁bracelet
▁brighter
▁colonies
▁delegate
▁diagonal
▁expelled
▁flourish
▁forehead
▁fourthly
▁helpless
▁imagined
▁imangali
▁incorpor
▁initiate
▁kaztrans
▁kostanai
▁laughter
▁openings
▁reckless
▁severely
▁siblings
▁starving
▁tantalum
▁tetrahed
▁thankful
▁threaten
▁vaccines
▁welcomes
ispensable
scientific
▁2013-2014
▁Attention
▁Ayymbetov
▁Karkaraly
▁Vibration
▁acoustics
▁bordering
▁competing
▁complains
▁copyright
▁creatures
▁diagnosed
▁distorted
▁elephants
▁guitarist
▁hepatitis
▁imbalance
▁interacts
▁moderator
▁modernity
▁multiplex
▁northwest
▁offensive
▁parachute
▁polymeric
▁primitive
▁pronounce
▁renovated
▁sarcastic
▁semantics
▁separates
▁singapore
▁someplace
▁squirrels
▁stainless
▁sulphuric
▁symposium
▁templates
▁tightened
▁weakening
ethoxyethyl
lementation
territorial
▁2015-2017,
▁2016-2017,
▁Alpysbayev
▁Calculated
▁Christians
▁Mirziyoyev
▁Principles
▁Tuymebayev
▁carbonated
▁detonation
▁encounters
▁endangered
▁excellence
▁expiration
▁extinction
▁herbaceous
▁infinitely
▁oscillator
▁perfection
▁physicians
▁potentials
▁privileges
▁procession
▁publishers
▁sandstones
▁tajikistan
Construction
▁Kazmunaigaz
▁Specialized
▁Transformer
▁abstraction
▁accumulates
▁associative
▁beautifully
▁centimeters
▁classifiers
▁conditioner
▁contingents
▁corrections
▁descriptive
▁impractical
▁incompetent
▁logarithmic
▁prohibition
▁prospecting
▁revolutions
▁volunteered
▁Aimagambetov
▁Humanitarian
▁Organoleptic
▁appointments
▁catastrophic
▁enthusiastic
▁inefficiency
▁luminescence
▁methacrylate
▁personalized
▁subparagraph
▁technostress
▁Organizations
▁Strengthening
▁constructions
▁indispensable
▁interventions
▁waterproofing
▁Tengizshevroil
▁agglomerations
▁archaeologists
▁nanocomposites
▁thermoelectric
▁parliamentarian
BA
BD
BE
Dr
GI
KP
Ob
UG
UI
ZU
Zn
ci
ht
").
),"
-92
2.6
250
4),
8.3
978
Big
EGO
ENC
Reg
UAL
cat
deg
dle
flo
mem
mid
oni
pha
pop
pyr
rim
ths
▁"1
▁9)
▁AP
▁GC
▁PS
▁Ri
▁Sn
▁Ut
▁kJ
▁kN
▁mu
▁mw
▁tu
Educ
PORT
Shan
Zhab
acid
akim
amsh
ayed
azov
bies
boat
chak
idel
iser
lake
obyl
oped
rand
zier
▁(80
▁10)
▁187
▁217
▁219
▁3,5
▁36%
▁46%
▁520
▁54%
▁55%
▁7.7
▁78%
▁830
▁ACS
▁Aea
▁BAZ
▁DES
▁Flo
▁Isk
▁Jun
▁Kuz
▁Lee
▁MED
▁Sol
▁Sri
▁USB
▁ain
▁bik
▁cro
▁gyn
▁hen
▁iOS
▁idi
▁kGy
▁kzt
▁lam
▁lid
▁mak
▁mcm
▁nog
▁osm
▁ray
▁tan
-2012
Elect
White
absor
analy
arsak
ascal
asses
avian
color
ingly
inian
means
otene
ouple
peare
rahim
small
ukhov
ulati
vinyl
▁1,02
▁1,17
▁1930
▁Amir
▁Cosm
▁FeSi
▁Feel
▁Ford
▁Lisa
▁Mend
▁Node
▁Nurk
▁Pars
▁Pour
▁Rain
▁Sark
▁Shev
▁Site
▁Talk
▁Wild
▁Zhal
▁[1-2
▁aifc
▁bush
▁chim
▁cott
▁fart
▁glyc
▁gull
▁horn
▁mice
▁nury
▁pall
▁seaf
▁serb
▁stip
▁trol
-2015,
Aktobe
Polish
acious
esteem
ieving
infect
lector
marine
option
prints
reedom
roying
shagay
ulties
winter
▁(2014
▁10-12
▁2002,
▁7,000
▁Alban
▁Bloom
▁Chain
▁Cuban
▁Final
▁Karaz
▁Paper
▁Paulo
▁Royal
▁Saken
▁Times
▁armen
▁balne
▁fibre
▁fussy
▁gains
▁longe
▁molar
▁nasty
▁onset
▁penny
▁unden
▁vodka
▁weeds
Figures
Tokayev
abekova
aliyeva
caliber
egiyaev
ilisman
network
rection
stitute
ubarkol
written
▁Asanov
▁Biruni
▁Bodies
▁Impact
▁Instru
▁Lorent
▁Matrix
▁Mayuko
▁Memory
▁Moodle
▁Motion
▁Return
▁Sairam
▁Shakes
▁Tanaka
▁Zhunus
▁allied
▁assass
▁carcin
▁colder
▁combin
▁creepy
▁crowds
▁daulet
▁dosing
▁empire
▁enamel
▁fences
▁gadget
▁genres
▁inches
▁insist
▁ionite
▁landsl
▁meteor
▁phytoc
▁poster
▁pyrite
▁recult
▁ripped
▁rubble
▁saxaul
▁tamara
▁uneasy
▁verteb
▁virtue
appiness
aulbayev
bekovich
chloride
chlorite
eningrad
neftegaz
osphoric
platform
rometric
rophobic
▁Actions
▁Anatoly
▁Barakat
▁Classes
▁Density
▁Distrib
▁Dzungar
▁Forgive
▁LabVIEW
▁Meeting
▁Musinov
▁Philipp
▁Provide
▁Vicente
▁Voltage
▁Zhansug
▁arrears
▁babysit
▁behaved
▁biscuit
▁chilled
▁chromos
▁credits
▁densely
▁despise
▁digging
▁genomic
▁gondola
▁hostels
▁illicit
▁invites
▁lagging
▁lowland
▁markers
▁obesity
▁oversee
▁pillars
▁pledged
▁renting
▁rubella
▁sawdust
▁shaking
▁shaping
▁skipped
▁snoring
▁spreads
▁stunned
▁synergy
▁trumpet
Karaganda
geography
protected
▁Applying
▁Belgrade
▁Bolashak
▁Customer
▁Defining
▁Fredholm
▁Nitrogen
▁Panfilov
▁Relative
▁SOLUTION
▁Scotland
▁abrasive
▁alluvial
▁approves
▁assemble
▁assesses
▁barefoot
▁berdybek
▁browsers
▁compares
▁destabil
▁disclose
▁drafting
▁earrings
▁exempted
▁greening
▁humanism
▁immersed
▁interfer
▁isotopes
▁knocking
▁listener
▁marrying
▁mechanic
▁profound
▁reporter
▁searches
▁shipment
▁waitress
▁2016-2020
▁Available
▁Geometric
▁Peninsula
▁Specifies
▁Togzhanov
▁Universal
▁advancing
▁alignment
▁ambiguous
▁attacking
▁bartender
▁colloidal
▁colorless
▁counterfe
▁craftsmen
▁faculties
▁fisherman
▁hayfields
▁intrinsic
▁longevity
▁modulated
▁pathogens
▁photocell
▁ratifying
▁survivors
bersecurity
▁Chancellor
▁Collection
▁Indonesian
▁Inspection
▁Kazkontent
▁Previously
▁Vyacheslav
▁behavioral
▁bioreactor
▁compliment
▁demolition
▁destroying
▁detergents
▁discharged
▁displeased
▁disrespect
▁fiberglass
▁inaccurate
▁incubation
▁integrable
▁liberation
▁multilevel
▁neighbours
▁partitions
▁reaffirmed
▁repression
▁stationery
▁thermogram
mathematical
▁Investments
▁Operational
▁Procurement
▁Shakespeare
▁anticipated
▁compactness
▁containment
▁directorate
▁disseminate
▁distortions
▁equivalence
▁inscription
▁multiplying
▁periodicity
▁philanthrop
▁situational
▁surfactants
▁willingness
▁woodworking
International
Parliamentary
▁Consequently
▁Insufficient
▁accumulative
▁advantageous
▁complication
▁descriptions
▁investigator
▁multiplicity
▁postgraduate
▁predominance
▁strawberries
▁structurally
▁subdivisions
▁unscrupulous
▁Architectural
▁Biotechnology
▁distinguishes
▁mathematician
▁zoophytophage
▁Pharmaceutical
▁investigations
0-
1;
Se
mo
oi
-1-
-2)
-27
/10
1.7
145
2.2
2.8
3),
6.7
9.8
IDO
IEC
ORK
asu
aws
due
idi
lep
ono
owl
oya
sey
uns
▁2:
▁EP
▁EV
▁Ki
▁NK
▁Ok
▁[0
▁ik
▁vs
.0%,
:00,
Agro
Asia
ERAT
Open
Will
aine
arer
gate
girl
http
icef
ikpe
inok
ixle
magn
neft
odon
olas
opot
oric
tank
ttps
ucic
ycle
▁1),
▁1-4
▁12.
▁207
▁24-
▁242
▁26%
▁305
▁34%
▁50,
▁58%
▁580
▁6.7
▁7-8
▁9%,
▁CVD
▁DIS
▁Dry
▁Eeo
▁GMA
▁Gab
▁KTZ
▁Kud
▁Mix
▁NIP
▁PEO
▁Pic
▁SiC
▁Tay
▁Tle
▁Tol
▁Zen
▁[14
▁akb
▁ecc
▁gaz
▁hed
▁iii
▁ove
▁pad
▁rio
Whose
abeth
acerb
adequ
alone
anbai
beton
break
curve
earth
inson
itsky
lavic
llium
medic
ollah
rians
ucked
worth
ymova
▁1,06
▁10-4
▁1988
▁Airl
▁Akzh
▁Ampl
▁Anne
▁Camp
▁DATA
▁Days
▁Dest
▁Fast
▁Holy
▁Ilya
▁Kobe
▁Lean
▁MODE
▁Nurt
▁PHYS
▁PROF
▁Priv
▁SPEC
▁Stur
▁Synt
▁Tren
▁[67]
▁abay
▁ally
▁amer
▁arcs
▁brut
▁cane
▁canv
▁clog
▁coco
▁duck
▁fisu
▁hint
▁inks
▁nucl
▁prey
▁reed
▁rhiz
▁rods
▁ruth
▁slip
▁sock
▁temp
▁uter
▁yoga
UATION
affins
arable
desert
estial
estyle
format
handed
hexane
imetry
isters
master
passes
region
secure
thirty
timely
utable
vacuum
values
velous
verter
▁(1/3)
▁(2013
▁0.2%,
▁0.3%.
▁1,600
▁1.6%,
▁10:00
▁2,500
▁2.2%,
▁Balyk
▁Bread
▁Costa
▁Curve
▁Drink
▁Error
▁Event
▁Gener
▁Negot
▁Scott
▁[1-2]
▁alkyl
▁allox
▁berry
▁bless
▁cents
▁drums
▁embra
▁escal
▁fatal
▁knots
▁limbs
▁ninet
▁olive
▁resil
▁ruble
▁seals
▁shine
▁shrub
▁sushi
▁tales
▁tasty
▁unfor
▁yurts
Biology
English
bagatai
inistic
itching
ivalent
ophosph
ovisual
tourism
▁30,000
▁Better
▁COMPUT
▁Compos
▁Daniel
▁Hydrog
▁Otyrar
▁Period
▁Philip
▁Philos
▁Plants
▁Series
▁Sklyar
▁Target
▁Ustirt
▁Vector
▁acknow
▁barium
▁digest
▁dombra
▁esters
▁ethnop
▁gastro
▁grocer
▁honors
▁indoor
▁intrig
▁isomer
▁lyceum
▁median
▁petrol
▁pistol
▁psycho
▁racing
▁racist
▁slogan
▁snails
▁softly
▁turkic
▁upside
▁vapors
▁viewer
▁weaker
Computer
boarding
carrying
gankulov
imbayeva
judicial
muhammad
pectives
pressure
urations
urements
▁Achieve
▁Compare
▁Corresp
▁Dirixle
▁Display
▁Florida
▁Gazette
▁Guarant
▁Highway
▁Karatal
▁Khairov
▁Logical
▁Lorentz
▁Manager
▁Objects
▁Parties
▁Reduced
▁Savings
▁Sobolev
▁Symbols
▁Tourist
▁abdrakh
▁aerobic
▁aleurol
▁analyse
▁briefed
▁ceremon
▁depicts
▁enabled
▁endless
▁eurasia
▁hardest
▁imitate
▁indefin
▁lighter
▁magnets
▁mansion
▁nesting
▁outlook
▁packets
▁priorit
▁proudly
▁pumpkin
▁revital
▁salidat
▁scholar
▁shining
▁slammed
▁snowman
▁somehow
▁spoiled
▁springs
▁starved
▁thyroid
▁trapped
▁varnish
▁wanting
Institute
amytbekov
novations
ographics
sensitive
▁Anderson
▁Appendix
▁Buddhism
▁Doctoral
▁Dushanbe
▁Electron
▁Hundreds
▁Integral
▁Kazmedia
▁Kusainov
▁Location
▁Monetary
▁Oralmans
▁Practice
▁Railways
▁Variable
▁ambition
▁averaged
▁baurzhan
▁branched
▁brigades
▁carboxyl
▁clearing
▁colorful
▁compiler
▁contests
▁deported
▁diagnose
▁distinct
▁evolving
▁eyesight
▁happiest
▁hostages
▁mentally
▁nominate
▁politely
▁porosity
▁prescrib
▁radicals
▁reliably
▁roommate
▁roulette
▁silently
▁solvency
▁stimulus
▁surveyed
▁volcanic
Azerbaijan
especially
extraction
measurable
nigmatulin
othiophene
▁Adaulbaev
▁Bashmakov
▁Elections
▁Elizabeth
▁Francisco
▁Hiroshima
▁Leningrad
▁Pakistani
▁Terrorism
▁announcer
▁antivirus
▁applauded
▁autoclave
▁bioenergy
▁botanical
▁cancelled
▁cassation
▁champagne
▁coincided
▁consulted
▁curiosity
▁displaced
▁justifies
▁mediators
▁patronage
▁photosens
▁porcelain
▁presidium
▁publishes
▁silicosis
▁stressing
▁supporter
▁valuation
ogenization
ysiological
▁Adaptation
▁Arystanbek
▁Corruption
▁Literature
▁Mangyshlak
▁Systematic
▁animations
▁assistants
▁automakers
▁babysitter
▁chopsticks
▁coniferous
▁constructs
▁disconnect
▁ferrosilic
▁gymnastics
▁households
▁hypotheses
▁illiterate
▁indirectly
▁manuscript
▁maturation
▁minimizing
▁redemption
▁researches
▁respective
▁treatments
▁wheelchair
▁Correlation
▁Exploration
▁Zerendinsky
▁Zhaksylykov
▁Zhansugurov
▁accommodate
▁antibiotics
▁aquaculture
▁biomedicine
▁challenging
▁coagulation
▁conflicting
▁conjunction
▁electrician
▁incorrectly
▁intentional
▁interviewed
▁metabolites
▁projections
▁taldykorgan
▁trustworthy
probabilistic
▁Myrzagaliyev
▁carbonaceous
▁hypochlorite
▁magnetodiode
▁perspectives
▁phosphorites
▁regularities
▁combinatorial
▁knowledgeable
▁summarization
▁Congratulating
▁supercomputers
▁polyelectrolyte
,8
5;
BP
CL
FE
NF
NS
TH
],
bk
cs
hu
sl
2.3
2.4
3.3
3.6
8.8
CoV
FER
Lab
Nur
Our
Rel
Tar
UND
arg
asa
aux
emp
fit
gly
har
inn
iza
ktz
kur
len
mbh
pet
pol
soc
ysk
zin
▁3:
▁5]
▁9.
▁AU
▁DO
▁DU
▁Ha
▁LC
▁LV
▁MG
▁MK
▁ND
▁RF
▁SS
▁sa
▁xx
-11]
-199
-250
HOOL
Kore
UTZU
Ural
VIII
View
abar
arms
away
benz
bine
chat
chev
cycl
dump
elly
geny
held
heng
hyra
iere
iman
inde
ktzh
mith
obil
orus
phot
poss
pres
redu
ruce
sand
scar
sted
stom
suit
tmor
uang
unte
ympt
▁045
▁227
▁228
▁23.
▁24.
▁26.
▁268
▁298
▁414
▁441
▁6.4
▁6.8
▁630
▁8.9
▁Ata
▁CBR
▁CSS
▁DIG
▁Fat
▁Hus
▁Jer
▁Lis
▁MeV
▁Okh
▁Raw
▁Sha
▁TiO
▁amp
▁apt
▁arb
▁bum
▁env
▁gig
▁jan
▁kas
▁llp
▁spa
▁ted
▁wax
▁wig
▁zhu
.1%),
.2%).
IONAL
arbon
auran
eland
elong
ginov
icals
iline
ircon
jiang
marks
match
ouses
overe
paper
sider
solid
tarma
ulink
ultai
umann
users
▁1,05
▁14%,
▁1940
▁21-2
▁APCS
▁Adam
▁Bere
▁Dosm
▁EDTA
▁EHRs
▁Fair
▁Kiev
▁Ktzh
▁Kush
▁LEGO
▁Leon
▁Merc
▁Mind
▁NASA
▁NaOH
▁Oman
▁Pier
▁Prec
▁Pump
▁RSAs
▁SARS
▁Seit
▁Shay
▁Shok
▁Tule
▁Urum
▁Weak
▁Wear
▁Yass
▁Yumi
▁Zher
▁Zinc
▁Ziri
▁[25]
▁belo
▁bunk
▁cnpc
▁cong
▁fame
▁knot
▁narc
▁opto
▁orch
▁osce
▁perv
▁pisa
▁piss
▁rakh
▁succ
▁thou
▁yarn
alumin
ametov
arkand
ashing
aution
blocks
bridge
broken
credit
declar
ectors
ekater
ficial
intest
liquid
loving
orbent
otropy
silver
stract
stress
▁2.5%,
▁2001,
▁Absor
▁Advis
▁Athen
▁BASED
▁Birds
▁Click
▁Daily
▁Dairy
▁Front
▁Ishim
▁James
▁Lanka
▁Motor
▁Produ
▁TRACE
▁Tokai
▁UNIDO
▁Vital
▁antif
▁atten
▁autop
▁burnt
▁fined
▁flute
▁horns
▁maize
▁pound
▁shade
▁snack
▁taxis
▁unnot
-2050."
ATIONAL
amental
amiliar
contact
herence
ilitary
ophages
▁10-15%
▁Assign
▁Attack
▁Beineu
▁Caesar
▁Cheese
▁Factor
▁Humans
▁Kaskel
▁Macrom
▁Making
▁Manual
▁Metall
▁Pareto
▁Rashid
▁STRUCT
▁Wealth
▁abused
▁adapts
▁addict
▁armies
▁asphal
▁backup
▁banner
▁busier
▁ceased
▁clergy
▁cooler
▁cosmic
▁dipole
▁disgra
▁drafts
▁french
▁galvan
▁hermit
▁kassym
▁nadloc
▁neglig
▁plague
▁racial
▁resins
▁richer
▁rotors
▁runner
▁splend
▁sprink
▁thresh
▁toyota
▁unfort
▁unisef
▁winged
Japanese
Sultanov
aminated
chairman
dynamics
gettable
particip
prepared
▁Akbulak
▁Alcohol
▁Bashkir
▁Charter
▁Getting
▁Graphic
▁Lecture
▁Mapping
▁Setting
▁Tbilisi
▁Tonight
▁Typical
▁aspirin
▁berries
▁blushed
▁bothers
▁bullets
▁burikpe
▁caution
▁chewing
▁creator
▁deceive
▁deepest
▁doubles
▁drilled
▁dubious
▁exacerb
▁fainted
▁frontal
▁hamburg
▁handbag
▁headers
▁ingress
▁kuandyk
▁martial
▁metrics
▁molding
▁nursery
▁outflow
▁pursuit
▁rehabil
▁remarks
▁routing
▁sensory
▁teasing
▁tripled
▁twisted
▁wherein
accharide
akhmetova
economics
emotional
excluding
ographers
▁2007-200
▁Agencies
▁Communal
▁Cyrillic
▁Designed
▁Football
▁Jacksons
▁Mohammad
▁Multiple
▁SketchUp
▁Spectral
▁achieves
▁antimony
▁biscuits
▁catching
▁chairing
▁distrust
▁editions
▁encoding
▁grounded
▁gullible
▁impolite
▁infantry
▁medalist
▁objected
▁overseas
▁petition
▁postcard
▁regiment
▁renaming
▁restrain
▁shouting
▁shungite
▁sketches
▁souvenir
▁sulphide
▁trainers
▁untimely
Industrial
historical
intestinal
monitoring
rystalline
▁Argentine
▁Maktaaral
▁Objective
▁Personnel
▁Peruashev
▁Seyfullin
▁avalanche
▁brotherly
▁celestial
▁cognition
▁conquered
▁constants
▁countless
▁discontin
▁eccentric
▁enclosing
▁gardeners
▁groceries
▁importing
▁inhabited
▁intercity
▁paralysis
▁paramount
▁perimeter
▁saxophone
▁secretive
▁spreadshe
▁unnoticed
▁urbanized
▁usability
independent
▁Aitzhanova
▁Konstantin
▁certifying
▁hospitable
▁identifier
▁intestinal
▁issekeshev
▁mineralogy
▁mobilizing
▁multiplied
▁passionate
▁pharmacies
▁programmed
▁prototypes
▁reconsider
▁recovering
▁responding
▁thermostat
▁thresholds
▁undeniable
▁vaccinated
communicable
declarations
ekaterinburg
▁Baitursynov
▁Experiments
▁Sarsembayev
▁catastrophe
▁extractants
▁interchange
▁objectively
▁photoeffect
▁rectilinear
▁resourceful
▁specializes
▁sufficiency
▁unfortunate
otechnologies
▁ActionScript
▁Christianity
▁Institutions
▁Karachaganak
▁Relationship
▁accumulating
▁analytically
▁deficiencies
▁determinants
▁immeasurable
▁implantation
▁incompatible
▁inflationary
▁lithological
▁replenishing
▁supermarkets
▁turkmenistan
▁Consideration
▁disappearance
▁encapsulation
▁geoecological
▁inconvenience
▁proliferation
▁statistically
▁subsidization
▁trigonometric
▁vulnerability
▁configurations
▁mathematically
)"
3:
61
El
HK
To
nb
oj
wt
zd
-00
-28
-74
10]
2.7
350
6%)
ARI
ARY
Box
Mun
Sat
UNT
ahu
cap
fun
gem
hyt
ias
iva
phy
rie
rub
▁Ax
▁CU
▁Ep
▁Kr
▁LP
▁Od
▁SE
▁VT
▁WA
▁mM
▁xv
.6%)
Rise
arim
arsk
asic
emia
erne
etes
eton
fins
gali
izen
kaya
logy
nady
news
nuts
orto
othy
oved
ozem
rail
reck
reco
risk
riss
stit
ston
tail
tuce
ulan
umat
vili
zhen
▁1%,
▁181
▁2,7
▁253
▁301
▁308
▁322
▁337
▁345
▁487
▁510
▁660
▁670
▁7.6
▁72%
▁8.7
▁Dru
▁FBG
▁FDD
▁Fab
▁Gro
▁HAS
▁IBM
▁Jav
▁Lob
▁MAN
▁MAP
▁Nak
▁Ost
▁SVM
▁WHO
▁Yar
▁aib
▁eao
▁eut
▁gut
▁jum
▁nce
▁oak
▁sow
▁tig
▁tug
.2%),
.3%).
.4%).
.6%),
Organ
Techn
There
alloy
amila
appro
arial
arsky
asaki
aulen
aware
aysan
black
china
chrom
etery
guard
illar
inton
iotic
irrad
ismic
lemes
olean
omega
ozart
pherd
resin
total
ustic
utant
youth
▁(2),
▁0,24
▁0,31
▁0,92
▁0,99
▁1,12
▁10-3
▁1150
▁1400
▁17.5
▁1987
▁22-2
▁Ball
▁Blue
▁Dick
▁Flex
▁Gram
▁Imas
▁Made
▁Mans
▁Mont
▁Nice
▁OJSC
▁Prag
▁Roll
▁Unix
▁Volo
▁[22]
▁ador
▁bait
▁coil
▁curd
▁emer
▁fals
▁flav
▁hike
▁hood
▁horr
▁idle
▁inqu
▁kozh
▁morb
▁oats
▁owed
▁scra
▁sexy
▁toes
▁ulan
▁vine
-2020"
-2021,
ATICAL
Econom
France
Suleim
Zhabag
aevich
ciless
cology
degree
ecting
eteria
imbets
ivated
matory
mbekov
mental
methyl
mining
orship
ovable
points
screen
square
streng
tances
tariff
uilder
zharov
▁0.8%.
▁1.2%,
▁1.5%,
▁1.9%,
▁20-25
▁2015"
▁2050"
▁3.1%,
▁3.2%,
▁40-50
▁5.1%,
▁50-60
▁6:30.
▁Akims
▁Akkol
▁Anton
▁Arena
▁Award
▁Azilk
▁Carol
▁Enjoy
▁Exact
▁Flour
▁Focus
▁Goals
▁Input
▁Medeu
▁Monte
▁Pilot
▁Share
▁Stone
▁Sugar
▁Taras
▁[1-4]
▁ashes
▁bitch
▁bombs
▁botag
▁broch
▁chase
▁coron
▁disks
▁felds
▁georg
▁heels
▁https
▁ingen
▁italy
▁joins
▁jumps
▁melts
▁merid
▁monoc
▁mortg
▁overl
▁radii
▁rests
▁stink
▁tents
▁traps
▁tuple
▁vague
anbayev
ashakov
awaited
enozoic
ickness
irement
itating
ivities
lemesov
medical
mineral
omotive
optical
reading
rotechn
sembles
tration
ventory
▁Abylay
▁Alexei
▁Anshka
▁Berdim
▁Bezier
▁Bronze
▁Galile
▁Hybrid
▁Interv
▁KazNTU
▁Little
▁Medium
▁Orient
▁Portal
▁SCHOOL
▁Sahara
▁Sodium
▁Sooner
▁Transl
▁Trilon
▁Tulpar
▁aiming
▁anions
▁arrows
▁baibek
▁blames
▁blinds
▁bloody
▁calmly
▁cheeks
▁conjug
▁counts
▁disinf
▁dislik
▁faulty
▁karate
▁learnt
▁misuse
▁pedest
▁pellet
▁pledge
▁polyph
▁rapper
▁recept
▁smiles
▁socket
▁theirs
▁titles
▁typing
▁uptake
▁woolen
Baiterek
Balkhash
Chemical
adequate
ammation
arketing
azardous
district
eryllium
illonite
medicine
ognitive
oplastic
oretical
ormittal
steresis
tynsarin
▁Bangkok
▁Channel
▁Chechen
▁Devices
▁Dosmukh
▁Factors
▁Musical
▁Overall
▁Package
▁Release
▁Respons
▁Satpaev
▁Uniform
▁absorbs
▁armenia
▁biaxial
▁blaming
▁careers
▁centric
▁conceal
▁confuse
▁cruelty
▁denoted
▁dispose
▁elegant
▁enlarge
▁entries
▁fabrics
▁folding
▁hungary
▁inbound
▁infants
▁instill
▁integro
▁kidneys
▁laptops
▁lettuce
▁measles
▁mosques
▁motives
▁needles
▁plaster
▁platoon
▁recipes
▁referee
▁rotates
▁scoring
▁sludges
▁snipers
▁soybean
▁starter
▁suscept
▁toolbar
▁touches
▁wheeled
▁whoever
consuming
ferencing
ibullayev
molecular
president
secondary
structive
▁Absolute
▁Baidibek
▁Certific
▁Constant
▁Existing
▁Humidity
▁Imangali
▁Modified
▁Position
▁Possible
▁Rational
▁Selected
▁Tulkubas
▁actuator
▁agroland
▁ancestor
▁apparent
▁appendix
▁bloggers
▁classics
▁culinary
▁cuttings
▁disputed
▁excludes
▁fittings
▁fourteen
▁fulfills
▁headings
▁kazeosat
▁linearly
▁merchant
▁microbes
▁missiles
▁novelist
▁obsessed
▁opponent
▁phishing
▁pointing
▁predicts
▁premiere
▁printers
▁receipts
▁relaxing
▁sickness
▁sidewalk
▁squeezed
▁startled
▁troubles
▁truthful
▁weakened
▁yonsonic
individual
molybdenum
▁Atamkulov
▁Caucasian
▁Chernobyl
▁Describes
▁Karazhyra
▁Regarding
▁Relevance
▁Spiritual
▁Yelemesov
▁Zhanazhol
▁abolished
▁affection
▁arbitrary
▁asymptote
▁attractor
▁cafeteria
▁criticize
▁directing
▁disintegr
▁elaborate
▁extending
▁finalized
▁hardening
▁inductive
▁insulated
▁inventors
▁isotropic
▁malicious
▁merciless
▁minimized
▁monograph
▁morbidity
▁occupying
▁ozonation
▁preserves
▁referring
▁removable
▁reviewing
▁scratched
▁sharpness
▁signaling
▁streaming
▁threatens
▁tutorials
▁versatile
▁visualize
▁yellowish
demographic
▁Connection
▁Dimensions
▁Kazalinsky
▁Phosphorus
▁Resolution
▁Revolution
▁Shevchenko
▁Tarbagatai
▁complicate
▁constitute
▁deposition
▁descriptor
▁diagnosing
▁disappears
▁documented
▁exchangers
▁fascinated
▁incubators
▁lianyungan
▁objections
▁peripheral
▁persuasive
▁regularity
▁reimbursed
▁robustness
▁simulating
▁supervised
▁supervisor
▁traditimic
▁variations
Turkmenistan
confirmation
▁Kazmunaigas
▁Kazneftegaz
▁Mukhambetov
▁Philippines
▁Regulations
▁Researchers
▁Supervision
▁antioxidant
▁audiovisual
▁bishimbayev
▁cholesterol
▁comparisons
▁dialectical
▁eigenvalues
▁fascinating
▁malfunction
▁oscillogram
▁pedestrians
▁perceptions
▁refinancing
▁technicians
▁threatening
▁topological
▁tournaments
▁zhoshybayev
▁Coordinating
▁Presentation
▁Verification
▁cardiologist
▁encyclopedia
▁functionally
▁inflammation
▁interchanges
▁interpreting
▁jurisdiction
▁minimization
▁Thermodynamic
▁geomechanical
▁investigative
▁retrospective
▁revolutionary
▁spectroscopic
▁macromolecules
▁hospitalization
▁paleontological
▁polycarboxylate
Af
CI
FO
KA
MR
Mn
Mo
RF
TL
iq
mk
-05
-4-
-8]
1.4
20,
8.5
9.3
ADM
Bol
Dan
Dep
Don
Map
ORY
Sem
aui
blo
cul
ekt
hma
igu
nob
raf
sac
tag
teb
uke
you
▁([
▁BY
▁Da
▁Ek
▁GI
▁KR
▁MF
▁MR
▁NC
▁Og
▁Om
▁Pt
▁Zo
▁dx
▁ek
▁rk
-239
IFIC
ITAL
arkh
asia
asso
aton
atra
avod
burn
dala
efir
galy
ilik
inth
jban
lept
mets
mill
mode
omat
orse
rane
sein
stat
tled
ubar
uder
uery
wash
ylov
▁(29
▁11]
▁13.
▁16.
▁2,4
▁232
▁258
▁3,4
▁318
▁355
▁425
▁435
▁5.9
▁525
▁8-9
▁87%
▁9%.
▁ASS
▁Ath
▁Aug
▁CaO
▁CdS
▁DEC
▁Doc
▁Ert
▁Gel
▁Hal
▁IoT
▁Ket
▁Kus
▁Mul
▁NoS
▁Nys
▁PET
▁REM
▁TDM
▁TEM
▁Tat
▁Too
▁Ufa
▁Win
▁asc
▁fut
▁iCE
▁ios
▁kHz
▁kab
▁nik
▁ubh
-2007
First
Honor
IVERS
Logic
amkas
bakov
bauer
beans
bonds
ensis
eseed
gabat
ienko
iffel
kazyn
opers
ophos
ortic
otype
payev
raphy
talgo
tight
uling
undai
unken
uresh
▁0.7%
▁0000
▁1,08
▁1,09
▁1,15
▁1.5%
▁100-
▁13%,
▁13.1
▁14.5
▁2.9%
▁7-10
▁Body
▁Cher
▁CuCl
▁Diss
▁Dust
▁Laun
▁Marg
▁Mast
▁PEOU
▁Plot
▁Rust
▁SaaS
▁Saki
▁Shal
▁Sold
▁Tang
▁Viol
▁[5]:
▁[78]
▁anat
▁bend
▁bund
▁burd
▁clan
▁curb
▁emig
▁emit
▁fanc
▁frog
▁hack
▁hind
▁icon
▁kcal
▁lets
▁mour
▁oraz
▁para
▁pets
▁shah
▁slot
▁stem
▁tere
-2016"
-2050.
Korean
Samruk
amsung
appers
assing
aughty
bulent
course
determ
earson
enders
filled
gystau
manova
modern
olites
omical
phthal
scopes
umbled
usupov
vation
▁0.5%.
▁1.3%.
▁1995.
▁1996.
▁2.4%,
▁2.4%.
▁2.6%,
▁2022.
▁3.6%,
▁4,500
▁5.2%.
▁5.5%,
▁Areas
▁Arysk
▁ELECT
▁Fifth
▁Greco
▁Idris
▁Mongo
▁Niger
▁Occup
▁Offic
▁Price
▁Sarah
▁Vucic
▁Zerde
▁Zhety
▁[3-5]
▁[4-6]
▁allot
▁baths
▁belie
▁calib
▁canoe
▁clerk
▁cocoa
▁dolls
▁enact
▁erupt
▁fears
▁fools
▁franc
▁genes
▁genus
▁hemat
▁kefir
▁kilos
▁kilow
▁mustn
▁needn
▁nicer
▁occas
▁overd
▁parab
▁paran
▁paste
▁ponds
▁quart
▁quote
▁racks
▁reass
▁reeds
▁sagad
▁saudi
▁semic
▁talgo
▁wagon
▁waist
▁wives
Central
Private
Program
achenko
actical
amilton
angular
atogram
edagogy
entayev
estones
hydroxy
ivorous
outhern
ouville
planned
portion
sterdam
versely
▁Abylai
▁Asympt
▁Biogas
▁Branch
▁Cataly
▁Dariga
▁Depend
▁Editor
▁Famous
▁Ismail
▁Kalash
▁Kurban
▁Lojban
▁Madrid
▁Oracle
▁Oxygen
▁Prague
▁Samara
▁Sarysu
▁Shinzo
▁Sulfur
▁Twenty
▁Yandex
▁acuity
▁assert
▁avenue
▁blouse
▁brakes
▁bribes
▁canvas
▁christ
▁condem
▁deadly
▁freeze
▁inland
▁jewels
▁karach
▁korean
▁malays
▁marker
▁mortar
▁ninety
▁orthop
▁partly
▁payers
▁pirate
▁polish
▁ranged
▁reject
▁rubbed
▁screws
▁senses
▁shaped
▁strang
▁unjust
▁viewed
▁zircon
Internet
creative
herbayev
internal
neighbor
otrophic
paraffin
projects
question
reatment
stelecom
▁Analyst
▁Analyze
▁Artists
▁Balkash
▁Believe
▁Biology
▁Command
▁Creates
▁Diamond
▁Freedom
▁Friends
▁Genghis
▁Judging
▁Keyword
▁Knowing
▁Neumann
▁PROFESS
▁Protein
▁Regular
▁Schools
▁UNIVERS
▁Vitamin
▁alloyed
▁bathing
▁beloved
▁cargoes
▁confron
▁corrupt
▁debates
▁desires
▁droplet
▁endemic
▁expired
▁fucking
▁healing
▁hobbies
▁majored
▁martens
▁mistook
▁naughty
▁nozzles
▁overest
▁perfume
▁postage
▁praying
▁rainbow
▁removes
▁slapped
▁texture
▁tricked
▁whereas
▁whistle
qualified
retaceous
saturated
▁Airlines
▁Analyzer
▁COMPUTER
▁Combined
▁Croatian
▁Dusenova
▁Familiar
▁Geometry
▁Magnetic
▁Peculiar
▁Pipeline
▁Presence
▁Zhigalov
▁adorable
▁agitated
▁alloying
▁ascorbic
▁cemetery
▁childish
▁coloring
▁contours
▁cottages
▁cyclists
▁damaging
▁depended
▁disposed
▁doorbell
▁drawback
▁earliest
▁elevated
▁extremum
▁farewell
▁firewall
▁glorious
▁homesick
▁indexing
▁insights
▁inspires
▁keywords
▁miracles
▁modifier
▁numbered
▁obedient
▁oriental
▁outbound
▁overcame
▁pleasing
▁quitting
▁randomly
▁rapeseed
▁responds
▁ripening
▁shippers
▁splendid
▁suspects
▁unloaded
▁verified
▁weighted
▁wormwood
▁writings
components
omposition
parametric
regulating
▁Biometric
▁Corporate
▁Mechanics
▁Promotion
▁Saturdays
▁Shardarin
▁Similarly
▁accessing
▁audiences
▁backwards
▁cardboard
▁convening
▁disinfect
▁donations
▁entrances
▁evaluates
▁fireplace
▁fishermen
▁hermitage
▁inhibitor
▁mangystau
▁polyhedra
▁practiced
▁profiling
▁pyramidal
▁quadratic
▁reflexive
▁reputable
▁residency
▁simulator
▁terminate
▁virtually
combustible
oroethylene
▁Conducting
▁Geographic
▁Healthcare
▁Philosophy
▁anisotropy
▁bioethanol
▁blackboard
▁clinicians
▁courtyards
▁dependable
▁generalize
▁hemisphere
▁highlights
▁inadequate
▁inventions
▁obligatory
▁precaution
▁receptions
▁sculptures
▁skillfully
▁specifying
▁summarizes
▁terminated
▁travelling
▁unfriendly
▁worthwhile
▁Calibration
▁Christopher
▁Compression
▁Possibility
▁constituent
▁consumables
▁cytogenetic
▁dissipation
▁endothermic
▁ferrochrome
▁frustrating
▁geopolitics
▁interfacial
▁intolerance
▁millimeters
▁outsourcing
▁overwhelmed
▁photomodule
▁questioning
▁researching
▁restricting
▁tetrahedral
▁unrealistic
▁Disabilities
▁Fundamentals
▁MATHEMATICAL
▁Mukhamediuli
▁Negotiations
▁Philharmonic
▁Tasmagambets
▁burikpebeton
▁compensatory
▁conscription
▁deceleration
▁depreciation
▁designations
▁dissatisfied
▁exaggerating
▁journalistic
▁myrzakhmetov
▁philharmonic
▁polymorphism
▁unstructured
▁Confederation
▁Visualization
▁confrontation
▁contradictory
▁convolutional
▁decentralized
▁irresponsible
▁pediatricians
▁transmissions
▁methodologists
▁petrochemicals
▁Electromagnetic
/0
4;
EE
Ko
Mr
Ne
OF
OV
PA
jm
pH
rc
tv
.2.
011
160
25,
4%)
6.3
9.9
ANS
BIL
BOT
Ban
DER
GOR
IID
IPT
Man
One
Pet
Sec
agu
dor
edo
ffe
fia
gyn
hop
iii
kiy
kyo
nit
nox
orp
pur
ski
sto
tit
viv
xin
yms
zhe
▁":
▁AG
▁Eg
▁KK
▁MT
▁SW
▁TD
▁WS
▁iz
▁mV
▁ns
▁om
▁xn
-10-
-13]
NiFe
Zhas
acic
adeh
amal
asco
ashi
azev
cano
elet
enna
erpt
ften
icus
imen
inge
inna
iton
iyad
obot
oglu
omed
oons
past
pock
reek
rics
sche
stro
toed
utyl
vari
verb
▁(45
▁(90
▁(99
▁(?)
▁-20
▁0.4
▁1,7
▁14.
▁17.
▁2,8
▁222
▁223
▁25.
▁29%
▁29.
▁3-6
▁3.9
▁37%
▁45,
▁455
▁514
▁52%
▁53%
▁56%
▁615
▁74%
▁82%
▁88%
▁920
▁ACM
▁Asa
▁Bok
▁Box
▁Bus
▁CDs
▁Cot
▁DIF
▁Eli
▁Esk
▁Hin
▁Ign
▁Jen
▁Jum
▁Lew
▁MES
▁NLP
▁Num
▁OLT
▁PON
▁RAM
▁Sel
▁TFE
▁dav
▁dos
▁ger
▁kay
▁kmg
▁ode
▁pap
▁pud
-2006
Armen
Kadex
Latin
Taraz
aceae
achev
aints
altyn
armed
atesh
erved
inium
ipova
izhan
jamin
kulan
letes
letin
liter
mable
nergo
notes
ocard
ocond
ograv
osaur
ronch
there
ushev
▁(19)
▁0,20
▁0.3%
▁1.7%
▁18.5
▁1900
▁3,30
▁3.3%
▁3.5%
▁3300
▁3500
▁4,11
▁7:00
▁90%.
▁Alas
▁Buck
▁COUR
▁Dark
▁FEAT
▁Grap
▁Isab
▁Kham
▁Lock
▁Mari
▁Past
▁Pipe
▁Push
▁Riga
▁Role
▁Soon
▁Vent
▁Wall
▁Wast
▁Yeah
▁Zheo
▁Zhur
▁[2]:
▁adjo
▁anod
▁awak
▁beta
▁brew
▁brit
▁clue
▁eaeo
▁ebrd
▁echo
▁edit
▁gren
▁gyms
▁herd
▁inch
▁indu
▁mans
▁meta
▁muff
▁naph
▁peer
▁pile
▁prud
▁ripe
▁seaw
▁tray
▁vamp
▁verd
▁yogh
▁zhas
-2015.
GORITH
Modern
Moscow
OGICAL
akalov
appars
aratov
arkhoz
atalya
auresh
betova
etayev
except
ladesh
levant
linsky
lovkin
octane
omotor
otypes
outing
owners
pukhov
ractor
rowser
source
stuffs
unting
visual
writer
yellow
▁0.2%.
▁2000.
▁2007.
▁3,500
▁3.8%,
▁4.3%,
▁4.3%.
▁50001
▁6.8%,
▁Abdul
▁Antar
▁Bakir
▁Brian
▁Canal
▁Chair
▁Costs
▁Deleg
▁Ether
▁Irina
▁Karin
▁Laser
▁Looks
▁Marco
▁Often
▁Poles
▁Recep
▁Recre
▁Route
▁SMART
▁Sagad
▁Sales
▁Seven
▁Simpl
▁[1-5]
▁[2-4]
▁allev
▁aloud
▁apric
▁atlas
▁aubak
▁bacon
▁bowed
▁bribe
▁broom
▁cereb
▁cheat
▁coals
▁cries
▁drast
▁drift
▁exits
▁flaws
▁froze
▁grape
▁hilar
▁lacqu
▁lemma
▁login
▁nause
▁nitro
▁obnox
▁peach
▁pilgr
▁recur
▁remar
▁ropes
▁saint
▁shark
▁spoil
▁stair
▁syria
▁tokyo
▁torch
▁unify
▁whisk
▁wreck
-2020,"
DUCTION
Israeli
agulova
akovlev
azhanov
colored
elastic
erbolat
eworthy
fection
genital
hearted
ielding
irovich
kazagro
machine
obvious
polymer
rically
skilled
surgery
ykhanov
▁15-20%
▁Akhmed
▁Baybek
▁Betpak
▁Cambod
▁Edward
▁Estate
▁Hilton
▁Kenzhe
▁Pascal
▁Propos
▁Really
▁Summar
▁Tigran
▁Ulytau
▁Zhanar
▁allies
▁arabia
▁asthma
▁bumped
▁cowboy
▁donate
▁gaming
▁gossyp
▁inputs
▁inviol
▁kitten
▁margar
▁microm
▁noises
▁piston
▁remedy
▁repaid
▁router
▁safest
▁scenes
▁shaken
▁shubat
▁skelet
▁slaves
▁sliced
▁smokes
▁spills
▁traced
▁tribut
▁valued
▁varied
▁welder
▁wolves
Economic
Mathemat
Saryarka
ationing
inokurov
intellig
loporite
military
ortostan
osystems
ressible
software
southern
startups
▁Acceler
▁Anthrop
▁Burabai
▁Consent
▁Courage
▁Doctors
▁Eternal
▁Gazprom
▁Islands
▁KAZUTZU
▁Kabylie
▁Kazzinc
▁Ottoman
▁Removal
▁Saryark
▁Satybal
▁accrued
▁acquain
▁advises
▁aerosol
▁alloxan
▁annexes
▁atheist
▁bakauov
▁beaches
▁bonding
▁bromide
▁calorie
▁conical
▁cutters
▁darkhan
▁excerpt
▁expires
▁foundry
▁freaked
▁gearbox
▁grating
▁guiding
▁gunshot
▁handles
▁hunters
▁imposes
▁magical
▁maltose
▁meadows
▁monomer
▁neglect
▁offline
▁parcels
▁payback
▁peptide
▁pierced
▁pigeons
▁pigment
▁plotted
▁psychic
▁puzzles
▁routers
▁sagadat
▁secured
▁separat
▁smelled
▁spirits
▁strives
▁sunrise
▁trolley
▁volcano
Geography
itentiary
licensing
phthalate
represent
ughalzhar
▁ALGORITH
▁Anything
▁Aquamira
▁Aslanbek
▁Carrying
▁Choosing
▁Columbus
▁Dialogue
▁Drinking
▁Ethernet
▁FEATURES
▁Hardware
▁Khromtau
▁Lebanese
▁Politics
▁Printing
▁Residual
▁Sidorsky
▁Sorption
▁Zhanseit
▁advocacy
▁anionite
▁auctions
▁birtanov
▁bisector
▁bolashak
▁decorate
▁dressing
▁endocrin
▁equalize
▁ethnoaul
▁excitons
▁fabulous
▁feathers
▁finishes
▁firewood
▁galaxies
▁inhibits
▁polished
▁prompted
▁rhizomes
▁rhythmic
▁scanners
▁soybeans
▁speeding
▁steering
▁toponymy
▁trustees
▁worsened
exhibition
friendship
generating
irradiated
reditation
▁Comparing
▁Documents
▁Generator
▁Indicates
▁Schematic
▁airfields
▁attitudes
▁augmented
▁brightest
▁bypassing
▁commended
▁completes
▁densities
▁dishonest
▁enriching
▁ensembles
▁executing
▁forgetful
▁genuinely
▁hexagonal
▁hilarious
▁imitation
▁immovable
▁instincts
▁integrals
▁machining
▁meanwhile
▁mortgages
▁obnoxious
▁parasitic
▁patiently
▁pervasive
▁pheromone
▁phosphine
▁propagate
▁recruited
▁rendering
▁resistors
▁similarly
▁snowstorm
▁socialist
▁splitting
▁submarine
application
educational
institution
ostimulator
▁2014-2015.
▁2014-2016.
▁Aldabergen
▁Discussion
▁Kabibullah
▁Productive
[...]
