<blank>
<s>
</s>
▁t
he
▁a
in
▁w
ou
▁T
om
re
▁s
▁I
ha
▁to
is
▁Tom
▁d
on
▁b
▁m
ve
▁the
▁c
▁y
ing
ed
▁you
an
▁f
▁l
ll
ar
or
hat
it
en
er
▁p
▁g
as
▁n
▁is
▁ha
▁h
▁he
es
▁o
ow
▁be
id
at
▁W
▁in
▁th
ot
▁do
▁an
ay
ld
▁that
et
▁M
▁of
us
le
▁was
▁e
ver
im
▁The
▁H
ic
▁me
ke
ary
▁re
oo
▁on
▁st
gh
▁for
▁Mary
▁S
▁k
▁li
ould
▁we
al
ant
st
▁have
▁ne
am
ly
ch
ri
ght
▁it
▁Y
out
ad
▁go
ent
▁did
▁You
▁and
▁D
▁want
ill
▁kn
▁We
ith
un
se
▁with
ome
▁He
ro
▁don
all
▁not
very
ac
▁this
ut
▁can
her
ion
▁are
▁know
▁his
▁se
▁my
▁at
ir
ink
ter
▁as
▁A
pp
▁sh
hing
▁It
▁like
▁him
▁your
▁ab
one
▁think
ust
ur
ook
▁has
▁j
ain
▁what
ce
ore
▁didn
▁her
▁us
▁te
▁any
▁sa
▁wor
if
▁tr
pe
ost
ct
▁su
▁r
▁al
end
▁L
▁wh
▁about
▁She
ak
ren
ally
ake
ood
▁What
il
▁C
up
han
▁will
▁very
▁B
▁le
▁so
▁tim
▁see
▁get
▁Do
▁pl
▁here
▁going
ive
▁had
▁all
▁Th
ble
▁Wh
ge
op
▁need
▁does
ind
▁ex
red
ong
ight
ul
▁out
ave
▁time
rom
nd
▁This
▁should
▁de
▁un
day
est
art
lp
ast
ami
▁up
ry
▁would
alk
▁help
▁F
▁whe
▁said
qu
▁one
ist
ame
ays
ate
▁been
our
▁look
ice
ack
and
▁con
▁from
▁com
ol
▁E
▁happ
fe
▁pro
▁fe
▁work
▁That
▁good
▁They
▁could
os
▁How
ess
▁Sami
▁were
▁just
der
ought
▁tell
ove
thing
▁P
ie
▁too
▁there
ers
▁really
▁doesn
▁by
▁never
▁told
▁them
ree
▁ag
▁man
▁some
ation
▁no
ig
ous
▁won
▁every
ish
▁isn
▁N
dy
lf
▁int
▁talk
ase
res
▁got
▁than
omet
▁but
▁Why
▁now
▁qu
ide
▁J
▁v
oston
▁Boston
▁ask
el
ck
▁who
um
ep
▁There
ort
▁ar
ound
ite
▁car
▁cl
▁My
ap
▁home
ear
▁mu
other
row
▁spe
▁somet
▁Whe
▁ch
▁more
▁much
▁Don
▁af
riend
ard
▁she
ob
ning
▁back
▁ri
▁sp
▁happen
▁G
ag
▁wr
▁still
▁en
▁if
▁come
ried
▁bu
▁co
▁ro
▁how
th
▁something
ick
▁eat
▁bet
▁or
itt
ass
are
▁off
▁"
ine
▁pe
▁Is
ool
ab
self
▁thought
lease
▁when
ople
▁love
▁year
▁stu
▁doing
nt
▁long
▁O
▁live
▁last
▁wanted
▁am
ving
ild
▁Can
▁say
la
hed
▁lot
oney
▁speak
ng
▁right
▁anything
ty
▁let
▁Let
ody
▁take
▁read
▁Are
ather
pl
oy
ther
▁friend
ade
▁new
age
▁seem
rench
▁only
▁pre
▁money
▁day
▁French
▁thing
▁again
▁dr
ough
▁wasn
▁call
▁people
▁book
ouse
▁im
ways
▁Did
▁br
▁bus
▁wat
▁three
▁always
ait
ace
▁play
▁make
cc
▁our
▁went
ach
▁today
▁house
ose
▁plan
▁ad
▁better
ure
▁sure
▁sm
▁pr
orrow
▁made
▁over
▁they
▁tw
ity
▁stay
ft
pt
chool
▁Lay
▁bel
▁Layla
▁under
ang
▁give
▁wait
ew
get
▁school
fore
able
ress
em
▁gu
▁must
iss
▁many
▁try
ber
▁bec
▁bl
▁way
ra
▁asked
▁after
▁dis
act
▁find
▁before
▁other
▁ke
ek
reat
▁well
ies
own
▁buy
▁old
▁har
▁chan
▁into
▁leave
ue
xt
▁where
▁aw
▁feel
▁part
ven
ell
ned
iz
blem
▁done
▁room
▁problem
▁child
ieve
▁tom
▁week
au
▁ever
ts
▁Who
ment
▁left
read
▁sc
▁If
▁tomorrow
▁sw
▁Please
▁night
▁gr
ied
ount
▁why
▁imp
irst
ated
▁fl
use
▁ho
body
▁start
▁rem
▁dif
ark
▁fa
▁app
ious
▁down
▁job
▁believe
pect
ittle
▁When
ian
▁years
▁little
ence
▁Where
▁hand
wn
pen
▁dec
ten
ting
▁saw
▁meet
ict
rest
▁two
▁next
▁knew
per
ire
▁used
ful
▁care
oth
▁first
▁wants
▁Every
▁pa
▁hard
▁underst
leep
▁comp
rive
▁happy
▁Have
og
▁everything
▁put
▁fin
ired
ult
ise
▁happened
ile
▁couldn
ester
▁acc
ions
mer
▁knows
▁mar
▁gir
▁R
ock
▁pers
▁came
▁life
▁ear
▁res
▁father
▁lik
esterday
ready
▁understand
▁already
▁friends
ich
▁dog
▁took
▁their
▁drink
▁che
▁walk
▁late
ia
ually
▁pret
akes
▁sur
▁pol
oss
▁soon
▁away
▁might
▁quest
ans
▁gave
▁lear
▁yet
▁mo
▁things
ok
▁cont
▁hope
▁K
▁bad
▁gl
▁yesterday
ised
▁wrong
▁ide
ance
▁often
▁enough
▁att
gry
▁says
▁children
ngl
▁ph
▁hat
▁supp
ip
▁wouldn
erest
▁Engl
▁found
gg
▁heard
▁door
oin
▁mor
ident
▁stud
ause
▁nothing
▁person
▁boy
hes
▁may
▁name
▁str
ably
▁win
aught
▁show
▁big
igh
ect
▁sleep
fic
▁St
ory
▁study
▁met
▁looking
osed
▁el
ible
."
▁sing
ince
▁morning
▁Ch
▁busy
▁kind
▁mother
▁party
▁mat
▁interest
▁No
ife
ner
▁seen
gether
ull
ited
▁tried
oh
▁wonder
▁2
▁prob
ert
▁together
▁hun
▁English
▁best
▁cat
▁fun
▁haven
sw
▁In
▁probably
aking
ered
▁watch
▁hour
▁cle
any
▁act
▁rec
▁aren
▁tur
ail
▁even
▁without
▁same
▁stop
▁open
▁wish
▁vis
▁count
▁himself
▁min
▁alone
▁looked
▁great
▁pretty
▁des
▁girl
▁per
▁hur
▁being
▁looks
▁eas
▁answ
▁anyone
▁else
▁teac
▁bought
▁both
▁list
▁wear
▁1
▁keep
▁idea
pped
▁fo
▁seems
▁Would
▁cha
ign
▁around
aut
▁May
ond
▁kill
ci
▁sec
be
▁hear
▁young
▁able
▁rain
▁swim
▁mon
feren
▁ten
▁remem
more
▁anymore
orm
▁expect
▁please
ohn
▁lost
ared
▁John
▁water
▁teacher
ished
uck
▁married
pr
ath
apan
▁likes
▁compl
ffe
ted
▁Japan
▁use
▁His
ix
▁own
ud
angu
▁these
side
▁beg
aw
▁Tell
▁sent
▁few
ons
▁sha
▁trying
▁mist
▁because
▁beaut
▁bed
ese
▁Does
▁langu
▁needs
▁remember
▁miss
▁cr
most
vor
▁class
▁mind
▁place
▁talking
les
uth
▁days
ced
▁started
ater
▁ser
▁war
▁police
ided
night
rents
▁world
▁quite
▁differen
▁while
▁student
een
ys
▁another
▁real
▁word
▁getting
▁bre
▁early
▁minut
▁bo
▁pay
▁pain
▁month
▁brother
▁train
▁food
ars
raid
▁Your
▁called
▁sk
ister
▁beautif
▁afraid
▁bro
▁almost
▁wom
?"
▁ac
▁each
▁ready
▁working
▁tired
▁run
▁fr
▁sn
▁rest
▁beautiful
ord
▁pass
▁cold
ream
▁answer
▁All
inner
▁most
ank
▁adv
▁parents
▁hot
ork
▁coming
ctor
amily
oc
oke
▁rep
▁Some
▁ey
▁forg
▁family
▁listen
▁sho
used
▁diffic
▁Mon
▁surpr
▁shouldn
▁nice
▁sl
man
joy
▁letter
▁unt
oon
▁prom
cle
▁bir
orry
▁question
ical
▁import
here
▁waiting
▁wind
ret
▁meeting
▁em
30
ating
▁sit
ff
▁died
▁po
▁someone
ffee
led
▁enjoy
▁myself
▁dinner
▁break
▁arrive
▁thir
▁coffee
▁far
▁pict
▁learn
ely
▁Monday
▁mus
▁truth
▁visit
▁decided
▁expl
▁mov
▁sister
▁tonight
▁until
▁Fad
▁books
ss
▁change
ved
▁since
▁Dan
▁ago
▁drive
▁easy
▁Fadil
cept
▁difficult
▁wife
▁kid
ub
▁ret
▁true
▁doctor
▁disc
▁kiss
ize
▁On
ors
▁matter
▁Go
▁hours
▁cook
▁phone
orn
▁lives
▁such
▁country
▁end
▁important
ple
unch
▁rel
▁ap
▁di
▁inv
▁Could
▁poss
▁high
▁times
lt
▁conc
▁sick
ces
▁head
▁supposed
▁favor
▁bit
▁once
▁yourself
▁pres
▁needed
▁news
ger
▁having
▁Everyone
▁usually
ason
▁ob
ier
▁cons
iness
ient
▁move
▁trust
▁hasn
▁sorry
▁comm
▁accident
ote
▁sto
▁music
▁forget
reet
▁hurt
uss
▁office
ged
▁cry
ever
▁trou
▁angry
▁spend
▁dri
▁Maybe
▁language
▁ent
▁likely
ized
▁small
ital
▁sat
▁everyone
▁ref
▁park
▁conf
▁seemed
▁hair
▁felt
ball
ates
▁lunch
▁gone
az
hank
ime
vent
ves
llow
▁fire
▁hungry
▁chance
▁sound
alth
ressed
als
▁different
ib
▁son
less
olog
▁cut
▁those
ations
where
▁write
meric
med
anger
▁air
▁makes
▁longer
▁woman
▁Nob
▁minutes
▁coll
▁As
▁mean
▁inc
ither
▁playing
▁clean
▁city
▁hate
▁Americ
▁fast
umb
▁Nobody
ug
ition
▁exact
▁trouble
▁living
app
▁later
▁Thank
▁window
▁thinks
▁forgot
rew
ched
ustr
▁mom
▁lau
▁thr
ject
▁Be
▁ele
ention
▁eyes
▁stand
▁exc
▁aftern
urn
ward
▁fore
ative
work
▁near
▁afternoon
▁town
upid
▁through
▁table
aper
ont
▁hands
:30
ying
▁reg
fect
▁agree
▁trans
▁stupid
▁finished
▁Will
▁song
▁Our
air
vers
▁lived
00
▁tri
▁ter
▁light
ertain
oint
oud
ense
▁lar
▁story
▁exactly
▁ass
not
ange
▁serious
▁wearing
ny
▁sol
▁questions
▁movie
▁feeling
▁interested
iet
▁sum
▁killed
ily
lic
▁then
▁favorite
▁exam
▁reason
ages
▁TV
▁add
▁Sh
ming
oice
ision
ience
▁follow
▁free
▁To
ison
▁face
▁doll
▁danger
▁Ger
br
▁eating
▁surprised
ps
▁pick
▁These
▁ate
▁anybody
▁cannot
ross
▁team
ike
▁picture
du
▁inf
▁business
▁Just
▁station
▁Her
ggest
▁glad
▁mistake
▁quick
▁suggest
▁birth
▁broke
osp
▁become
itc
▁law
▁mil
▁turn
▁five
▁dep
▁comput
ately
umber
▁glass
▁sun
▁flow
▁reading
▁turned
▁Give
▁guy
▁game
icy
▁spent
▁fell
ustral
▁snow
▁interesting
▁helped
▁sus
▁worry
▁Austral
ured
ained
unk
imes
ness
▁works
▁students
▁ext
▁conv
ween
▁med
▁thirty
▁planning
▁cou
▁bab
▁complet
ling
▁became
▁certain
▁2:30
▁arrived
▁company
▁problems
▁cost
▁Not
▁beh
▁possible
so
ash
▁dream
▁summer
ph
▁allow
▁trave
ual
▁char
▁Japanese
ular
▁build
▁mess
▁behind
te
▁ran
▁Australia
arth
rist
ended
▁number
▁Aren
▁inter
dered
▁street
erv
▁between
▁cor
▁deal
▁Al
▁hor
av
▁dro
▁daught
▁taking
▁fight
▁die
▁clot
▁tall
▁outside
▁secret
▁hosp
▁close
itting
▁grand
▁making
▁hospital
▁death
▁whether
ets
▁safe
▁health
▁Mr
▁thinking
▁worried
▁caught
▁talked
▁OK
▁fam
iting
▁exper
▁det
▁also
▁weather
▁cam
▁whole
▁moment
▁sal
▁adm
▁dead
▁goes
▁luck
sive
▁ins
▁strong
▁order
▁Christ
ully
▁check
▁red
▁began
▁heart
▁hop
▁wrote
▁homework
irt
ures
▁front
▁actually
▁against
▁computer
▁paid
nis
▁begin
▁worked
▁def
▁kept
▁watching
raz
▁studying
▁abs
▁dou
▁pat
▁birthday
room
▁art
▁stayed
iled
cy
ased
▁short
▁arm
ato
eal
▁box
▁liked
▁rich
iv
ocked
aur
oking
▁cap
▁fix
▁tennis
▁mine
▁born
bed
▁ill
ently
reed
▁gets
▁less
▁accept
▁stopped
▁Which
▁transl
▁walked
▁clothes
ump
▁dark
▁teach
aged
▁pen
▁comes
cial
port
▁present
▁second
aving
▁wall
ighb
▁cour
▁bring
▁neighb
▁sim
ries
▁Now
▁daughter
aken
▁pop
▁careful
▁At
cess
af
ics
ax
ds
▁men
▁clear
▁quiet
vening
▁loves
▁Chin
▁2:30.
▁finish
▁changed
▁six
▁along
▁disapp
▁which
▁evening
▁hum
▁Pe
▁expen
▁Many
▁tree
▁store
▁Af
ial
▁shoes
▁hit
▁dist
▁large
▁quickly
▁inst
▁baby
▁scared
tle
fast
▁full
▁dollars
▁weekend
▁One
fort
▁tele
▁laugh
▁set
▁leg
lfriend
▁tou
ider
▁bag
▁Everybody
▁discuss
▁Fr
▁lose
▁An
▁restaur
▁Come
▁kids
▁report
rem
▁swe
itten
▁perfect
▁restaurant
uring
ric
▁mem
▁age
▁test
fully
▁terri
hen
ored
▁girlfriend
▁guys
aster
▁sub
▁breakfast
▁swimming
▁building
▁pri
▁bicy
▁known
sel
ction
fer
▁hid
by
▁dress
▁its
den
▁advice
▁saying
pping
▁loved
▁river
▁rather
▁fact
▁fish
▁speaks
▁doub
▁hotel
▁lie
io
▁wine
▁thank
mas
▁fine
▁Somet
▁situ
▁fall
▁col
▁foot
▁drunk
▁catch
▁strange
▁Christmas
▁cup
ccess
▁sell
▁black
ush
▁prep
eb
▁brought
▁explain
▁sy
▁older
▁words
ane
▁20
▁least
▁prison
▁Was
ceive
▁milk
▁telling
selves
▁People
▁apolog
▁bur
▁colle
▁bicycle
▁months
▁V
ens
▁sign
▁asleep
▁expensive
▁Sun
▁finally
▁base
▁tea
▁Look
▁God
ists
▁expected
▁tick
▁guess
▁ple
▁trip
artment
▁ind
▁sentence
▁flowers
cl
land
ower
▁Take
▁fig
▁Get
▁contin
▁dangerous
▁op
▁shot
▁everybody
hip
▁bot
▁leaving
way
ract
▁hon
ken
▁es
▁prot
▁plans
ift
▁gun
▁resp
▁Both
▁sitting
ee
rell
▁beer
ring
▁gen
▁mad
▁anim
▁Canad
▁Mar
▁success
▁situation
▁four
▁earth
▁opened
ins
▁decision
rect
▁flo
▁pie
▁bank
▁sold
▁av
▁umb
▁completely
▁opin
▁umbrell
arden
▁grow
▁road
▁others
▁inform
ead
ains
▁Stop
▁sever
▁promised
ef
▁ca
▁nam
▁opp
▁half
▁closed
band
▁quit
▁key
itted
▁lying
▁attention
▁showed
ask
▁ve
ding
vious
set
▁borrow
▁several
airs
▁del
▁worth
oup
▁college
▁pian
▁garden
usband
▁mistakes
itar
▁umbrella
▁past
▁arrest
▁paper
▁point
▁mur
acks
▁Everything
▁aff
iction
▁eaten
▁pur
ities
▁join
▁tax
▁craz
▁choice
dred
▁ann
▁arg
▁speaking
uro
▁white
▁played
▁Sp
▁guitar
▁ris
▁ow
right
▁poor
▁Has
▁touch
▁languages
▁New
▁lucky
▁Thanks
▁inside
▁husband
ervous
▁taken
▁nervous
enty
▁mid
▁cake
▁clim
▁famous
its
▁fool
ointed
▁crazy
▁send
iced
ined
▁bar
▁heav
overed
▁weren
▁medic
▁ty
▁couple
▁cal
▁slow
▁treat
▁sometimes
▁doubt
▁crying
▁suspect
▁Even
ution
friend
▁during
▁pub
▁promise
▁concer
▁hundred
ator
▁And
▁requ
▁minute
gr
▁eng
mp
▁spoke
▁belong
▁driver
▁written
▁inj
▁German
▁ra
▁phot
▁weeks
▁Sunday
▁side
▁learned
▁consider
▁boss
▁takes
ences
ishing
▁esc
▁either
▁upset
▁invited
▁So
▁seat
▁appro
▁broken
▁blame
▁receive
▁complain
▁happening
▁dance
▁floor
▁opinion
▁fut
inite
▁smoking
▁rid
▁moved
▁piano
atur
▁After
▁proud
▁extrem
ls
gy
ants
▁body
▁girls
▁plane
▁cur
▁blue
▁happens
▁sad
▁vac
▁bill
▁kissed
▁hold
▁post
outh
▁grad
▁missed
▁egg
▁fair
▁funny
ude
▁Here
▁sense
ech
▁forward
▁protect
iter
▁correct
▁given
▁mount
▁future
ik
medi
rees
anc
dle
▁ce
▁drinking
old
▁ice
ument
▁Someone
▁allowed
▁Lind
▁save
▁beach
gar
ility
▁bath
▁libr
▁agreed
▁writing
ne
ceed
▁carry
▁prefer
▁helping
▁Should
▁somewhere
▁unl
▁Linda
▁horse
▁hurry
▁return
▁sil
▁kitc
▁lawy
▁kitchen
▁Today
▁smell
▁women
▁waited
▁America
▁For
▁Tok
▁immedi
ule
▁chair
▁ma
▁mot
▁elect
▁weight
▁herself
▁means
▁apartment
▁deser
▁pract
▁driving
▁certainly
▁pull
▁visited
ature
▁bread
▁younger
▁difference
con
vel
rent
▁prof
▁sand
▁desk
▁Nothing
▁support
▁mis
▁meat
▁library
▁honest
▁ev
od
yo
▁star
▁passed
▁baseball
ogn
ugg
▁Ne
▁Euro
▁patient
ilt
▁exp
▁recogn
▁ign
▁coat
▁offer
▁contro
era
phone
▁message
▁definite
▁sleeping
▁shopping
▁Tokyo
▁learning
reen
▁respect
▁boyfriend
▁ball
▁beha
▁alive
▁running
▁willing
▁pictures
arket
ination
▁necess
▁uni
▁refused
▁mag
▁price
▁lo
head
iving
▁crow
ism
istic
▁information
▁Europe
▁Chinese
▁staying
▁terrible
▁immediately
ager
▁concert
▁tem
▁lead
ued
▁perm
▁smart
▁arrested
▁neighbor
▁cross
rit
▁stuff
▁nove
▁yours
▁lawyer
ices
clock
nited
▁ship
▁definitely
▁speech
▁travel
▁pun
uit
road
▁tast
▁across
iol
▁sle
▁hardly
▁Germ
▁asking
eep
▁Ar
iday
▁rul
arely
▁beat
▁shirt
▁opt
▁risk
▁eight
▁obvious
▁extremely
hood
▁clos
▁diction
▁listening
▁marry
▁enem
orts
▁studied
oid
▁Am
ened
▁taught
oken
▁dem
▁dogs
▁hadn
▁land
▁popular
iew
sh
rap
ific
▁lied
eth
▁fly
▁Canadian
▁blood
▁ought
ots
▁uncle
▁sounds
▁ir
vest
▁dire
▁shop
▁special
fied
lier
▁eye
▁deep
▁polit
▁super
▁American
▁Were
omm
uct
▁bother
ror
▁appre
▁surprise
ex
ery
▁attack
▁except
oose
ached
▁hang
▁heavy
▁fil
▁loc
▁medicine
eba
▁Par
▁newsp
ony
▁camera
▁imag
▁vacation
▁Per
▁suc
oring
▁yell
▁succeed
▁watched
ior
idence
▁States
▁bat
▁glasses
oof
atoeba
▁earlier
▁respons
bit
▁case
▁noticed
▁necessary
▁grew
▁boys
▁ring
▁wash
▁voice
▁fat
▁winter
▁Something
▁dictionary
izz
ults
▁noise
▁convin
▁seeing
▁enjoyed
▁walking
bs
▁Ex
▁Jacks
▁fault
▁gener
▁wondered
affic
iling
▁Keep
▁viol
▁traffic
▁date
▁knife
▁injured
▁z
urch
▁cent
uri
oned
▁201
▁regret
▁singing
▁fired
aked
haps
olut
▁cop
▁Ital
▁prop
ossible
▁appreci
ges
▁animals
▁address
vern
ments
▁hist
▁jump
▁attend
▁retur
▁common
▁movies
▁pot
▁foreign
▁somebody
▁apple
▁waste
▁anywhere
▁la
▁Those
▁twice
▁Tatoeba
na
edding
▁event
▁worse
▁easily
▁forgive
ief
ume
▁top
ustom
▁mach
▁public
▁advised
▁wonderful
arr
▁nor
ushed
▁afford
▁Germany
▁ed
▁ride
▁produ
▁slept
ghed
▁hol
ma
une
▁surv
▁breat
▁abroad
▁convince
▁rad
▁Didn
▁text
▁stole
▁received
ape
idge
▁Put
▁rent
▁wood
▁suitc
▁decide
▁wedding
▁impossible
uc
oun
▁Try
▁sud
ousand
▁spoken
!"
bo
ze
▁Isn
▁inn
▁figure
▁sudden
father
▁crowd
▁solve
▁rules
▁seven
ational
▁contact
▁control
3.
▁cond
▁fing
▁mill
▁raining
▁disappointed
▁emp
▁ski
▁satis
▁detail
▁fishing
ai
▁stra
▁truck
▁carefully
▁squ
▁absolut
ober
▁gift
▁pack
▁Paris
▁impro
▁apologize
str
▁Oct
▁Russ
▁persu
▁single
▁whatever
ili
ton
▁unc
▁held
ppy
ging
▁shut
▁Ken
▁drank
aces
▁tot
▁fail
▁named
▁murder
▁October
▁experience
eg
▁den
▁church
▁Mus
▁emb
▁human
▁though
▁ticket
▁val
cri
ames
▁notice
000
▁excited
▁convinced
▁Most
▁recently
alent
▁cool
▁govern
▁priv
versity
▁course
▁realized
▁keys
▁hoping
▁missing
cer
▁fill
▁till
▁plays
▁Jackson
▁sky
fortable
▁eats
▁appear
▁picked
▁laughed
rown
▁line
▁drinks
▁invest
▁partic
sper
▁Hey
key
▁sea
▁machine
▁draw
▁eggs
▁step
vision
▁gradu
▁smile
▁airport
▁prepared
▁returned
▁expecting
▁amaz
▁harder
▁Perhaps
▁sentences
uge
▁dev
▁lad
▁stood
▁bottle
lam
▁ste
▁power
gest
ploy
▁occ
▁cars
▁veget
erc
irty
▁Lond
olen
tern
▁tie
▁dest
▁smoke
▁London
▁simple
gan
▁camp
ealous
▁possib
▁sleepy
▁stolen
▁standing
unity
▁piece
come
▁warm
▁realize
▁mountain
aded
▁player
▁vol
▁built
▁sandw
▁intend
▁account
▁profess
lled
▁vill
▁creat
▁pos
▁peace
ilty
▁guilty
▁painting
▁newspaper
▁absolutely
ety
▁divor
▁innoc
▁failed
ories
▁gar
▁history
▁president
hy
asket
▁sugar
▁trees
▁jealous
▁prin
rup
▁dam
▁cute
▁lend
▁entire
ians
time
astic
stairs
▁cooking
▁Span
ec
ues
itive
▁impressed
▁grandfather
▁drove
▁meant
▁dressed
▁thousand
▁hide
▁color
▁compet
▁telephone
sperant
▁los
▁joke
▁pulled
lim
ope
arch
ines
▁impress
▁bri
▁With
rodu
igned
ission
▁Esperant
▁confused
▁concerned
▁wake
▁believed
▁personal
▁rob
▁Since
▁green
▁novel
▁offic
▁handle
▁beginning
▁3
▁Tur
▁par
▁pock
▁hates
▁Spanish
▁taxi
▁annoy
▁basket
▁Sm
stem
▁cla
▁cow
▁jail
▁avoid
▁pleas
▁radio
ury
▁equ
▁danc
▁empty
▁mouth
▁seriously
fered
▁self
ically
▁aware
▁project
▁reached
▁calm
▁ideas
uk
ache
ises
ables
▁area
▁hiding
▁susp
ording
▁gotten
▁nobody
▁remind
▁television
ield
▁Islam
▁twenty
gress
▁ahead
▁healthy
▁laughing
lax
▁gas
▁cats
▁million
book
▁York
▁golf
▁storm
▁depend
▁dishes
▁feelings
ional
▁suit
▁government
▁maj
▁norm
▁calling
▁10
form
olved
▁relax
▁engine
resh
▁flu
▁card
▁oper
▁shar
▁France
▁recomm
▁ordered
ings
mother
▁press
▁offered
▁Esperanto
▁countries
▁ourselves
ms
,000
▁owe
eared
rently
▁threw
▁apples
▁translate
rat
▁30
▁Tw
▁pizz
urious
▁dropped
▁entered
▁suggested
▁id
bers
▁cream
▁survive
ones
ster
▁Life
▁boat
icated
▁sports
▁er
ocol
ering
▁rock
▁suff
▁unha
▁chess
▁leaves
ldom
▁low
conom
▁group
▁faster
▁singer
ified
▁seldom
ah
icked
▁sweet
▁middle
▁followed
de
▁lic
▁loud
▁bored
▁crime
▁tough
▁charge
▁opport
ayed
▁giving
▁temper
▁Neither
▁mention
ni
▁Le
ccer
▁feed
▁Muslim
▁scream
▁threat
ches
ounded
▁econom
▁collect
▁Jane
▁buying
▁object
▁huge
▁dating
▁slowly
sy
▁ban
▁chocol
▁moving
▁suddenly
unt
▁bike
arrass
▁China
▁fruit
▁wallet
▁subject
▁embarrass
cts
ograp
▁club
▁sched
▁locked
▁suitcase
▁satisfied
▁ant
▁bird
▁system
▁introdu
▁appreciate
ards
▁Ind
▁shy
acket
▁vide
▁dirty
▁teeth
▁assist
What
inal
▁cell
sidered
▁instead
▁prevent
▁soup
▁custom
▁pleased
▁brothers
▁jud
▁delic
▁native
▁answered
oted
▁moon
▁race
▁taller
▁understood
▁dut
ising
ildren
▁awake
▁blind
▁keeps
▁space
▁friendly
▁sight
▁village
▁relations
dd
▁throw
▁unhappy
▁fear
▁enemy
ird
▁Oh
▁pu
▁capt
▁gold
▁Their
▁saved
▁escape
▁letters
▁innocent
▁considered
▁feet
▁lake
▁pizza
▁reach
▁state
gen
omp
▁Sw
okes
arter
▁lone
▁cause
▁caused
ointment
▁straight
ses
ires
▁deb
▁drug
▁toward
▁amazing
ey
▁ur
▁dad
▁cried
▁attract
ute
uts
▁But
lcome
▁chick
▁soccer
▁Sometimes
cil
▁vict
▁cance
▁thirt
▁pair
▁talks
▁shower
ites
line
▁Ask
▁aut
▁university
icted
▁main
▁serv
▁boring
▁accepted
amp
bye
antly
▁claim
▁using
▁handed
▁form
▁type
▁solution
▁chocolate
▁forgotten
que
▁Tr
▁lonely
▁deserve
▁totally
▁grandmother
▁cir
▁unf
▁pool
▁feels
▁flight
▁pretended
▁Well
▁tour
▁Satur
▁songs
▁bridge
▁ground
▁island
▁suppose
▁football
".
els
lebr
▁ble
▁fre
▁lim
▁weak
▁admit
▁relig
▁wears
▁talent
▁responsible
aced
ilar
▁Good
▁cous
▁lots
▁Saturday
▁fort
▁lock
▁birds
▁paint
ulation
▁intell
▁market
mb
het
▁fit
▁farm
▁exist
▁organ
▁third
▁Yesterday
▁themselves
▁Stay
▁auth
▁result
ases
over
▁Only
▁celebr
▁record
▁capital
▁continue
▁obviously
ler
uses
enced
igent
usted
▁calls
▁smiled
pose
▁mail
▁license
▁recognize
▁ben
▁idi
▁fresh
ns
ats
nic
▁climb
▁hired
anced
▁wore
unately
▁direct
▁spring
▁covered
▁request
▁results
▁admitted
let
▁doc
useum
▁hopes
▁sooner
▁Ky
▁Any
▁film
▁match
▁share
▁normal
▁explained
▁sex
▁band
▁artic
▁painted
▁sandwich
gram
▁mir
using
▁duty
▁prov
▁view
▁Earth
▁cheap
▁author
▁pocket
▁starting
▁Wait
▁neck
▁behav
▁motor
▁tears
▁propos
▁manager
▁document
No
▁educ
▁pill
▁exerc
▁demand
▁salary
▁accused
▁basketball
aped
hings
▁meal
▁vote
▁woke
▁2013.
▁Things
▁choose
▁destro
▁yen
cious
▁dying
▁weird
▁barely
▁fright
▁windows
▁ru
▁aud
riage
▁exce
▁mood
▁steal
▁stick
▁continued
att
ium
▁guest
▁belongs
▁involved
gn
hem
▁und
▁bull
▁remain
▁bedroom
▁private
▁investig
▁neighborhood
gl
oto
▁Rob
▁Brit
▁cult
▁ener
▁legs
▁bigger
▁explan
▁pencil
▁managed
▁purpose
▁listened
▁permission
▁kil
▁tow
ipped
▁bear
perate
▁horri
▁shall
▁delicious
acy
▁major
▁bright
▁unlike
▁earthqu
coh
cohol
▁skin
▁soft
▁details
▁believes
▁handsome
▁opportunity
yed
▁map
▁express
▁practice
rel
iers
▁arms
▁among
▁plant
▁forest
har
▁Jim
▁eff
ology
▁repl
▁Friday
▁employ
▁wealth
▁Somebody
llent
▁Make
▁cred
▁rice
▁incre
▁absent
▁raised
abbed
▁Call
▁Show
▁harm
▁suspic
▁fighting
▁schedule
▁relationship
inc
▁iss
▁obs
ashed
▁clock
▁extra
▁names
▁policeman
lex
llo
▁amb
ances
▁crit
▁Sorry
▁finger
▁museum
▁plenty
▁science
▁excellent
rib
ides
▁wet
▁becom
▁cookies
pri
under
▁nose
▁sens
▁jacket
▁program
▁Pa
▁enc
▁email
▁worst
▁nearly
▁eventually
rets
▁Exc
▁neg
▁nine
▁warn
▁games
▁natur
▁cheese
▁proper
▁clearly
zz
omed
▁Last
▁shoot
▁video
▁butter
▁warned
▁laz
▁fixed
▁jumped
▁scient
▁unlikely
▁appointment
itch
obby
▁rese
▁sisters
▁speaker
apers
▁poem
▁weap
▁ended
▁gives
▁reply
▁poison
▁imagine
▁Children
▁recommend
omb
uly
uing
atoes
▁magaz
▁comfortable
▁explanation
erm
unte
▁mod
xious
▁usual
▁filled
▁useful
▁vegetables
cks
ung
cent
▁Pol
icide
ulous
▁None
▁repe
▁rude
▁hated
▁jokes
▁cancer
▁complete
▁remained
▁particular
light
▁lift
▁Bring
▁cards
▁field
▁stuck
▁descri
▁lights
▁thirteen
▁neighbors
▁Fin
▁env
iliar
▁cash
▁ones
▁tells
▁perform
▁-
uel
look
▁rule
▁Excuse
▁superm
▁dancing
▁goodbye
▁pretend
oll
▁Park
▁aunt
▁king
▁enter
▁holiday
▁tickets
to
▁Em
atic
orter
velop
▁easier
▁fairly
▁teaching
arl
gypt
▁fan
▁animal
▁forced
▁washed
▁courage
▁forever
▁meaning
▁contract
,"
eng
▁War
▁above
▁instr
▁local
▁breath
▁volunte
▁persuade
sed
▁hy
▁Never
▁invite
▁silent
▁convers
▁following
orge
▁circ
▁flat
▁Egypt
▁Robert
▁denied
▁lately
▁similar
▁condition
▁successful
par
▁Sha
irsty
▁lady
▁scen
imistic
▁anyway
▁cab
▁fif
razil
▁cast
▁orig
▁pred
▁idiot
▁prove
▁polite
▁Russian
▁teachers
▁earthquake
erg
▁cig
ledge
▁Arab
▁exha
▁phys
▁sang
▁Brazil
▁treated
▁proposal
entle
▁badly
▁flower
▁losing
▁checked
▁planned
▁electric
bb
rog
▁imm
▁pic
aring
oured
▁Kyoto
▁Leave
▁paying
▁chicken
▁marriage
▁Har
▁rum
▁adop
▁const
▁rarely
▁carried
▁behavior
fortunately
▁supermarket
ives
▁drop
▁avail
▁hoped
▁taste
▁Street
▁alcohol
▁washing
ify
▁wis
▁zoo
▁math
▁rains
▁develop
▁midnight
▁da
essed
ounds
▁carp
▁Alice
▁raise
▁artist
▁retired
ompl
▁Bec
acter
board
▁goal
▁examination
wr
ney
▁ju
eter
▁ach
▁Bill
▁hire
▁lazy
▁stom
▁wise
▁garage
▁intern
▁passport
▁position
▁discovered
men
▁Su
iest
rupt
▁tor
▁effe
▁roof
▁member
▁wished
ho
▁Cl
▁ug
empt
▁See
▁Two
▁due
▁fur
▁oil
allow
▁miles
▁memory
▁Because
▁bathroom
▁upstairs
▁classroom
▁intelligent
atch
iment
▁aband
▁photo
▁burned
▁invent
▁parked
▁skiing
▁improve
▁sweater
▁population
▁bow
▁gentle
▁familiar
▁headache
▁perfectly
..
orses
▁hero
▁webs
▁affect
▁assume
▁button
▁stared
▁shocked
aka
▁cho
▁noon
▁sour
▁tight
▁credit
▁picnic
▁spends
▁Italian
▁escaped
▁suspicious
sit
lect
▁Acc
▁army
▁dise
▁energy
▁England
▁hearing
cha
▁By
▁Of
host
view
▁dry
▁hig
▁nur
▁yes
▁pray
▁salt
▁hesit
▁speed
▁stars
▁drives
▁example
▁recognized
▁conversation
und
▁Yes
▁lies
▁slight
▁within
▁suicide
▁borrowed
▁horrible
▁soldiers
ees
ram
▁Gree
▁Afric
▁Italy
▁glove
▁Canada
▁motorcy
▁neither
▁cleaning
▁depressed
▁everywhere
▁typ
antic
mates
▁bott
▁soci
▁Three
▁disag
ference
▁season
▁natural
▁available
aret
cean
▁Day
▁Karl
▁acqu
▁emer
▁amount
▁anxious
▁largest
▁trusted
▁exercise
inary
▁resc
▁Whose
▁blank
▁brave
▁pregn
▁complaining
arm
▁est
hered
▁jour
▁note
▁kinds
▁changes
▁distance
amed
gent
orth
ining
▁brief
▁determ
▁staring
▁stories
▁shoulder
eral
▁runs
▁board
▁ident
▁shout
▁punished
llen
stand
▁diet
▁tong
▁ghost
▁skill
▁acting
▁yellow
▁argument
▁Americans
ym
hest
▁Bob
▁spl
▁tend
▁Doing
▁judge
▁sharp
▁distur
▁curious
▁possibly
▁progress
ners
▁Ber
▁deg
▁psy
isted
▁Love
▁hung
▁sort
▁Maria
arently
▁article
▁studies
▁Tomorrow
nfortunately
apt
oul
▁Dr
▁Sc
cient
ugged
▁Face
▁juice
▁Intern
▁dreams
▁encour
▁manage
▁poured
▁achieve
▁desperate
▁knowledge
cul
▁Pl
gged
▁lay
▁ver
▁incl
▁qual
▁occur
▁incred
▁answers
▁cigaret
▁service
▁thirsty
▁According
yle
entr
tery
▁cand
▁tech
▁ugly
▁orange
▁spending
▁graduated
int
▁jobs
▁loss
▁rang
▁victim
uted
▁coo
▁furn
▁cloud
▁horses
▁page
▁commun
▁corner
▁prices
▁stairs
▁tongue
▁complicated
go
...
nect
phan
apped
▁deli
▁prize
▁advant
▁flying
▁saving
▁figured
▁website
▁discussed
irm
▁Ge
▁hous
▁unus
▁mirror
▁places
▁Facebook
▁embarrassed
co
▁bi
iron
▁hug
▁pan
▁Turk
▁dent
▁infl
▁brown
▁search
▁accompl
▁divorced
▁exhausted
▁traveling
amm
lling
▁betr
▁heat
▁size
ateful
▁separ
looking
▁guests
▁cleaned
igr
▁fed
▁crim
▁couch
▁enemies
▁stomach
▁character
▁photograp
▁motorcycle
▁'
▁puzz
▁stri
▁ways
▁habit
▁psych
▁Mother
▁excuse
▁master
▁illness
▁pleasure
airo
▁uns
▁bell
▁drow
▁costs
▁thief
▁reluct
ironment
▁attempt
▁mistaken
▁intention
ament
▁Mike
▁Turn
▁dish
▁pron
▁rele
omeday
▁Cairo
itation
▁pushed
▁retire
▁crossed
▁workers
▁confident
kn
How
amb
oph
▁100
▁ess
iable
▁hall
ashion
▁expert
▁planet
▁evidence
▁grateful
▁frightened
ima
omen
▁fle
hamed
▁Paul
▁gate
▁illeg
▁critic
▁lesson
▁percent
▁theater
▁audience
asons
asses
▁bark
▁disg
▁lean
▁uses
▁fence
▁starts
▁failure
▁stronger
▁happiness
:00
Yes
ago
law
oved
▁arri
▁experi
▁ignore
▁social
▁biggest
▁challen
▁divorce
ji
itude
verse
▁liar
▁force
▁arguing
▁further
▁options
Do
rop
zen
▁log
▁var
epend
ician
▁desp
▁upon
▁ashamed
▁members
▁destroyed
▁environment
itiz
lies
▁200
▁Time
▁elev
▁none
▁chose
▁facts
▁liter
▁react
▁accent
▁resign
▁writer
▁elected
▁ignored
▁smarter
▁careless
▁magazine
▁childhood
▁committed
▁temperature
▁Te
dern
▁copy
▁poet
▁coach
▁helps
▁socks
▁carrying
▁exciting
▁pressure
lo
ama
▁Os
umed
vert
▁rom
▁Pres
▁blow
▁scar
iculous
▁appeared
ius
mon
val
▁Gr
▁Wor
gency
▁ears
▁fant
ential
▁Smith
ibility
▁beauty
▁gloves
▁lovely
▁pregnant
▁sometime
▁education
▁translated
0.
▁Se
aint
▁arr
▁obe
▁hill
▁sons
▁argue
▁awful
▁baked
▁announ
▁writes
▁connect
ply
uff
▁Pr
ples
ebook
order
▁Chic
▁guard
▁cooked
▁effect
▁unable
▁climbed
▁foolish
▁welcome
▁attended
me
ulty
▁gym
▁mos
▁pil
▁dare
▁nurse
▁ocean
▁salad
▁highly
▁spread
▁British
▁disease
▁remains
▁attacked
kay
▁hom
▁saf
itions
▁World
▁trick
▁woods
▁allerg
▁refuse
▁repair
▁Chicago
▁adopted
▁misunder
▁notebook
▁politics
▁traveled
▁apologized
ale
efan
mail
vere
▁wit
hange
▁spec
▁wild
▁citiz
▁Arabic
▁Stefan
▁cousin
▁theory
▁holding
▁relative
▁talented
▁introduce
ks
You
▁Ab
year
▁Spe
▁lab
▁Jack
▁Alger
▁anger
▁issue
▁squir
▁economy
▁potatoes
asc
▁Gu
▁pet
▁unb
ember
▁From
▁laid
▁leader
▁simply
▁captain
▁factory
▁package
▁becoming
▁advantage
▁mountains
▁translation
pa
isy
erve
vard
usion
▁emot
▁host
▁sale
lished
▁closet
▁enjoys
▁signed
▁matters
▁secrets
▁unusual
▁greatest
ipp
ron
ents
▁Bet
iture
▁hole
▁rope
▁banan
▁uncom
▁defend
▁houses
▁rained
▁supper
▁classes
▁engaged
▁fingers
▁medical
▁winning
▁understands
itter
urity
▁Read
▁beard
▁bench
▁cheer
▁final
▁shock
▁photos
▁dentist
▁fortune
▁helpful
▁parking
▁deserves
▁abandoned
▁optimistic
exic
hemat
▁bite
▁teen
▁brain
▁swear
▁closer
▁damage
▁Harvard
▁silence
▁disagree
▁wondering
▁attractive
▁complained
hib
ipe
▁Bl
▁surr
▁wave
▁Mexic
▁buried
▁annoyed
▁crowded
▁finding
▁someday
▁Internet
▁furniture
▁ridiculous
▁professional
raw
▁rose
▁soul
▁cheek
▁doors
▁Father
▁joking
▁kicked
▁smiling
▁emergency
▁conference
▁difficulty
▁threatened
ina
▁bes
▁blew
▁inse
▁surf
▁whis
▁Watch
▁fever
▁Africa
▁solved
▁appears
▁wealthy
▁uncomfortable
It
son
▁owns
▁tool
▁valu
▁acted
▁decis
▁influ
▁whose
▁contrib
▁teaches
▁wasting
▁determined
▁disappeared
aled
▁App
asure
▁fifty
▁walks
▁tastes
▁officer
▁reasons
▁enjoying
The
▁De
gery
hand
imum
isten
▁spot
▁wide
inated
verage
▁hurts
▁castle
▁hanging
▁concentr
▁President
fa
nal
arrow
ators
▁chat
▁toil
reedom
▁frequ
▁honey
▁oppos
▁shelf
ilities
▁battle
▁clever
▁violin
▁Turkish
▁camping
▁comment
▁whenever
▁downstairs
▁Ad
illy
irts
▁Rem
▁ham
idays
▁Rome
though
▁apply
▁detect
▁joined
▁quietly
▁independ
▁musician
▁released
▁friendship
▁reasonable
▁rev
imate
▁evil
▁mark
▁airpl
▁cover
▁grass
▁proof
▁shape
▁George
▁fallen
▁smells
▁unless
▁growing
▁regular
▁national
ancy
king
▁numb
▁push
▁Emily
▁Hello
▁candy
▁naked
▁pants
▁Russia
▁cities
▁frustr
▁ability
▁nowhere
▁prepare
▁elevator
▁professor
ata
che
pir
elve
onna
▁bal
▁rab
▁rac
▁van
▁thin
▁equal
▁model
▁round
▁served
▁illegal
▁surgery
▁survived
ka
nel
▁Hun
aches
arian
bborn
▁fond
▁symp
▁alarm
▁center
▁falling
▁basement
▁election
▁patience
▁stubborn
▁succeeded
ffic
uded
▁ast
▁div
▁sofa
▁Osaka
▁faith
▁rough
▁stone
▁Listen
▁novels
▁Algeria
▁located
▁visiting
ald
▁Rom
▁fro
▁gif
▁rub
riger
▁mass
▁apart
▁overw
▁sport
▁safety
hematics
▁witness
▁allergic
▁assistant
▁computers
ij
▁lit
▁Kate
▁bags
▁diam
▁iron
▁purse
▁reads
▁scene
▁tooth
▁Before
▁toilet
▁urgent
▁Mondays
▁depends
▁product
▁entirely
▁murdered
▁refriger
▁research
▁persuaded
▁political
▁invitation
▁suggestion
do
ivil
oker
▁tip
erson
▁Help
▁burn
▁chem
▁task
▁actor
▁deeply
▁Without
▁related
▁towards
▁confidence
▁Hi
▁Wr
amps
rain
▁Man
eless
ifteen
▁champ
▁thanks
▁respond
▁criminal
▁intended
▁religion
ov
▁je
roat
▁Pro
▁curt
▁drew
▁sear
atient
▁pieces
▁Sundays
▁fashion
▁grabbed
▁knocked
▁society
▁refrigerator
cing
uary
▁Lat
▁Men
▁jog
hetic
▁Hold
▁file
▁hell
▁obey
▁pale
romise
▁chest
▁court
▁flood
▁meals
▁stren
▁truly
▁Turkey
▁strang
▁strugg
▁communic
▁interview
aff
▁Re
iant
yond
▁Che
▁bas
▁foc
obile
ption
▁lack
▁tent
▁stage
▁desert
▁papers
▁century
▁wounded
▁secretary
▁classmates
▁responsibility
eds
ucky
▁Luk
▁dig
▁Happ
▁coun
▁stat
engers
velope
▁burst
▁forty
▁noisy
▁sales
ologist
▁climate
▁diamond
▁doctors
▁approach
▁envelope
▁gentleman
▁impatient
▁possibility
bits
cast
▁Dad
▁ath
known
▁nail
▁nuts
▁trad
uction
▁Lukas
▁stock
▁toler
▁effort
▁modern
▁severe
▁capable
▁lessons
▁putting
▁touched
▁incident
▁particip
▁positive
dom
case
uran
▁Mom
▁jew
cture
▁bomb
▁India
▁drugs
▁scare
▁scary
▁athlet
▁beyond
▁constr
▁conven
▁twelve
▁holidays
▁romantic
▁bothering
▁mentioned
▁screaming
azz
▁En
aven
▁Act
▁Kore
▁Next
▁defe
urance
▁concl
▁contr
▁stays
glasses
▁begins
▁plants
▁wishes
▁kissing
▁searched
▁security
▁prevented
▁experiment
yl
ils
ows
word
agger
asing
place
▁Once
▁ment
▁okay
▁cares
▁lower
▁rainy
▁rumor
▁suffe
▁value
▁active
▁blamed
▁streng
▁weapon
▁created
▁dreamed
▁fifteen
▁kidding
▁shorter
asy
oti
zed
ague
vour
▁aim
▁dow
▁mel
▁pig
▁dess
▁disl
▁sheep
▁claims
▁orders
▁unfair
▁canceled
▁insisted
▁underest
▁passengers
ux
bage
▁loan
▁meth
▁poll
▁rate
▁Women
▁eager
▁gonna
▁mater
▁neare
▁roses
▁action
▁narrow
▁nature
▁Welcome
▁aggress
▁average
▁minimum
▁reminds
▁Whatever
▁airplane
▁thoughts
▁valuable
▁preparing
sc
ara
oms
lied
mate
ores
▁Open
▁flag
▁fold
pected
▁cough
▁maybe
▁plate
▁double
▁drawer
standing
▁concern
▁keeping
▁process
▁annoying
▁suffered
▁gro
▁ske
▁flew
▁lent
cially
▁downt
▁jeans
▁spite
▁colour
▁dessert
▁funeral
▁instruct
▁required
▁introduced
ural
▁Con
▁Hur
▁Yan
▁eld
▁led
▁non
▁rap
▁ric
eight
▁dumb
▁ends
▁path
▁diary
▁finan
▁hobby
▁voted
ization
▁policy
▁repeat
▁freedom
▁general
▁pronoun
▁Although
▁changing
▁downtown
▁presents
▁according
▁decisions
▁sunglasses
cut
▁Fe
esus
ibly
iped
plom
▁cro
iring
umped
▁Each
▁Port
▁fake
▁fasc
▁sink
▁Spain
▁block
▁knock
▁towel
▁begged
▁remark
▁burning
▁furious
▁kilomet
▁sounded
▁comments
▁department
▁Me
▁fal
▁row
▁rare
▁Greek
▁greet
▁thick
▁compos
▁oldest
▁disturb
▁generous
▁agreement
▁suffering
▁Mo
▁Mt
▁Ob
itor
sion
ware
▁err
▁nap
▁odd
▁nons
priate
▁irrit
▁mouse
▁pilot
▁shows
▁techn
▁dollar
▁hugged
▁insult
▁larger
▁lasted
▁method
▁removed
▁stealing
▁stranger
▁direction
▁fantastic
▁insurance
▁operation
▁experienced
Tom
now
agon
fact
arily
bered
▁cave
▁Jesus
▁While
▁added
▁boots
▁conse
▁crack
▁grown
▁shook
▁weigh
▁affair
▁applic
▁negoti
ervation
▁mission
▁nearest
▁stepped
▁streets
▁messages
inet
pper
▁Tony
▁debt
▁spir
▁vase
ongrat
▁Latin
▁civil
▁coinc
▁postp
▁sells
▁sings
▁spare
▁troub
▁diplom
▁headed
▁itself
▁online
▁regard
▁sleeps
▁unlucky
▁warning
▁universe
▁currently
▁reluctant
▁apparently
▁discussion
▁impression
aly
iff
pre
umn
▁Bel
▁Fel
▁spo
▁tre
aired
olded
▁pond
ainted
▁Brown
▁Money
▁Shall
▁Yanni
▁humor
▁silly
▁Portug
▁clouds
▁cooper
▁explos
▁former
▁resist
▁robber
▁Shouldn
▁advance
▁ancient
▁blanket
▁fluently
▁reliable
▁strength
1.
ika
lor
▁El
▁Gun
▁fog
▁sch
anted
ittee
unate
▁cris
▁jazz
▁myst
▁babys
▁perio
▁depart
▁favour
▁pillow
▁reject
▁stress
▁suffer
▁efforts
▁selling
▁watches
▁arriving
▁promises
▁daughters
my
bum
met
ran
ency
▁jam
▁lat
anges
aries
illed
▁June
▁sees
▁unex
▁Dania
▁brush
▁occas
▁wheel
▁higher
▁leaned
▁struck
ongratul
▁assumed
▁complex
▁culture
▁deceive
▁pointed
▁useless
amal
ival
wise
▁Hum
ially
stron
▁More
▁comb
▁earn
▁gain
▁magn
employ
▁taxes
▁cancel
▁commit
▁pounds
▁stamps
▁passion
▁European
▁invented
▁religious
▁aggressive
bly
iam
oot
eding
ening
▁Send
▁Year
▁firm
ession
▁terms
▁advise
▁calcul
▁indust
▁riding
▁cousins
▁turning
▁betrayed
▁graduate
▁occurred
▁committee
rer
yard
▁rot
▁quar
▁term
erable
▁Jamal
▁cruel
▁straw
▁tense
olution
▁desire
▁ruined
ervative
▁ceiling
▁exagger
▁smaller
▁attitude
▁slightly
▁surrounded
ept
iny
ole
oom
fers
▁adj
▁cre
▁asks
▁pity
▁yard
▁Hurry
▁decor
▁gramm
▁motiv
▁seats
▁total
▁nation
▁replace
▁pleasant
▁repaired
▁community
▁photograph
▁na
:30.
▁Cle
▁Write
▁crash
▁lobby
▁turns
▁twins
▁border
▁bottom
▁circum
▁rescue
▁source
▁throat
▁applied
▁thanked
▁weapons
▁describe
▁password
▁property
▁cigarette
▁confessed
▁customers
▁suitcases
▁remembered
iev
ocr
ped
tes
uji
▁cy
▁nu
hern
wing
▁bud
▁hyp
▁tun
iders
▁mult
▁poin
▁tatt
▁First
▁bills
▁grave
▁mayor
▁minor
▁parts
▁shame
▁During
▁admire
▁loudly
▁nearby
▁rights
▁selfish
▁stabbed
▁opposite
▁violence
▁challenge
▁yourselves
▁mathematics
gu
oe
boy
uce
zer
▁Br
▁Ph
osen
pril
▁Mil
▁Won
▁ord
▁toy
iches
izing
▁Comp
▁fuck
▁April
▁album
▁arrog
▁flash
▁punct
▁sweat
ustomed
▁robbed
▁consequ
▁drawing
▁mystery
▁opening
▁nonsense
▁prisoner
▁worrying
▁documents
▁competition
▁electricity
ky
ips
ints
iver
ivid
▁Car
▁Gen
▁Say
▁unw
esome
heart
igner
▁decl
ground
▁begun
▁coins
▁finds
▁Almost
▁crisis
▁period
▁William
▁actions
▁elephan
▁garbage
▁original
▁powerful
▁squirrel
▁tourists
▁permitted
ters
inate
itary
▁deaf
▁rece
▁activ
▁reput
▁rooms
▁skept
▁style
▁Gunter
▁design
▁meters
▁shared
▁tattoo
onscious
▁Muslims
▁contest
▁killing
▁numbers
▁provide
▁organized
▁volunteer
▁accustomed
▁frequently
▁unexpected
fl
mber
▁Mrs
▁mic
▁sla
Where
ender
iform
shirt
▁Fuji
▁Swed
▁cops
▁entr
▁role
▁Doesn
▁level
▁rapid
▁accomp
▁altern
▁bitter
▁danced
▁stands
▁cheated
▁happier
▁signific
▁employees
▁constantly
▁personally
▁politician
▁differently
▁independent
▁conservative
hi
Why
cles
ilos
ingu
▁Tan
▁mix
▁raw
overy
uries
▁deny
▁drum
▁port
▁false
▁prior
▁scrat
▁skirt
▁income
▁awesome
▁claimed
▁command
▁relieve
▁unlocked
▁celebrate
▁financial
▁suspected
▁sandwiches
▁performance
mar
apes
iles
male
oked
▁Cal
▁Haw
▁mud
▁reb
▁wol
wards
▁Inst
▁dust
▁mall
▁owes
▁tied
verted
▁Water
▁ambul
▁boxes
▁homes
▁south
▁trial
▁beaten
▁bullet
▁charged
▁content
▁planted
▁slipped
▁soldier
▁swimmer
▁uniform
▁yelling
▁climbing
▁encouraged
▁incredible
▁surprising
▁coincidence
arc
eed
ids
ube
▁Eat
store
▁King
▁worn
ivered
▁gifts
▁advent
▁female
▁fought
▁strict
▁consult
▁granted
▁tallest
▁cheating
▁sentenced
ev
cip
hab
imp
geon
▁ded
▁tar
aging
▁rely
▁Felix
▁North
▁Sever
▁Think
▁blond
▁conce
▁honor
▁naive
▁track
▁access
▁career
▁degree
▁grades
▁handwr
▁hidden
▁subway
pecially
▁approve
▁chances
▁Actually
▁Remember
▁extraord
▁products
▁reported
▁textbook
▁announced
▁published
▁particularly
erk
hus
ido
lin
nes
oko
▁si
mbol
▁gri
▁pra
▁ren
icing
▁Scot
▁rail
▁Nancy
▁below
▁error
▁guide
▁ignor
▁legal
▁notes
▁wound
▁chosen
▁symbol
▁Several
▁actress
▁lecture
▁parties
▁relaxed
▁seconds
▁engineer
▁improved
▁offended
▁official
▁ambulance
▁authority
▁kilometers
▁considering
2.
Is
Are
lace
▁sac
▁lips
▁tail
▁tire
▁vers
usting
▁crush
▁laund
stances
▁Berber
▁collap
▁purcha
▁square
fficient
▁comfort
▁hunting
▁journey
▁require
▁consists
▁princess
▁rejected
▁neighbour
▁conditions
▁i
▁ut
athy
zing
▁Far
▁fac
adays
▁South
▁autom
▁serve
▁sixty
▁astron
▁beside
▁carpet
▁dancer
▁gained
▁insane
▁packed
▁worker
▁cheaper
▁oranges
▁princip
▁recover
▁unemploy
▁especially
▁international
aro
hic
▁CD
▁Rep
anged
▁Find
▁Lear
▁whom
ilosop
▁About
▁Happy
▁White
▁risks
▁colors
▁fooled
▁resour
▁drowned
▁predict
▁quarter
▁reality
▁disaster
▁homeless
▁recovered
▁skeptical
▁pretending
▁reputation
▁imagination
▁instructions
▁understanding
box
nion
olic
sing
▁300
▁Des
▁joy
▁por
pered
stick
▁Soon
▁Such
▁belt
▁cree
▁exec
▁vain
▁memor
▁nucle
▁poker
athered
▁Mexico
▁citizen
▁divided
▁jogging
▁journal
▁laundry
▁backyard
▁creative
▁terribly
▁explosion
uy
gle
anna
chan
husi
icip
▁ner
▁obl
▁vir
going
owers
▁Cook
▁Rima
▁data
▁oven
▁tort
▁toys
garian
▁Haven
▁Peter
▁based
▁split
▁School
▁heaven
▁skills
▁terror
▁awfully
▁degrees
▁fastest
▁snowing
▁gathered
▁resigned
▁Canadians
▁answering
▁briefcase
▁detective
▁scientist
▁alternative
▁handwriting
duct
raft
stit
▁ali
venge
▁Mars
▁lamp
▁trap
itched
prints
▁faces
▁limit
▁magic
▁owner
bitious
▁Marika
▁Police
▁coward
▁fridge
▁height
▁ladder
▁option
▁directly
▁exchange
▁necklace
▁training
▁miserable
▁personality
▁expectations
▁investigation
ibi
isc
ials
uese
▁Oly
▁lif
▁spr
erved
▁bare
▁cock
▁knee
▁lugg
▁ours
▁virt
orrect
▁Being
▁Bible
▁elder
▁fully
▁grade
▁pills
▁swims
▁tempt
▁Either
▁Hallow
▁behave
▁fluent
▁genius
▁infect
▁latest
▁permit
▁crashed
▁dealing
▁luggage
▁prefers
▁various
▁informed
▁classical
▁shoulders
▁terrified
▁Portuguese
▁complaints
▁frustrated
▁importance
▁medication
▁recommended
",
com
oes
ouch
▁Col
▁mer
▁unp
atory
ublic
▁July
▁fate
▁pean
▁unre
▁Olymp
▁accur
▁devast
▁eleven
▁nights
▁punish
▁wasted
▁discour
▁highest
▁swallow
▁captured
▁contains
▁opinions
▁requires
▁Halloween
▁favourite
ox
ham
rol
urs
stan
▁Air
▁Then
▁laws
▁lion
cience
pelled
▁Hawai
▁delet
▁demon
▁hello
▁strike
▁However
▁contain
▁counter
▁grandpa
▁opposed
▁discount
▁entrance
▁interrupt
▁newspapers
▁scientific
▁reservation
ste
anta
onse
oyal
uits
▁hel
agers
▁anti
▁buck
▁caut
▁cine
▁guns
▁spin
▁Frank
▁aside
▁trash
▁whist
▁humili
▁points
▁trains
▁Smoking
▁arrange
▁battery
▁butterf
▁damaged
▁hurried
▁knowing
▁quality
▁victory
▁breaking
▁teenager
▁sensitive
▁incredibly
▁literature
▁application
▁suggestions
bul
▁12
▁Lu
ales
owed
rels
▁pal
aptop
iking
▁Hope
▁Miss
▁Shut
▁carr
▁cher
▁ease
▁gang
▁stun
imated
▁bound
▁daily
▁dozen
▁snake
▁stops
aughter
berries
▁doubts
▁rushed
▁sevent
▁waiter
▁Britain
▁properly
▁punctual
▁response
▁delivered
▁relatives
▁tradition
▁assistance
▁collection
▁convenient
▁accidentally
awa
ipt
kin
min
▁Bar
▁Eve
▁Few
▁sin
▁barn
▁dawn
▁mask
▁pure
▁shoe
orough
▁Great
▁brand
▁goods
▁north
▁owned
▁screw
▁causes
▁cinema
▁laptop
▁anticip
▁becomes
▁delayed
▁worries
▁charming
▁increase
▁relieved
▁ambitious
▁conscious
▁correctly
▁strangers
▁treatment
▁overweight
ral
rig
quit
ogram
▁Tues
▁cups
▁meas
▁pear
▁pess
▁sail
illing
lected
▁liber
▁queen
▁tools
▁wiped
agement
ionally
osphere
▁candid
▁decent
▁immigr
ological
▁Tuesday
▁carpent
▁players
▁protest
▁puzzled
▁robbery
▁bleeding
▁weekends
▁suspended
▁talkative
▁expression
▁vegetarian
▁construction
▁embarrassing
hel
jud
▁13
uous
vant
▁Jan
▁Luck
▁blog
▁coin
▁fest
▁roll
▁ruin
▁Close
▁Farid
▁appet
▁cerem
▁earns
▁youth
onsider
working
▁billion
▁heavily
▁plastic
▁pressed
▁privacy
▁scolded
▁crossing
▁distract
▁hesitate
▁military
▁ordinary
▁philosop
▁breathing
▁otherwise
▁accomplish
▁appearance
▁competitive
▁concentrate
▁difficulties
kes
▁11
etch
▁Hok
▁gra
ilies
lared
▁Bush
▁Pric
▁cure
▁fuss
▁gamb
▁junk
▁peel
▁redu
▁sett
▁tore
▁shake
▁slave
▁trunk
▁candle
▁rabbit
▁rented
▁anytime
▁apology
▁charges
▁delight
▁showing
▁arrogant
▁clothing
▁material
▁attempted
▁effective
▁lightning
▁motivated
gs
ban
aker
mind
name
what
▁Min
▁Nor
▁Sit
▁Sud
onest
▁forb
▁reve
▁slam
▁essay
▁foods
▁greed
▁jewel
▁steps
▁sword
▁wheat
▁Prices
▁compan
▁farmer
▁mosque
▁myster
▁origin
▁barking
▁contrad
▁current
▁devoted
▁interfe
▁painful
▁regrets
▁shouted
▁sincere
▁achieved
▁demanded
▁interpre
▁interrup
▁supplies
▁thorough
▁buildings
▁fortunate
▁statement
▁cigarettes
▁accomplished
▁circumstances
Who
ria
ulf
▁Sy
dded
▁Kab
▁cas
▁sib
▁vot
andal
kaido
otion
▁Work
▁arch
▁disp
▁fund
▁glob
▁mild
▁rush
▁shit
▁thri
alking
itable
▁poems
▁schol
▁toast
inating
▁adults
▁motion
▁silver
▁skinny
▁snakes
▁absence
▁breathe
▁candles
▁pockets
▁rescued
▁Hokkaido
▁interfere
▁remembers
iko
nam
▁Fl
resp
▁Ann
▁nic
acher
ading
alled
▁Char
▁Hand
▁ange
▁lawn
▁pink
▁Grand
▁adult
▁burgl
▁Having
▁Hawaii
▁advert
▁autumn
▁banana
▁bitten
▁killer
▁nodded
▁choices
▁justice
▁ringing
▁sibling
▁skating
▁deserved
▁forgiven
▁accidents
▁generally
▁paintings
bow
rie
urd
back
ooth
ship
▁fol
▁upd
denly
house
iding
istry
licop
olley
▁Lord
▁buys
▁link
▁soap
▁typh
▁Roman
▁dated
▁estab
▁spoon
▁stamp
▁sunny
▁Wouldn
▁ghosts
▁intent
▁bananas
▁element
▁enthusi
▁nuclear
▁typical
▁Suddenly
▁somewhat
▁attracted
▁congratul
▁compromise
▁appreciated
▁unconscious
ano
bon
hai
▁Or
▁alp
▁fox
▁sen
▁yog
orthy
tered
▁Fort
▁chop
▁irre
▁puts
▁sore
▁temp
▁oblig
▁panic
▁porch
▁walls
▁errors
▁mobile
▁region
▁settle
▁volley
▁yelled
▁bottles
▁helicop
▁schools
▁screamed
▁software
▁cellphone
▁convicted
▁discussing
▁suggesting
▁consequences
▁extraordinary
hew
isa
ker
oln
inct
onym
roph
uled
▁Ant
▁Sus
▁cot
▁pul
arant
orted
▁Cats
▁Cont
▁Thom
▁beef
▁cart
▁gray
▁male
▁rise
▁swam
▁twin
▁visa
resent
▁Santa
▁sides
▁trade
▁amused
▁mechan
▁prohib
▁safely
▁arrives
▁closely
▁guarant
▁listens
▁species
niversity
▁ceremony
▁counting
▁economic
▁treasure
▁Christian
▁increased
▁prisoners
▁volleyball
▁appropriate
SA
ti
▁Je
ares
rian
▁Ten
▁atm
▁dom
▁mut
▁tig
▁Linc
▁bowl
▁cows
▁shel
▁wins
▁Speak
▁gunsh
▁pages
▁shave
▁stret
▁topic
ciation
▁bucket
▁fellow
▁hammer
▁smooth
▁Lincoln
▁blocked
▁expects
▁rapidly
▁unknown
▁accurate
▁addicted
▁families
▁patients
▁transfer
▁Hungarian
▁bookstore
▁completed
▁predicted
▁requested
▁respected
▁Apparently
▁disappoint
agn
▁iP
cher
corn
gain
izzy
lish
▁Jul
▁Rec
▁god
▁nin
aying
craft
derer
inter
▁Mark
▁Taro
▁cust
▁outs
▁pays
ensive
istent
▁broad
▁goals
▁metal
▁shift
▁solar
▁tries
▁earned
▁exists
▁explod
▁nerves
▁Washing
▁manners
▁trained
▁violent
▁expenses
▁injuries
▁internet
▁kilogram
▁visitors
▁converted
▁influence
▁restaurants
how
idy
▁ge
▁ox
amad
nish
▁Jew
▁sym
ength
pring
▁dism
▁flir
▁kick
minded
ushing
▁dried
▁lemon
▁steak
▁wanna
athetic
▁Valent
▁brings
▁client
▁defeat
▁landed
▁potato
▁shirts
▁warmer
▁carrots
▁spilled
▁bothered
▁customer
▁festival
▁kindness
▁majority
▁regularly
▁thousands
▁atmosphere
umi
▁dy
aire
assy
fire
gage
istr
▁Old
▁Red
▁dil
▁rat
▁une
▁fork
▁sixt
▁Check
▁Drink
▁March
▁armed
▁creep
▁devil
▁exhib
▁labor
▁lines
▁stead
stanbul
▁Korean
▁appeal
▁chairs
▁forces
▁hiking
▁placed
▁surren
▁cleared
▁depress
▁greeted
▁individ
▁letting
▁limited
▁lottery
▁painter
▁partner
▁victims
▁industry
▁murderer
▁previous
▁developed
▁disappear
▁irritated
▁pollution
▁flashlight
▁remarkable
He
no
gin
obb
udy
urt
That
anch
ends
etic
viet
▁Mic
▁Mid
▁Str
▁Ven
▁ank
▁awk
▁rug
▁shr
▁sne
chief
ednes
eliev
ivers
▁Tick
▁ages
▁craw
▁dear
▁duck
▁kidn
▁maid
▁prec
▁stro
igence
▁cakes
▁cared
▁loser
▁Cookie
▁Soviet
▁breast
▁folded
▁forbid
▁horror
▁makeup
▁target
ednesday
▁Finnish
▁Twitter
▁awkward
▁closest
▁glanced
▁haircut
▁mosquit
▁Istanbul
▁chairman
▁contacted
▁incorrect
▁searching
▁grandparents
da
elia
iber
izes
▁phr
▁Cath
▁diss
▁neat
▁reck
lliant
▁Guess
▁coast
▁exams
▁opera
▁puppy
▁tires
ception
▁Easter
▁Thomas
▁debate
▁loving
▁switch
▁costume
▁deliver
▁popcorn
▁sending
▁typhoon
▁dreaming
▁examined
▁youngest
▁Wednesday
▁carpenter
▁regretted
▁helicopter
▁impressive
▁significant
ao
ua
alt
eah
elt
iac
iri
ita
ivor
otic
▁Ice
▁Lau
▁Mos
▁gre
aghet
habet
stood
▁bent
▁menu
▁site
▁Marie
▁Music
▁dizzy
▁knees
▁pitch
▁tower
aghetti
▁breaks
▁spider
▁archite
▁dislike
▁hurting
▁insects
▁pianist
▁scandal
▁shortly
▁appetite
▁reminded
▁roommate
▁emotional
▁represent
▁unemployed
▁composition
▁underestimate
li
ida
the
uko
abor
ades
erry
▁aid
▁pup
▁voc
sters
▁edge
▁liqu
▁merc
ulated
ursday
▁benef
▁micro
▁mirac
▁score
▁stove
▁create
▁driven
▁faults
▁helmet
▁histor
▁rising
▁tasted
▁therap
▁custody
▁Thursday
▁addition
▁citizens
▁declined
▁demonstr
▁elephant
▁speakers
▁tomatoes
▁unbeliev
▁wherever
▁innocence
▁practical
▁struggled
▁foreigners
▁celebrating
▁discouraged
▁sympathetic
iro
jam
▁Mu
ansl
pack
▁Hot
▁lip
▁sir
ouder
unted
▁pier
▁pork
▁rode
▁stew
▁tank
▁wink
▁award
▁disor
▁equip
▁gorge
▁loose
▁Spring
▁cookie
▁frozen
▁greedy
▁issues
▁loaded
▁phoned
▁spirit
▁states
▁winner
▁wooden
▁Instead
▁Tickets
▁causing
▁chopped
▁confess
▁follows
▁leather
▁alphabet
▁chemical
▁drowning
▁hundreds
▁physical
▁precious
▁brilliant
▁foreigner
▁magazines
▁principal
▁qualified
▁connection
▁directions
▁instrument
▁prohibited
▁pessimistic
bl
fle
▁pi
iety
mare
reak
wife
▁Meg
▁ang
▁caf
▁jar
▁net
▁wha
isher
▁East
▁Febr
▁Long
▁Mill
▁bald
▁bone
▁corn
▁euro
▁nick
▁onto
▁sarc
▁snee
▁wolf
handed
issors
▁Betty
▁Young
▁aston
▁beans
▁plain
▁slipp
▁spell
▁Amelia
▁Choose
▁grapes
▁heartb
▁January
▁conduct
▁intends
▁jewelry
▁revenge
▁settled
▁sharpen
▁slammed
▁stunned
▁February
▁affected
▁curtains
▁deceived
▁declared
▁gorgeous
▁minister
▁negative
▁provided
▁salesman
▁chemistry
▁collapsed
▁nightmare
▁satisfact
▁Washington
▁disgusting
▁engagement
▁practicing
bur
for
ino
obe
por
udd
five
umer
▁spy
ching
issed
krain
▁acts
▁bars
▁mere
▁sung
▁tune
▁Jones
▁Langu
▁Right
▁ankle
▁focus
▁intim
▁occup
▁safer
▁scarf
▁signs
▁staff
▁waved
hearted
▁amazed
▁budget
▁global
▁recent
▁reward
▁statue
▁athlete
▁baggage
▁curtain
▁grandch
▁suffers
▁Catholic
▁cautious
▁compared
▁presence
▁scissors
▁separate
▁shooting
▁appointed
▁entertain
▁equipment
▁forgetting
BI
Wh
uan
▁Bir
▁Nag
▁Pay
▁ink
▁tag
▁Asia
▁Aust
▁bake
▁code
▁fare
▁gull
▁init
▁lung
▁subs
icians
napped
▁comic
▁delay
▁image
▁leads
▁minds
▁outdo
▁prett
▁risky
▁sacri
▁vehic
▁Berlin
▁argued
▁export
▁humans
▁laughs
▁screen
▁tempor
▁treaty
▁visits
▁weighs
▁Luckily
▁beating
▁blowing
▁jumping
▁surface
▁trapped
▁approved
▁opportun
▁complaint
▁confusing
▁kidnapped
▁spaghetti
▁whispered
▁misunderstood
mit
nad
ura
asty
▁Cut
▁FBI
▁Pre
oline
▁Moon
▁cage
▁fled
▁pipe
▁sake
entive
▁absor
▁alibi
▁bloom
▁bunch
▁cloth
▁horiz
▁ideal
▁media
▁postc
▁blonde
▁cherry
▁hunger
▁misses
▁resemb
▁Finally
▁amusing
▁heading
▁longest
▁spiders
▁Whenever
▁arranged
▁bringing
▁constant
▁eighteen
▁hopeless
▁suitable
▁postponed
▁conclusion
▁increasing
Not
avy
▁Co
iece
uine
well
▁Add
▁bru
▁web
gment
hache
uding
▁Sing
▁asso
▁imit
▁obst
▁toss
▁trem
▁Black
▁Death
▁Green
▁shove
▁shown
▁spicy
▁trait
▁unmar
imately
▁Doctor
▁agrees
▁crimes
▁exchan
▁fruits
▁indeed
▁monkey
▁strate
kerchief
▁admired
▁destroy
▁grammar
▁intimid
▁physics
▁picking
▁skipped
▁annivers
▁checking
▁director
▁forehead
▁function
▁gambling
▁memories
▁poisoned
▁reaction
▁stopping
▁strongly
▁Valentine
▁dedicated
▁transport
▁unmarried
▁approached
▁devastated
▁mysterious
▁technology
▁handkerchief
cel
ena
iat
ica
ris
▁ID
▁Po
They
fall
olve
oops
oudy
pite
rant
▁Boy
▁Heb
▁Mad
▁Wow
▁Lucy
▁bart
▁frog
▁sits
▁wand
worthy
▁aspir
▁bluff
▁fifth
▁flows
▁lover
▁manip
▁nails
▁nasty
▁rifle
▁trail
▁utter
▁withd
outhern
▁Anyone
▁Laurie
▁addict
▁cloudy
▁formed
▁prayed
▁racist
▁Whether
▁bargain
▁closing
▁compare
▁convert
▁fiction
▁forgave
▁genuine
▁harvest
▁leaders
▁monster
▁surgeon
▁examples
▁flirting
▁gullible
▁meetings
▁proposed
▁survivor
▁tolerate
▁Hopefully
▁departure
▁described
▁efficient
▁performed
▁potential
▁unwilling
▁anniversary
▁communicate
▁participate
"?
Don
▁vo
ault
▁Cla
▁Med
▁hij
▁nep
▁nut
itzer
ocrat
oogle
▁West
▁coal
▁cope
▁goss
▁hers
▁horn
▁item
▁tear
estern
▁Gener
▁Light
▁alike
▁appla
▁basic
▁debts
▁grows
▁loyal
▁maint
▁refer
▁Forget
▁Hebrew
▁branch
▁dragon
▁puzzle
▁rolled
▁Despite
▁Switzer
▁Whoever
▁affairs
▁burglar
▁kidnapp
▁musical
▁peanuts
▁savings
▁sixteen
▁articles
▁backpack
▁educated
▁emotions
▁nowadays
▁repeated
▁replaced
▁reporter
▁adventure
▁delighted
▁disturbed
▁essential
▁volunteers
▁Switzerland
▁differences
Did
eps
ias
org
osh
▁ep
agne
anda
▁Aug
▁dra
▁gay
▁lux
▁sem
ilton
osity
▁City
▁Hang
▁grab
▁grin
▁inex
▁leak
ocracy
▁Stand
▁burnt
▁films
▁inher
▁pride
▁roads
▁rocks
ousands
▁August
▁Greece
▁Though
▁approx
▁cattle
▁guards
▁louder
▁mental
▁rotten
▁thrown
▁unique
▁balance
▁behaved
▁defense
▁earring
▁extreme
▁haunted
▁measure
▁thunder
▁tourist
▁astronom
▁ignoring
▁secretly
▁Thousands
▁attentive
▁collected
▁promotion
▁individual
▁scientists
▁cooperative
▁investigating
eve
rim
▁Ed
:00.
down
▁Mel
▁dug
▁pin
ented
icate
ishes
istan
jamas
lands
owing
verty
▁Answ
▁Matt
▁jury
▁shad
▁tape
▁tiny
▁west
ophone
▁attic
▁diagn
▁flies
▁skate
▁sting
▁surve
▁trump
viously
▁Transl
▁circle
▁downlo
▁events
▁fixing
▁gather
▁length
▁lifted
▁orphan
▁overhe
▁priest
▁refuge
▁senior
▁series
▁sorrow
▁voices
▁wisdom
atically
▁Germans
▁Mexican
▁charity
▁dresses
▁embassy
▁excuses
▁leading
▁logical
▁poverty
▁Republic
▁composed
▁coughing
▁distingu
▁entering
▁expelled
▁hesitant
▁normally
▁switched
▁companies
▁discovery
▁expressed
▁pronounce
▁contribute
▁reluctantly
▁underestimated
?!
bag
ero
hal
len
ley
▁Ap
▁ax
ckey
enth
itam
ived
utes
▁Bad
▁Buy
▁Emp
▁lid
▁sam
▁wid
▁Like
▁Sept
▁Yoko
▁butt
▁clar
▁crew
▁dies
▁exit
▁hook
▁indo
▁inev
▁plat
▁sank
▁Korea
▁angel
▁chain
▁depos
▁falls
▁handy
▁renew
▁shell
▁swore
▁tends
▁waves
▁Always
▁absurd
▁assign
▁batter
▁betray
▁consum
▁habits
▁hockey
▁nephew
▁onions
▁proved
▁reform
▁washes
▁Promise
▁arrival
▁brushed
▁confirm
▁planets
▁pulling
▁regards
▁snoring
▁wrapped
▁Speaking
▁acquaint
▁avoiding
▁defeated
▁forecast
▁specific
▁September
▁decorated
▁exchanged
▁objective
▁scheduled
▁collecting
▁retirement
▁throughout
▁established
▁hardworking
ams
ola
put
▁Fo
▁Sl
ador
alog
cope
harm
itan
oman
ught
▁Cha
▁Dis
▁Dut
▁Rel
▁Sec
▁Sum
hroom
iforn
▁Mart
▁begg
▁chew
edient
phones
writer
▁Susan
▁crops
▁overs
▁prime
▁pulse
▁suits
▁sushi
▁tiger
▁urged
▁wrest
ability
▁Indian
▁belief
▁dining
▁dumped
▁prince
▁pronun
▁racket
▁rumors
▁seated
▁shaved
▁sweets
▁tunnel
▁customs
▁focused
▁heavier
▁operate
▁pajamas
▁replied
▁texting
▁Californ
▁accompan
▁belonged
▁concerns
▁critical
▁insulted
▁mushroom
▁obsessed
▁overwhel
▁sensible
▁siblings
▁strategy
▁throwing
▁Generally
▁bartender
▁complains
▁cooperate
▁resources
▁sarcastic
▁acquainted
▁opportunities
aph
aps
auc
dro
▁od
abul
free
inos
kind
mbur
moon
ueen
▁gum
asant
ement
peare
usive
▁Pass
▁Save
▁deer
▁gods
▁jerk
▁seas
▁skip
▁wool
▁Throw
▁agent
▁conqu
▁homet
▁picky
▁sympt
▁uncon
▁valid
▁windy
lexible
ography
ountain
▁Answer
▁Change
▁aliens
▁copies
▁gossip
▁hambur
▁incomp
▁modest
▁poetry
▁stores
▁Swedish
▁carries
▁deliber
▁demands
▁receipt
▁richest
▁scratch
▁surfing
▁travels
isticated
▁Scotland
▁advanced
▁bluffing
▁discover
▁hometown
▁humanity
▁sympathy
▁terrific
▁troubled
▁dependent
▁honeymoon
▁interests
▁background
▁inevitable
▁intentions
▁pronunciation
▁disappointment
'.
ya
Tube
ails
alax
aste
oups
rict
walk
ygen
▁Jup
▁Pat
▁Ser
▁jun
▁pir
aming
▁Ange
▁Iran
▁Part
▁drag
▁dyed
▁east
▁hike
▁mort
▁outr
▁prim
▁soph
▁toes
ending
ormous
▁Clean
▁accus
▁bears
▁comed
▁dealt
▁freak
▁fried
▁impol
▁medal
▁pharm
▁pound
▁rings
▁stink
▁vitam
istered
lection
▁Follow
▁Mayuko
▁Polish
▁banned
▁busier
▁creepy
▁ladies
▁plates
▁remove
▁snowed
▁temple
kespeare
▁Jupiter
▁YouTube
▁abandon
▁compete
▁deleted
▁highway
▁honesty
▁propose
▁quarrel
▁section
▁shelter
▁Learning
▁darkness
▁executed
▁identity
▁included
▁occasion
▁thrilled
▁Obviously
▁butterfly
▁elsewhere
▁finishing
▁forbidden
▁ignorance
▁improving
▁kilograms
▁overnight
▁separated
▁California
▁distracted
▁protection
▁punishment
▁translator
▁businessman
▁fascinating
▁translating
▁communication
▁grandchildren
▁Ir
anes
cony
fish
gger
ieth
nder
oard
oons
osis
outs
▁Atl
▁Jud
▁avo
▁fab
▁ing
▁lun
▁tap
acked
appro
ardon
asive
fight
proof
▁Comm
▁Food
▁Kobe
▁cane
▁fuel
▁load
▁rout
▁unne
▁volc
▁wage
headed
thirty
▁adopt
▁alert
▁bones
▁mixed
▁oppon
▁print
▁snack
▁squee
▁theft
abulary
▁Dinner
▁Google
▁Middle
▁biased
▁blocks
▁calend
▁chased
▁knives
▁recipe
▁troops
▁trusts
▁turkey
▁avoided
▁balcony
▁despise
▁indoors
▁perhaps
▁prescri
▁reports
▁tricked
▁version
istration
▁deadline
▁deserted
▁enormous
▁faithful
▁homesick
▁impolite
▁nickname
▁promoted
▁railroad
▁unnecess
▁affection
▁criticism
▁gradually
▁invention
▁surrender
▁acceptable
▁thoroughly
▁Shakespeare
▁millionaire
▁transferred
▁photographer
▁satisfactory
lph
off
uki
ups
zes
▁Im
▁Lo
aine
cuff
elet
iner
mark
rise
wood
▁Mat
▁Sad
▁dim
▁ped
▁wig
chair
enger
irmed
roken
ulate
water
▁Anne
▁Must
▁Viet
▁Yumi
▁fulf
▁mile
▁Enjoy
▁Hotel
▁cabin
▁chief
▁cooks
▁cries
▁forth
▁loses
▁sauce
▁slice
▁thumb
▁twent
iterate
▁attorn
▁carbon
▁eighty
▁growth
▁injury
▁intrig
▁recall
▁richer
▁babysit
▁biology
▁counted
▁elderly
▁punched
▁records
▁shaking
▁trumpet
▁Jacksons
▁Recently
▁calendar
▁doubtful
▁handcuff
▁imagined
▁keyboard
▁laughter
▁location
▁mustache
▁outdoors
▁troubles
▁alcoholic
▁attending
▁exception
▁guitarist
▁instantly
▁objection
▁someplace
▁squirrels
▁babysitter
▁humiliated
▁questioned
▁supportive
▁vocabulary
▁Fortunately
▁approaching
▁description
▁development
▁questioning
We
zy
Can
ako
oos
▁Gl
▁Ma
agic
coat
elly
illa
keep
▁Dav
▁Hen
▁Sat
▁apt
▁bum
▁sew
▁sip
Thank
ieves
ijing
ivity
▁Dogs
▁Four
▁Hiro
▁Talk
▁pist
▁rewr
▁root
▁sexy
▁admin
▁files
▁fools
▁intox
▁moral
▁overd
▁seeds
▁teles
ongress
▁Sooner
▁desper
▁facing
▁groups
▁kitten
▁manner
▁parent
▁prejud
▁reduce
▁ripped
▁techni
▁tricks
▁Austria
▁Beijing
▁Believe
▁Frankly
▁Vietnam
▁assault
▁drivers
▁fainted
▁greatly
▁harmful
▁hitting
▁pencils
▁shining
▁spoiled
▁Anything
▁designed
▁judgment
▁millions
▁notified
▁accompany
▁backwards
▁champagne
▁guarantee
▁supported
▁criticized
▁diplomatic
▁disturbing
▁generation
▁traditional
▁volunteered
▁organization
ta
wh
acu
eor
spe
tub
war
▁Ak
▁Sk
foot
olar
ques
▁Bak
▁Lad
▁Rio
▁bom
▁fla
▁sax
Whose
cknow
ighed
olves
storm
▁Budd
▁acid
▁bees
▁brac
▁hats
▁migr
atures
ealand
utions
▁Franc
▁Human
▁adapt
▁aimed
▁amate
▁analy
▁bitch
▁colon
▁deals
▁disgu
▁fairy
▁frank
▁fussy
▁hijab
▁holds
▁humid
▁paran
▁snows
▁wings
ificent
onymous
respect
▁aboard
▁cheeks
▁colder
▁multip
▁pepper
▁posted
▁powers
▁prayer
▁relief
▁smiles
▁traged
▁uneasy
▁Johnson
▁passing
▁serving
▁setting
▁attorney
▁cheerful
▁eyesight
▁honestly
▁register
▁resident
▁respects
▁scholars
▁shouting
▁thankful
▁corrected
▁purchased
▁characters
▁compliment
▁accompanied
▁interpreter
▁enthusiastic
▁approximately
▁possibilities
bec
ggy
mic
▁Ev
▁II
▁wa
beat
hael
iour
umpy
▁Run
▁Sal
▁Sup
▁Tex
▁bak
▁bee
▁boo
▁mal
▁wel
guard
inals
pired
▁Five
▁Nove
▁Pick
▁Stud
▁atom
▁grav
▁poly
▁zero
essive
iation
unched
▁Claus
▁areas
▁bache
▁cases
▁disob
▁nicer
▁opens
▁shark
▁shine
▁ships
▁spect
▁steel
▁Columb
▁Little
▁Tanaka
▁acknow
▁associ
▁bakery
▁beings
▁estate
▁junior
▁phrase
▁remote
▁sunset
▁tomato
ilingual
▁bathtub
▁lawyers
▁lowered
▁packing
▁scenery
▁slapped
▁subscri
▁warming
▁Language
▁ambition
▁announce
▁bankrupt
▁creature
▁earrings
▁exploded
▁happiest
▁overcome
▁postpone
▁quitting
▁starving
▁touching
▁connected
▁fundament
▁identical
▁investment
▁magnificent
▁unnecessary
asm
bar
mel
ula
▁hi
Will
hold
onia
rily
▁Mal
▁Pac
▁Sam
▁bra
▁bul
▁eth
▁sue
▁tab
0,000
arrot
getic
ungle
▁2013
▁Thai
▁Wash
▁brag
▁dull
▁eter
▁hobb
▁manu
▁owed
▁seek
istics
ometer
orable
shield
▁Asian
▁Dutch
▁heads
▁incon
▁punch
▁Native
▁Norway
▁adjust
▁babies
▁backed
▁campus
▁cowboy
▁disple
▁heater
▁jungle
▁ninety
▁offend
▁oxygen
▁profit
▁runner
▁scarce
▁sexual
▁smoked
▁upside
▁Finland
▁Iceland
▁besides
▁boiling
▁effects
▁founded
▁handled
▁hobbies
▁mistook
▁proceed
▁refuses
▁smelled
▁approval
▁psychiat
▁reserved
▁standard
▁Brazilian
▁architect
▁continues
▁resembles
▁returning
▁temporary
▁journalist
▁philosophy
▁registered
▁windshield
▁destination
bes
ked
rid
▁Ah
gers
hods
obic
pens
ylie
▁Cat
▁Det
▁Edu
▁Res
▁bun
▁dye
alley
berry
liest
steps
▁Alex
▁Dick
▁Isra
▁Sand
▁Wasn
▁bass
▁fans
▁flaw
▁gall
▁pine
▁tidy
acious
coming
estyle
igning
itated
▁decre
▁faced
▁fewer
▁flute
▁mustn
▁pairs
▁pasta
▁shore
▁solid
▁subur
▁wives
ionship
itement
▁Friend
▁Poland
▁Sweden
▁blouse
▁hotels
▁hunter
▁learnt
▁limits
▁luxury
▁pistol
▁purple
▁signal
▁stream
▁tossed
▁wounds
▁Kabylie
▁Olympic
▁aspirin
▁bedtime
▁forgets
▁greater
▁hardest
▁inappro
▁intense
▁methods
▁rabbits
▁sailing
▁somehow
▁sunrise
▁teasing
▁thieves
▁whistle
▁November
▁Students
▁barefoot
▁diligent
▁freezing
▁hostages
▁ignorant
▁knocking
▁launched
▁marrying
▁recorded
▁recovery
▁regarded
▁symptoms
▁behaviour
▁cancelled
▁competent
▁confirmed
▁diagnosed
▁footsteps
▁telescope
▁uncertain
▁automobile
▁conscience
▁convincing
▁dependable
▁passionate
▁production
▁intoxicated
▁politicians
▁fingerprints
▁consideration
ja
aki
esh
has
iar
ila
▁Ac
anie
bell
cked
hang
▁San
▁Sea
▁Squ
▁fax
▁fry
▁mum
andom
eness
▁Dece
▁athe
▁chap
▁dict
▁pens
▁perf
▁pour
ferent
imming
nament
▁Peace
▁Start
▁banks
▁bless
▁buses
▁dough
▁lacks
▁optim
▁Health
▁Humans
▁Winter
▁bumped
▁cockro
▁detest
▁fourth
▁parrot
▁rested
▁review
friendly
▁Michael
▁appoint
▁bothers
▁confuse
▁gunshot
▁mansion
▁miracle
▁praised
▁produce
▁testify
▁vehicle
▁Egyptian
▁bracelet
▁cultural
▁fountain
▁helpless
▁manufact
▁mechanic
▁politely
▁postcard
▁severely
▁waitress
▁creatures
▁democracy
▁existence
▁lifestyle
▁promising
▁celebrated
▁displeased
▁excitement
▁illiterate
▁travelling
▁heartbroken
▁trustworthy
▁exaggerating
▁intelligence
▁strawberries
▁consciousness
jo
sp
▁?
cow
oly
ori
▁Cr
arly
ctic
ears
give
orse
pret
ront
rows
udes
▁Ali
▁Han
▁Mac
▁Moz
▁Sil
▁Tim
▁poo
▁tit
stein
while
▁abol
▁brut
▁dorm
▁fart
▁goat
▁pets
▁recy
▁verb
atered
ficial
sticks
▁Texas
▁campa
▁confl
▁euros
▁hilar
▁shade
▁sneak
▁unple
▁veter
▁whale
orthern
▁Argent
▁Better
▁Hirosh
▁Israel
▁Moscow
▁boiled
▁formal
▁harass
▁proced
▁pupils
▁random
▁scares
▁sewing
▁stable
▁tracks
▁virtue
▁volume
▁waters
▁Between
▁Forgive
▁cafeter
▁channel
▁corrupt
▁horizon
▁mailbox
▁majored
▁matches
▁spinach
▁torture
▁December
▁accounts
▁stressed
▁superior
▁vanished
▁abilities
▁addressed
▁dismissed
▁encourage
▁hilarious
▁receiving
▁saxophone
▁assignment
▁fascinated
▁relatively
▁unpleasant
▁combination
▁convenience
▁interrupted
▁remembering
▁sophisticated
Oh
Th
cr
ona
vis
▁Ra
▁om
bing
ikes
rial
tles
▁Bat
▁Bus
▁Cup
▁Dem
▁Den
▁Gir
▁Too
▁orc
▁sed
▁wre
adium
athon
eches
ooked
▁Gold
▁Sure
▁Wind
▁fits
▁folk
▁isol
▁leaf
▁nest
▁pant
▁phen
▁porn
▁purs
aughty
ulsive
▁Birds
▁Count
▁House
▁Irish
▁Learn
▁blink
▁dates
▁flour
▁frost
▁giant
▁guilt
▁lingu
▁moves
▁penal
▁salty
▁stiff
▁sweep
▁types
inosaur
respons
▁Mozart
▁commer
▁fields
▁inches
▁meteor
▁mostly
▁mutual
▁partly
▁scored
▁slower
▁steady
▁tables
asonable
▁Another
▁Melanie
▁concept
▁farmers
▁handbag
▁nations
▁naughty
▁payment
▁tightly
▁tragedy
▁watered
▁Olympics
▁absolute
▁activity
▁chickens
▁diseases
▁doorbell
▁driveway
▁electron
▁interrog
▁measures
▁movement
▁objected
▁sidewalk
▁watermel
▁cafeteria
▁construct
▁dishonest
▁irrespons
▁policemen
▁realistic
▁seventeen
▁disrespect
▁desperately
▁experiences
▁unreasonable
▁inappropriate
asp
fit
acon
fess
inoc
itty
keys
made
rate
semb
▁Ben
▁Hal
▁Ham
▁Kaz
▁Pal
arten
brush
cling
erior
react
▁Educ
▁Fire
▁Milk
▁Nice
▁Step
▁bush
▁cuts
▁envy
▁frag
▁jack
▁mamm
artial
entral
ipping
usions
▁Obama
▁Sleep
▁assum
▁bowed
▁chips
▁disgr
▁evacu
▁faint
▁filed
▁harsh
▁holes
▁nerve
▁steam
▁subst
aborate
▁Summer
▁differ
▁electr
▁golden
▁insist
▁kisses
▁notify
▁perman
▁praise
▁refres
▁shaken
▁smokes
▁tragic
▁worthy
uriosity
▁Central
▁Francis
▁Pacific
▁Parents
▁cutting
▁excused
▁exposed
▁figures
▁filling
▁flights
▁fucking
▁solving
▁stadium
▁starved
▁visible
▁behaving
▁detailed
▁district
▁lipstick
▁peaceful
▁prettier
▁purchase
▁resource
▁semester
▁shocking
▁southern
▁speeches
▁spelling
▁watering
▁weakness
▁Europeans
▁candidate
▁continent
▁energetic
▁naturally
▁protected
▁teenagers
▁worthless
▁belongings
▁chopsticks
▁influential
▁necessarily
▁resignation
▁carelessness
▁participated
ko
of
ru
car
hop
ode
sha
uba
▁1.
Have
berg
four
hens
ntil
ping
uten
▁Gal
▁Sen
▁Way
▁dia
▁gig
▁lob
▁obt
endid
geons
grand
ously
▁Very
▁Wake
▁abst
▁clue
▁dece
▁excl
▁mole
▁prem
▁ther
atical
kraine
person
ricane
▁Bakir
▁Event
▁Other
▁abuse
▁awoke
▁belie
▁bloss
▁displ
▁drums
▁funds
▁galax
▁marks
▁quant
▁roast
▁sheet
▁shots
▁simpl
▁teams
▁theat
▁vague
▁views
umerous
▁abused
▁barber
▁donate
▁ending
▁exceed
▁fisher
▁grumpy
▁inspir
▁overse
▁planes
▁tested
▁treats
▁African
▁Station
▁Western
▁amateur
▁blushed
▁cabinet
▁compass
▁guessed
▁include
▁install
▁massage
▁moments
▁persons
▁shallow
▁stuffed
▁traitor
▁wanting
▁whoever
▁Anderson
▁Columbus
▁Swimming
▁adorable
▁athletic
▁beginner
▁campaign
▁catching
▁concerts
▁designer
▁despised
▁flexible
▁governor
▁incompet
▁pathetic
▁phenomen
▁platform
▁revealed
▁smallest
▁suspects
▁thirties
▁nervously
▁reception
▁Eventually
▁elementary
▁physically
▁priorities
▁investigate
▁championship
▁independence
▁translations
▁congratulated
▁irresponsible
sm
ini
ota
raq
sec
▁Av
▁ly
atis
aves
cest
clip
iche
lept
ords
qual
tail
▁Att
▁Ill
▁Int
▁Pic
▁Ric
▁Ton
▁bug
▁der
▁era
▁hen
▁pud
▁vom
agram
aware
incts
inent
ommod
overs
works
▁Boys
▁Iraq
▁diab
▁inha
▁pace
▁pony
▁shed
▁ties
▁tons
▁yoga
amadan
keeper
redict
▁Mount
▁camer
▁cliff
▁eclip
▁flesh
▁heels
▁mercy
▁shops
▁tests
▁title
▁union
ganized
ication
▁Hilton
▁Honest
▁Living
▁baking
▁checks
▁circus
▁gifted
▁grouch
▁refund
▁secure
▁supply
▁videos
▁vision
ergarten
ifferent
▁Ramadan
▁Reading
▁boarded
▁crushed
▁deposit
▁donated
▁museums
▁objects
▁observe
▁psychic
ervations
▁Congress
▁Russians
▁accommod
▁attached
▁employee
▁illusion
▁marathon
▁officers
▁overseas
▁resulted
▁splendid
▁truthful
▁Saturdays
▁astronaut
▁elephants
▁instincts
▁offensive
▁overreact
▁practices
▁secretive
▁surprises
▁swallowed
▁unpredict
▁activities
▁blackboard
▁courageous
▁explaining
▁immigrants
▁worthwhile
▁improvement
▁outstanding
▁successfully
▁unbelievable
20
NA
ien
occ
thy
vin
xic
▁Jo
asso
asts
azed
boat
iked
ller
oles
rics
▁Cor
▁Due
▁Had
▁Kim
▁Los
▁Nap
▁Reg
▁Sir
▁Six
▁cru
▁sou
▁vul
acles
agues
etime
plant
point
reeze
▁Belg
▁Fish
▁Fred
▁Half
▁Kill
▁Nara
▁Wood
▁boil
▁dram
▁fist
▁kite
▁leve
▁mice
▁thou
lement
umbled
ungary
▁Beaut
▁Buddh
▁await
▁bribe
▁cheat
▁choir
▁fries
▁needn
▁orbit
▁races
▁range
▁ruled
▁timid
▁trips
▁virus
▁waist
ificial
▁Romans
▁ancest
▁assure
▁cotton
▁counts
▁device
▁expand
▁grocer
▁landsc
▁locker
▁resort
▁rocket
▁starve
▁stingy
▁texted
▁unbear
▁yogurt
▁angrily
▁balloon
▁conceal
▁however
▁imitate
▁muscles
▁pierced
▁precise
▁profile
▁release
▁resting
▁spirits
▁unaware
▁univers
▁variety
▁Nowadays
▁bachelor
▁bicycles
▁childish
▁conflict
▁delicate
▁diamonds
▁diplomat
▁grandson
▁identify
▁multiple
▁occupied
▁offering
▁priority
▁produced
▁reckless
▁sickness
▁blackmail
▁conceited
▁criminals
▁disgusted
▁forgetful
▁infection
▁patiently
▁poisonous
▁Australian
▁afterwards
▁controvers
▁identified
▁speechless
▁distinguish
▁girlfriends
▁philosopher
▁interrupting
fy
tr
May
ana
ari
dge
pes
▁Bu
▁Li
acco
cure
ella
ette
hole
inna
ties
▁Cop
▁Lib
▁Net
▁bod
▁gam
acing
acity
adise
comed
fying
▁Adam
▁Chan
▁Fill
▁Flor
▁Ford
▁Fore
▁Jeff
▁Lisa
▁Meet
▁Over
▁bore
▁choo
▁fame
▁fert
▁fian
▁hast
▁pigs
▁stir
▁tale
▁tone
▁untr
▁wire
active
anches
ograph
tering
ulture
▁2:30?
▁Henry
▁James
▁Ocean
▁Shang
▁Study
▁alien
▁burns
▁fined
▁forms
▁kilos
▁ninet
▁scrap
▁stare
▁therm
▁unimp
▁wrist
assador
fashion
▁adding
▁assert
▁blames
▁blinds
▁casual
▁colony
▁filthy
▁paused
▁phones
▁softly
▁surely
▁theirs
▁unreal
▁unsure
▁Florida
▁Hungary
▁Taninna
▁amounts
▁blaming
▁bowling
▁cleaner
▁decline
▁digging
▁distant
▁eclipse
▁freaked
▁inspect
▁perfume
▁seeking
▁utterly
▁whisper
fashioned
▁absorbed
▁campfire
▁inconven
▁infinite
▁memorize
▁novelist
▁overtime
▁paranoid
▁services
▁slippery
▁ticklish
▁welcomed
▁Congratul
▁anonymous
▁arguments
▁exercises
▁immediate
▁including
▁literally
▁presented
▁stressful
▁survivors
▁technique
▁therapist
▁vegetable
▁anticipate
▁mosquitoes
▁neighbours
▁profession
▁reconsider
▁unfriendly
▁conditioner
▁countryside
▁frustrating
▁incompetent
▁threatening
▁unimpressed
▁appointments
▁kindergarten
▁unpredictable
FO
ext
oli
oya
This
mpoo
obia
umes
▁Aut
▁Bab
▁Mag
▁aqu
▁ash
▁fee
▁mug
ander
spect
▁Feel
▁High
▁Hist
▁Holl
▁Move
▁Noah
▁Pers
▁Play
▁Snow
▁dove
▁hunt
▁iPad
▁lets
▁summ
▁user
▁vamp
abouts
icious
levant
ousers
▁Break
▁David
▁Girls
▁Looks
▁Paulo
▁Scott
▁Tower
▁Trump
▁Trust
▁adore
▁bacon
▁bride
▁drama
▁exten
▁folks
▁intol
▁messy
▁portr
▁stain
▁trace
▁unrel
▁witch
ichever
inished
mission
umbling
ustroph
▁Modern
▁Nagoya
▁assemb
▁diving
▁glance
▁idiots
▁jewels
▁mature
▁merely
▁owners
▁palace
▁prepar
▁rubber
▁sensed
▁string
▁struct
▁teleph
▁underw
▁voting
▁Doctors
▁Nations
▁Picasso
▁Science
▁Tonight
▁butcher
▁cheered
▁doubted
▁feather
▁fooling
▁happily
▁instant
▁liberal
▁seventy
▁sharing
▁warrant
▁accusing
▁artistic
▁clearing
▁delivery
▁disorder
▁farewell
▁gardener
▁gasoline
▁inspired
▁inviting
▁knitting
▁lifetime
▁obedient
▁outgoing
▁rational
▁relaxing
▁restroom
▁startled
▁tortured
▁trousers
▁batteries
▁groceries
▁overheard
▁practiced
▁responded
▁challenges
▁claustroph
▁depressing
▁handcuffed
▁irrelevant
▁kidnappers
▁management
▁pronounced
▁recovering
▁thoughtful
▁overwhelmed
▁practically
▁scholarship
▁acquaintance
▁dictionaries
▁disorganized
▁International
▁environmental
▁Congratulations
eet
ete
▁Cy
▁Ty
Yeah
affe
bled
ipes
itis
rier
tage
▁Bew
▁DNA
▁Est
▁Suz
▁Vis
▁coc
▁jet
▁ult
amada
armed
atell
bling
estic
lying
press
shine
▁Grab
▁Rain
▁anal
▁bait
▁bond
▁cafe
▁coma
▁erup
▁heal
▁obno
▁panc
▁plus
▁pump
▁seed
▁subt
▁unac
▁vacu
ciples
itches
▁Chuck
▁Cross
▁balls
▁basis
▁begot
▁crank
▁dolph
▁drawn
▁eater
▁fancy
▁hydro
▁landl
▁muddy
▁robot
▁scale
▁weeds
▁wreck
ributed
▁Beware
▁Disney
▁Galile
▁Yamada
▁accuse
▁admits
▁assass
▁brakes
▁chores
▁corpor
▁heated
▁hypocr
▁kindly
▁manual
▁rivers
▁satell
▁serves
▁shadow
▁toothp
▁affects
▁explore
▁fantasy
▁grandma
▁grouchy
▁islands
▁joining
▁liberty
▁manipul
▁mankind
▁massive
▁pattern
▁shampoo
▁slavery
▁smashed
▁spotted
▁trailer
▁trigger
ification
▁champion
▁dinosaur
▁numerous
▁overlook
▁pharmacy
▁programs
▁squeezed
▁colleague
▁elaborate
▁hamburger
▁interpret
▁negotiate
▁obnoxious
▁overslept
▁permanent
▁repeating
▁scratched
▁textbooks
▁astonished
▁colleagues
▁footprints
▁laboratory
▁originally
▁protecting
▁revolution
▁unbearable
▁butterflies
▁contributed
▁frightening
▁photographs
▁announcement
▁deliberately
▁hospitalized
▁negotiations
▁exceptionally
sk
za
aid
nut
och
osy
▁3.
▁ol
aser
otes
tuce
▁Alp
▁Dep
▁Joe
▁Nar
▁Tra
▁Wik
▁ain
▁eag
▁nom
▁rud
cript
itled
uctor
▁Care
▁Judy
▁adap
▁ants
▁clin
▁crop
▁dive
▁embr
▁empt
▁grat
▁grey
▁keen
▁refe
▁silk
▁sock
▁soil
▁tact
▁tiss
▁unit
etchup
ipedia
▁1,000
▁Brian
▁Inter
▁State
▁Venus
▁bites
▁bossy
▁elbow
▁fatal
▁items
▁meets
▁miner
▁rides
▁ruins
▁tasty
▁unint
▁wakes
liament
▁amends
▁dances
▁deadly
▁extent
▁fatter
▁imagin
▁liquid
▁marvel
▁melted
▁messed
▁peeled
▁resume
▁shiver
▁shovel
▁stones
▁towels
▁unfort
▁virgin
▁wolves
▁Charles
▁Playing
▁atheist
▁borders
▁cameras
▁chewing
▁clients
▁heating
▁lettuce
▁penalty
▁praying
▁returns
▁satisfy
▁singers
▁snowman
▁thinner
▁Business
▁Minister
▁confront
▁immature
▁imported
▁isolated
▁mentally
▁opponent
▁quarters
▁silently
▁surround
▁treating
▁Education
▁Happiness
▁Wikipedia
▁acknowled
▁disguised
▁enjoyable
▁firefight
▁gentlemen
▁hurricane
▁materials
▁memorized
▁preferred
▁proofread
▁strangely
▁stretched
▁witnesses
▁contradict
▁exhibition
▁persuasive
▁principles
▁smartphone
▁struggling
▁telephoned
▁cooperation
▁engineering
▁forgiveness
▁unfortunate
▁u
eem
gir
rav
reg
▁21
▁Ke
▁ec
▁py
cies
cipl
emet
gled
iful
oses
oven
rous
ubby
verb
▁Com
▁Dam
▁Ign
▁Lie
▁Ste
▁que
▁sav
arium
iants
ierce
venue
▁Beth
▁Kiss
▁Know
▁bene
▁dang
▁guts
▁hood
▁impl
▁prev
▁rear
▁rust
▁scan
▁spit
▁sued
▁toot
▁wrap
▁zomb
▁zone
apping
orious
ugging
ulting
undant
▁Allow
▁Party
▁Polit
▁banjo
▁broom
▁ditch
▁fears
▁feeds
▁indis
▁jelly
▁joint
▁penny
▁sends
▁stake
attered
emetery
itution
ointing
pensive
▁Empire
▁Pardon
▁Sandra
▁behalf
▁compar
▁legend
▁lovers
▁proven
▁rebell
▁reveal
▁rubbed
▁sacred
▁shares
▁teased
▁territ
▁update
▁widely
▁History
▁Indones
▁Traffic
▁benefit
▁deprive
▁discrim
▁drunken
▁imports
▁ketchup
▁printer
▁rainbow
▁reacted
▁repairs
▁servant
▁whiskey
▁worship
▁Atlantic
▁Compared
▁Consider
▁acquired
▁branches
▁discreet
▁distinct
▁employed
▁handling
▁harmless
▁infected
▁paradise
▁planting
▁produces
▁sacrific
▁situated
▁struggle
▁uniforms
▁applauded
▁broadcast
▁curiosity
▁disagreed
▁healthier
▁neglected
▁therefore
▁villagers
▁ambassador
▁artificial
▁calculator
▁depression
▁exceptions
▁tournament
▁watermelon
▁Mathematics
▁anticipated
▁beautifully
▁earthquakes
▁arrangements
▁disrespectful
▁intentionally
▁transportation
▁x
11.
She
bor
cat
see
sis
uku
bert
cery
enic
esar
hama
imon
jban
nuts
oner
rill
ruct
stop
velt
wide
xual
zens
▁Bas
▁Big
▁Ein
▁Fer
▁Mum
▁Vol
▁cav
▁fra
▁hay
▁pow
▁vig
allel
lines
oster
rated
tingu
uting
▁Cold
▁Math
▁Shin
▁Walk
▁cann
▁cere
▁cert
▁cord
▁dign
▁dirt
▁elim
▁lens
▁lest
▁plot
▁rats
▁unhe
agious
ashing
giving
isters
itcher
lights
mitted
▁Armen
▁Chris
▁Harry
▁Roose
▁Super
▁Swiss
▁Words
▁belly
▁bombs
▁clerk
▁clown
▁dread
▁liver
▁logic
▁motel
▁nause
▁pains
▁raped
▁remed
▁rural
▁sober
▁votes
▁vouch
▁winds
▁Eating
▁Finish
▁Jewish
▁Lojban
▁Mennad
▁bodies
▁cellar
▁contem
▁flames
▁gently
▁learns
▁mainly
▁observ
▁paraly
▁passes
▁peanut
▁pirate
▁quarre
▁racing
▁smoker
▁stomac
▁valley
inations
speaking
▁Anybody
▁Profess
▁Teacher
▁alright
▁consent
▁cracked
▁discont
▁equally
▁eternal
▁extingu
▁fireman
▁interse
▁lobster
▁passage
▁pigeons
▁primary
▁railway
▁seventh
▁shaving
▁suburbs
▁Yokohama
▁boarding
▁frequent
▁gunshots
▁motioned
▁scarcely
▁shortage
▁sunlight
▁sunshine
▁tolerant
▁Francisco
▁Roosevelt
▁astronomy
▁disorient
▁economics
▁hesitated
▁leftovers
▁marvelous
▁notebooks
▁standards
▁contagious
▁graduation
▁instructor
▁peacefully
▁prejudiced
▁psychology
▁situations
▁conclusions
▁encouraging
▁fundamental
▁whereabouts
▁presentation
▁psychiatrist
▁disappointing
▁relationships
▁claustrophobic
Of
Let
ava
chi
ded
irs
lav
lif
oca
oty
▁Hy
▁Na
▁Ox
arin
hant
hard
long
nity
rete
roll
zard
▁Ele
▁Hit
▁Ire
▁Lar
▁Mor
▁Tai
▁Tob
▁bon
▁nit
▁thy
Would
class
eters
othes
▁Cows
▁Expl
▁Hong
▁Lend
▁Okin
▁Supp
▁damp
▁mand
▁myth
▁navy
▁odds
▁rage
▁reun
▁riot
▁sets
▁slip
▁torn
▁unim
forest
hestra
ifying
▁Carol
▁Milky
▁Prime
▁Solar
▁advoc
▁aloud
▁archa
▁beers
▁dolls
▁grace
▁lasts
▁niece
▁prank
▁prote
▁rates
▁reass
▁recon
▁risen
▁seatb
▁snuck
▁spots
▁wages
▁whore
inction
redient
▁Making
▁Martha
▁Nether
▁Saturn
▁brains
▁defect
▁delete
▁errand
▁execut
▁freely
▁outfit
▁sacrif
▁sheets
▁slaves
▁status
▁uncles
▁values
atisfied
ceptable
ulations
▁Alcohol
▁Ireland
▁Success
▁bullied
▁chapter
▁cottage
▁crawled
▁despite
▁fulfill
▁hairsty
▁obliged
▁pitcher
▁prosper
▁quicker
▁referee
▁reserve
▁scholar
▁sinking
▁sources
▁tempted
▁visitor
▁weighed
stitution
▁Einstein
▁Shanghai
▁agitated
▁blankets
▁capacity
▁contrary
▁insecure
▁mosquito
▁resolved
▁sticking
▁subjects
▁vitamins
▁withdrew
▁defending
▁fireplace
▁household
▁installed
▁mushrooms
▁paperwork
▁passenger
▁principle
▁recession
▁signature
▁slightest
▁solutions
▁toothache
▁witnessed
▁exaggerate
▁historical
▁ingredient
▁officially
▁wheelchair
▁Netherlands
▁documentary
▁inexpensive
▁inspiration
▁stomachache
▁thermometer
▁concentrating
11
tw
bab
cod
dri
top
ugs
▁1,
▁22
▁Mc
300.
When
conf
ghan
hone
iana
icon
lers
lock
ooks
pock
uals
uffe
ysis
▁Art
▁Bul
▁Pri
▁Sur
▁Tor
▁cra
▁jan
▁max
▁pad
▁pit
▁scr
▁syn
▁yaw
,000.
afood
kirts
power
rolog
▁Draw
▁Free
▁Hasn
▁Isab
▁Jean
▁Kong
▁Lake
▁Pull
▁Slow
▁Yeah
▁baff
▁bang
▁dogh
▁gest
▁hint
▁lamb
▁slim
▁tren
▁uplo
Americ
aneous
ounced
screen
urable
vation
▁3,000
▁Allah
▁Helen
▁Mario
▁River
▁Sally
▁Tears
▁boxer
▁bucks
▁canoe
▁charm
▁gains
▁gross
▁haird
▁hitch
▁meter
▁moons
▁pengu
▁saves
▁spark
▁swept
▁towns
▁verge
▁warri
ocratic
▁Afghan
▁Anyway
▁Except
▁Scient
▁allows
▁barbec
▁centre
▁chubby
▁clinic
▁dealer
▁dreamt
▁duties
▁emphas
▁fierce
▁flavor
▁hiring
▁ironed
▁mentor
▁overly
▁reader
▁seized
▁shoved
▁stinks
▁timing
▁unbeat
ferences
▁Everest
▁Finding
▁Friends
▁Getting
▁Kingdom
▁Persian
▁Strange
▁assured
▁cocaine
▁coughed
▁destiny
▁emptied
▁experts
▁feeding
▁inhabit
▁inherit
▁lighter
▁pleaded
▁possess
▁pudding
▁puzzles
▁romance
▁seafood
▁skilled
▁therapy
▁aircraft
▁benefits
▁cemetery
▁chatting
▁composer
▁detained
▁doghouse
▁inclined
▁magician
▁partners
▁retiring
▁theories
▁bilingual
▁demanding
▁elections
▁gardening
▁genuinely
▁housework
▁orchestra
▁procedure
▁religions
▁repairing
▁strongest
▁whichever
▁willingly
▁Englishman
▁accountant
▁commercial
▁controlled
▁electrical
▁headphones
▁persistent
▁programmer
▁sweetheart
▁temptation
▁terrorists
▁toothbrush
▁unfinished
▁accusations
▁advertising
▁considerate
▁grammatical
▁resourceful
▁congratulate
▁unacceptable
▁unbelievably
akh
ali
col
def
lie
lly
olf
rum
▁Ca
▁Mi
▁oy
arah
eyed
ford
quet
rome
worm
▁Bur
▁Lou
▁Sch
▁Tak
▁cuc
▁icy
▁mah
▁oak
▁ove
▁roo
▁san
▁tob
▁voy
angle
eenth
isure
itors
lects
ormal
otics
quate
rough
ushes
▁Anim
▁Beat
▁Foot
▁Fuck
▁Jose
▁Lock
▁Much
▁Prot
▁Real
▁Vict
▁Viol
▁Wall
▁ache
▁beds
▁clum
▁desc
▁hott
▁impr
▁inch
▁pled
▁weep
acking
ombone
ronted
vinced
▁Click
▁Daddy
▁Elect
▁Elias
▁Games
▁Sarah
▁Small
▁Trave
▁amput
▁arrow
▁brake
▁camel
▁cello
▁crane
▁curry
▁dared
▁eagle
▁frame
▁froze
▁hedge
▁lions
▁overc
▁remar
▁rugby
▁snore
▁toxic
▁vivid
husband
jection
stitute
▁10,000
▁Narita
▁Nature
▁Newton
▁atomic
▁centim
▁closes
▁gamble
▁levels
▁lyrics
▁maniac
▁needle
▁parted
▁polish
▁poorly
▁sleeve
▁sticks
▁tapped
▁tender
▁typing
▁vacuum
▁waving
▁Airport
▁Angeles
▁Clearly
▁Indians
▁Okinawa
▁catches
▁charism
▁context
▁cycling
▁drummer
▁evident
▁examine
▁grocery
▁hostage
▁leisure
▁pushing
▁raising
▁stretch
▁volcano
ibilities
▁Drinking
▁assigned
▁clarinet
▁collapse
▁collects
▁cultures
▁decisive
▁deprived
▁disgrace
▁maintain
▁organism
▁overwork
▁pancakes
▁parallel
▁perspect
▁refugees
▁restless
▁slippers
▁stalking
▁trombone
▁violated
▁ancestors
▁assertive
▁considers
▁consulted
▁determine
▁engineers
▁evolution
▁fireworks
▁hairstyle
▁inherited
▁partially
▁poisoning
▁residents
▁territory
▁confession
▁confronted
▁graduating
▁specialist
▁sufficient
▁toothpaste
▁unbeatable
▁unconvinced
▁Christianity
▁Thanksgiving
▁investigator
▁unemployment
▁understandable
0,
My
On
rs
aza
gun
mes
oed
olt
oqu
six
▁Ka
dict
knob
laim
mart
ousy
term
umps
▁Law
▁Mer
▁Out
▁Toy
▁amm
▁cub
▁enl
▁hut
▁owl
abled
actor
althy
hable
maker
nical
oleon
▁Drop
▁Hard
▁Jews
▁Mand
▁Okay
▁Pret
▁Star
▁Yosh
▁bail
▁eleg
▁fauc
▁mour
▁neut
▁noun
▁pupp
▁ripe
▁shif
▁suck
▁tipt
▁unav
▁unst
▁vend
entric
irteen
isible
liness
teenth
▁Alask
▁Julia
▁acade
▁advis
▁alleg
▁aster
▁blast
▁brick
▁chuck
▁femin
▁fraud
▁gotta
▁lousy
▁parks
▁patri
▁widow
▁wiser
acteria
nerable
ropical
▁Comput
▁Donald
▁Taking
▁accord
▁annoys
▁burden
▁collar
▁comics
▁cranky
▁feared
▁floors
▁galaxy
▁golfer
▁hearts
▁humble
▁iPhone
▁insect
▁knight
▁licked
▁marked
▁mugged
▁neatly
▁parcel
▁prompt
▁reckon
▁sailor
▁sketch
▁stroke
▁tornad
▁Hundred
▁Walking
▁colours
▁convict
▁dialect
▁existed
▁explode
▁flipped
▁freezer
▁housing
▁hugging
▁insists
▁intoler
▁janitor
▁lightly
▁microsc
▁outrage
▁quieter
▁talents
▁tobacco
▁trainer
▁tripped
▁Football
▁Napoleon
▁Thirteen
▁bedrooms
▁choosing
▁dictator
▁directed
▁doorknob
▁download
▁hydrogen
▁interven
▁machines
▁observed
▁organize
▁overcoat
▁panicked
▁portrait
▁restrain
▁servants
▁smoothly
▁wandered
▁withdraw
▁acquitted
▁admission
▁compelled
▁musicians
▁obstinate
▁occasions
▁officials
▁pregnancy
▁remaining
▁remarried
▁sacrifice
▁stupidity
▁sunscreen
▁technical
▁twentieth
▁umbrellas
▁Scientists
▁biological
▁microphone
▁strawberry
▁Afghanistan
▁achievement
▁appreciates
▁authorities
▁consumption
▁intimidated
▁perspective
▁unrealistic
▁intersection
▁occasionally
▁presidential
▁representative
3,
ID
lk
30.
300
ada
eer
hma
ixt
ops
wan
▁Cz
▁Ms
▁cu
▁tu
aith
ateg
away
bish
ille
jong
like
mble
pher
vial
▁Cam
▁Del
▁Jer
▁Oil
▁Ret
▁kar
▁tra
essie
iland
ipper
opard
peror
ppers
print
rency
urous
▁Amaz
▁Cent
▁Fear
▁Kids
▁Lots
▁Mine
▁Need
▁Plut
▁Poor
▁Seen
▁arts
▁bold
▁chef
▁dump
▁foul
▁inte
▁intr
▁peas
▁piss
▁prey
▁saus
▁soda
▁sole
▁sunb
alling
arians
ctions
ducted
iences
olving
resist
▁Catch
▁Georg
▁Stock
▁Teach
▁alley
▁backs
▁blush
▁chase
▁colds
▁condu
▁depth
▁drain
▁moder
▁moist
▁pyram
▁renov
▁sixth
▁texts
▁unpre
▁vegan
▁Commun
▁Danish
▁Detect
▁Joseph
▁Madrid
▁Millie
▁Seeing
▁Surely
▁Suzuki
▁bruise
▁clocks
▁covers
▁faucet
▁gladly
▁hanged
▁hatred
▁hyster
▁impact
▁liquor
▁microw
▁noises
▁oppose
▁pigeon
▁remedy
▁risked
▁sipped
▁souven
▁summit
▁thesis
▁warmly
together
▁Animals
▁Explain
▁Hiroshi
▁Windows
▁antique
▁baffled
▁begging
▁briefly
▁bruises
▁couples
▁easiest
▁factors
▁fighter
▁gravity
▁grinned
▁illustr
▁legally
▁masterp
▁refrain
▁remarks
▁remorse
▁resumed
▁rewrite
▁theatre
▁tornado
▁trivial
▁verdict
▁vicious
boyfriend
cientious
heartedly
▁Portugal
▁Wherever
▁abducted
▁aquarium
▁astrolog
▁brushing
▁deciding
▁deported
▁entitled
▁fabulous
▁internal
▁optimist
▁polluted
▁quantity
▁rudeness
▁screwdri
▁sexually
▁sneezing
▁speeding
▁spinning
▁steadily
▁supports
▁sweating
▁unfairly
▁beginners
▁believing
▁calculate
▁horrified
▁landscape
▁moonlight
▁operating
▁paralyzed
▁physician
▁sharpened
▁suspicion
▁advantages
▁candidates
▁chocolates
▁comparison
▁compassion
▁foundation
▁influenced
▁intimidate
▁popularity
▁repeatedly
▁typewriter
▁unreliable
▁adventurous
▁arrangement
▁generations
▁inhabitants
▁interpreted
▁prescription
▁controversial
▁knowledgeable
▁significantly
▁unfortunately
So
ae
aus
weg
▁Ly
enda
eves
hend
ills
izer
life
odka
opot
oust
ylum
▁Bes
▁Dar
▁Its
▁Kar
▁Set
▁alt
▁cos
▁mow
▁toe
▁tum
▁tux
anded
dream
eally
inger
ollar
ommon
oting
rious
teous
thank
▁Cain
▁Hell
▁Jiro
▁Norm
▁True
▁bast
▁bury
▁chim
▁chin
▁disk
▁frow
▁publ
▁snap
▁stim
▁tips
▁vent
▁ward
▁writ
advant
culiar
mented
ogenic
▁Croat
▁Dream
▁Fight
▁Jimmy
▁Space
▁agric
▁belts
▁boats
▁cable
▁categ
▁chalk
▁fianc
▁imper
▁label
▁lungs
▁multi
▁ranch
▁restr
▁route
▁ruler
▁saint
▁spoil
▁vodka
▁woken
ficient
inarily
ophobia
parable
respond
ression
▁Alaska
▁Amazon
▁Caesar
▁Church
▁Coffee
▁Heaven
▁Kazakh
▁Norweg
▁Really
▁Second
▁asylum
▁biting
▁cursed
▁darker
▁dialed
▁expose
▁garlic
▁heroin
▁kisser
▁mortal
▁parole
▁sliced
▁spying
▁tissue
▁voyage
ibiotics
▁Denmark
▁Foreign
▁Silence
▁applies
▁attacks
▁auditor
▁beaches
▁bullets
▁dangers
▁decades
▁discipl
▁dispute
▁emerged
▁endless
▁exports
▁flooded
▁halfway
▁hopeful
▁ironing
▁kingdom
▁landing
▁monthly
▁mothers
▁murders
▁mustard
▁outcome
▁pineapp
▁prayers
▁precaut
▁protein
▁scaring
▁screams
▁seaside
▁turtles
▁updated
conscious
▁Buddhism
▁Isabella
▁Scottish
▁appealed
▁asteroid
▁athletes
▁dressing
▁freshman
▁frighten
▁imprison
▁instinct
▁peculiar
▁pickpock
▁selected
▁tendency
▁tropical
▁Argentina
▁Professor
▁Translate
▁apologies
▁associate
▁attendant
▁criticize
▁disadvant
▁factories
▁hairdress
▁hospitals
▁housewife
▁invisible
▁microwave
▁precisely
▁recording
▁spreading
▁structure
▁unhealthy
▁valuables
▁wrestling
▁consistent
▁correspond
▁perfection
▁reflection
▁resolution
▁respectful
▁transplant
▁vulnerable
▁whispering
▁chairperson
▁devastating
▁screwdriver
▁considerable
▁surprisingly
▁unexpectedly
▁conscientious
ku
pm
we
100
But
aze
fty
iel
ira
nia
orp
pow
rip
ssw
▁Bo
▁Kn
▁eg
▁km
bian
gans
oger
opsy
riff
robe
uild
vals
▁10.
▁20,
▁Dri
▁Pan
▁Rev
▁Sue
▁Ter
▁Tha
▁apr
▁cel
▁dub
▁jaw
▁ket
▁paw
▁rag
▁rhy
▁vet
actly
aping
bbing
gered
iased
idges
ilipp
lance
mares
ollen
tical
xiety
▁Bank
▁Calm
▁Carl
▁Cons
▁Eliz
▁Rice
▁cans
▁cuis
▁damn
▁inqu
▁knit
▁knot
▁peek
▁pies
▁plun
▁ratt
▁ribb
▁sins
▁slid
▁slut
▁snob
▁unlo
▁unsu
▁urge
▁vacc
Really
icking
iously
judged
rupted
▁2,000
▁Above
▁Books
▁Holly
▁Honey
▁Milan
▁Raise
▁Roger
▁Titan
▁Weren
▁admir
▁blown
▁bully
▁domin
▁draft
▁drops
▁foggy
▁goats
▁groan
▁hears
▁hunch
▁locks
▁manus
▁medit
▁melts
▁overt
▁peach
▁pears
▁quote
▁rival
▁stalk
▁tenth
▁witty
Nothing
illance
omplete
quarter
vention
▁Giants
▁Soccer
▁Venice
▁agenda
▁archae
▁backup
▁banged
▁barrel
▁booked
▁carved
▁compre
▁crocod
▁crossw
▁donuts
▁freeze
▁grandd
▁groggy
▁hotter
▁integr
▁misled
▁muscle
▁nicest
▁pickup
▁sample
▁slices
▁snacks
▁spaces
▁stocks
▁survey
▁thirst
▁volcan
ographer
▁Besides
▁Freedom
▁Galileo
▁Illness
▁Philipp
▁Someday
▁adapted
▁artists
▁bridges
▁buttons
▁central
▁clicked
▁council
▁deepest
▁digital
▁disgust
▁drought
▁forests
▁fragile
▁freezes
▁gaining
▁heights
▁invaded
▁involve
▁learner
▁loyalty
▁mahjong
▁martial
▁monkeys
▁network
▁paramed
▁peaches
▁privile
▁profits
▁renewed
▁retreat
▁routine
▁seasons
▁showers
▁threats
▁tremend
▁unclear
▁vampire
▁Mandarin
▁Marriage
▁Northern
▁Teachers
▁adjusted
▁barbecue
▁billions
▁concrete
▁decorate
▁domestic
▁embraced
▁grinning
▁includes
▁prospect
▁relevant
▁seatbelt
▁twenties
▁unbiased
▁upcoming
▁Norwegian
▁amputated
▁arrogance
▁basically
▁breakdown
▁countless
▁courteous
▁estimated
▁gathering
▁gratitude
▁headaches
▁humiliate
▁increases
▁misjudged
▁obstacles
▁privately
▁teammates
▁terrorist
▁travelers
▁universal
▁violinist
▁Vietnamese
▁accusation
▁auditorium
▁continuous
▁corruption
▁electronic
▁enthusiasm
▁hesitation
▁manuscript
▁microscope
▁permitting
▁playground
▁separately
▁celebration
▁disoriented
▁interviewed
▁manufacture
▁nationality
▁acknowledged
▁dissatisfied
▁overreacting
▁reservations
▁surveillance
0'
di
iq
ye
ala
dal
fel
kel
leg
oku
omy
ora
uke
▁Ag
▁Ta
Does
ardo
ario
cake
hada
rane
uana
ules
▁CDs
▁Cur
▁Fif
▁Hol
▁Pot
▁alm
▁ecc
▁mop
▁slo
▁ted
▁ton
▁via
▁woo
balls
ccoli
icies
ifies
nless
occup
ocrit
ortal
oxide
quila
▁Base
▁Bell
▁Cels
▁Hind
▁Holy
▁Lead
▁Sign
▁Tech
▁Test
▁brew
▁cens
▁deck
▁epis
▁extr
▁goof
▁gymn
▁hack
▁heir
▁lame
▁palm
▁scri
▁ster
▁sust
▁toug
▁weed
atural
dalena
hedral
minute
ranean
uation
ueless
▁2003.
▁Chile
▁Czech
▁Liisa
▁Lions
▁Nobel
▁Pluto
▁Syria
▁Times
▁barks
▁beast
▁cured
▁dazed
▁dense
▁eloqu
▁emigr
▁float
▁goose
▁grief
▁hairs
▁innov
▁rusty
▁scold
▁shalt
▁slack
▁sorts
▁spill
▁spont
▁stere
▁trout
▁yield
amiliar
incible
▁Barack
▁Elizab
▁Govern
▁Greeks
▁Jessie
▁Markku
▁Museum
▁Taiwan
▁Toyota
▁agency
▁aspect
▁asthma
▁barked
▁beggar
▁caring
▁chewed
▁clumsy
▁condem
▁cooler
▁donkey
▁empire
▁equals
▁fabric
▁harmon
▁hitchh
▁launch
▁liking
▁nicely
▁occurs
▁pastor
▁raises
▁recite
▁ribbon
▁senses
▁serial
▁server
▁skirts
▁sought
▁warmed
▁wheels
▁wisely
entially
krainian
pensable
▁Celsius
▁Certain
▁Exactly
▁Express
▁Flowers
▁Mediter
▁bandage
▁beloved
▁catalog
▁caution
▁chimney
▁cuisine
▁denying
▁desired
▁elegant
▁expense
▁needing
▁oysters
▁plugged
▁plumber
▁printed
▁rubbish
▁shahada
▁sleeves
▁snapped
▁temples
▁vitamin
▁warrior
▁Hundreds
▁Millions
▁Thailand
▁although
▁certific
▁cheering
▁clueless
▁cocktail
▁contents
▁daydream
▁dripping
▁elements
▁equipped
▁exceeded
▁explored
▁historic
▁landlord
▁merchant
▁nauseous
▁policies
▁polished
▁republic
▁sprained
▁threaten
▁uncommon
▁Interling
▁Magdalena
▁allergies
▁bodyguard
▁cockroach
▁confusion
▁contained
▁contradic
▁crocodile
▁easygoing
▁eccentric
▁excessive
▁executive
▁fisherman
▁graduates
▁inflation
▁observant
▁outskirts
▁shivering
▁testified
▁tolerance
▁travelled
▁unusually
▁whistling
grandfather
▁calculated
▁cautiously
▁exercising
▁industrial
▁intriguing
▁invincible
▁opposition
▁phenomenon
▁sacrificed
▁stepfather
▁apologizing
▁centimeters
▁consequence
▁educational
▁indifferent
▁inseparable
▁instruments
▁meaningless
▁programming
▁conditioning
▁psychologist
▁surroundings
▁suspiciously
▁Mediterranean
▁inconvenience
▁indispensable
▁misunderstand
▁administration
▁extraordinarily
TM
dr
ez
mad
rep
ros
sun
win
▁Ot
amen
appy
arre
aved
door
ilia
inea
meal
orns
orus
rene
resa
ulpt
uman
▁Fed
▁Gas
▁Mas
▁Mur
▁Nic
▁Ped
▁Rab
▁Win
▁ark
▁hip
▁tub
akers
amous
apore
asted
check
esity
ested
icist
seven
state
▁Blue
▁Clim
▁Imag
▁Merc
▁Mind
▁Pope
▁Pray
▁Wang
▁bugs
▁buzz
▁chol
▁crut
▁dial
▁foss
▁gear
▁kilo
▁melt
▁peak
▁pile
▁rans
▁sack
▁shat
▁sigh
▁vest
▁wing
estion
iguous
ivable
ixture
rition
sually
ughter
▁Empty
▁Pinoc
▁ashes
▁click
▁curse
▁disco
▁fails
▁flame
▁grain
▁intro
▁lunar
▁madly
▁monot
▁moody
▁newly
▁pupil
▁pushy
▁siren
▁tales
▁traum
▁undec
▁upper
▁Edward
▁Hanako
▁Indeed
▁Kabyle
▁Ladies
▁Master
▁Oxford
▁Palest
▁Senate
▁Social
▁System
▁Within
▁banker
▁bribes
▁brutal
▁catast
▁chilly
▁dispos
▁editor
▁frying
▁immune
▁judged
▁kettle
▁mammal
▁obeyed
▁pissed
▁sculpt
▁sealed
▁sights
▁untidy
▁waking
▁wicked
▁winked
American
▁Belgium
▁Compare
▁Elephan
▁Goodbye
▁Judging
▁anxiety
▁autopsy
▁bathing
▁beliefs
▁blessed
▁breasts
▁conquer
▁conspir
▁courses
▁cynical
▁diploma
▁expired
▁honored
▁hottest
▁licence
▁melting
▁pitched
▁pouring
▁proverb
▁robbers
▁sadness
▁session
▁sheriff
▁spectac
▁teenage
▁twisted
▁Honestly
▁Violence
▁audition
▁balanced
▁blisters
▁blossoms
▁brighter
▁brutally
▁commonly
▁cupboard
▁deterior
▁diabetic
▁disliked
▁estimate
▁evenings
▁explains
▁hypocrit
▁narrowly
▁sociable
▁strictly
▁Admission
▁Breakfast
▁Indonesia
▁Singapore
▁abolished
▁deceiving
▁defendant
▁immigrant
▁intellect
▁intrigued
▁possessed
▁prettiest
▁resigning
▁satellite
▁stupidest
▁supporter
▁transform
▁underwear
▁unsuccess
▁Disneyland
▁altogether
▁destroying
▁nightmares
▁regardless
▁charismatic
▁cockroaches
▁experiments
▁hairdresser
▁hospitality
▁masterpiece
▁observation
▁spontaneous
▁translators
▁alternatives
▁civilization
▁contributing
▁demonstrated
▁temperatures
▁recommendation
2,
Me
ca
fu
ih
uh
vy
agu
ani
cus
ene
hea
hog
iti
oro
pon
two
ulp
uya
was
zel
▁Ro
airy
alid
bour
ello
have
hour
hran
irds
juku
kara
lead
omin
ruit
shit
udge
ushu
▁ATM
▁Hom
▁Lee
▁Mem
▁Ted
▁Vir
▁Wil
▁ade
▁biz
▁fid
▁lag
▁tan
▁tid
agons
andas
angar
ashes
ashim
immed
itles
lfare
nivor
ogged
ongol
oples
ouses
pherd
raham
ucked
udent
▁Alps
▁Arth
▁Cour
▁Damn
▁Mont
▁Near
▁Pier
▁Plan
▁Rami
▁Roll
▁Sato
▁Sent
▁Tele
▁Vien
▁buff
▁caps
▁cube
▁flee
▁fuse
▁hipp
▁holy
▁idle
▁impe
▁itch
▁jugg
▁loaf
▁nood
▁plum
▁rank
▁span
▁stab
▁tide
▁tuna
▁unaf
▁wars
guards
icycle
inkled
opotam
shaped
washer
▁Apple
▁Beeth
▁Blood
▁Civil
▁Crime
▁Fresh
▁Going
▁Siber
▁Squir
▁ammun
▁angle
▁buddy
▁cells
▁chili
▁cigar
▁coord
▁cycle
▁donut
▁ferry
▁fetch
▁insan
▁lands
▁masks
▁moron
▁penis
▁perse
▁plaus
▁skull
▁swing
▁tipsy
efinite
▁Ankara
▁Beauty
▁Enough
▁Person
▁Salima
▁Square
▁Tehran
▁Teresa
▁Tobias
▁Victor
▁abrupt
▁actual
▁adores
▁ballet
▁camels
▁casino
▁comedy
▁eighth
▁extend
▁factor
▁framed
▁lizard
▁losses
▁maiden
▁opener
▁organs
▁parade
▁powder
▁script
▁sneeze
▁talker
▁tigers
▁tiring
▁unlock
▁volunt
occupied
quarters
▁Classes
▁Contact
▁Fishing
▁Grandma
▁Islands
▁Janeiro
▁Romania
▁bizarre
▁capture
▁cartoon
▁castles
▁classic
▁episode
▁evicted
▁farther
▁giraffe
▁hallway
▁leaking
▁lending
▁leopard
▁likable
▁maximum
▁panting
▁prophet
▁proport
▁reflect
▁refugee
▁rolling
▁ruining
▁sharply
▁sneaked
▁strikes
▁swollen
▁tequila
▁unavoid
▁vending
▁virtual
▁welfare
▁whining
▁writers
qualified
▁Baseball
▁Italians
▁Patience
▁abundant
▁agreeing
▁bacteria
▁bookcase
▁broccoli
▁cheapest
▁chopping
▁comedian
▁crawling
▁crutches
▁defended
▁dislikes
▁everyday
▁finishes
▁firewood
▁hardware
▁homicide
▁immortal
▁lemonade
▁majoring
▁measured
▁raincoat
▁realizes
▁shortest
▁substant
▁survival
▁swimsuit
▁unafraid
girlfriend
▁Alexander
▁Beethoven
▁Computers
▁Elizabeth
▁Instagram
▁Jefferson
▁accepting
▁conducted
▁contented
▁courtroom
▁furnished
▁geography
▁mysteries
▁plausible
▁probation
▁processor
▁roommates
▁sincerely
▁substance
▁undecided
▁vacations
▁worldwide
▁Republican
▁ammunition
▁bankruptcy
▁beneficial
▁businesses
▁commission
▁commitment
▁dishwasher
▁downloaded
▁maintained
▁overlooked
▁photogenic
▁prescribed
▁spacecraft
▁supporting
▁terrifying
▁waterproof
▁accommodate
▁compartment
▁cooperating
▁financially
▁imaginative
▁ingredients
▁proposition
▁superficial
▁surrendered
▁underground
▁architecture
▁manipulative
▁passionately
▁materialistic
▁wholeheartedly
.,
In
VD
cho
hol
oka
ott
pan
roc
tan
urf
▁33
▁Er
▁La
▁Sn
Sure
ango
bble
cled
dney
educ
imer
irus
mers
mons
neum
onic
oral
plex
rose
sels
teen
uick
unes
▁Abs
▁Cap
▁DVD
▁Eif
▁Luc
▁Naz
▁Pak
▁Ref
▁Ros
▁Sim
▁Tam
▁bew
▁bik
▁mob
▁nod
▁oat
▁pry
▁tin
▁ven
▁wax
arius
atile
ayama
break
ceans
first
iance
ieval
iless
iriel
kered
oused
poken
pread
rophe
ysics
▁2000
▁Back
▁Beer
▁Cuba
▁Disc
▁Hans
▁Live
▁Rest
▁Wars
▁Wild
▁amus
▁fees
▁icon
▁mast
▁mini
▁monk
▁penn
▁rehe
▁rung
▁sham
▁skis
▁unin
▁unsc
▁vice
▁wept
▁wipe
▁yach
Please
aholic
ittens
laimed
legged
lessly
uffeur
▁10:00
▁Carry
▁Drive
▁Ignor
▁Knock
▁Relig
▁Sadiq
▁boils
▁chaos
▁clubs
▁curly
▁drift
▁explo
▁fatig
▁flock
▁freed
▁grind
▁hangs
▁indec
▁initi
▁marsh
▁merry
▁obese
▁outer
▁panda
▁pulao
▁shoel
▁skier
▁sowed
▁spray
▁sucks
▁troph
▁urine
▁verbs
▁vital
aithful
osexual
reaking
▁Athens
▁Autumn
▁Couldn
▁Edison
▁Eiffel
▁Horses
▁Kyushu
▁Mongol
▁Return
▁Sydney
▁actors
▁almond
▁angles
▁bloody
▁breeze
▁bushes
▁ceased
▁costly
▁cowork
▁denies
▁dishon
▁divide
▁edible
▁endure
▁fights
▁firing
▁firmly
▁gluten
▁heroes
▁impecc
▁infuri
▁issued
▁karate
▁margar
▁marine
▁obtain
▁pizzas
▁plural
▁rebels
▁relied
▁resent
▁ridden
▁sailed
▁shells
▁snowfl
▁spoils
▁spoons
▁spouse
▁strive
▁topics
▁turtle
▁undone
▁weaker
nivorous
ologists
▁Eastern
▁Grandpa
▁Mercury
▁Talking
▁Through
▁alarmed
▁behaves
▁blinded
▁chasing
▁chatted
▁clapped
▁creates
▁debated
▁differs
▁dischar
▁display
▁dragged
▁drinker
▁emotion
▁envious
▁formula
▁frantic
▁frowned
▁hamster
▁humming
▁insults
▁killers
▁magical
▁mixture
▁partial
▁peeling
▁pension
▁phrases
▁prevail
▁recycle
▁refresh
▁regions
▁screwed
▁strings
▁sympath
▁systems
▁tiptoed
▁veteran
▁Pakistan
▁Romanian
▁Southern
▁analysis
▁blocking
▁breathed
▁bullshit
▁collabor
▁cucumber
▁despises
▁dramatic
▁eloquent
▁extended
▁goodness
▁hangover
▁hardship
▁invested
▁irresist
▁minerals
▁miracles
▁nineteen
▁northern
▁noticing
▁obtained
▁operated
▁overdose
▁pressing
▁projects
▁smartest
▁splashed
▁stitches
▁stranded
▁strangle
▁unfolded
▁vehicles
▁whistled
▁Detective
▁Elephants
▁Hollywood
▁airplanes
▁allowance
▁amusement
▁chauffeur
▁communist
▁concluded
▁dinosaurs
▁establish
▁evacuated
▁goodnight
▁imaginary
▁messenger
▁pointless
▁protested
▁rebellion
▁snowboard
▁snowstorm
▁Christians
▁attributed
▁correcting
▁developing
▁employment
▁hamburgers
▁intolerant
▁objections
▁refreshing
▁statistics
▁Interlingua
▁Philippines
▁antibiotics
▁correctness
▁predictable
▁concentrated
▁corporations
▁discontented
▁explanations
▁investigated
▁preparations
▁registration
▁automatically
▁psychological
-1
ea
uv
ads
arn
bal
dog
enn
fun
itz
omi
owl
pet
roy
thm
usk
van
ygh
you
▁Di
▁MP
▁Rh
▁uk
▁ye
Cola
adle
alem
ardv
aria
arms
chio
dium
etes
inge
nine
opol
rary
rich
star
uite
▁Ang
▁Dub
▁Fox
▁Gar
▁Hon
▁Lin
▁Log
▁Met
▁Sau
▁abh
▁ego
▁elb
▁fer
▁fir
▁gap
▁kit
▁loo
▁oct
▁ome
▁vib
Hello
agull
arded
asion
avens
celer
cular
dling
field
force
gging
icity
ilant
itars
metic
neath
okers
oming
orage
osing
think
ulele
ulips
▁Ages
▁Barb
▁Coca
▁Peel
▁Soph
▁Whom
▁anch
▁batt
▁brat
▁bure
▁cola
▁cork
▁crap
▁dine
▁figs
▁guid
▁harp
▁loos
▁medi
▁ostr
▁rash
▁syll
▁tack
▁thee
▁unan
▁unpl
▁vast
agging
elling
esteem
hammad
ocated
raught
soever
ternal
umbers
ursion
▁Among
▁Birth
▁Exper
▁Kling
▁Liber
▁Marco
▁Organ
▁Relax
▁Steve
▁abort
▁accum
▁aches
▁beats
▁bleed
▁broch
▁cease
▁cocon
▁crawl
▁eaves
▁erect
▁erupt
▁flown
▁groom
▁hills
▁index
▁kimon
▁legit
▁maths
▁onion
▁pearl
▁pneum
▁prose
▁repay
▁spade
▁stray
▁taxis
▁tribe
▁woozy
▁worms
ardvark
defense
lifting
othesis
powered
teacher
theless
ultural
utenant
▁Arabia
▁Arthur
▁Battle
▁Hamlet
▁Hitler
▁Vienna
▁Waiter
▁backst
▁blindf
▁breeds
▁calmly
▁cereal
▁cradle
▁deaths
▁deeper
▁elders
▁ethnic
▁fertil
▁floods
▁greasy
▁harbor
▁hunted
▁league
▁lenses
▁lively
▁magnet
▁motive
▁napkin
▁ordeal
▁overfl
▁panels
▁parlor
▁patted
▁pessim
▁plague
▁roller
▁savage
▁scenes
▁sighed
▁sloppy
▁soaked
▁swears
▁thread
▁whales
centered
▁Ancient
▁Channel
▁General
▁acceler
▁antagon
▁corners
▁cowards
▁desires
▁devices
▁distrib
▁doubled
▁drastic
▁edition
▁exhibit
▁expires
▁genetic
▁guitars
▁leaning
▁mineral
▁natives
▁oatmeal
▁peoples
▁perplex
▁promote
▁readers
▁sailors
▁surname
▁testing
▁toaster
▁tractor
▁treason
▁ukulele
▁vanilla
▁wonders
idespread
▁Politics
▁academic
▁adequate
▁attacker
▁backward
▁bullying
▁calories
▁conserve
▁constell
▁contempt
▁employer
▁evacuate
▁feathers
▁floating
▁fourteen
▁grounded
▁guidance
▁interior
▁minority
▁outraged
▁pounding
▁preserve
▁provides
▁recorder
▁referred
▁regained
▁resemble
▁stumbled
▁telegram
▁trusting
▁unsolved
▁unstable
▁websites
▁Pinocchio
▁Squirrels
▁anxiously
▁assaulted
▁astrology
▁autograph
▁commanded
▁companion
▁concealed
▁conductor
▁distorted
▁donations
▁drugstore
▁elevators
▁favorable
▁horseback
▁hypocrite
▁judgement
▁lunchtime
▁opponents
▁orphanage
▁outspoken
▁paramedic
▁postcards
▁powerless
▁referring
▁refreshed
▁reporters
▁shattered
▁shoelaces
▁submitted
▁subscribe
▁Department
▁Government
▁additional
▁distraught
▁exhausting
▁extinction
▁headlights
▁journalism
▁kidnapping
▁mechanical
▁protective
▁rainforest
▁resistance
▁songwriter
▁substitute
▁unfaithful
▁whatsoever
▁appearances
▁citizenship
▁constructed
▁disobedient
▁medications
▁negotiation
▁predictions
▁regulations
▁represented
▁spectacular
▁unavoidable
▁constitution
▁entertaining
▁hypocritical
▁irresistible
▁unsuccessful
▁interrogation
▁discrimination
ki
All
IDS
ado
ael
awn
bel
bra
cal
dig
edo
fed
gic
icc
ios
isp
mma
ogo
olo
rey
▁Ec
▁NA
▁Og
▁Pi
answ
arus
atar
born
burg
chen
cons
etan
hero
hill
ibal
icky
iser
just
kins
odel
ogue
opin
shot
ugar
umin
unts
▁Bos
▁Div
▁Got
▁Hak
▁Mir
▁Sex
▁Sky
▁aer
▁dys
▁hal
▁lac
▁nav
▁pac
▁rip
▁zip
acist
aires
blood
crast
cribe
eself
ictly
idext
impse
oning
opath
opher
orous
otted
table
ulars
uming
verbs
visor
▁AIDS
▁Anna
▁Cost
▁Dark
▁Farm
▁Gulf
▁Hipp
▁Home
▁Lady
▁Land
▁Latv
▁Nept
▁Nick
▁Pole
▁Want
▁Yuri
▁airs
▁bisc
▁boun
▁bron
▁chir
▁cong
▁cozy
▁crou
▁dice
▁hicc
▁nerd
▁nosy
▁nude
▁obsc
▁pole
▁rack
▁rays
▁ruth
▁snoo
▁tofu
▁trif
▁unle
▁vine
▁wors
aching
aganda
aining
araoke
dollar
encing
ijuana
incess
marine
porary
usalem
▁2:30,
▁Antar
▁Apart
▁Avoid
▁Bread
▁Linux
▁Lunch
▁Monro
▁Pedro
▁Royal
▁Seven
▁Techn
▁Truth
▁anime
▁antif
▁bells
▁booth
▁brows
▁camps
▁cents
▁coats
▁crown
▁crows
▁crude
▁dozed
▁equiv
▁escal
▁exped
▁farms
▁flush
▁grape
▁haste
▁hasty
▁kebab
▁kills
▁mango
▁metro
▁needy
▁noted
▁parag
▁pipes
▁rebel
▁reign
▁rests
▁scent
▁sizes
▁stung
▁sworn
▁tease
▁theme
▁unfit
▁unite
▁unnot
▁urban
hematic
ievable
inarian
omaniac
portant
rection
▁Arctic
▁Astron
▁Basque
▁Cancer
▁Cheese
▁Colomb
▁Danger
▁Daniel
▁Divide
▁Invest
▁Malays
▁Wilson
▁annual
▁boasts
▁calmed
▁define
▁dialog
▁dozens
▁drowsy
▁fasten
▁fossil
▁harmed
▁hectic
▁kangar
▁kidney
▁liters
▁nurses
▁offers
▁olives
▁omelet
▁pacing
▁pearls
▁safest
▁select
▁sharks
▁shaves
▁shines
▁shorts
▁stormy
▁studio
▁thumbs
▁tricky
▁unansw
▁untied
▁vacant
▁varies
▁verify
▁whisky
izations
▁Armenia
▁Correct
▁Honesty
▁Klingon
▁Neptune
▁Somehow
▁Titanic
▁abusive
▁acquire
▁admirer
▁bastard
▁bedside
▁brushes
▁coldest
▁compens
▁confisc
▁damages
▁dieting
▁dioxide
▁dolphin
▁doorway
▁fanatic
▁fingern
▁glimpse
▁grilled
▁handles
▁handsha
▁hostile
▁markets
▁misfort
▁neutral
▁nonstop
▁noodles
▁offices
▁oneself
▁ongoing
▁organic
▁passive
▁penguin
▁plunged
▁rattled
▁readily
▁resolve
▁reverse
▁roughly
▁samples
▁sausage
▁shelves
▁transpa
▁whipped
▁yawning
confident
idextrous
▁Electric
▁Laughter
▁National
▁Needless
▁Shinjuku
▁Strictly
▁Studying
▁abstract
▁blessing
▁commands
▁competed
▁connects
▁contempl
▁covering
▁credible
▁crouched
▁currency
▁dolphins
▁earliest
▁escaping
▁excluded
▁hedgehog
▁inferior
▁intently
▁listener
▁meanings
▁monument
▁mornings
▁paycheck
▁persever
▁rewarded
▁ruthless
▁sciences
▁stunning
▁tempting
ifications
opotamuses
▁Beautiful
▁Bulgarian
▁Hiroshima
▁Icelandic
▁Jerusalem
▁Languages
▁advertise
▁cardboard
▁celebrity
▁conquered
▁distances
▁flattered
▁harmonica
▁illegible
▁impulsive
▁incurable
▁insulting
▁justified
▁medicines
▁obligated
▁pneumonia
▁priceless
▁subtitles
▁thirtieth
▁undressed
▁unnoticed
▁Parliament
▁Revolution
▁accessible
▁concerning
▁conspiracy
▁expedition
▁homosexual
▁hypothesis
▁impeccable
▁membership
▁methodical
▁motivation
▁obligation
▁perception
▁productive
▁professors
▁responding
▁supervisor
▁underneath
▁unfamiliar
▁uninterest
▁widespread
▁workaholic
▁agriculture
▁certificate
▁challenging
▁comfortably
▁fashionable
▁temporarily
▁vegetarians
▁Constitution
▁affectionate
▁ambidextrous
▁contribution
▁firefighters
▁increasingly
▁veterinarian
▁acquaintances
▁grammatically
▁personalities
Ch
Fi
hr
Bec
aha
ati
bre
eda
gee
lon
ova
run
sle
ulu
yal
▁2.
▁Bi
▁DJ
▁Ni
▁Ow
▁Wi
▁et
Mary
Well
agan
agin
apor
arer
aten
bles
date
egas
good
grad
hell
heme
lets
nedy
nels
paid
reme
▁...
▁Age
▁Ass
▁Bud
▁Eid
▁Foc
▁Imp
▁Job
▁Maj
▁Mot
▁Saf
▁bid
▁exh
▁fet
▁gut
▁les
▁pam
▁pee
▁pha
▁wiz
Every
amboo
amine
arent
chiev
cloth
earch
graph
great
icken
illes
inian
inted
itory
leton
onian
onies
ordan
ports
ranus
rogen
smith
style
tress
uplic
▁1000
▁Azer
▁Coll
▁Dear
▁Diet
▁Ever
▁Iron
▁Push
▁Rock
▁Sold
▁Thus
▁adds
▁bapt
▁beep
▁bulb
▁cass
▁conj
▁corp
▁dart
▁dile
▁dock
▁eyeb
▁flab
▁glue
▁graz
▁grip
▁gulp
▁hoax
▁maps
▁mead
▁moan
▁mold
▁odor
▁plug
▁pose
▁puff
▁rape
▁scam
▁skys
▁slap
▁toll
▁unto
▁ware
▁worm
action
arrhea
cerity
enched
ercise
ienced
indeer
inform
length
mallow
rapped
riages
rolled
strong
unting
▁Catal
▁Cheer
▁Cover
▁Diner
▁Grant
▁Kenji
▁Louis
▁Night
▁Paper
▁Power
▁Sugar
▁Susie
▁Turks
▁abide
▁alter
▁arose
▁binoc
▁blizz
▁crick
▁cryst
▁curve
▁daddy
▁defic
▁dwell
▁entry
▁faded
▁fires
▁forks
▁frogs
▁grams
▁grasp
▁indic
▁jumps
▁knelt
▁layer
▁liars
▁pacif
▁petty
▁prest
▁raced
▁royal
▁scrub
▁shone
Because
ativity
ceptive
etition
founded
issions
natural
osition
otional
renched
ressing
ritious
tenance
▁Apples
▁Chopin
▁Flying
▁Jordan
▁Justin
▁Monroe
▁Remind
▁aching
▁barley
▁boxing
▁braces
▁brainw
▁condom
▁crafty
▁cruise
▁cutest
▁dashed
▁ducked
▁emails
▁finest
▁handic
▁healed
▁hopped
▁humour
▁improv
▁infant
▁kimono
▁licens
▁listed
▁madman
▁milked
▁oceans
▁patrol
▁perpet
▁petrol
▁plowed
▁poorer
▁poster
▁preced
▁prophe
▁rental
▁riddle
▁rowing
▁screws
▁shrine
▁steals
▁stoats
▁stoned
▁submit
▁tailor
▁trophy
▁trucks
▁tuxedo
▁unkind
▁visual
▁zombie
chievous
educated
ondition
▁Croatia
▁Dragons
▁Georgia
▁Kennedy
▁Muiriel
▁abolish
▁asshole
▁awarded
▁borrows
▁chaotic
▁clarify
▁coconut
▁consist
▁despair
▁dilemma
▁dresser
▁dubious
▁fasting
▁finance
▁folding
▁gesture
▁giggled
▁hideous
▁immense
▁initial
▁insured
▁karaoke
▁mammals
▁measles
▁neglect
▁outcast
▁prudent
▁pumpkin
▁reduced
▁rehears
▁resched
▁reunion
▁shadows
▁shotgun
▁shuttle
▁sobbing
▁stating
▁stirred
▁tattoos
▁ugliest
▁zombies
▁Democrat
▁Exercise
▁Princess
▁advocate
▁analyzed
▁apparent
▁armchair
▁assembly
▁attained
▁attempts
▁bitterly
▁chuckled
▁departed
▁dreadful
▁dropping
▁equality
▁external
▁freaking
▁jealousy
▁mattress
▁medieval
▁monsters
▁outsmart
▁pretends
▁prevents
▁quarrels
▁shortcut
▁stepping
▁villages
▁Different
▁Testament
▁administr
▁centuries
▁chemicals
▁classmate
▁defensive
▁examining
▁extensive
▁handshake
▁harassing
▁hypocrisy
▁implement
▁intervene
▁jellyfish
▁marijuana
▁marketing
▁notorious
▁perplexed
▁physicist
▁pleasures
▁reasoning
▁reference
▁sincerity
▁splitting
▁statesman
▁violently
▁waterfall
▁advertised
▁antagonize
▁antifreeze
▁beforehand
▁binoculars
▁casualties
▁designated
▁detectives
▁equivalent
▁expressing
▁imprisoned
▁indefinite
▁irritating
▁mathematic
▁outrageous
▁parliament
▁profitable
▁propaganda
▁prosperity
▁quarreling
▁secondhand
▁suspicions
▁unanswered
▁Christopher
▁Translating
▁accumulated
▁allegations
▁astonishing
▁attentively
▁catastrophe
▁confiscated
▁electrician
▁entertained
▁firefighter
▁immigration
▁maintenance
▁marshmallow
▁mischievous
▁preoccupied
▁preparation
▁substantial
▁confidential
▁contradicted
▁disagreeable
▁headquarters
▁intellectual
▁concentration
▁demonstration
▁disappearance
▁granddaughter
▁Hippopotamuses
1,
Hi
NN
ga
Hey
afe
anz
bia
can
gue
iki
jan
nat
obi
ras
tie
uch
uls
urb
utt
▁BM
▁CP
▁Id
▁Ol
▁ul
Your
anji
atra
aura
aver
cont
enny
ethe
ichi
imal
ique
isem
load
mill
onto
pled
raph
uate
ummy
▁20.
▁Ban
▁Dou
▁Nik
▁Ott
▁Pap
▁Rub
▁Tel
▁Tun
▁Van
▁Ver
▁agg
▁bou
▁dar
▁fug
▁gag
▁goo
▁mas
▁nun
▁pes
▁soy
▁unh
▁wip
Sorry
There
acent
akura
anche
aphic
atter
ctive
iards
iency
itute
izoph
lived
ridge
wives
yghur
▁Bull
▁Burn
▁Coke
▁Dest
▁Hill
▁Less
▁Malt
▁Meat
▁Pizz
▁Pour
▁Sapp
▁Toki
▁Tour
▁aged
▁auto
▁avid
▁bats
▁bubb
▁cant
▁clut
▁cycl
▁dick
▁eyel
▁flea
▁gown
▁hamm
▁hugs
▁judo
▁laps
▁leap
▁mate
▁mend
▁mock
▁muff
▁negl
▁nour
▁punk
▁raft
▁soot
▁stag
▁suic
▁sunk
▁synt
▁tomb
▁tray
achiko
ancies
apsack
astics
athing
atible
cooked
flower
ignant
inally
itness
ivated
jected
overty
struct
taking
▁Alban
▁Andre
▁Brush
▁Enter
▁Focus
▁Grill
▁Keiko
▁Laura
▁Might
▁Prize
▁Saudi
▁Sweet
▁agony
▁badge
▁baker
▁bakes
▁blows
▁bores
▁brass
▁chill
▁comma
▁coron
▁crate
▁destr
▁dived
▁epide
▁fists
▁indul
▁ingen
▁lakes
▁misbe
▁miser
▁noble
▁nouns
▁octop
▁poets
▁quart
▁sniff
▁snugg
▁steep
▁stool
▁swamp
▁symph
▁teens
▁unatt
▁unent
▁usage
▁waits
▁yacht
arrison
ensions
esterol
ildered
isition
leading
reprene
▁Albert
▁Butter
▁Darwin
▁Dreams
▁Hunger
▁Johnny
▁Plants
▁Sendai
▁adjoin
▁angels
▁anthem
▁append
▁barbar
▁beards
▁behold
▁brandy
▁bubble
▁burger
▁chains
▁contam
▁county
▁creeps
▁decade
▁dipped
▁discon
▁encoun
▁folder
▁fucked
▁gender
▁glared
▁grudge
▁guided
▁halluc
▁jailed
▁lethal
▁linked
▁lowest
▁lumber
▁metaph
▁mowing
▁orbits
▁pardon
▁pawned
▁pedest
▁peeked
▁racial
▁recess
▁rhythm
▁robots
▁salmon
▁scheme
▁slowed
▁sneaky
▁snores
▁stated
▁sticky
▁strain
▁suited
▁teller
▁tipped
▁unforg
▁united
▁videog
▁walker
▁wizard
ithmetic
izophren
stitious
▁Arabian
▁Careful
▁Poverty
▁Pretend
▁Protest
▁Toronto
▁Weather
▁attends
▁bugging
▁busiest
▁cabbage
▁circled
▁console
▁crowbar
▁crucial
▁dancers
▁darling
▁dispose
▁drugged
▁eagerly
▁eastern
▁emperor
▁equator
▁erected
▁frankly
▁graphic
▁harmony
▁imposed
▁inexper
▁insight
▁knitted
▁mailman
▁manages
▁messing
▁peppers
▁pickles
▁provoke
▁rewrote
▁runners
▁scanned
▁seagull
▁separat
▁spelled
▁storage
▁tension
▁untrust
▁winners
husiastic
▁Germanic
▁Malaysia
▁Muhammad
▁Normally
▁Religion
▁Security
▁antiques
▁applying
▁awaiting
▁bandaged
▁beverage
▁controls
▁costumes
▁creating
▁dedicate
▁disappro
▁disguise
▁drenched
▁features
▁feedback
▁imperson
▁knapsack
▁laziness
▁managing
▁meditate
▁nitrogen
▁perceive
▁producer
▁provoked
▁receives
▁relation
▁restored
▁sedative
▁shameful
▁solitary
▁summoned
▁supplied
▁sweeping
▁swimmers
▁terminal
▁troublem
▁unimagin
▁unloaded
▁uploaded
▁wardrobe
▁warnings
▁workshop
▁wrestler
onsiderate
▁Ignorance
▁Seriously
▁addiction
▁assembled
▁borrowing
▁cathedral
▁civilians
▁civilized
▁commander
▁commotion
▁dignified
▁diversity
▁eliminate
▁excursion
▁imagining
▁imitating
▁impartial
▁irritates
▁lifeguard
▁movements
▁obsession
▁prominent
▁quarreled
▁radiation
▁sentiment
▁shoveling
▁strangled
▁submarine
▁surviving
▁upsetting
▁warehouse
▁Friendship
▁Television
▁adventures
▁articulate
▁associated
▁assumption
▁bewildered
▁cheesecake
▁continuing
▁decorating
▁distressed
▁eliminated
▁entreprene
▁guaranteed
▁incomplete
▁legitimate
▁meaningful
▁nutritious
▁outsmarted
▁possession
▁prediction
▁proportion
▁sharpening
▁tablecloth
▁translates
▁weaknesses
▁bulletproof
▁circulation
▁credibility
▁destruction
▁discussions
▁distributed
▁dumbfounded
▁frustration
▁incorrectly
▁inheritance
▁intentional
▁motorcycles
▁psychiatric
▁residential
▁schizophren
▁unimportant
▁achievements
▁constructive
▁disappearing
▁overwhelming
▁similarities
▁distinguished
▁inconsiderate
▁neighbourhood
▁overconfident
▁superstitious
▁untrustworthy
▁unenthusiastic
.'
.?
BC
IN
Sh
To
bi
mm
mo
acc
ags
aws
bai
bot
eus
eye
few
ige
nip
oni
pro
ray
sla
vey
▁CO
▁Pu
▁du
▁pm
..."
Good
acle
alin
anny
azor
club
dish
helf
ican
icja
igen
ilip
jack
lest
ncle
occo
onge
oped
path
rmed
toed
ulse
utor
▁120
▁Alg
▁CNN
▁Cab
▁Emi
▁Fun
▁Gag
▁Hor
▁Inc
▁Leg
▁Lux
▁Opp
▁Sub
▁Web
▁ber
▁bip
▁bla
▁ens
▁haw
▁irr
▁mac
▁pap
anked
apper
archy
asaki
bably
backs
doing
flies
gling
ingly
inton
isons
oling
otype
pared
pense
rance
ronic
round
ruder
uated
▁Ania
▁Army
▁Bang
▁Cars
▁Cool
▁Dead
▁Glob
▁Hall
▁Java
▁Jill
▁Kash
▁Kato
▁Leon
▁Lift
▁Mass
▁Pain
▁Peru
▁Pona
▁Prep
▁Salt
▁Self
▁Shar
▁Sher
▁Stat
▁Toss
▁anth
▁apes
▁appe
▁bend
▁brow
▁crem
▁dash
▁frug
▁limp
▁lump
▁mule
▁pion
▁poth
▁quot
▁rins
▁skyd
▁solo
▁stap
▁swig
▁synd
▁teet
▁tube
▁unde
▁unso
Donald
ancing
ardens
ardess
asting
atched
boards
celona
cerned
esters
gnosis
placed
seller
▁2013,
▁Adams
▁Akira
▁Begin
▁Cathy
▁Early
▁Eight
▁Force
▁Greet
▁Homer
▁Kylie
▁Large
▁Merry
▁Newsp
▁Produ
▁Saint
▁Smile
▁Stars
▁Stick
▁Straw
▁acute
▁altar
▁atoms
▁aunts
▁bikes
▁blade
▁boobs
▁buyer
▁comet
▁dairy
▁delus
▁demol
▁downs
▁drill
▁drown
▁ducks
▁dynam
▁erase
▁estim
▁extro
▁flaws
▁floss
▁foxes
▁gloom
▁inner
▁mommy
▁muggy
▁ninth
▁olive
▁pause
▁posed
▁razor
▁riser
▁rises
▁roots
▁sadly
▁sewed
▁shuff
▁shyly
▁spook
▁squad
▁strip
▁swift
▁tread
▁tuned
▁unity
▁users
▁verse
▁yards
Tatoeba
angered
ashions
blooded
brother
elected
igenous
ishment
issance
istance
itarian
ounding
quality
smoking
ustered
warming
workers
▁Allies
▁Andrew
▁Angela
▁Avenue
▁Batman
▁Carlos
▁Dozens
▁Holmes
▁Island
▁Miller
▁Nearly
▁Palace
▁Wolves
▁adject
▁adjour
▁assess
▁autobi
▁bamboo
▁barric
▁beasts
▁bronze
▁carrot
▁celery
▁choked
▁condol
▁curfew
▁devote
▁devout
▁digest
▁divers
▁eldest
▁escort
▁essays
▁filter
▁french
▁hating
▁insert
▁ironic
▁lemons
▁locate
▁lotion
▁mailed
▁mashed
▁medium
▁metres
▁misery
▁models
▁outlaw
▁paints
▁pastry
▁patron
▁popped
▁prodig
▁puppet
▁pursue
▁racism
▁riches
▁rivals
▁sexist
▁shifts
▁sirens
▁stimul
▁storms
▁subtle
▁throne
▁traded
▁unanim
▁unhurt
▁unsafe
▁untrue
▁verses
▁weekly
culation
election
ications
itations
rupulous
▁Azerbai
▁Beatles
▁Clinton
▁Estonia
▁Felicja
▁Fridays
▁Imagine
▁Morocco
▁Ottoman
▁Physics
▁Project
▁Sapporo
▁Writing
▁absorbs
▁abstain
▁airmail
▁almonds
▁analyze
▁bragged
▁browser
▁circles
▁cricket
▁declare
▁demoted
▁descend
▁dignity
▁disobey
▁dragons
▁dreamer
▁earnest
▁erupted
▁evasive
▁extract
▁fertile
▁fitting
▁flashed
▁footage
▁groaned
▁grounds
▁handful
▁heroine
▁howling
▁itching
▁lunatic
▁masters
▁mittens
▁monitor
▁necktie
▁needles
▁obesity
▁ostrich
▁outlook
▁premise
▁radical
▁retires
▁roasted
▁scraped
▁seasick
▁simpler
▁soundly
▁touches
▁trading
▁vaccine
▁weeping
▁western
hematical
placeable
▁Algerian
▁Birthday
▁Soldiers
▁admiring
▁assisted
▁blizzard
▁bookworm
▁brightly
▁brownies
▁cherries
▁contacts
▁cremated
▁decrease
▁devoured
▁diabetes
▁dialogue
▁diarrhea
▁disturbs
▁epidemic
▁fearless
▁feminine
▁homeland
▁humidity
▁insanity
▁intruder
▁migraine
▁mourning
▁muscular
▁overhead
▁pointing
▁profound
▁pyramids
▁reflects
▁refusing
▁requests
▁steering
▁swearing
▁sweetest
▁triangle
▁unharmed
▁unicycle
▁vertical
▁Barcelona
▁Certainly
▁Frenchman
▁Knowledge
▁Lightning
▁Listening
▁Traveling
▁announcer
▁automatic
▁bookshelf
▁brightest
▁cheesebur
▁crossword
▁deposited
▁disagrees
▁disobeyed
▁displayed
▁economist
▁exclusive
▁extension
▁favorites
▁gossiping
▁guidebook
▁heartless
▁inspector
▁intensive
▁mandatory
▁misplaced
▁nightclub
▁paragraph
▁prejudice
▁prognosis
▁proposals
▁socialist
▁spaceship
▁staggered
▁superhero
▁tolerated
▁trembling
▁troubling
▁unplugged
▁unwrapped
▁violation
▁workplace
▁applicants
▁astronauts
▁attempting
▁carelessly
▁compatible
▁comprehend
▁consultant
▁decreasing
▁delusional
▁democratic
▁endangered
▁hysterical
▁initiative
▁innovative
▁instructed
▁manipulate
▁motionless
▁percentage
▁precaution
▁previously
▁procedures
▁stewardess
▁supporters
▁tremendous
▁underwater
▁accountable
▁acknowledge
▁association
▁blindfolded
▁brainwashed
▁carnivorous
▁cholesterol
▁convictions
▁daydreaming
▁exaggerated
▁exceptional
▁fingernails
▁impatiently
▁individuals
▁linguistics
▁neighboring
▁pickpockets
▁unconcerned
▁calculations
▁contemporary
▁disagreement
▁dramatically
▁interrogated
▁mathematical
▁participants
▁satisfaction
▁specifically
▁unforgivable
▁universities
▁volunteering
▁encouragement
▁heartbreaking
▁irreplaceable
▁accomplishment
!!
Ex
IA
oi
zi
!".
10.
Kin
arf
bek
dis
esy
gas
had
hof
log
lsh
pot
rad
rug
tor
usc
uty
vil
yes
▁23
▁CE
▁Et
▁Ko
▁Ku
▁ta
Engl
Here
Stop
alls
aman
anqu
arse
bike
dest
dles
eria
face
grim
hess
icol
idal
inue
iors
isle
mann
mets
misp
oded
olks
ooch
oren
page
park
pent
pill
ripp
roid
tray
trip
uiet
ussy
▁Bon
▁Bra
▁CIA
▁Def
▁Die
▁Ecu
▁Emb
▁Ito
▁Leb
▁Mis
▁Mix
▁Nep
▁Pur
▁Rad
▁Ron
▁Roy
▁Ski
▁Son
▁Tea
▁Yuk
▁asc
▁cun
▁dot
▁ech
▁etc
▁gaz
▁lod
▁lur
▁nud
▁rit
▁sor
▁sup
▁ups
▁wal
ahili
aines
bable
based
erate
ernic
faced
heads
ieces
inery
inese
iolet
omous
ookie
orget
rosse
umble
vable
verts
woman
▁3:00
▁Boil
▁Cher
▁Deal
▁Dima
▁Down
▁Fail
▁Ferr
▁Fine
▁Gram
▁Kind
▁Line
▁Mecc
▁Morm
▁Nile
▁Repe
▁Rich
▁Same
▁Soci
▁Wine
▁aval
▁bunk
▁calf
▁coke
▁dehy
▁feas
▁flin
▁godd
▁grim
▁hens
▁hits
▁imam
▁knob
▁lect
▁oboe
▁peac
▁peep
▁pint
▁quad
▁ribs
▁secl
▁sque
▁styl
▁thro
▁thus
▁tsun
▁vary
▁yuan
Thanks
ankind
archer
bercul
enders
ension
erving
gently
ighted
opatra
uality
ussion
weight
▁Again
▁Breat
▁Build
▁Davis
▁Diana
▁Fifth
▁Forty
▁Galax
▁Kelly
▁Later
▁Libya
▁Naoko
▁Ogawa
▁Robin
▁Sadly
▁Satan
▁Visit
▁Welsh
▁Years
▁aisle
▁arche
▁blend
▁botan
▁clues
▁coffe
▁cramp
▁defin
▁enlar
▁feast
▁fishy
▁flirt
▁fract
▁heals
▁hides
▁illum
▁itchy
▁kanji
▁kings
▁leaks
▁lined
▁loner
▁maker
▁mince
▁pamph
▁plead
▁poked
▁polls
▁prone
▁queue
▁recru
▁rehab
▁rents
▁scorp
▁shred
▁sites
▁slope
▁smugg
▁snowy
▁stair
▁swind
▁syrup
▁teddy
▁thres
▁tiles
▁torto
▁treas
▁trend
▁tumor
▁unins
▁vowed
English
achable
amenhof
ernicus
hensive
ickness
idences
istical
legates
natured
ologies
reation
respass
secuted
▁Around
▁Basket
▁Behave
▁Golden
▁Guinea
▁Hashim
▁Nagano
▁Prince
▁Riding
▁Safety
▁Search
▁Sophie
▁Thirty
▁Twenty
▁Wonder
▁aiming
▁argues
▁bombed
▁bugged
▁cleans
▁combed
▁copied
▁disbel
▁doomed
▁downed
▁duplic
▁elbows
▁facial
▁finals
▁gloomy
▁hacked
▁honked
▁insens
▁latter
▁meadow
▁milder
▁orient
▁overst
▁pandas
▁pilots
▁prizes
▁raking
▁ratted
▁scales
▁snails
▁snored
▁societ
▁specul
▁sprang
▁superv
▁theore
▁tranqu
▁tucked
▁tulips
▁utmost
▁warden
▁zipped
▁zipper
elligent
employed
function
iologist
misphere
ographic
ountered
raviolet
▁300,000
▁Absolut
▁Belarus
▁Belgian
▁Berbers
▁Embassy
▁Federal
▁Iranian
▁Justice
▁Minogue
▁Oranges
▁Prepare
▁Rabbits
▁Ricardo
▁Richard
▁Sachiko
▁Siberia
▁Swahili
▁Waiting
▁aroused
▁banquet
▁barbers
▁bassoon
▁bipolar
▁biscuit
▁blossom
▁chamber
▁circumc
▁clogged
▁condone
▁conform
▁consume
▁counsel
▁crosses
▁deficit
▁drawers
▁drifted
▁earning
▁endured
▁enlight
▁errands
▁extinct
▁feature
▁federal
▁firemen
▁flatter
▁flirted
▁founder
▁gallery
▁gambler
▁gardens
▁heavens
▁helmets
▁immoral
▁impulse
▁justify
▁kicking
▁largely
▁literal
▁loading
▁magnets
▁motives
▁orchard
▁origins
▁pastime
▁pilgrim
▁pinched
▁pirates
▁rebuild
▁remodel
▁revived
▁signing
▁sleeper
▁sparrow
▁squeeze
▁stained
▁stalker
▁stroked
▁summers
▁sunburn
▁toolbox
▁tougher
▁tsunami
▁unarmed
▁visibly
▁vomited
ependable
ifference
struction
▁Colombia
▁Franklin
▁McDonald
▁Superman
▁abortion
▁applause
▁assuming
▁blooming
▁carriage
▁chapters
▁clenched
▁collided
▁crackers
▁creation
▁dialects
▁disabled
▁eternity
▁focusing
▁fugitive
▁galaxies
▁gracious
▁handball
▁initials
▁invasion
▁lacrosse
▁lighting
▁massaged
▁matching
▁meantime
▁mistreat
▁operator
▁packages
▁peasants
▁petition
▁populous
▁preacher
▁procrast
▁prophecy
▁province
▁reaching
▁recycled
▁revolves
▁settlers
▁shivered
▁signaled
▁skillful
▁snowfall
▁souvenir
▁suggests
▁tubercul
▁vigilant
ographical
▁Cleopatra
▁Greenland
▁Hashimoto
▁Otherwise
▁addictive
▁ambiguous
▁appealing
▁ballpoint
▁biologist
▁cheerlead
▁communism
▁competing
▁condemned
▁decreased
▁delirious
▁disasters
▁encounter
▁exploring
▁expresses
▁fifteenth
▁flustered
▁honorable
▁illegally
▁investing
▁margarine
▁motorbike
▁pessimist
▁pineapple
▁positions
▁premature
▁publisher
▁qualities
▁scattered
▁sculpture
▁souvenirs
▁strengths
▁sustained
▁tasteless
▁terrorism
▁threshing
▁underwent
▁Copernicus
▁accidental
▁arithmetic
▁attraction
▁authorized
▁believable
▁carpenters
▁classified
▁comforting
▁discharged
▁dishonored
▁explosives
▁fertilizer
▁inflexible
▁meticulous
▁mistakenly
▁nomination
▁overworked
▁performing
▁pharmacist
▁possessive
▁reassuring
▁references
▁researcher
▁skateboard
▁stepmother
▁subscribed
▁techniques
▁blackmailed
▁connections
▁continually
▁controlling
▁criticizing
▁demonstrate
▁encountered
▁governments
▁insensitive
▁instructive
▁journalists
▁progressing
▁rainforests
▁separatists
▁shoplifting
▁technically
▁Strawberries
▁appreciation
▁disqualified
▁exaggeration
▁examinations
▁manipulating
▁multilingual
▁photographed
▁refreshments
▁requirements
▁thunderstorm
▁undependable
▁archaeologist
▁civilizations
▁determination
▁fundamentally
▁inexperienced
▁environmentally
10
IF
If
SS
va
zo
▁.
33.
And
aac
aby
agm
bie
bir
dad
dam
ems
eno
igs
isk
lad
lan
oso
pel
sex
uda
una
vol
zhe
▁0.
▁3,
▁31
▁Da
▁ig
▁yo
Just
Look
Then
acre
aism
aiti
anon
arak
auge
ayer
bite
cott
cycl
days
iate
icit
idel
ilyn
inav
inki
olas
oled
olin
onel
opes
orks
rawn
real
ucha
ucle
uela
upun
wall
wind
zbek
▁13.
▁Ana
▁Arm
▁BMW
▁Bie
▁Bye
▁CEO
▁Cry
▁Deb
▁Fah
▁Fat
▁Hay
▁Hoo
▁Inv
▁Jac
▁Kum
▁Nak
▁Nat
▁Off
▁Pet
▁Pis
▁Pok
▁Ram
▁Tax
▁Tig
▁Wis
▁Yid
▁asp
▁bay
▁byg
▁cul
▁fem
▁fib
▁gin
▁gor
▁hog
▁hyd
▁jur
▁ker
▁lap
▁luc
▁mes
▁pod
▁ram
▁rav
▁rod
Could
Happy
aders
adesh
ancou
apest
cover
ctica
cturn
cules
ddies
eaten
eltic
gular
ibern
ibuya
icism
icure
igure
imony
inety
inous
isive
ively
mails
omers
orant
ostal
ounge
three
urred
verer
ville
▁3000
▁Angl
▁Best
▁Cock
▁Conf
▁Emet
▁Fate
▁Guys
▁Heat
▁Hels
▁Joan
▁Kent
▁Koko
▁Lith
▁NASA
▁Navy
▁Slav
▁Text
▁Valy
▁Wear
▁appl
▁carb
▁carn
▁ecst
▁egot
▁eval
▁fats
▁flip
▁inhe
▁jogs
▁lick
▁marg
▁oath
▁oint
▁outd
▁pope
▁rect
▁rein
▁robe
▁rota
▁seal
▁seaw
▁shud
▁slob
▁spun
▁succ
▁suns
▁tame
▁tyre
▁unpr
▁wimp
▁yawn
00,000
actose
akened
anging
atable
avirus
bridge
called
ciable
ensity
fering
hammed
icable
idable
igious
igrade
incere
inkill
intend
lihood
obiles
orical
riters
seeing
uition
urated
ustice
▁3:30.
▁Alzhe
▁Athen
▁Carib
▁Child
▁Coast
▁Color
▁Haiti
▁Hyogo
▁Jenny
▁Larry
▁Press
▁Roses
▁Sales
▁Scand
▁Short
▁Smoke
▁Treat
▁Yours
▁aback
▁anore
▁apric
▁arist
▁audio
▁bonus
▁breed
▁brook
▁budge
▁bunny
▁cages
▁cater
▁compr
▁crook
▁cuter
▁decay
▁donor
▁dryer
▁flunk
▁gazed
▁genes
▁grant
▁graph
▁gravy
▁hazel
▁incor
▁laser
▁ninja
▁packs
▁patch
▁penet
▁posts
▁rolls
▁rooft
▁sails
▁scoot
▁skips
▁snail
▁stunt
▁suing
▁taboo
▁tents
▁timer
▁timet
▁tonic
▁typos
▁venge
▁yells
colored
handise
igators
osystem
prising
▁20,000
▁Asians
▁Babies
▁Bieber
▁Bridge
▁Celtic
▁Custom
▁Flight
▁Floren
▁Galaxy
▁Global
▁Hoover
▁Ignore
▁Juliet
▁Lately
▁Leaves
▁Proper
▁Remain
▁Twelve
▁Vancou
▁Virgin
▁Wisdom
▁avoids
▁awards
▁braver
▁bribed
▁brooch
▁builds
▁bundle
▁caviar
▁cooker
▁drying
▁encycl
▁envied
▁excess
▁falcon
▁famine
▁fantas
▁favors
▁fiance
▁fiddle
▁filing
▁flawed
▁hibern
▁hostel
▁indisc
▁jammed
▁jewell
▁kidnap
▁lounge
▁mansla
▁premon
▁proves
▁relies
▁revive
▁rinsed
▁sermon
▁shaped
▁sphere
▁squash
▁stains
▁stored
▁stuffy
▁suburb
▁tackle
▁thrill
▁tomcat
▁traces
▁trades
▁transf
▁unjust
▁upload
▁valued
▁violet
▁vulgar
▁warmth
▁wrench
aturally
informed
lessness
stitutes
▁Abraham
▁Algiers
▁Alright
▁Charlie
▁Chicken
▁Control
▁Destroy
▁Driving
▁Ecuador
▁Ferrari
▁Holland
▁Hunting
▁Islamic
▁Judaism
▁Marilla
▁Marilyn
▁Matthew
▁Parking
▁Release
▁Running
▁Shibuya
▁Singing
▁Spiders
▁Working
▁Yoshida
▁abounds
▁amongst
▁ashtray
▁aspects
▁banging
▁beneath
▁bottled
▁bouquet
▁bravely
▁bravery
▁buddies
▁candies
▁carpets
▁conflic
▁creator
▁crystal
▁darkest
▁divides
▁employs
▁endings
▁engines
▁essence
▁exhaust
▁exhilar
▁fathers
▁fatigue
▁finicky
▁forcing
▁freight
▁funding
▁goofing
▁gunfire
▁hatched
▁herring
▁hitched
▁hunters
▁kittens
▁lesbian
▁madness
▁masturb
▁mounted
▁nocturn
▁nursing
▁obscene
▁offense
▁patriot
▁peacock
▁portion
▁postman
▁psyched
▁punches
▁pyramid
▁restart
▁restore
▁reviews
▁revised
▁slender
▁sneezed
▁stamped
▁stormed
▁symbols
▁technic
▁traumat
▁trifles
▁tuition
▁undergo
▁updates
antically
▁Accident
▁Continue
▁Describe
▁Harrison
▁Helsinki
▁Mongolia
▁Nagasaki
▁Probably
▁Valyrian
▁Visitors
▁Watching
▁advances
▁ambushed
▁amounted
▁attracts
▁autistic
▁babbling
▁brochure
▁cannibal
▁cassette
▁checkers
▁cleverer
▁climbers
▁colonial
▁consumes
▁cracking
▁deceased
▁donation
▁eavesdro
▁exhibits
▁eyebrows
▁fashions
▁feasible
▁fortress
▁gangster
▁gigantic
▁graceful
▁guessing
▁husbands
▁implying
▁indicate
▁informal
▁interact
▁linguist
▁mandolin
▁marching
▁mattered
▁mistress
▁ointment
▁ornament
▁painkill
▁penguins
▁printing
▁regional
▁seasoned
▁secluded
▁skeleton
▁spacious
▁suicidal
▁syllable
▁traveler
▁underage
▁unforget
▁urgently
▁vampires
▁versions
▁volatile
▁windsurf
▁wrinkled
confidence
▁Alzheimer
▁Relations
▁Scandinav
▁Vancouver
▁accordion
▁adjourned
▁admirable
▁agreeable
▁appearing
▁avalanche
▁backstage
▁chestnuts
▁collision
▁colourful
▁consented
▁coworkers
▁dictators
▁disbelief
▁dormitory
▁foolishly
▁freelance
▁frequency
▁fulfilled
▁grumbling
▁handcuffs
▁hardships
▁injustice
▁insincere
▁irregular
▁kilometer
▁marriages
▁meatballs
▁meteorite
▁migraines
▁obsessive
▁overboard
▁pressured
▁reactions
▁redundant
▁reflected
▁regarding
▁residence
▁sensation
▁separates
▁specialty
▁strangest
▁successes
▁torturing
▁uninsured
▁virginity
▁Antarctica
▁Basketball
▁Personally
▁afternoons
▁approaches
▁astronomer
▁attendance
▁challenged
▁competitor
▁compulsive
▁consulting
▁dedication
▁disability
▁discourage
▁formidable
▁functional
▁grandchild
▁imaginable
▁indecisive
▁interfered
▁irrational
▁kilometres
▁misleading
▁negotiated
▁negotiator
▁paranormal
▁pineapples
▁pleasantly
▁practising
▁preference
▁presidents
▁proficient
▁protesters
▁reschedule
▁restrained
▁satellites
▁snowflakes
▁statements
▁sunbathing
▁suppressed
▁unprepared
▁unsociable
▁condolences
▁contradicts
▁controversy
▁coronavirus
▁disciplined
▁discoveries
▁electronics
▁handicapped
▁illustrated
▁industrious
▁merchandise
▁premonition
▁radioactive
▁resemblance
▁temperament
▁transaction
▁transmitted
▁wonderfully
▁Construction
▁assassinated
▁blackmailing
▁contaminated
▁continuously
▁experiencing
▁extinguisher
▁manslaughter
▁millionaires
▁perseverance
▁troublemaker
▁unscrupulous
▁compassionate
▁disadvantages
▁entertainment
▁mathematician
▁schizophrenic
▁unforgettable
▁constellations
▁professionally
▁scientifically
-2
AT
BS
IP
wa
▁0
?",
For
IFA
aku
but
eva
iqu
irc
jar
mia
nom
oma
phy
pox
sey
sty
tem
tra
▁2,
▁Ce
▁Ki
▁PM
▁Py
▁fu
Give
Help
acus
anne
atab
atan
auri
bezz
brid
chet
elts
heit
hent
iard
ihil
iper
isen
keda
lift
list
lors
maid
ocre
oids
olly
omal
opia
opor
ours
pass
prus
race
rail
roit
rust
sequ
umph
usal
warf
west
▁10,
▁Amy
▁Bay
▁Ext
▁Fle
▁Kat
▁Laz
▁Lem
▁Max
▁Mub
▁Ont
▁Pen
▁Ple
▁Pra
▁Rex
▁Sas
▁Sla
▁Tol
▁abn
▁bol
▁huh
▁unz
▁vow
Which
aelic
aline
anton
anzar
aucas
blind
brain
build
ckles
dened
ebted
fruit
garia
gebra
ggles
idote
inity
irect
isins
itage
itism
ivate
lings
mouth
niest
ocial
olulu
omori
ostic
otect
poses
ratic
scarf
thony
usely
uster
years
▁Abel
▁Andy
▁Bras
▁Cast
▁Cind
▁FIFA
▁Fool
▁Gate
▁Glad
▁Grow
▁Hide
▁Juan
▁Jump
▁Kurd
▁Lack
▁Mist
▁Mumb
▁News
▁Ohio
▁Rena
▁Room
▁Rosa
▁Seas
▁Shiz
▁Song
▁Typh
▁babe
▁brun
▁bulk
▁bump
▁cuff
▁cush
▁dill
▁dusk
▁eyew
▁hind
▁idol
▁mama
▁moth
▁narc
▁nuis
▁oste
▁raid
▁reap
▁reek
▁rept
▁rhet
▁roam
▁sequ
▁sket
▁stam
▁tram
▁waff
▁wasp
anking
arming
astern
atican
burned
craper
cutive
ergent
ervice
etanus
famous
feated
ffeine
igible
inging
ippers
itudes
lphins
ophile
opular
pillar
priced
ptions
rified
roduce
shirts
sister
stream
uclear
▁Atoms
▁Bucha
▁Champ
▁Clear
▁Dance
▁Finns
▁Ikeda
▁Isaac
▁Jerry
▁Jorge
▁Judge
▁Karen
▁Level
▁Miami
▁Nicar
▁Paula
▁Pizza
▁Pract
▁Shake
▁Skura
▁Terry
▁Third
▁Trang
▁Tunis
▁Vegas
▁Venez
▁amuse
▁antis
▁apron
▁arson
▁bands
▁canal
▁chlor
▁crept
▁cring
▁cripp
▁darts
▁datab
▁figur
▁firms
▁flags
▁gauge
▁globe
▁gover
▁grill
▁horns
▁hyper
▁inade
▁incap
▁insol
▁latex
▁leapt
▁march
▁marve
▁melon
▁milit
▁minus
▁nonsm
▁patio
▁pesos
▁plast
▁polar
▁radar
▁reinc
▁retro
▁revol
▁ropes
▁salon
▁skies
▁skunk
▁spraw
▁stack
▁twink
▁unpro
▁viral
▁virtu
▁wagon
▁yolks
eration
ethical
flowers
forward
habited
idently
igation
isation
isement
ishable
ochrome
onesome
ramatic
ructive
uttoned
▁Androm
▁Buddha
▁Canton
▁Cyprus
▁Dublin
▁Employ
▁Ferris
▁Gaelic
▁Geneva
▁Julius
▁Lanzar
▁Martin
▁Milton
▁Murder
▁Naples
▁Panama
▁Pierre
▁Potter
▁Public
▁Regard
▁Serbia
▁Skiing
▁Slavic
▁Sports
▁Stalin
▁Valley
▁absorb
▁allies
▁ambush
▁anchor
▁archer
▁attach
▁ballot
▁butler
▁cables
▁chorus
▁cigars
▁copper
▁corpse
▁crowds
▁dearly
▁dental
▁embezz
▁erased
▁evapor
▁exiled
▁floats
▁forged
▁frugal
▁hearty
▁honors
▁hybrid
▁impose
▁incons
▁judges
▁keeper
▁leaped
▁losers
▁mascul
▁melody
▁melons
▁mesmer
▁metals
▁miners
▁openly
▁overem
▁pantry
▁perfor
▁perish
▁porter
▁pumped
▁purely
▁quotes
▁ransom
▁reread
▁revolt
▁rookie
▁seller
▁shield
▁simult
▁sinner
▁skater
▁snooze
▁spokes
▁stereo
▁strait
▁superb
▁sweaty
▁tanker
▁teetot
▁thorns
▁touchy
▁typist
▁uncont
▁unsoph
▁yawned
ardvarks
aterrest
etically
ilosophy
oporosis
osterous
▁Anthony
▁Barbara
▁Culture
▁Detroit
▁Emperor
▁Kashgar
▁Killing
▁Knowing
▁Liberty
▁Library
▁Looking
▁Meeting
▁Mubarak
▁Perfect
▁Protect
▁Romance
▁Society
▁Stephen
▁Suppose
▁Vatican
▁Winning
▁Workers
▁admires
▁appeals
▁apprent
▁apricot
▁auction
▁backing
▁blankly
▁blondes
▁bureauc
▁bygones
▁cashier
▁cereals
▁charger
▁charmed
▁circuit
▁coaster
▁colonel
▁cunning
▁diagram
▁dismiss
▁enabled
▁enforce
▁ethical
▁farming
▁fitness
▁flushed
▁glitter
▁goddess
▁goggles
▁googled
▁healing
▁iceberg
▁invalid
▁lactose
▁limping
▁marital
▁morally
▁mosques
▁nagging
▁octopus
▁origami
▁prefect
▁prodigy
▁prolong
▁rooster
▁rowboat
▁soaking
▁stalked
▁stylish
▁tighten
▁torment
▁tracked
▁triumph
▁venture
▁vinegar
▁violate
▁weaving
▁workman
abilities
ationally
bergasted
reatening
upuncture
ventional
▁Africans
▁Armenian
▁Budapest
▁Buddhist
▁Bulgaria
▁Centauri
▁Dolphins
▁Florence
▁Honolulu
▁Progress
▁Sleeping
▁Tuesdays
▁Victoria
▁abruptly
▁altitude
▁antidote
▁appropri
▁assassin
▁battling
▁beholden
▁caffeine
▁category
▁cellmate
▁channels
▁chirping
▁cleaners
▁colonies
▁colorful
▁conceive
▁confined
▁congress
▁conquest
▁consumed
▁database
▁delivers
▁dominant
▁enlisted
▁enrolled
▁equation
▁escorted
▁failures
▁firearms
▁flooding
▁formally
▁funniest
▁guardian
▁guarding
▁horizons
▁ideology
▁ignition
▁improves
▁indebted
▁invaders
▁irritate
▁kangaroo
▁licensed
▁literary
▁mediocre
▁nineties
▁nuisance
▁overcame
▁pamphlet
▁pizzeria
▁prosecut
▁proverbs
▁publicly
▁recalled
▁replying
▁restrict
▁sailboat
▁shepherd
▁showered
▁shrugged
▁skipping
▁snowball
▁splinter
▁stations
▁striking
▁suppress
▁syndrome
▁teammate
▁tempered
▁thanking
▁theaters
▁tranquil
▁trembled
▁ultimate
▁username
▁volcanic
▁vomiting
▁warranty
▁worsened
▁Accidents
▁Bucharest
▁Cambridge
▁Democracy
▁Evidently
▁Greetings
▁Lanzarote
▁Minecraft
▁apologise
▁apprehend
▁attacking
▁consumers
▁container
▁corrupted
▁counselor
▁detention
▁duplicate
▁ecosystem
▁electrons
▁emigrated
▁evidently
▁generated
▁headscarf
▁indignant
▁ingenious
▁initially
▁injection
▁inspected
▁insulated
▁libraries
▁machinery
▁maintains
▁necessity
▁nocturnal
▁nutrition
▁painfully
▁penniless
▁plastered
▁polygraph
▁preserved
▁privilege
▁profusely
▁promoting
▁ransacked
▁replacing
▁reporting
▁repulsive
▁societies
▁sunburned
▁sunflower
▁synthetic
▁testimony
▁thrilling
▁timetable
▁unnatural
▁Democratic
▁Indonesian
▁Newspapers
▁accounting
▁affordable
▁aggression
▁apartments
▁barbershop
▁boyfriends
▁compensate
▁complement
▁complexion
▁connecting
▁containing
▁conviction
▁definition
▁demolished
▁economical
▁emphasized
▁encycloped
▁freshwater
▁generosity
▁guarantees
▁gymnastics
▁indigenous
▁infections
▁intervened
▁judgmental
▁landscapes
▁leadership
▁misfortune
▁monochrome
▁operations
▁oppression
▁overstayed
▁pickpocket
▁protesting
▁scratching
▁separation
▁skyscraper
▁spectators
▁substances
▁supposedly
▁traditions
▁unattended
▁unbuttoned
▁victorious
▁videogames
▁wrongdoing
▁Grandmother
▁Translation
▁babysitting
▁billionaire
▁conferences
▁consecutive
▁distinction
▁emotionally
▁exaggerates
▁humiliating
▁impressions
▁inferiority
▁institution
▁interfering
▁introverted
▁mountainous
▁precautions
▁prostitutes
▁transparent
▁transported
▁voluntarily
▁alphabetical
▁apprehensive
▁astonishment
▁breathtaking
▁dictatorship
▁disadvantage
▁exhilarating
▁extinguished
▁extraterrest
▁hysterically
▁interviewing
▁introduction
▁measurements
▁missionaries
▁preposterous
▁questionable
▁advertisement
▁contradicting
▁contributions
▁documentaries
▁eavesdropping
▁embarrassment
▁flabbergasted
▁uninteresting
▁administrative
▁identification
▁impressionable
▁unsophisticated
',
BA
CR
ES
MS
SI
ba
hu
rd
00.
App
Has
abe
alm
apy
aug
ege
lla
lov
mir
nie
nik
ois
oky
oor
oub
rob
shi
ths
tic
uay
uma
ums
upt
yan
▁Ay
▁Ha
▁Iz
▁Ja
▁oz
Only
agen
agua
apot
athe
bean
bird
brev
cium
cule
dled
eged
ench
etah
eved
feed
firs
glot
gran
high
ichb
iege
igan
infl
inse
ippi
irit
ixon
leum
nged
nian
omic
opic
rors
ruci
seat
seud
ston
take
ucks
uilt
unct
uoka
wait
wash
week
yles
▁11.
▁Amb
▁Aoi
▁Bun
▁Cub
▁Dig
▁Eag
▁Egg
▁Eth
▁Hat
▁Hel
▁Hir
▁Hyp
▁Ins
▁Jon
▁Kan
▁Leo
▁Non
▁Rac
▁Rum
▁Sao
▁Sic
▁Tah
▁Wal
▁Wha
▁Yam
▁abd
▁bib
▁bin
▁bye
▁eel
▁fri
▁gad
▁lam
▁len
▁lin
▁orb
▁pox
▁rig
▁sow
▁tad
▁tam
▁til
▁vag
▁ves
3,000
about
ailed
amech
amoto
antis
azaar
birth
bread
cakes
cream
eavor
ental
esame
ffiti
hames
heast
human
inked
inson
iries
joyed
knife
leans
nlike
ocide
ooper
opoly
orate
orked
osure
otent
pipes
rence
rians
ropol
sions
stant
tedly
tight
ucker
uebec
uffel
▁100.
▁Aunt
▁Buck
▁Capt
▁Card
▁Cash
▁Chem
▁Circ
▁Corn
▁Dora
▁Evil
▁Fast
▁Fold
▁Gaga
▁Ivan
▁Jobs
▁Kans
▁Lech
▁Luis
▁Mail
▁Mats
▁Mona
▁Ouch
▁Phot
▁Poss
▁Prec
▁Sara
▁Shit
▁Socr
▁Stan
▁Tate
▁Teen
▁Term
▁Trad
▁Virt
▁Vote
▁Walt
▁Whoa
▁Wish
▁aced
▁agon
▁axis
▁bask
▁bled
▁bolt
▁boot
▁bust
▁clip
▁coco
▁cosm
▁deod
▁epic
▁erad
▁fain
▁fals
▁flex
▁fris
▁grop
▁gums
▁heed
▁iPod
▁kilt
▁lull
▁mart
▁masc
▁memo
▁murm
▁oral
▁proc
▁recl
▁reef
▁rink
▁roar
▁sane
▁sauc
▁sopr
▁stif
▁stoo
▁sumo
▁tant
▁taxp
▁trig
▁tuba
▁typo
▁uncl
▁walt
▁wavy
0,000.
ackers
anship
assium
chestr
encies
esthes
hattan
icting
inians
inkles
leness
ogical
orthod
ounted
reness
roleum
ruguay
school
spoken
thirds
thouse
uating
uggish
umbing
umchen
urches
▁Babyl
▁Canal
▁Chess
▁Court
▁Drunk
▁Elvis
▁Fifty
▁Fruit
▁Glass
▁Humor
▁Kathy
▁Kenya
▁Lower
▁Luxem
▁Maced
▁Moder
▁Nazis
▁Nikko
▁Nixon
▁Perry
▁Plans
▁Putin
▁Rhine
▁Shame
▁Shoot
▁Simon
▁Skype
▁Takes
▁Trees
▁abhor
▁abund
▁acres
▁aging
▁ample
▁bathe
▁bends
▁binge
▁bliss
▁bowls
▁bulbs
▁caval
▁chart
▁chimp
▁chops
▁clung
▁craft
▁discl
▁disse
▁dusty
▁embro
▁energ
▁faxed
▁franc
▁gases
▁geese
▁glory
▁gruel
▁hairy
▁homer
▁idiom
▁infat
▁input
▁insur
▁leaky
▁loads
▁manga
▁nosey
▁omnip
▁paras
▁picks
▁pilaf
▁pinch
▁pluck
▁plums
▁pools
▁probe
▁pseud
▁repro
▁revel
▁rogue
▁scram
▁scree
▁scrib
▁seeks
▁shiny
▁slump
▁smelt
▁smoky
▁souls
▁squat
▁swine
▁tango
▁tenor
▁torch
▁tours
▁tramp
▁troll
▁tweet
▁typed
▁uninv
▁units
▁veins
▁vices
▁villa
▁vocal
▁wasps
▁waxed
▁wrung
allible
entials
isexual
issippi
omegran
plicity
renheit
▁Caucas
▁Charge
▁Gather
▁Indust
▁Kimura
▁Lamech
▁Marcus
▁Mumbai
▁Pisces
▁Prague
▁Pretty
▁Sadako
▁Spirit
▁Statue
▁Terror
▁Thames
▁Tigers
▁Trying
▁abbrev
▁analog
▁attain
▁autism
▁baller
▁bikini
▁bummed
▁bungee
▁camped
▁column
▁convey
▁corrup
▁cracks
▁cramps
▁deputy
▁devils
▁diaper
▁duffel
▁dyeing
▁engage
▁esteem
▁exempt
▁expend
▁expire
▁faking
▁flatly
▁flowed
▁foster
▁gadget
▁gasped
▁ginger
▁herbal
▁hiccup
▁hypnot
▁juggle
▁kebabs
▁knocks
▁liable
▁lilies
▁litter
▁loaned
▁longed
▁meddle
▁midday
▁millen
▁morals
▁mugger
▁newcom
▁notion
▁payday
▁pediat
▁polyph
▁pooped
▁raging
▁refill
▁regain
▁repent
▁salted
▁scraps
▁sector
▁shrimp
▁soared
▁spared
▁sponge
▁tariff
▁teapot
▁tidied
▁tomboy
▁tribes
▁undoub
▁videot
▁voters
▁wander
▁weirdo
▁wholly
▁wilder
▁worlds
▁yanked
aughters
firsichb
inalized
mannered
rollably
tingency
▁Albania
▁Bosnian
▁Breathe
▁Capital
▁Country
▁Earthqu
▁Farmers
▁Feeling
▁Hearing
▁Kissing
▁Lithuan
▁Mosquit
▁Nuclear
▁Orleans
▁Reality
▁Respect
▁Revenge
▁Schools
▁Serbian
▁Sitting
▁Slavery
▁Staying
▁Turning
▁accepts
▁airline
▁altered
▁anthrop
▁applaud
▁arrests
▁authent
▁authors
▁ballots
▁blinked
▁bombing
▁boycott
▁clothed
▁coaches
▁coffees
▁condoms
▁decides
▁detests
▁devious
▁devised
▁enlarge
▁excruci
▁failing
▁fiancee
▁flavour
▁foresee
▁freshly
▁grazing
▁hastily
▁hatchet
▁intrude
▁kindest
▁lifting
▁longing
▁lovable
▁lullaby
▁marbles
▁marches
▁misbeha
▁nodding
▁orphans
▁outdoor
▁overest
▁overste
▁periods
▁permits
▁persist
▁pleases
▁publish
▁puppies
▁pursuit
▁raisins
▁realise
▁recital
▁repeats
▁risking
▁rooftop
▁rooting
▁scooter
▁singled
▁slowing
▁succumb
▁sucking
▁sunsets
▁tedious
▁tetanus
▁tremble
▁trimmed
▁viruses
▁weakest
▁webpage
▁whereas
efficient
ufficient
▁Atlantis
▁Austrian
▁Bullying
▁Caroline
▁Estonian
▁Hawaiian
▁Mohammed
▁Possibly
▁Shepherd
▁Sherlock
▁Shizuoka
▁Socrates
▁Spending
▁Starting
▁Thinking
▁Virginia
▁accuracy
▁activist
▁appalled
▁appendix
▁backseat
▁balloons
▁blinking
▁bookshop
▁burglary
▁buttoned
▁charging
▁coaching
▁commutes
▁conclude
▁cornered
▁damaging
▁daylight
▁develops
▁disposed
▁emphasis
▁endeavor
▁eruption
▁expanded
▁facility
▁feminist
▁figuring
▁flawless
▁flipping
▁forgives
▁freckles
▁goldfish
▁governed
▁graffiti
▁hitchhik
▁infested
▁inventor
▁involves
▁loosened
▁moisture
▁molecule
▁multiply
▁mumbling
▁numbered
▁optimism
▁orchestr
▁ordering
▁outsider
▁overhear
▁pacifist
▁particle
▁partying
▁pleasing
▁polyglot
▁ponytail
▁prepares
▁promptly
▁pronouns
▁protests
▁pursuing
▁refilled
▁reincarn
▁reindeer
▁resisted
▁reviewed
▁scenario
▁sentient
▁sluggish
▁smallpox
▁snuggled
▁strained
▁symphony
▁tattooed
▁toughest
▁trespass
▁uncorked
▁underway
▁unzipped
▁updating
▁wildlife
▁Andromeda
▁Argentine
▁Cantonese
▁Democrats
▁Manhattan
▁Valentina
▁advisable
▁amazement
▁arresting
▁bachelors
▁billiards
▁biography
▁bodybuild
▁collector
▁delegates
▁deodorant
▁depending
▁descended
▁detergent
▁earthworm
▁finalized
▁fishermen
▁footprint
▁gangsters
▁geologist
▁harvested
▁headlines
▁hibernate
▁illogical
▁indicates
▁insistent
▁jewellery
▁magnitude
▁misprints
▁murdering
▁observing
▁overjoyed
▁particles
▁passwords
▁patriotic
▁performer
▁potassium
▁primarily
▁railroads
▁reassured
▁reduction
▁renewable
▁renovated
▁retreated
▁rewarding
▁selection
▁sociology
▁surrounds
▁tightened
▁treasures
▁treehouse
▁typically
▁unethical
▁volcanoes
▁voluntary
▁wandering
threatening
▁Absolutely
▁Azerbaijan
▁Experience
▁Fahrenheit
▁Kazakhstan
▁Lieutenant
▁Philosophy
▁Production
▁Technology
▁admiration
▁allegation
▁bestseller
▁concussion
▁courthouse
▁disposable
▁eyewitness
▁improbable
▁inadequate
▁infallible
▁inherently
▁likelihood
▁lumberjack
▁mistreated
▁occupation
▁pedestrian
▁phenomenal
▁preventing
▁privileges
▁pronounces
▁prosecutor
▁prosperous
▁prostitute
▁reasonably
▁sacrifices
▁starvation
▁swallowing
▁technician
▁undefeated
▁Esperantist
▁Mississippi
▁Renaissance
▁astronomers
▁automobiles
▁calculating
▁calculation
▁caterpillar
▁cheerleader
▁contingency
▁convertible
▁defenseless
▁destructive
▁downloading
▁drastically
▁efficiently
▁foolishness
▁manipulated
▁possessions
▁prestigious
▁punctuality
▁punctuation
▁replacement
▁sightseeing
▁sorrowfully
▁traumatized
▁ultraviolet
▁undoubtedly
▁watermelons
▁windsurfing
▁Esperantists
▁Islamophobia
▁Palestinians
▁anticipating
▁cheeseburger
▁competitions
▁confirmation
▁entrepreneur
▁excruciating
▁impersonated
▁inconvenient
▁manufacturer
▁manufactures
▁nevertheless
▁osteoporosis
▁receptionist
▁tremendously
▁tuberculosis
▁contradiction
▁handkerchiefs
▁investigators
▁professionals
▁schoolteacher
▁characteristic
▁investigations
▁uncontrollably
▁disappointments
0-
12
Ah
Al
At
Be
ED
Go
Ob
SP
ei
fi
qi
uz
!",
Act
One
SSR
Sha
VID
Was
abi
abs
aco
ady
aks
alo
amo
bby
die
eav
ebr
etr
fif
fol
got
hro
igo
igu
imm
iva
loo
lyn
opp
pop
pus
tar
vet
vre
yen
▁--
▁3-
▁Ok
▁Op
▁Sa
▁iv
ablo
aler
ambo
anas
angs
ante
anze
arte
atha
bery
bone
boys
chua
coon
cour
crap
drop
eers
enos
enza
epsi
ergy
erto
etts
ffin
food
ggae
gien
girl
goat
gone
hane
holm
home
inis
ivan
lamm
lyde
neys
nium
ommy
otch
rast
rend
roso
sApp
sons
tell
ushi
yaki
ysko
▁000
▁12.
▁13-
▁30.
▁Cos
▁Edo
▁Ent
▁Env
▁Fur
▁Hig
▁Ich
▁Jos
▁Jun
▁Kaw
▁Kle
▁Kon
▁Kor
▁Neg
▁Nig
▁Ori
▁PBS
▁PIN
▁Pho
▁Pir
▁Pua
▁Rod
▁Taj
▁Tay
▁Tem
▁VCR
▁Yet
▁Yog
▁agn
▁blo
▁cob
▁dip
▁dun
▁han
▁hub
▁jer
▁kip
▁kos
▁lav
▁pel
▁pon
▁rib
▁sug
▁tat
▁unm
▁xen
accur
achel
achus
adder
affes
aguay
anter
arder
aurus
avers
ayers
bourg
erell
erves
etary
grade
grain
iceps
ikoku
itize
iuses
izers
jamin
oland
ommun
omnia
ontal
oosen
ordic
ority
ounty
owned
reast
reens
ridor
rumqi
skate
story
third
utors
utter
uyama
watch
▁Alan
▁Balt
▁Bapt
▁Bowl
▁Came
▁Cond
▁Copy
▁Duty
▁Fall
▁Fuku
▁Inqu
▁Kumi
▁Laws
▁Lost
▁Mari
▁Mult
▁Niue
▁Nort
▁Orig
▁Oslo
▁Pack
▁Pets
▁Poll
▁Prom
▁Rats
▁Rita
▁Sans
▁Team
▁Vamp
▁Vlad
▁Wipe
▁abys
▁adul
▁afar
▁ally
▁barg
▁bean
▁bind
▁braw
▁brim
▁cerv
▁clay
▁core
▁coup
▁cram
▁doct
▁dude
▁dyes
▁fade
▁foam
▁font
▁glum
▁hail
▁hare
▁hawk
▁horm
▁info
▁lane
▁limb
▁logs
▁maze
▁narr
▁pans
▁pard
▁pawn
▁peed
▁phon
▁ping
▁pros
▁prun
▁quiz
▁radi
▁scal
▁scor
▁slit
▁smir
▁sout
▁swum
▁trim
▁unic
▁urch
▁vile
▁vint
Should
anzees
arkets
arrots
ashore
ateral
eering
erella
herent
iantly
imited
isting
izable
ladesh
marked
minton
nected
pathic
rosoft
uddles
uechua
umably
uminum
winner
worker
▁2010.
▁Aires
▁Akiko
▁Alpha
▁Arabs
▁Banks
▁Bears
▁Broad
▁COVID
▁Camer
▁Class
▁Climb
▁Clyde
▁Conqu
▁Creat
▁Delhi
▁Ellen
▁Found
▁Ghost
▁Given
▁Grace
▁Greed
▁Hindu
▁Julie
▁Liter
▁Logic
▁Malta
▁Mommy
▁Mummy
▁Pablo
▁Pepsi
▁Place
▁Pochi
▁Pruss
▁Romeo
▁Scorp
▁Smart
▁Steel
▁Sunni
▁Tango
▁Tolst
▁Touch
▁Trade
▁Trans
▁Wales
▁ached
▁acrob
▁armor
▁baggy
▁bigot
▁blues
▁brink
▁cargo
▁claws
▁cubes
▁dares
▁debit
▁desks
▁disin
▁diver
▁dodge
▁draws
▁dwarf
▁forum
▁funer
▁hatch
▁hoard
▁imply
▁kicks
▁kites
▁lease
▁lever
▁links
▁nappy
▁nests
▁notep
▁owing
▁paths
▁phase
▁prays
▁prick
▁prude
▁pussy
▁quits
▁recip
▁resur
▁rinse
▁sabot
▁sanct
▁scape
▁scars
▁scorn
▁siege
▁slide
▁spice
▁spree
▁stern
▁stomp
▁swung
▁tasks
▁tutor
▁ulcer
▁vomit
▁waltz
▁weary
▁width
▁worsh
alented
ambling
ancholy
anguage
atement
atively
control
crapers
cusable
dration
eavored
estival
gencies
idelity
ificant
itional
ocolate
ophobic
otected
ppiness
rolling
sterdam
tically
uctible
ultures
unteers
usioned
▁Aomori
▁Applic
▁Attend
▁Buenos
▁Buying
▁Center
▁Circum
▁Common
▁Corpor
▁Expect
▁Family
▁Fasten
▁Garden
▁Gentle
▁Giving
▁Goethe
▁Graham
▁Henoch
▁Invite
▁Latvia
▁Lesson
▁Loosen
▁Louvre
▁Merkel
▁Ninety
▁Nordic
▁Oliver
▁Online
▁Others
▁Praise
▁Rachel
▁Reagan
▁Recent
▁Remove
▁Repeat
▁Scotch
▁Secret
▁Strong
▁Stupid
▁Tahiti
▁Whales
▁acoust
▁aggrav
▁awaits
▁bailed
▁barred
▁beaver
▁bloods
▁bounds
▁cement
▁clears
▁coffin
▁conjug
▁creams
▁curses
▁curves
▁defuse
▁demons
▁disill
▁divine
▁doable
▁domain
▁drapes
▁dyslex
▁evenly
▁exclam
▁farted
▁fasted
▁filmed
▁format
▁gravit
▁grease
▁guinea
▁hailed
▁hitman
▁hosted
▁ideals
▁kosher
▁lacked
▁leaked
▁limous
▁loosen
▁majors
▁masses
▁mauled
▁medals
▁miscon
▁mouths
▁nailed
▁nostal
▁parach
▁pillar
▁pollen
▁priced
▁prints
▁provin
▁provoc
▁quoted
▁recapt
▁rechar
▁reggae
▁resusc
▁retail
▁rigged
▁rubble
▁selfie
▁shabby
▁shined
▁shitty
▁shouts
▁sophom
▁spiral
▁steaks
▁suntan
▁tablet
▁truths
▁unexpl
▁unpaid
▁vagina
▁vandal
▁viewed
▁wastes
▁wiping
▁wrists
Actually
accurate
aggering
atisfact
cedented
children
distance
esthetic
hensible
ickering
olutions
rastruct
secution
tempered
▁Bananas
▁Catalan
▁Climate
▁Courage
▁Drivers
▁Failure
▁Grammar
▁Hawking
▁Madison
▁Mustang
▁Ontario
▁Organic
▁Plastic
▁Senator
▁Shikoku
▁Supreme
▁Tunisia
▁Written
▁Yiddish
▁advises
▁alleged
▁analyst
▁annihil
▁astroph
▁battles
▁berries
▁bounced
▁buzzing
▁canteen
▁carpool
▁cheetah
▁choking
▁clearer
▁comprom
▁copying
▁creaked
▁cringed
▁crooked
▁daytime
▁decency
▁defends
▁departs
▁designs
▁educate
▁embrace
▁endowed
▁escapes
▁females
▁gallons
▁gasping
▁greener
▁growled
▁ignores
▁indulge
▁inmates
▁invites
▁judging
▁lacking
▁lawsuit
▁lenient
▁liquids
▁mailing
▁malaria
▁marched
▁mercury
▁minding
▁monothe
▁mopping
▁nucleus
▁pasture
▁pillows
▁poorest
▁praises
▁reaches
▁recited
▁recluse
▁reforms
▁refusal
▁replica
▁revenue
▁rotates
▁sarcasm
▁sensors
▁shifted
▁skimmed
▁slaught
▁smitten
▁soprano
▁spooked
▁spreads
▁stapler
▁symptom
▁tablets
▁tactics
▁tariffs
▁tempura
▁textile
▁tickled
▁tissues
▁winters
▁workout
achusetts
condition
ependence
nutrition
▁Benjamin
▁Complete
▁Croatian
▁Fighting
▁Gasoline
▁Georgian
▁Hamilton
▁Interest
▁Mistakes
▁Moderate
▁Sasayama
▁Sentence
▁Tourists
▁WhatsApp
▁abnormal
▁adjacent
▁agnostic
▁amateurs
▁annually
▁anorexic
▁bagpipes
▁bathrobe
▁believer
▁bisexual
▁blushing
▁bragging
▁burglars
▁bursting
▁campsite
▁capsized
▁cartoons
▁chainsaw
▁clapping
▁combined
▁comedies
▁commerce
▁compound
▁concerto
▁consumer
▁contrast
▁corridor
▁courtesy
▁cultured
▁cyclists
▁debating
▁deforest
▁destroys
▁disposal
▁doctored
▁dynamite
▁ecstatic
▁eggplant
▁evolving
▁extremes
▁fastened
▁foremost
▁geniuses
▁gestured
▁heritage
▁homeroom
▁horrific
▁humorous
▁hurrying
▁imperial
▁indirect
▁inserted
▁learners
▁lectures
▁lifeless
▁lifelong
▁magnetic
▁migrants
▁misinter
▁moderate
▁modified
▁morality
▁mustered
▁obstacle
▁outbreak
▁outdated
▁painless
▁painters
▁pardoned
▁patterns
▁payments
▁perished
▁plumbing
▁pocketed
▁pomegran
▁protagon
▁purposes
▁rainfall
▁rearview
▁receiver
▁reptiles
▁retarded
▁reunited
▁sausages
▁scolding
▁scrubbed
▁seashore
▁shearing
▁shutting
▁simplest
▁succeeds
▁suspense
▁termites
▁tortoise
▁traitors
▁unpacked
▁vigorous
▁virtuoso
▁withered
▁worships
▁wrinkles
aspberries
identified
▁Amsterdam
▁Armstrong
▁Astronomy
▁Attention
▁Chocolate
▁Curiosity
▁Desperate
▁Gentlemen
▁Microsoft
▁Naturally
▁Objection
▁Sentences
▁Stockholm
▁Therefore
▁addresses
▁adjective
▁admitting
▁alternate
▁amazingly
▁appalling
▁badminton
▁commented
▁copyright
▁crosswalk
▁cucumbers
▁defective
▁designers
▁designing
▁earphones
▁emissions
▁estimates
▁fascinate
▁fashioned
▁furiously
▁graveyard
▁handstand
▁imitation
▁imperfect
▁improvise
▁incapable
▁incidents
▁intending
▁intuition
▁investors
▁masculine
▁merciless
▁miniature
▁miserably
▁murderers
▁mythology
▁newsstand
▁oversleep
▁ownership
▁personnel
▁petrified
▁possesses
▁preschool
▁proactive
▁programme
▁recruited
▁reputable
▁restrooms
▁rewritten
▁saturated
▁scapegoat
▁scrambled
▁senseless
▁shameless
▁shellfish
▁skydiving
▁slaughter
▁socialize
▁sociopath
▁superiors
▁tormented
▁triggered
▁uninvited
▁unpacking
▁unpopular
▁vengeance
▁violating
▁virtually
▁withstand
▁Bangladesh
▁Brazilians
▁Cinderella
▁Depression
▁Industrial
▁Luxembourg
▁Prevention
▁Regardless
▁Simplicity
▁Throughout
▁Volunteers
▁accomplice
▁antisocial
▁apprentice
▁assessment
▁assistants
▁bodyguards
▁brightened
▁chattering
▁cheerfully
▁childbirth
▁commanding
▁concealing
▁contracted
▁convention
▁correction
▁deliberate
▁delightful
▁discipline
▁discontent
▁endeavored
▁facilities
▁goalkeeper
▁greenhouse
▁harassment
▁horizontal
▁horrifying
▁inaccurate
▁infectious
▁infuriates
▁lieutenant
▁linguistic
▁magnifying
▁meditating
▁meditation
▁memorizing
▁mesmerized
▁moderation
▁negligence
▁occasional
▁originated
▁overflowed
▁prevention
▁publishing
▁punishable
▁rebellious
▁recognizes
▁relaxation
▁remorseful
▁retrospect
▁settlement
▁straighten
▁sympathize
▁telepathic
▁thirteenth
▁trampoline
▁undressing
▁Grandfather
▁Inquisition
▁Republicans
▁accelerated
▁assignments
▁assumptions
▁breadwinner
▁capitalized
▁celebrities
▁compliments
▁corporation
▁dehydration
▁emergencies
▁essentially
▁exclamation
▁expressions
▁fingerprint
▁genetically
▁inexcusable
▁infrastruct
▁intolerable
▁invitations
▁limitations
▁momentarily
▁overstepped
▁pocketknife
▁politically
▁recognition
▁researchers
▁selfishness
▁sensational
▁speculation
▁unanimously
▁uncertainty
▁unprotected
▁Nevertheless
▁Registration
▁Reservations
▁considerably
▁deteriorated
▁discriminate
▁economically
▁encyclopedia
▁improvements
▁indefinitely
▁insufficient
▁intimidating
▁marshmallows
▁photographic
▁reconsidered
▁significance
▁snowboarding
▁straightened
▁supermarkets
▁Investigators
▁Massachusetts
▁conversations
▁disillusioned
▁overemotional
▁technological
▁temperamental
▁unimaginative
▁unintelligent
▁interpretation
▁congratulations
▁straightforward
'?
-3
Ab
By
II
IV
OK
RS
SB
TA
fo
oa
rk
200
Our
aba
afa
aky
aya
bee
ean
eel
fly
fox
gon
gor
hin
hou
hun
isi
isl
lac
lit
meg
new
ogi
ohy
oki
ols
pub
rag
rdu
ril
rin
sea
sen
sky
ugo
urg
vag
vid
whe
yon
▁32
▁Ba
▁GP
▁Jr
▁PC
▁Ts
▁eh
▁ok
Come
acao
afia
agna
ahoo
aido
alib
aphe
atee
atto
avel
baby
bbed
bear
bris
cker
cold
egal
emen
enix
erer
fare
ffle
firm
help
iary
icks
inko
iple
isms
issy
kers
lava
lika
live
mong
nics
nold
numb
odia
ongo
open
oric
oshi
owls
pers
phil
pire
pool
pres
pron
rigg
roke
skin
tale
then
turn
urai
usya
utan
vinc
warm
wart
weds
zene
▁123
▁22.
▁Adv
▁Ain
▁Ald
▁Ari
▁Ark
▁Aud
▁Bol
▁Bor
▁CPR
▁Cro
▁Dor
▁Dry
▁Ell
▁Eva
▁Fal
▁Fem
▁Gin
▁Him
▁Hop
▁Kos
▁Lid
▁Miy
▁Ned
▁Occ
▁SMS
▁Sab
▁Sag
▁Sem
▁Sol
▁Tib
▁Var
▁Vik
▁Wol
▁alk
▁ave
▁awa
▁axe
▁blu
▁bog
▁cin
▁clo
▁cod
▁daw
▁din
▁dum
▁hed
▁ine
▁ion
▁jug
▁ken
▁mim
▁mol
▁mun
▁nas
▁phe
▁rou
▁unr
▁vel
▁wan
▁xyl
About
Islam
abber
adian
ahara
anker
antan
arcer
arity
asium
asper
atics
azawa
being
berto
birds
boats
books
cedes
cence
chids
chita
ebras
ettes
front
hesis
hrase
icker
ighur
illot
inium
iscal
isies
itate
lined
llers
llous
ocate
odiac
outed
ovies
ratch
rible
robor
shore
sized
stone
tails
tenna
umper
urbed
urned
uther
uthor
utnik
▁2011
▁Also
▁Ants
▁Arri
▁Aviv
▁Bali
▁Biwa
▁Bout
▁Burr
▁Cand
▁Club
▁Conc
▁Dust
▁Easy
▁Eric
▁Ethi
▁Fact
▁Fair
▁Fars
▁Feed
▁Flat
▁Form
▁Gand
▁Gaza
▁Golf
▁Grav
▁Guin
▁Hamb
▁Hood
▁Kick
▁Mach
▁Main
▁Marc
▁Ming
▁Nazi
▁Nich
▁Owls
▁Prov
▁Rail
▁Rush
▁Seth
▁Tamp
▁Vers
▁Week
▁aims
▁ajar
▁audi
▁avoc
▁barb
▁bash
▁beck
▁bour
▁cact
▁cobb
▁cogn
▁cone
▁crue
▁depl
▁dots
▁duet
▁edit
▁eels
▁feud
▁fury
▁gaze
▁ghet
▁glac
▁gras
▁halt
▁hath
▁hips
▁hose
▁iced
▁lava
▁limo
▁lira
▁mode
▁neur
▁omit
▁pave
▁pren
▁relo
▁scum
▁seiz
▁shoo
▁sled
▁slog
▁spat
▁subm
▁twir
▁vehe
▁vind
▁void
▁wary
Kinley
apheth
asagna
athlon
aution
barrow
boiled
closed
collar
ership
figure
ilient
ilized
ingale
insula
irical
itored
ivitis
ivorce
jacket
loving
making
master
mently
nesota
obbish
ologne
ometry
onents
opened
orship
oscope
ouston
paying
powers
rossed
runner
semble
teries
utable
witted
wright
▁11:00
▁2001.
▁2011.
▁Allan
▁Apply
▁Appro
▁Billy
▁Brahe
▁Buses
▁Chill
▁Costa
▁Crist
▁Euros
▁Ewing
▁Flash
▁Foxes
▁Heavy
▁Janet
▁Jeans
▁Kerry
▁Laika
▁Lucky
▁Magic
▁Mayan
▁Mayor
▁Mecca
▁Molly
▁Monte
▁Moses
▁Motor
▁Older
▁Oscar
▁Owing
▁Paint
▁Patty
▁Plant
▁Rules
▁Scots
▁Scout
▁Seiko
▁Seine
▁Share
▁Shoes
▁Showa
▁Sochi
▁Sound
▁Sysko
▁Twain
▁Tycho
▁Worry
▁Yemen
▁adren
▁apolo
▁arise
▁bases
▁bever
▁bleak
▁bolts
▁bonds
▁booze
▁chore
▁clash
▁cocoa
▁creek
▁cubed
▁deeds
▁deton
▁evade
▁exile
▁exits
▁fixes
▁flask
▁fleas
▁fleet
▁fluff
▁fluid
▁fuels
▁gates
▁genie
▁genre
▁grapp
▁hover
▁juicy
▁kneel
▁lamps
▁lifes
▁lilac
▁livid
▁loans
▁lured
▁madam
▁melod
▁mines
▁minim
▁moust
▁mower
▁oddly
▁opium
▁palms
▁panel
▁paved
▁penit
▁piggy
▁prede
▁redne
▁robin
▁roles
▁schoo
▁scout
▁shack
▁sheer
▁shuts
▁sinus
▁sling
▁stale
▁stark
▁steer
▁thigh
▁towed
▁tyres
▁valve
aternal
bedroom
brainer
esterns
feeding
idental
igently
ilation
ilosoph
intendo
lestick
manship
ocating
ologize
onnaise
outhing
ricanes
rigible
station
stition
through
trained
ulously
unching
vincing
▁Arnold
▁Athena
▁Bosnia
▁Cancel
▁Coming
▁Corpus
▁Frankf
▁Greene
▁Hakata
▁Hardly
▁Hindus
▁Ichiro
▁Inform
▁Jersey
▁Julian
▁Kumiko
▁Losing
▁Mariah
▁Mariko
▁Orange
▁Parker
▁Philip
▁Puerto
▁Robots
▁Ronald
▁Sagitt
▁Sahara
▁Sicily
▁Slowly
▁Snakes
▁Speech
▁Spread
▁Takuya
▁Taylor
▁Tennis
▁Truman
▁Warsaw
▁Wealth
▁abacus
▁abhors
▁adored
▁adverb
▁agents
▁albums
▁ambigu
▁ashore
▁assets
▁attrib
▁avenue
▁basics
▁bazaar
▁bounty
▁brewed
▁bricks
▁bureau
▁burped
▁busted
▁camper
▁canned
▁cannon
▁catchy
▁censor
▁chases
▁circul
▁coated
▁combat
▁commem
▁coping
▁curled
▁declar
▁decomp
▁delays
▁demean
▁depths
▁derive
▁embark
▁enchan
▁enrich
▁eraser
▁exotic
▁extrad
▁fiscal
▁fished
▁fishes
▁flirts
▁freaks
▁frosty
▁fundra
▁futile
▁gagged
▁goatee
▁groped
▁hazard
▁hissed
▁hoarse
▁hygien
▁images
▁impart
▁insign
▁legacy
▁margin
▁mighty
▁miscal
▁mixing
▁moaned
▁mocked
▁nearer
▁nieces
▁outlet
▁output
▁overdo
▁photoc
▁pigsty
▁potion
▁pricey
▁psycho
▁radios
▁ranger
▁rattle
▁reconc
▁reflex
▁regime
▁roared
▁scenic
▁simmer
▁skates
▁speedy
▁spooky
▁streak
▁sucked
▁sucker
▁surfer
▁swords
▁throws
▁thwart
▁trendy
▁unclog
▁unload
▁unrest
▁unsaid
▁vanity
▁vetoed
▁vowels
▁wading
▁whites
▁woolen
aneously
ceptions
ficiency
heastern
language
numbered
orically
structed
▁Android
▁Baptist
▁Captain
▁Changes
▁Concent
▁Cooking
▁Dancing
▁Divorce
▁Fifteen
▁Frances
▁Hillary
▁Houston
▁Japheth
▁Kurdish
▁Latvian
▁Leaving
▁Madonna
▁Measure
▁Medical
▁Misfort
▁Mormons
▁Mothers
▁Mustafa
▁Obesity
▁Outside
▁Scratch
▁Smiling
▁Sputnik
▁Swallow
▁Takeshi
▁Tobacco
▁adjoins
▁adviser
▁algebra
▁allergy
▁antenna
▁anyways
▁avenged
▁bearing
▁blacked
▁boasted
▁booming
▁bouncer
▁bribery
▁buffalo
▁busting
▁carbohy
▁careers
▁casting
▁cavalry
▁chained
▁cholera
▁chronic
▁clinked
▁closure
▁coastal
▁colored
▁combine
▁combing
▁combust
▁commute
▁compose
▁compost
▁confide
▁craving
▁crazier
▁cruelty
▁daisies
▁density
▁derived
▁ditched
▁donkeys
▁doorman
▁drained
▁emailed
▁empathy
▁erratic
▁exasper
▁exhaled
▁extends
▁falsely
▁fascist
▁fleeing
▁floated
▁fluency
▁freeway
▁fullest
▁gambled
▁garment
▁glances
▁gliding
▁gorilla
▁guarded
▁guillot
▁hogwash
▁holster
▁hydrant
▁implied
▁impract
▁infants
▁jackpot
▁lasting
▁launder
▁laziest
▁luckier
▁lurking
▁marries
▁meowing
▁merrily
▁migrate
▁militia
▁minivan
▁mirrors
▁mocking
▁mourned
▁mussels
▁nephews
▁notepad
▁offence
▁offline
▁opposes
▁overeat
▁pending
▁pennies
▁picnics
▁pledged
▁plucked
▁posters
▁presume
▁pricked
▁proudly
▁pushups
▁racists
▁rebuilt
▁repaint
▁revoked
▁rioters
▁samurai
▁sandals
▁scatter
▁screens
▁secular
▁sedated
▁senator
▁shrines
▁shudder
▁signals
▁slumped
▁sneezes
▁stamina
▁striped
▁stripes
▁sweeter
▁synonym
▁tactful
▁tantrum
▁tapping
▁ticking
▁villain
▁vintage
▁vividly
▁warfare
▁weights
▁widened
▁wishing
▁wrecked
▁wrongly
motherapy
prisingly
▁Airlines
▁Americas
▁Arriving
▁Cleaning
▁Colorado
▁Columbia
▁Conchita
▁Cultural
▁Dinosaur
▁Festival
▁Guinness
▁Irishman
▁McKinley
▁Mercedes
▁Nintendo
▁Paraguay
▁Personal
▁Practice
▁Siberian
▁Spaniard
▁Together
▁Vampires
▁airports
▁animated
▁ballpark
▁banished
▁baptized
▁barbaric
▁beckoned
▁befriend
▁beheaded
▁breathes
▁casually
▁churches
▁compiled
▁cookbook
▁corrobor
▁coworker
▁craziest
▁cupcakes
▁darkened
▁daunting
▁demented
▁detected
▁detector
▁disloyal
▁disputes
▁donating
▁doughnut
▁drilling
▁electroc
▁examiner
▁existing
▁explicit
▁explorer
▁extravag
▁famished
▁fatigued
▁feverish
▁findings
▁flashing
▁freedoms
▁friction
▁funerals
▁generate
▁genocide
▁giraffes
▁hammered
▁handyman
▁harassed
▁heartily
▁horribly
▁idleness
▁imminent
▁imposing
▁incompre
▁insolent
▁insomnia
▁instance
▁jumpsuit
▁landline
▁lecturer
▁leftover
▁likeable
▁luckiest
▁managers
▁massacre
▁operates
▁overcast
▁periodic
▁piercing
▁pioneers
▁plotting
▁portable
▁potholes
▁presumed
▁pullover
▁puzzling
▁receding
▁roadside
▁salaries
▁savagely
▁scorpion
▁seagulls
▁sequence
▁shipping
▁shuffled
▁shutters
▁sinister
▁sketches
▁snobbish
▁spoonful
▁stripped
▁strolled
▁stuntman
▁swelling
▁swindled
▁venomous
▁verbally
▁wasteful
▁weighing
▁weirdest
▁wrapping
▁Aardvarks
▁Cathedral
▁Caucasian
▁Chemistry
▁Communism
▁Communist
▁Egyptians
▁Finishing
▁Minnesota
▁Nicaragua
▁Secretary
▁Socialist
▁Teenagers
▁Venezuela
▁abundance
▁activated
▁afterward
▁aimlessly
▁appliance
▁authentic
▁awareness
▁ballerina
▁beverages
▁blessings
▁bloodshed
▁chickened
▁cowardice
▁curiously
▁deadliest
▁deceptive
▁denounced
▁describes
▁developer
▁diagnosis
▁diligence
▁directors
▁dissolved
▁drinkable
▁emphasize
▁endurance
▁entrusted
▁execution
▁explorers
▁extracted
▁farmhouse
▁firmament
▁fractured
▁frostbite
▁functions
▁heartburn
▁humankind
▁inhabited
▁integrity
▁interface
▁intervals
▁isolation
▁librarian
▁limitless
▁limousine
▁luxurious
▁molecules
▁newlyweds
▁panicking
▁parachute
▁passports
▁pediatric
▁pepperoni
▁philosoph
▁practised
▁prevalent
▁primitive
▁prolonged
▁prospects
▁punctured
▁quotation
▁rehearsal
▁repainted
▁sanctions
▁seasoning
▁secondary
▁sixteenth
▁sleepless
▁snowflake
▁sophomore
▁spiritual
▁staircase
▁stationed
▁streetcar
▁subjected
▁subtitled
▁surfboard
▁throbbing
▁traveller
▁uncovered
▁undergrad
▁unfounded
▁unleashed
▁unrelated
▁videotape
▁welcoming
▁xylophone
grandmother
▁Hemisphere
▁Impossible
▁Literature
▁Mosquitoes
▁Repetition
▁adjustment
▁aggravated
▁aristocrat
▁barricaded
▁carbonated
▁cartoonist
▁centigrade
▁ceremonies
▁colorblind
▁committing
▁continents
▁conversion
▁dislocated
▁distribute
▁economists
▁explosions
▁extinguish
▁grapefruit
▁headstrong
▁hospitable
▁housewives
▁hypnotized
▁inspection
▁loneliness
▁mayonnaise
▁minorities
▁navigation
▁noticeable
▁omnipotent
▁perceptive
▁persecuted
▁pilgrimage
▁polyphonic
▁postponing
▁quantities
▁recaptured
▁relativity
▁renovating
▁restarting
▁restricted
▁revelation
▁rhetorical
▁staggering
▁stereotype
▁stretching
▁sweatshirt
▁synonymous
▁transition
▁undercover
▁vehemently
▁wilderness
▁worshipped
nderstanding
▁Argentinian
▁Competition
▁Earthquakes
▁Environment
▁Imagination
▁Politicians
▁Regulations
▁Sagittarius
▁apprehended
▁blueberries
▁candlestick
▁chimpanzees
▁circumcised
▁communities
▁compromised
▁corrections
▁desperation
▁disapproved
▁disgraceful
▁distinctive
▁effectively
▁egotistical
▁extroverted
▁functioning
▁helicopters
▁housekeeper
▁intolerance
▁misinformed
▁observatory
▁overflowing
▁overpowered
▁probability
▁protagonist
▁raspberries
▁superpowers
▁supervision
▁surrounding
▁transformed
▁transfusion
▁trespassing
▁unhappiness
▁wheelbarrow
▁Independence
▁Organization
▁abbreviation
▁agricultural
▁applications
▁breakthrough
▁celebrations
▁chemotherapy
▁consequently
▁contemptible
▁discouraging
▁distribution
▁heartwarming
▁implications
▁inconsistent
▁incorrigible
▁indifference
▁malnutrition
▁marginalized
▁orchestrated
▁philosophers
▁subscription
▁gravitational
▁hallucinating
▁insignificant
▁instinctively
▁modifications
▁participating
▁perfectionist
▁unprecedented
▁granddaughters
▁infrastructure
▁qualifications
▁understatement
▁procrastinating
▁recommendations
0?
:1
CA
EA
GB
Ne
RI
eu
mn
uj
vo
wl
▁!
12.
23.
?!"
Aid
Any
Sax
War
aru
bau
bey
bid
din
eez
ela
haw
iba
iji
iod
itu
iza
lah
lar
mat
mid
mom
mor
net
oct
ogy
otr
ovo
pei
pht
pic
rac
rah
rec
rif
rus
tha
udu
via
▁CV
▁IV
▁MI
▁Oz
▁Ve
▁WW
▁Ya
▁kg
▁ko
000.
Like
Were
abri
achn
ader
adiv
aida
alis
ando
aque
asha
ashi
aton
atum
atus
avor
ayas
bank
bomb
burn
byes
cers
chat
chel
chem
cond
core
cous
cuse
deep
erts
erus
esty
exam
felt
fies
halm
hate
held
hind
hips
icle
icts
iens
ilot
imee
imps
itic
ivia
kova
krit
lded
lide
llan
llor
ltry
mish
nsic
ocal
ocks
omez
ondo
oron
osom
osph
othy
play
plin
reci
rick
rina
rito
rock
rons
roof
sake
seek
seen
sett
ugos
uitc
ulas
ulla
ulus
umpt
uper
ymph
▁Aar
▁Ach
▁Aim
▁Alt
▁Aqu
▁Ash
▁Bav
▁Bid
▁Bog
▁Bot
▁Bow
▁Box
▁CPA
▁Dag
▁Dal
▁Dil
▁End
▁Eug
▁Fab
▁Fam
▁HIV
▁IRS
▁Imm
▁Inj
▁Kun
▁Lis
▁Mes
▁Nan
▁Opt
▁Pek
▁PhD
▁Pop
▁Sav
▁Sel
▁Tag
▁Tap
▁Tie
▁Toh
▁Tri
▁VIP
▁Wet
▁abl
▁ana
▁ard
▁avi
▁cad
▁coy
▁dab
▁dew
▁dod
▁enr
▁eup
▁fad
▁gib
▁gla
▁hik
▁hob
▁jit
▁lib
▁sci
▁sly
▁spa
▁ump
▁wag
▁wob
▁woe
1,000
Japan
agasc
akaha
asily
assed
aters
baugh
beans
block
bucks
cksaw
comes
ddler
elier
elled
eping
eries
esium
estan
folio
forks
geant
ghurt
glass
green
hance
holst
icill
icles
ieged
ifics
imbur
inder
ingle
ishly
itist
latan
liked
lovak
lyard
marks
mills
month
naire
namon
olics
onous
orice
othel
ounce
owner
rator
rawny
rgent
rials
riers
rooms
speed
still
thood
uable
users
utton
venty
▁2010
▁Acid
▁Asso
▁Athe
▁Baby
▁Bach
▁Bear
▁Bicy
▁Blow
▁Brig
▁Bron
▁Brus
▁Bugs
▁Cape
▁Cell
▁Chew
▁Coal
▁Coun
▁Crit
▁Days
▁Deaf
▁Deep
▁Eggs
▁Emma
▁Etna
▁Exam
▁Fran
▁Game
▁Gang
▁Gods
▁Gret
▁Grey
▁Guns
▁Head
▁Hear
▁Jama
▁Late
▁Luke
▁Luna
▁Lyon
▁Made
▁Mama
▁Mice
▁Mina
▁Mits
▁Name
▁Neil
▁Oops
▁Oper
▁Pink
▁Poly
▁Post
▁Rape
▁Rick
▁Road
▁Rout
▁Seat
▁Sell
▁Shop
▁Silk
▁Sony
▁Spot
▁Town
▁Visa
▁Warm
▁Yale
▁Yoga
▁ammo
▁amul
▁anat
▁arom
▁astr
▁beam
▁bits
▁boom
▁bout
▁buds
▁chec
▁chip
▁clog
▁crab
▁cray
▁crum
▁defy
▁ding
▁dood
▁dual
▁enig
▁eyed
▁eyep
▁fift
▁flor
▁fowl
▁fres
▁fret
▁gast
▁hagg
▁harb
▁heck
▁herb
▁hums
▁hust
▁jars
▁jets
▁ling
▁loot
▁lord
▁luke
▁moss
▁mute
▁nets
▁opht
▁opio
▁owls
▁pach
▁pals
▁perv
▁plag
▁poke
▁polo
▁pomp
▁pots
▁rake
▁repr
▁rumm
▁skid
▁smog
▁suki
▁sulf
▁tags
▁tang
▁teas
▁thud
▁toad
▁trag
▁twat
▁unam
▁ungr
▁unqu
▁vibr
▁wart
▁whim
▁whip
▁whit
▁wits
▁zoos
1,000.
aparte
arched
ashimi
azight
bourne
cessor
course
eflika
elcome
ellect
endant
holder
ieving
igated
igator
inator
ington
itoris
lifted
ltered
mobile
monaut
ocaust
ogging
passes
people
perone
riment
rophet
rowded
rusted
second
spring
terson
ualism
uitive
ulsory
umbles
untled
urolog
willed
▁10:30
▁2002.
▁3:00.
▁Aband
▁Acade
▁Agric
▁Aimee
▁Allen
▁Anger
▁Anglo
▁Anime
▁Anton
▁Blanc
▁Bless
▁Bored
▁Brace
▁Bruce
▁Carey
▁Cesar
▁Clara
▁Claud
▁Comet
▁Devil
▁Dress
▁Drugs
▁Dubai
▁Elena
▁Emmet
▁Faith
▁Feast
▁Fewer
▁Final
▁Gabri
▁Ginza
▁Gomez
▁Guard
▁Hands
▁Himal
▁Hindi
▁Ident
▁JavaS
▁Laugh
▁Lidia
▁Lucia
▁Lying
▁Maori
▁Mirac
▁Nepal
▁Niger
▁Offic
▁Paola
▁Paolo
▁Papua
▁Prove
▁Radio
▁Screw
▁Seize
▁Seoul
▁Sheep
▁Sixty
▁Solve
▁Somal
▁Spare
▁Spend
▁Still
▁Stone
▁Sushi
▁Taste
▁Tatar
▁Timmy
▁Tomas
▁Walid
▁Walls
▁Yahoo
▁abyss
▁bibli
▁blunt
▁bould
▁braid
▁brawl
▁broth
▁calam
▁chast
▁chees
▁chord
▁cloak
▁clone
▁clunk
▁crypt
▁deact
▁debut
▁decip
▁dined
▁doves
▁dries
▁elite
▁epile
▁faked
▁fines
▁folkl
▁fowls
▁glued
▁harps
▁herbs
▁hints
▁hypot
▁imped
▁inatt
▁inhib
▁insin
▁joins
▁jumpy
▁knack
▁lifts
▁limbs
▁lucid
▁males
▁midst
▁moldy
▁morph
▁nanny
▁naval
▁newer
▁ozone
▁paged
▁pedal
▁piled
▁plank
▁plaza
▁pragm
▁prune
▁quilt
▁rabid
▁raven
▁resid
▁resin
▁ridic
▁rigid
▁scoff
▁scope
▁scuba
▁scumb
▁sedan
▁semin
▁shaky
▁shawl
▁shrew
▁skied
▁sorce
▁spear
▁spilt
▁spine
▁spons
▁squid
▁stagn
▁stork
▁suite
▁swarm
▁tanks
▁tapes
▁teasp
▁timed
▁token
▁tract
▁unden
▁versa
▁verte
▁weave
▁werew
▁wider
▁wires
▁yummy
Neither
ailable
alcohol
amboang
angular
aryotic
comings
covered
defence
dominal
entiary
eworthy
fiction
goodbye
hainese
hension
icating
icillin
iskirts
judiced
keeping
lasting
lishing
nothing
oration
othered
oundrel
related
resents
ruption
uitcake
uration
velopes
warzene
▁10:00.
▁Accept
▁Agency
▁Andrei
▁Angels
▁Angola
▁Author
▁Behind
▁Carbon
▁Castle
▁Desert
▁Double
▁Eagles
▁Econom
▁Emilia
▁Excess
▁Forest
▁Gables
▁Gandhi
▁Hakone
▁Kabuki
▁Kosovo
▁League
▁Leanne
▁Manila
▁Mathus
▁Meteor
▁Michel
▁Midori
▁Monica
▁Negoti
▁Oxygen
▁Pandas
▁Pepper
▁Planet
▁Prison
▁Saving
▁Sesame
▁Sharks
▁Slovak
▁Sloven
▁Sodium
▁Steven
▁Takaha
▁Tamori
▁Temper
▁Teresh
▁Timing
▁Tohoku
▁Turkic
▁Vladim
▁Yuriko
▁abated
▁abuses
▁academ
▁acidic
▁amazes
▁ankles
▁arrows
▁assail
▁biceps
▁blanks
▁brands
▁bubbly
▁bummer
▁bumper
▁buyers
▁carton
▁clover
▁clowns
▁clutch
▁comply
▁cooled
▁courts
▁croiss
▁curric
▁decode
▁diagon
▁disreg
▁dusted
▁ensure
▁enters
▁ethics
▁exoner
▁exterm
▁faulty
▁fences
▁festiv
▁fibers
▁flinch
▁freaky
▁frivol
▁gallon
▁gazing
▁ghetto
▁giants
▁google
▁grader
▁graves
▁gunned
▁helium
▁hollow
▁hooked
▁hornet
▁hottie
▁hounds
▁impost
▁infilt
▁intest
▁itches
▁joints
▁jumper
▁jurors
▁kennel
▁laying
▁layout
▁legisl
▁loaves
▁locket
▁logged
▁malice
▁marble
▁mended
▁mercen
▁merger
▁minded
▁multit
▁mumble
▁nudged
▁occupy
▁owning
▁patent
▁peered
▁penult
▁petals
▁pitied
▁pliers
▁poking
▁ponder
▁puddle
▁qualms
▁queasy
▁raided
▁reborn
▁retrie
▁ritual
▁robust
▁roomed
▁ruling
▁saucer
▁savior
▁seduce
▁shapes
▁shrank
▁shrink
▁slogan
▁sniper
▁sodium
▁sonata
▁sorted
▁sovere
▁spells
▁stalls
▁stance
▁stroll
▁submer
▁subord
▁sugary
▁suprem
▁tarant
▁termin
▁tilted
▁trader
▁trench
▁trends
▁trolls
▁tyrant
▁umpire
▁undert
▁unsett
▁unwise
▁upbeat
▁urchin
▁varied
▁veiled
▁versed
▁waffle
▁walnut
▁washer
▁wipers
▁wobbly
▁zodiac
aeumchen
antanamo
avorable
destruct
ertation
ertinent
etheless
ffective
handedly
hensions
ineering
isements
iterated
opolitan
orthodox
ountable
stituted
▁Atlanta
▁Babylon
▁Brother
▁Carrots
▁Caution
▁Chaplin
▁Clothes
▁Comfort
▁Contrib
▁Discuss
▁Experts
▁Falling
▁Fucking
▁Fukuoka
▁Further
▁Gravity
▁Hamburg
▁Helping
▁Individ
▁Jacques
▁Jealous
▁Lebanon
▁Maltese
▁Marines
▁Monkeys
▁Natural
▁Phoenix
▁Prevent
▁Railway
▁Roberto
▁Seventy
▁Shinano
▁Stradiv
▁Suicide
▁Support
▁Tolstoy
▁Victory
▁Walmart
▁Wearing
▁Writers
▁abreast
▁acrobat
▁advisor
▁anagram
▁analogy
▁angered
▁archery
▁beggars
▁betrays
▁blogger
▁botched
▁bourbon
▁bravest
▁briefed
▁brothel
▁bruised
▁buckets
▁checkup
▁chiefly
▁chilled
▁concise
▁condemn
▁confine
▁consens
▁conserv
▁coroner
▁critics
▁cruelly
▁crybaby
▁cushion
▁cyclist
▁decayed
▁defects
▁defence
▁defined
▁descent
▁dipping
▁earthly
▁elitist
▁emerald
▁enables
▁enhance
▁enraged
▁entries
▁eyelids
▁fairies
▁fetched
▁fifties
▁filming
▁fingert
▁forbade
▁frisbee
▁grassho
▁gravely
▁gripped
▁groomed
▁hacksaw
▁hammock
▁hiccups
▁hygiene
▁inflamm
▁interns
▁jackets
▁jittery
▁lasagna
▁legends
▁lengths
▁lengthy
▁licking
▁lighted
▁mangoes
▁matched
▁milkman
▁mispron
▁monarch
▁muffins
▁multipl
▁napkins
▁narciss
▁noseble
▁obscure
▁optical
▁outlive
▁overdue
▁paroled
▁peasant
▁pervert
▁petting
▁plowing
▁posting
▁pounded
▁powered
▁puddles
▁pursued
▁quantum
▁raccoon
▁redneck
▁refined
▁reigned
▁reimbur
▁relying
▁renting
▁riddles
▁rightly
▁rituals
▁roaming
▁rotting
▁rushing
▁sashimi
▁scrawny
▁segment
▁shooter
▁slander
▁slashed
▁sniffed
▁sorrows
▁spouses
▁springs
▁stalled
▁startle
▁stashed
▁steamed
▁stomped
▁strives
▁surveys
▁sustain
▁sweetie
▁swiftly
▁takeoff
▁thinker
▁toddler
▁toilets
▁tourism
▁trapper
▁trucker
▁twitter
▁unappro
▁undress
▁uninter
▁unscrew
▁unthink
▁vaguely
▁veranda
▁virtues
▁volumes
▁waiters
▁warmest
▁witches
▁wrestle
▁zealous
angerines
arcerated
arsighted
fessional
intellect
resistant
respected
uckerberg
▁Bacteria
▁Brasilia
▁Brussels
▁Building
▁Computer
▁Creation
▁Dagestan
▁Families
▁Madagasc
▁Monopoly
▁Mountain
▁Nicholas
▁Painting
▁Potatoes
▁Reindeer
▁Sanskrit
▁Takakura
▁Teaching
▁Tombaugh
▁Worrying
▁adapting
▁agonized
▁alarming
▁anesthes
▁anyplace
▁aspiring
▁atheists
▁bastards
▁battered
▁besieged
▁botanist
▁brunette
▁charisma
▁cinnamon
▁civilian
▁classics
▁climates
▁clitoris
▁crashing
▁crippled
▁crumpled
▁cutbacks
▁deluding
▁dentures
▁depended
▁derailed
▁diameter
▁disgusts
▁distress
▁division
▁downhill
▁drawings
▁drunkard
▁dyslexic
▁earnings
▁eligible
▁embarked
▁eyepatch
▁faintest
▁fiercely
▁finances
▁forestry
▁forklift
▁formerly
▁greeting
▁hairline
▁handmade
▁henhouse
▁hoarding
▁improper
▁indisput
▁injected
▁insanely
▁juggling
▁knockout
▁landlady
▁licorice
▁lobsters
▁lukewarm
▁manicure
▁manually
▁massages
▁meddling
▁metaphor
▁momentum
▁moreover
▁mortgage
▁murmured
▁narrowed
▁needless
▁neutrons
▁newcomer
▁offender
▁ophthalm
▁optional
▁orbiting
▁pachinko
▁passions
▁pastries
▁performs
▁perverse
▁photocop
▁portions
▁practise
▁predator
▁prestige
▁receipts
▁rephrase
▁sculptor
▁searches
▁seawater
▁shipment
▁slipping
▁smelling
▁socially
▁sparkled
▁spectrum
▁spitting
▁squashed
▁stalling
▁steroids
▁stinking
▁subtract
▁sukiyaki
▁supplier
▁swallows
▁tenderly
▁tiresome
▁treacher
▁untransl
▁vacuumed
▁variable
▁warriors
▁weakened
▁weddings
▁weekdays
▁workload
▁writings
Everything
ologically
▁Basically
▁Bonaparte
▁Caribbean
▁Champagne
▁Currently
▁Dinosaurs
▁Goodnight
▁Hurricane
▁Introduce
▁Louisiana
▁Mastering
▁Melbourne
▁Patterson
▁Peninsula
▁Pfirsichb
▁Pollution
▁Starbucks
▁Stupidity
▁Takahashi
▁Tamazight
▁Thursdays
▁Victorian
▁Whichever
▁adaptable
▁adversity
▁advocated
▁allegedly
▁applicant
▁arranging
▁asteroids
▁attackers
▁attitudes
▁audiences
▁authorize
▁avoidable
▁bargained
▁birthdays
▁blueberry
▁botanical
▁brochures
▁certainty
▁certified
▁chaperone
▁charities
▁charlatan
▁checkered
▁clipboard
▁cluttered
▁coalition
▁comforted
▁comparing
▁composure
▁comprised
▁conflicts
▁dashboard
▁declining
▁dimension
▁diplomacy
▁directory
▁discharge
▁disclosed
▁disgraced
▁divorcing
▁downright
▁envelopes
▁eradicate
▁escalator
▁expertise
▁extremist
▁falsehood
▁fanatical
▁fantasies
▁fictional
▁fireflies
▁followers
▁fragrance
▁fruitcake
▁greetings
▁gymnasium
▁hazelnuts
▁hedgehogs
▁hijackers
▁historian
▁indicated
▁inspiring
▁irritable
▁kangaroos
▁locksmith
▁mechanics
▁memorable
▁monitored
▁mortified
▁motorcycl
▁moustache
▁nightfall
▁nostalgic
▁organisms
▁overtaken
▁perpetual
▁persisted
▁petroleum
▁populated
▁proceeded
▁producing
▁prohibits
▁proposing
▁provoking
▁publicity
▁purchases
▁purposely
▁recognise
▁reconfirm
▁rectangle
▁regulated
▁resilient
▁resistant
▁salvation
▁scribbled
▁seatbelts
▁selective
▁sheltered
▁shorthand
▁soulmates
▁specifics
▁speculate
▁splashing
▁spokesman
▁sportsman
▁stability
▁stainless
▁statistic
▁strenuous
▁succumbed
▁taxpayers
▁tragedies
▁treasurer
▁triathlon
▁twinkling
▁unlimited
▁versatile
▁viewpoint
▁windmills
warzenegger
▁Bouteflika
▁Capitalism
▁Detectives
▁Eurovision
▁Everywhere
▁Guantanamo
▁Tereshkova
▁Terrorists
▁acceptance
▁accordance
▁aviophobia
▁befriended
▁birthplace
▁bitterness
▁bookkeeper
▁brainstorm
▁breastfeed
▁capitalism
▁categories
▁cheapskate
▁complicate
▁components
▁contractor
▁corrupting
▁creativity
▁criticizes
▁decoration
▁deductible
▁descendant
▁diligently
▁dimensions
▁distinctly
▁distrusted
▁downstream
▁eighteenth
▁enormously
▁executives
▁expressway
▁extradited
▁fatherland
▁friendlier
▁historians
▁hitchhiker
▁homeschool
▁illustrate
▁imperative
▁indication
▁indiscreet
▁industries
▁infatuated
▁infinitely
▁integrated
▁lifeguards
▁marvellous
▁mastermind
▁melancholy
▁millennium
▁monotonous
▁neglecting
▁nightstand
▁nineteenth
▁obediently
▁overcooked
▁penicillin
▁pitchforks
▁preferable
▁proclaimed
▁represents
▁schoolyard
▁simplicity
▁standstill
▁stimulates
▁structures
▁subjective
▁suffocated
▁teetotaler
▁telephones
▁terminated
▁tragically
▁treatments
▁ultimately
▁untalented
▁vaccinated
▁weatherman
▁Association
▁Butterflies
▁Concentrate
▁Palestinian
▁Photography
▁Technically
▁acquisition
▁acupuncture
▁bodybuilder
▁businessmen
▁clothesline
▁collaborate
▁competitors
▁corresponds
▁credentials
▁dangerously
▁disgruntled
▁distraction
▁dysfunction
▁exasperated
▁frantically
▁handwritten
▁hitchhiking
▁illuminated
▁implemented
▁implication
▁impractical
▁inefficient
▁intensively
▁introducing
▁investments
▁malfunction
▁misfortunes
▁negotiating
▁nightingale
▁obligations
▁orientation
▁outnumbered
▁overcrowded
▁overhearing
▁painkillers
▁paperweight
▁penultimate
▁permanently
▁perpetrator
▁photography
▁potentially
▁prefectures
▁prematurely
▁pronouncing
▁provocative
▁replaceable
▁respectable
▁restraining
▁sentimental
▁stepbrother
▁substituted
▁superiority
▁supervising
▁sympathized
▁thickheaded
▁unambitious
▁unavailable
▁uncondition
▁unfavorable
▁unthinkable
▁Miraculously
▁Scandinavian
▁Shanghainese
▁Stradivarius
▁Surprisingly
▁administered
▁advantageous
▁anticipation
▁archeologist
▁cardiologist
▁coincidences
▁coincidental
▁colonization
▁communicated
▁compositions
▁consistently
▁contemplated
▁conventional
▁coordination
▁disconnected
▁dissertation
▁imprisonment
▁installation
▁intermission
▁neighbouring
▁observations
▁penitentiary
▁pornographic
▁restrictions
▁shortcomings
▁superstition
▁technologies
▁transparency
▁unidentified
▁unimaginable
▁uninterested
▁unprejudiced
▁apprehensions
▁autobiography
▁characterized
▁communicating
▁comprehension
▁constellation
▁contemplating
▁demonstrators
▁deteriorating
▁disorientated
▁interrogating
▁oceanographer
▁opportunistic
▁questionnaire
▁Schwarzenegger
▁communications
▁mountaineering
▁unapproachable
▁unprofessional
▁ophthalmologist
▁representatives
13
CC
CO
HP
NE
NO
OE
St
TO
gi
jj
qt
sa
ui
zs
▁q
!!!
00-
03.
20,
21.
22.
30,
?".
Bay
His
MCA
Mom
Pro
SAP
aan
ahi
ahu
amy
anj
asu
atl
aul
awi
bet
cia
cid
cla
cup
deg
ecd
eur
eys
fet
fia
gie
gov
gro
gyz
hak
hum
iao
ieu
ifl
iku
iph
iya
jin
kar
ksw
lle
lot
low
lsk
lut
mal
mus
nov
oda
ooo
oop
opl
osa
osc
owa
pit
psy
rek
rex
ser
sez
syn
tim
tol
uaq
uiz
uqt
vez
wax
wig
wit
yst
zan
zzy
▁2-
▁Az
▁Du
▁GD
▁Ga
▁LA
▁Ri
▁Ry
▁SO
▁SW
▁dw
▁oo
▁ot
Wait
With
abis
acha
achu
adas
ados
alas
alon
alya
amel
amer
amie
apid
arks
ativ
atol
avan
azel
bowl
bulb
bull
cans
care
cars
coni
dued
east
ebox
emal
emon
empl
endy
enta
este
ests
etry
etta
evin
fold
fter
gamm
glas
grap
hara
hast
hile
hive
hrop
iano
ibis
ifer
imen
inqu
insk
isse
itte
lama
lang
leaf
lesn
lord
lutz
nery
nier
oeba
olds
ollo
orer
oter
othr
otox
pard
part
peas
phyx
pong
post
pson
pton
quis
racy
razy
rett
rgyz
rike
rine
rogs
rope
rots
sych
talk
test
that
uble
ucch
udic
uity
ulum
umbs
urdy
urst
usse
uvin
yers
yson
zona
▁1.3
▁110
▁23.
▁333
▁ABC
▁Akk
▁Alf
▁BBC
▁Bin
▁Cot
▁Dow
▁Els
▁Eng
▁Fix
▁GPS
▁Gem
▁Hmm
▁Ide
▁Izu
▁Jas
▁Kad
▁Kob
▁McC
▁Nij
▁Oka
▁Ost
▁PHP
▁Pik
▁Shh
▁Shi
▁Sho
▁Sor
▁Sri
▁Tet
▁Vac
▁Ves
▁Vin
▁Viv
▁ace
▁ale
▁ape
▁arc
▁bio
▁cyl
▁dre
▁eer
▁ell
▁foe
▁gel
▁ger
▁gid
▁hex
▁lyn
▁moo
▁nig
▁nim
▁peg
▁rej
▁rut
▁rye
▁sau
▁seg
▁sid
▁sta
▁ung
▁upr
▁vic
▁vor
▁wil
▁wow
Shall
absor
acies
acted
actic
addle
agawa
aints
akuza
aleel
alyst
ammer
amura
andra
anium
aroni
artar
ascus
atism
atist
avier
casts
chers
chten
death
earth
elete
ennon
ermat
erred
eving
fired
fried
ggars
ghdad
grown
hello
hells
hower
huang
ibals
iever
ifier
illas
imens
inois
irder
irius
itful
jured
kebox
lette
metry
monia
named
nergy
nesia
nibal
nomes
ocaly
ocons
ogawa
olaus
olete
olith
olunt
ongos
onist
onyms
ophys
orize
osene
otism
ovsky
oyant
paper
pling
prise
rades
redit
retch
rette
rexit
rical
ricia
ricts
ringe
roman
ruled
screw
sects
stock
tyard
uckoo
uence
ugger
ulifl
ungal
urich
urist
ussed
vered
wheel
words
zania
▁2:00
▁ASAP
▁Adil
▁Alas
▁Apes
▁Atat
▁Aval
▁Baha
▁Band
▁Bats
▁Berg
▁Berm
▁Bern
▁Bite
▁Born
▁Brad
▁Camb
▁Cart
▁Cens
▁Cham
▁Chap
▁Chen
▁Code
▁Comb
▁Crim
▁Dave
▁Duck
▁Dude
▁Enos
▁Fant
▁Feng
▁Fili
▁Full
▁Girl
▁Gosh
▁Grap
▁Gray
▁Gust
▁Hero
▁Host
▁Husk
▁Inca
▁Infl
▁Iowa
▁Join
▁Keio
▁Khal
▁Left
▁Lego
▁Marg
▁Mess
▁Mich
▁Miho
▁Musk
▁NATO
▁Narc
▁Nina
▁Nine
▁Obey
▁Pear
▁Phys
▁Pine
▁Priv
▁Rent
▁Resc
▁Rico
▁Ring
▁Rumi
▁Sams
▁Sant
▁Shir
▁Sind
▁Skip
▁Stir
▁Sumo
▁Tear
▁Tort
▁Tosh
▁Trip
▁Troy
▁Tsez
▁Warn
▁Whit
▁Wise
▁Word
▁Yang
▁Yell
▁Yout
▁abdu
▁affl
▁beet
▁beta
▁blat
▁carc
▁clam
▁clap
▁coop
▁cran
▁curb
▁cuss
▁dazz
▁deed
▁degr
▁dike
▁dime
▁dizz
▁dose
▁duel
▁dues
▁duly
▁dunk
▁eBay
▁feat
▁fins
▁germ
▁ging
▁gist
▁gour
▁gran
▁grud
▁hect
▁hier
▁hive
▁jeep
▁lace
▁lays
▁lily
▁logo
▁lucr
▁mitt
▁moat
▁mows
▁mull
▁nitp
▁oily
▁oxym
▁paws
▁peck
▁pent
▁pimp
▁poop
▁prog
▁prow
▁purr
▁rags
▁rall
▁reco
▁remo
▁rend
▁rows
▁rubs
▁salv
▁schm
▁scur
▁sill
▁slur
▁smug
▁snic
▁snor
▁snot
▁sown
▁spam
▁stre
▁stut
▁subd
▁suds
▁thug
▁topl
▁turf
▁unem
▁upro
▁vari
▁veil
▁vert
▁whir
▁yeah
Christ
Excuse
Kinpir
ailles
angers
antern
asphem
assion
atious
atives
becile
bidden
cation
chable
clable
degree
disiac
drates
ensils
erance
estial
gammon
gender
gotten
govina
harmon
ibrill
icitis
icized
idency
idious
ilbert
inesis
intosh
iskirt
itical
itized
itures
listed
mailed
native
nessee
ocious
oosers
ophobe
otypes
perial
planes
please
plings
powder
presso
profit
riches
ricorn
ridden
rophic
sleeve
ssalon
stance
stores
stress
struck
taught
termin
thrown
uckled
uizawa
ukemia
uptial
uqtuaq
urally
usable
ushima
verine
winger
▁2013?
▁Along
▁Arist
▁Asahi
▁Baker
▁Blame
▁Brand
▁Burns
▁Caffe
▁Chern
▁Clark
▁Compl
▁Congo
▁Crows
▁Cuban
▁Degas
▁Diego
▁Dothr
▁Edgar
▁Eisen
▁Ellie
▁Elves
▁Ethel
▁Filip
▁Flour
▁Fried
▁Frogs
▁Gates
▁Giant
▁Guate
▁Haste
▁Hayes
▁Honor
▁Horus
▁Impro
▁Jared
▁Kemal
▁Kevin
▁Laser
▁Libra
▁Mahal
▁Majid
▁Marse
▁Masao
▁Monet
▁Naomi
▁Oppos
▁Optim
▁Perse
▁Piotr
▁Pitch
▁Polar
▁Price
▁Ready
▁Rocky
▁Rolls
▁Round
▁Route
▁Royce
▁Sanda
▁Seems
▁Shiva
▁Sofia
▁Sport
▁Steak
▁Steam
▁Tampa
▁Twice
▁Veget
▁Wanna
▁Wendy
▁Winds
▁Woman
▁agile
▁alpha
▁amaze
▁ambit
▁anecd
▁aphro
▁arbit
▁aroma
▁auton
▁baths
▁blaze
▁boast
▁booed
▁brags
▁bulky
▁camou
▁cardi
▁caves
▁choke
▁cider
▁clogs
▁clums
▁cobra
▁cocky
▁corps
▁coven
▁curvy
▁cyber
▁decap
▁deriv
▁dummy
▁dwelt
▁effic
▁enfor
▁ethic
▁excav
▁expon
▁fable
▁famed
▁fares
▁fiber
▁folly
▁futon
▁gamma
▁gated
▁gills
▁gland
▁glows
▁goner
▁goofy
▁grata
▁graze
▁grizz
▁grove
▁haunt
▁hered
▁hires
▁hives
▁hooky
▁hyena
▁inaug
▁inbox
▁innum
▁insat
▁klutz
▁knuck
▁koala
▁laces
▁lanes
▁latch
▁leash
▁lends
▁linen
▁liras
▁lorry
▁ludic
▁mafia
▁maple
▁mates
▁meats
▁mined
▁mites
▁moped
▁motto
▁mowed
▁myths
▁nasal
▁necks
▁negot
▁obeys
▁obliv
▁oiled
▁paste
▁plaid
▁plump
▁poles
▁polka
▁poses
▁pours
▁prost
▁puffs
▁queer
▁rally
▁ratio
▁redec
▁reefs
▁rhyme
▁runny
▁sandy
▁scrut
▁shish
▁shogi
▁sided
▁sieve
▁sissy
▁snare
▁stepd
▁swans
▁tails
▁thorn
▁tides
▁trams
▁traps
▁tubes
▁tunes
▁unacc
▁viola
▁wease
▁wormy
▁yearn
Austral
Certain
Chinese
abiding
agnetic
appreci
astrous
ativism
avender
brained
certing
clusive
conspir
dressed
edience
fecture
fitting
fourths
fulness
hetical
hundred
imanded
iptical
istence
itioner
itizens
kswagen
niverse
ocation
onation
onymity
oppable
otesque
parents
ractive
redited
rencies
rescent
selling
sighted
sleeved
speople
synonym
uestion
uminium
unction
undered
version
writers
▁10:00?
▁10:30.
▁2:30."
▁30,000
▁Adding
▁Alexei
▁Anatol
▁Apollo
▁Appear
▁Approx
▁Atomic
▁Attack
▁Baltic
▁Bloody
▁Button
▁Camels
▁Canaan
▁Cather
▁Celebr
▁Cities
▁Confed
▁Danube
▁Dating
▁Defend
▁Delete
▁Denver
▁Eighty
▁Energy
▁Esther
▁Fourth
▁Freder
▁Fruits
▁Gemini
▁Hamisi
▁Haruki
▁Higher
▁Hungar
▁Hungry
▁Intell
▁Jasmin
▁Joanna
▁Kansai
▁Kazuko
▁Kyrgyz
▁Lennon
▁Lyusya
▁Madame
▁Marine
▁Masaru
▁Matter
▁Mental
▁Minors
▁Mister
▁Monkey
▁Mormon
▁Nepali
▁Number
▁Peters
▁Poetry
▁Racism
▁Rather
▁Roland
▁Sakura
▁Scream
▁Secure
▁Selena
▁Sirius
▁Smiths
▁Sophia
▁Supper
▁Switch
▁Taurus
▁Theore
▁Torres
▁Traged
▁Travel
▁Tulips
▁abomin
▁affili
▁alarms
▁amoeba
▁amulet
▁analys
▁antiqu
▁anyhow
▁armies
▁asphyx
▁auster
▁avenge
▁awhile
▁bathed
▁beware
▁cabins
▁cactus
▁caller
▁captiv
▁carols
▁ceases
▁centen
▁chatty
▁choosy
▁classy
▁coloss
▁comets
▁commod
▁conced
▁consol
▁conson
▁conver
▁cooing
▁corpus
▁cranes
▁crisps
▁cuckoo
▁dagger
▁dawned
▁debris
▁diesel
▁digger
▁disarm
▁disarr
▁discom
▁dozing
▁draped
▁dubbed
▁dumber
▁echoed
▁enigma
▁erotic
▁euphem
▁excels
▁exempl
▁exited
▁fetish
▁flabby
▁flashy
▁floppy
▁fluffy
▁frames
▁frater
▁grants
▁greets
▁hacker
▁halves
▁hanger
▁heirlo
▁hermit
▁heroic
▁hinted
▁hoodie
▁hookah
▁iguana
▁inject
▁inning
▁instit
▁intact
▁invade
▁inward
▁labels
▁lament
▁lashes
▁lessen
▁lesser
▁lilacs
▁lining
▁locals
▁makers
▁mining
▁minors
▁mirage
▁mister
▁morgue
▁morons
▁newest
▁nickel
▁outrun
▁oyster
▁pasted
▁peeped
▁phases
▁phosph
▁picket
▁pigged
▁podium
▁poetic
▁porcel
▁porcup
▁postal
▁potter
▁quartz
▁quiver
▁radium
▁raving
▁refers
▁relate
▁relics
▁repaid
▁reposs
▁respir
▁revise
▁rounds
▁rubles
▁sacked
▁saddle
▁safari
▁salute
▁shaker
▁siding
▁sinful
▁sinned
▁smelly
▁snitch
▁socket
▁solves
▁somers
▁spades
▁sprain
▁sprink
▁squeal
▁stench
▁stings
▁stools
▁subsid
▁thrust
▁tickle
▁tights
▁torped
▁traits
▁trauma
▁triple
▁triump
▁turbul
▁unison
▁unmade
▁unmist
▁unpack
▁uphill
▁velvet
▁verbal
▁vessel
▁wanker
▁watery
▁weaken
▁wholes
▁wiggle
▁wildly
▁zebras
Japanese
absorbed
cription
fighters
fortably
hangelsk
icolored
itnesses
othermia
relation
renthood
ribution
roducing
ruitment
schooled
sounding
thinking
umptuous
▁200,000
▁Arizona
▁Beggars
▁Bermuda
▁Boredom
▁Caribou
▁Charley
▁Chilean
▁Collect
▁Cologne
▁Connect
▁Consult
▁Contest
▁Council
▁Douglas
▁Element
▁Enlight
▁Examine
▁Fiction
▁Firefox
▁Gabriel
▁Galilei
▁Heather
▁Huskies
▁Illegal
▁Insects
▁Kabyles
▁Keeping
▁Lawyers
▁Lighten
▁Malaria
▁Martian
▁Matters
▁Natasha
▁Normans
▁Parrots
▁Pikachu
▁Pleased
▁Precise
▁Prussia
▁Refresh
▁Romulus
▁Samsung
▁Scorpio
▁Shepard
▁Silicon
▁Smokers
▁Somalia
▁Special
▁Tagalog
▁Tibetan
▁Tokaido
▁Tripoli
▁Turkmen
▁Verrier
▁Vikings
▁Warning
▁Winston
▁Wishing
▁Youtube
▁abusing
▁aground
▁alerted
▁anatomy
▁archaic
▁avocado
▁awaited
▁banking
▁bashful
▁bassist
▁battled
▁beeswax
▁benches
▁berated
▁blabber
▁bladder
▁blazing
▁blender
▁blinker
▁boulder
▁braided
▁breaths
▁bubbles
▁burrito
▁calcium
▁campers
▁captive
▁carrier
▁catcher
▁centers
▁chauvin
▁chipped
▁chuckle
▁clunker
▁compact
▁copilot
▁copious
▁costing
▁cramped
▁cursing
▁defiant
▁deserts
▁disrupt
▁diverse
▁drafted
▁drummed
▁dungeon
▁durable
▁earache
▁elbowed
▁elusive
▁endorse
▁evolved
▁exclude
▁fainter
▁fatally
▁fattest
▁flicked
▁flosses
▁foreman
▁funnier
▁gathers
▁geology
▁getaway
▁glowing
▁grasped
▁hackers
▁harming
▁hateful
▁headset
▁heinous
▁honking
▁hormone
▁inquire
▁invoice
▁jukebox
▁killjoy
▁leveled
▁lookout
▁lunches
▁mastery
▁mending
▁methane
▁midwife
▁mileage
▁moaning
▁monopol
▁napping
▁neocons
▁newborn
▁occured
▁ominous
▁orchids
▁outline
▁ovation
▁pioneer
▁plainly
▁planner
▁playful
▁pollute
▁pompous
▁pottery
▁prickly
▁prisons
▁protons
▁prouder
▁pruning
▁purring
▁racking
▁recipes
▁reddish
▁rematch
▁resides
▁retract
▁reveals
▁roaring
▁robbing
▁robotic
▁rockets
▁scanner
▁scarlet
▁scoffed
▁scorned
▁seizure
▁seminar
▁sensual
▁serpent
▁setback
▁shivers
▁shoebox
▁skidded
▁skinned
▁slicing
▁sparked
▁specify
▁squares
▁stacked
▁statues
▁staunch
▁stooped
▁subdued
▁subsequ
▁supreme
▁surpass
▁surreal
▁swamped
▁sweated
▁swerved
▁syringe
▁tenants
▁terrace
▁thicker
▁throats
▁tidying
▁toasted
▁tongues
▁totaled
▁trifled
▁tripled
▁tumbled
▁turnout
▁unclean
▁unicorn
▁upgrade
▁upright
▁uptight
▁ushered
▁vacancy
▁wagging
▁weirder
▁winding
▁workmen
▁wronged
▁yoghurt
Americans
Australia
Certainly
Objection
alcoholic
inflicted
isemitism
notations
roductive
ropolitan
ssaloniki
urologist
▁Actinium
▁Albanian
▁Aquarius
▁Atuqtuaq
▁Bicycles
▁Caffeine
▁Cambodia
▁Christie
▁Constant
▁Consumer
▁Damascus
▁Doraemon
▁Dothraki
▁Ethiopia
▁Exchange
▁Filipino
▁Hirayama
▁Identify
▁Illinois
▁Imperial
▁Injuries
▁Jealousy
▁Kanazawa
▁Liechten
▁Lonesome
▁Malaleel
▁Memories
▁Michigan
▁Miracles
▁Nicolaus
▁Numerous
▁Passover
▁Patricia
▁Pleasure
▁Robinson
▁Sickness
▁Tanzania
▁Thompson
▁Typhoons
▁Visiting
▁Vladimir
▁Yamamoto
▁aardvark
▁adoption
▁adultery
▁affirmed
▁alliance
▁arranges
▁assemble
▁backdoor
▁bandages
▁betrayal
▁briefing
▁canoeing
▁carefree
▁cavities
▁cervical
▁chestnut
▁chlorine
▁choosers
▁clinging
▁clubbing
▁coherent
▁colleges
▁coloured
▁commited
▁conducts
▁converse
▁couscous
▁covenant
▁currents
▁dealings
▁dejected
▁demeanor
▁democrat
▁destined
▁disciple
▁dispense
▁disputed
▁downfall
▁dragging
▁dumpster
▁eighties
▁eleventh
▁emigrate
▁energies
▁espresso
▁evaluate
▁excommun
▁extermin
▁financed
▁flinched
▁folklore
▁frowning
▁glorious
▁goodbyes
▁graphics
▁grieving
▁grilling
▁growling
▁handrail
▁hardened
▁hectares
▁homemade
▁humbling
▁humility
▁idealist
▁imbecile
▁impaired
▁incompar
▁indecent
▁infamous
▁integral
▁intimate
▁involunt
▁kerosene
▁kneeling
▁knighted
▁leukemia
▁licenses
▁lonesome
▁longtime
▁luxuries
▁macaroni
▁matchbox
▁maternal
▁merciful
▁messaged
▁mischief
▁misprint
▁modeling
▁molehill
▁morphine
▁mouthing
▁muttered
▁mutually
▁obsolete
▁offshore
▁omelette
▁opposing
▁oriental
▁overtake
▁overtook
▁oxymoron
▁paternal
▁pavement
▁pedicure
▁phonetic
▁plankton
▁porridge
▁precedes
▁prevails
▁printers
▁probable
▁promotes
▁prostate
▁protects
▁provider
▁pumpkins
▁quickest
▁rattlesn
▁reckoned
▁reddened
▁reflexes
▁reloaded
▁rescuing
▁resorted
▁roasting
▁roulette
▁rummaged
▁sabotage
▁saddened
▁sandcast
▁seasonal
▁seedless
▁senators
▁sergeant
▁settings
▁shredded
▁sideways
▁snatched
▁solitude
▁sounding
▁spilling
▁sporting
▁sprawled
▁squatted
▁stickler
▁stripper
▁subsided
▁sweaters
▁tickling
▁timeless
▁tracking
▁treading
▁twisting
▁typhoons
▁uneasily
▁unmarked
▁uprising
▁utensils
▁verified
▁vicinity
▁watercol
▁whipping
▁woodwind
▁worksite
▁wreckage
boyfriends
impossible
▁Airplanes
▁Algerians
▁Antarctic
▁Apologize
▁Capricorn
▁Catherine
▁Christine
▁Excessive
▁Filiberto
▁Karuizawa
▁Matsuyama
▁Mountains
▁Ostriches
▁Palestine
▁Pierrette
▁Political
▁Spaghetti
▁Strangely
▁Tennessee
▁accessory
▁alligator
▁ambitions
▁astounded
▁austerity
▁automated
▁barbarian
▁barricade
▁bathrooms
▁bedridden
▁betraying
▁bloodshot
▁blossomed
▁cameraman
▁cannibals
▁cartridge
▁champions
▁chickpeas
▁coastline
▁composers
▁conceived
▁consisted
▁consuming
▁contracts
▁corkscrew
▁cosmonaut
▁countdown
▁courtyard
▁crunching
▁cultivate
▁curveball
▁deafening
▁deceitful
▁defibrill
▁degrading
▁detriment
▁discusses
▁disrupted
▁dissolves
▁distantly
▁doughnuts
▁egomaniac
▁elevation
▁endeavors
▁exemption
▁exhibited
▁expanding
▁extending
▁falsified
▁ferocious
▁formality
▁formation
▁godmother
▁grandsons
▁grotesque
▁hairbrush
▁heartfelt
▁highlight
▁hitchhike
▁holocaust
▁horoscope
▁illusions
▁immensely
▁impounded
▁influenza
▁informant
▁institute
▁intestine
▁introvert
▁inventive
▁inventory
▁involving
▁kidnapper
▁lifeboats
▁lightbulb
▁lucrative
▁ludicrous
▁maternity
▁mechanism
▁messaging
▁miniskirt
▁misbehave
▁multitask
▁negligent
▁nominated
▁nosebleed
▁offspring
▁overdosed
▁pacemaker
▁paperback
▁penalized
▁phenomena
▁playfully
▁polishing
▁portfolio
▁portrayed
▁preaching
▁preceding
▁prototype
▁quickened
▁recipient
▁reinforce
▁renounced
▁scorpions
▁seniority
▁severance
▁shoreline
▁sidewalks
▁sketching
▁smuggling
▁snickered
▁snowballs
▁socialism
▁sprinkled
▁stimulate
▁strolling
▁submerged
▁superstar
▁surpasses
▁teachings
▁tenacious
▁tentative
▁tightrope
▁treadmill
▁unanimous
▁unbuckled
▁undergone
▁uninjured
▁unwelcome
▁voracious
girlfriends
▁Afterwards
▁Artificial
▁Attendance
▁Conditions
▁Corruption
▁Eisenhower
▁Electronic
▁Elementary
▁Englishmen
▁Foreigners
▁Individual
▁JavaScript
▁Lifeguards
▁Lithuanian
▁Macedonian
▁Petersburg
▁Prefecture
▁Presumably
▁Protestant
▁Travelling
▁Versailles
▁Volkswagen
▁Wednesdays
▁adaptation
▁adjectives
▁agreements
▁alcoholics
▁apologetic
▁appetizing
▁attributes
▁backgammon
▁bookstores
▁boundaries
▁broadcasts
▁bureaucrat
▁capitalist
▁combustion
▁complacent
▁completing
▁compulsory
▁conducting
▁congestion
▁constitute
▁cultivated
▁curriculum
▁deplorable
▁describing
▁despicable
▁disapprove
▁disastrous
▁dismissive
▁ecological
▁ecosystems
▁efficiency
▁evaporates
▁exonerated
▁extremists
▁eyeglasses
▁favourable
▁fulfilling
▁fundraiser
▁gingivitis
▁guidebooks
▁hemisphere
▁households
▁improvised
▁indirectly
▁infidelity
▁influences
▁infuriated
▁innovation
▁insatiable
▁inventions
▁mentioning
▁missionary
▁moderately
▁narcissist
▁negotiable
▁nonsmokers
▁noticeably
▁nourishing
▁obstructed
▁occurrence
▁omnivorous
▁overpriced
▁overthrown
▁painkiller
▁paintbrush
▁paramedics
▁passageway
▁penetrated
▁persuading
▁physicians
▁playwright
▁positively
▁predicting
▁prenuptial
▁presidency
▁prioritize
▁progressed
▁properties
▁prosecuted
▁psychopath
▁quotations
▁recognised
▁recommends
▁recreation
▁recyclable
▁relativism
▁remarkably
▁remodeling
▁respecting
▁scandalous
▁simplified
▁skillfully
▁snowmobile
▁somersault
▁spoilsport
▁stationery
▁stepsister
▁succeeding
▁superpower
▁symphonies
▁tendencies
▁terminally
▁transports
▁undeniable
▁underlined
▁uneducated
▁ungrateful
▁unquestion
▁wavelength
▁wealthiest
▁windowsill
▁youngsters
▁Agriculture
▁Antibiotics
▁Arkhangelsk
▁Astronomers
▁Confederate
▁Creationism
▁Hostilities
▁Playstation
▁Scandinavia
▁Traditional
▁accordingly
▁aphrodisiac
▁approximate
▁archaeology
▁assassinate
▁blacklisted
▁bureaucracy
▁burglarized
▁collections
▁conflicting
▁decapitated
▁declaration
▁deteriorate
▁disagreeing
▁disregarded
▁distracting
▁domineering
▁exceedingly
▁exterminate
▁extravagant
▁fascination
▁flexibility
▁floorboards
▁gingerbread
▁grasshopper
▁hyperactive
▁hypothermia
▁impartially
▁innumerable
▁insinuating
▁instruction
▁intercourse
▁involvement
▁legislation
▁measurement
▁mercenaries
▁mountaintop
▁nonetheless
▁patronizing
▁pedestrians
▁persevering
▁pleasurable
▁pregnancies
▁preposition
▁presentable
▁progressive
▁reprimanded
▁resolutions
▁seventeenth
▁skyscrapers
▁slaughtered
▁statistical
▁suffocating
▁terminology
▁thoughtless
▁townspeople
▁transgender
▁unexplained
▁unsatisfied
▁unstoppable
▁Firefighters
▁Intelligence
▁Professional
▁Temperatures
▁Thessaloniki
▁appendicitis
▁appreciative
▁asphyxiation
▁astronomical
▁availability
▁billionaires
▁blabbermouth
▁circumstance
▁corroborated
▁cosmopolitan
▁exterminator
▁grandfathers
▁hypothetical
▁incarcerated
▁inconclusive
▁inflammation
▁institutions
▁interruption
▁manufactured
▁meticulously
▁monotheistic
▁mysteriously
▁organisation
▁overestimate
▁pathological
▁practitioner
▁presumptuous
▁proofreading
▁reincarnated
▁resurrection
▁ridiculously
▁romantically
▁simultaneous
▁southeastern
▁Approximately
▁Circumstances
▁Environmental
▁Relationships
▁accommodation
▁administrator
▁appropriately
▁carbohydrates
▁categorically
▁collaborative
▁collaborators
▁contradictory
▁deforestation
▁disconcerting
▁entrepreneurs
▁experimenting
▁globalization
▁manufacturers
▁manufacturing
▁revolutionary
▁theoretically
▁uncomfortably
▁uninterrupted
▁demonstrations
▁eccentricities
▁misconceptions
▁simultaneously
▁understandably
▁internationally
▁interpretations
1?
2?
31
32
?'
An
CD
DA
Ha
IM
IS
Im
LF
LT
Le
MA
Mu
OR
PA
PD
RG
TT
Tw
VI
fr
lr
mi
nb
oz
po
uo
wd
zt
▁,
01.
11?
20.
32.
:10
GBT
Ger
Har
KEA
Mus
NES
Nob
Now
Ola
Pal
SIS
Say
Sem
Sil
Ten
Wow
YES
aca
agg
ahn
ais
amu
asa
azi
bok
cca
chu
dan
eko
emp
emy
epr
erb
ere
esc
ett
ezv
fla
gom
gos
hik
hot
ifa
ifi
igi
ija
ikh
ilm
imi
ims
inf
inx
irk
iry
isb
isd
jev
jib
job
kem
kew
lap
lda
lio
maj
mem
nde
nge
ods
oir
opy
orb
pal
pat
paw
pie
pse
rot
spl
sur
tos
ucc
urk
usa
uvi
uvu
web
wns
wre
yna
zig
▁1-
▁AM
▁Aj
▁Bh
▁Dy
▁Eb
▁Ep
▁Ew
▁Ho
▁Hu
▁Io
▁Ji
▁Kr
▁Lv
▁Od
▁ST
▁Si
▁Tu
▁cz
▁gn
▁ic
▁ov
▁pH
▁rh
▁tv
Best
Card
Euro
Nice
Okay
Poor
Some
Tell
achi
acts
aeda
agus
alia
alsa
amba
amic
amis
andt
anka
anky
ardy
arel
asma
asta
aval
azan
azzi
bags
bait
bees
best
brae
card
chal
coal
conv
cted
dens
dler
dock
dogs
ebel
ebra
egro
eled
elle
engu
enha
eror
eted
etsk
evil
fasc
feld
ffod
fing
fors
gang
gins
gles
hana
heat
hift
iago
idas
iera
iery
ifed
igor
ildo
iler
imil
imos
inas
inel
inus
ipop
irms
ishi
issa
ithm
ixed
jaia
jane
jani
jima
kick
knit
laid
last
lder
leen
lene
lenn
lims
lony
lsea
mala
mere
mile
mith
mute
nals
nawi
nies
offs
oinc
oine
oise
omeo
omol
onal
onda
orie
orph
orra
otle
otto
ouls
ouri
pean
pees
pert
pits
plus
poor
ppel
ptic
quiv
rade
rase
raut
rays
recy
requ
rops
rost
sary
size
some
town
uant
uber
ucts
umbo
unko
uric
urry
vada
wire
with
xter
ympt
yrin
zels
▁130
▁220
▁23,
▁Abb
▁Abd
▁Arg
▁BLT
▁Bal
▁Bed
▁Bil
▁Cec
▁Chi
▁Cic
▁Coc
▁Cow
▁Der
▁Dio
▁Dog
▁Dom
▁Dun
▁Dup
▁Dur
▁ESP
▁Ear
▁Eas
▁Esk
▁Fen
▁Flu
▁Fry
▁Fuk
▁Gaz
▁Gib
▁Gro
▁Hah
▁Hud
▁III
▁ISP
▁Ike
▁Ing
▁Kak
▁Kay
▁Kou
▁Kur
▁Lak
▁Lao
▁Las
▁Lex
▁Lip
▁Liz
▁Low
▁Mah
▁Mut
▁NBA
▁NTT
▁Nad
▁Obs
▁Oft
▁Ole
▁Ord
▁Pav
▁Pos
▁Pye
▁Ray
▁Ren
▁Rie
▁Sac
▁Saw
▁Seb
▁Sep
▁Shy
▁Soy
▁Tad
▁Tas
▁Tir
▁Tit
▁Tro
▁Val
▁Vic
▁Yum
▁ads
▁aur
▁bac
▁cic
▁civ
▁cum
▁elk
▁gal
▁gaw
▁hoe
▁hoo
▁iod
▁ivy
▁jay
▁lig
▁lou
▁lub
▁mig
▁mph
▁nan
▁nug
▁omn
▁pim
▁sul
▁tac
▁twe
▁uno
▁viv
▁wed
▁wok
▁yak
Great
Maybe
NESCO
Point
Today
Trust
acerb
aceut
adish
again
alism
ality
allic
anhas
anova
ansen
arest
arkey
assic
astan
astes
ateur
azaki
beard
bergh
bians
blems
bones
bound
bumps
burgh
cance
celyn
chang
cheon
chest
chmen
chron
click
clude
crack
drops
ecute
eeted
elets
eller
elson
emies
endor
ensed
erted
estab
etian
etres
flage
flops
gence
gical
hants
helle
holes
ianos
iated
iates
ibrow
ickle
ictit
idney
ighty
igula
ilize
imore
intin
ircle
ishir
ishop
istor
itori
kempt
kerel
letoe
liner
lotte
matic
megen
meter
mines
nable
names
nlock
obics
ochem
odian
odies
odore
omist
onium
onshu
oodle
oplan
oraph
oshed
otive
ousse
oyama
pdate
pical
pires
plets
plugs
poles
ppies
ppily
ppled
ppost
range
ranny
ritis
senic
shake
ships
stell
tales
torch
track
ubord
uddle
uffle
ugees
ulses
umnus
umpty
undra
uriel
uteed
uvius
vance
vored
white
zards
▁2003
▁Aart
▁Alad
▁Baku
▁Balk
▁Beef
▁Bees
▁Bend
▁Benz
▁Bird
▁Book
▁Busy
▁Buzz
▁Camp
▁Carn
▁Cass
▁Cave
▁Chiz
▁Clap
▁Clay
▁Crap
▁Curd
▁Curt
▁Dana
▁Darn
▁Data
▁Diab
▁Dies
▁Done
▁Echo
▁Elon
▁Eris
▁Fame
▁Fart
▁Film
▁Fitz
▁Gale
▁Gest
▁Glac
▁Gore
▁Hail
▁Hara
▁Hate
▁Hers
▁Horn
▁IKEA
▁ISIS
▁Inha
▁Itoh
▁Jour
▁Juno
▁Kard
▁Khan
▁Kiev
▁LGBT
▁Lill
▁Lily
▁Lion
▁Loch
▁Mamm
▁Marx
▁Maur
▁Mean
▁Meth
▁Mimi
▁Mush
▁Naka
▁Nami
▁Nike
▁Pale
▁Phil
▁Pict
▁Plat
▁Poke
▁Polk
▁Pork
▁Pors
▁Rica
▁Rise
▁Rose
▁SWAT
▁Sait
▁Scar
▁Sean
▁Shem
▁Shim
▁Shui
▁Sita
▁Snap
▁Soap
▁Soft
▁Sout
▁Suez
▁Sulf
▁Taft
▁Tark
▁Thou
▁Tian
▁Tiki
▁Tina
▁Tung
▁Vera
▁WWII
▁WiFi
▁Wolf
▁YMCA
▁Ying
▁aces
▁amph
▁arth
▁bade
▁bage
▁bers
▁bets
▁bias
▁bree
▁buns
▁capp
▁cath
▁cauc
▁chis
▁chit
▁cler
▁coex
▁cors
▁cruc
▁daug
▁diff
▁dune
▁egoc
▁emit
▁ethn
▁foes
▁gays
▁geek
▁glor
▁glow
▁gram
▁gren
▁heap
▁herd
▁hunk
▁hymn
▁idly
▁inad
▁ital
▁jiff
▁lark
▁leop
▁lewd
▁lime
▁loll
▁lust
▁meds
▁meow
▁miso
▁mugs
▁nods
▁nort
▁nurt
▁nuth
▁omen
▁oval
▁pest
▁plea
▁pong
▁putt
▁quib
▁rebo
▁ruff
▁sage
▁sard
▁scab
▁schn
▁scow
▁seam
▁semi
▁slew
▁slum
▁sped
▁stow
▁swan
▁swap
▁swat
▁tamp
▁taut
▁tens
▁thaw
▁toen
▁undo
▁wets
▁womb
10,000
3,000.
Nobody
Saxons
achers
affold
aftern
ailing
aliban
alysis
ammers
andals
angles
antelp
antine
arazzi
arital
around
ashtra
astery
atcher
aunted
caster
change
comers
cribed
cutter
delier
drated
ection
educts
emaker
emeter
enance
enburg
ercond
ethyst
etious
filled
flakes
gomery
grocer
hadone
hargic
hemian
houses
iances
iarism
ichord
icured
igaret
ighten
illion
imates
immons
inates
ingham
ionism
ionist
ipated
isions
isseur
issive
itania
itcoin
itutes
ivided
ivirus
jacked
lahoma
letter
little
market
monger
nivers
ochist
ocrisy
ograms
ombies
opause
ortion
ospace
otting
oughly
ounces
outing
owness
packed
pherds
philis
plants
ported
preted
pretty
quoted
ratory
regate
ribati
rients
rowing
saving
seling
storey
storms
talkie
tarian
teller
tening
terior
ubishi
udence
uickly
uranic
uretor
urized
uvuzel
venile
venues
vering
vingly
walker
yrinth
zzling
▁Aaron
▁Admit
▁Adolf
▁Adult
▁Agree
▁Aless
▁Apost
▁Aside
▁Autom
▁Ayako
▁Babur
▁Boris
▁Botox
▁Bunny
▁Burma
▁Chand
▁Coinc
▁Comed
▁Coral
▁Cyril
▁Daily
▁Domin
▁Doors
▁Entry
▁Fairy
▁Fancy
▁Farsi
▁Femin
▁Flood
▁Funny
▁Ganon
▁Gauls
▁Germs
▁Ghana
▁Glenn
▁Greta
▁Heads
▁Ideas
▁Izmir
▁Jaani
▁Jacob
▁Jason
▁Johan
▁Junko
▁Kanda
▁Kazan
▁Kings
▁Klava
▁Koran
▁Kyoko
▁Labor
▁Laden
▁Lanka
▁Liver
▁Loyal
▁Mahar
▁Major
▁Marce
▁Maths
▁Meiji
▁Messi
▁Naoki
▁Octop
▁Order
▁Pearl
▁Pekka
▁Pengu
▁Phone
▁Poets
▁Point
▁Psych
▁Rainy
▁Riots
▁Rumor
▁Sandy
▁Serve
▁Shell
▁Shink
▁Shove
▁Smell
▁Speed
▁Steal
▁Stuff
▁Sulla
▁Table
▁Tiber
▁Tommy
▁Tough
▁Twins
▁Tyson
▁Vinci
▁Virgo
▁Weigh
▁Youth
▁admon
▁aloof
▁annex
▁artif
▁aspar
▁asset
▁atroc
▁banal
▁basin
▁baton
▁beaks
▁beget
▁biker
▁birch
▁boost
▁bowel
▁brood
▁caric
▁carve
▁china
▁cited
▁condo
▁cones
▁conno
▁coral
▁crisp
▁crust
▁culpr
▁diner
▁disas
▁dissu
▁drone
▁edges
▁eerie
▁embar
▁farts
▁fatty
▁feign
▁fills
▁finer
▁flamm
▁fluct
▁fluke
▁frail
▁futur
▁gangs
▁germs
▁giddy
▁girly
▁giver
▁graft
▁gruff
▁haiku
▁halal
▁hares
▁heron
▁hoops
▁hunts
▁igloo
▁immun
▁indie
▁infer
▁inhal
▁irate
▁irons
▁irony
▁ivory
▁jerks
▁karma
▁kitty
▁klept
▁knead
▁knots
▁lambs
▁lanky
▁lawns
▁litre
▁lodge
▁logar
▁looph
▁lurch
▁mason
▁maxed
▁merit
▁monks
▁moths
▁mourn
▁mules
▁mummy
▁murky
▁newsw
▁nonpl
▁norms
▁numer
▁orang
▁peels
▁piles
▁pluvi
▁quack
▁raged
▁raked
▁ramen
▁ranks
▁rearr
▁reuse
▁rocky
▁salsa
▁salts
▁sauna
▁saver
▁scald
▁semic
▁showy
▁sized
▁slang
▁slums
▁solic
▁spike
▁spong
▁squab
▁stall
▁stoat
▁strum
▁stump
▁taped
▁taxed
▁telek
▁telen
▁telly
▁traff
▁truce
▁tying
▁unann
▁unner
▁unsha
▁untie
▁vapor
▁vigil
▁vigor
▁voter
▁waded
▁wimps
▁wines
▁wraps
▁wring
▁yeast
▁zebra
▁zones
10,000.
100,000
300,000
Muslims
amorous
aterial
avering
burning
cipline
closure
elitism
embered
endment
enhagen
entious
eprints
erkraut
estions
etitive
fetched
garious
herical
huangzi
iaoming
ibiotic
igrants
inerary
inkable
iquette
isitive
istency
ittered
jointed
keepers
largest
loading
mailing
mediate
million
mingway
morning
nemploy
nighter
olithic
omalies
ominium
ophilia
otherap
picuous
pockets
portion
printed
quisite
regated
rendous
reshold
ressive
rocated
ropolis
skinned
solving
tenegro
tlefish
uberant
uitable
uitting
ulsions
ungalow
uptuous
veloped
versely
western
▁11:00.
▁Action
▁Advent
▁Advert
▁Agatha
▁Alfred
▁Allied
▁Andrea
▁Anyhow
▁Attach
▁Bejaia
▁Bhutan
▁Borrow
▁Bright
▁Cainan
▁Cannes
▁Carter
▁Cartha
▁Chavez
▁Cheers
▁Cherry
▁Claude
▁Copper
▁Cotton
▁Crouch
▁Crying
▁Dennis
▁Diplom
▁Dipper
▁Dupont
▁Easier
▁Europa
▁Formal
▁Garlic
▁Getter
▁Ghosts
▁Gilles
▁Gladly
▁Grades
▁Grande
▁Grapes
▁Gustav
▁Hatred
▁Hector
▁Hiroko
▁Hispan
▁Honshu
▁Hudson
▁Inside
▁Kaiser
▁Kansas
▁Koalas
▁Konrad
▁Ladino
▁Lemons
▁Lights
▁Lisbon
▁Loving
▁Luther
▁Marius
▁Masako
▁Meccan
▁Medina
▁Memory
▁Mosque
▁Motors
▁Moving
▁Muriel
▁Nelson
▁Nevada
▁Norman
▁Norton
▁Object
▁Office
▁Orient
▁PayPal
▁Pianos
▁Purcha
▁Pyeong
▁Ramudu
▁Romney
▁Rumors
▁Salmon
▁Saying
▁Sayoko
▁Sebast
▁Sindhi
▁Single
▁Sounds
▁Stress
▁Supply
▁Swedes
▁Syrian
▁Taipei
▁Talent
▁Tartar
▁Tasman
▁Ticket
▁Tintin
▁Tirana
▁Tomoko
▁Toshio
▁Trains
▁Tursun
▁Volcan
▁Warren
▁Wooden
▁Wright
▁Yoshio
▁aeropl
▁ardent
▁arisen
▁astray
▁banner
▁barbed
▁bashed
▁basing
▁bearer
▁bishop
▁blacks
▁bleeds
▁bodily
▁bogged
▁bomber
▁bongos
▁boomer
▁booted
▁bounce
▁bowler
▁braked
▁brickl
▁brides
▁browse
▁brunch
▁busboy
▁buzzer
▁calves
▁cashed
▁census
▁charts
▁cheeky
▁cheers
▁cheesy
▁cheque
▁chicks
▁chills
▁chords
▁cougar
▁coupon
▁crafts
▁criter
▁daffod
▁damned
▁daring
▁darken
▁dermat
▁detour
▁devour
▁dexter
▁digits
▁dispar
▁docile
▁dreary
▁drunks
▁dwells
▁echoes
▁elated
▁enable
▁evolve
▁feeble
▁felled
▁felony
▁fictit
▁fidget
▁finely
▁finite
▁fitted
▁francs
▁funnel
▁fusion
▁gallop
▁geopol
▁giggle
▁gunman
▁halted
▁hassle
▁hippie
▁hippos
▁honour
▁hustle
▁idling
▁imposs
▁incess
▁indoor
▁inexpl
▁injure
▁inmate
▁insurm
▁jotted
▁junkie
▁jurisd
▁kinder
▁labour
▁lackey
▁lagoon
▁lavish
▁layers
▁linear
▁loathe
▁locust
▁manila
▁marrow
▁masked
▁meager
▁mellow
▁metric
▁milest
▁misant
▁mopped
▁muffin
▁nausea
▁nimble
▁nuclei
▁nudist
▁nugget
▁nursed
▁operas
▁ostrac
▁partis
▁passer
▁pedals
▁pester
▁pierce
▁pledge
▁potent
▁pranks
▁prides
▁prized
▁puffed
▁purity
▁quarry
▁queens
▁quench
▁rabies
▁raffle
▁rancid
▁rating
▁recoll
▁redisc
▁reeked
▁refute
▁reinst
▁relent
▁retali
▁revers
▁riders
▁rocked
▁rudely
▁rumour
▁rupees
▁salads
▁sanity
▁scents
▁scores
▁scotch
▁seduct
▁sender
▁sexier
▁shooed
▁shreds
▁shrewd
▁shroud
▁singly
▁skated
▁skelet
▁skulls
▁sleigh
▁solely
▁spears
▁spices
▁splash
▁spruce
▁squirt
▁stages
▁stakes
▁starry
▁strewn
▁strips
▁strung
▁subdue
▁surged
▁swings
▁tactic
▁tatami
▁tavern
▁teacup
▁telesc
▁tenant
▁threes
▁thrice
▁thrive
▁timely
▁tiptoe
▁toying
▁trance
▁trifle
▁tumult
▁tundra
▁unfold
▁unpert
▁unread
▁unruly
▁unsung
▁unwell
▁uptake
▁walkie
▁weeded
▁welded
▁willow
▁winded
▁wrongs
▁yearly
▁yields
Esperant
Tomorrow
acterial
amboanga
artments
boarding
chemists
fighting
forsaken
grandson
ilateral
karyotic
majority
oplanets
orescent
ositions
security
standard
waitress
zegovina
▁Abandon
▁Actions
▁Alister
▁Ammonia
▁Antalya
▁Antoine
▁Antonio
▁Atheism
▁Baghdad
▁Beavers
▁Burning
▁Cameron
▁Chances
▁Chapter
▁Charity
▁Chelsea
▁Cherish
▁Claudia
▁College
▁Curacao
▁Curdken
▁Customs
▁Defense
▁Donetsk
▁Evening
▁Execute
▁Fantasy
▁Fashion
▁Flemish
▁Gagarin
▁Gangway
▁Gilbert
▁Growing
▁Hanshin
▁Happily
▁Include
▁Israeli
▁Jocelyn
▁Joneses
▁Kadazan
▁Katrina
▁Khalifa
▁Latinos
▁Letters
▁Logging
▁Mankind
▁Manuela
▁Marconi
▁Mariner
▁Marjane
▁Members
▁Minutes
▁Morning
▁Namibia
▁Narciss
▁Passion
▁Pierrot
▁Pigeons
▁Pirates
▁Pizzaro
▁Planets
▁Pokemon
▁Popcorn
▁Presley
▁Prisons
▁Private
▁Prophet
▁Raising
▁Reflect
▁Replace
▁Ronaldo
▁Roughly
▁Selling
▁Service
▁Sharpen
▁Shirley
▁Shishir
▁Shivaji
▁Skating
▁Stories
▁Stretch
▁Taliban
▁Texting
▁Thieves
▁Thought
▁Thunder
▁Tipping
▁Tragedy
▁Turtles
▁Typhoon
▁Whitney
▁Yoshkar
▁agoraph
▁alumnus
▁amassed
▁ambient
▁analges
▁angrier
▁apparel
▁assumes
▁badgers
▁bandits
▁baptism
▁baptize
▁barrier
▁baskets
▁bellboy
▁berserk
▁bikinis
▁binding
▁biochem
▁blatant
▁bloated
▁blowjob
▁bonfire
▁bonkers
▁braking
▁branded
▁bulldog
▁bullies
▁bumping
▁burgers
▁callous
▁caramel
▁caravan
▁cardiac
▁carving
▁casinos
▁caulifl
▁chapped
▁cheaply
▁cheeses
▁cherish
▁chinese
▁chipper
▁chooses
▁cleanly
▁cleanup
▁climber
▁clipped
▁cloning
▁clouded
▁cobbler
▁coolest
▁cowboys
▁coyotes
▁crashes
▁crayons
▁credits
▁cripple
▁crowned
▁cupcake
▁cursive
▁dabbled
▁dazzled
▁dearest
▁decoded
▁defused
▁dehuman
▁delinqu
▁dinners
▁discrep
▁dismant
▁draught
▁dreaded
▁dumbest
▁dynamic
▁earshot
▁editing
▁elector
▁enacted
▁exacerb
▁eyebrow
▁factual
▁faculty
▁faintly
▁falcons
▁fancies
▁favours
▁ferment
▁firearm
▁flaming
▁flowing
▁flunked
▁footing
▁forgery
▁forsake
▁fossils
▁freshen
▁fritter
▁furnish
▁gossips
▁grating
▁grinder
▁grizzly
▁grumble
▁gymnast
▁hacking
▁handgun
▁harbors
▁harbour
▁hornets
▁hostess
▁hosting
▁hotdogs
▁idiotic
▁impover
▁invests
▁jeweler
▁juggler
▁junkman
▁keyhole
▁kidneys
▁labored
▁ladders
▁lantern
▁legibly
▁letdown
▁lighten
▁locally
▁locking
▁lodging
▁logging
▁magenta
▁mantelp
▁martini
▁matured
▁milking
▁mindful
▁minimal
▁mumbled
▁municip
▁narrows
▁notable
▁notices
▁nourish
▁obeying
▁omitted
▁opioids
▁outback
▁overate
▁pageant
▁pancake
▁partied
▁patches
▁payback
▁peeking
▁pelican
▁perspir
▁philant
▁pillars
▁pissing
▁pistach
▁pitbull
▁placebo
▁plaster
▁platter
▁plummet
▁premier
▁preview
▁quartet
▁quitter
▁quoting
▁radiant
▁rafting
▁rallied
▁ravaged
▁redhead
▁reduces
▁rejects
▁relaxes
▁rendezv
▁residue
▁resorts
▁restful
▁rethink
▁rioting
▁rivalry
▁rocking
▁rounded
▁rubbing
▁rumored
▁rumours
▁runaway
▁saddens
▁saddest
▁saluted
▁sauteed
▁schmuck
▁scumbag
▁shipped
▁shuffle
▁shyness
▁sinners
▁skaters
▁skeptic
▁sketchy
▁skyrock
▁sliding
▁sloshed
▁slurred
▁smokers
▁smother
▁soaring
▁solvent
▁spatter
▁sponsor
▁squeaky
▁stables
▁steered
▁stifled
▁summons
▁surplus
▁takeout
▁tangled
▁targets
▁tatoeba
▁tearing
▁terrain
▁thereof
▁tonsils
▁topless
▁trainee
▁transit
▁tryouts
▁tunnels
▁twinkle
▁twirled
▁uncanny
▁unequiv
▁unibrow
▁unkempt
▁unoffic
▁uranium
▁urinate
▁vessels
▁vibrate
▁violins
▁waffles
▁walnuts
▁wartime
▁wheelie
▁widower
▁wishful
▁yielded
aceutical
afternoon
consuming
continent
efinitely
emeteries
erconduct
esterners
esticides
ferential
holstered
identally
intendent
istically
president
▁Aluminum
▁Broadway
▁Caligula
▁Carolina
▁Climbing
▁Comments
▁Darkness
▁Diabetes
▁Election
▁Entering
▁Explorer
▁Flattery
▁Frankfur
▁Gambling
▁Glaciers
▁Hercules
▁Herschel
▁Humanity
▁Humility
▁Ignorant
▁Jamaican
▁Kindness
▁Kiribati
▁Leonardo
▁Margaret
▁Maryland
▁Mathnawi
▁Memorize
▁Michelle
▁Missouri
▁Montreal
▁Nakamura
▁Nijmegen
▁Oklahoma
▁Opposite
▁Penguins
▁Planning
▁Platform
▁Promises
▁Proverbs
▁Refugees
▁Scotsman
▁Slovakia
▁Software
▁Tensions
▁Theodore
▁Triangle
▁Venusian
▁Vesuvius
▁Waterloo
▁Westerns
▁Williams
▁abdicate
▁ablution
▁abstains
▁accorded
▁adopting
▁adoptive
▁aerobics
▁airtight
▁alkaline
▁allowing
▁alluring
▁aluminum
▁amending
▁amethyst
▁ancestor
▁arsonist
▁ascended
▁aspirins
▁belching
▁biscuits
▁blasphem
▁blinding
▁breather
▁breeding
▁bulletin
▁bungalow
▁buttered
▁calamity
▁canaries
▁cannabis
▁cardinal
▁caressed
▁carnival
▁champing
▁chanting
▁chastity
▁circular
▁clippers
▁coasters
▁coloring
▁colossal
▁competes
▁comrades
▁conceded
▁consoled
▁convales
▁converts
▁creeping
▁crescent
▁daugther
▁daybreak
▁deadbeat
▁deadlock
▁defected
▁defender
▁deleting
▁delicacy
▁dentists
▁deranged
▁descends
▁despotic
▁detached
▁detonate
▁disarray
▁diverted
▁doodling
▁doubting
▁downside
▁draining
▁earplugs
▁enclosed
▁enforced
▁esteemed
▁exporter
▁firewall
▁flogging
▁foldable
▁forensic
▁foreseen
▁fortunes
▁freshmen
▁geometry
▁gestures
▁giggling
▁groaning
▁grueling
▁gunpoint
▁handicap
▁heavenly
▁hedonist
▁heirloom
▁henchmen
▁heredity
▁highways
▁hillside
▁hindered
▁hungrier
▁hydrated
▁imposter
▁impostor
▁indicted
▁insubord
▁irrevers
▁jokingly
▁journals
▁junction
▁juvenile
▁killings
▁knuckles
▁lamppost
▁lavender
▁lawmaker
▁leopards
▁lifespan
▁lunatics
▁lunchbox
▁malarkey
▁manpower
▁markedly
▁mastered
▁mediator
▁mentions
▁missiles
▁monarchy
▁monetary
▁monitors
▁monotony
▁monoxide
▁mortally
▁networks
▁nuthouse
▁orphaned
▁outcasts
▁outlawed
▁outlived
▁overdone
▁patented
▁patently
▁peephole
▁perfumes
▁persists
▁pheasant
▁platonic
▁playlist
▁plucking
▁podcasts
▁preaches
▁pretzels
▁prompted
▁punching
▁radiator
▁rambling
▁randomly
▁realised
▁rebelled
▁recoiled
▁relented
▁remedies
▁renowned
▁resented
▁reunions
▁reusable
▁revising
▁revolved
▁ridicule
▁robotics
▁rotating
▁rumbling
▁scaffold
▁scanners
▁scornful
▁sections
▁setbacks
▁shelling
▁shifting
▁shitless
▁shoveled
▁showroom
▁sidekick
▁silenced
▁singular
▁slacking
▁sledding
▁sloppily
▁smirking
▁snacking
▁sneakers
▁sneaking
▁softball
▁soothing
▁southpaw
▁soybeans
▁spanking
▁spirited
▁squealed
▁standoff
▁stirring
▁stocking
▁streamed
▁studious
▁sunblock
▁surfaced
▁surgical
▁swindler
▁synonyms
▁syphilis
▁tactless
▁tampered
▁targeted
▁taunting
▁teaspoon
▁tensions
▁toenails
▁torrents
▁tractors
▁transmit
▁trueborn
▁ulterior
▁uncooper
▁unopened
▁unturned
▁veterans
▁washroom
▁watchdog
▁wavering
▁wildfire
▁wrestled
▁youthful
affeinated
population
▁Aristotle
▁Batteries
▁Catholics
▁Charlotte
▁Churchill
▁Conqueror
▁Countless
▁Criminals
▁Customers
▁Delicious
▁Elections
▁Employees
▁Evolution
▁Following
▁Forbidden
▁Francesca
▁Fukushima
▁Gardening
▁Guatemala
▁Hemingway
▁Himalayas
▁Hypocrisy
▁Inflation
▁Lindbergh
▁Lithuania
▁Liverpool
▁Macedonia
▁Marseille
▁Mathusala
▁Meanwhile
▁Mongolian
▁Mushrooms
▁Northeast
▁Repeating
▁Represent
▁Spaniards
▁Taiwanese
▁Tarkovsky
▁Witnesses
▁Wonderful
▁abdominal
▁abduction
▁acclaimed
▁accounted
▁acoustics
▁adjoining
▁adverbial
▁aggregate
▁alongside
▁aluminium
▁anchovies
▁anomalies
▁antivirus
▁aqueducts
▁arbitrary
▁asparagus
▁assailant
▁astrophys
▁awkwardly
▁ballistic
▁believers
▁belonging
▁benefited
▁birthrate
▁blameless
▁blindfold
▁blowtorch
▁bracelets
▁brightens
▁brunettes
▁captivity
▁cartwheel
▁catalogue
▁ceasefire
▁celestial
▁chartered
▁checkbook
▁comprises
▁congested
▁consensus
▁corporate
▁criticise
▁croissant
▁crumbling
▁custodian
▁customary
▁debatable
▁digestion
▁discounts
▁dizziness
▁dominated
▁dominates
▁doubtless
▁drizzling
▁dumplings
▁eavesdrop
▁editorial
▁embroider
▁emigrants
▁enlighten
▁entranced
▁equations
▁eruptions
▁escalated
▁exceeding
▁exclaimed
▁exemplary
▁exercised
▁exosphere
▁exploited
▁extremism
▁exuberant
▁facetious
▁fairytale
▁fattening
▁favorably
▁fertility
▁festivals
▁flammable
▁forwarded
▁fragments
▁frightens
▁frivolous
▁gardeners
▁goldsmith
▁gunpowder
▁heartbeat
▁hiccuping
▁hopefully
▁idiomatic
▁indicator
▁indiscrim
▁infantile
▁initiated
▁inquiring
▁intrigues
▁intruding
▁intuitive
▁itinerary
▁labyrinth
▁landmarks
▁legendary
▁lethargic
▁liberties
▁lightened
▁magnesium
▁makeshift
▁margarita
▁masochist
▁massaging
▁measuring
▁medically
▁merchants
▁migratory
▁milkshake
▁misquoted
▁mosquitos
▁motorboat
▁muttering
▁nighttime
▁nonsmoker
▁nutrients
▁obedience
▁oblivious
▁octopuses
▁opposites
▁oppressed
▁optimists
▁outsiders
▁overpower
▁oversight
▁overstate
▁overwhelm
▁packaging
▁parenthes
▁penetrate
▁pertinent
▁porcelain
▁porcupine
▁posterity
▁pragmatic
▁predatory
▁prescribe
▁presenter
▁prevailed
▁processed
▁provinces
▁rainwater
▁realities
▁recharged
▁recounted
▁recycling
▁reelected
▁reminding
▁repairman
▁reproduce
▁resentful
▁resisting
▁restraint
▁revealing
▁reviewing
▁revolving
▁robberies
▁salesgirl
▁satirical
▁schedules
▁scoundrel
▁scratches
▁screening
▁sexuality
▁shirtless
▁shortages
▁showering
▁shuddered
▁smothered
▁sovereign
▁specified
▁stockings
▁strategic
▁strengthe
▁supremely
▁tarantula
▁tearfully
▁telegraph
▁terrifies
▁threshold
▁toothpick
▁tortoises
▁transient
▁traumatic
▁undertook
▁undivided
▁unscrewed
▁uplifting
▁valiantly
▁vertebrae
▁videogame
▁wholesale
▁willpower
▁worsening
achnophobia
appreciated
atisfaction
atisfactory
conditioned
nemployment
▁Ambassador
▁Apartments
▁Blackbeard
▁Buckingham
▁Communists
▁Compassion
▁Convention
▁Copenhagen
▁Creativity
▁Ecuadorian
▁Hungarians
▁Hurricanes
▁Kyrgyzstan
▁Madagascar
▁Management
▁MasterCard
▁Misfortune
▁Mitsubishi
▁Montenegro
▁Montgomery
▁Originally
▁Pepperberg
▁PowerPoint
▁Protection
▁Protestors
▁Shinkansen
▁Thankfully
▁abandoning
▁abominable
▁accelerate
▁accurately
▁achievable
▁adrenaline
▁advocating
▁affiliated
▁allowances
▁analytical
▁annihilate
▁applauding
▁appliances
▁astounding
▁atrocities
▁attendants
▁auditioned
▁autonomous
▁barbarians
▁bargaining
▁beautician
▁blacksmith
▁blueprints
▁bottomless
▁breathless
▁camouflage
▁campground
▁carburetor
▁celebrates
▁censorship
▁chandelier
▁changeable
▁communists
▁containers
▁controller
▁cooperated
▁criminally
▁critically
▁criticised
▁criticisms
▁cuttlefish
▁dealership
▁deciphered
▁decomposed
▁dehydrated
▁discomfort
▁disservice
▁egocentric
▁elliptical
▁engineered
▁evaluation
▁explicitly
▁exploiting
▁expressive
▁extensions
▁fictitious
▁fishmonger
▁flattering
▁flourished
▁footballer
▁fourteenth
▁fraternity
▁furnishing
▁futuristic
▁generously
▁glittering
▁goosebumps
▁gracefully
▁gramophone
▁gregarious
▁groundless
▁guidelines
▁guillotine
▁harvesting
▁hesitating
▁highlights
▁horrendous
▁horsepower
▁idealistic
▁identifies
▁immigrated
▁inhalation
▁initiation
▁installing
▁insulation
▁internship
▁interviews
▁landlocked
▁laundering
▁liberation
▁lighthouse
▁masturbate
▁miniskirts
▁misspelled
▁neighborly
▁newsworthy
▁nightclubs
▁nonplussed
▁objectives
▁organizing
▁phosphorus
▁prefecture
▁proceeding
▁provincial
▁reconciled
▁recruiting
▁reelection
▁regulation
▁rehearsing
▁reluctance
▁reproached
▁researched
▁roundabout
▁sandcastle
▁sauerkraut
▁screeching
▁seamstress
▁segregated
▁separating
▁shopkeeper
▁silverware
▁similarity
▁solidarity
▁spacesuits
▁specialize
▁spectacles
▁strengthen
▁successive
▁sunflowers
▁symbolizes
▁tangerines
▁telemarket
▁tenderness
▁thousandth
▁transistor
▁truthfully
▁turbulence
▁unoccupied
▁unorthodox
▁unwavering
▁vandalized
▁voluptuous
▁waterfalls
▁witchcraft
▁withdrawal
▁wristwatch
▁wrongfully
grandparents
▁Acupuncture
▁Appearances
▁Australians
▁Authorities
▁Azerbaijani
▁Christmases
▁Electricity
▁Istanbulite
▁Maharashtra
▁Pickpockets
▁Pyeongchang
▁accelerator
▁accessories
▁altercation
▁ambiguities
▁annotations
▁anonymously
▁approvingly
▁aspirations
▁battlefield
▁blackmailer
▁candlelight
▁captivating
▁centimetres
▁circulating
▁clarinetist
▁cleanliness
▁colonialist
▁commemorate
▁commitments
▁conditioned
▁condominium
▁confinement
▁congressman
▁conjunction
▁connoisseur
▁consistency
▁consolation
▁conspicuous
▁constitutes
▁contributor
▁convulsions
▁coordinated
▁coordinator
▁copyrighted
▁decorations
▁dismembered
▁distressing
▁enlightened
▁entertainer
▁everlasting
▁excessively
▁exclusively
▁expectation
▁exploration
▁flirtatious
▁fluorescent
▁foundations
▁godforsaken
▁greengrocer
▁harpsichord
▁inclination
▁ineffective
▁infuriating
▁involuntary
▁libertarian
▁mantelpiece
▁methodology
▁misbehaving
▁nearsighted
▁overdressed
▁overreacted
▁partnership
▁pathologist
▁persecution
▁philanthrop
▁picturesque
▁planetarium
▁pomegranate
▁predecessor
▁pretentious
▁preventable
▁problematic
▁progression
▁prosecution
▁publication
▁quarterback
▁rattlesnake
▁recognizing
▁rectangular
▁regrettable
▁renovations
▁repossessed
▁requirement
▁rescheduled
▁researching
▁secretaries
▁shareholder
▁stimulating
▁subordinate
▁sweethearts
▁territories
▁theoretical
▁treacherous
▁unannounced
▁undercooked
▁undertaking
▁undeveloped
▁unemotional
▁unintention
▁unperturbed
▁wildflowers
▁Applications
▁Civilization
▁Islamophobic
▁Negotiations
▁Refreshments
▁Superconduct
▁academically
▁accommodated
▁accommodates
▁accomplishes
▁acknowledges
▁aggressively
▁anthropology
▁approachable
▁astrological
▁biographical
▁catastrophic
▁communicates
▁compensation
▁complemented
▁complicating
▁complimented
[...]
