<blank>
<s>
</s>
ар
▁б
ын
ал
▁ж
ан
ер
▁қ
ды
ін
ен
▁т
да
ст
▁м
▁к
ді
ық
ат
ет
ыл
▁с
де
ас
▁,
▁о
▁.
ақ
ай
ar
▁b
ол
ел
ың
in
ек
en
an
іл
не
ау
▁ө
ия
er
ғы
ам
ес
ік
гі
▁o
ыр
ір
or
ir
▁s
ыс
ім
аз
ым
▁k
▁t
ған
om
un
▁T
ында
▁жә
ор
▁және
▁y
ға
тт
ұр
он
▁п
ем
▁Tom
▁i
▁g
▁d
алық
▁"
дар
▁ш
ma
ге
▁ә
ің
ин
ın
ик
▁кө
il
ed
▁а
yor
▁a
ыз
▁ү
ады
▁B
ының
дың
із
етт
▁де
ап
▁бол
▁ал
інде
im
стан
лық
ып
дер
лар
ek
▁-
▁h
la
on
▁н
▁bir
ең
ағ
тар
аб
▁р
ген
▁ар
▁ор
ту
аст
ti
ом
▁m
▁қаз
da
аң
▁мен
dı
ұл
ша
дан
ты
▁2
ыст
▁э
інің
al
дық
em
ына
ект
▁да
дің
еу
▁жыл
ция
▁th
▁жү
іс
алар
▁құр
▁O
el
ak
es
▁ай
ey
▁жо
▁д
іп
▁ке
▁1
ой
et
▁v
▁бір
ақстан
um
тер
▁ya
st
ның
ур
lar
▁қар
мен
әс
гіз
▁қазақстан
▁the
ұм
атын
▁бас
ün
▁ç
еді
▁х
ей
▁ұ
ec
▁з
du
▁бар
ынша
▁p
▁тү
▁n
сы
шыл
▁жұм
дай
at
▁үш
▁өз
икалық
дік
▁ol
iz
алы
ері
ur
▁ат
лі
▁бой
асы
ог
▁қол
eğ
ден
▁бер
▁қат
ақт
iyor
▁ka
ті
▁үшін
▁сал
іне
▁бойынша
▁кел
▁20
▁S
▁көр
▁не
di
▁c
▁(
▁ел
ары
▁ин
ықт
▁ау
am
▁өн
ım
лер
ыру
лан
лік
▁yap
ok
▁қо
it
ру
▁кез
▁қал
▁өт
ya
▁ф
▁от
лек
▁пр
ығ
бл
▁of
▁ş
атт
ev
ымен
қа
▁мем
▁f
ест
▁M
етін
▁in
▁эк
is
unu
▁сон
▁дам
▁on
▁мү
▁кү
le
▁мемлек
пар
кен
edi
асында
алған
ır
иялық
та
▁қыз
есе
▁жұмыс
▁ас
іш
ех
ini
as
ız
іст
ағы
▁iç
қы
лам
стр
▁On
lı
ов
ация
өл
еттік
▁бағ
гін
им
▁ö
li
олог
▁біл
▁ақ
▁тұр
йін
▁z
ада
ке
ary
кер
▁жас
▁sö
из
▁201
▁отыр
▁әр
▁көрс
▁Б
ит
▁бай
▁ком
ah
елер
ını
▁gö
кін
▁an
▁ет
▁ек
▁құ
▁бұл
▁түр
▁жүй
▁пай
ехн
імді
қыл
▁мә
tı
de
ылған
▁için
ығы
▁негіз
▁Mary
дау
ab
▁г
ші
▁тур
▁жаң
yl
▁қызм
▁w
ca
▁көрсет
лем
▁таб
▁қор
ев
есі
▁r
▁жет
ару
дал
▁рес
сын
ler
▁söyl
▁тар
▁Bu
ылады
mak
дағы
▁мүм
қан
ілік
тын
дір
▁3
▁тең
▁баст
ana
▁мүмкін
ти
▁жоб
ul
▁oldu
ысты
деу
▁іс
ay
оном
ез
▁техн
▁değ
▁тал
ылым
▁ан
ış
гер
▁біз
ıyor
iy
▁bil
▁Ben
ілген
ысы
▁мәс
алды
▁тә
tion
▁ти
▁қолдан
▁et
дам
пт
уы
аж
▁жол
▁тө
▁ar
▁у
▁болып
▁жағ
▁и
асының
еттер
аны
пу
▁K
az
ür
▁var
ак
▁çok
ақты
▁А
▁is
▁мәсел
▁қам
▁болады
▁A
еге
аттар
dan
ерек
сп
▁есе
▁değil
▁С
шылар
яс
▁ne
▁қаб
▁халық
кіз
▁бағдар
еш
дел
▁şey
ıl
▁жоғ
ık
▁H
▁байлан
▁gör
өз
▁al
тан
▁ger
▁жаңа
den
ілі
▁олар
▁оның
әсіп
ақс
▁туралы
ег
▁Қ
етті
aş
ро
леу
▁ол
▁ұл
ik
▁to
ини
▁жүр
▁қатар
▁эконом
йым
асын
▁аз
▁Т
▁то
уға
▁қызмет
▁кең
▁бағдарлам
üz
▁ve
▁жағдай
▁оқ
лы
▁жал
▁%
▁мл
ce
▁ist
▁бел
▁М
▁деп
ұн
▁olduğ
шы
▁қос
ında
сіз
тті
ерг
00
▁үл
▁ғ
енді
▁деді
us
ыстар
▁білім
üş
ғын
инистр
▁атап
▁осы
ертт
лау
ra
▁О
▁дамы
▁шар
ol
▁в
▁орын
▁қаж
▁орт
▁5
ология
аралық
ил
▁бағы
dım
üyor
▁со
аның
аты
індегі
▁бөл
▁обл
ттық
▁су
ындағы
▁әді
▁сә
ба
ent
ед
▁4
▁орн
▁өң
там
кім
▁іш
▁мемлекеттік
▁ben
анды
су
yi
▁арн
ше
▁N
▁жүз
▁анықт
▁комп
▁ed
публ
mek
далан
▁жылы
▁ұйым
ика
ылды
▁кон
ци
▁беру
ro
▁әс
ut
ілді
ілер
▁пайдалан
ing
▁шығ
аған
өн
uz
20
▁ең
ақы
▁ди
▁маң
аш
▁л
lan
▁про
ни
▁сондай
▁дә
uş
bil
қылы
астыр
▁жүргіз
▁мақс
▁ақпар
асындағы
▁қатыс
▁дамыту
▁шеш
▁К
▁кезде
▁кәсіп
іміз
iyorum
▁ver
cağ
▁дейін
андар
айды
▁жат
▁and
iş
▁жоғары
aha
▁құрыл
üm
імен
ысында
▁хаб
тиж
▁оқу
▁арқылы
баев
▁республ
▁барлық
▁зертт
еп
орм
▁нә
▁ен
азар
ызды
ap
ada
дері
▁bu
▁сөз
лект
▁сонымен
тың
▁хабар
▁kon
▁даму
ны
▁мүмкіндік
iç
▁екі
нерг
▁düş
▁пар
eceğ
▁kad
▁D
▁жүзеге
▁Ж
▁сап
ad
uy
av
ези
▁–
алдар
ікт
▁адам
уге
id
aman
ул
інші
ынан
▁министр
▁нәтиж
езиден
▁әлеу
▁мо
▁)
▁gel
▁технология
▁бү
▁басқ
спар
▁күн
ынт
дегі
▁рет
▁ем
вт
есін
▁қр
пы
▁Bir
ңге
▁ұсын
▁Y
cak
▁халықаралық
асыз
▁жоспар
▁деңге
ра
▁энерг
▁заң
maya
▁0
▁zaman
▁президен
▁G
▁daha
▁мың
▁бағытт
▁ынт
▁жөн
▁kadar
▁қау
▁өндір
▁өнім
ания
▁бұ
▁жар
еб
▁басш
▁git
ic
▁тұ
▁би
алау
ологиялық
▁iyi
▁қамтам
eden
інен
▁тол
▁olduğunu
▁өтті
▁düşün
пен
▁уақы
▁мемлекет
▁сай
кт
▁негізгі
▁қамтамасыз
ta
▁іст
▁yar
ine
▁жалпы
▁onu
▁e
тү
▁табылады
ашыл
атты
ece
ük
▁her
▁мұн
▁çal
▁kaz
▁baş
аттық
eye
▁си
▁түс
▁өткіз
ten
ынды
▁байланысты
даст
ттер
▁үй
ğr
стер
бек
елері
▁İ
▁асыру
▁6
▁маңызды
ун
▁мат
иция
▁ынтым
лектр
қыту
▁ұлттық
▁жер
dır
▁инв
mas
eç
▁пен
дей
▁mi
▁kar
▁қой
▁Бұл
▁ынтымақт
▁ev
▁бал
nin
ыш
иб
пер
▁барысында
▁söyledi
▁Sen
▁айт
▁қай
▁сан
ına
yı
▁инвест
рд
▁көм
▁тап
тты
▁енгіз
ықты
▁қарастыр
▁зерттеу
▁ынтымақтаст
▁E
▁isti
егі
▁астан
іргі
▁өткен
▁[
▁деңгей
йк
нің
ара
dığ
▁ішінде
▁ola
▁назар
етр
еж
ент
▁7
▁тиімді
▁емес
▁алу
▁алм
▁республик
uk
▁са
▁сақт
ос
▁istiyor
▁айм
лігі
ğini
алады
▁теңге
▁экономикалық
▁дай
дары
▁іске
▁керек
▁par
dü
bilir
ақтар
▁млрд
▁сәйк
▁әлем
▁konuş
▁көлем
ki
▁sev
▁мам
▁қазақстанның
меттік
▁жылдың
▁қабыл
▁келіс
▁оқыту
▁айн
ep
сының
▁таң
▁нем
дыр
▁тер
орлар
иц
op
▁L
sun
▁нұр
oc
▁Onun
ez
▁ön
кіл
▁Onlar
▁жел
▁төмен
ум
ырм
▁ретінде
▁арналған
▁көп
▁mı
▁әлеуметтік
▁электр
аларды
unda
ans
▁компания
▁çalış
▁ету
еген
▁«
ecek
▁аяс
▁эксп
ектер
тін
▁құрам
аға
▁zor
ers
кі
▁сау
ран
си
бір
▁gerek
ation
алары
▁қалып
▁ес
тай
▁сер
▁P
-20
▁артт
еті
ылатын
▁F
▁немесе
▁pro
ист
ери
▁sen
▁bunu
▁қауіп
▁0,
▁болатын
екті
▁ғылым
▁қатысу
▁олардың
▁орта
▁ст
▁қарж
▁басқа
▁қажет
би
кіш
eş
▁8
ттар
ib
▁саяс
от
▁en
▁басшысы
▁көз
üt
▁кет
ғам
isin
▁тапс
▁тан
іт
іледі
▁son
▁өңір
▁yok
mam
елік
▁as
▁bana
uyor
▁е
ларды
▁аясында
лім
ғал
▁отырып
дықтар
▁инвестиция
ісі
▁мәселелер
▁жек
▁жұмыстар
▁проц
▁Қаз
▁for
▁төр
інд
▁ерек
▁ауыл
esi
▁10
ları
қар
▁9
▁белг
sın
stan
▁тәж
▁асыр
▁kal
▁дер
дардың
▁ер
▁жеткіз
бас
▁өс
▁қоғам
▁қоры
lik
уда
▁есепт
▁Onu
▁айту
аптар
ациялық
▁біздің
айтын
ip
▁оң
▁басқару
çek
▁авт
▁бө
астыру
▁olma
▁тем
▁hiç
іриб
▁мінд
ылау
▁yaş
▁орг
▁жасау
▁береді
асына
▁соң
діру
▁бақ
▁қазіргі
ығын
▁әкім
▁тау
▁энергия
▁тек
▁млн
ost
▁қалыпт
аруашыл
пор
▁сөздер
ок
▁сип
▁сәйкес
тері
▁кезең
▁аст
te
елі
акт
ис
есінің
▁ay
▁Biz
▁etm
▁қан
▁елдер
шілік
▁облыс
астар
▁sor
tu
dir
уі
▁кездесу
▁hak
ağ
ад
▁я
tr
▁пайдалану
af
фр
▁görün
▁gün
▁кезінде
дени
ye
▁сен
▁еліміз
аг
▁жан
▁iş
▁орталық
изне
▁onun
▁ден
▁аудан
▁ту
лері
▁арасындағы
ид
ıyorum
▁тәу
арт
▁талқыл
сіздік
▁қатысты
алдық
сі
гінің
их
dim
▁бірі
орын
▁ко
▁мақсат
▁бастап
gi
▁тәжіриб
ықтар
▁күш
▁geç
▁үкім
tan
лары
akh
қт
▁ұйымдаст
▁тұрғын
зір
▁модел
▁он
форм
▁мәлім
▁бизне
ыстыр
арм
eyi
▁қолдау
хан
▁kazakh
▁yardım
▁өзара
▁жатқан
перат
▁өкіл
▁бей
изм
▁Е
кция
дерін
▁шаруашыл
фер
тік
тық
▁қолдану
сия
adece
▁құру
urada
▁өзгер
ақыр
ka
андық
ess
дыру
тқы
андыру
▁жи
edim
алардың
са
ami
dum
▁жақ
ark
se
есінде
үй
▁көрсеткіш
▁қазақстандық
тің
▁президенті
раф
▁әсер
сті
лардың
▁арттыру
abil
▁шешім
керлер
re
істік
üy
▁Sami
▁мән
▁кеш
▁назарбаев
сыз
▁өнер
бер
▁do
▁Ç
▁әрі
▁өл
▁құрылым
▁жеке
man
амыз
▁mu
▁бүгін
ымыз
▁болған
▁бірінші
lem
▁кл
▁аш
▁Ал
іру
çekten
кел
▁үлкен
ақал
айы
нан
▁жылғы
▁еу
▁zorunda
▁матери
▁istem
ектор
▁азам
▁келісім
▁сипатт
eri
-201
▁Сон
▁әзір
▁benim
▁дел
▁түрлі
инг
▁etti
ауы
інген
▁болды
ир
erk
▁hakk
▁ma
▁айтуынша
cı
ғым
▁нақты
▁kim
oş
аларын
▁мект
ұлтан
лығы
eceğim
ағын
▁yem
▁сақтау
▁хабарл
мір
▁мәдени
рлі
üç
▁ой
▁mus
ынған
▁түрде
▁стан
asıl
ibi
иғ
▁топ
▁ақпараттық
ив
ork
тынды
▁ре
▁re
дықтан
ілікті
ені
ама
дарды
▁сауда
ede
▁ір
▁kazakhstan
▁бірл
▁деген
▁ныс
san
▁мұнай
▁астана
иль
об
▁құрылыс
▁қорғ
est
▁өңдеу
сау
▁келт
▁кейін
▁Д
▁айнал
▁misin
ри
▁con
▁тіл
cağım
ымды
▁көрм
▁sür
▁at
▁сыр
шілер
▁Bunu
▁:
▁ған
▁Тү
вер
▁öğr
▁есеп
▁орнал
▁жау
аман
▁C
▁сар
▁жин
▁hakkında
өлш
▁бұр
стар
▁co
▁белс
▁кір
ындау
▁yaptı
▁түсін
▁жөніндегі
▁бақылау
eni
▁tek
▁төрағ
ot
▁кәсіпорын
▁bilm
▁тәр
сұлтан
▁өлш
қын
ттік
естік
▁көш
▁söylem
естер
ve
алм
иту
▁de
dığını
▁istiyorum
уде
▁be
sin
▁анықтау
▁күр
ду
tir
mayı
▁келеді
дж
▁istedi
▁2015
ындай
дігі
▁l
ілігі
эк
оз
▁тәуел
ment
еттің
ere
lu
▁құж
▁қу
ылып
▁бю
▁nasıl
▁байқ
істі
▁те
50
терін
▁өндіру
ül
айту
▁gibi
▁ғана
ıs
▁19
ая
▁sa
дерінің
▁алады
▁қорытынды
▁талдау
▁мед
▁iz
▁tan
▁el
▁жаб
▁su
oston
▁дайын
▁Boston
▁дәр
аль
▁biz
▁сын
ac
шылардың
гінде
▁bul
▁өте
▁хабарлам
ts
gün
▁Ş
▁ретт
▁қыс
▁ok
дем
▁нұрсұлтан
▁жең
▁сат
стік
ылу
▁белсенді
әр
▁фун
қс
▁қайта
▁таңда
ілетін
▁әскер
len
▁етеді
cağını
ғаш
▁қас
▁il
▁we
лігін
▁ner
▁ескер
▁ие
tur
бъ
ститу
▁астам
▁енгізу
▁ғылыми
▁екен
▁органдар
▁ос
▁musun
ғанда
ından
▁biliyor
▁görünüyor
деді
▁газ
нов
▁айта
▁Ne
ейді
▁Түйін
керлік
▁жоспарлан
▁ая
▁жұмыст
▁aç
ate
▁düşünüyor
▁сұр
▁деректер
▁құқ
ылар
rans
ымал
ав
▁Н
▁экономик
▁çık
▁қажетті
▁pr
ig
әсі
▁сол
▁шет
дет
▁пайыз
▁уақыт
▁арасында
▁тұрақты
▁uy
▁өмір
▁қорғау
қат
▁тапсырм
unun
▁Р
imdi
▁ken
амм
▁мет
▁алд
▁мөлш
дердің
ицин
▁пол
делі
ақалада
▁бюдж
▁модель
leri
алығ
▁қосым
гіне
▁ұз
▁yapmak
▁болуы
▁gid
▁жаз
ылық
ғни
▁100
▁заман
▁J
▁П
ill
тта
▁өнерк
▁қоз
дерді
inde
▁болаш
kada
есіне
▁dev
▁мұ
▁оны
енттер
▁kö
▁стр
атег
▁тір
▁anla
сер
▁önce
▁сү
ğim
gil
▁басты
▁одан
▁саласындағы
▁gerçekten
ператур
▁көпт
▁мер
▁бағалау
▁табиғ
▁денсау
▁тас
▁әскери
kadaş
ий
▁көлік
▁burada
▁бағытталған
oy
arı
ыстық
▁негізінде
str
maz
басы
bir
▁hav
▁тауар
▁200
мыз
▁ынтымақтастық
роп
▁білдір
▁жүйесі
▁em
▁yapa
▁ex
▁еңбек
▁ак
▁аум
ladı
▁2016
▁медицин
▁uz
▁öl
дарын
етінің
▁дәл
▁қауіпсіздік
▁теңдеу
▁келтір
▁ге
▁dö
▁bek
▁хабарламада
▁температур
si
▁жай
уден
por
ұрылым
▁Қазақстан
iler
ысының
ларын
терді
▁2014
,5
ск
▁жоғар
▁қон
▁gitm
▁себ
бъект
▁мек
▁инду
▁бан
▁ac
▁арнайы
▁мақсатында
жақты
▁көрсетілген
шылық
қты
ықтың
▁кор
▁бизнес
▁қаси
▁ile
▁u
▁com
аттың
▁бүгінгі
▁әдіст
fen
бай
▁30
▁өр
aya
дарының
▁мектеп
ди
▁құралдар
▁пә
▁екінші
▁республикасының
inden
▁стратег
▁шығар
▁ұйымдастыру
ocuk
▁15
ферен
▁senin
▁kız
▁алматы
делген
ası
▁саны
▁пайда
ықтық
▁отырған
ғыз
ату
ov
▁көрсету
▁sadece
▁ресей
th
министр
▁yak
▁айтты
▁келесі
нивер
▁ih
▁тарих
▁яғни
▁yer
▁мыс
▁ерекш
▁мәселелері
▁ашыл
ırım
▁көптеген
ейт
ондық
▁спор
ith
▁жүйелер
▁хал
▁neden
▁büy
▁жылу
▁тон
адағы
▁бөлін
дығы
▁arkadaş
алып
tü
▁сыртқы
▁жоба
▁делінген
▁tar
▁парлам
▁елдің
түстік
eceğini
▁dur
▁көлемі
madı
▁ресур
ью
ter
ейік
▁hay
▁белгілі
ly
тердің
lık
▁президент
▁2017
▁уақытта
▁бірлес
дігін
▁Осы
▁st
ge
yle
▁сайлау
▁өндіріс
иссия
▁қабіл
▁форм
цион
ғай
асу
▁сарап
жан
▁инт
▁алғаш
ылай
▁11
▁beni
▁im
▁yüz
дарға
dur
▁толық
▁тонн
▁универ
han
▁12
▁байланыс
ity
▁бағдарламасы
алмыш
▁экспо
▁екенін
▁студен
laş
▁will
нам
ова
▁нығ
др
eli
imiz
ель
оп
lıyor
▁бек
▁with
▁қада
▁индустр
▁25
azla
▁құрады
гері
аметр
асқан
фф
▁oy
▁энергет
▁ц
ği
▁ona
▁жауап
▁duy
▁yıl
ылм
▁şeyi
tır
▁are
▁ak
▁хим
▁ihti
ғыш
▁аталмыш
▁онда
▁қатын
▁техникалық
сит
▁жағдайда
▁келген
-1
▁қарай
▁тиіс
malı
▁жүйесін
ейтін
▁болм
ci
түрлі
▁fazla
▁ірі
▁өткізу
▁ерекше
▁жүргізу
▁plan
▁қаржы
фрақ
-2017
medi
▁öğren
емат
▁arab
лен
ların
ça
▁функция
▁жі
▁Г
қатын
▁шам
ғыр
▁әдіс
▁жылға
ütfen
ли
düğ
▁қазақстанда
ергілікті
▁кер
▁алынған
атор
▁R
▁денсаулық
iniz
ayı
шылары
▁шетел
▁есептеу
▁автом
▁hat
▁иннов
▁ama
циялық
▁өткендей
▁sonra
▁инфрақ
▁yaz
▁Frans
▁әрек
▁әдістер
▁sık
▁түз
▁әлемдік
▁қарым
▁өсім
▁Neden
айда
▁орынбас
▁ақпарат
▁еліміздің
▁жақс
oğ
эконом
▁қарсы
▁бірге
▁өкілдері
larak
▁стандар
енің
▁элем
▁biraz
▁қазақ
▁жергілікті
▁Э
▁баз
▁шаруашылығы
▁кен
▁bak
тарлық
▁kap
▁жастар
орт
▁ihtiya
▁қабылдау
▁sana
тен
іліп
▁мамандар
мет
▁инфрақұрылым
қатар
▁қыр
▁olarak
▁мүш
▁ішкі
ост
▁биыл
▁кетейік
▁kiş
▁тран
▁ық
▁қозғал
▁Ш
▁тәс
elen
abilir
▁жылдам
▁Ә
▁қалыптастыру
ızca
▁И
▁san
der
▁республикасы
ması
ейту
▁ye
▁шығы
▁шешу
▁материалдар
▁or
▁қарастырылған
▁бірқатар
▁азаматтар
▁салыстыр
sa
яр
лердің
▁бөлім
▁төрағасы
▁büyük
isi
ьер
▁ағым
рді
орум
▁da
▁үз
ендіру
▁алып
экономикалық
▁üz
▁сия
tim
tım
раз
▁физ
esini
▁институ
▁болса
аларының
▁мақсаты
▁есеб
▁талаптар
▁университ
mış
▁аталған
▁медициналық
ыстың
▁ететін
▁U
еттері
▁алды
▁үкімет
амен
▁әртүрлі
иясы
ерлік
лерді
▁сияқты
▁беретін
▁tak
▁дол
▁болу
tık
▁тарап
▁күні
▁зауы
ht
▁нәтижесінде
▁сыз
▁San
▁бәс
iv
âl
фик
арту
рация
алу
alı
men
▁Bana
▁құрайды
пут
онды
▁ап
inin
▁қызметтер
yım
▁көтер
▁қи
erim
▁қосымша
▁ad
▁бет
ақтың
ылуы
▁технологиялар
iye
▁төл
рамм
ытай
âlâ
сақ
▁берілген
етте
▁мерз
ікті
ограф
▁инвестициялық
▁Ö
▁орынбасары
▁сы
▁қоғамдық
▁мәліметтер
dam
▁har
▁берді
▁қараған
▁тақыр
▁форум
▁қабылдан
ехан
▁İn
▁тіз
▁саласында
üzel
▁соңғы
eği
▁üç
▁оларды
елен
▁ақш
▁[1
edir
дек
▁теңген
нды
▁coun
ch
ілігін
▁yan
▁атқар
▁жу
▁карт
▁интер
алл
▁бүгінде
▁kay
▁үрді
▁шақыр
▁сп
алатын
▁шағын
▁gen
ландыру
▁экономика
▁dön
art
▁айтқан
▁мон
ауға
▁экологиялық
ob
▁that
те
▁14
▁мин
ow
ияның
мун
▁сур
▁параметр
▁табиғи
▁соның
▁бастам
▁бәсек
▁комит
una
iyim
▁шект
гор
аларға
ütün
жыр
▁13
▁айтып
▁белгіл
пал
дығын
алығы
▁дейінгі
▁verdi
ль
ebilir
▁Fransızca
▁із
дақ
▁дир
▁Her
лерін
▁теор
▁өзгері
if
істер
▁Сонымен
емьер
▁саяси
▁it
▁аудар
▁қала
▁insan
неше
ırak
▁факт
▁emin
▁gitti
лығын
▁his
▁olacak
▁тұрақт
▁Sanırım
ығының
ьютер
▁un
▁mut
▁қаң
▁2013
▁математ
ттің
иг
қару
▁тасымал
ika
▁бая
▁кем
dür
▁тапсыр
од
▁kit
▁Senin
іпт
▁kur
▁конц
ven
ımız
▁sat
▁жобасы
▁18
▁Ley
▁комиссия
▁бұдан
▁нығайту
▁мемлекеттер
▁спорт
▁мар
▁Leyla
uc
егінде
▁өнеркәсіп
▁;
▁қытай
▁bırak
▁қамту
ікір
▁çocuk
düm
▁жоқ
▁кәсі
▁сайын
▁аяқт
▁салалар
▁hoş
шісі
▁бат
elop
▁asla
орлық
▁olur
▁yaptığ
▁Benim
mıyorum
şı
ula
▁алаң
▁yal
▁кешен
▁Ө
итм
▁шығын
▁бірнеше
ast
▁50
▁тарту
еде
▁жақсы
▁өзге
екторы
mem
tic
▁пән
▁тұл
▁шығару
▁develop
tal
гіш
▁өзгерістер
андыр
▁this
▁geri
▁izin
ydı
▁ықпал
▁ағымдағы
dın
▁тәсіл
▁басым
▁тексер
▁қаңтар
ақта
▁geldi
▁пікір
нем
уль
▁депут
▁дамытуға
▁нәтижелер
▁еураз
еміз
▁істеу
▁өлшем
ect
tions
▁толықт
ілдіру
▁темір
сына
анд
▁дү
ünü
▁елбасы
▁көб
▁ресурстар
▁saat
▁мөлшер
горитм
▁әрбір
etti
▁кей
▁серікт
iyordu
masını
▁нысандар
▁жетілдіру
▁countr
▁Ona
▁gece
▁Ar
▁жа
▁технологиялық
ейн
▁өту
▁year
▁объект
▁үдер
▁республикалық
yon
▁жатыр
тау
ығу
▁аг
тив
up
ken
асты
▁еуроп
▁әріпт
ауи
▁kul
ola
▁kaç
шар
▁(1
▁жұмыстары
▁16
▁оған
▁премьер
▁нар
▁әл
▁заттар
▁алғашқы
▁басқарм
▁бұрын
▁шең
▁мәж
ımı
ици
▁тоқт
▁көмір
ef
eb
еда
▁etmek
▁ala
▁қамт
▁жасалған
▁шаралар
▁көмек
ғының
▁ap
▁кәсіби
▁жеңіл
▁өзінің
▁өсу
▁хабарлады
,2
үкт
meye
▁haf
▁шек
idir
ина
▁тік
пл
▁I
ах
▁басп
▁gü
▁қатысушылар
▁З
іңіз
▁механ
▁қадам
▁мекем
▁жылдан
▁ik
▁құб
▁болашақ
eler
▁шеңбер
▁министрі
▁саясат
▁мас
▁қажетт
▁тараптар
▁Lütfen
,6
стү
▁орындал
▁sah
larını
▁бағыт
ларының
▁Hiç
▁жиын
лықтар
▁po
▁ұш
,3
▁салыстырғанда
rar
есс
▁тағ
▁салу
▁кәсіпкерлік
▁банк
▁жетек
▁үздік
▁Мұн
егімен
▁hiss
гог
▁adam
▁жем
▁res
▁арт
▁дағ
▁келе
▁өзекті
▁жеткізу
есті
▁erk
▁inc
▁бұұ
▁olduk
едагог
▁тұрғы
▁міндеттер
▁ам
лігінің
ати
▁баян
gr
iti
▁17
▁им
блем
азм
▁тағы
na
▁сала
▁кеңес
▁güzel
▁алгоритм
▁артық
истік
ференция
▁кур
▁Мақалада
▁göz
imi
алығында
нен
▁kork
терінің
▁заңнам
,4
ланған
▁тонна
▁қызметі
▁ұйымдастыр
▁өзін
ограмм
▁olmak
▁жүйесінің
йт
йді
▁маман
▁inan
▁саб
▁заманауи
▁құрылысы
ебі
▁жш
▁dış
▁терм
▁хабарлаған
то
▁алдын
▁студенттер
ыңғай
ının
▁дәреж
▁орналасқан
likle
irdi
▁Ф
▁has
▁bekl
ациялау
▁жария
▁метр
▁ora
▁кр
▁ауқ
▁жшс
lış
шаған
▁ғал
далған
іліс
сында
ғылар
▁шетелдік
▁сатып
анда
▁şimdi
▁кәсіпкерлер
▁интег
▁'
▁wh
▁үлгі
unuz
ғына
ығына
ілері
▁пайдалануға
▁сом
▁нүкт
▁тұтын
▁j
▁vardı
▁сапар
▁реформ
▁бірлескен
eh
енті
▁ağ
▁хабарлағандай
▁all
▁Sana
▁маш
▁tut
▁дем
▁компьютер
ымы
ыста
▁инновациялық
ми
▁басшысының
▁öd
▁істер
,1
▁пер
уз
уір
ster
▁екіжақты
елген
▁көмегімен
,7
▁пл
ran
ысқа
▁өнімді
▁нау
din
▁have
▁тарт
▁алуға
илли
▁терең
ығыз
▁келтірілген
,8
▁fark
30
me
▁ах
▁проблем
сур
▁our
▁қосп
▁қызығу
▁жағдайлар
▁hâlâ
▁бағыттар
econ
▁мик
▁көрсетеді
▁seni
эфф
▁асс
ілуде
олық
hn
▁жаңғыр
▁негізделген
се
▁ынтымақтастықты
▁әзірлеу
▁dil
▁hiçbir
▁ағын
▁doğr
ala
yız
▁орнат
▁Sadece
▁теңгені
едел
▁сипаттам
▁biliyorum
▁қару
▁жұмыспен
ивті
ысын
▁азия
ding
шысы
▁қаржыл
▁karşı
▁әдісі
▁шын
▁сондықтан
▁қорытындысы
os
ial
▁gitmek
▁зор
▁comp
▁орган
▁жаһ
likte
▁by
alar
▁реттеу
ету
▁den
▁regi
▁күрделі
▁жолдау
▁жоғарғы
▁um
▁дүни
ыстыру
▁сапасын
htem
esin
орда
▁туризм
▁қағ
▁орташа
▁қолданылады
▁одақ
lü
▁әкімі
▁жүйе
▁ihtiyac
▁yol
▁парт
▁тоб
▁ауру
ilm
▁Çok
▁облысының
▁ақт
▁милли
сін
▁bit
▁nerede
▁химиялық
▁la
▁тығыз
▁өндірістік
▁қараж
▁kullan
▁екенді
▁aldı
ея
▁çek
▁жүкт
▁құжаттар
ерт
▁талап
▁сұ
қим
ттың
▁бес
▁алған
▁An
▁орындау
▁сіз
тқ
▁бұз
▁нәтижелері
ерттеу
▁аса
▁қауіпсіз
-2
▁exp
▁Бір
▁ері
lığ
▁мерзім
▁дәстү
▁Қазіргі
▁топыр
ыб
▁kat
▁сем
▁fr
▁Bunun
▁кезегінде
▁айтқанда
▁мәдениет
▁там
▁шик
eki
▁даяр
▁жақсарту
▁yeni
htemelen
▁алдағы
▁арқ
▁дайындау
▁uzun
оль
▁еуразиялық
▁министрлігі
елей
▁сәул
жырым
лікті
sız
▁болж
ғыс
▁değilim
ub
оры
инам
▁норм
ылайша
qu
▁коэфф
▁алатын
▁мүмкіндігі
▁ediyor
▁гид
▁сапалы
▁реж
асымен
▁барлығы
▁жалға
гілер
▁үнем
ағында
ies
lara
ational
aret
▁қазір
▁конференция
▁güven
▁inter
тур
▁Dün
▁тел
▁неси
едж
elim
▁жабдық
▁қоса
▁ilgil
ометр
ғалім
▁дамуына
▁жетістік
▁директоры
▁ру
тал
▁өңірлік
▁ядр
▁2020
▁жаһандық
▁жоспарланған
▁ara
madım
▁Yar
▁халқ
▁тұжырым
ілу
▁дейді
▁fik
▁oldukça
▁тұтыну
od
▁кейбір
▁отандық
▁дұр
▁gerekti
▁жібер
▁қалдықтар
lerini
▁тр
▁kayb
▁қорған
gin
▁region
▁әк
▁қоршаған
▁öz
▁граф
▁kişi
▁dün
▁yağ
▁аймақтар
▁атқару
нд
амбл
▁karar
▁білдірді
▁үст
▁сенімді
ылы
ман
▁бу
муник
000
▁жуық
▁doğru
▁yemek
,9
▁tekrar
▁мақалада
▁бөлігі
техн
▁зия
▁жөнінде
▁Ger
▁тәуелді
ұс
ous
▁kır
▁kötü
емен
deş
▁микро
ret
▁yet
▁күй
ациясы
▁дамуы
▁бастапқы
▁iki
▁oda
▁әдістем
kaç
▁dav
рат
мер
ади
едом
▁not
▁gerekiyor
▁ерекшелік
▁әу
▁асп
▁хат
eyecek
▁оңтай
ылығы
▁Şimdi
▁отан
▁талқыланды
ств
арлық
▁ведом
ist
▁қызметкерлер
▁педагог
▁he
▁мак
▁work
▁салық
ör
ildi
інше
ларға
▁мәселелерін
▁опер
anı
▁açık
▁sab
▁көң
▁sp
▁теңгеге
▁маңыз
▁тікелей
истикалық
▁birlikte
итор
▁ayr
▁ot
▁қондыр
▁коэффици
ақтық
лерінің
арыш
▁шығарм
▁жылдары
▁söylüyor
айлы
▁бағдарлама
▁шеңберінде
икасы
▁başka
▁көрін
▁қыш
for
▁сот
▁development
▁қаш
▁hafta
▁құнды
▁V
ver
▁oku
міз
▁арттыр
▁тұрады
▁mer
▁40
акция
▁оңтүстік
duc
▁haz
қынды
▁сандық
▁математикалық
есу
▁әй
▁қаласында
▁аралығында
▁Рес
▁бекіт
▁осындай
▁технологияларды
nı
▁астанада
▁кар
▁пал
азмұн
econom
▁өтетін
ице
tive
▁şek
mıyor
raf
▁Z
▁söz
▁вице
▁орталығы
тіб
▁bilmiyor
аус
▁аб
▁таныстыр
▁халықтың
▁алын
▁ведомств
▁eğ
маты
▁top
▁көңіл
ren
▁тасымалдау
▁ала
▁ци
▁мүд
▁кеңейту
▁жаңғырту
▁электрондық
ме
▁нысан
▁әкел
▁hoşlan
▁стратегиялық
arım
▁жобаларды
▁мең
▁құны
ашылық
▁ядролық
▁зерттеулер
астан
▁Burada
▁В
▁eve
▁сенім
втік
▁шикіз
ілім
иясының
рт
lic
▁үйл
▁мазмұн
бе
mel
▁pe
iydi
▁тәртіб
▁ассамбл
мд
деп
▁шығыс
▁değildi
▁иде
▁қарап
▁kardeş
müyor
▁тиісті
azı
ғыл
▁атындағы
▁арал
▁olabilir
ип
▁бюджет
▁ediyorum
▁kendi
ğer
күй
▁imp
port
шылығы
▁мәселесі
кір
▁bur
шының
атының
▁анықталды
▁kab
▁kazan
▁taraf
▁құрамы
▁мұғалім
umu
терге
▁өтін
ızı
▁игер
▁Bugün
▁ter
let
▁айтарлық
▁орай
▁себеп
üp
▁орны
esine
▁ann
▁өтеді
ттықт
▁2018
▁деңгейде
▁арқасында
og
лай
ara
lion
▁olmadığını
▁21
▁мемор
▁ч
▁ch
▁меңгер
▁айтарлықтай
дады
▁пав
▁таңдау
tığ
▁siz
▁режим
▁жылдар
▁жобалар
▁келетін
▁программ
▁Ұ
▁асыруға
▁маг
▁эт
edey
▁қойм
▁экспор
▁деңгейі
▁құттықт
жет
amam
▁ser
▁inv
edin
▁dik
▁облысы
тінді
▁değiş
▁заңды
arkı
▁econom
▁қасиеттер
▁сө
▁қаласының
▁ten
▁шектеу
▁индустрия
▁olmalı
▁кан
▁state
▁себебі
үз
атта
▁бола
сөз
ıldı
▁кіт
undan
▁yaşa
şam
стің
▁мол
қимыл
▁yapıyor
кур
▁көрсетті
аттары
anın
▁кест
▁дұрыс
тары
▁жөндеу
▁мәжіліс
▁қарағанда
ğin
дерге
▁қиын
▁gerektiğini
▁70
▁hem
▁tel
спект
▁нары
▁қауым
▁muhtemelen
анған
аттандыру
амб
дету
iyorsun
▁бірікт
▁талқылады
▁металл
екте
әсім
▁yapma
▁деңгейін
жол
▁was
▁Алматы
▁Siz
▁кол
▁лог
ылуда
әрек
▁hep
mayacak
▁es
▁para
▁sh
▁бөлш
▁элементтер
▁le
ттері
▁қаржыландыру
гн
▁mem
зыр
▁No
келген
▁концент
▁мөлшері
▁өлшеу
пи
▁24
emiz
ілуі
▁din
▁аймақ
уына
▁парламент
mez
▁мал
▁Х
and
▁bize
плом
ализ
▁Seni
▁ойын
▁айында
▁биылғы
ерм
▁мәселе
▁тәуелсіз
▁unu
hangi
▁байқау
тп
азарбаев
▁тигіз
asında
▁кеден
▁тың
▁қызметін
▁az
кеу
▁kitap
▁практ
▁диплом
▁кешенді
▁ұн
▁aynı
▁үлесі
▁olan
аусым
▁нұрлы
▁компон
дин
enüz
▁ради
▁жұмыстарын
▁bizim
▁назарбаевтың
▁satın
▁делег
ала
üst
▁ресми
▁üzer
▁қандай
кені
иф
▁таз
▁ақпаратты
▁дін
▁hazır
▁İngil
▁рөл
uyorum
▁мемлекеттің
duğ
айым
▁орында
шілігі
▁тарихи
▁бірақ
▁кедер
▁тәрби
▁пайызға
тең
▁тақырып
▁қорғаныс
out
▁aş
▁мәселелерді
біт
▁ab
дандыру
▁otur
министрі
▁kala
▁жалғаст
kat
▁ашық
дырылған
▁Сондықтан
аэ
оң
siz
▁ауқымды
▁есебінен
▁yür
▁үшінші
▁палат
ви
meyi
имар
▁жап
▁осыған
▁қойылған
ant
▁new
▁егер
▁қара
▁әкімді
▁орындар
ke
abı
▁облыстық
▁қарқынды
▁энергетика
▁жұ
▁келіп
nın
▁аген
тқыш
▁ген
▁жағынан
елеу
▁ұлт
▁тарапынан
▁мұндай
жым
тыр
▁айқын
▁bah
▁şarkı
шылықтар
▁төрт
▁балалар
▁=
▁жақын
▁der
▁жедел
▁факторлар
▁acc
▁ұст
▁ұзақ
▁тәжірибе
tür
▁инвесторлар
ahat
▁bab
▁Ү
miş
laya
▁бейбіт
▁зерттел
ану
▁мұр
▁син
▁кеңесінің
адр
▁sahip
▁бәсекеге
▁ереж
▁өсімдік
▁сөй
▁тұлғ
▁үйр
▁келіссөз
▁1-
▁ғалым
mer
oun
▁Ол
▁етті
▁станция
андум
▁merak
tik
▁mutlu
▁sorun
▁bile
▁стат
▁hayat
▁mil
▁меморандум
▁байланыстар
мент
▁спект
▁istemiyorum
аев
▁199
▁күт
▁orada
▁жасыл
▁туристік
ri
тардың
ber
gun
▁жүк
▁сый
▁шарттар
▁шы
асыр
▁hatır
▁ə
▁тиімділігін
▁түрі
▁әдістері
▁bugün
▁op
▁unut
▁yapmaya
▁құрылған
▁қазақстандағы
öz
▁мерек
атқа
▁country
асөз
▁нұс
▁әйел
▁бүкіл
ime
▁am
▁дау
▁mü
▁желілер
▁процестер
ло
▁жұмысын
дап
▁60
▁сүй
ысына
▁/
әсіб
▁ғимар
▁баспасөз
tor
▁құзыр
▁тұратын
▁giy
▁нан
▁Daha
қу
▁ғарыш
edeyse
▁bütün
▁bo
▁koy
▁ретте
▁ұйымдар
зия
▁miyim
▁дәстүрлі
алуы
▁kend
▁цифр
едер
▁sak
▁дәлел
аттандыр
ографиялық
gul
ілм
▁peop
▁olduğu
ург
▁модельдеу
▁x
ыны
▁0,4
▁Кө
▁көшбас
▁22
үл
▁çalışıyor
тивті
▁дамытудың
▁İş
▁köp
▁ескере
▁жобаны
▁маусым
▁tam
▁öğret
▁сұран
ілде
▁қою
▁düşünüyorum
day
▁қылм
▁қолжет
ңгі
▁рәсім
eyeceğim
▁деректерді
▁қарастырылады
ко
бен
▁кап
▁өнеркәсіб
шік
enin
▁қысқар
ңг
▁str
енген
▁мыңнан
▁önem
▁birkaç
▁Baş
esiden
▁май
▁сұй
деріне
▁дамыған
▁Gerçekten
▁арттыруға
▁физикалық
diş
üçük
▁құрал
▁göster
▁Ken
назарбаев
▁бірыңғай
тр
ұлы
▁kez
▁ұсынылған
ted
▁қалп
▁kimse
▁қызметінің
епт
омп
▁0,5
▁тексеру
▁оқушылар
▁get
▁түй
▁жобасын
▁23
▁İngiliz
▁olacağını
нді
сек
▁атты
▁ister
sı
▁bö
ілеу
▁yaln
▁söyle
▁министрлік
ігер
▁kah
▁серп
қаз
asını
▁тұжырымдам
▁қолданылатын
00-
▁Республ
ындығы
▁mısın
▁жерде
қо
ebil
▁қабілетт
▁Ин
aten
▁from
▁сағ
masına
▁ортақ
ісін
▁Beni
▁электронды
ff
рыз
егей
еттен
ттары
▁аппар
▁қатысады
итал
▁бос
▁yapar
▁қышқыл
ement
▁енді
▁28
eyin
ivers
▁шамамен
▁компаниялар
tin
▁Kim
▁жолы
егіз
▁doğ
ром
▁сек
қорлық
▁транс
▁фаз
істің
▁халқы
▁жасауға
▁басшылары
▁қолайлы
▁bilmiyorum
dun
tın
▁іл
алог
▁dışarı
▁парламен
қсан
▁nedir
tar
▁öğ
▁сигн
басының
▁тұрған
▁айналыс
▁қауымдаст
▁еңб
▁yoktu
▁салын
▁people
▁алмасу
▁бағдарламалық
▁Al
адем
нет
▁ek
▁жүргізілді
▁фот
▁этн
▁Herk
alan
ежүз
лерге
▁мысалы
▁Ос
▁ластан
▁me
▁түрінде
▁қолжетімді
ани
▁баға
▁Onların
▁облысында
ign
▁nef
▁мәні
▁порт
▁сектор
▁берілді
▁бағдарламасын
▁bağ
▁onunla
▁бері
▁минер
керлері
▁жылына
gın
хим
▁кеп
▁кри
▁бөлу
▁жұмысы
▁ни
▁болсақ
▁қалған
▁конститу
▁министрлігінің
▁дост
▁идея
▁теңіз
еди
▁26
▁кездес
efon
▁қосу
iyaret
ore
eşgul
▁операт
оғ
emek
▁нақт
ediğini
іміздің
▁анықталады
▁araba
▁ғасыр
ilde
инар
▁динам
çok
▁ұр
▁proj
▁Л
▁салм
▁қалпына
▁еаэ
▁құбыр
▁түсіндір
▁құрайтын
enc
лап
елерін
іңізге
▁қызыл
▁соңында
▁әлемнің
▁tarafından
▁құқық
▁сор
▁кәсіпорындар
▁уч
▁жинақт
▁жылдық
ince
ян
өбе
▁sır
▁bas
▁концентрация
tiv
ималды
▁еаэо
аушы
▁rep
▁құқықтық
▁ұсыныстар
▁бейн
▁invest
▁арда
▁білікт
▁сұрақтар
▁қатынастар
aç
▁кеңінен
ля
ated
▁кв
▁жатады
осфер
▁жетк
▁бағал
техникалық
сид
▁Ev
▁biri
▁алынды
▁ziyaret
▁картасы
▁ilk
düğünü
▁[2
apon
▁ерітінді
▁академ
▁бірлесіп
iyle
асынан
▁kola
ыстағы
▁тыс
ативтік
acak
ессия
▁dikkat
▁қазақстанға
▁herk
▁инвестициялар
▁жалғ
▁атқарушы
▁табылатын
▁экономиканың
сен
▁li
▁hız
▁iy
▁akşam
▁механизм
дейді
▁естер
▁yemeği
3]
muş
▁gir
▁suç
▁көк
далды
gan
▁En
▁жобалау
▁жауапкер
рек
alık
ференци
▁başladı
▁азаматтық
▁жәр
▁отын
▁çıkar
▁етуге
▁азық
елерді
▁беріледі
▁құрамында
обиль
▁produc
▁27
сурет
▁тест
▁қана
▁қосымш
▁дүниежүз
."
▁kabul
▁материал
▁компьютерлік
оген
кцион
лігіне
▁cev
▁meşgul
adı
аск
тып
▁sabah
құ
▁тақырыб
▁айтылған
▁міндетті
emi
▁жою
иканың
теріне
▁wor
▁мақсаттар
▁seç
▁бөлек
▁перспект
▁бойы
озиция
▁kıs
▁зауыт
▁наурыз
▁қарама
▁жұмысқа
▁2012
аторлар
▁стандарттар
▁км
ities
▁yaşıyor
alım
▁Зерттеу
mur
▁шара
▁маңызы
атур
стру
▁әб
▁муз
іресе
▁мүше
йткені
▁artık
▁түсті
▁öldür
▁mas
уын
▁прин
▁алғанда
▁almak
▁тізім
▁кеңейт
▁yapmayı
▁жылдарға
▁екендігін
ұқс
ысалы
▁орталығ
gis
▁80
▁can
▁айналды
▁қалалық
▁қазақстандықтар
leş
рон
▁Jo
тифик
▁энергетикалық
üs
▁yapmam
▁presiden
неу
▁Ақ
▁алтын
▁düşündüm
▁елдердің
so
gram
medim
еледі
▁өтіп
оф
▁федер
▁саласы
▁өнімдерін
оқ
▁tamam
▁даярлау
▁дайындық
▁педагогикалық
▁ашу
▁erkek
ich
▁bunun
ымыздың
▁şekilde
▁см
▁мына
▁өтініш
▁елімізде
ide
cağız
▁нұсқ
▁ki
▁ұлы
▁Bütün
▁қатты
▁шығармашылық
▁үм
▁Japon
uğ
▁қаласы
▁стратегия
miyor
▁етіп
▁асырылады
▁президентінің
айын
▁istemiyor
▁man
▁көл
▁Onunla
▁субъект
▁құрамына
▁ы
▁ок
▁teş
struc
▁кадр
▁sevdi
▁içinde
▁көмект
▁değildir
ern
ünde
▁kolay
▁қолдануға
▁sanmıyorum
▁бо
ekk
▁зерт
ization
▁sağ
▁сүт
аймыз
▁жобаның
▁tra
▁қатысуымен
▁инж
▁жүйенің
▁мұнда
қыш
▁сез
▁кіріс
▁көрме
▁машин
▁азайту
▁өзгерту
▁бағдарламасының
▁ды
▁масс
сынан
▁оқушылардың
▁29
▁Bel
▁диаг
▁мекен
шара
▁boy
▁кітап
ут
▁ки
▁endiş
▁келтіру
осф
▁John
▁желто
▁теңдеулер
▁құрылғылар
▁барынша
▁istediğini
мын
▁ег
есте
▁істейді
▁konuşmak
▁жағдайында
түлік
üc
▁қх
▁intern
▁алдында
yla
▁диф
▁әңгі
▁sever
▁yalnız
▁түрлері
▁жемқорлық
газ
удың
▁geçir
eration
▁söyledim
▁еркін
lama
▁хол
аттау
спары
▁comm
▁рұқс
ld
жыл
▁şaş
▁кіш
▁küçük
▁тмд
▁кезеңде
ellikle
ус
▁ұқс
▁şans
шілердің
▁компаниясы
ард
▁2-
▁Yarın
▁жылда
▁төлем
kan
▁арту
▁ауыр
▁қолдана
қым
▁жоспары
▁нәтижесі
ledi
▁қашықт
ырау
▁dol
▁проф
▁қызығушылық
▁перспектив
▁жоспарлануда
ка
лас
daki
▁кес
елерінің
▁yaptığını
▁тәуелсіздік
▁taş
▁агро
▁отырмыз
▁іскерлік
▁қарапайым
▁ag
▁gro
▁önemli
▁аламыз
▁herhangi
рі
ion
▁елбасының
▁(2
▁біріктір
ган
▁тұз
4]
urs
уіне
овтың
▁елді
▁ардагер
▁жағдайы
▁осылайша
▁0,6
eti
мол
▁бен
▁бірт
мосфер
тады
▁суб
▁кері
▁класт
▁интеграция
▁бағдарламалар
▁жұмс
▁аймақтық
▁өнімдері
▁анықталған
ыстырм
ациялар
▁миллион
▁үлгілер
▁жоспарлау
▁gül
туалды
▁дүниежүзілік
формат
▁қырғыз
▁естеріңізге
▁дағдар
▁қыркүй
ида
▁таны
lardan
ылығын
▁бөлінген
лерде
▁evde
▁devam
▁yeter
▁моделі
ekkür
▁құжат
ылыстар
▁görmek
▁president
▁dok
▁dak
▁қалалар
▁аумағында
▁көлемін
тация
▁Негіз
dık
▁Herkes
▁салтан
ğimi
▁Егер
▁шешуге
кәсіп
,0
▁аэ
ғыст
▁термин
▁істейтін
▁қатарына
emez
▁tav
▁әзірл
▁құруға
▁жасалды
ғу
▁hast
бел
deki
▁құрылымы
▁жиынты
даған
▁әкімшілік
ма
▁еш
▁үлес
▁program
▁еуропалық
таб
▁ban
зімді
▁алайда
ылыс
өнер
▁fir
▁іздеу
▁үрдіс
▁принци
▁семинар
▁әріптестік
▁қарастыру
▁бағыты
▁бірлік
▁сапасы
▁дипломат
ісінің
▁parti
▁соңына
▁оқытудың
▁опт
▁yapabil
▁қарағанды
▁ю
ланд
ublic
▁eder
▁өзен
fa
cation
бет
▁there
▁тарат
ısı
▁bin
лығына
ыстары
▁жаңарт
▁корпор
▁алғыс
бат
ikay
▁Son
▁дан
▁есеге
▁сомасы
▁монитор
nun
иев
▁davran
▁nefret
azar
▁konu
▁Çocuk
▁жасақт
▁келісімге
ілт
▁ұк
іктеу
ленген
▁менің
▁зейн
▁ұғым
▁evlen
▁батыс
tak
▁35
▁өк
тарды
абақ
▁дайында
▁өзіндік
ici
yan
тіп
тағы
тылған
▁жоспарланып
лым
талған
▁tanış
▁орнату
olis
▁fin
▁түрк
▁төменгі
▁дифференци
▁бл
▁yalan
▁алдымен
асс
атри
тор
▁тізб
▁жетекші
▁кедендік
▁коммуник
▁gön
▁günü
▁part
▁дағды
▁шаршы
▁ilgilen
▁толықтыр
▁деңгейдегі
▁ис
▁kil
▁еді
▁топт
▁І
▁ast
ықтыру
▁tür
▁жарт
▁kesin
▁зейнет
▁telefon
▁акт
iness
▁әсері
▁ақтөбе
▁болжам
дандырылған
▁химия
етикалық
▁görünüyordu
▁henüz
▁num
▁жүргізілген
10
25
▁интегр
üks
адан
▁ауыс
▁zaten
▁yanlış
reas
елердің
атр
ник
▁Av
▁yor
▁ион
▁атом
▁шарт
▁tenge
▁қойылды
▁қалай
▁өндірісі
▁di
eşke
партам
▁жеткізді
▁шо
ерлер
▁сурет
▁eminim
▁зертхан
ыстырмалы
▁саналады
▁делегация
dığı
▁götür
▁бейім
▁қаржылық
▁кезіндегі
▁erken
▁economic
▁солтүстік
ЕР
мә
iyiz
▁oyn
▁жұмыста
);
▁ур
▁учаск
▁заңнамалық
ds
хани
▁мод
аушылар
▁үйлест
bol
▁бәсекел
▁ihtiyacım
▁бизнестің
▁bus
▁еске
аттардың
▁департам
ks
▁sup
тарының
▁таныс
?"
▁терр
▁принцип
▁countries
▁gerçek
▁өйткені
▁ұзындығы
-2020
▁kapı
▁акция
аса
▁басқарма
▁айырм
▁мамыр
▁әсіресе
▁мүшелері
▁neredeyse
▁бейбітшілік
жай
лодар
▁teşekkür
▁ку
▁Keşke
▁жауын
▁mo
▁Біз
▁Жоғ
дыңғы
▁genç
▁cevap
▁rahat
йр
▁Ann
▁әсерін
▁мүмкіндігін
▁world
▁vardır
eme
▁us
▁елдерінің
▁шаруашылық
▁қарау
▁өнеркәсіптік
▁шекар
▁impor
▁автомобиль
▁қабылданған
▁моб
▁accor
▁әкімдік
▁serv
▁табысты
▁seviyorum
▁комитетінің
▁менедж
▁değiştir
ğı
ықта
▁hal
іктің
▁şeyler
▁mak
▁функцион
дану
▁өсті
▁келді
▁адамдар
▁бастады
▁ауа
ekler
lement
▁hayal
▁кодек
▁айналым
▁талқылау
▁төмендеу
таның
▁Biraz
▁aptal
▁hızlı
▁гидро
▁first
▁ведомство
▁серіктестік
еф
ekli
▁қамти
▁başına
emem
▁Ora
▁Belki
▁which
▁қысым
бин
lemek
▁сапа
▁қарамастан
▁ойлау
▁importan
кө
▁işe
▁тор
▁başla
▁аху
▁тип
▁инжен
▁мүмкіндіктері
далы
▁Жұм
uyu
lıyorum
▁технологиясы
ağı
▁ail
▁tanı
▁жүктем
▁критер
▁çalıştı
▁жұмысына
▁sı
елек
▁Қар
▁білу
▁ederim
▁сөзінде
▁ассамблея
▁объектілер
шын
▁өнімнің
▁Әр
итын
▁жүргізіледі
umuz
▁Yap
▁say
▁okul
▁[1]
▁cre
dustr
▁oyna
▁buraya
▁ерекшелі
▁жабдықтар
▁агр
▁тез
▁aldım
▁белгі
▁оларға
▁әрекетт
▁әлеуетін
▁сарапшылар
пр
ыққан
▁тұрм
▁бұған
▁бөлік
дерімен
▁кернеу
▁рухани
▁сапары
▁Негізгі
▁білімді
5]
інді
▁өзі
▁Түйінді
▁uzak
▁бөлі
▁eğlen
▁табыс
▁транз
бол
аққа
▁Bab
▁қойды
▁alt
альды
▁cent
ативті
▁şaşır
▁полим
▁Onları
▁Eğer
▁soru
▁жүргізілуде
▁çev
▁түсу
▁фран
▁элект
▁прокур
дарына
▁негізі
▁yapacak
▁мектепт
▁салыстырмалы
▁du
истр
▁Hay
ағының
yın
ұрлым
ғында
▁tane
▁кету
▁ұстан
▁бірдей
▁рұқсат
▁Kö
▁boş
larım
▁mini
▁берген
▁қасиеттері
çı
▁were
▁сынып
▁экстр
▁қанағ
икасының
▁business
▁дамуының
▁қабілетті
▁31
▁сүру
▁ұжым
▁ақмол
▁бастау
▁атмосфер
ıcı
▁0,7
▁red
▁bitir
▁getir
▁орнын
▁қолға
▁herkes
▁hissed
▁алдыңғы
▁облыстар
▁айқ
дайды
▁тапсырды
ektu
▁берм
igh
▁yiy
▁more
▁мобиль
▁increas
рит
қыз
▁bel
▁ұрп
▁trans
▁күкір
eyebilir
▁yapabilir
ön
▁ettim
▁қуатт
▁қайрат
ант
▁than
леріне
▁түзету
▁bazı
▁конт
атынын
▁адамның
▁маңыздылығын
▁As
▁еуропа
▁спектр
▁аударды
▁жұмысының
▁өздерінің
▁төрағасының
▁тұт
düğüm
беков
истер
▁been
▁süre
▁кейінгі
анитарлық
▁органдардың
▁Par
▁қазан
▁etmeye
▁көзқар
▁құрылды
▁yarın
▁ықт
▁желі
▁коммер
gy
▁ұлғ
ағына
▁bula
дығына
аф
▁pla
ымдық
▁бірегей
▁цифрлық
▁құқықтар
▁500
ындайды
▁белару
▁кат
иканы
▁тазар
▁kaldı
▁Мұндай
▁жасайды
▁қамтиды
▁қосылған
▁бағыттары
▁zorundayım
▁і
▁раст
▁жасап
▁анықтауға
▁энергиясы
сты
▁3-
eket
▁тұң
▁astana
▁gördüm
▁ayak
amıyorum
▁белгіленген
хем
▁piş
▁формул
▁орындары
▁келіссөздер
▁90
▁лау
▁қысқа
▁кедергі
мат
▁бөлінді
▁national
тегі
ыңыз
▁Amer
artesi
▁балабақ
sp
▁Dan
амбыл
ықтан
▁Geç
▁tüm
ларына
▁бұйым
sem
▁alış
ығымен
▁шілде
▁толқын
▁тиімділігі
үр
ects
▁тұңғыш
ермания
▁физика
▁көрсеткіші
ож
пай
▁кепіл
енттері
▁аралық
▁olduğumu
▁implement
▁Bur
▁әуе
▁жану
аларына
▁тоқталды
ates
▁шеб
▁келеш
параттық
химиялық
▁экспери
ure
▁benz
▁диалог
▁тәртіп
▁international
tış
eyim
lantı
▁макс
аттарды
▁сараптам
лю
ice
overn
▁иран
▁сәуір
▁billion
▁әлемдегі
▁теориялық
ors
▁бала
▁seninle
алыс
▁жәрдем
▁құрастыру
▁алға
▁өзбек
uld
van
герлік
аландыру
pr
▁мм
▁sal
▁мей
▁head
▁istemedi
▁орталығының
eydi
▁мақ
аттам
ография
формация
▁қаражат
▁İngilizce
сымен
ақтағы
▁today
▁отбас
▁қосқан
izi
▁uyu
▁шақ
▁about
▁интел
malısın
лендіру
▁құрылымдық
ош
асп
әуір
▁гек
▁ақмола
▁industr
▁практикалық
сор
▁жын
▁роб
▁gönder
▁жүйелі
ence
кент
▁bar
larla
▁университеті
ava
▁yo
trol
asyon
▁coop
▁өнімдерінің
на
уды
алын
dığım
▁temiz
▁ортаға
▁Gel
ultur
▁плат
▁тіркеу
▁дәрігер
▁миллиард
▁отырысында
ıla
қай
тігін
▁гран
есімен
▁Жоғары
▁қарқын
гр
икл
▁bulun
▁partic
▁Мысалы
▁мүшесі
▁түседі
▁облыстың
▁көлемінде
▁энергиясын
АЛ
▁жайлы
▁memnun
▁толықтыру
ded
fer
manı
▁Ner
▁yedi
uyordu
▁istedim
▁söylemek
▁нығайтуға
▁жылдамдығы
сих
▁müz
cağımı
ектері
шілері
▁есепке
▁ұсынды
▁бағытта
▁мәселесін
ish
mal
таев
sunuz
▁импор
▁көрмесіне
▁Şu
angi
▁300
▁тын
▁дамып
ентінің
сь
▁диз
▁кам
▁оқы
▁yüks
▁görüş
▁years
▁жүйесіне
▁төмендет
▁желтоқсан
▁көрсеткен
eceğiz
▁lütfen
▁ауданы
▁ұсынылады
▁görünmüyor
▁жеткілікті
ком
▁45
▁hava
▁клим
▁birçok
▁реакция
▁бизнесті
are
ili
▁га
▁soc
▁бәр
▁мұндағы
өнеркәсіп
▁басшылар
▁индустри
лор
риц
▁ыл
▁Kar
▁әділ
▁ави
естің
▁birbir
▁бөлінеді
▁халқының
▁according
▁байқалады
▁El
▁ме
▁оз
▁ск
▁ent
▁фил
▁құн
▁anda
▁eski
▁сумен
ірілген
▁жүргізіліп
ons
tif
ıma
▁рез
▁verm
▁koş
▁матриц
▁tamamen
▁информат
üne
ınız
▁таза
▁жарық
қатынас
▁міндеті
қатынастар
▁әдістерін
ih
laşık
▁кіреді
▁салынған
▁шектеулі
▁болашақта
▁арх
истика
уыл
▁күшейту
▁тұрғыдан
тез
unca
ектен
▁bizi
▁колл
▁адамды
▁кешені
▁азаматтардың
üph
▁pat
▁рейт
▁таст
▁kesinlikle
ket
iyat
▁kims
▁İnsan
▁несие
▁тудыр
▁экспорт
▁саласының
40
▁uç
▁fak
деген
ілігінің
▁пайдалы
▁енгізілген
кон
окө
рық
айық
ғады
асады
▁beri
▁yakın
▁olmaya
▁партия
▁sy
▁2019
▁түскен
▁заманғы
▁павлодар
▁қонақтар
мел
eleri
аттағы
▁fikir
▁жасаған
▁мүмкіндіктерін
еяс
кра
ayev
▁met
▁soğ
▁seviyor
▁қырғызстан
ach
паз
ıyordu
▁қағида
айл
▁Hep
▁ihtiyacı
▁көрсететін
▁қабылданды
▁температура
▁дифференциалдық
▁one
▁біт
▁ikna
▁жолдары
▁бөлшектер
aba
▁Ар
▁әд
▁елдері
▁жатқанын
▁мемлекеттердің
еуі
ical
▁sar
атынан
▁оңтайлы
▁негізінен
▁ül
▁виз
елендіру
▁керекті
▁кеңісті
▁мерзімді
ометриялық
▁dis
▁Onlara
▁ilgili
▁берудің
▁констру
ғыстау
▁ислам
▁елшісі
▁per
▁prov
▁бізге
▁істеп
▁ауылдық
▁баяндам
▁ұйымдардың
ност
▁dep
▁hemen
▁dakika
siy
▁ұя
хана
▁kes
▁ayrıl
▁орайда
80
▁қойған
▁benimle
ttı
▁teh
шыларға
▁жоғарыл
▁металдар
▁шаралары
▁мәлімдеді
adıl
▁күрес
▁32
▁фр
▁also
▁Fadıl
▁üzgün
▁айналымы
su
▁öp
▁ед
▁üst
▁тобы
▁жинау
▁тамыз
▁үкіметі
cess
▁int
▁main
▁сөйл
▁kadın
▁bilmek
▁yaşında
▁өнімдер
▁пайдалана
▁қызметкерлері
rac
▁hab
▁cons
▁misiniz
▁üzerinde
▁германия
suz
▁до
▁fikr
▁бақы
▁артты
▁субсид
▁беларусь
ене
▁ұм
▁кіші
▁ашылды
▁жалғастыру
ell
min
оли
▁sav
етіне
метов
▁mektu
▁govern
▁процесс
▁кезеңінде
▁қалыптастыр
ья
нек
тқа
▁36
тқыр
▁Сол
▁бау
▁фер
ондар
▁ыңғай
активті
екторлар
▁öğretmen
▁тіркелген
▁студенттердің
бес
▁Kız
▁app
▁ders
▁азай
▁Bizim
▁саласын
eyeceğini
▁саладағы
▁механикалық
tum
▁öldü
▁атау
▁мақұл
еттілік
▁nereye
▁сертифик
▁болғандықтан
▁оңтайландыру
ia
▁2.
▁oyun
▁yaptım
▁шикізат
лу
енци
ония
ғыру
▁әлі
▁Bence
▁harika
▁шараға
▁капитал
▁эм
ткіш
miyorum
▁субсидия
▁important
▁қажеттілігі
АР
▁Эк
▁сеп
отехн
іні
▁[2]
▁2011
▁Artık
▁бөлімш
▁шешімі
▁жаңғыру
▁үнемдеу
▁yapacağını
▁150
▁гүл
ақтан
▁электро
▁тәжірибелік
gu
ла
сан
▁Ok
▁so
деби
▁қабыр
▁туында
▁жұмысты
▁қаланың
▁жабдықтау
▁құралдары
▁te
ould
ғысы
қаш
▁fır
▁бұрыш
▁түйін
▁ілгер
▁ұқсас
еттерді
▁тарату
▁кезекте
▁магистр
▁процесі
▁топырақ
▁cooperation
▁мыр
▁елеу
▁yağmur
▁кеткен
▁қарулы
▁қатысушы
ele
ges
▁eş
сінің
▁схем
▁өсіп
▁тен
дігіне
▁бейне
▁төлеу
▁мониторинг
▁тапсырмалар
▁şu
астық
▁фосф
▁санын
▁benden
▁gelecek
▁қамтылған
▁etk
▁соз
▁генер
▁kendini
▁ауданында
▁go
шаралар
▁hatırla
pa
уля
▁alma
▁театр
▁қызылорда
▁қолданыстағы
спен
есінше
▁жамбыл
▁жүзінде
▁танымал
▁көмектес
▁өткізгіш
▁Оқу
ентті
▁жоспарын
▁genellikle
▁из
▁алқ
▁kapat
▁onları
▁беруді
▁бекітілген
▁қарастырылды
dün
diğini
▁мамин
▁өзбекстан
▁компоненттер
▁ün
▁tat
▁мақал
▁машина
▁мүмкіндіктер
mamız
тарын
mesini
▁yemeğ
▁достық
▁дө
▁қа
▁vur
алдың
▁құндылықтар
iyet
▁дар
▁шаб
▁укра
acağım
▁артып
▁қалыптасқан
атына
iyoruz
▁жоспарлап
▁құралдарын
eyn
ehir
▁bahs
▁film
▁Осылайша
▁заттардың
▁қылмыстық
▁жұмыстарды
▁мез
▁асты
▁павиль
▁процес
▁интернет
▁қатысуға
sen
▁şüph
▁келу
▁индек
▁пәтер
▁мәселені
уманитарлық
▁өндірушілер
ектің
▁техника
▁платформ
СТ
жар
▁oğ
амын
оттық
▁басқар
▁ортаны
▁отбасы
▁түрлерін
▁тәжірибесі
6]
ong
асуы
▁мәрт
▁konuda
ациясының
▁құл
azartesi
▁институт
мб
▁Ön
▁day
▁mes
▁dair
▁terk
▁сәтті
▁сессия
▁ассамблеяс
%-
айн
▁көрсеткіштері
ty
stem
▁ауы
▁вал
▁меңгеру
▁өңірлер
кет
шағы
▁баса
▁псих
▁пайызы
▁ұсынылды
▁компаниясының
etw
оны
шіл
▁ата
▁қим
▁табу
ылықты
итикалық
▁gereken
▁орындарының
▁ұң
asına
▁үлесін
▁әрекет
▁er
leden
lerin
ousand
▁сынды
▁сызықты
▁міндеттерді
▁та
▁thousand
▁қондырғылар
▁жауапкершілік
▁қауіпсіздікті
yo
▁Um
екул
▁Оның
maktan
▁yerde
▁бөліп
▁әлемде
form
▁2010
▁болмақ
▁шыққан
▁танысты
▁қажеттілік
oru
imde
▁халыққа
eral
ınıf
▁edil
▁said
▁жән
▁піш
larına
▁мәтін
зерттеу
▁hisset
▁ортаның
қаев
▁жағдайды
▁ерекшеліктері
екел
ғалау
▁Yeni
▁беріп
▁теория
▁geliyor
▁қоғамның
▁жүйесінде
▁көрсетуге
▁güç
▁sin
▁құрылысын
мін
▁bec
▁дене
▁түркі
ілігіне
▁беруге
aj
уб
▁Er
стық
▁мүге
▁бізде
▁мүдде
▁саясаты
▁insanlar
▁әкімдігі
▁бюджеттік
▁білдіреді
lük
▁дек
▁бекі
істікт
▁ondan
▁статистикалық
үн
amı
▁вир
▁адамға
▁мәртеб
▁серпін
▁таралу
▁секілді
▁орындарын
ков
reat
дида
▁төзімді
▁көрсетіп
▁мекемелер
▁орналастыру
ew
get
▁yık
ілдір
▁öner
▁бәсекелестік
▁gerekir
▁мобильді
иттік
▁дақыл
▁консу
еттерін
▁жүйелері
пе
siye
▁сим
ордин
▁farklı
▁коэффициенті
▁артықшылықтар
дас
пан
өзі
▁33
▁hap
ардың
▁жарты
▁тариф
▁Осыған
▁теңгеден
новациялық
▁жанындағы
▁dec
▁өсуі
▁едәуір
▁критерий
▁[3]
▁тет
▁орынды
▁бюджеттен
▁beş
▁саласына
▁ши
▁үміт
станай
▁organ
▁yapması
юм
ğine
▁kom
bayev
циясы
▁талш
▁доллар
▁жұмыстың
▁өнеркәсібі
cih
ise
tuğ
лих
▁ток
▁тағайын
▁органдарының
▁университетінің
kz
ағым
ттау
▁Жал
ымызды
▁oraya
▁кластер
▁бірлестік
adan
▁kol
▁ыдыр
▁бидай
▁елеулі
▁жасады
▁септігін
▁әдістемелік
ian
▁көшу
▁geçen
▁yaşlı
▁балық
▁birini
▁меншік
▁ұсынады
▁шараларды
ре
ese
емді
ірек
ection
дейтін
▁tercih
▁yüzden
▁автокө
▁нақтыл
▁қараша
mediğini
▁аясындағы
arak
▁işi
▁айыр
▁бұзу
алығын
▁düşünüyorsun
luk
аларда
▁болат
▁Алайда
▁boyunca
▁ұсынған
▁теміржол
echn
дарынан
▁жылмен
▁зиянды
▁орынға
▁салада
▁кандида
uh
▁?
val
олю
балы
▁жиі
elisin
▁асқар
▁қағаз
▁болуына
▁мектепке
▁biliyordu
▁қалыптасу
▁үйлестіру
▁ерекшелігі
lam
▁kalk
▁sordu
▁soğuk
▁әдеби
▁көтеру
▁міндетт
▁облыста
▁түсіндіру
60
ЫҚ
жей
▁Өн
▁шай
lamak
▁Hâlâ
▁анық
▁söyley
▁хатшысы
▁olduğuna
▁Ор
ымкент
ттардың
▁tartış
▁ұлғайту
▁берілетін
ний
▁kut
▁сің
▁оқиғ
▁okula
▁yoksa
▁beklem
▁үдерістер
▁У
еке
▁37
ther
▁out
▁кин
▁сағат
▁жүйені
▁туынды
▁particip
ъез
▁Bay
▁yön
ісіне
▁Олар
▁жайт
электр
▁агентті
▁жағдайын
▁инновация
▁көзделген
▁tur
▁зар
▁нас
ğinden
▁өркен
▁актілер
▁кәсіпор
▁экология
▁маңғыстау
▁ынталандыру
▁34
▁qu
емін
esent
дерде
▁spec
▁блок
дайтын
▁сабақтар
▁жұмыстарының
▁шө
▁çöz
▁шол
▁yere
▁кеңейтілген
mesi
ттен
▁severim
▁değilsin
▁анықтайды
▁басшылығы
▁депутаттар
▁жолаушылар
ang
ard
импи
ымалы
▁елорда
▁құралы
▁yardımcı
▁өткізілді
▁адамдардың
▁субъектілер
her
usu
▁dir
▁сұл
gisay
▁нарық
▁Сондай
▁барысы
▁öğleden
▁деңгейіне
▁толығымен
әж
▁ıs
дерінде
▁yorgun
▁координ
▁investment
▁düşündüğünü
eld
ress
engin
▁sess
▁түркия
rak
▁sil
▁енгізілді
ıp
▁ағ
imin
▁инд
▁қап
larda
▁авто
▁ұшыр
▁Бірақ
▁халқына
rup
▁ад
▁tas
▁böyle
▁игеру
▁қалың
▁Алынған
▁қадағалау
аныш
▁ары
▁оқи
етінде
▁Білім
▁үйрен
▁мүдделі
әй
kin
рам
▁4-
▁крист
▁шешімін
▁edebilir
▁басталды
▁экономиканы
▁зер
▁сам
▁сім
▁съез
▁марап
▁сыбай
▁шоғыр
▁бағасы
▁өзінде
▁теңгенің
21
▁күнде
▁арттырады
▁салтанатты
▁көрсеткіштер
umda
▁[4]
▁kısa
▁колледж
кл
ome
ульт
▁kan
икасын
▁musunuz
▁өлшемді
▁атқарады
▁металлург
▁жемқорлыққа
аттандырылған
ocuğ
▁ауытқ
▁жеткен
▁кеңесі
▁support
▁қасиеттерін
▁бағдарламаның
▁ассамблеясының
▁компаниялардың
▁Ay
able
lere
▁мұх
▁теп
жылдық
▁сыбайлас
3-
лайн
landı
▁high
▁дөңг
▁конв
ымдылық
▁öğrenc
▁жақында
▁кәсіпкер
▁кәсіптік
▁айырмашыл
▁қызметіне
kün
lak
енд
▁izl
▁çıktı
▁дс
▁İyi
▁көзі
▁уран
▁yapıl
▁диагност
қыр
егін
▁kas
елену
тенше
▁Başka
▁уақыты
▁жауапты
▁көрмесі
▁olacağım
▁мақсатты
тч
▁құрм
▁атырау
▁million
▁бр
▁başar
▁желісі
▁жолдарын
▁динамикалық
endi
▁құм
изация
▁сәйкесінше
▁se
▁Соң
arket
manın
▁sign
▁sonu
▁есім
▁жетті
▁дербес
▁миссия
▁қаралды
▁медицина
▁автоматты
▁салаларында
сон
ырақ
энерг
атында
еттегі
▁айрық
▁лауаз
▁қорының
struction
орф
▁Ak
▁over
lerine
▁бақыт
ıyorsun
▁тигізеді
▁қызметті
▁ауданының
нау
аспий
▁issu
▁noted
▁полиг
▁туғыз
▁compan
▁террор
▁шақырды
▁жылдамдық
▁органикалық
gı
▁!
air
▁инф
▁мысал
▁тегін
▁kendim
▁гектар
▁жүргізуге
ite
ünç
▁bor
▁Бер
▁код
▁пот
▁пун
ордың
шікті
▁sürü
▁sıcak
▁үйлес
eceğimi
▁қозғалыс
▁институцион
таж
құр
▁АҚ
▁Öğr
імізді
▁жасал
▁мүгедек
▁минералды
▁түрлендіру
ug
мек
ғаю
лады
амдық
▁филь
▁корпу
▁судың
дарында
▁kitabı
ындайтын
▁асырылуда
▁fi
▁шаң
анады
таралық
▁тауарлар
алитикалық
астырылған
▁автокөлік
▁таныстырды
▁жағдайларда
▁информатика
▁pop
▁сезім
ттердің
▁басынан
▁нәтижелерін
▁дипломатиялық
5-
▁tr
▁шт
▁самм
▁жақты
▁қоймай
▁айрықша
▁мынадай
▁қойылатын
▁температурасы
abl
▁av
için
▁сүз
ғылшын
ғұрлым
▁kimin
▁бағыттағы
▁жалғастыр
luy
▁düz
▁рек
аттан
стары
▁балам
▁синтез
▁төтенше
▁өткізді
ral
ımda
▁2050
ылуына
▁dünya
▁өкілі
▁durdur
▁көрмен
▁нәтиже
▁сақтандыру
▁тұрақтылық
▁материалдық
ümüz
▁арм
ланды
▁қуаты
шаруашыл
▁себепті
▁халықты
▁үкіметтің
▁деңгейінде
▁кәсіпкерлікті
sion
шыға
▁қха
іккен
▁Қазақ
▁дайындал
▁қостанай
▁arkadaşım
▁кеңістікт
ІН
абы
қор
▁шұ
iddi
ізді
▁0,8
ғалды
есіндегі
▁анықтам
▁үздіксіз
▁органдары
▁жету
▁спик
▁Alman
▁gider
▁музей
▁кезеңі
▁kontrol
▁әлеуеті
▁кездесуде
▁конституциялық
aydı
▁сая
ацион
▁prob
ағынтаев
▁шақырым
▁функциясы
▁әріптестер
лн
▁еэк
▁қарс
▁дауыс
▁аспект
▁мәслих
▁konuşur
▁екендігі
▁инженерлік
isik
▁ағаш
▁gelir
▁ауған
▁verdim
▁тәуекел
▁биологиялық
▁қауіпсіздігі
lob
сив
▁ener
▁Geçen
▁бөлігін
▁elb
emedi
естігі
▁үкіметінің
▁мәліметтерді
▁басқармасының
ұз
▁mah
дарда
▁Bazı
данған
▁ұйымның
▁қысқарту
см
ust
▁Бү
лану
імпаз
▁meet
▁астық
▁alabilir
▁жұмыссыз
▁қамтитын
▁қызметтің
▁eur
▁ном
▁міндет
▁көрмеге
▁аймақтың
▁шығаратын
).
АН
▁долл
▁патри
фикация
▁olmadan
▁rahatsız
▁жеңілдет
▁зейнетақы
ац
▁baktı
дігінің
▁Umarım
▁Электр
▁жиілік
▁тербел
▁қайтар
▁arasında
▁процесін
▁ерекшелен
▁төмендету
инновациялық
ize
ilik
▁000
▁bey
inizi
суретте
▁отырыс
▁толтыр
▁санының
▁тазарту
▁projects
▁шешімдер
▁салыстыру
▁fac
▁mon
▁tah
lobal
▁fakat
▁ішіндегі
▁zorundayız
▁республика
▁мой
▁құй
▁құс
астың
▁жүру
▁шығу
▁Жалпы
▁duydum
▁tehlik
▁konuşma
▁мектептер
▁оптикалық
▁қаласындағы
▁қарастырады
ыту
іпті
▁fut
▁жой
ğinde
▁амер
▁серв
▁түсір
▁edildi
▁зауыты
▁олимпи
▁меморандумға
динг
eliyim
▁құрап
▁үнемі
▁system
▁әдісін
▁моделін
▁arkadaşı
лд
▁аль
▁ағылшын
▁ыңғайлы
▁көлемінің
▁жолдауында
▁тұрғысынан
▁компанияның
▁ресурстарды
▁ha
▁тая
▁hikay
▁жүріп
▁ұсыну
▁конституция
7]
▁Кіл
▁ашылу
▁барша
▁дамуын
еттердің
▁кеңістік
iya
▁каб
▁елде
▁мыңға
▁yüksek
▁асырылып
▁konuşuyor
▁автоматтандыру
▁ro
ығыс
▁пак
▁цикл
▁Babam
▁kahve
▁камер
▁күнге
malıyız
▁doktor
▁өзгеру
▁күтілуде
ана
▁ав
имал
▁their
▁асады
▁zamanı
▁gidiyor
▁біріккен
▁қатысқан
een
hip
лак
тек
урн
қау
анов
дест
нама
▁medi
▁otob
▁фото
▁жобалардың
▁индустриалды
▁программалау
▁инфрақұрылымдық
duk
lığı
▁poli
▁атынан
▁әйелдер
▁болашағы
▁болмайды
▁операция
▁тестілеу
▁қызығушыл
▁қауіпсіздігін
15
ama
▁Bil
▁sol
▁techn
▁ұйымы
▁топтар
▁Japonya
▁жиынтығы
▁istediğim
▁төмендегі
4-
ens
iden
▁vak
▁үлг
lında
▁ödünç
▁баған
▁ғалымдар
цен
әтиж
ордан
▁рөлін
▁күкірт
▁сәйкест
▁түсетін
▁құрамын
▁өткізуге
ustr
асып
дырм
муналдық
▁баяндады
▁мөлшерін
30'
ift
liy
ree
ғақ
шалық
▁buluş
▁sınıf
▁билік
▁пласт
▁ұлғай
▁ілгеріл
▁асырудың
▁жеңімпаз
▁еліміздегі
ely
tiş
▁75
▁sey
▁ауд
▁рег
▁трлн
▁телеф
▁туған
▁onlara
▁түрлен
▁жеткізуге
▁olduğundan
▁деформация
▁көрсетілді
назарбаевтың
▁орындарында
▁өкілдерінің
дес
▁0,3
▁түб
▁uyan
▁бетон
▁жүрген
▁потенци
кр
скоп
тығу
▁dem
▁ülk
емлек
▁корея
▁онлайн
▁bizimle
▁аймақта
▁молекул
▁комитеті
ban
▁Бұ
етер
▁датч
егінің
▁inclu
▁тетік
лығының
▁Hiçbir
▁should
кест
▁saç
▁ман
баева
▁тарихы
ағындағы
▁мәселен
▁орнатылған
cu
ices
▁you
кінші
▁hala
етінше
▁бекіту
▁жобаларын
▁ресурстарын
▁ынтымақтастығы
ışık
▁ұнт
ersin
ғылау
байжан
▁Polis
▁базалық
▁есептер
▁көздері
▁өңірдің
▁kaybetti
▁көрсетіледі
▁Қазақстанның
ces
▁Ат
▁тыр
tıyor
ылуын
▁dans
▁göre
▁кіру
іктігі
▁модуль
▁ашылған
▁жобалық
pl
▁38
▁Hem
▁sın
▁zengin
▁көздел
▁жетілдір
▁үрдістер
▁коммерциялық
-3
елді
олия
ағдар
▁kaybet
▁problem
▁аталады
▁жобасының
geç
сар
▁sig
▁жалп
▁biliyordum
▁басқарудың
құл
▁үн
ларында
▁жаңарту
▁деңгейлі
▁yapmasını
▁шараларын
pen
бақ
alya
▁vaz
▁ажыр
▁білікті
▁дамудың
▁полимер
▁суретте
▁өзгеруі
▁ескерткіш
▁толықтырулар
▁байланыстарды
▁технологиясын
▁бак
▁ласт
dition
etween
▁қарыз
▁хаттам
▁production
▁мамандарды
ЫН
ital
mamı
▁Büy
▁car
▁sch
▁пан
▁rela
▁between
▁economy
▁ауыстыру
▁қолданылды
өлі
titu
▁fun
ақтары
▁haber
▁Интер
▁жасайтын
▁индустриялық
▁технологияны
ort
зин
▁рати
▁amoun
▁ciddi
▁kırık
▁команд
▁франция
▁бастаған
▁söylemedi
▁ықпалдаст
▁құрамындағы
▁42
eter
етке
▁дыб
lerde
▁hedi
▁көмірсу
▁Ақпараттық
▁кездесулер
hi
age
шау
▁Олардың
▁жобалары
▁интеллек
▁хабардар
▁бағдарламасына
ич
▁ob
▁кә
▁ірг
естив
▁nazar
▁екені
▁құрылғы
▁тапсырма
▁орталықтар
▁қалыптастыруға
ery
diler
▁клин
ритания
▁рейтинг
▁көздерін
▁хабарлау
11
▁5-
▁кеу
▁суды
ұлттық
▁balık
▁негізін
▁жұмыстардың
бұр
lana
▁ses
▁бор
-2050
▁hasta
▁kızgın
▁аймағы
▁тіркел
▁geçirdi
▁тұрғыда
▁karşılaş
▁негіздел
▁edu
▁ода
▁park
ңгілік
▁Нәтиж
▁Соңғы
▁банкт
▁өңірде
▁ұйымының
▁жастардың
▁бағдарламаны
ғар
çeği
▁muy
▁tren
▁рөлі
▁ұңғым
▁сақтап
▁тобының
▁қосылды
▁әкеледі
▁әңгімел
▁yeterince
▁президенттің
mi
уд
uma
▁Gen
▁ант
▁Құр
▁sizin
▁тілі
▁банкі
▁бедел
▁сұйық
▁kardeşim
▁павильон
▁education
rt
яд
azen
▁giz
▁шыұ
ünden
▁otuz
▁size
▁public
▁виртуалды
▁эл
▁edecek
▁hissetti
ginç
▁коо
▁kelim
▁çocuğ
▁şeyin
▁тұқым
▁yakında
▁ластану
▁геологиялық
▁tes
▁аяқ
▁öyle
▁тоннаға
▁Yak
▁zar
▁olup
▁озық
ediler
алдары
дармен
▁katıl
▁насих
орлардың
▁special
▁асырылды
фикациялау
▁жауынгерлік
all
ory
▁ұқ
▁Sor
▁жолында
▁холдинг
▁келісімді
муникациялық
▁44
tiler
ümkün
▁қажеттігін
▁қосылыстар
КТ
тас
шаф
▁47
▁48
стем
▁жылж
ісінде
▁бақыл
ткерлік
▁команда
▁мазмұны
▁мәңгілік
▁аймағында
▁үкіметтік
▁zorundasın
▁construction
▁мәселелеріне
bev
ind
▁Sa
▁Tüm
▁gez
▁İst
▁арз
▁тоз
ileri
▁öğle
▁журн
tığını
▁bisik
▁айтуы
▁бірден
▁орнына
▁комитет
▁дәрежесі
▁nazarbayev
▁қалдықтарды
▁қызметшілер
▁өндірісінің
▁görünüyorsun
ғаны
▁çoğ
▁davet
▁Avustr
▁Seninle
▁тілінде
▁çalışmak
▁әлеуетті
▁базасында
ne
ser
стың
▁çiç
▁шару
▁kaçır
▁сервер
▁altında
▁бұрынғы
▁bilmiyordum
сіне
▁kir
▁sta
▁суд
қалық
▁impro
▁мәжіл
▁тәжік
▁професс
▁жүйелерін
▁düşünmüyor
▁government
▁пайдаланып
eng
evel
▁жоо
ining
татын
▁time
▁under
▁толықтай
▁басталады
iyi
▁cap
▁yav
▁тән
beveyn
ақтығы
▁архит
▁содан
▁аталып
▁тұтқыр
▁фактор
▁іріктеу
▁қондырғы
▁olmayacak
▁талаптарына
inc
dern
▁[5]
▁ces
▁its
дірілген
сыздандыру
▁қуаттылығы
▁құрылысына
▁қызметтерді
üğ
рк
anda
пуль
▁most
▁гидр
▁крем
usunda
енттік
▁Екінші
▁46
ашар
▁ins
▁vis
▁Жер
encer
▁дисп
▁адамз
▁vermek
▁анализ
▁холдин
madığını
▁алынады
▁қатысып
▁toplantı
▁жүргізіп
▁сызықтық
▁министрінің
▁мәселелердің
ild
▁па
elik
uldu
▁eng
▁Жаң
▁діни
▁жеңіс
▁during
▁sessiz
▁meeting
▁жартылай
▁зерттелді
▁söylediğini
▁1,5
▁Tek
▁cüm
aları
інесе
▁dedi
duğunu
етінін
ag
olog
ский
▁grow
▁değer
▁girdi
▁үлгісі
▁қатарында
▁кедергілер
12
▁43
▁Gün
▁uyk
▁гео
икада
▁odas
▁музы
▁great
▁hepsi
▁kapıyı
▁боламыз
▁hissediyorum
▁өрт
йымды
▁akıl
▁elec
▁поль
▁соғыс
▁social
▁құрмет
ақтардың
▁Бірінші
▁спорттық
▁болашаққа
▁терроризм
▁прокуратур
▁кәсіпорындардың
мұ
int
lüğ
▁Köp
дамыз
▁spor
ығында
▁Büyük
▁арада
▁ұстаным
▁міндеттем
▁зерттелген
▁саясатының
▁çalışıyorum
пол
layı
▁лық
ector
▁Комп
asının
▁activ
▁umuyorum
▁өндіретін
▁кәсіпорынның
лды
▁ip
едур
madan
▁Bize
▁клас
айтқыш
▁актив
▁терез
▁қазаг
▁etmeyi
▁project
▁айнымал
▁кемшілік
▁кездеседі
ydım
▁Түй
▁тура
▁Мұнай
▁жекеш
▁конкур
▁фестив
▁yiyecek
▁әдісімен
▁yapacağım
▁институты
▁зертханалық
▁сипатталады
▁қорытындылары
cil
▁Kap
теңге
▁Hava
▁gördü
▁koydu
▁латын
▁ilginç
▁байланыстыр
▁депутаттары
▁көрсетілетін
дұ
kın
юмини
▁сорб
ықтары
▁көпір
▁нығай
▁түрік
▁әсерінен
▁негізіндегі
▁gar
▁лай
tical
▁hata
▁фили
▁Henüz
▁etkil
▁емдеу
▁тақырыбы
▁söyleyebilir
ace
ile
сай
терм
▁pay
▁эфф
▁ұмт
erken
▁теріс
▁Gelecek
▁салалық
▁dikkatli
▁қолдауға
▁әкімінің
▁есептерді
▁есептеледі
▁конструкция
▁құралдарының
3)
kü
тил
▁объ
lerim
lığına
mation
▁реакт
огендік
▁елдегі
▁жасанды
▁кетерлік
▁ассамблеясы
▁Git
▁бәй
izyon
тарап
▁еткен
gisayar
▁yaklaşık
▁Avustralya
▁сипаттамалары
olo
▁Bö
ükem
▁kaf
жылды
▁оңай
▁тепе
алының
▁anlat
▁ikisi
▁нашар
▁жаппай
▁басында
▁қабатты
▁дөңгелек
тте
▁Би
▁ду
▁чем
ative
▁very
üyorum
▁мағын
ükemmel
▁тұрғыз
▁етілген
▁жоғарыда
▁konuşabilir
▁жұмыстарына
▁тәжірибесін
▁экономикасының
gar
ned
қон
▁55
▁tw
ибер
▁gec
▁seb
▁атам
термен
ттарды
▁yürüy
▁ақтау
▁семей
▁өзект
▁деклар
▁ауылшаруашыл
urt
▁cr
▁ға
▁фин
▁ауыз
▁синг
▁чемпи
▁number
▁асыруда
▁басталған
▁зерттеуге
▁зияткерлік
▁эксперимен
гу
lüm
▁шв
▁кіл
▁1000
▁киім
▁шолу
імділік
▁тұрмыстық
▁қабылдады
▁парламенті
als
ene
▁дж
▁сұх
ırsız
dığımı
▁алаңы
▁бауыр
▁судья
▁vazgeç
▁есепті
▁tavsiye
▁әзірлен
▁жеңілдік
▁жүйелердің
ucu
льф
trac
▁Мат
терек
▁diğer
▁тілін
▁gittim
▁аумағы
▁отырысы
▁қауіпті
▁Берілген
▁шекаралық
▁тұрғындары
▁интерактивті
atı
lif
ыла
▁cur
▁lead
▁тану
▁хром
▁ministr
▁бірлесе
▁консуль
▁пайызды
▁математика
окс
▁rest
▁диск
▁фарм
mekten
▁түрін
malıyım
▁өзгеріс
▁неғұрлым
▁балабақша
▁тәжікстан
лог
сап
▁çar
▁Бас
▁қым
mıştı
▁валю
әжіриб
▁Orada
▁buldu
▁тіпті
▁жылжым
sel
рес
тег
▁39
қайс
▁aff
▁yum
isini
аймын
▁сілт
ысымен
▁market
▁modern
▁сіздің
▁мерзімі
▁баламалы
▁максималды
ле
рл
ete
our
ынд
▁İl
ures
▁дсұ
данды
ельді
лықты
▁әуеж
▁өзіне
▁нысаны
▁yeterli
▁отырады
▁bekliyor
▁қашықтықтан
çe
ool
▁İs
▁уә
кері
▁Yan
▁қхр
▁expo
▁inde
▁özel
▁event
▁жібек
аттарын
▁артады
▁Amerika
▁желілік
▁процедур
аби
яды
ларда
ляция
▁сары
▁silah
алармен
▁қатысуы
▁republic
▁көліктік
▁балалардың
амды
▁off
▁қож
ақтау
▁итал
▁меди
▁сату
▁қуат
esinde
елеген
▁үстел
▁график
▁жазылған
▁қолданып
▁ауғанстан
▁istiyorsun
▁қолданудың
ğa
АТ
про
erek
▁кал
ultan
ейміз
▁ödev
▁болдырм
▁biliyorsun
▁географиялық
ii
hal
көл
▁ұт
eğen
▁Bun
▁ren
▁лит
▁шлак
▁group
▁oldum
▁индик
қаралық
▁жануар
▁hareket
▁архитек
▁жетекшісі
▁жақсартуға
▁Республикасының
дб
▁41
▁ви
▁ols
▁yürü
▁конф
evizyon
▁артқан
▁мамандары
▁агроөнеркәсіп
.,
абр
▁need
▁level
▁şehir
▁çalışır
▁жаңалық
▁хабарлауынша
▁материалдарды
дм
ею
әб
енко
▁Kon
▁боя
ықтыр
▁çevir
▁медал
▁азамат
▁меншікті
▁біріктіру
▁біліктілік
▁орналастыр
▁салдарынан
▁250
▁boz
▁sek
▁who
▁веб
▁пор
▁açtı
lerden
анатын
▁болжау
▁Hepimiz
▁мәндері
▁деңгейге
▁саясатын
▁тапсырмасы
▁сипатталған
кем
▁вен
lardı
ократ
ations
шыларды
▁істері
▁болатынын
▁транзиттік
▁көмектеседі
▁қатысушылардың
▁Оң
▁yen
▁шың
лаған
▁етуі
▁Kimse
▁savaş
▁өнімі
▁etmedi
▁kurtar
▁жалғыз
▁жетеді
larından
▁bıraktı
▁экстрем
▁қалыпты
▁қазақстанды
жә
істе
▁uğr
▁нейр
▁ұлыб
▁Nasıl
▁sinir
▁қайыр
uyorsun
▁hastan
▁yaptır
▁жерлер
▁кешенін
инамикалық
▁сигналдар
▁стратегиясы
2-
dik
▁Uz
▁uğ
▁аө
▁эн
ning
оның
▁био
irket
meden
▁елші
▁орыс
▁тиес
▁2.30'
▁ауқым
larının
ultural
▁onların
▁mükemmel
▁öğrenmek
▁ihtiyacımız
рс
фей
▁по
▁ты
emin
▁егі
▁city
▁şeye
аларында
тациялық
▁курстар
▁қазагро
▁құрылымын
▁bilmiyordu
▁дайындалған
▁00
▁Ot
▁міне
▁тарм
▁өсіру
елеріне
▁барлау
▁түсіну
▁сарапшы
▁алгоритмі
▁орындауға
▁анықтайтын
▁нормативтік
ism
ron
▁up
ıntı
ттан
▁жіө
▁риз
▁мүлік
▁отыру
▁берікт
▁түсінік
▁қарастырылып
▁kı
▁ut
▁иг
▁İki
▁өрн
▁aldın
▁топырақтың
▁әзірленген
▁параметрлері
amp
ized
mızı
▁şiş
▁кәр
imizi
ımızı
▁içer
▁мезг
▁өлім
mazsın
▁harca
▁қабат
▁қатаң
▁дәстүр
▁қуаныш
изациялау
▁мөлшерде
▁құрметті
▁айналысатын
▁ұлыбритания
▁şar
tadır
амбет
▁асып
▁поли
▁olabil
▁одақтың
▁тиесілі
▁gördüğüm
▁кездесті
mayacağını
▁комиссияның
▁қажеттілігін
▁implementation
70
8]
ДІ
▁56
▁Ан
▁(1)
▁rec
▁ену
▁2009
▁бере
▁фабр
▁үнді
▁жолын
▁сабақ
▁қосып
▁yaptın
▁кезекті
▁шымкент
▁ministry
▁planlıyor
▁салаларындағы
өт
-10
müş
орд
аген
ария
ингі
▁600
▁етп
жігер
юминий
індеме
▁қасым
▁hayvan
▁елінің
▁шабуыл
▁қалдық
▁gerçeği
▁көрмесін
▁астанадағы
ари
бул
▁кг
▁Erk
▁бри
▁гра
әдени
▁есебі
▁mektup
▁жиналған
▁мақсатта
▁жекелеген
▁қолданбалы
▁қабілеттілігін
▁Өз
▁onlar
▁takım
▁мәнін
▁iyidir
▁ортада
▁құрғақ
ықтардың
▁позиция
ain
▁agr
▁but
▁кли
▁пой
▁шқо
▁redd
▁араб
▁dolar
▁төртінші
▁konusunda
rı
АС
ina
▁Тө
▁Үл
▁ән
kabı
▁ağr
▁ланд
▁ашады
▁тағай
▁қайтал
▁düşündü
▁бұрғылау
▁сағынтаев
▁құжаттарды
▁өндірістің
▁операциялық
▁ақпараттандыру
ph
кей
mini
▁now
oğraf
siniz
▁alır
▁батыр
▁тілді
▁қонақ
▁қуатты
▁лауазым
▁экспорттық
екен
▁don
▁бил
▁саз
дерден
▁planla
▁датчик
▁шақыру
▁тәртібі
▁ресейлік
▁стандарт
▁отырғанын
▁стандартты
▁қолдауымен
ісп
eyen
liği
адық
▁pah
▁мұқ
lidir
▁ateş
▁pişir
▁тұлға
▁өсімі
otoğraf
терімен
▁başarı
▁provid
mayacağım
▁енгізіледі
▁әрекеттесу
▁қабілеттілік
ue
бұл
еуге
▁Yaş
бұрыш
жанов
▁ulaş
▁телек
▁Біздің
▁söylediği
▁координат
▁әзірленді
▁мамандықтар
ışı
дын
▁dört
▁көріп
▁шынайы
▁ландшаф
▁табиғат
▁görmedim
▁көбінесе
▁аяқталған
▁концентрациясы
жи
бан
імі
▁2,5
▁kov
▁үмі
▁bank
▁клуб
▁типт
cağına
▁doğum
шалықты
▁energy
▁теңдеуі
▁тыңайтқыш
▁ми
▁ағз
▁күші
ерлігі
▁karış
▁polic
▁күшті
▁mümkün
▁мәскеу
▁қорытп
▁алматыда
▁мақсатқа
▁шарттары
▁балаларға
oz
now
▁65
▁yat
▁prof
▁буын
ration
ымызға
▁döndü
▁yetiş
▁бірін
▁oluyor
▁дизайн
▁шартты
▁директор
шық
қаб
идті
▁автоб
▁ақпан
▁Kendim
▁аудару
▁өнімін
▁диаметр
▁инфрақұрылымды
90
құқ
▁Ай
ұрық
▁kok
▁kuş
▁tır
ердің
▁ölüm
▁дәрі
лармен
огенді
▁enter
▁geçti
▁köpek
гіндегі
▁restor
▁жүреді
▁трансп
▁аудандық
▁күнделікті
аю
ерв
▁no
▁аң
▁kam
▁ете
▁edin
▁жазу
шілігін
▁akıllı
▁зердел
▁İnsanlar
▁аграрлық
▁асырылуы
▁процесінің
▁басымдықтар
▁organization
45
▁Авт
▁anlam
▁yavaş
▁пойыз
▁кіретін
▁студент
▁bisiklet
▁энергияны
▁қолданады
▁деңгейінің
мар
▁ür
▁lan
▁nec
▁sit
атыны
▁марк
▁цент
▁köpeğ
▁алмас
▁Birçok
▁әрқайс
▁süredir
▁алмайды
▁жайында
▁Herhangi
▁кездесуге
▁отбасылар
▁графикалық
▁коммуналдық
▁маңыздылығы
▁жабдықталған
▁шаруашылығын
▁құзыреттілік
▁инфрақұрылымын
Вт
ффуз
▁Kah
▁bes
▁куә
▁күз
valtı
емент
енция
▁Saat
▁пунк
денген
ниттік
▁оқушы
▁жетімді
▁istediği
▁söyledin
▁бейімдел
▁енгізуге
▁байланысы
▁бұқаралық
▁салаларда
▁Қазақстанда
араби
иннің
▁алғы
▁моди
▁қозғ
▁Hayat
▁сенат
▁қағид
▁olması
▁күшейт
▁техник
▁салынды
▁орналасу
▁yapmasına
▁Түйіндеме
▁парламентаралық
9]
одты
▁disc
▁policy
▁түлект
▁елдерде
▁жаңадан
▁полиция
▁pazartesi
las
ине
▁53
ағыш
▁inf
▁Кей
▁open
ission
орлары
▁Hangi
▁армен
▁бағалы
▁паралл
▁шығады
▁çıkardı
▁уақытқа
▁ылғалды
eceğinden
▁olmasını
▁сақтауға
▁қызметтердің
▁жекешелендіру
▁й
ance
ауды
▁tem
гінгі
текті
▁nurs
▁visit
▁берік
▁сынақ
▁necess
▁тәулік
▁жандандыру
▁алушылардың
▁жүйелерінің
▁өкілдерімен
▁қатысушылары
▁департаментінің
жо
hoş
илл
онд
▁мүл
▁түп
▁ұялы
▁қорын
▁global
▁ұсыныс
▁бөлініп
▁самұрық
еттерінің
▁жасалады
▁қатынасы
▁басқарушы
▁логикалық
▁сипаттайтын
▁әкімдігінің
23
▁эы
meni
▁400
▁two
алиев
▁fore
дістем
▁Dünya
естігін
▁аралығ
▁kalacak
▁Осындай
▁increase
▁палатасының
▁қаржыландыр
cal
nov
ual
ибр
▁ик
▁оф
ияны
▁тұн
сінде
▁these
▁газды
▁мықты
▁оқиға
діқалық
ілмеген
▁olurdu
▁кездегі
▁білдіріп
▁танымдық
▁құрылады
▁ihtiyacın
▁өткізіледі
▁функционалдық
▁ті
rent
ұлды
▁Mar
▁ark
▁ass
▁цех
▁көкт
▁beğen
▁trade
▁strate
▁сөйлеу
▁эффект
▁yaşamak
▁болмауы
▁басымдық
▁жағдайға
▁жыныстар
▁сапасына
▁бағыттарын
▁сипаттамасы
▁тапсырмаларды
▁екін
▁елге
▁хлор
▁bilir
▁класс
▁моноп
▁bahset
▁форумы
құқықтық
▁dışında
▁foreign
▁алынатын
▁белгілер
▁кітапхан
▁орталығында
▁пайдаланудың
ame
luğ
▁ба
ожүй
▁biç
eceği
▁anah
▁оқып
▁Мұнда
▁Birkaç
▁тәрбие
▁фосфор
▁yaptığı
▁фракция
▁агенттік
▁nursultan
▁relations
▁қоғамдаст
▁керектігін
ози
штаб
▁hey
шаның
▁altı
▁егін
▁жаст
▁resul
аланған
▁issues
▁есептің
▁сайынғы
▁салынып
▁таралған
▁жылдығына
▁толықтырды
▁партиясының
▁tal
▁such
▁tanım
▁sorunu
▁ашылады
▁көрменің
▁кеңейтуге
▁сапасының
▁көрмесінің
▁қиындықтар
ose
апур
септ
тігі
ымдар
ыстан
▁Arab
▁штаб
дермен
▁barda
ахметов
дығының
▁белдеу
▁жіктеу
▁кремний
▁istasyon
▁долларды
▁жағдайына
▁құттықтау
▁күштерінің
▁процесінде
▁teşekkürler
▁бастамасымен
ga
▁Он
▁был
ersen
▁Okul
▁özür
▁тұру
▁ретті
▁шекті
▁derece
▁жылдығы
▁жұмылды
шілігінің
▁Жоғарыда
▁бюджетке
▁енгізуді
▁көздейді
▁экспортт
▁нейрондық
▁төмендеуі
министрінің
▁мәжілісінің
▁нақтыланған
▁аналитикалық
▁ұйымдастырылды
1-
met
евт
▁ма
▁ұй
eliy
шама
▁ber
▁evi
▁indi
ультим
▁verir
▁жерге
▁робот
meyecek
▁edebil
▁eğlenc
▁жіберу
▁үйрету
▁үрдісі
▁телефон
▁келесідей
▁орталығын
▁пікірінше
▁талаптарға
▁құбылыстар
▁құттықтады
▁салалардағы
ady
яси
▁Пр
alth
тқан
▁acı
▁Кел
▁қис
алдау
▁ağla
▁well
▁numar
▁partn
▁өскен
▁yerine
▁жандар
▁сандар
▁Neredeyse
sak
çak
Қаз
▁Су
▁cez
▁ник
денең
тамыз
ұлдыз
▁attı
▁uğra
▁алты
▁номин
▁қойып
▁within
▁көруге
тараптан
▁current
▁сыйымды
▁интерфей
▁марапатт
▁жеткізілді
▁менеджмент
қыұ
▁Күн
альді
ектік
▁çift
▁Ұсын
esinin
мәдени
қандай
▁polis
▁yatak
▁yeten
▁комбин
▁yanında
▁орнының
▁бәйтерек
▁теориясы
▁бағытында
▁бөлігінде
▁тұрғындар
▁есептеулер
▁бағдарламалау
ba
ved
аку
ева
шет
tial
атау
▁Dev
▁уағ
мейді
▁каспий
▁әдетте
▁ықтимал
аттарының
▁қолданысқа
ДЕ
per
ardı
тыру
▁law
▁Қыз
шілес
amıyor
қсанда
▁agric
▁müzik
▁шықты
▁ұлғаю
▁өзгерт
▁process
▁кететін
▁тәрізді
▁азиядағы
▁шығаруға
▁қатысатын
▁үкіметаралық
▁технологиялары
4)
gal
ture
ияда
▁Tat
▁пеш
▁фир
▁Biri
▁диап
▁еқыұ
▁ойым
▁mesaj
▁сульф
▁уағдал
▁қарсаң
▁Бүгінгі
▁айтылды
▁жолымен
▁қабілеті
▁басшысына
▁ортасында
▁министрдің
▁түсіндірді
▁парламенттік
▁ерекшеліктерін
бі
ayla
▁сүр
ength
жатты
▁edem
▁эыдұ
▁resim
▁артуы
▁өңдел
▁pahalı
▁өтінім
▁жататын
▁жағалау
▁оқытуды
▁салмағы
▁құрастыр
▁өндірісін
▁өнімдерді
▁пайдаланылады
▁материалдардың
2]
ДА
bek
▁57
▁сей
▁шаш
ейтой
▁bahç
▁Техн
▁жерді
▁үлест
iversit
▁gördün
▁Arkadaş
министрдің
▁қабылдауға
ys
itiz
▁stu
anada
mayın
▁аэро
далады
егейлі
зиялық
▁тамақ
▁жатқыз
▁көрініс
▁istiyoruz
▁кешенінің
▁университет
▁параметрлерін
co
мам
мең
тум
▁95
▁эв
▁est
▁гип
▁нөл
ғаның
қында
▁yolu
орттық
▁söyler
▁кепілдік
▁қыркүйек
▁біріншіден
▁институтының
▁қызметкерлердің
vi
bat
can
еля
дель
▁атс
▁зат
▁Қор
▁sayı
▁сани
▁жасқа
▁үйлер
▁жолмен
▁іздест
▁ұтымды
▁анықтап
▁бірлігі
▁болмаған
▁мерейтой
▁өкілетті
▁industrial
▁басқармасы
▁әдістемесі
алай
dırdı
▁Annem
▁ірікт
дігінен
▁Кілттік
▁депутат
▁үндістан
діқалықова
▁деректері
▁тәрбиелеу
▁басшыларының
лей
eyiz
анып
гілі
▁120
▁Бол
енттің
▁other
▁жағым
▁хатшы
дерінен
▁bildir
▁күрдел
▁есептел
▁жасалып
▁сингапур
▁астананың
▁жүйелерді
▁серіктестер
▁энергиясының
şk
ica
ırı
май
▁kr
▁pek
▁sec
▁пат
▁sorum
bilirim
▁yaptık
▁болсын
▁тұтаст
аларымен
▁банктің
▁бақытжан
▁салалары
▁bilgisayar
▁асырылатын
tuk
сорб
▁çab
▁пил
▁бәрі
омәдени
▁Барлық
▁болуға
▁импуль
▁фармац
▁gitmeyi
▁sonunda
▁уақытын
▁істеуге
▁болғанда
▁оператор
▁таныстыру
▁түбегейлі
▁түріндегі
▁қабілетін
▁архитектур
▁элементтері
▁ерекшеленеді
ақп
▁ra
ecan
▁only
▁hangi
▁көшір
▁макро
▁іскер
▁general
▁univers
▁индексі
▁өңірдегі
oman
▁gaz
▁mey
▁аэа
▁içki
▁файл
▁haklı
▁olursa
▁teklif
▁етілді
▁жұлдыз
естіктің
▁асырады
▁қатынас
▁байқауға
▁туындайды
▁төрағалығы
▁экономикаға
▁аралығындағы
%)
ml
▁54
ısız
▁Eve
▁Tan
arken
абына
▁good
▁orta
▁докт
▁зиян
▁пери
▁atten
▁қосты
ықтарды
ағдарлам
▁аурухан
▁қызықты
қатынасты
▁универси
▁қозғалысы
▁кездесетін
▁тәуелділігі
СО
йд
dük
ire
ugh
▁Ең
▁Tel
▁nad
▁дал
▁күл
lıkla
penden
▁etmem
▁güçlü
▁tenis
▁австр
▁әрине
▁Yardım
▁уақытша
▁fotoğraf
▁аяқталды
▁демократ
▁балаларды
▁бағдарламаларды
22
бит
дәр
жел
▁ны
аулы
▁mal
tives
▁әліп
▁araya
▁görev
еленген
▁саммит
▁şimdiye
▁бастысы
▁кетерлігі
▁тәсілдері
кез
▁[6]
▁dif
▁lar
▁дос
▁hous
імізге
▁düzen
▁geliş
ацияның
▁нұрлан
▁тазалау
▁алюминий
▁independen
▁орындалады
▁өнімділігі
▁kırıklığına
1)
быр
▁ca
▁bay
▁Бал
▁мұз
-2016
▁мырз
▁pencer
▁алудың
▁olduğum
▁басымды
▁құраған
▁тығыздығы
▁өндірісті
▁тәуелділік
▁хабарлайды
км
▁85
▁af
дакт
олар
▁ada
▁ваг
▁каз
▁күм
гінді
қашан
▁Noel
▁алуы
▁etraf
▁miyiz
▁кесте
ulation
▁Amerik
▁журнал
▁жылыту
▁күшіне
▁сауатт
▁маманды
▁оқытуда
шыларының
▁regional
▁туристер
▁necessary
▁олимпиада
▁төмендеді
▁ақпараттың
▁металлургия
▁бағдарламалары
çi
▁Sö
тығы
ерлеу
▁know
▁азот
▁ақша
▁теңг
▁anlaş
▁durdu
▁olmaz
▁сынау
ларымен
▁dolayı
▁kalmak
▁sarhoş
▁алынып
▁жатырм
▁өсуіне
▁білімін
▁етіледі
▁тартуға
▁шешудің
▁ettiğini
▁белгілеу
▁пайыздық
▁бастамасы
▁этномәдени
ata
eci
▁Ел
▁eff
▁көші
▁түзу
▁otobüs
▁айтуға
▁диапаз
▁edeceğim
▁Оңтүстік
▁endişelen
▁istemedim
▁қарсаңында
▁жаңартылатын
сел
▁пыс
бірек
орган
▁borç
ентген
ықтағы
▁Erkek
▁Оқыту
▁өтуде
▁контур
▁асыруды
▁қатарлы
▁облысындағы
oll
▁51
▁98
▁Mu
▁Yağ
ected
veriş
larımı
▁Böyle
▁gelen
▁кабин
▁қалды
лерімен
▁диффуз
▁науқан
ектердің
▁жаттығу
▁объекті
▁құқығын
▁айналады
▁дегеніміз
▁жүргізуде
▁институттар
▁температурада
2)
кар
inci
ussi
▁30-
▁сир
шараға
▁кибер
▁әлсіз
▁school
▁пысықт
▁қойнау
▁сұраныс
▁істеуде
▁ешқандай
▁мамандық
▁фармацевт
▁жүйесіндегі
▁49
▁Ау
десу
▁0,9
etmen
стері
▁held
▁еуро
▁Есепт
▁көктем
▁мекеме
▁табыст
▁тіледі
▁көбірек
▁көлемде
▁көлемді
▁сөзінше
▁кеңестің
▁міндеттері
▁қолданылуы
▁құқықтарын
▁әртараптан
▁гуманитарлық
▁технологияларын
бон
гей
лад
шам
▁97
dget
▁лиц
-2018
▁ağır
ablish
▁етуде
▁көбей
▁түйір
▁ұстап
ектерді
▁білімі
▁тәсілі
▁түйінде
▁атамекен
▁бөлінетін
▁өткізілген
▁міндеттерін
▁компаниялары
iet
ысов
▁Kaz
▁İlk
▁şap
▁agre
▁itir
▁yanı
▁қант
▁құқы
mesine
альдық
▁order
▁сирек
▁тараз
▁болуын
▁жапония
▁контейн
▁масштаб
▁оқушының
▁establish
▁материалдарын
▁технологияның
ец
үш
пия
▁Таб
▁list
птеген
▁yaban
алдардың
▁фазалық
▁диаграмм
▁көлденең
▁sevmiyorum
▁televizyon
га
лет
оци
мелі
▁dal
▁vol
▁adını
▁demek
▁ахмет
▁дәліз
▁almaty
▁bundan
▁украин
▁автожол
▁материалдары
▁ұйымдастырылған
1]
ft
ДЫ
ры
эм
düğü
▁rağ
ument
егіне
шалар
▁Söyl
▁total
emezsin
▁budget
▁şanslı
▁жобаға
▁жерлерде
▁тартымды
▁тіршілік
▁zamanında
▁геометриялық
üf
жын
зер
палы
dığın
ılmış
▁eğit
larında
▁rağmen
▁competi
▁ауыстыр
шылығының
▁ayakkabı
▁дамытуды
▁тапсырыс
▁тоқталып
▁есептелген
▁заңдылықтар
go
әл
şık
жаб
▁бе
ific
оңыр
▁20-
▁Göz
▁сым
▁2008
▁қатер
▁сұлтан
▁ayrıldı
▁tanıyor
▁полигон
▁украина
▁interest
▁асыратын
▁форумның
▁мамандардың
▁экономикасы
▁жетістіктері
гіп
нде
üldü
алту
ірім
▁Lin
▁[7]
▁civ
▁kib
▁ней
▁alın
▁жікт
eceğine
▁Kanada
▁alıyor
▁қабырғ
ümüzdeki
▁қышқылы
▁değildim
▁дағдарыс
▁отырыста
▁мектептің
▁әдістерді
▁азаматтарға
▁тұлғалардың
шұ
▁қк
cial
▁dom
▁sok
▁önc
екция
▁sınav
▁sigara
▁önünde
▁күніне
▁қалада
▁әуежай
▁yapmadı
▁еуразия
▁кестеде
▁қателік
▁тұлғалар
▁құттықтап
▁реформалар
▁қозғалтқыш
▁бағыттарының
▁біліктілігін
▁тұжырымдамасы
Si
ЛІ
dar
lum
ейц
еме
▁Мо
lear
менті
▁siya
▁çarp
кістан
▁Ondan
▁seçen
▁радио
ылмаған
▁dinlem
▁gitmem
▁сәулет
▁таңдап
▁seyahat
▁атсалыс
▁reddetti
▁бағалауға
▁бақылауға
▁қызметкер
▁талаптарды
▁жетілдіруге
▁қолданылған
▁қанағаттандыр
ЕМ
idd
unç
кең
▁58
▁(1-
▁hol
▁ris
▁исп
кемен
▁таяу
▁фильм
ditions
▁базасы
▁ескеру
▁тапқан
▁тұрақс
▁орындық
▁айнымалы
▁istiyordu
▁мәселесіне
▁жеткізілген
▁республиканың
▁қызығушылығын
▁пайдаланылатын
▁ратификациялау
▁ео
▁chan
▁gide
▁визу
▁ісін
▁durum
▁içeri
▁қабық
▁growth
▁olmayı
▁sector
▁алдына
▁шешуде
cağından
▁Benimle
▁heyecan
▁армения
▁бойында
▁күндері
▁тапсыру
▁ұжымдық
актикалық
▁strength
▁жатырмыз
▁нарықтар
▁стратегиясын
▁сәйкестендіру
ced
ful
urur
илин
ресс
фаль
▁(2)
▁adı
▁cor
muyor
лауға
▁ақау
▁паци
гіштік
▁zarar
▁түріне
▁бастама
▁жемісті
▁addition
▁арттырып
▁аталатын
bo
bu
ье
ope
way
бей
ұрт
uluk
▁dağ
▁mar
▁тот
yabil
менов
▁form
ықтығы
ілуіне
▁мырыш
melisin
▁center
▁беттік
▁дәрежеде
▁міндетін
▁аймақтағы
▁эксперимент
kı
эн
▁66
▁мг
akta
шарт
▁гру
▁ның
ронды
▁ерте
▁buldum
▁италия
▁aptalca
▁бөлісті
▁катализ
▁негізде
▁көзқарас
▁табылған
▁мерекелік
▁өнімдердің
▁артықшылықтары
ily
▁99
▁Gö
▁İç
ırdı
▁Dok
▁Gör
▁ila
▁rap
▁жүл
▁ұшу
lıdır
бетов
▁робо
▁start
▁Мақал
▁алуды
▁салды
▁kaldım
▁сүйене
▁әңгіме
▁стацион
▁өндіруші
▁асырылған
▁елдерінде
▁ақпараттар
oli
ayet
иясын
сынды
▁Kend
▁umur
▁бюро
▁шлам
ulture
▁güneş
▁арзан
▁mutluy
▁лайықты
▁bildiğini
▁gideceğim
▁монополия
ыт
бал
вол
мақ
ешев
▁Топ
▁зал
ürüst
өткіз
▁diye
▁last
▁алек
ements
әрекет
▁citiz
▁жасай
▁салып
▁discus
▁құруды
▁Аталған
▁dışarıda
▁industry
▁сіздердің
ky
erv
▁Үш
▁Top
imden
▁yine
▁Қоры
▁сүйен
▁тағам
дарымен
▁yıldır
▁мәлімет
▁элемент
▁өскемен
▁söylemem
▁депутаты
▁жеткілік
▁olduğumuz
▁дағдарысқа
▁нысандарды
гуманитарлық
▁тұрақтылықты
рин
метр
одақ
олиз
▁ait
▁kav
▁min
ality
аторы
сивті
▁тақт
▁шифр
▁bitti
▁tutuk
▁оқшау
ындығын
▁мультим
▁çocuklar
▁companies
сс
▁TV
▁ör
▁нө
etli
iren
ploy
sini
окси
▁Kaç
aladı
алуда
▁2000
▁влад
▁етуді
▁оқуға
▁health
▁ауытқу
▁kırmızı
▁жасауда
▁endişeli
▁Öğretmen
▁келісімнің
▁құралдарды
АҚ
лин
▁шу
▁ұс
ight
▁Kit
▁мег
өндір
алуына
▁шебер
атордың
▁табуға
▁üzerine
▁реформа
▁өңдеуге
▁өңдеудің
▁агенттігі
▁жеңілдету
cad
▁52
имир
огаз
пелі
▁reg
▁Қол
▁ұкп
sınız
еймін
▁buna
▁dest
▁сіңір
▁Yağmur
▁kazana
▁жетісп
▁осының
▁ebeveyn
▁айқында
▁асырылу
formation
▁қорғасын
▁қосылады
дістемелік
▁саналатын
▁орталықтары
ынш
▁78
▁Ol
zgün
ürül
баст
тест
▁aut
▁diş
▁аөк
▁ест
шінің
▁hist
▁past
▁Адам
▁tamir
▁uygun
▁ахуал
▁gittik
▁жалғас
▁жәрмең
▁тоқсан
▁görmeye
▁Жұмыста
▁алмасты
▁базасын
▁шығатын
▁increased
▁ресурстары
▁функциялар
▁көрсеткіштерін
bor
уст
тран
урет
▁add
-2015
uştur
▁балл
▁кепт
▁окру
▁сайт
ымызда
▁Sizin
амбетов
▁әліпби
lerinden
елерімен
▁жастарды
▁тиімділік
▁цифрландыру
uv
üms
▁doc
▁pas
▁Жаңа
▁арен
аттану
▁Zaman
▁көкөн
▁музык
▁мінез
▁вектор
▁жарқын
▁салуға
▁тамақт
▁тоқаев
▁біршама
▁ресейдің
▁ұзақтығы
▁екіншіден
▁istemediğini
▁Республикасы
▁логистикалық
▁функционалды
ud
les
▁Ac
iyan
тивт
ырын
▁Çin
▁deli
▁into
ландыр
▁taşın
▁аудит
▁енген
▁babası
▁мектеб
▁резерв
▁шекара
▁өтілді
гершілік
▁değiliz
▁сапалық
▁шараның
▁нәтижелі
▁орындалу
▁үдерісін
▁өткізіліп
▁шешімдерді
▁ілгерілету
▁жаңартылған
▁кәсіпкерлердің
ажай
▁той
ladım
memiş
▁child
▁every
▁incit
▁ерлан
▁сауал
▁шарты
▁медаль
mıyorsun
▁әдіспен
енттердің
▁долларын
▁электрон
▁алдындағы
▁жобаларға
▁құқықтары
▁қарастырып
▁жүргізілетін
wn
па
ati
net
▁59
▁Өл
ants
▁Har
▁mağ
▁Сыр
▁шал
▁koru
▁сулы
▁келер
▁уәкіл
құрылым
▁Buraya
▁hatalı
▁жүйеге
▁шамасы
▁products
▁бастайды
▁дамытуда
▁мазмұнын
▁сипаттау
▁yapmaktan
▁пайдалануды
▁интеграциялық
▁exh
▁loc
▁nor
▁sci
▁рей
ilmiş
▁Kapı
▁buil
▁kula
▁they
дандыр
▁finan
▁жалақ
▁тырыс
шысының
▁алаңында
▁қызметке
емлекеттік
▁including
▁оқулықтар
▁Muhtemelen
5)
рав
▁Aç
▁gr
▁Сә
▁10-
▁Бел
▁дет
▁хан
▁Қал
▁fiyat
▁неміс
▁ұстаз
▁oturdu
▁ондағы
▁Көптеген
▁саясатты
▁ғарыштық
▁статистика
▁тәжірибені
▁коэффициент
▁құрылысының
нит
▁bat
алуын
тарға
▁etme
▁sizi
eliyiz
қазына
▁орман
▁үйдің
▁bulmak
▁geldim
атикалық
▁авиация
▁көбейту
▁minister
▁кездесуі
▁жеткізген
▁нәтижесін
▁секторлар
▁түзетулер
▁орталықтың
16
17
акс
sine
ежел
імов
▁equ
▁set
ланады
мысалы
▁дерек
▁ыстық
тталған
▁ішінен
▁present
▁жақсарт
▁жүйелік
▁жұмысшы
▁саланың
▁басшылық
▁gittiğini
▁түрлендір
▁түсіністік
▁энергияның
▁өсімдіктер
▁Нәтижесінде
▁процестерді
▁қатынастарды
▁психологиялық
-19
ood
sat
зал
онт
▁id
▁ҚР
mana
▁Pro
▁жам
дайым
▁басс
▁дала
елерге
лықтың
▁барып
▁дәуір
▁ылғал
▁şirket
▁айының
▁ашылуы
▁көркем
▁сигнал
▁Onlarla
▁жүретін
▁үрдісін
▁орнатуға
▁өнімділігін
ЕН
бр
мұн
▁jo
▁Құ
▁ili
▁sub
▁çiz
армай
шетау
▁adım
▁aşık
▁апта
▁бөліс
acağını
eceksin
▁диспер
▁planned
▁zamanda
▁құрудың
▁мектепте
▁өнімінің
▁насихаттау
▁төрағалығымен
evk
рад
ияға
▁Жел
▁Тур
▁бап
mamış
балар
▁pers
▁асыл
▁фирм
естері
▁Oraya
▁appro
▁intro
▁одағы
▁саланы
▁қосылу
dığından
▁address
▁Çocuklar
▁айналған
▁көпшілік
▁суреттер
▁қатысуда
▁конвенция
▁үйлесімді
▁strengthen
▁клиникалық
▁санитарлық
▁қолданатын
тк
мұх
▁Со
cağı
okyo
▁сел
лыққа
▁meas
▁план
▁өсір
▁russi
▁қысқы
▁құпия
ыстарды
▁акцион
▁етудің
▁өлшемі
изикалық
▁палатасы
▁тигізетін
▁жоспарының
▁экстремизм
▁тұрғындардың
ТТ
рг
хат
▁ги
денс
▁суы
▁чех
-2019
▁науқ
▁оқыт
▁шыны
resent
етінен
тоқаев
ттарын
▁ізден
▁Doktor
▁польша
▁шаққан
▁capital
▁üzgünüm
▁демалыс
▁әрдайым
▁астанаға
▁есебінің
▁еңбектер
▁gidiyorum
▁sevdiğini
▁басқаруды
▁сараптама
▁қалыңдығы
▁деректердің
▁басшылығымен
▁тапсырмаларын
ties
ılır
аңыз
қанды
▁tarz
▁since
▁ойлай
▁серік
▁Әрбір
еменшік
стардың
▁интерв
▁service
▁чемпион
▁аумақтық
▁сынақтар
▁холдингі
▁шығарады
▁басқаруға
▁бөлімінің
▁жұмысымен
▁көпшілігі
▁негіздері
▁қолдануды
▁артықшылығы
▁байланысқан
▁бағдарламаға
▁әртараптандыру
раг
▁gi
ular
▁Jac
▁Oda
ğiniz
шығыс
▁taşı
▁плен
▁қауп
▁әлде
терлік
▁union
▁şarap
▁шығып
▁söylen
▁бөлшек
▁қордың
▁bekledi
▁gelmedi
▁çalıştım
▁владимир
▁орындалуы
▁қатысушыларға
ох
ücü
ency
ider
мбеб
етнам
індеп
үйсен
▁kurt
▁bildi
▁commun
▁импорт
▁бағытын
▁есеппен
▁kahvaltı
▁баяндама
▁represent
▁дәрежесін
▁аспектілер
▁тәртібіндегі
ori
лов
ско
▁900
▁Еур
імдік
▁euras
▁olmuş
▁çiçek
▁алуда
▁тотық
▁швейц
▁almaya
▁future
▁regions
▁өмірлік
еханикалық
▁commission
логистикалық
add
▁63
ting
асан
▁şem
▁тай
▁серб
діктен
▁garip
▁gurur
▁біртұ
баевтың
▁заңына
▁қалады
▁құқығы
▁konuştu
▁рентген
▁пилоттық
▁ғасырдың
▁өзгереді
▁жолындағы
▁нысандары
▁тартылған
▁іздестіру
▁қабылдаған
ИК
sal
быз
▁İk
ayım
▁air
▁bun
▁гор
▁соқ
раиль
ылуға
▁Buna
▁Жылу
▁азаю
мбебап
▁tarih
▁айтар
▁алдық
▁жабын
▁жиынт
▁типті
алмаған
дастыру
дендіру
▁attrac
▁асфаль
▁аяқтау
▁шығыны
▁kendine
▁yabancı
▁жүргізген
▁білімдерін
▁академиялық
▁жағдайларды
▁жеткіліксіз
▁қалаларында
▁ұйымдарының
18
ry
кс
ase
ert
иен
тон
▁73
ебебі
ілуін
▁real
▁соғы
alandı
▁roman
▁ашуға
▁беруде
▁Математ
▁беріліп
▁үкіметке
▁федерациясы
▁комиссиясының
xt
ций
▁6-
▁68
▁800
▁sef
▁çay
▁АҚШ
▁Дер
▁Жүй
атады
▁виде
ағынан
▁babam
▁келуі
▁минут
▁senden
▁ауаның
▁шеттік
▁қойылым
керлердің
▁тәртібін
▁аяқталады
▁орындалды
▁ықтималды
▁шаралардың
коммуникациялық
bet
пау
▁bı
алқы
имум
▁def
▁нәр
ısını
▁2025
▁conc
▁қайт
eliydi
ттерді
▁қамты
▁fikrim
▁балқыту
▁бірігіп
▁өткізіп
▁alışveriş
▁микроскоп
▁шығындарды
▁бағдарламаларын
ss
йс
▁üc
▁вел
▁отт
▁parç
▁каль
▁нейт
▁distr
орданың
сындағы
▁exhibi
▁бөліну
▁спикер
▁vermedi
▁басылым
▁таралуы
▁Интернет
▁бюджеттің
▁заңнаманы
▁өзгеруіне
▁түрлерінің
▁шығарылатын
▁факторлардың
ки
рий
шақ
батт
▁soy
▁лок
urity
атуға
кесте
маған
▁2030
▁yarat
▁кетті
▁okulda
▁unutma
▁yoktur
▁икемді
▁цемент
titution
▁yürüyüş
▁барысын
▁бетінің
▁азайтуға
▁сәулелену
▁нысандарын
▁қызметтерін
▁тұрақтылығын
ОЛ
ley
ows
sed
гал
▁67
▁ph
▁Мұ
arda
fade
ilir
liam
ydın
дағыш
▁алыс
▁ашып
▁кеңс
▁оқыл
імізде
▁aradı
▁düştü
▁çekti
▁korkut
▁аралас
▁тізімі
▁қолбас
▁қасиеті
▁тудырады
▁туризмді
▁жоғарылау
▁белгіленді
▁зерттеудің
▁inanamıyorum
▁белсенділігін
▁федерациясының
fk
lat
▁Su
▁vi
▁ли
алым
апқы
игур
imize
меген
▁Tren
▁Uzun
▁resp
▁zevk
▁абай
▁арақ
▁осын
ингтік
▁күшін
▁birine
▁gelmek
▁Себебі
▁орнықты
▁alacağım
▁биіктігі
▁көрінісі
▁developed
▁орталықтан
▁қаншалықты
ni
ym
пақ
andı
ileş
uhaf
есіз
▁döv
▁Кон
lıklı
матул
ылмақ
▁Кілт
▁ұсақ
енетін
▁niçin
▁сұрып
▁тыйым
▁contin
▁görmedi
▁kazandı
▁бағасын
▁пайызын
▁барлығын
▁партиясы
▁саясаттың
▁трансформ
▁zamanlarda
едагогикалық
▁тұрақтылығы
дро
ағай
ырлы
▁aim
▁suc
▁çağ
атрий
дікті
иялар
▁sıkı
▁İşte
▁кесу
ьетнам
▁күміс
▁плазм
▁көлігі
▁сөзсіз
▁жарамды
▁форумға
леуметтік
▁бағалады
қатынастың
▁жүргізеді
▁өткізілетін
▁қазақстанмен
▁ынтымақтастығын
ңір
▁1)
lars
▁Kal
▁гер
▁мом
▁шат
ution
ектегі
▁Akşam
▁конгр
▁мәнге
алдарды
кестеде
▁parayı
▁антроп
▁атаулы
▁айналып
▁толтыру
▁үстінде
▁services
▁İngilizc
▁тереңдет
▁ғаламдық
▁тәсілдерін
▁әдістерінің
▁қауымдастығы
ear
▁Es
▁Si
▁ев
tıcı
▁сах
▁экз
▁құт
ating
плиту
▁ахқо
ership
лемдік
▁ifade
▁ағыны
▁опера
lerinin
лігінде
▁бөлімі
▁портал
▁konuştuğ
▁көкшетау
▁адамдарды
▁біртіндеп
▁жиынтығын
▁орынбасар
▁уақытында
▁процесстер
▁белсенділік
ulu
оти
▁Do
outh
raki
uman
иялы
▁süt
▁ана
▁төс
madık
лайды
ылыми
▁марш
▁прог
мейтін
▁initi
▁Төмен
▁егжей
▁комис
▁лицен
▁ханды
лығымен
▁olmadı
▁жалпыл
▁biçimde
▁Тәжіриб
▁келешегі
▁кеңестер
▁шеберлік
▁қоспалар
▁айырмашылығы
▁таныстырылды
▁кәсіпкерлерге
▁қорытындысында
sh
▁72
▁Ha
▁Ес
▁Екі
▁рол
rough
▁үйін
▁ұқшұ
герлер
▁Niçin
▁innov
▁şeker
айтынын
менстан
▁alacak
▁enterpr
▁көрсете
▁телеком
▁ұзақмер
▁measures
▁нысанның
▁салынады
иологиялық
▁conditions
▁мақсаттары
▁қалыптасуы
▁программалық
14
▁ir
avaş
жеке
ырма
▁1,2
▁50-
▁neh
▁şak
▁эст
креди
▁биік
▁көру
ісінше
▁Ресей
▁жолға
▁малай
▁states
▁yapmaz
▁бетіне
▁öğrenci
▁зауыттың
▁мәліметі
▁konuşabil
▁алмастыру
▁толыққанды
▁параметрлер
its
▁At
▁Fe
ural
осым
қара
▁Дем
▁ісі
туден
▁Kork
▁road
▁Баст
ession
▁çaldı
▁басып
▁жұмыр
шілерге
▁hediye
▁символ
▁biridir
▁нарығын
▁қосынды
▁бекітілді
▁модельдер
▁пайдаланады
▁президенттік
eg
▁64
▁др
üler
лянд
▁180
ğimiz
ермен
жейлі
терде
▁ağaç
▁evli
▁test
▁дана
ıyoruz
елетін
▁ettin
dığında
esinden
ақтарын
▁ойымша
▁korkunç
▁нарықта
▁отырғыз
▁тоннаны
▁талаптары
▁тауарларды
▁қаңтарынан
▁бағытындағы
▁коммуникация
▁сертификаттау
şa
ақш
жұм
таң
▁рф
атом
комп
▁550
▁Mat
▁tim
▁Сын
▁шан
▁kanı
▁ақыл
▁морф
▁үйді
істері
▁congr
▁kilit
▁sahib
▁Жұмыс
▁Табиғ
▁істей
▁құбыл
▁беруші
▁орнықт
▁success
▁орнында
▁ауылында
▁Pazartesi
▁бақылауды
▁өздігінен
▁өзгертулер
▁айтылғандай
▁аумағындағы
ru
ішке
▁1,1
▁gra
▁Про
анның
▁100-
▁many
▁otel
▁итер
▁тегі
lardır
▁карта
▁шұғыл
▁ғалам
▁duyduğ
▁байыту
▁күннен
▁нұсқау
▁реглам
▁Fransız
▁бетінде
▁екеніне
▁жылулық
▁қысқаша
▁шығындар
▁ұйымдары
▁тәулігіне
▁жалпыұлттық
▁субсидиялау
▁тұтынушылар
▁атмосфералық
▁коммуникациялық
до
игі
лып
мон
мыр
▁if
ғарыш
▁Size
▁göml
ikayet
▁beyaz
▁elbis
▁Өндір
▁өзені
elerini
▁асатын
▁артуына
▁бассейн
▁қосалқы
▁кооперат
▁тұрақсыз
▁өңделген
▁айналдыру
▁сауықтыру
▁exhibition
▁проблемалар
▁қайырымдылық
▁экономикасына
әу
▁му
ласт
імнің
▁posi
▁бриф
▁пәні
▁ұзын
арстан
▁izlem
▁заңға
▁нидер
ытылған
▁біріне
▁жақсар
▁заңсыз
▁идеясы
▁кескін
▁вьетнам
▁жолының
▁алмастыр
▁Компьютер
▁процесіне
▁құрамының
▁bekliyorum
▁композиция
▁төмендейді
▁әзірбайжан
▁қарастырайық
▁кәсіпорындары
ЫЛ
lim
omo
oyu
vet
арн
▁76
hiev
uyla
▁Ail
▁oil
иметр
▁2005
▁Asla
▁жеті
▁kitab
▁param
▁басын
▁өтуге
▁achiev
▁başıma
▁sayıda
▁yakala
▁күннің
▁сипаты
▁қосады
▁үйрену
іміздегі
▁through
▁израиль
▁gösterdi
▁нарығына
▁нарығында
▁тереңдету
▁айнымалылар
▁жылдамдығын
▁назарбаевқа
▁көрсеткендей
ва
кес
▁700
rafik
yanın
▁olsa
терден
▁yaşam
▁демек
▁тұрып
▁geleni
▁pişman
▁аттест
▁anahtar
▁gidelim
▁sonraki
▁алғысын
▁массасы
▁организм
▁konuşmayı
▁материалды
▁шығарылған
▁проблемалық
тж
sün
рын
▁69
▁Az
▁uc
▁жж
amaz
▁mot
▁ығы
ілмек
▁başk
▁kedi
▁парк
▁шама
atives
ктивті
▁Tokyo
▁olası
▁olsun
▁бактер
▁мүддел
▁әлемге
қазақстан
▁eurasian
▁жылдығын
▁принципі
▁istediğin
▁болдырмау
▁қолданған
▁қозғалысын
▁information
▁төмендегідей
lay
итр
сал
▁fl
▁çö
арлы
▁ара
anlık
қатер
▁bira
▁prot
▁әбіш
lerimi
▁Avrup
▁жамыл
▁нөмір
ersiniz
▁umuyor
▁былтыр
▁құрама
▁әділет
▁nereden
▁söyleme
▁уақытты
▁әмбебап
▁заттарды
▁маусымда
▁olmalısın
▁yapıyorsun
▁патриоттық
▁ұйымдастыруға
pe
гид
▁62
▁In
▁Öğ
▁но
oung
олит
▁val
▁özl
▁апт
ендір
імсіз
▁prep
▁them
олюция
▁legal
▁барды
ıyordum
▁dinlen
▁fincan
▁olamaz
▁Студен
▁біркел
▁еңбегі
▁etmesini
▁мұнайдың
▁серпімді
▁тұлғаның
▁eğlenceli
▁атқаратын
▁фестиваль
▁söyleyecek
▁сараптамалық
▁температуралық
АЖ
lah
ond
піш
▁05
бағы
▁cin
▁maj
▁Хим
▁вок
▁дом
інеді
▁çant
▁жұрт
▁курс
zgünüm
спірім
▁sevin
▁şeyim
▁асқан
▁заряд
▁тілге
ақтарды
терінде
▁kaybol
▁басына
▁created
▁амплиту
▁назарын
▁диапазон
▁моделдеу
▁тартылды
▁қолдаудың
▁аймақтарда
▁тұрақтандыру
SO
ji
Ал
▁74
▁ЖЭ
span
aştır
сандр
▁cüml
▁блог
dığına
атегор
өндіру
▁sakin
▁yazdı
▁young
істерді
▁айтсақ
▁аралап
▁қазанда
ықтандыру
▁children
▁жүргізуді
▁коммерция
▁туындаған
▁insanların
▁пайдаланатын
▁қарастырамыз
▁жетістіктерін
▁ауылшаруашылық
▁бағдарламасында
fe
ağa
▁Oğ
▁Bek
▁Tam
▁ana
ersiz
ılmaz
▁күту
▁Linda
▁жинақ
▁класси
▁нарығы
▁getirdi
▁желісін
▁қыздыру
▁citizens
▁ediyordu
▁долларға
▁көшбасшысы
▁шығармашыл
▁ұзақмерзімді
▁зерттеулердің
▁сипаттамаларын
ink
авк
йық
мей
▁1.
▁об
▁тж
ises
ütüp
▁198
▁elma
даймыз
▁aşağı
▁saygı
▁Деген
▁түзет
ütüphan
▁dürüst
▁профил
езиденті
ыстардың
іпсіздік
▁yeniden
▁келісті
▁document
▁құрамдас
▁ұсынылып
▁çocukları
▁мәдениеті
әдістемелік
▁independence
бу
eyle
инді
итті
▁пре
▁тим
ision
ханов
▁dolu
▁çevr
▁азая
▁теті
иядағы
▁etmez
▁Халық
▁шаруа
▁ағынды
▁unuttum
▁дәрілік
▁нарыққа
▁байқалды
▁konuşmaya
▁адамдарға
▁yapacağımı
▁ауданындағы
▁ғалымдардың
▁элементтерін
led
авт
▁83
▁zh
ower
▁қтж
▁экск
leştir
▁балан
▁станс
▁қараш
амыздың
▁бөлуге
▁жалақы
▁ауданда
▁ахметов
▁бермейді
▁дегенмен
▁мерзімін
▁азаматтары
▁қабылдауды
▁мәліметінше
▁нәтижелерді
▁ынтымақтастыққа
ms
rit
лав
ышы
▁87
▁Or
▁xx
▁Düş
▁без
▁Өлш
▁eden
▁ünlü
▁сауд
ғылары
▁düzel
▁place
▁sürede
▁қорғал
▁үдеріс
▁kimseye
▁испания
▁коллект
▁мәнінде
▁başarılı
▁желілері
▁территор
▁қабаттар
▁Республик
▁таңдалған
▁population
▁сипаттайды
▁жарияланған
▁температураның
▁тәуелсіздіктің
rep
іле
▁ko
adın
ünkü
▁cam
▁key
▁сақ
▁тат
▁шөл
ology
талық
▁ayrı
▁қалу
уляция
▁bazen
▁three
▁volum
▁метал
eliydim
жаттығу
ғындағы
▁zordur
▁ортасы
▁палата
▁бастығы
▁кездейс
▁мүлікті
▁үдерісі
▁korkuyor
▁авторлар
▁банкінің
▁елімізге
▁серіктес
▁қабылдап
▁органдарға
▁қызметтері
▁қызметінде
▁нысандардың
▁ақпараттарды
cü
арх
пір
▁ұб
▁70-
▁kor
▁pur
▁дың
▁дән
▁мәм
лануы
құлов
▁avuk
▁peri
▁stan
▁ауди
uation
бекова
▁yarar
▁емхан
▁кезек
▁соған
▁қанат
▁itiraf
▁tahmin
▁көшіру
▁ниетті
▁өркени
▁company
▁жетісті
▁комплек
▁шөгінді
▁annivers
▁yapmamız
▁жобасына
▁нарықтық
▁құзыретт
▁түркістан
▁дайындалды
▁anlamıyorum
▁тапсырмасын
▁маңыздылығына
▁перспективалары
но
цин
▁77
ттеу
ымда
▁Кез
▁пош
▁rece
▁айда
ılacak
▁komik
▁makin
▁mağaz
▁елбас
▁капит
▁experi
▁yaşadı
▁есімов
▁мейрам
▁брифинг
▁елдерге
▁ескерту
▁жолдауы
▁benziyor
▁security
▁елдеріне
▁жасақтау
▁жастарға
▁political
▁бағалаудың
▁байланыстың
▁материалдың
▁төмендетуге
▁нысандарының
ну
▁q
ört
semb
оним
рдың
-2014
абаев
енинг
қалып
▁rica
▁анағ
старды
қышқыл
▁evine
▁günde
▁босат
artment
өспірім
▁electr
▁қуатын
елерінде
птикалық
▁Yakında
▁working
▁арнаулы
▁мұнайды
шараларды
▁біртекті
▁қаласына
▁attention
▁vereceğim
▁беретінін
▁термиялық
▁үрдісінде
▁өндірілген
йл
бар
ста
ысу
▁Uy
▁рН
sını
zbol
▁[10
▁fam
▁fur
▁Тем
▁мын
▁post
▁umut
▁арта
▁жұқа
lendir
астары
ғалиев
▁geçin
▁yapan
▁жылды
▁кесін
▁креди
туалдық
▁anlama
▁bardak
▁карбон
emiyorum
▁аккреди
▁түрдегі
▁қоғамда
антикалық
▁Дегенмен
▁белгісіз
▁жұмысында
▁мөлшерлем
▁ұсынылатын
),
cr
ığ
ио
ико
▁Di
-200
icro
ımın
даны
▁Den
▁böl
▁боз
▁шоб
орған
▁yata
▁piyan
▁барыс
▁құнын
матулин
▁қарқыны
▁наурызда
▁өткізеді
▁жасалатын
▁сапарбаев
▁бастамасын
▁төмендеген
▁қарастыруға
▁интеллектуалды
▁инвестицияларды
▁қауымдастығының
pi
лғ
alt
com
беу
▁Қо
ғалы
▁130
▁3,5
▁қоң
eydim
▁рель
lamaya
илиндр
▁Kendi
▁ettir
▁вагон
▁пішін
▁тұтас
▁беттер
▁тыңдау
▁distric
▁dollars
▁hayatta
▁категор
▁танысып
▁топтары
▁әрқашан
▁анағұрлым
▁кезеңімен
▁профессор
▁сұранысқа
▁айналысады
▁талаптарын
▁görünmüyordu
ior
қал
гіні
әстү
▁mez
▁елі
▁каф
ирург
▁sürdü
▁жуықт
▁крипт
▁түсім
бірімен
▁мереке
▁есептік
▁финлянд
▁başarısız
▁transport
▁yaşıyorum
▁üniversit
▁отбасылық
▁өлшемдері
▁орындалған
▁туындайтын
▁құрылымдар
▁anniversary
▁азаматтарды
▁мәліметтері
▁универсиада
dy
fi
шек
ited
tics
рсет
▁1,3
▁350
▁афр
▁тра
tedir
ınızı
▁gürül
▁Болаш
▁бітім
iyordum
өлшемді
▁Келесі
▁маркет
▁басқалар
▁белгілен
▁әрекеттер
▁жоғарылату
одинамикалық
▁тұтынушылардың
▁шаруашылығының
13
ань
оза
рін
фон
▁ро
▁іі
oğun
бран
▁140
▁Map
▁шағ
laştı
кезең
▁ежел
▁саты
▁ядро
ғыштар
▁kasab
▁ücret
▁дискр
▁қоспа
rastruc
▁become
▁employ
▁İstedi
▁жолдар
▁сергей
тегжейлі
▁central
▁жасауды
▁consider
▁sevmiyor
▁сомасына
▁arabasını
▁кездейсоқ
▁дағдыларын
▁шығарылады
▁қыркүйекте
▁жетістіктер
▁классикалық
▁функциялары
▁проблемаларды
..
24
был
сей
▁86
irim
умын
кімен
ттағы
▁mutf
▁takip
▁алуан
▁сынам
▁тірек
қимылды
▁köpeği
▁жүйеде
▁рәсімі
▁шараны
▁buradan
▁kardeşi
▁жерасты
жабдықтар
▁Бастапқы
▁дәрежелі
▁сұлтанов
▁александр
▁тамақтану
▁құндылығы
▁жылдардағы
▁кооператив
▁робототехн
▁желтоқсанда
▁корпорациясы
be
ğe
мм
шк
адм
цуз
ірт
▁4.
▁Ağ
▁Ұл
ined
sper
tada
▁Söz
▁ens
▁Жол
▁зон
▁реп
istan
▁10-1
acağız
▁Sorun
▁tuhaf
▁айдау
▁беткі
▁дүние
▁жеміс
▁тапты
asından
layacak
▁сөздік
▁теорем
▁қымбат
▁үстіне
▁Almanya
▁aslında
▁yapmamı
▁ақшалай
▁жылыжай
▁мамырда
▁схемасы
▁odasında
▁signific
▁ағынының
▁білімнің
▁жинақтау
▁одағының
▁geldiğini
▁салаларын
▁теңдеудің
▁мұғалімнің
▁орталығына
▁орындарына
▁зерттелетін
▁агенттігінің
eba
▁Am
▁br
ving
ауын
имер
▁koc
▁öfk
ульти
▁аним
elidir
Фараби
лардан
оратор
▁month
▁İspan
▁бастар
▁газбен
▁зардап
▁күштері
▁шешімді
▁шығынын
▁болғанын
▁салқында
▁жағдайдың
▁söylemedim
▁келісімшарт
▁жетістіктерге
6)
7)
зи
ker
tun
uya
ümü
гір
кал
▁Ap
▁Ek
▁ЖО
апол
▁tab
▁Бат
▁Мет
▁еті
erkez
matik
езқаз
игиен
▁алге
ілерді
▁айлық
▁битум
▁модер
▁тамыр
▁create
▁iyileş
▁reform
▁yapman
▁діндер
▁қалдыр
▁баспана
▁training
▁yemeğini
▁болатыны
▁кезектен
▁қойылады
▁өзенінің
▁елдерімен
▁болашақтың
▁жағдайдағы
▁әңгімелесу
▁yapabileceğini
▁Ге
azik
urum
ылса
▁New
гінен
▁kilo
▁Konuş
▁işini
▁vakit
▁жүгін
ометрия
▁destek
▁futbol
▁period
▁arabayı
▁quality
▁белгісі
▁жиілігі
▁пікіртал
▁туғызады
▁қорғауға
▁әскерлер
▁желісінің
▁орналасуы
▁декларация
▁жағдайлары
▁мүмкіндігіне
▁тағайындалды
▁сарапшылардың
▁тұрғындарының
▁элементтердің
▁мемлекетаралық
▁технологиясының
-4
=0
му
gür
▁Oy
▁lo
▁ta
ater
cası
tığı
малы
▁tep
ember
даның
ғанын
▁Bizi
▁your
▁күрт
▁niyet
▁көрді
▁assemb
▁концеп
▁үзіліс
▁өздері
▁şikayet
▁құрылуы
▁ахметжан
▁биология
▁söylemeye
▁Бағдарлам
▁бағасының
▁ретіндегі
▁экономикасын
oma
ияр
орв
риб
▁Hey
▁Yüz
▁Мыс
▁Түр
▁мвт
▁өзг
▁ayır
▁boya
▁large
▁агрег
liament
▁amount
▁баспан
▁бостан
▁бөледі
▁есебін
▁Kendimi
▁Sonunda
▁birinin
▁қамтуды
▁құжатқа
▁ұйымына
▁amounted
▁ақпараты
▁көмірсут
▁қарашада
▁ұсынатын
▁география
▁партияның
▁байланысын
▁енгізілетін
▁стандарттау
▁қауымдастық
▁парламенттің
▁метрологиялық
lice
post
uluğ
▁(2-
▁1,0
▁[8]
манов
▁uzat
▁Енді
▁Орта
ective
▁мұның
▁құзір
▁биогаз
▁жердің
▁король
▁Telefon
▁further
▁кезеңге
▁оқытушы
▁үшбұрыш
▁жоспарлы
▁çalışmaya
▁бөлігінің
▁жүйесімен
▁электрлік
▁ардагерлер
▁мақсаттағы
▁әйелдердің
▁белсенділігі
▁құттықтаймын
▁өзгерістерді
▁жауапкершілігі
19
udi
yol
жек
ный
anag
сері
▁маж
▁тоқ
balık
іктік
▁renk
▁басу
portun
▁Bazen
▁болар
▁сұрақ
▁Модель
▁бензин
▁қамқор
▁болмаса
▁дегенде
▁сұлбасы
▁opportun
▁sabırsız
▁ластаушы
▁талшықты
▁қойнауын
▁сыйлықтар
▁уәкілетті
▁өзіміздің
rastructure
▁arkadaşları
БЖ
тпа
уыз
хай
▁93
▁Öz
ible
odel
rene
рлеу
уляр
шыны
▁Dış
▁imk
▁use
дыққа
мұнай
онның
▁kayı
▁requ
▁hediy
▁жүрек
▁тамаш
▁үйрет
▁өздер
▁Avrupa
▁kelime
▁sıkıcı
▁çıkmak
▁ұлттар
▁әдісті
▁araştır
▁hepimiz
▁Есептеу
▁тілінің
▁introduc
▁байқоңыр
▁бизнеске
▁диаметрі
▁лицензия
▁облысына
▁қазірдің
▁қытайлық
▁моделінің
▁режимінде
▁құрылымды
▁тағайындау
▁қабылдайды
▁акционерлік
▁мақсаттарға
бо
кг
lex
sik
сіп
қол
▁96
▁Тұ
dıma
eğin
oeba
алас
енов
▁Doğ
▁Mut
▁пир
▁рах
▁рух
▁саң
lıydı
басын
деуге
қайда
▁Eski
▁area
▁inşa
▁uyar
▁тату
ахстан
дастар
▁deniz
▁nazik
▁siyah
▁жүлде
▁көбею
▁тыныс
▁құрып
▁үлгер
ылықтың
▁almayı
▁айтады
▁маршру
▁салаға
maktadır
▁Aslında
▁nadiren
▁çalışma
▁кальций
▁оқытуға
▁кадрларды
▁arkadaşlar
▁жасөспірім
▁көздерінің
▁сенімдімін
▁спортшылар
▁талқылауға
▁экспорттау
▁қосымшалар
▁жинақталған
▁нәтижелерге
▁қабылданады
▁қалдықтарын
▁президентіне
▁корпоративтік
▁министрліктің
ipl
ата
▁[9]
▁boğ
▁сіл
andev
diven
сапар
тарда
▁нано
▁china
▁мұрағ
▁топқа
лерінде
▁натрий
▁кесінді
▁формула
▁құрамды
естігінің
▁таратпау
▁қатысуын
▁операторы
▁шынықтыру
▁қолдайтын
▁мүмкіншілік
▁құрылымының
▁söyleyeceğim
▁директорының
▁қалыптасуына
▁стандарттарға
ғд
kar
тұр
▁3.
▁ша
трол
▁ful
▁ruh
▁Орт
▁аға
econd
дарлы
▁орал
▁Savaş
▁dakik
▁denem
▁gitar
▁hapis
▁local
▁poten
▁prior
▁sonuç
▁парад
▁ұрпақ
reprene
ланатын
▁saldır
▁мезгіл
▁сервис
делінген
▁кадрлық
▁сөйледі
▁қарусыз
▁құрылып
▁әдістің
▁елдермен
▁көшбасшы
▁уақытылы
▁қаражаты
▁biliyoruz
▁tehlikeli
▁тәжірибелер
кш
рах
уін
iety
омер
рист
▁Sab
▁gol
▁şeh
▁қоя
ектеп
дардан
▁ceket
▁батар
▁енеді
alarını
▁Bunlar
▁kaldır
▁kapalı
▁ақылды
▁санына
▁істеуі
▁durumda
▁бетінше
▁болғаны
▁өзгеріп
▁gönderdi
▁кітаптар
▁сайлауға
▁2017-2018
▁potential
▁қажеттігі
▁прокуратура
▁бөлшектердің
▁түсіндіріледі
ңғ
пир
▁IT
ayıf
leme
абай
удің
▁сег
▁қоқ
▁kayn
▁Онда
▁аман
адалық
демелі
▁olmas
▁этнос
▁doldur
▁mantık
▁merkez
▁айналу
ақталған
езқазған
▁еншілес
▁жүктеме
▁алушылар
▁айтқандай
▁жылжымалы
▁шығарылды
▁entreprene
▁мақұлданды
▁әдістердің
▁bilmediğini
▁бұзушылықтар
▁компанияларының
lım
мыс
орн
ides
▁yay
▁Çal
lendi
▁база
▁өтуі
егенде
теңдік
▁adamı
▁giyin
▁yumur
▁Бұдан
▁жөнел
▁салым
▁өседі
▁volume
▁бұрышы
▁кодекс
▁тағдыр
▁қосуға
▁kendimi
▁конденс
▁нүктесі
▁үміткер
ақтарының
▁қаңтарда
▁edeceğini
▁аймағының
▁жалғасады
▁керісінше
▁денсаулығы
▁комиссиясы
▁операциялар
▁біріктірілген
▁қатысушыларды
6-
ie
hor
tis
tıl
▁Ст
dies
илик
оқал
▁194
▁hes
▁Жас
▁пет
▁bilg
▁conf
▁harc
абының
данады
еленді
▁belir
▁ilişk
▁yarış
▁сызық
▁үстем
▁second
▁осыдан
bilirsin
▁атқарып
▁жылумен
▁үлгісін
▁assembly
▁geçirdim
▁жүргізді
▁көрсетуді
▁мәселенің
▁мөлшерінің
қатынастарды
▁жатқандығын
▁мәселелерге
▁республикада
▁орталықтарының
▁тәуелсіздігінің
73
of
mat
ony
пек
шев
ігі
▁eg
▁far
▁раз
▁тит
ауына
ылары
▁ашты
▁жағы
▁қаул
▁Parti
▁Демек
▁сүлей
▁тауып
▁көрнек
▁түсіру
▁arabası
▁kişidir
▁режимде
▁біртұтас
▁зерделеу
▁кірістер
▁электром
▁интеллект
▁әлдеқайда
▁хандығының
▁интегралдық
▁облыстарында
▁қайраткерлері
▁пайдаланушылар
▁субъектілерінің
или
мин
▁ир
ogle
üküm
атып
▁Ara
▁лин
ologi
болат
▁әзер
ттарға
▁Ақпар
▁ақуыз
▁дәнді
▁жетіп
▁масса
▁мерді
▁prepar
▁çocuğu
▁дәлдік
▁коопер
▁үйінді
▁gerekli
▁gidecek
▁аспаптар
▁концертт
▁ластануы
▁сөйлеген
▁құралған
▁жобасында
▁мәдениетін
▁операторлар
▁теориясының
▁infrastructure
▁министрлігінде
▁ұйымдастырудың
▁ұйымдастырылады
za
aln
түр
▁жэ
▁Mer
▁web
▁сти
білім
▁Otob
▁tour
▁ферм
▁әмір
▁Güneş
▁giydi
▁verme
▁yedim
▁кірді
▁асырып
▁экожүй
▁council
▁айтатын
▁шығарып
▁Kanadalı
▁жеткізіп
▁кездесіп
▁қолдайды
▁elections
▁ережелері
▁табиғатты
▁реформалау
▁сенімділік
▁өндірілетін
▁инновациялар
▁өзгерістерге
▁инфрақұрылымы
II
ij
ko
өб
өр
ane
nam
oci
кин
ünün
▁Mas
▁cer
▁saf
▁Көп
▁амм
▁бүл
▁сәт
leyin
ondra
аспор
▁Park
▁асим
▁дами
аттама
▁Tanrı
▁dokun
▁арман
▁гипер
▁марат
▁сарай
данатын
ханалық
▁Londra
▁болжан
▁сұйықт
▁топтам
▁қоғамы
▁ettiler
▁housing
▁бойымен
▁мәндерін
▁сындарлы
▁тағамдық
▁өндіруге
▁берушілер
▁сақталған
▁түйіндеді
▁түрлеріне
▁түсінікті
▁актілеріне
▁атқарылған
▁дайындауға
▁ережелерін
▁оқушыларға
▁жұмыссыздық
▁табылатынын
▁participants
▁болатындығын
▁тәуелсіздігі
▁көрсетілгендей
▁қаржыландыруға
мо
ektr
асса
элем
▁2,4
▁жұп
ansız
itary
румен
▁ниет
ilerin
едицин
лермен
ысынан
▁forum
▁kural
▁neler
▁yıldı
▁білік
▁румын
▁tavsiy
▁Мақала
▁білуге
▁Ұлттық
▁beklemek
▁бейнелеу
▁жерлерді
▁несиелік
▁салықтық
▁қаржылай
▁келтіруге
▁шарттарын
▁experience
▁техниканың
▁ғимараттар
▁Экологиялық
▁бағытталады
▁органдармен
▁әріптестікті
end
ics
uce
▁[3
▁ah
▁my
eleb
onom
адам
ақым
▁0,2
▁Bah
саяси
▁2007
▁Doğr
▁inte
▁ескі
▁заңы
▁Küçük
▁Zaten
▁kibar
▁гориз
▁күтіп
▁сонда
▁тыныш
▁экран
▁Birisi
▁адсорб
▁деформ
▁заңның
▁терезе
▁теңдік
▁шектел
▁evlendi
▁express
▁güvenli
▁istekli
▁popüler
▁адамзат
▁бердібек
▁жеңістің
▁әдісінің
▁өткізуді
▁орнатылды
▁реформаны
▁parliament
▁өзектілігі
▁жетекшілері
▁agricultural
▁пайдаланылды
▁коэффициенттер
cat
жас
▁92
▁fe
imli
дайы
стен
әсіл
▁edi
▁піс
lerce
омарт
▁büyü
▁oper
▁беті
▁кваз
есінен
▁bilet
▁kanıt
▁verin
▁сөзін
▁түсіп
▁Bundan
▁оңалту
▁әлеует
▁etmedim
▁француз
▁hoşlanır
▁академия
▁біркелкі
▁арттыруды
▁параллель
▁сипаттағы
▁негіздерін
▁қызметінен
▁enterprises
▁академиясының
▁институционалды
ГІ
cep
lus
ova
pos
сте
uydu
проц
▁Sık
▁Жоб
▁мағ
▁құю
дануы
озғал
▁Java
▁Kötü
▁içti
▁ucuz
▁İtal
▁спут
▁суға
▁былай
▁дәнек
▁ұстау
аторлық
премьер
ылмайды
ықтарын
▁elbise
▁person
▁досаев
▁массив
▁пәндік
агниттік
ализация
▁Tatoeba
▁oynamak
▁zamanım
▁факторы
▁формасы
▁қосылуы
▁болуымен
▁жолдауын
▁индукция
▁конфессия
▁логистика
▁сақталады
▁қабылданып
▁жылжымайтын
▁менеджменті
▁пайдаланушы
▁инвесторлардың
cy
▁Ы
lig
ушы
шім
▁79
amız
ayan
kson
алап
ілсе
▁vey
▁ИСО
▁онк
▁юне
ework
лылық
▁made
▁бөлм
▁шегі
лайтын
▁Paris
▁венгр
▁дыбыс
▁жақып
▁кафед
▁макар
▁медиа
▁Қытай
ication
алардан
▁Birleş
▁Devlet
▁parası
▁жолдың
▁ұсынып
▁improve
▁ахуалды
▁бесінші
▁заңнама
▁zamanlar
▁кезеңіне
▁түлектер
▁қытайдың
▁verebilir
▁білдірген
▁механизмі
▁техникасы
▁кандидатур
▁өндірісінде
▁байланыстыру
▁кедергілерді
8)
жүй
ият
ізб
▁88
irin
ılan
бург
ентт
ғыны
▁ert
▁lis
▁pol
▁Каз
▁мөл
▁priv
▁veya
▁тиек
▁қақп
▁өріс
▁Yemek
▁equip
▁sanat
▁yanıt
▁адами
▁жарат
▁жоқты
▁күріш
▁таным
▁ісіне
amework
▁conduc
▁gülüms
▁milyon
▁валюта
▁таныту
▁kapattı
▁results
▁Мұндағы
▁дененің
▁концерт
▁sevdiğim
▁анықтама
▁табыстар
▁қамтылды
▁беріктігі
▁өнімділік
▁olduğumuzu
▁тақырыптық
▁қолданылып
▁significant
▁төмендеуіне
▁міндеттердің
▁семантикалық
ML
ні
viç
taki
пенд
ініп
▁Rus
▁bık
▁лаз
mişti
елігі
халық
▁kızı
ағанда
▁duydu
▁field
▁алушы
▁бізді
▁нүкте
▁тобын
▁izledi
▁signed
▁sormak
▁şeyden
▁азаяды
▁дамуға
▁ресурс
▁Jackson
▁беделді
▁жалпыға
▁кенорын
▁үдемелі
▁бастауыш
▁көрінеді
▁тәсілдер
▁халықтық
▁agreement
▁kalacağım
▁yapıyorum
▁өндірісте
▁жүргізудің
▁мәртебесін
▁құрылымында
▁қозғалысының
po
▁ң
аба
ели
тір
▁84
▁cl
▁ez
▁Ди
memi
ағыз
▁(10
▁Kom
▁Бай
▁вол
▁лаң
химия
▁200-
▁şidd
▁айып
▁спир
▁қайн
▁iptal
▁kalır
▁округ
▁оксид
▁қосыл
▁дүйсен
▁заттың
▁шанхай
▁қаптам
▁еңбекке
▁нұсқасы
▁қадағал
▁sahiptir
▁жетіспеу
▁картасын
▁келгенде
▁көзделіп
▁тоннадан
▁траектор
▁қамтудың
▁өзгерісі
президенті
▁situation
▁есептерін
▁климаттық
▁сәйкестік
▁федерация
▁инвесторларды
▁тұжырымдамасын
еұ
лг
aly
rav
til
▁Мә
trib
реля
▁110
▁Haf
▁ені
üzdan
ирлеу
▁бояу
▁есте
▁исек
▁тект
eyebil
▁tuttu
▁ауысу
▁жоюға
▁смарт
▁құрау
ability
▁дидакт
▁канада
▁таңдал
ылмайтын
▁şeyleri
▁алдымыз
▁жиынтық
▁мембран
▁үйлестір
▁аударылды
▁сипаттама
▁шығарынды
▁корпорация
▁шығындарын
▁экспозиция
▁үдерісінде
әбдіқалықова
▁температураға
▁қабілеттілігі
ТУ
sam
▁7-
▁нм
▁хқ
ayda
равл
тылу
▁rev
▁Ден
▁Пай
▁anne
▁çoğu
▁пров
▁салт
▁areas
▁aşırı
▁zayıf
▁бағам
▁керам
▁іргет
▁Қызыл
▁randev
▁компью
▁мүлдем
▁сіздер
▁қордан
▁bitirdi
▁gitmeye
▁yılında
▁батарея
▁farkında
▁Amerikalı
▁станциясы
▁экспортқа
қауіпсіздік
▁activities
▁қалдықтары
▁департаменті
▁мүмкіндіктерді
▁қалыптастырады
üb
еор
▁AB
▁sm
▁рә
mama
алия
▁buz
▁gib
стыру
▁prev
▁Абай
kinden
▁kulak
▁sekiz
▁yürüm
▁автор
▁пайым
lerinde
▁europe
▁okumak
▁uyuyor
▁жалған
▁сұхбат
▁тастау
▁isterim
▁даярлық
▁порталы
▁айқындау
▁duyuyorum
▁есептейді
▁жалғасуда
▁зерттеуде
отехнология
▁қарастырды
▁студенттері
▁денсаулығына
▁entrepreneurs
▁кәсіпорындарды
7-
мағ
▁94
▁ЖШ
bers
ısın
инир
тінд
▁Hat
▁aya
▁дір
▁төн
▁фак
розия
▁sert
▁ерік
▁скан
мандар
▁basit
▁ettik
▁kalem
▁асыра
▁білуі
▁салау
▁термо
▁ферро
ылығына
ықтығын
▁қолдап
▁ihtiyaç
▁medical
▁желінің
▁көкөніс
▁мәселеге
▁талабына
▁sırasında
▁айларында
▁зауытының
▁сұрақтары
▁әрекеттес
▁өңірлерде
▁жұмыстарға
▁өндірістер
▁тауарлардың
▁yapabileceğim
▁ресурстарының
▁эксперименттік
▁коммуникациялар
75
DS
ps
рж
шт
red
zım
арц
▁еқ
▁Yaz
▁dah
▁exc
▁сығ
▁уль
▁take
▁тоты
lation
біріне
стерді
▁among
▁manag
▁çünkü
▁паркі
▁arıyor
▁düşünc
▁nedeni
▁sevmez
▁tırman
▁құрлық
▁contrib
▁mektubu
▁society
▁айналуы
▁доллары
▁дәлдігі
▁мектебі
▁әбішұлы
Қазақстан
▁provided
▁ыдырысов
▁жіберілді
▁келісімдер
▁мерзімінен
▁студенттің
▁әзербайжан
▁тараптардың
▁энергетикасы
▁қабілеттерін
!"
зд
мы
fic
▁Go
ilis
soft
tain
серв
фоли
▁ide
▁mis
▁sam
▁sem
▁spe
▁Бақ
▁лек
▁katı
▁алда
▁қатт
▁begin
▁civil
▁engel
▁facil
▁vurdu
▁форму
▁görmez
▁автобу
▁oynuyor
▁кестесі
▁күнімен
▁танытып
▁karanlık
▁көпжақты
▁модельді
▁қамтыған
▁теңсіздік
▁қабатының
▁қорғаудың
▁диагностик
▁мақсатымен
▁мүшелерінің
▁негізделеді
▁терроризмге
▁аудандарында
▁консультация
▁демократиялық
▁шаруашылығында
МД
har
ied
iri
tüm
ымыр
▁1,7
▁170
▁gas
▁kop
▁Пол
▁рев
▁рот
aydım
акуум
етика
сенді
▁Yaln
▁архе
▁этно
▁carri
▁fikri
▁sanda
▁suçlu
▁карди
▁самми
станция
шылығын
▁associ
▁yıldız
▁барады
▁орасан
▁сөйлем
▁юнеско
▁генерал
▁мұражай
▁қоғамды
layabilir
▁Birleşik
▁мерзімде
▁солардың
▁hissettim
▁салынатын
▁шараларға
▁Ұсынылған
▁оқушыларды
▁болатындығы
▁талқыланады
▁ресурстардың
▁интеллектуалдық
▁мемлекеттерінің
рил
▁Yol
▁bal
▁Тұр
▁ағы
▁наг
▁ших
майды
рафик
▁dili
▁gelm
▁iddi
▁офиц
▁өтеу
елерде
жомарт
роскоп
▁Araba
▁alloc
▁kaçtı
▁yoğun
▁амбул
▁геоде
▁жабық
▁export
▁дұрыст
▁көптеп
▁мақала
▁сақтай
▁қабаты
icrosoft
▁mısınız
▁егістік
▁inanıyor
▁yalnızca
▁zamandır
▁инфляция
▁қазандық
технология
▁discussed
▁olduğunda
▁машиналық
▁кеңістіктік
▁қасиеттеріне
▁антропогендік
-25
инт
сем
тәр
▁II
абар
абын
авиг
амер
сары
▁1,6
▁mik
▁pil
▁tuz
▁төб
▁each
▁fund
▁iler
▁басы
деткіш
кетану
▁Sence
▁ekmek
▁yazar
▁yiyor
▁Батыс
▁айына
▁интен
ілмейді
▁yürüdü
▁кірпіш
▁модерн
▁салмақ
▁шексіз
қимылдың
▁elinden
▁etmiyor
▁инженер
▁мегапол
▁әдіснам
▁olmaktan
▁оқушылары
▁тапсырылды
▁тағайындал
▁тақырыптар
▁жағдайларға
▁кәсіпорында
▁орындалатын
▁радиациялық
▁экономикадағы
▁қанағаттандыру
AN
au
жы
иж
ock
жоб
кул
ойл
сіл
▁01
▁гл
ингв
ойын
▁1,4
▁160
▁aşk
▁col
▁Кең
▁бүй
▁шах
отерм
тилен
түсті
▁Sizi
▁adop
▁aimed
▁kamer
▁Çalış
▁метан
▁сегіз
▁қалау
икандық
ылыстан
▁verdin
▁қыздыр
ығындағы
▁көтерме
▁реактор
▁қиындық
▁жанармай
▁назарына
▁ойлаймын
▁тұтастай
▁қызықтыр
равликалық
▁жеткізуді
▁отырысына
▁жіберіледі
▁жағдайларын
▁индустриялды
рм
оне
тап
▁ит
▁obj
▁Тар
▁лиз
▁іім
стана
▁2006
▁лаңк
▁мақт
▁Güzel
▁bağır
▁kalan
▁odaya
▁pazar
▁Энерг
▁телім
еттерде
▁одаққа
▁табады
▁anlattı
▁идеясын
▁негізге
▁қосатын
▁başlıyor
▁kimsenin
▁сапармен
▁framework
▁швейцария
▁қолданылу
▁önümüzdeki
▁жасалынған
▁көрсетіліп
▁ардагерлері
▁металдардың
aca
кси
aber
деме
еңіз
▁düğ
▁hiz
▁гал
▁шер
индік
▁York
▁әсет
▁içmek
▁грант
▁жапон
▁жарыс
▁жасам
▁көрші
▁нығаю
▁сәуле
▁Gerçek
▁commit
▁ассоци
▁қылмыс
▁әкеліп
▁өкілді
дентифик
▁Almanca
▁şarkıyı
▁автоном
▁ризашыл
▁екіншісі
▁құжаттам
▁үлгілері
▁ediyorsun
▁серіктесі
▁hoşlanıyor
▁органдарына
AD
io
ОР
nex
әул
ilen
like
mall
▁104
▁duv
▁mor
▁экв
eğini
yacak
антты
▁Adam
▁defa
▁учас
▁қазб
ттерін
▁Басқа
▁акуст
▁кедей
▁күйін
▁мульти
▁персон
▁реаген
▁сапаны
отикалық
▁bulundu
▁partiye
▁provide
▁strateg
▁жасалын
▁тамызда
▁жасаудың
▁исекешев
▁көрермен
▁рәсімдеу
▁қалалары
▁елорданың
▁енгізудің
▁кезеңдері
▁облыстағы
▁шектелген
▁бақылаудың
▁мақсатымыз
▁тетіктерін
▁топтарының
▁құжаттарға
▁салаларының
▁Компьютерлік
▁конференцияға
▁қызметшілердің
one
▁8-
▁82
ally
here
лдық
тура
қыма
▁Пар
▁дәй
▁шыр
генде
тылды
▁[10]
▁işim
▁tons
▁жетп
▁пост
дерлік
ылмалы
▁bilim
▁hayır
▁labor
▁Еуроп
▁жинал
▁кейде
▁текше
▁тұсау
larımız
larınız
екторын
ырылған
▁avukat
▁studen
▁önerdi
▁şemsiy
▁Кейбір
▁ашылып
▁интерн
▁мұқтаж
▁сербия
▁alışkın
▁görebil
▁жақсару
▁теңгесі
▁істеген
▁ұлғайды
▁жағымсыз
▁жолдауда
▁талдауға
▁тасымалы
▁қашықтық
▁үйлердің
▁жоспарына
▁тапшылығы
▁өндіріске
▁дамытудағы
▁кездесудің
▁көрсетудің
▁Электрондық
▁айналымының
▁шеңберіндегі
▁элементтерінің
АМ
рен
роф
ряд
▁89
▁лу
абол
аста
ікте
▁And
▁Müs
▁dük
атқыш
▁dinl
▁life
▁must
▁suyu
▁анти
▁бирж
▁жері
▁күйі
▁суда
▁тама
üyordu
сімдік
▁ancak
▁basis
▁odada
▁Кәсіп
▁конди
▁күнді
▁эмуль
аттарға
шылықты
▁differ
▁hayran
▁газдың
▁ежелгі
▁препар
организм
▁beyzbol
▁бетімен
▁моноқал
▁үміттен
▁бұйымдар
▁элементі
▁астаналық
▁болашағын
▁минималды
▁өкілеттік
▁geleceğini
▁yaşadığını
▁авиациялық
▁жалғастыруға
▁қызметтерінің
Па
ғм
use
аза
дос
▁üy
ious
ipar
omet
және
▁фит
lüman
▁[12]
▁Одан
▁сцен
▁Köpek
▁joint
▁parça
▁reach
▁çabuk
▁радиу
атындай
етіндей
▁kaznex
▁бұлтты
▁никель
▁complet
▁Орталық
▁берікті
▁иеленді
▁military
▁инвестор
▁нәтижеге
▁фестивал
▁құжаттың
▁үрдісінің
▁әзірлеуге
▁profession
▁көміртекті
▁делегациясы
▁жеткізіледі
▁ұсыныстарды
▁реформаларды
▁organizations
▁Қазақстандағы
▁байланыстардың
▁фармацевтикалық
35
уш
fet
res
шаң
▁2)
▁ii
▁гу
ever
▁125
▁2,3
▁job
▁zam
▁ими
memiz
баған
індей
▁Anne
▁mahk
▁окси
▁тірі
хронды
▁model
▁sakın
▁sebep
▁small
▁төңір
▁ұдайы
▁әбдір
аландыр
▁kıskan
▁russia
▁sordum
▁көздеп
▁өмірге
▁izlemek
▁белсене
▁дәрумен
▁кеуекті
▁нейтрон
▁растады
▁табылды
▁танытты
▁creation
▁olmasına
▁алқаптар
▁реттеуге
▁талқылап
▁трансфер
▁financial
▁лаңкестік
▁нарығының
▁Genellikle
▁düşündüğüm
▁қашықтықта
▁келтіріледі
▁hatırlıyorum
▁жағдайлардың
▁нәтижелеріне
▁процестердің
▁қарастыратын
-5
жк
oto
рды
сқа
▁bl
▁ді
iste
mada
teri
АЛЫҚ
әкір
▁2,2
▁jan
▁kış
▁nok
▁por
▁гум
▁дей
▁лат
▁ұэм
mayız
ımdan
▁boyl
▁cour
▁utan
ındaki
асатын
никтік
істегі
▁Kesin
▁ödeme
▁беруі
▁нұсқа
▁Dışarı
▁Nerede
▁yaşaya
▁астамы
▁ағынын
▁базаны
▁жөндел
▁мұқият
▁іргелі
▁yapamam
▁жаңашыл
▁спикері
▁тиімсіз
▁şüphelen
▁дәлелден
▁мәслихат
▁оқиғалар
▁nedeniyle
▁белгілері
▁жұмылдыру
▁меңгерген
▁gerekmiyor
▁модельдері
▁әкімшілігі
▁анықталатын
▁мамандарының
▁modernization
▁olabileceğini
▁компанияларды
▁қатынастардың
rin
піз
line
▁2,6
▁Dik
▁Kay
▁бғм
▁дис
▁үеұ
liydi
иалды
ропав
сімен
улері
▁dipl
▁kağı
▁komş
▁көне
▁түсп
lığını
▁Yaşlı
▁olmam
▁Зертт
▁кеңей
ыстарын
▁мәндер
▁типтік
▁турбин
▁аймағын
▁аудитор
▁банктер
▁етпейді
▁еңбекті
▁жастағы
▁практик
▁режимін
▁Müslüman
▁kütüphan
▁mutluyum
▁сайлауды
▁өндіруді
▁ластанған
▁салауатты
▁қатарынан
▁үлгілерін
▁istediğimi
▁келісілген
▁кеңістікте
▁орындалуын
▁абаттандыру
▁тақырыбында
▁қалыптасады
▁елдеріміздің
▁транспорттық
▁қазақстаннан
▁мемлекетіміздің
uç
гы
иш
oms
ute
идж
▁Cu
▁oc
▁эф
ound
raft
арий
ыдыр
▁195
▁Kur
▁mev
▁oğl
▁süp
▁tük
▁Жар
▁игі
düğün
детте
▁task
▁yolc
▁болг
▁мәжб
▁шикі
▁баспа
▁тимур
▁қояды
leriyle
▁дамуда
▁жиында
▁топтық
гізілген
▁congrat
▁kimseyi
▁olmayan
▁yardıma
▁Болашақ
▁ғимарат
▁әзірлем
▁programs
▁экспорты
▁электрод
▁ғылымның
▁өткізген
▁араластыр
▁ақпаратқа
▁байқаудың
▁бағалауды
▁процестің
▁тереңдігі
▁шамасында
▁қалаларда
▁inanıyorum
▁зерттеулерді
▁ерекшеліктеріне
Al
ton
ван
оид
▁Na
▁Pat
▁Tak
▁Yat
▁Мәс
▁мкм
▁оск
▁рад
бегін
▁five
▁reli
▁öptü
▁Эксп
▁воль
сиялық
▁bıçak
▁tatil
▁жоғал
▁кеңею
▁мәнді
▁супер
▁центр
▁үндеу
yabilir
ларынан
ылардың
қабатты
әлемдік
▁апатты
▁күштер
▁дамытып
▁нысанды
▁ойындар
▁суларды
▁уақыттың
▁құрылыстың
▁kullanabilir
▁participation
▁жеңілдетілген
▁компаниясымен
▁өсімдіктердің
ird
елеп
▁Saç
адмий
▁oğlu
▁Öğle
▁ödem
▁айға
eceğin
▁budur
▁mıydı
▁where
▁özgür
▁біраз
▁жиыны
▁орден
▁әңгім
ologies
▁Burası
▁annesi
▁айынан
▁бұзылу
▁кепілі
▁контин
▁көбейт
▁started
▁асфальт
▁бағаның
▁көрмені
▁yakaladı
▁yapmadım
▁ережелер
▁рейтингі
▁шешімнің
▁kaybettim
▁yaptığımı
▁жетістігі
▁қоғамдағы
▁жекеменшік
▁айырмашылық
▁аймақтарында
▁кеңістігінде
▁студенттерге
▁ақпараттандыр
▁конференциясы
▁мәселелерінің
▁өнеркәсібінде
8-
за
нт
оч
bar
ech
elp
уді
ісу
аева
▁(3)
▁Іле
▁Оны
▁мжә
▁паш
▁тұқ
айсыз
некті
▁mavi
▁müzi
▁алқа
▁hafif
▁işten
▁sefer
▁Көмір
▁Содан
▁айдың
▁жарақ
▁жолды
▁Үлкен
gration
▁author
▁işaret
▁karısı
▁кафедр
▁оқулық
▁тенден
▁қаруды
▁carried
▁Şimdiye
▁берілуі
▁отынның
▁цилиндр
▁Toplantı
▁dünyanın
▁ашылуына
▁етілетін
▁көтеруге
▁сезімтал
▁тиісінше
▁тілеймін
▁қазақтың
▁барысымен
▁төрағалық
▁шикізатты
▁congratula
▁процестерін
▁сарапшылары
▁қалаларының
▁индикаторлар
▁диагностикалау
ЕС
дім
uary
нықт
▁2,7
▁2,9
▁sel
▁акк
▁жор
▁кос
diniz
madın
menin
ильді
мәсім
▁2021
▁Önce
▁адал
▁бұйр
▁мүмк
▁саяб
▁сыни
▁хқко
ipariş
ымбаев
▁Diğer
▁derin
▁gazet
▁invol
▁legis
▁resmi
▁times
▁құрды
▁ұшқыш
▁teslim
▁алаңда
▁асимпт
▁балама
▁бермеу
ліметтер
ылығының
▁january
▁onlarla
▁verecek
▁адамнан
▁баланың
▁сөндіру
▁үйлерді
▁imkansız
▁olacağız
▁айтылады
▁алмасуға
▁зейнетақ
▁мысалдар
▁үрдісіне
▁currently
▁бетіндегі
▁идентифик
▁келешекте
▁компонент
▁көміртегі
▁өткізудің
▁university
▁келісімшар
▁функциясын
▁қалалардың
▁көлеміндегі
▁басшыларымен
▁өндірушілердің
85
кү
rik
ифр
кеп
укл
▁gu
▁ça
▁Әс
illa
ists
арқа
сивт
▁3,2
▁Der
▁Kır
▁Kıs
▁end
▁АКТ
▁Мик
▁баә
▁оқо
актор
ярлық
▁role
▁same
▁yurt
▁Атап
▁амин
▁биом
▁моңғ
▁мұра
▁түрл
isinde
uclear
ығынан
▁терге
▁қимыл
▁қолда
▁үйкел
▁hikaye
▁yaklaş
▁аналог
▁курсын
▁сыйлық
▁тамаша
▁эксплу
шылықтың
ылыстану
▁hepsini
▁sorunun
▁секторы
▁қамтуға
▁Herkesin
▁arıyorum
▁hazırlan
▁бұзылған
▁дақылдар
▁көктемгі
▁сараптау
өндірістік
▁жануарлар
▁жасалынды
▁жөндеуден
▁климаттың
▁этникалық
▁қызметтік
▁жаңғыртуға
▁иондарының
▁тапсырманы
▁барысындағы
▁ықпалдастық
▁объектілерді
▁министрлігіне
▁республикасында
ae
эр
dat
dip
dit
rem
son
гел
унд
қас
▁(0
▁ef
▁ТЕ
eyse
▁idi
▁imz
▁рау
▁Қаб
▁ұос
dunuz
ilmez
ready
yalım
▁Açık
▁sona
▁yeri
▁bebek
▁bilin
▁видео
▁жанар
▁кәрім
▁мойын
▁түрге
▁шағым
▁berbat
▁yüksel
▁атайды
▁грузия
▁оларда
▁сезімт
▁already
▁cesaret
▁жанынан
▁building
▁анықтады
▁атқарған
▁аудандар
▁өңірінде
▁strategic
▁tanıyorum
▁мажарстан
▁толтырғыш
▁söylemedin
▁çalışmıyor
▁анықтаймыз
▁бағыттарды
▁орналасады
▁тапсырамын
▁жобаларының
▁бағдарланған
▁қалдықтардың
▁инвесторларға
IS
ail
омо
пин
уші
eğim
ived
ıyla
ивал
▁196
▁Hak
▁Yer
▁lot
▁мор
estic
isine
изнес
көлік
лінше
транс
▁cust
minist
▁Allah
▁deney
▁derec
▁аясын
▁емдік
ектерін
ентация
мәсімов
шілерді
▁months
▁çekici
▁атақты
▁конвер
ологиясы
▁değişik
▁yaparım
▁патриот
▁тізімін
▁ғылымды
▁cultural
▁district
▁herkesin
▁бауыржан
▁бюджетті
▁жұмылдыр
▁мейлінше
▁нүктелер
▁амплитуда
▁желілерді
▁кәсіподақ
▁өзгертуге
ализациялау
▁академиясы
▁төзімділік
▁қызметімен
▁төмендетеді
▁қабылдайтын
▁функциясының
=1
Cl
АУ
ПТ
жақ
онс
қой
▁ОҚ
▁ош
erse
tory
yken
амин
▁1,8
▁106
▁197
▁lim
▁теж
▁том
icial
lilik
дария
еттеу
ломер
▁şapk
▁bağım
▁being
▁dönüş
▁tatlı
▁керем
▁пункт
▁Google
▁ikiniz
▁nation
▁normal
▁Табиғи
▁пайдал
▁теңгер
▁түзілу
ebilirim
▁üstünde
▁атқарды
▁зерттеп
▁тұрғыны
▁қаржыны
▁басталып
▁ескерсек
▁жауаптар
▁командир
▁тіркелді
▁шешіледі
ақпараттық
▁заңнамаға
▁музыкалық
▁облыстары
▁қаражатты
▁үзіліссіз
▁әрқайсысы
▁жылдарында
▁жәрдемдесу
▁yapmadığını
▁аймағындағы
▁денсаулығын
▁үстіміздегі
▁марапатталды
▁мемлекеттері
▁азаматтарының
▁перспективалы
▁әкімшілігінің
▁диагностикалық
▁қызығушылықтар
bi
мп
mar
ғат
▁Co
kyüz
атов
ағаш
▁Tar
▁beb
▁ЖШС
▁Сап
▁ашы
▁дон
▁куб
luluk
дықты
ланып
▁kutu
▁sand
▁yıka
▁ışık
▁омар
▁прот
старын
▁chair
▁yazık
▁Сонда
▁Топыр
▁ашқан
▁демеу
▁мақта
▁нейро
▁штейн
▁қанша
▁картоп
▁танысу
▁ұйымға
▁gitmedi
▁sürekli
▁öğrendi
▁күйдіру
▁қосылып
▁Birlikte
▁domestic
▁балабақш
▁гидролиз
▁енгізген
▁мәжілісі
▁қабаттың
▁Microsoft
▁anlıyorum
▁arkadaşın
▁insanları
▁атқарылып
▁бесжылдық
▁сапарының
▁байытылған
▁таныстырып
▁құрылымына
▁департамент
педагогикалық
▁стратегиясының
▁representatives
):
MS
эф
eğe
▁pa
▁өш
üdür
елуі
▁Bak
▁миг
dukça
ивтік
сінен
bility
▁fayda
▁human
▁okudu
▁would
▁кинем
▁майлы
▁ayında
▁patron
▁бермек
▁тіліне
▁ұзынды
▁schools
▁жатқаны
▁жеткізе
▁Өйткені
форматика
▁бөлігіне
▁диалогты
▁жұмыртқа
▁пайыздан
▁шығаруды
▁өркендеу
▁allocated
▁gidebilir
▁барлығына
▁елдеріміз
▁көтерілді
▁программа
▁сенатының
▁туризмнің
▁уағдаласт
▁қоғамының
▁arasındaki
▁жүргізетін
▁мүдделерін
▁мәжілістің
▁сүлейменов
▁тәжірибеде
▁тәртібінде
▁функцияның
▁журналистер
технологиялық
▁парламентінің
▁қызметкерлерді
TE
ие
onu
ues
ürk
йды
оса
▁ur
▁ИҚ
tarı
гнит
ымын
▁Müz
▁Sak
▁ağz
▁tax
▁Жыл
▁ыды
▁500-
▁Geri
▁asia
▁Арал
▁браз
▁сахн
▁өтем
emiyor
▁rapor
▁дүкен
▁пәнін
▁суару
▁тілде
ималдық
ологтар
▁ailesi
▁requir
▁sphere
▁дизель
▁ендіру
▁кетеді
▁метрді
▁салуды
▁тарапы
▁трансф
▁ұқсаст
аборатор
ттерінің
▁Japonca
▁yapmanı
▁yatakta
▁yumurta
▁құжатты
игиеналық
▁sevindim
▁İspanyol
▁бейімдеу
▁жалғасын
▁жаңғыруы
▁кеңесіне
▁мезгілде
▁отырысқа
▁қаладағы
▁gitmesine
▁амбулатор
▁жүктелген
▁кезеңдегі
▁көздейтін
экологиялық
▁istiyorsan
▁басымдылық
▁дамуындағы
▁implemented
▁investments
▁çalıştığını
▁айқындалған
▁трансұлттық
▁кемшіліктері
▁қамсыздандыру
бие
мүш
пұл
▁ba
gula
leti
ways
алов
емел
▁4,5
▁40-
▁diz
▁due
▁kem
▁даң
иктер
ұндай
▁0,55
▁risk
▁вари
▁сиыр
▁ҚазҰ
ылыққа
▁koştu
▁mezun
▁orman
▁water
▁çağır
▁елдік
▁сипат
▁bekley
▁bodies
▁fırsat
▁gergin
▁oynaya
▁кетсек
▁тоқтат
▁шалғай
▁шиелен
▁қатыса
▁құраса
шылығына
▁günleri
▁ödevini
▁америка
▁әрекеті
алдарының
▁азайтады
▁ауданның
▁отыратын
▁тараптың
▁қайтадан
▁arkasında
▁магистран
▁маңындағы
▁әзірленіп
▁geldiğinde
▁kazakhstani
▁әкімдігінде
қатынастардың
▁бастамаларды
▁түрлендіргіш
▁тәуекелдерді
▁ұйымдастырды
▁мекемелерінің
▁параметрлерінің
des
гия
▁9-
▁ey
▁Іш
▁лю
roid
▁how
▁ilg
▁keş
▁lez
tırdı
tığım
ганец
▁Evde
▁oluş
этилен
▁Hayır
▁Hemen
▁görür
▁istey
▁дәріс
▁нағыз
ауқатын
▁beklen
▁kamyon
▁kaybed
▁muydun
▁paylaş
▁takdir
▁алгебр
▁оркест
▁режимі
▁салған
▁топтың
▁фильтр
▁бағытты
▁дүниеге
▁жағымды
▁талдауы
▁тараған
▁қарасты
▁құтқару
▁бесжылды
▁yapılması
▁дайындығы
▁есептеуге
▁желілерін
▁жәрдемақы
▁кітапхана
▁мобильдік
▁шешімінің
▁арттырудың
▁баяндалған
▁бағытталды
▁келтірілді
▁сенаторлар
▁шешімдерін
▁индустриясы
▁көрсеткішке
▁энергиясына
▁құжаттардың
▁өткізгіштік
▁düşünüyordum
▁қасиеттерінің
▁қолжетімділік
▁өнеркәсібінің
▁жауапкершілігін
95
го
apa
mit
unch
баға
йынш
ософ
▁60-
▁Sır
▁esk
▁had
▁ked
▁çor
▁çıl
▁şok
▁Фур
▁мәр
▁үйі
▁alan
▁isim
▁kaza
▁like
▁prim
▁грек
▁диаб
▁фраг
▁Esper
▁Pazar
▁olman
▁белор
▁мұхам
▁тасым
▁таулы
▁түбір
стердің
▁доктор
▁магнит
▁тізбек
▁Kendini
▁etkilen
▁тренинг
▁шетелде
▁мазмұнды
▁практика
▁салмақты
▁тұлғалық
▁әкелетін
▁gelmesini
▁söylemeyi
▁Солтүстік
▁бақылаушы
▁сақтаудың
▁қосылатын
▁department
▁söylediğim
▁нығматулин
▁отырысының
▁статикалық
▁қысқартуға
▁planladığını
▁technologies
.5
uf
пп
пә
cam
tob
мал
▁ла
▁на
emli
meme
tice
üydü
еліп
▁103
▁fav
▁ort
▁sos
▁ödü
▁Бұр
▁Гид
▁Тек
arlar
deydi
ikola
lerle
малау
▁best
▁rast
▁инер
▁кеше
қыркүй
▁canlı
▁celeb
▁power
▁жазық
▁кварц
▁күнін
malıydı
meliyim
ациясын
еттерге
металық
ордалық
▁accoun
▁мәжбүр
▁тілдік
▁тұрмыс
▁қатары
▁өрнект
оникалық
струкция
▁Oldukça
▁complex
▁giderim
▁götürdü
▁herkese
▁history
▁nuclear
▁yüzmeye
▁корреля
▁ұсынуға
▁өкілдік
▁hapishan
▁болжамды
▁үлгідегі
▁equipment
▁olacaksın
▁алматының
▁капиталға
▁реттейтін
▁электрмен
▁ұлтаралық
▁Kesinlikle
▁sanıyordum
▁байланыста
▁мемлекетке
▁әдістеріне
▁yapabilirim
▁бағыттардың
▁нарығындағы
▁ведомствоның
▁түрікменстан
▁пайдаланылған
▁конференциясына
sk
oğu
екі
▁61
priz
едік
йкес
қалы
▁rek
▁xxi
▁Сыз
▁алк
▁ойн
аудың
бетон
тынан
▁Genç
▁prac
ekleri
▁Tamam
▁after
▁banka
▁boylu
▁nefes
▁Заман
▁біреу
▁ветер
▁сейсм
▁сулар
▁фотос
▁өсуін
ағалиев
тәжіриб
▁gittin
▁şişman
▁жетуге
▁жұмсау
▁онымен
▁тудыру
▁құрылу
▁арттыра
▁олармен
▁қарауға
▁қоспасы
▁қуанышт
▁өңдеуші
yamıyorum
▁söyledik
▁алушының
▁қашықтан
▁қоректік
▁қорғауды
▁өңдейтін
▁etrafında
▁енгізіліп
механикалық
▁yemeğinden
▁öğrenciler
▁жағдайының
▁нормативті
▁өкілдеріне
▁istemiyordu
▁модификация
энергетикалық
▁кеңістіктегі
9)
PI
uty
фун
alığ
fore
егіш
едит
инер
умен
цикл
▁105
▁sum
▁ЖОО
▁Сер
▁абс
▁дәм
алмақ
жарақ
умуля
▁Plan
▁Öyle
▁şaka
▁енуі
alarda
▁Doğru
▁appli
▁indir
▁oyunu
▁üzere
▁отыра
▁сезін
▁шығуы
кінішке
рленген
▁member
▁piyano
▁propos
▁result
▁бойына
▁құруда
ниверсит
ттарының
▁görüyor
ықтарының
электрлік
▁mantıklı
▁yapmanın
▁Пайдалан
▁несиелеу
▁эксплуат
▁бұзушылық
▁toplantıya
▁бағаланады
▁жұмсалатын
▁жұмысшылар
▁тәртібінің
▁өңіраралық
▁акустикалық
▁директорлар
▁құралдардың
▁бірлестіктер
▁көшбасшылары
▁металлургиялық
▁бірлестіктердің
▁қалыптастырудың
epi
ris
tee
ЕРІ
аяу
▁(3
▁хх
йықт
▁non
▁эмо
irler
қытай
▁çala
▁егіс
▁кәде
ропавл
цияның
▁düşür
▁жеңіп
▁порты
▁рәміз
▁істен
▁қоюға
▁düzelt
▁paraya
▁trafik
▁тасқын
▁тотығу
▁турист
▁қорына
▁өмірін
▁güvende
▁kendisi
▁білдіру
▁жолаушы
▁ғасырда
▁restoran
▁тізіміне
▁etmeyecek
▁görüyorum
▁жұмсалған
▁орталықта
▁сервистік
▁суларының
▁қонақтары
▁өкілдерін
▁араластыру
▁дәрігерлер
▁жолдауының
▁жоспарлауда
▁пластикалық
▁қажеттігіне
▁әдістемесін
▁мәліметтерге
▁бітімгершілік
▁hatırlamıyorum
▁бәсекелестікті
▁коэффициенттері
эг
ОСТ
eşil
meli
диев
егия
идмб
окол
▁Sig
▁cas
тәсіл
▁1995
▁lezz
▁serb
▁step
▁суық
mıştır
тивтік
▁dayan
▁giriş
▁scien
▁sesle
▁бітір
▁квадр
▁тренд
▁түйді
▁тұғыр
ilerini
шараның
▁alabil
▁hizmet
▁launch
▁vermez
▁пропор
▁қорғас
▁bilmedi
▁culture
▁olsaydı
▁yapamaz
▁Басқару
▁кадрлар
▁сипатын
▁спектрі
▁Esperant
▁bahsetti
▁ediyoruz
▁governor
▁söylendi
▁temizlem
▁органның
▁önemlidir
▁картасына
▁hatırlıyor
▁алгоритмін
▁дайындығын
▁сұрақтарға
▁бастамалары
▁ведомстволар
▁дидактикалық
▁жұмыстарымен
ze
ЕТ
bel
vur
book
ашев
дату
қыға
▁(4)
▁Haz
▁giv
▁ақп
▁ван
▁нью
▁эко
шағай
▁1992
▁cont
▁karş
▁long
▁next
▁vide
▁асуы
▁през
армалы
бейтін
▁Yeter
▁utang
▁ақтөб
▁навиг
▁пошта
▁Өлшеу
едиялық
сіндегі
▁Otobüs
▁mutsuz
▁resour
▁tehdit
▁Астана
▁жарақт
▁күресу
▁реттік
▁қабықш
▁өсімді
▁Ebeveyn
▁holding
▁kalmayı
▁kolayca
▁автобус
▁ескеріп
▁students
▁yetiştir
▁ететінін
▁конфигур
▁көлеміне
▁мыңдаған
▁қағаздар
▁hastaneye
▁veriyorum
▁айналымын
▁топырақты
▁шешімдері
▁деректерін
▁динамикасы
▁есептейміз
▁жолдарының
▁қалыптасты
▁Оқушылардың
▁жеңілдіктер
▁сыйымдылығы
▁холдингінің
▁қоспалардың
▁функцияларын
▁гидравликалық
▁кәсіпкерлерді
▁серіктестікті
▁құндылықтарды
▁құрастырылған
▁кәсіпкерліктің
▁хабарламасында
▁қолжетімділігін
65
тм
лон
пон
▁ка
duğu
▁del
▁des
▁yir
▁лим
▁меж
alığı
шықты
ылымы
▁show
▁ұлан
ыңызға
▁Kadın
▁sürer
▁think
▁кеніш
▁рекре
▁тарта
бақылау
▁Dikkat
▁Tekrar
▁açıkça
▁common
▁ensure
▁ikinci
▁азайды
▁аяғына
▁бразил
▁жиынға
▁кішкен
▁көбіне
▁ыдырау
▁korkmuş
▁sandviç
▁аударма
▁дарынды
▁көрініп
▁сенатор
▁өтілген
▁administ
▁бірлікті
▁бұрыштық
▁малайзия
▁шаққанда
▁babasının
▁investors
▁анықталып
▁бөлімінде
▁жатқызуға
▁мақсатына
▁науқастар
▁орындайды
▁сатысында
▁тарихында
▁қаражатын
▁аппараттық
▁жаңалықтар
▁салаларына
▁үдерісінің
▁sevmediğini
▁басқарылатын
▁стационарлық
▁университетінде
▁қажеттіліктерін
йн
bah
cel
құм
▁Ad
▁Ma
▁Ve
▁Ер
atur
liye
берт
тану
тізб
▁115
▁nur
▁way
▁ölç
▁Жүр
▁кил
▁ұшт
essed
inize
оқыту
▁krav
▁land
▁neye
▁zeki
▁моду
ektrik
міздің
▁banyo
▁doğdu
▁issue
▁kesti
▁Сурет
▁геоса
▁ертең
ections
қалыпты
▁Fransa
▁benzer
▁geçmiş
▁sahibi
▁verici
▁активт
▁жазуға
▁пәндер
▁қиылыс
істердің
▁control
ebilirsin
▁sağlıklı
▁strategy
▁аумақтар
▁берудегі
▁күкіртті
▁мақсатын
▁теңдеуін
▁тұсаукес
▁халықтар
▁қасиетті
▁қосқанда
мағамбетов
▁different
▁бойындағы
▁мәртебесі
▁ұлғайтуға
▁жоспарлары
▁заңдастыру
▁үлгілердің
▁өңірлердің
▁olduklarını
▁халқымыздың
▁ұсыныстарын
▁hissettiğini
▁жарықтандыру
▁Математикалық
▁микроорганизм
▁қарастырылатын
▁қауіпсіздіктің
ai
▁Af
▁Бр
isel
▁Sağ
▁alk
▁kül
▁Ақт
▁Роб
▁баб
▁ось
angis
duğum
iydin
атура
келең
таған
ымсыз
▁0,48
▁300-
▁ақыр
▁латв
▁қуан
ateral
indows
аданың
шыбаев
▁ақылы
▁старт
▁тоғыз
▁emekli
▁вакуум
▁жарнам
▁жоғарл
▁сымсыз
▁талдық
акциялық
мұнайгаз
▁duyuyor
▁uyandır
▁жасырын
▁идеялар
▁симметр
▁сұхбатт
▁тарихын
meyeceğim
▁аурухана
▁елордада
▁сіңірген
▁қарауына
▁öldürüldü
▁жоспардың
▁шарттарды
▁importance
▁жетістікке
▁кластерлік
▁мөлшерінде
▁құжаттарын
▁agriculture
▁düşünüyordu
▁бейімделген
▁дәлелденген
▁шараларының
▁olmayacağını
▁біріктіретін
▁мақсаттарына
▁құрылғыларды
▁әбдіқалықова
▁міндеттерінің
Ин
тө
amb
bab
▁Ber
▁Pek
▁mec
сарап
▁0,49
▁dost
▁sine
▁turk
▁yana
▁теле
▁үйге
едиция
ковник
ованың
саулық
▁bekle
▁funds
▁бөлді
▁модул
▁сопол
▁техно
▁zorluk
▁ахуалы
▁дерлік
▁жерден
▁жұтылу
▁музыка
▁период
▁сомаға
▁Әдетте
▁members
▁utangaç
▁öldürdü
▁şarkıcı
▁беделін
▁бұзылуы
▁кемінде
▁көрмеде
▁маңызға
▁нарықты
▁сенемін
▁қарапай
▁problems
▁аумағына
▁гектарға
▁жиілікті
▁жоспарда
▁сұйықтық
▁сәулелен
▁тотықсыз
▁эмульсия
▁бақылауда
▁бизнесмен
▁техниканы
▁қатынасын
▁үнемдеуге
▁өңірлерді
▁düşünmedim
▁partnership
▁аспектілері
▁бейнеленген
▁факторларды
▁constitution
VI
уч
ged
par
ruk
tör
şır
пын
сір
▁Br
abet
aket
eşit
ranç
ürüz
ақов
гені
▁102
▁Beb
▁see
▁МПа
▁баж
▁идм
▁маз
▁три
üzgar
деміз
ылысы
▁cost
▁ilaç
▁абон
▁сырт
▁толы
ışıklı
спектр
▁Sabah
▁cümle
▁İslam
▁атриб
▁мерей
▁туады
▁тұзды
mıyoruz
дықтары
▁redded
▁unuttu
▁ауқымы
▁дамушы
▁оксиді
▁осынау
▁қысымы
▁құбыры
▁anlıyor
▁instruc
▁istemez
▁назарға
▁ректоры
▁әзірлеп
▁кешеннің
▁сайлауын
▁buradayım
▁community
▁матрицасы
▁нарықтағы
▁объектісі
▁тіліндегі
▁финляндия
▁аймақтардың
▁динамикасын
▁принциптері
▁бүкіләлемдік
▁студенттерді
▁тәжірибесіне
▁функцияларды
▁объектілердің
▁қарастырылуда
he
war
ивт
міш
lığa
üstü
орлы
▁25-
▁Kat
▁бур
▁ойл
▁қом
▁Film
▁aile
▁cadd
▁giys
▁брит
▁сенс
▁фаза
veness
▁титан
▁қоныс
▁derhal
▁dersin
▁dondur
▁evinde
▁okuyor
▁торлар
▁турбул
▁шешуші
malıydım
ological
аларынан
шылармен
▁giyiyor
▁private
▁акциясы
▁бағалап
▁ерболат
▁стипенд
▁құбылыс
▁görmüyor
▁öğrendim
▁концентр
▁нарықтың
▁сақтауды
▁пәнаралық
▁қамқорлық
▁деректерге
▁ратификация
▁қорытындылай
▁операцияларды
▁министрлігімен
rop
біз
кан
нұс
оди
▁om
▁Ас
amış
ırlı
айыл
троп
▁1,9
▁kuz
▁жад
▁мах
▁0,47
▁1500
▁Hadi
▁adil
▁okur
▁sing
▁sist
▁жете
▁мыңы
▁орда
isinin
▁duygu
▁hızla
▁sakla
▁şapka
▁емдел
▁зақым
▁зымыр
▁Benden
▁Senden
▁Сандық
▁егемен
▁мағына
▁Қорыта
▁қасиет
циясының
▁almadım
▁biriyle
▁gürültü
▁білетін
▁бөлінуі
▁жәрмеңк
▁күйінде
▁макарон
▁философ
▁есептері
▁жасалуда
▁пәкістан
▁таңдауға
▁қаралады
▁қышқылды
▁дискретті
▁көрсетуде
▁магниттік
▁мақұлдады
▁ризашылық
▁себептері
ландырылған
▁gideceğini
▁біріктіреді
▁кинетикалық
▁жағдайындағы
▁қосымшаларды
▁республикасына
▁материалдарының
3/
to
мк
ann
erm
gen
етк
жал
нер
сағ
▁жқ
▁св
haba
ипаж
порт
▁sim
▁örn
ample
батыс
қылау
▁2003
▁grup
▁pres
▁бара
▁кван
gether
▁almam
▁elini
▁kalma
▁olsam
▁çözüm
▁Алғаш
▁есірт
▁париж
▁тозаң
▁қалаш
авлодар
атынына
орталық
▁duymak
▁events
▁sports
▁yapıla
▁карьер
▁модулі
▁талабы
▁теңест
▁тобына
▁шартқа
▁әйгілі
tiveness
оқұрылым
▁customs
▁fikirde
▁sürpriz
▁агломер
▁айыппұл
▁атомдық
▁еріткіш
▁жамылғы
▁келеміз
▁тоқтату
▁эквивал
▁үлгінің
▁arabayla
▁together
▁жасақтам
▁көрнекті
▁спорттың
▁қарқынын
▁қолайсыз
▁gitmesini
▁жатқанына
▁контейнер
▁particular
▁мекемелері
▁қолданамыз
▁Халықаралық
▁пайдаланған
▁субъектілері
▁қызметшілері
▁келіссөздердің
▁қаржыландырудың
ТҚ
med
қыт
▁Sm
▁БА
ings
pose
атив
күйі
раға
ұлов
▁any
▁dök
▁him
▁war
▁Газ
▁Жап
▁Кор
▁ткш
talar
tific
берек
▁2004
▁Evet
▁Türk
▁eğil
▁golf
▁kart
▁want
esidir
ақтылы
▁plant
▁promo
▁tasar
▁борыш
▁жазғы
▁магни
▁нанок
▁қорға
meliyiz
muyorum
▁başvur
▁hayatı
▁uzakta
▁абсолю
▁алуына
▁барған
▁рацион
▁таужын
▁экспон
▁қолтаң
▁құрған
▁ұлғаюы
▁өмірде
abilirim
діктерін
▁bulmaya
▁okuldan
▁sorumlu
▁yatmaya
▁гүлшара
▁заңының
▁керемет
▁тексері
▁шығынды
▁ықпалын
▁құжатта
layacağım
▁Onlardan
▁oturuyor
▁Жұмыстың
▁бағыттау
▁жолдарды
▁жоспарға
▁көмектің
▁процесті
▁сценарий
▁таңдалды
▁yetenekli
▁азаматтың
▁аэроғарыш
▁баяндалды
▁hissediyor
▁желілердің
▁орнатылады
▁семинарлар
ференциалдық
▁gerekiyordu
▁генетикалық
▁талдықорған
▁мемлекетінің
▁проблемалары
▁тапсырмалары
▁тұрғындарына
▁Республикасында
CO
ОГ
тұ
ive
ste
yen
пін
ртт
▁Әл
anım
ause
esig
lüğü
olon
алин
еран
итін
ьект
▁450
▁muh
▁tok
▁Кер
▁Шын
dedir
ğinin
оскел
пидем
▁Hast
▁Kims
▁food
▁Ішкі
▁абыр
▁астр
▁жады
▁өлше
▁defen
▁filmi
▁oynar
▁villa
▁youth
▁бағын
▁жазба
▁мысыр
▁atıyor
▁cüzdan
▁office
▁saniye
▁африка
▁желіні
▁сабақт
▁сутегі
▁durdura
▁konuşan
▁majilis
▁yaralan
▁аппарат
▁жанында
▁инжинир
▁кеңеске
▁күшінің
▁мысалға
▁Әсіресе
titutions
шілерінің
▁oynamayı
▁çiçekler
▁игерілді
▁массалық
▁тексеріс
▁sakıncası
▁стандарты
▁талдаудың
▁facilities
▁kullanıyor
▁беретініне
▁есептердің
▁көрмесінде
▁мемлекетті
▁нидерланды
▁объективті
▁integration
▁біліктілігі
▁тұрғындарды
ЕЛ
рн
cin
ион
коп
лұм
омб
теп
▁ul
▁Дж
▁үи
gest
omen
ucak
фосф
▁2,8
▁Din
▁Кен
▁бөг
▁флю
ments
ısına
данып
датпа
▁Hala
▁Jane
▁bast
▁Азия
▁зонд
▁моль
▁үсті
etwork
ketbol
мемлек
рессия
▁bölüm
▁draft
▁güldü
▁neydi
▁Фурье
▁армия
▁атады
▁орбит
▁қаупі
ference
математ
шімбаев
ілердің
▁Kapıyı
▁ortaya
▁дәреже
▁көрген
▁қаланы
▁Үшінші
▁өсімін
mektedir
▁example
▁iyisini
▁Экспери
▁аурулар
▁беріліс
▁білеміз
▁игілігі
▁кезеңін
▁кеңесте
▁форумда
▁geliştir
▁hayatını
▁геология
▁görmezden
▁маркетинг
▁меңгеруге
▁арттыратын
▁yaşındayken
▁мақсаттарын
▁өңірлерінде
▁institutions
▁контейнерлік
▁несиелендіру
▁облыстарының
▁стандарттары
▁температурасын
▁университеттің
39
РУ
ali
ılı
оқу
▁..
дама
зинь
шалы
▁2,1
▁sep
▁sun
▁Маң
▁қыл
▁өтк
medin
остық
форум
▁0,53
▁care
▁ГОСТ
▁аном
▁жазб
▁жағу
▁сфер
▁Әлем
осымша
▁Kitap
▁hariç
▁kayıp
▁masum
▁бірде
▁бүйір
▁елден
▁желіс
▁жылқы
▁түсуі
▁шатыр
▁қисық
düğünde
олардың
▁балқым
▁ерікті
▁клиент
▁саналы
▁сегмен
▁қамтып
рафиялық
өткізгіш
▁azından
▁because
▁okumayı
▁аударып
▁жаңғырт
▁меніңше
▁сызбасы
▁konuştum
▁sevdiğin
▁tanışmak
▁айналдыр
▁беріктік
▁насихатт
▁шығарған
▁әріптесі
▁жариялады
▁классифик
▁петропавл
▁successful
▁дайындауда
▁мектебінің
▁минералдық
▁патриотизм
▁салалардың
▁секторының
▁тақырыбына
▁тәжірибеге
▁қызметкері
▁ұйымдармен
▁әкімдіктің
▁мектептерде
▁презентация
▁станциялары
▁теңдеулерді
▁vermeyeceğim
▁мекемелердің
▁strengthening
▁yapmayacağını
▁жаратылыстану
▁мәліметтердің
▁ұйымдастырылып
ЭС
gıç
üya
иал
леп
уар
▁81
▁[4
▁dr
▁ыр
indi
lili
ануы
▁Rob
▁Tav
▁bro
▁det
▁sur
▁егу
▁өнд
ficul
ights
дауға
▁make
▁uçak
▁инсп
▁кент
▁тірк
emedim
дролық
лылығы
▁affet
▁кәріз
▁қарақ
▁қорық
алдарын
▁Birbir
▁контек
▁метрге
▁провин
▁сендір
▁табысы
▁тетігі
енттерді
▁olduğun
▁sipariş
▁аймаққа
▁аумағын
▁графика
▁жағында
▁көрнекі
▁маңызын
▁сүйемел
▁сәуірде
▁таңдағы
сағынтаев
▁davrandı
▁difficul
▁istersin
▁umurumda
▁елімізді
▁жәрмеңке
▁нақтылау
▁негізіне
▁төлемдер
▁қызметте
▁келтіреді
▁комиссары
▁күштердің
▁кәсіпорны
▁мамандығы
▁теңізінің
▁үшіншіден
▁анықтаудың
▁жариялаған
▁территория
▁экспедиция
▁экстракция
▁ғимараттың
▁competition
▁söylüyorsun
▁қарусыздану
▁қызметтерге
▁инвестицияның
▁тағайындалған
Ben
enç
апс
гүл
еев
пот
▁71
▁ғы
,000
tere
ufac
ипед
озит
▁cep
▁fri
▁vat
▁vic
▁вак
▁дің
ukarı
ерарх
мізді
▁Peki
▁dışı
▁ақын
▁бриг
▁гибр
global
▁bilgi
▁evden
▁karma
▁kilis
▁langu
▁mobil
▁tasks
▁ұғымы
атылған
омпания
ттарына
▁uyanık
▁аралау
▁артуда
▁ендігі
▁майдан
▁планет
▁төраға
▁қабырш
▁үнемді
алардағы
▁manufac
▁бейнесі
▁бұлттық
▁игеруге
▁кепілді
▁көреміз
▁тізбегі
▁тұлғаны
▁қолдауы
▁tanıştım
▁yaparken
▁жауынгер
▁максимум
▁қасиетін
▁ұрпақтың
▁Esperanto
▁Казахстан
▁автономды
▁анықтауда
▁жоспарлар
▁кезеңінің
▁өзгеріске
▁өндірудің
▁kalacaksın
▁ақпаратпен
▁кеңістігін
▁көтерілген
▁министрлер
▁объектінің
▁үміткерлер
▁көрсеткішті
▁бастамаларын
▁тапсырмасына
▁қызметтеріне
▁желтоқсанында
vir
ЕКТ
лын
тем
уан
▁Un
▁бі
izza
işan
luğu
терн
імін
▁(3-
▁2-3
▁Kas
▁sus
▁Кар
▁Тал
▁вит
▁пут
▁ұяш
дәстү
ланыс
оксид
▁olun
▁yola
▁Жеке
▁андр
▁жарн
▁норв
formed
ацияны
осының
▁allow
▁exper
▁iddia
▁kırdı
▁sebeb
▁діріл
▁сусын
▁өмірі
miyordu
елігіне
▁gelmez
▁histor
▁kurtul
▁parmak
▁Öğrenc
▁баптау
▁жанама
▁салады
▁талғат
▁шектік
дықтарын
▁ayrıntı
▁izliyor
▁kişinin
▁Бақылау
▁білімге
▁кездері
▁маркалы
▁ондаған
▁төменде
▁факульт
▁қомақты
▁қорлары
▁ұрпаққа
eceğimizi
▁günlerde
▁konuşmam
▁olmadığı
▁stressed
▁бірлігін
▁дайындам
▁консульт
▁сақталып
▁түсінуге
▁тәртіпті
▁доллардан
▁кредиттік
▁күшейтуге
▁модельдің
▁облысынан
▁полимерлі
▁соғысының
▁уақыттағы
▁ілгерілет
▁әзірлеуді
▁адамзаттың
▁материалын
▁мұғалімдер
▁талқылайды
▁тәжірибелі
▁диффузиялық
▁жалпыланған
▁модельдерін
▁факторларға
▁arkadaşlarım
▁фармацевтика
▁қызығушылығы
▁компоненттері
▁кәсіпорындарда
▁конфессияаралық
▁көрсеткіштердің
-6
бұ
oth
зат
іші
▁ge
дәрм
есек
ином
рине
▁15-
▁gre
▁ref
▁yas
▁ışı
▁Сур
▁ату
▁гол
▁юни
iktir
▁1998
▁boşa
▁free
▁rate
▁sıra
▁баяу
▁жасы
▁кино
▁слов
амызда
зияның
немесе
ттарда
ілімді
▁dokuz
▁gitme
▁nehir
▁peace
▁repor
▁works
▁Шығыс
▁алмат
▁еңсер
▁курсы
▁оптим
▁чехия
▁altına
▁düşman
▁etmesi
▁kaldık
▁minnet
▁Каспий
▁Кілтті
▁бөлуді
▁келуге
▁фабрик
▁қимасы
▁әкелді
▁өтпелі
eceğimiz
онсондық
▁kişiydi
▁азаматы
▁араласу
▁ақпанда
▁ерітінд
▁жылжыту
▁Әртүрлі
▁Buradaki
▁election
▁yürüyüşe
▁Программ
▁диффузия
▁көршілес
▁теңдеуді
▁түзіледі
▁қабылдай
▁қаралған
▁өмірінің
▁Түркістан
▁бөліктері
▁дисперсия
▁достастық
▁зерттеліп
▁керектігі
▁құрылатын
▁банктердің
▁тұлғаларға
▁ынталандыр
▁әдістермен
▁көзқарастар
▁мемлекеттен
▁қоғамдастық
▁мақсатындағы
▁хатшылығының
▁мұғалімдердің
▁физиологиялық
97
CE
avi
жаң
ног
роб
тел
▁Кү
▁МО
▁тг
ЕРІН
вест
лиев
ғали
▁çat
▁ақы
▁тыл
▁улы
amadı
ğimde
сауық
▁evin
▁okuy
▁еқдб
▁маңы
▁қисы
бизнес
деудің
егінен
▁lazım
▁meyve
▁mücad
▁Автом
▁иелен
▁ықшам
▁okudum
▁мыстың
▁разряд
▁салтын
▁шеккен
егіндегі
▁sorular
▁without
▁öğretti
▁азияның
▁зауытта
▁кластар
▁орындай
▁типтегі
▁anlamına
▁yüzünden
▁şaşırdım
▁оқылымда
▁қызметші
▁қысқарды
▁өндіреді
едициналық
▁hastanede
▁көлемдегі
▁мөлшеріне
▁партиялық
▁өздеріңіз
▁бастамалар
▁мәдениетті
▁элементтік
▁қышқылының
▁желілерінің
▁мектептердің
▁пайдаланылуы
▁субъектілерін
▁коэффициентінің
lo
zu
нь
ülü
люз
нес
һаз
▁ww
▁ха
ents
tika
ктер
ович
түрл
қызы
▁duş
▁Бет
▁МВт
▁инк
▁мұс
▁рус
▁шым
meyin
ламен
мекен
шашын
іктен
▁0,46
▁0,51
▁[11]
▁acil
▁alay
▁arka
▁göze
▁kara
▁қола
ербаев
лаудың
▁acele
▁istek
▁neyin
▁Нақты
▁Соның
▁ақаба
▁сұрау
▁ультр
▁active
▁kalktı
▁meters
▁territ
▁yemeyi
▁айтулы
▁беткей
▁кадмий
▁күндік
▁соғады
андардың
▁визалық
▁маңында
▁әріптес
▁bıraktım
▁etmekten
▁giderken
▁onlardan
▁saatlere
▁дайынбыз
▁дыбыстық
▁кейіннен
▁маминнің
▁проблема
▁committee
▁inanılmaz
▁İngiltere
▁көзделуде
▁топтардың
▁хабарлама
▁olabilirim
▁бірқалыпты
▁дәрігерлік
▁жарияланды
▁талқыланып
▁мақұлданған
▁объектілері
▁техногендік
▁қажеттілігіне
▁стандарттарына
▁қауымдастықтың
28
AT
ex
Tom
und
жен
шін
һар
▁şi
▁СО
▁ын
duce
ндық
цент
▁190
▁Ban
▁kör
▁айл
arayı
▁hold
▁kaba
▁plat
▁supp
▁демп
▁емти
▁жайы
▁құра
ihayet
iyecek
lamayı
tation
елеком
▁giden
▁kurab
▁oyunc
▁stage
▁varsa
▁yorum
▁ауаны
▁жиһаз
▁маниф
ғылықты
▁always
▁mutual
▁religi
▁арақаш
▁газдар
▁дамыта
▁жүктеу
▁мұхтар
▁отынды
▁тартып
▁Buradan
▁Söyledi
▁bakıyor
▁katıldı
▁белорус
▁көтерді
▁ортасын
▁талқыға
▁received
▁Атмосфер
▁дамуында
▁кезеңмен
▁кәсіпорн
▁рәсіміне
▁bilateral
▁kalabalık
▁yakışıklı
▁басымдығы
▁елдерінен
▁елордалық
▁тақырыбын
▁үдерісіне
▁кеңістікті
▁комитеттің
▁нығайтудың
▁шаққандағы
▁қаражаттың
▁геодезиялық
▁диаграммасы
▁меңгерушісі
▁тұжырымдама
▁басқарушылық
▁тыңайтқыштар
▁робототехника
▁шаруашылығына
",
нг
өп
200
eks
taj
жіт
▁Ch
enci
isis
ауда
ңқыр
▁00-
▁kum
▁ted
▁Сал
▁ұбт
siyon
қазан
▁0,43
▁1991
▁3000
▁Gece
▁grub
▁işte
▁read
▁tekn
▁жаяу
▁ықыл
onment
▁edilm
▁havuz
▁incel
▁kayak
▁yemem
▁жарам
▁мынан
▁санап
▁шашыр
alandır
іліктің
▁başlar
▁içecek
▁sensin
▁şaşkın
▁атанды
▁болуда
▁елінен
▁жаңаша
▁көлбеу
▁көшірм
▁мағлұм
▁сатылы
▁толған
▁тотығы
▁шешуді
▁ұзақты
▁experts
▁fikrini
▁активті
▁аралады
▁арзанда
▁бағытқа
▁енгізіп
▁орнаған
▁профиль
▁сауатты
▁тұқымды
▁қолдады
laşıkları
▁Amerikan
▁ayrılmak
▁аралықта
▁болуының
▁интервал
▁курсының
▁танытқан
▁қолданыс
▁қолдауды
▁effective
▁technical
▁Денсаулық
▁машиналар
▁номинация
▁қатынасты
▁мамандарын
▁механизмін
▁миллионнан
▁тоқсанында
▁қанағаттан
▁çalışacağım
▁молекулалық
▁қарапайымды
▁қатынастары
▁düşünmüyorum
▁аяқталғаннан
▁қарқындылығы
▁өнеркәсіптің
▁бейбітшілікті
▁проблемаларын
▁кандидатурасын
▁қалыптастыруда
74
Ақ
ән
шығ
▁Ky
▁gı
▁се
ased
üllü
ındı
тасы
іріп
▁Cev
▁Mac
▁güc
▁log
▁own
▁pra
▁Сар
▁жыр
▁тін
▁хор
emizi
usunu
аммед
ертик
▁0,52
▁1200
▁Math
▁help
▁kahv
▁çağr
▁лонд
emeyiz
едиұлы
▁geniş
▁reduc
▁third
▁алғыш
▁бетін
▁жарым
▁жинап
▁сайты
▁турни
▁қарас
лардағы
▁Yalnız
▁Yanlış
▁kravat
▁zamana
▁балаға
▁күндіз
әрекетін
▁gözleri
▁reforms
▁science
▁tutmaya
▁жабынды
▁көтеріп
▁шілдеде
▁өздерін
▁activity
▁continue
▁evlenmek
▁provides
▁Деректер
▁секторын
▁ұсынамыз
▁direction
▁görebilir
▁heyecanlı
▁зерттеуді
▁нүктелері
▁платформа
▁қаласынан
▁қолданушы
▁söylediler
▁technology
▁жартыжылды
▁кодексінің
▁көпқабатты
▁ұсыныстары
▁өнімдеріне
▁Мемлекеттік
▁атмосфераға
▁мерейтойлық
▁біліктілікті
▁онкологиялық
▁инновацияларды
▁параметрлердің
AS
ES
py
...
100
оло
тип
▁ДҚ
▁Ре
▁ЭҚ
aban
ends
ette
irli
илен
кпір
стыр
▁ADS
▁Yıl
▁big
▁ear
▁küç
▁түл
иктор
кулез
шілде
▁1997
▁foll
▁sesi
▁when
▁жүгі
ыңызды
▁Düşün
▁again
▁aldık
▁bağış
▁uğrat
▁ерлік
▁залал
▁иммун
▁керне
▁лингв
▁оңайл
▁себеб
▁цзинь
▁қазба
імбетов
▁anlaya
▁hırsız
▁miktar
▁Матери
▁агентт
▁гидрог
▁гүлден
▁жаңару
▁жөнелт
▁Yapacak
▁edilmiş
▁veriyor
▁көбейді
▁сатылар
▁уақтылы
vironment
▁мерзімге
▁төмендеп
▁қортынды
▁2015-2019
▁анықтадық
▁аудандары
▁есептеуіш
▁мемлекетт
▁ресурстық
▁салаларды
▁сауалнама
▁тудыратын
өткізгіштік
▁employment
▁initiative
▁Önümüzdeki
▁İspanyolca
▁болатынына
▁екендігіне
▁Жүргізілген
▁тереңдетуге
▁шоғырланған
▁жұмыстарында
▁институттары
▁кәсіпкерлері
▁коэффициентін
▁делегациясының
▁конференцияның
▁орналастырылды
99
OH
yr
ИМ
РО
бө
эт
вен
елу
жер
иді
рақ
▁3)
▁ҚҰ
арғы
йтіп
▁(20
▁ABD
▁Bey
▁Sat
▁[1-
▁cis
▁mul
▁Бей
▁ГАЖ
▁Мар
▁Тер
▁аты
ilere
беген
фолио
іруге
қаржы
▁грам
▁орам
▁ілес
▁әкеп
tuğunu
дықтың
лектро
▁eksik
▁evini
▁misaf
▁salon
▁whole
▁yasak
▁бренд
▁қоңыр
дағыдай
орларды
ыстарға
▁diledi
▁edemem
▁ekonom
▁vermem
▁üstüne
▁иелері
▁кәдеге
▁көпмүш
▁мөлдір
▁нейрон
▁осында
▁отырды
▁соғысы
▁тартты
▁экскур
беркулез
инхронды
▁dönecek
▁serbest
▁жабдықт
▁спортшы
▁қаралып
▁қоймасы
▁қоғамға
▁қысымды
▁әсеріне
▁karıştır
▁прокурор
▁сенаттың
▁сүйенсек
▁қазтранс
▁өзгеруін
▁beginning
▁gelebilir
▁resources
▁tanıdığım
▁çalışmayı
▁şaşırtıcı
▁бейімделу
▁кодексіне
▁мазмұнына
▁революция
▁сектордың
▁формалары
▁қаңтардан
▁değiştirdi
▁білдіретін
▁оқытушылар
▁теңдеуінің
▁inanmıyorum
▁американдық
▁диагностика
▁жабдықтарды
▁ықтималдығы
▁өзектілігін
атомөнеркәсіп
▁алгоритмдері
▁жыныстарының
▁компаниялармен
▁ауылшаруашылығы
▁орналастырылған
AB
üme
айт
ыма
ғая
▁Жо
▁Сө
▁гр
▁эр
hnic
tına
АРДЫ
еция
илев
ярлы
▁...
▁220
▁230
▁3,3
▁5,5
▁Mıs
▁muz
▁анс
lıkta
medik
sinin
ılmak
иттің
▁Oyun
▁ağrı
▁stat
▁what
▁егем
▁залы
▁илем
▁роль
stance
▁effor
▁goods
▁oğlan
▁yaşar
▁атауы
▁гетер
▁жолда
▁корей
▁кәсіб
▁лауре
▁маған
lanacak
lanıyor
lıyordu
malıdır
▁recent
▁батырм
▁сіңіру
▁фермер
▁Қолдан
▁үлгіні
дықтарды
▁Android
▁Bizimle
▁haftada
▁indicat
▁көмекті
▁матрица
▁тағылым
▁шегінде
▁қойылып
▁үйкеліс
▁әмірлік
▁өскелең
abilirsin
▁gelmiyor
▁kayboldu
▁söyleyen
▁жасаймыз
▁мағынасы
▁мынандай
▁мұнайгаз
▁периодты
▁түйіршік
▁ғаламтор
ландырудың
▁yaralandı
▁Назарбаев
▁параметрі
▁ғалымдары
▁өнімдерге
дендірілген
▁manufactur
▁аудандарда
▁дайындалып
▁деңгейінен
▁ерітіндісі
▁пікірталас
▁салыстырып
▁тәрбиелену
▁тәсілдерді
▁established
▁алгоритмдер
▁модельдерді
▁этносаралық
▁элементтерді
▁көрсеткіштерді
31
ЕУ
гл
нш
фа
dio
şun
азы
тик
▁%-
▁Em
▁Ge
▁Sh
▁[5
▁Аң
ator
eniz
▁3,1
▁dan
▁foc
▁pen
▁Ком
▁тес
▁цел
▁Қаш
гілеу
пайды
ғымыз
▁ağac
▁code
▁kamp
▁kıya
▁tela
▁üzül
▁күмә
▁попу
▁синт
▁тері
lıktan
maları
азалық
ілікке
▁genel
▁veril
▁worth
▁жатақ
▁күйде
▁көзін
▁лидер
▁ойлап
▁силик
▁фракт
▁қаулы
▁әсерл
▁өлшен
▁buldun
▁follow
▁iyiydi
▁mechan
▁profes
▁ажырат
▁панель
▁тілдер
▁түрлер
▁шығуға
umartesi
▁hatalar
▁hazırım
▁yapalım
▁байқауы
▁бағынды
▁есірткі
▁кристал
▁пәнінің
▁тәсілін
▁ұғымдар
▁bitirmek
▁dinlemek
▁geçirmek
▁positive
▁telefonu
▁Заманауи
▁жоспарды
▁коррозия
▁мердігер
▁түзілген
▁қаржының
▁әдістеме
отермиялық
▁partisine
▁дүйсенова
▁елдердегі
▁жерлердің
▁кернеудің
▁командасы
▁тапсырған
▁театрының
▁америкалық
▁аударылған
▁дәнекерлеу
▁пропорцион
▁түсіндіріп
▁birbirlerine
▁оқушыларының
▁станциясының
▁археологиялық
▁құрылғылардың
▁ақпараттандырды
.2
.4
DM
эс
era
ger
yal
АСС
көз
осп
▁IP
▁ec
▁үр
омен
▁(5)
▁Res
▁nüf
▁үгі
anlar
dards
астер
ауқат
дустр
оголь
сейіт
ылғыш
індік
▁Para
▁таңб
▁үйір
▁Ұйым
lemeye
ükümet
мыздың
▁Acele
▁Endiş
▁colle
▁kavga
▁speak
▁вирту
▁жазып
▁нөлге
▁санау
ымалдау
▁Nereye
▁gördük
▁respon
▁бастан
▁корпус
▁сенсор
▁сілкін
▁шарасы
▁құлдыр
▁әлемді
▁adopted
▁deneyim
▁gitmesi
▁kalmaya
▁çıkıyor
▁графигі
▁пікірін
▁туындап
▁филиалы
оптикалық
▁aldığını
▁meşgulüm
▁platform
▁бактерия
▁бағытына
▁геосаяси
▁елдерден
▁жариялау
▁жеделдет
▁жүректен
▁көтерген
▁моңғолия
▁орнатқан
▁сайтында
▁форматта
▁өзгерген
андырылған
▁etmelisin
▁istasyona
▁аймақтары
▁ортасының
▁Қорытынды
▁айқындайды
▁айқындалды
▁жақсыбеков
▁таратылған
▁трансфертт
▁қондырғысы
▁сәйкестігін
▁қазмұнайгаз
▁бағдарламада
▁серіктестігі
▁құрылымдардың
▁катализаторлар
32
Bu
МЖ
шу
ӘН
авр
бау
көр
▁Aş
▁АР
▁қм
▁ұж
edek
rika
uval
озой
▁доз
▁шен
incip
luyum
мұхам
паған
ымның
▁Aynı
▁date
▁fact
▁ilgi
▁olay
▁sarı
▁some
▁ариф
▁көше
▁реда
▁этал
▁қызу
vement
▁düşük
▁inten
▁kurdu
▁mıyım
▁seçim
▁women
▁yirmi
▁çoğun
▁азаюы
▁терап
ықтарға
▁ikimiz
▁konser
▁ödemek
▁атрибу
▁ақшаны
▁бейнел
▁мәніне
▁соғыст
▁қарады
ондардың
▁contrac
▁odasına
▁princip
▁session
▁yerinde
▁Мұғалім
▁бүгінге
▁далалық
▁жайылым
▁заманда
▁мойында
▁istersen
▁konuştuk
▁kullanır
▁çocukken
▁жазылады
▁кезеңнен
▁мәлімдем
▁ортадағы
▁сарыарқа
▁таралуын
▁тереңдік
▁тораптар
▁өкінішке
▁өлкетану
▁бағалайды
▁йонсондық
▁саясатына
▁сомасында
▁тартылады
▁тәртібіне
▁өткізетін
коммуналдық
органикалық
▁Devletleri
▁Техникалық
▁аймақтарды
▁еуропадағы
▁институтын
▁мамандарға
▁тұрғысында
▁шикізаттың
▁құрылымның
▁Fransızcayı
▁karşılaştım
▁жаңғыртудың
▁индукциялық
▁талқыланған
▁хабарланған
▁шешімдердің
▁hoşlanmıyorum
▁стандарттарды
▁көрсеткіштерге
шо
ыұ
қп
bul
ham
zer
зол
▁Gü
▁dy
▁Аз
▁қы
ayır
iyon
ğını
азия
деуі
ирек
стеу
▁101
▁Sah
▁ayn
▁tor
▁çan
▁фон
deyim
posta
изика
сынып
іргіш
▁2001
▁Ayak
▁exec
▁poss
▁rüya
▁ürün
▁коды
▁менш
▁Okula
▁bağlı
▁bozuk
▁built
▁flört
▁focus
▁muydu
▁obser
▁zehir
▁деуге
▁имидж
▁мотив
▁сирия
▁соқты
▁қарам
▁әлеум
естерін
▁parkta
▁хромат
▁шарада
▁қадамы
атталған
қатынасы
▁cinayet
▁etmeyin
▁аймақты
▁арадағы
▁береміз
▁жерінде
▁пішінді
▁саңылау
▁түрінің
▁қарудан
▁қақпасы
▁құраушы
ыстарының
▁electric
▁havaalan
▁öldürmek
▁аймағына
▁ардагері
▁аяқталуы
▁еуроодақ
▁сақталуы
▁сынақтан
▁Қоршаған
▁құндылық
▁әдеттегі
онференция
▁formation
▁güvenilir
▁standards
▁zamanımız
▁аренадағы
▁индикатор
▁кеңістігі
▁көздеріне
▁лаборатор
▁оптималды
▁пленарлық
▁davranıyor
▁protection
▁yapmayacak
▁Температур
▁алгебралық
▁басқаратын
▁деңгейлері
▁марапаттау
▁өндіріледі
▁жеңілдетеді
▁реформалардың
▁тапсырмасымен
▁қорытындылады
▁университеттер
▁қатысушыларына
▁көрсеткіштеріне
yu
ХН
жағ
airs
etim
üncü
иров
▁Beş
▁ISO
▁pet
▁Дәл
▁айы
▁жәй
▁нег
▁осц
▁рын
▁Ұлы
liyor
ğrenç
ımıza
дімгі
▁jobs
▁maaş
▁plaj
▁сәтт
▁қаза
лерден
маусым
▁katta
▁teach
▁yayın
▁şansı
▁калий
▁съезі
▁сүріп
▁түтік
larıyla
▁duydun
▁edelim
▁fikrin
▁rights
▁yaşına
▁çikola
▁жиырма
▁иерарх
▁климат
▁саяхат
▁теңізі
▁қауіпт
▁duyabil
▁masanın
▁parçası
▁sevimli
▁verdiği
▁астында
▁диаспор
▁достаст
▁жылдағы
▁компози
▁минимум
▁мәсімов
▁табамыз
▁қабылда
▁қытайға
▁chairman
▁hakkımda
▁kolaydır
▁дайындап
▁жылдарда
▁марганец
▁протокол
▁түсінігі
▁қарайтын
▁әкімдері
аларындағы
▁бастаманы
▁спектрлік
▁тексеруге
▁arayacağım
▁аурулардың
▁болатындай
▁дағдыларды
▁интегралды
▁мультимеди
▁environment
▁opportunity
▁деңгейіндегі
▁тасымалдауға
▁министрліктер
▁орталықтарында
▁жауапкершілікті
▁концентрациясын
.3
9-
ima
lab
ЛЫҚ
ихи
йор
оши
▁Et
▁İh
▁СТ
olab
масы
қоры
▁4,1
▁fen
▁gem
▁kek
▁ran
▁абд
▁зай
▁нит
▁реф
▁шық
▁әкк
allen
areti
sanız
потек
ілімі
▁Kedi
▁Kısa
▁Uçak
▁araç
▁char
▁мину
angisi
zersiz
менедж
оксиді
▁based
▁benef
▁heads
▁kulüb
▁memor
▁savun
▁selam
▁Кесте
▁антен
▁гради
▁мейір
▁табан
ruption
ахманов
▁almadı
▁başkan
▁durumu
▁engine
▁exchan
▁eğitim
▁medium
▁proper
▁uykulu
▁беттің
▁иордан
▁органы
▁редакт
▁смайыл
▁суының
▁сыйақы
▁account
▁Шымкент
▁елшілік
▁естелік
▁минерал
▁орындап
▁ресейге
▁әкімшіл
метикалық
муникация
▁başladım
▁алмайтын
▁егеменді
▁жандарға
▁тұтынушы
▁шекарасы
▁қасымбек
▁Ұсынылып
▁2015-2016
▁жеткіздік
▁күтілетін
▁тауарлары
▁тенденция
▁құрылғысы
динамикалық
▁жартысында
▁жоспарында
▁жіберілген
▁келтіретін
▁туберкулез
▁құрылғының
▁ilgileniyor
▁экономикада
▁анықталмаған
▁көрсеткіштен
▁орталықтарын
▁кәсіпорындарға
▁қаржыландыруды
▁модернизациялау
92
98
ha
ОМ
ха
ack
eve
sek
üse
бид
гон
гіл
эгг
құж
land
phas
адий
алса
гісі
омат
ұйық
▁Neh
▁Stu
▁Yor
▁adr
▁göl
▁ham
▁may
▁peş
▁www
▁ЖЭО
▁аша
▁кВт
▁ххі
edeki
leşti
manız
битум
интез
орфты
▁0,56
▁Anah
▁niye
▁Çoğu
▁ülke
▁қазп
isidir
ағанды
берген
▁Görün
▁capac
▁dövüş
▁gizli
▁ortak
▁video
▁yedin
▁yeşil
▁Кейін
▁Микро
▁жетім
▁күшей
▁bıktım
▁sözlük
▁yukarı
▁Осыдан
▁алаңын
▁жазықт
▁ипотек
▁өзгеше
▁denemek
▁аспайды
▁дәленов
▁көреген
▁салдары
▁сатылды
▁толеран
▁топоним
▁шифрлау
▁қарайды
▁өңдеуді
▁alıyorum
▁official
▁priority
▁Химиялық
▁былтырғы
▁жақсылық
▁маманның
▁редакция
▁сіздерге
▁тәсілмен
▁қағидасы
▁etmiyorum
▁біріншісі
▁деңгейден
▁жобасымен
▁жолдардың
▁категория
▁лауазымды
▁стационар
▁шешімімен
▁management
▁депутаттық
▁лауазымына
▁толықтырып
▁қайраткері
▁имитациялық
▁ризашылығын
▁қарастырған
▁үдерістерді
▁стандарттарын
▁өзгерістердің
▁көшбасшыларының
▁тапсырмаларының
▁технологияларға
yar
ЫТУ
иак
люк
мды
ылғ
▁Eğ
▁АЖ
▁Ти
ışın
ЫНДА
елес
хрон
▁280
▁3,6
▁Jim
▁Kut
▁Sın
▁sön
▁Фун
▁лиг
▁мир
emini
▁east
▁есіл
▁етін
▁көре
▁лады
▁ішін
amaşır
esiyle
▁algın
▁doing
▁odayı
▁plans
▁unity
▁uğraş
▁демал
▁жүкті
▁көкей
▁мәрте
▁ұтқыр
▁Әрине
imizden
ylesine
▁deputy
▁tembel
▁азайып
▁бойынш
▁дәлелі
▁жеделх
▁жүгері
▁калибр
▁көмірт
▁локомо
▁тамара
▁тастар
▁учаске
▁физико
▁sanırım
▁жақыпов
▁жердегі
▁жеңіске
▁кезеңді
▁критери
▁сауданы
▁статист
▁шығарды
▁қабырға
▁өміріне
▁өсімнің
сапарбаев
қатынасын
▁арасынан
▁дамуымен
▁жәрдемақ
▁нашарлау
▁сыныптар
▁танылған
▁тізбекті
▁қадамдар
▁қозғалды
▁әзірледі
▁basketbol
▁insanlara
▁stability
▁Университ
▁аккредитт
▁болмайтын
▁мысалында
▁сақталуын
▁сотталған
▁тағайында
▁формуласы
▁қолдаймыз
▁жоғарылауы
▁педагогика
▁процестері
▁сұрақтарды
▁шараларына
▁шақырылған
▁çalışıyordu
▁монополияға
▁тұрғындарға
▁congratulate
AP
âr
ade
ino
zem
üşe
еле
осу
ото
▁пе
sive
абек
альт
инск
отез
шасы
эксп
▁108
▁Gaz
▁SiO
▁bod
▁dar
▁kus
▁Жан
▁Саб
▁бах
▁рам
▁шот
▁Қан
eştir
▁anal
▁iden
▁mate
▁кеме
▁кілт
▁қате
ğimizi
аллург
тылады
▁Sınıf
▁boşan
▁doğal
▁fakir
▁tarif
▁yerim
▁ısrar
▁борда
▁грави
▁жаһан
▁сотқа
▁текті
▁тұрды
▁шайыр
▁adamın
▁gözlük
▁istifa
▁soruyu
▁yolunu
▁Şirket
▁кенорн
▁лондон
▁сержан
▁тоқыма
▁хирург
▁қолдай
iversite
ıldığını
шілігіне
ыдырысов
▁düşünür
▁purpose
▁sahibim
▁verildi
▁yaşayan
▁ағынның
▁жиналды
▁радиусы
▁қатерлі
шілігімен
▁parasını
▁алғаннан
▁жариялан
▁келмейді
▁келісімі
▁көміртек
▁көрмелер
▁ортасына
▁уақыттан
▁экзоскел
▁қағидаты
▁olmalıyım
▁гендерлік
▁жұмсалады
▁критерийі
▁палатаның
▁реттеудің
▁синтездеу
▁шығындары
▁ілгерілеу
▁cezalandır
▁olmadığımı
▁болғанымен
▁бірлестігі
▁бөлшектері
▁мектептегі
▁практикада
▁қатысушысы
▁наноқұрылым
▁параллельді
▁талаптардың
▁yapmayacağım
▁берушілердің
▁синтетикалық
▁үдерістердің
▁тәжірибесімен
▁әкімшілендіру
▁компоненттердің
▁қызметкерлеріне
iğ
БТ
зг
ğım
жаз
пей
▁Pa
▁АТ
▁ыс
ares
crip
ауыз
ейін
ицид
онан
ізге
▁Aşk
▁Kol
▁Mes
▁eşy
▁pav
▁мих
▁ныш
▁рец
▁ұмы
▁ұны
takal
естен
мызды
танов
▁beli
▁kere
▁kest
▁köpr
▁pant
▁tril
▁ödül
▁соқт
▁типі
▁элли
▁әсем
андары
▁Alice
▁cesur
▁içine
▁terms
▁çalar
▁арнап
▁көшіп
▁литва
▁параф
▁тегіс
▁қоқыс
▁өткер
meliyat
жігерін
обильді
▁aramak
▁birisi
▁direct
▁içmeyi
▁yazdım
▁Мектеп
▁аласыз
▁вертик
▁желдің
▁жүруде
▁руслан
▁энерго
▁ұсыным
sibility
жылдықта
▁Birinin
▁residen
▁sandaly
▁yağıyor
▁önceden
▁апаттық
▁векторы
▁венгрия
▁жолақты
▁кірісті
▁мәтінді
▁сатылым
▁шамасын
▁қожалық
шекаралық
▁possible
▁sinemaya
▁арабиясы
▁арақатын
▁желісіне
▁моделіне
▁нормалар
▁пәндерді
▁спортпен
▁тербеліс
▁қысымның
▁өңірінің
офизикалық
▁fazlasını
▁gidiyoruz
▁mechanism
▁tradition
▁шақырылды
ebileceğini
▁Республика
▁маусымында
▁нәтижесіне
▁профессоры
▁educational
▁басшыларына
▁белгіленеді
▁кезеңіндегі
▁сондықтанда
▁түсіндіруге
▁өңірлердегі
▁биометриялық
▁мұғалімдерін
▁көмірсутектер
▁асимптотикалық
▁мүмкіндіктеріне
.6
лм
acı
eda
жіп
икс
йын
әне
▁//
▁SD
ills
аков
лген
▁(6)
▁4,4
▁7,5
▁Boş
▁ayı
▁Обл
▁Тау
▁вас
▁жіп
▁так
dınız
ledge
luluğ
ектес
ентке
іздес
▁0,45
▁Cadd
▁başa
▁burn
▁holi
▁мұны
▁осал
▁стер
▁қалм
langıç
ımızda
сервер
▁Hayal
▁desig
▁gradu
▁kopya
▁mayor
▁mıyız
▁south
▁taksi
▁çeşit
▁бәрін
▁бәсең
▁класы
▁ресім
▁салам
▁өткір
▁өңірі
acebook
▁açıkla
▁gözden
▁Оларды
▁дөңгел
▁жарлық
▁кредит
▁мақтан
▁нөлдік
▁пакеті
▁талпын
▁түсуде
▁өнімге
▁beraber
▁besides
▁challen
▁elimden
▁markets
▁азиялық
▁жарылды
▁жоқтығы
▁түйінді
▁тәсілді
▁қымбатт
дықтардың
▁transfer
▁айқындап
▁атқаруда
▁серпінді
▁қозғаушы
bileceğini
енттерінің
▁görüşürüz
▁асырудағы
▁базасының
▁басқалары
▁мерекелеу
▁модуляция
▁шектеулер
▁өндірілді
▁oturuyordu
▁söyleyemem
▁дайындауды
▁дәрежесіне
▁кедергісіз
▁командалық
▁сарапшының
▁саясаттану
▁формуламен
▁қоспасының
▁konuştuğunu
▁қондырғының
▁әдістерімен
▁professional
▁аспектілерін
▁басымдықтары
▁тиімділігіне
▁депутаттардың
▁қалыптастырып
▁инфрақұрылымның
33
Fe
фт
як
500
aze
ita
pec
ury
▁Ya
▁hu
anet
cing
амас
атас
еуіш
▁4,7
▁Dil
▁Sev
▁Soğ
▁ele
▁zek
▁Вир
▁Көл
▁иыұ
▁мін
▁нің
lığın
▁2022
▁acık
▁ters
▁şişe
▁Коши
▁барр
▁жұмы
▁әрті
elerin
алауға
тармен
туризм
▁kaçta
▁kağıt
▁planı
▁билет
▁ерікт
▁жаңар
▁төсен
▁цемен
дердегі
теңгеге
▁access
▁compar
▁course
▁çılgın
▁ülkede
▁Көрсет
▁абырой
▁ағынан
▁дамуды
▁трафик
▁шешеді
düğünden
memiştim
▁konuşul
▁tourism
▁биіктік
▁жылында
▁сайлауы
▁өмірдің
edersiniz
▁kardeşin
▁бауырлас
▁бұрыннан
▁интеграл
▁суармалы
▁Кәсіпорын
▁бозымбаев
▁материалы
▁сайланған
▁құжаттары
▁republican
▁деңгейімен
▁дәлелденді
▁есептеудің
▁орындайтын
▁оқытушының
▁филиалының
▁холдингтің
▁есептегенде
▁құрылғылары
▁жеңімпаздары
▁зерттеулерге
▁сауаттылығын
▁теңдеулердің
▁қайраткерлер
▁компанияларға
▁нәтижелерінің
▁тапсырмалардың
ram
yaş
али
бор
иан
иды
иян
роц
сул
▁CO
▁Mo
▁iv
esiz
itor
mene
raph
▁107
▁12-
▁4,3
▁Cez
▁Ser
▁köy
▁squ
▁энд
emeye
ering
▁0,57
▁duyg
▁İhti
▁Терм
▁есік
▁жіті
▁пале
▁степ
▁сәби
imizin
lanmış
жоспар
иналық
саттық
тәрбие
▁becer
▁işler
▁smart
▁uzman
▁zordu
▁етуші
▁жобал
▁жуығы
лылығын
▁Robert
▁celebr
▁cities
▁geldin
▁leader
▁thanks
▁бағаны
▁даниал
▁емхана
▁жарату
▁заңдар
▁кабель
▁квазим
▁куәлік
▁наград
▁театры
▁ісінде
белсенді
▁holiday
▁network
▁sinirli
▁арнаған
▁бақылап
▁жететін
▁көбейіп
▁сенімін
▁Қаратау
▁қолөнер
▁құралын
ептикалық
істерінің
әрекеттер
▁geçirdik
▁İstasyon
▁байқалып
▁кристалл
▁көліктің
▁көрсетуі
▁ландшафт
▁мақтаныш
▁сабақтың
▁таңдаған
▁түсінікт
lamadığını
▁öğrenmeye
▁байқалған
▁британдық
▁қолдануда
▁қосымшасы
▁әзірлеген
▁scientific
▁yapmalıyız
▁İnsanların
▁жүргізілуі
▁değiştirmek
▁катализатор
▁кондитерлік
▁мәдениеттің
▁келісімдерге
▁көмектесетін
▁сенімділігін
▁тәуелділігін
▁қабылданатын
▁қатынастарын
▁әскерлерінің
▁демографиялық
▁параметрлерді
▁процестерінің
▁трансформация
▁депутаттарының
▁тұжырымдамалық
▁институттарының
)-
.1
AR
ix
TEM
lin
ord
oya
uda
ule
vik
▁öt
▁üş
ağın
eyif
далу
орес
пект
туға
ідір
▁240
▁3,4
▁Koc
▁art
▁fes
▁tip
▁yük
▁Таң
▁жүн
▁шап
идтер
одуль
ірмен
▁Bill
▁anti
▁neyi
▁turn
▁бару
▁өкім
дәрмек
ифрлық
ттылық
ыларды
▁Doğum
▁Hazır
▁Kyoto
▁Mektu
▁added
▁bilen
▁bindi
▁dynam
▁odası
▁pasta
▁pizza
▁sınır
▁until
▁veter
▁алмай
▁аспан
▁аспап
▁жолау
▁ығысу
алуымен
дығынан
▁bakmak
▁bizden
▁büyüdü
▁united
▁yapmış
▁ашатын
▁босату
▁жағына
▁кірген
▁күштік
▁пікірі
▁секунд
▁тұйықт
▁шұңқыр
▁экипаж
niversit
алығының
ілмейтін
істіктің
▁kilomet
▁leading
▁partide
▁satranç
▁çevirdi
▁Аңдатпа
▁австрия
▁анықтай
▁басқаша
▁дәйекті
▁енгізді
▁констан
▁полином
▁сабақты
▁саламыз
▁фрагмен
▁қақтығы
▁approved
▁karmaşık
▁жүктерді
▁чемпионы
жекеменшік
▁hoşlanmaz
▁İstediğin
▁бөлімдері
▁келушілер
▁көзделеді
▁шақырамын
▁conference
▁zorundaydı
▁атқарылуда
▁инжиниринг
▁нормаларын
▁қабылдануы
▁қалыптасып
▁қағидалары
▁үрдістерді
▁Fransızcada
▁назарбаевты
▁сигналдарды
▁құралдармен
▁үлгілерінің
▁адамгершілік
▁жылдамдықпен
▁зерттеушілер
▁жылдамдығының
.0
бы
ку
діс
▁02
▁кс
ness
üyle
ılda
берн
етан
илля
кеев
олла
▁3-4
▁kin
▁müt
▁çığ
▁Мон
▁лып
Hayır
▁assi
▁bela
▁four
▁işin
▁tabl
▁took
▁Есеп
▁Оған
▁Теор
▁арыс
▁барш
▁виру
▁гарм
▁көбі
▁сызб
▁тікұ
▁үйде
arında
емелер
понден
ғыштың
▁advan
▁annem
▁belli
▁clear
▁gidip
▁günün
▁yatağ
▁yolda
▁жылжу
▁лагер
▁путин
▁өсуде
eliydin
ициялық
контрол
ымыздан
▁Pencer
▁corpor
▁gömlek
▁içiyor
▁sağlık
▁sürdür
▁атауға
▁байбек
▁білген
▁гидроф
▁оқитын
▁түркіт
▁тұруға
▁Қозғал
▁әкелуі
▁өсетін
тентифик
▁taşındı
▁yakalan
▁айтамыз
▁айтылып
▁асырған
▁географ
▁күнтізб
▁түзілуі
▁expected
▁yemeğine
▁Алгоритм
▁аккумуля
▁аударған
▁диоксиді
▁толмаған
▁форумына
▁әрекетін
▁gülümsedi
▁kalacağız
▁жеткізеді
▁жүйелерде
▁көмектесу
▁қарқынмен
▁асинхронды
▁міндетіміз
▁теңдеулері
▁агенттіктің
▁бөлімшелері
▁жүйелерінде
▁мониторингі
▁ресурстарға
▁сенімділігі
▁сессиясында
▁жағдайларына
▁рекреациялық
▁инвестициялау
▁технологиямен
▁қосылыстардың
▁мультимедиялық
Гц
іі
ats
nel
sts
ДЕУ
мит
▁HT
▁АК
amda
ilya
kten
oloj
адыб
гізу
неси
ібек
▁-20
▁Aff
▁Fır
▁Kuz
▁Sür
▁hor
▁nak
▁vii
▁vüc
▁Нұр
▁Тол
▁аул
▁бүр
azart
dolab
çiler
ресур
рының
ттегі
утбол
▁1994
▁here
▁kalb
▁kalp
▁kent
▁thus
▁uyum
▁Ауыл
▁Тест
▁мәмс
▁сөзі
etiyor
ınıyor
бастұз
береке
дасқан
жанова
ттерге
інетін
▁fatur
▁ileri
▁kredi
▁saçma
▁share
▁tesad
▁uyudu
▁Анықт
▁бөлме
▁корол
▁салыс
▁тәжір
▁өрнек
▁өткім
earning
ариялық
инарлық
ымбетов
▁aniden
▁iğrenç
▁kendin
▁koltuk
▁materi
▁regard
▁sevdim
▁İhtiya
▁Эконом
▁ақырлы
▁біреуі
▁зорлық
▁концер
▁максим
▁сатуға
▁тергеу
▁қайтыс
▁әзірге
ерлердің
▁edemedi
▁edersin
▁eleştir
▁yapmama
▁çalışan
▁İtalyan
▁дәлірек
▁санайды
▁әдісіне
бағдарлам
▁language
▁есебінде
▁несиелер
▁отырғаны
▁танысуға
▁құрылтай
▁ұшыраған
▁giyiyordu
▁kitapları
▁конструкт
▁нидерланд
▁орталыққа
▁тетіктері
▁шақырылым
▁шешілетін
▁alışverişe
▁directions
▁numarasını
▁seviyorsun
▁söylediğin
▁қаңтарында
▁institution
▁legislation
▁аттестаттау
▁çalışıyorsun
▁байланыстары
▁қыркүйегінде
▁жұмысшылардың
▁морфологиялық
әк
gör
yet
рос
үни
▁ше
tors
клим
улет
▁80-
▁Dur
▁nat
▁pis
▁ısı
▁Жаз
▁ром
▁шип
▁эск
educe
lattı
lukla
қоғам
▁[13]
▁başı
▁bölg
▁hect
▁kime
▁Граф
▁Олай
▁Стан
▁кати
▁сұлб
ectors
ИКАЛЫҚ
абында
бағдар
▁Yaban
▁asker
▁bulut
▁keyif
▁nişan
▁ашуды
▁бакал
▁ереже
▁иидмб
▁пленк
▁серви
▁ұйғар
▁ұнтақ
▁өрлеу
шісінің
▁dışına
▁endişe
▁gelmem
▁oynadı
▁sürücü
▁teşvik
▁şeydir
▁қажеті
▁ұлттың
abiliriz
аттармен
сұлтанов
▁Hepiniz
▁attract
▁changes
▁eğitimi
▁herkesi
▁ihtimal
▁kişisel
▁russian
▁алаңына
▁алғышар
▁ашықтық
▁визасыз
▁жоғалту
▁жүздесу
▁туылған
▁әдебиет
ектерінің
▁Yaklaşık
▁bitirdim
▁edeceğiz
▁kazanmak
▁mücadele
▁yapmıyor
▁yaptığım
▁нысаналы
▁процессі
▁тарифтік
▁тотықтыр
▁өткізуде
энергетика
▁анықтаған
▁жезқазған
▁интенсивт
▁vermeyecek
▁şüpheliyim
▁жарлығымен
▁стандартқа
▁тауарларға
▁біріктіруге
▁дайындаудың
▁жылдамдықты
▁спектроскоп
▁қозғалыстың
▁екендіктерін
▁мәліметтерін
▁ғылымдарының
▁ықпалдастықты
▁серіктестіктің
▁стратегиясында
▁қолжетімділігі
ıt
ОН
ПУ
нк
уг
ІЛІ
АЛЫ
аяқ
гім
кор
шан
янь
▁sk
▁uk
▁Кр
▁ХХ
cept
mail
unan
дасу
омон
түст
фици
▁112
▁Gar
▁bom
▁Шеш
▁лам
▁тым
▁Құм
dance
eydin
luyor
tiniz
асуға
байды
ектеу
жіриб
сәуір
▁2002
▁call
▁dağı
▁sözc
▁üret
▁Сары
▁иесі
▁нәрс
▁ораз
▁әріп
unuyor
байбек
▁miydi
▁treat
▁treni
▁контр
▁мырза
▁құнар
▁үлдір
▁үштен
алдарға
▁dönmek
▁edemez
▁gitmiş
▁single
▁sonuna
▁taking
▁uygula
▁бүлдір
▁растау
▁халқын
eyeceğiz
▁alışkan
▁okumaya
▁sizinle
▁баршаға
▁гипотез
▁жартысы
▁жарысқа
▁жинаған
▁ресейде
▁сипатқа
▁табысқа
▁транзит
▁қысқару
▁açıkladı
▁başlamak
▁büyüktür
▁düşündür
▁informed
▁kasabada
▁kullandı
▁pantolon
▁yaptığın
▁zamandan
▁алкоголь
▁болжауға
▁дәлелдеу
▁жалақысы
▁жүйедегі
▁заманның
▁теміртау
▁ұшырайды
▁expressed
▁matematik
▁жүктемені
▁сақтайтын
▁талданған
▁түзілетін
▁экскурсия
▁құзыретті
▁үлгілерді
▁ұзындығын
abileceğini
олептикалық
▁Топырақтың
▁алматыдағы
▁алушыларға
▁жұмыстарда
▁мүшелеріне
▁полимерлік
▁хатшысының
▁құндылығын
▁германияның
▁басшылығының
▁олимпиадалық
▁сәйкестендір
▁сәулелендіру
▁görünmüyorsun
▁жасөспірімдер
▁заңдылықтарын
▁мүмкіндігінше
ӘК
tay
ves
бра
кат
▁91
▁Ah
▁Іс
avul
ақұр
отты
такт
ыншы
▁Ter
▁kuy
▁reh
▁tad
▁Бар
▁Мен
▁кім
▁пас
endir
lamış
оңғал
▁0,54
▁1999
▁5000
▁Ekim
▁Soru
▁kans
▁yara
▁Және
▁Тапс
▁глоб
▁танк
▁туды
▁эфир
indeki
апайым
ацияға
гиялық
дамалы
ғжанов
▁altın
▁barış
▁cover
▁duyar
▁karak
▁kirli
▁велос
▁киелі
▁мұрат
▁өнері
▁өрісі
алмайды
ылуының
▁alması
▁annual
▁before
▁evinin
▁forces
▁gazete
▁iletiş
▁proced
▁report
▁square
▁umursa
▁азияда
▁бітіру
▁кірікт
▁секция
▁сыртқа
▁değişti
▁geldiği
▁hiçbiri
▁kullana
▁various
▁аумақта
▁кестеге
▁телеарн
▁тұндыру
▁құнының
▁actively
▁şaşırmış
▁Павлодар
▁аппараты
▁гранттар
▁жүздеген
▁миссиясы
▁судьялар
▁талдауды
▁тілдерді
▁annesinin
▁presented
▁understan
▁ашықтығын
▁кемшілігі
▁отырыстың
▁сайлаудың
▁саламатты
▁түркияның
▁әскерлері
▁interested
▁агробизнес
▁анықтамасы
▁картасының
▁мүгедектер
▁мүшелігіне
▁проблемасы
▁сайлауалды
▁сақталатын
▁спутниктік
▁Әлеуметтік
▁әкімдіктер
▁өндірісіне
▁planlıyorum
▁пайдалануда
▁сұрақтарына
▁тұрғындарын
▁құралдарына
▁өнеркәсіпте
▁зерттеулерде
▁сипаттамалар
▁ұйымдастырып
▁өткізгіштігі
▁кинематикалық
▁қондырғыларды
▁ұйымдастыруды
▁консультативтік
td
ТА
зу
.00
dal
fes
АНУ
▁Cr
▁Ак
asız
ayın
eşem
hbet
алға
лана
яция
▁175
▁Bar
▁Buz
▁Pas
▁müh
▁sığ
▁Çiç
▁пыш
irkin
iydim
ursuz
айымы
альян
бұлақ
жіпов
отроп
ресей
істен
▁0,65
▁Brez
▁Karl
▁Otur
▁acel
▁full
▁inti
▁диод
▁петр
▁поез
▁таба
hteşem
ğimden
аналар
стерін
▁Bayan
▁given
▁major
▁temas
▁ермек
▁күйге
▁радик
▁ретке
▁синус
▁урбан
▁фигур
▁қосар
лығында
▁Derhal
▁başını
▁emphas
▁etmemi
▁hatası
▁kızdır
▁parlak
▁uzattı
▁yarısı
▁авторы
▁грамот
▁енетін
▁рефлек
▁турнир
▁шартын
▁шығара
▁қазына
▁қолмен
ermarket
імділігі
▁anlamak
▁duruyor
▁gönüllü
▁korumak
▁opening
▁partner
▁yapmana
▁аренада
▁ауқымын
▁дегенді
▁көмекші
▁пәтерлі
▁тартуды
▁шешілді
▁қайтару
▁қаласын
▁davranış
▁elektrik
▁gittikçe
▁isteksiz
▁partners
▁бекіткен
▁көлемдік
▁нығайтып
▁орындады
▁сіздерді
▁тараптан
▁тығыздық
▁учаскесі
▁ғылымдар
ацияланған
▁anlamıyor
▁following
▁yaşıyordu
▁ескеретін
▁жылдардың
▁мысалдары
▁популяция
▁тақырыпты
▁қамтылады
▁ұсынымдар
▁görmüyorum
▁toplantıda
▁Технология
▁жаттығулар
▁концерттік
▁қаңтардағы
▁Өндірістік
▁participate
▁zorundaydım
▁бөлігіндегі
▁дайындалады
▁елдеріндегі
▁көрсеткішін
▁төңірегінде
▁қасиеттерге
▁birbirlerini
▁introduction
▁модельдеудің
▁интеграциялау
▁көрсеткішінің
▁құндылықтарын
▁дифференциалды
▁кеңістігіндегі
▁бағдарламасымен
▁коммуникативтік
36
кб
ass
cık
ike
ikâ
АТТ
ета
жоғ
иск
күн
нев
нұр
ода
▁Zn
atçı
çası
ıdır
агин
имид
ожол
▁109
▁Ama
▁put
▁vot
▁Маг
▁адб
▁ақи
▁рел
▁үлк
larca
uties
бейді
иямен
ченко
іспен
▁0,60
▁Bahç
▁Kral
▁[14]
▁ısır
▁Амер
▁вокз
▁жабу
▁шкал
Алматы
ағұлов
байтын
онезия
▁Kimin
▁Mutlu
▁Mısır
▁hesap
▁kanep
▁makal
▁seven
▁taken
▁those
▁umurs
▁uyuya
▁yemin
▁Şarkı
▁асқын
▁балет
▁сізге
▁әбден
▁Patron
▁groups
▁haberi
▁konuyu
▁opened
▁sınavı
▁Ақтөбе
▁аммиак
▁баланы
▁болдық
▁капилл
▁сөзіне
▁фермен
▁өзгеде
екциялық
▁adamdır
▁efforts
▁kalmadı
▁sevdiği
▁sıkıntı
▁vermeye
▁yalancı
▁аумақты
▁бюджеті
▁есептеп
▁коэффиц
▁олардан
▁пластин
▁спортты
▁anahtarı
▁capacity
▁confiden
▁deputies
▁ellerini
▁european
▁gitmeden
▁internet
▁kurtardı
▁merdiven
▁ажырамас
▁алатынын
▁астананы
▁аяқталып
▁бағалауы
▁біліммен
▁елшілігі
▁жібереді
▁күндізгі
▁сауалнам
▁сендірді
▁энерготи
▁қаныққан
▁қоспаның
▁өндіруде
әлеуметтік
▁completed
▁improving
▁sorunları
▁векторлар
▁сополимер
▁төленетін
▁қабылдауы
▁үшөлшемді
▁bekliyoruz
▁developing
▁processing
▁ауылындағы
▁компоненті
▁табиғаттың
▁әңгімеледі
▁söylediğimi
▁ылғалдылығы
▁ассамблеяның
▁балабақшалар
▁кезеңдерінде
▁сипатталатын
▁қырғызстанның
▁архитектуралық
gü
cap
ick
vey
ато
дін
ред
син
топ
ӘНЕ
▁Sı
▁Öl
▁зо
ifor
izik
гент
исек
орта
ысыз
қызм
▁(7)
▁11-
▁diy
▁İşe
▁Күр
▁алш
▁аял
▁соғ
▁сән
alara
адрат
ентін
кенов
ілдес
▁conn
▁eşit
▁sırt
▁uçuş
▁yiye
▁Сәйк
▁цирк
▁шеше
action
ısında
торлар
іңізді
▁edici
▁kaçın
▁İçeri
▁жайын
▁портф
елермен
кілікті
▁Harika
▁anlata
▁ayakta
▁crisis
▁family
▁kafası
▁prices
▁асырды
▁есепте
▁логист
▁монтаж
▁талдай
▁фазасы
▁ұзарту
larınızı
miyorsun
сметалық
▁bununla
▁karışık
▁kıskanç
▁nedenle
▁reached
▁suçladı
▁umutsuz
▁Жоғарғы
▁аралығы
▁докторы
▁көшпелі
▁резиден
аттықтыру
шараларға
▁electron
▁exchange
▁includes
▁katılmak
▁söylemez
▁trillion
▁арналады
▁докторан
▁жұмыстан
▁кеңейтіп
▁конгресс
▁мекемесі
▁нақтырақ
▁салтанат
▁сыныптан
▁қарқында
▁göreceğim
▁gözlerini
▁konuşması
▁аумағынан
▁генератор
▁санаттағы
▁сигналдың
▁табыстады
▁edebilirim
▁басшылыққа
▁даярлаудың
▁полиэтилен
▁техникасын
▁факторлары
▁ықтималдық
▁қоспаларды
▁tanımıyorum
▁бақыланатын
▁судьялардың
▁қолданылуда
▁ерекшеліктер
▁жеткізілетін
▁тауарларының
▁орынбасарлары
▁температураны
▁ұйымдастыруда
▁трансшекаралық
▁хабарланғандай
SP
▁â
act
osu
sim
tef
аун
жап
▁Ph
▁ep
cale
mede
ught
атам
урен
▁114
▁6,5
▁Bob
▁Kaf
▁açı
▁ceb
▁iti
▁фен
ences
isyon
икалы
лағыш
қылды
▁Başk
▁data
▁kral
▁Стат
▁бель
▁бұру
▁дара
▁жәді
▁штам
▁ұғын
▁өрне
ерлері
жаттығ
тарына
▁akıcı
▁bacak
▁media
▁study
▁Алтай
▁аудио
▁блогы
▁пәнді
▁үнқат
естерді
икасына
▁Başkan
▁Yapmak
▁aradım
▁atladı
▁uğradı
▁verdik
▁алатау
▁біледі
▁вокзал
▁жинағы
▁латвия
▁осылай
▁оттегі
▁сәттен
▁Қызмет
▁құжаты
кеңестік
ляциялық
халықтық
▁against
▁eskiden
▁oyuncak
▁Белгілі
▁амандық
▁деректі
▁жарылыс
▁үдеткіш
▁ұлғайып
▁Өсімдік
▁өлшеуге
▁өңдеуде
▁açıklama
▁düşünmek
▁ücretsiz
▁айындағы
▁аспайтын
▁астанасы
▁исламдық
▁негіздем
▁пысықтау
▁смайылов
▁сөздерді
▁қолдануы
▁үрдістің
▁anlayabil
▁dünyadaki
▁gerekirdi
▁knowledge
▁operation
▁Ақпаратты
▁айналмалы
▁бюросының
▁валюталық
▁газдардың
▁капиталды
▁локомотив
▁фабрикасы
▁фестивалі
▁өзгеретін
▁historical
▁vereceğini
▁аутентифик
▁беріктігін
▁пациенттер
▁сезімталды
▁құраушылар
▁olmayabilir
▁çalışıyoruz
▁мырзахметов
▁орындарымен
▁түркітілдес
▁kazanacağını
▁мәдениетінің
▁opportunities
▁алгоритмдерін
▁композициялық
▁координаталар
▁мемлекеттерге
▁ғимараттардың
▁өндірушілерді
▁перспективалық
48
чи
mür
tit
ЫНЫ
меу
уен
▁ID
▁эп
adyo
araj
taat
аров
инов
мырз
ышты
▁4,8
▁Hav
▁asp
▁ata
▁fab
▁müş
▁ret
▁ölü
▁Кір
▁бух
-2013
ediye
essiz
авказ
гірім
далып
мамыр
түтік
әсіби
▁belg
▁lear
▁yasa
▁ЖӘНЕ
▁Зерт
▁Тран
▁арыз
▁дерб
▁драй
istics
mamızı
олекул
▁2013'
▁Maple
▁space
▁tutar
▁биікт
▁білді
▁бүтін
▁грамм
▁келсе
▁кіруі
▁мүлде
▁наноб
▁ондай
▁сақин
▁стенд
▁ұжымы
шылыққа
▁Yaptığ
▁agency
▁bilmem
▁cevabı
▁dolara
▁ilgisi
▁iyilik
▁saçını
▁yanına
▁İkimiz
▁аударм
▁курсан
▁істеді
▁қалаға
▁үйінің
ектілігі
▁bulabil
▁ettiğim
▁ormanda
▁vermeyi
▁yağacak
▁şüpheli
▁басқосу
▁баяндап
▁горизон
▁кәдімгі
▁металды
▁прогрес
▁санкция
▁тауарды
▁ішінара
▁қалыпқа
▁қорымен
▁үлесіне
пирикалық
▁decision
▁dondurma
▁durdurdu
▁hectares
▁memnunum
▁öldüğünü
▁Тәжірибе
▁биліктің
▁горизонт
▁динамика
▁етпейтін
▁комиссар
▁мәтіндік
▁отырысын
▁реттеуді
▁уақытына
▁қазбалар
▁қолдаған
▁қоныстан
mayacaksın
▁geleceğim
▁gerektiği
▁gördüğünü
▁göründüğü
▁territory
▁yapıyoruz
▁болғандай
▁велосипед
▁дайындалу
▁ойдағыдай
▁отбасының
▁қазандағы
▁ұйымдарға
▁өтініштер
▁değişiklik
▁дәрежедегі
▁жетілдіріп
▁сауаттылық
▁студенттік
▁туындылары
▁төлемдерді
▁қызметтегі
▁зерттеулері
▁бағытталатын
▁жануарлардың
▁критерийлері
▁Студенттердің
▁байланыстарын
▁математиканың
▁мүмкіндіктерге
▁пайдаланушының
▁температурасына
ET
sü
ао
мл
ұу
бағ
сшк
сыр
ғау
▁Ex
▁[6
▁ЭК
amın
udur
ward
орти
▁206
▁Seç
▁köt
▁mom
▁suy
▁алл
▁алп
▁сқо
▁цик
▁Қой
ezerv
gress
irinç
paign
ıldım
ıplak
алуға
ингін
ымбек
қауым
▁mola
▁onay
▁peyn
▁rail
▁глюк
▁озон
▁істі
landır
тардан
▁Bildi
▁dolaş
▁izler
▁müzis
▁okuya
▁Дайын
▁алтай
▁асуда
▁аөсшк
▁бекет
▁ниетт
▁рекон
герлері
ективті
ектілік
есіздер
▁Gitmek
▁adında
▁bilgil
▁işleri
▁saklan
▁депози
▁жолына
▁жұмсақ
▁келісу
▁элемен
▁қарсыл
▁қиында
emeyecek
қатерлер
▁Bununla
▁Yiyecek
▁insanın
▁istemem
▁patates
▁pişirdi
▁resmini
▁şeyimiz
▁Мәселен
▁жасадық
▁жастары
▁ортамен
▁парадиг
▁қаржысы
▁ұсақтау
экономика
▁geldiğin
▁gerektir
▁lezzetli
▁sessizce
▁аударады
▁ашылатын
▁заңдылық
▁күштерін
▁сессиясы
▁тауарлық
▁тілдерін
▁төрайымы
▁difficult
▁documents
▁yapacağız
▁özellikle
▁атқарылды
▁аумағының
▁геометрия
▁жабдықтың
▁жүйесінен
▁игілігіне
▁кеткендей
▁кешендері
▁кішкентай
▁транспорт
▁федералды
▁экстраген
▁құрамымен
▁құрылысқа
▁innovative
▁introduced
▁демократия
▁жабдықтары
▁жақсартады
▁квадраттық
▁сипаттауға
▁сұраныстың
▁энергиямен
▁қолданумен
▁әлеуетінің
▁improvement
▁бағыттарына
▁ерекшелігін
▁жетілдіруді
▁көшбасшылар
▁әрекеттерді
▁universities
▁құбылыстарды
▁баяндамасында
▁бөлшектерінің
▁жетілдірілген
▁конструктивті
▁тартымдылығын
▁тәуелсіздігін
▁ұйымдастырған
▁söylemeyeceğim
▁компоненттерін
27
sc
ash
cım
enn
que
ror
veç
ıya
ИКА
ауқ
мут
ота
▁Uç
▁km
▁ИН
▁иж
agaj
urdu
usun
акөл
апан
арын
ақыт
инат
роду
циум
▁3,7
▁Sil
▁wel
▁Айт
▁Жет
▁лан
▁нов
▁руд
▁таш
aktan
landa
ануда
ақпар
карди
ритер
танол
▁0,58
▁harm
▁prom
▁yönt
▁yüzü
▁апар
▁еніп
▁қырт
elerim
ilerim
▁Kazan
▁Maria
▁Yunan
▁bakış
▁görül
▁party
▁sched
▁struc
▁tıraş
▁Брэгг
▁абзал
▁альян
▁ескір
▁идеяс
▁кинет
▁клубы
▁тарау
▁төтеп
iyorlar
ısından
гіштігі
рополит
ымыздай
▁diplom
▁eskisi
▁kurşun
▁otelde
▁reduce
▁sonsuz
▁uykuya
▁çoktan
▁бейнек
▁гидром
▁губерн
▁жобада
▁обьект
▁тілдің
▁шымкен
▁қатысы
сараптам
старының
▁affairs
▁başkanı
▁kokuyor
▁seçenek
▁Алғашқы
▁арыстан
▁бағалай
▁бекітті
▁дайынды
▁диірмен
▁зауытын
▁конкурс
▁роботты
▁тілдері
▁тұрғызу
▁қорынан
▁campaign
▁egzersiz
▁launched
▁reported
▁yolculuk
▁аптасына
▁жарамсыз
▁клубының
▁растайды
▁тауардың
▁ortasında
▁Екіншіден
▁алдымызда
▁арттыруда
▁долларына
▁кешенінде
▁мегаполис
▁мекеменің
▁модульдік
▁үлгісінің
▁assistance
▁edemiyorum
▁Электронды
▁білдіремін
▁жүйелеріне
▁мәндерінің
▁тауарларын
▁түрлерімен
▁форматында
▁өңіріндегі
▁аймақаралық
▁жоспарларын
▁платформасы
▁тиімділікті
▁тұрғызылған
▁төзімділігі
▁учаскесінде
▁әрекеттерін
▁тәжірибелері
▁Қазақстандық
▁құралдарымен
▁информатиканы
▁функциялардың
▁шаруашылықтар
▁қалыптастыруды
▁қауіпсіздігіне
▁міндеттемелерді
ck
dp
cut
plo
uly
дая
пеу
теу
▁mr
▁xv
▁Өт
anız
udum
vest
дром
енаж
ібір
▁3,8
▁750
▁buy
▁dua
▁map
▁Веб
▁гон
▁кул
▁лян
▁тог
▁Қай
▁қдб
ather
cript
raman
ulmuş
Сурет
динов
желто
негіз
ұлтты
▁0,41
▁[15]
▁give
▁ofis
▁sene
▁литр
▁әбді
досаев
▁Aptal
▁Soğuk
▁gezeg
▁geçer
▁inana
▁parma
▁yarım
▁çıkma
▁Şehir
▁Бұған
▁Дәстү
▁баяул
▁заңда
▁нәрсе
▁сызба
▁сүтті
▁түтін
▁тұйық
▁эстаф
▁үмітт
▁Sessiz
▁effici
▁gündür
▁sevmem
▁tarihi
▁şiddet
▁Сыртқы
▁демалу
▁көмегі
▁магний
▁мансап
▁ойынша
▁рекорд
▁сулары
▁футбол
▁өтейік
идтердің
▁başardı
▁bulacak
▁centers
▁dünyada
▁kazanır
▁kıyafet
▁odasını
▁yazmayı
▁çalıyor
▁жалғасы
▁заманға
▁контрол
▁метрден
▁синхрон
▁танылды
▁қадамды
▁gittiler
▁kaldırdı
▁болгария
▁жөндеуге
▁өздеріне
▁өлшемдер
ендірілген
әрекетінің
▁2014-2015
▁conducted
▁döneceğim
▁kendisine
▁дәлдікпен
▁енгізілуі
▁көрінетін
▁ұйымдарды
▁accordance
▁tutuklandı
▁дұрыстығын
▁жалғастыра
▁проблеманы
▁рәсімдерін
▁федералдық
▁шикізаттық
географиялық
▁болашақтағы
▁керамикалық
▁отбасыларға
▁өнімдерімен
▁ерекшелігіне
▁еңбектерінде
▁объектілерін
▁үлестірілген
▁Педагогикалық
▁бірлестігінің
▁жетіспеушілігі
▁құзыреттілігін
▁әріптестерімен
.7
br
ук
-15
aka
ani
ety
sul
АРЫ
еңк
ктр
лат
мбы
▁fo
▁АВ
asın
iter
lima
usal
арал
даль
иран
ланы
ңдеу
▁3,0
▁320
▁Kan
▁ago
▁huz
▁rel
▁Нан
▁дық
▁сут
▁экс
elere
iştim
liyet
дамын
ибден
▁0,59
▁func
▁goal
▁insp
▁затт
▁пара
▁шуыл
▁шыға
▁Қара
▁құйм
▁әдеп
▁Өнер
cement
ушылар
фараби
▁Erken
▁Karım
▁Müzik
▁dilim
▁etmen
▁exist
▁patri
▁stand
▁ısmar
▁біріг
▁бұұдб
▁кәмел
▁маңай
▁схема
▁тәлім
▁шәкір
бірінен
ерлерді
әрекеті
▁Kahire
▁birlik
▁change
▁iyiyim
▁mining
▁müziği
▁Талдау
▁андрей
▁виктор
▁етілуі
▁консор
▁токтың
▁энтроп
▁эпидем
economic
атындағы
▁ağrıyor
▁isteyen
▁kalıyor
▁nihayet
▁otobüse
▁yüzmeyi
▁şehirde
▁şemsiye
▁ассорти
▁зымыран
▁салатын
▁шарттың
▁қабілет
▁үлгілеу
▁өндіріп
▁hastalık
▁oyuncusu
▁бағыттың
▁зертхана
▁оқшаулау
▁сақтайды
▁сұрыптау
▁туындысы
▁yardımına
▁öğretmeni
▁айналысып
▁айырымдық
▁жүйелерге
▁кедергісі
▁нормалары
▁increasing
▁yapmalısın
▁üniversite
▁аймақтарын
▁байқалатын
▁барлығымыз
▁бордақылау
▁енгізілуде
▁өткізілуде
▁çocuklarını
▁алгоритмнің
▁анықтамалық
▁жіберілетін
▁тарихындағы
▁жабдықтардың
▁компьютердің
▁микроконтрол
▁сипаттамасын
▁establishment
▁криптографиялық
▁меморандумдарға
▁қолжетімділікті
38
3;
wa
Дж
МА
СЕ
рш
сә
том
▁1:
tual
umun
екке
ихан
▁Kuş
▁Yür
▁асу
▁баг
▁иль
▁под
▁тиг
adays
ished
mamın
mazdı
tılar
даушы
ногор
онукл
такси
тылып
▁Ateş
▁bran
▁dükk
▁kuru
▁odan
▁öpüc
▁Алды
▁жасу
▁жылд
▁иман
▁линз
▁майы
▁руда
▁свет
▁флор
▁қиып
▁әдем
ландия
мыстық
пайтын
циясын
▁Fiyat
▁Oğlum
▁Sınav
▁muyum
▁olanı
▁prime
▁Çocuğ
▁Темір
▁жатты
▁метод
▁мұхит
▁сазды
▁тігін
▁түгел
▁Құрам
▁ұмытп
üyorsun
шілікті
▁Sigara
▁borçlu
▁german
▁gökyüz
▁hatayı
▁çığlık
▁ауылда
▁ақорда
▁басқан
▁болмай
▁жастан
▁кодтау
▁конвей
▁сатысы
▁словак
▁соттың
▁түсуге
▁қорлар
▁өңірге
angisini
▁arabaya
▁cümleyi
▁değerli
▁gibidir
▁gizlice
▁leaders
▁monitor
▁sürecek
▁ансамбл
▁арналып
▁еңбегін
▁жиналып
▁оркестр
▁төсеніш
▁хаттама
▁Қосымша
компьютер
▁annesine
▁bağlantı
▁nedenini
▁nowadays
▁progress
▁register
▁ауданына
▁ашықтығы
▁дәлдігін
▁жарыстар
▁кванттық
▁норматив
▁санаймыз
▁соғұрлым
▁халықпен
▁қытайдан
▁құбырлар
▁ұстанымы
▁Виртуалды
▁Физикалық
▁клиенттер
▁сарайында
▁уақытының
▁шекаралас
биологиялық
▁bekliyordu
▁restoranda
▁Öğrenciler
▁аударылады
▁ескеріледі
▁комитетіне
▁отандастар
▁сұрақтарын
▁тактикалық
▁түпкілікті
▁шарттарына
▁engineering
▁авторлардың
▁айқындайтын
▁облыстардың
▁орындалуына
▁потенциалды
▁салыстыруға
▁өнімділікті
▁материалының
▁нәтижелердің
▁халықтарының
▁мақсаттарының
▁тұтынушыларға
▁söyleyebilirim
▁байланыстырады
▁бәсекелестікке
▁компанияларымен
▁консультациялар
-8
HR
şi
ІР
dex
pro
tre
ğan
ЕТТ
баб
елл
енс
мик
сәр
фил
▁Ni
▁İz
▁ЖҚ
▁еэ
cent
osik
stik
еден
тырм
филь
▁90-
▁Mak
▁dek
▁çiğ
▁İşi
▁дүр
▁ноб
▁тос
sions
жидек
истің
ғынан
▁anot
▁bill
▁kısm
▁sust
▁азат
▁гипс
▁дмит
▁қарм
düğüne
laştır
шараны
▁10-15
▁candi
▁itaat
▁yürür
▁İşler
▁аумақ
▁базар
▁дизай
▁дистр
▁ешбір
▁кетуі
▁көкжи
▁лянью
▁тенге
▁түпкі
▁эваку
dığımız
isinden
құрылыс
▁Kitabı
▁alırım
▁denedi
▁imzala
▁kültür
▁regula
▁rüzgar
▁sesini
▁sohbet
▁supply
▁yerden
▁yüzünü
▁Балқаш
▁Осының
▁дәурен
▁келелі
▁кескіш
▁пластм
▁қыздар
▁құқылы
uşturucu
етербург
▁Yabancı
▁başlaya
▁izledim
▁largest
▁sınıfta
▁veremem
▁yapmalı
▁yararlı
▁ауданын
▁ауытқуы
▁бейінді
▁емтихан
▁итальян
▁кодексі
▁көмекке
▁мыналар
▁нығайта
▁сөздері
▁тартқан
▁тиіспіз
▁қозғады
▁ұрпақты
▁Kahvaltı
▁değiller
▁dışarıya
▁аурулары
▁визуалды
▁реттеуші
▁салынуда
▁сулардың
▁тәріздес
шаралардың
▁адсорбция
▁актілерге
▁дінаралық
▁жеделдету
▁жолдаудың
▁көзқарасы
▁орындауда
▁түлектері
▁ғылымының
▁ұғымдарды
▁businesses
▁білетіндей
▁дәлелдейді
▁жетекшілік
▁салқындату
▁себептерін
▁соншалықты
▁элементтің
▁әрекетінің
▁konuşmaktan
▁yapabiliriz
▁байқаушылар
▁ерітіндінің
▁жоғарылайды
▁оңтайландыр
▁азаматтарына
▁делегацияның
▁посткеңестік
▁сәйкессіздік
▁құрылымдарының
▁байланыстыратын
▁жауапкершілікке
▁республикасымен
//
96
дс
-12
ЫЛЫ
баз
диф
ьян
Evet
ceed
нның
таль
ызыл
▁Zor
▁akl
▁akr
▁köş
▁tic
▁tık
▁çök
▁квт
▁рен
kenti
liyim
иттер
мелеу
сызды
теңіз
тқару
▁0,66
▁Open
▁göst
▁odam
▁saçı
▁vakt
амызды
наурыз
сайлау
қараша
▁dilem
▁müdür
▁pilot
▁right
▁suçla
▁şüphe
▁Орган
▁ОҚЫТУ
▁айдан
▁айдын
▁алқап
▁аңғар
▁балқы
▁менші
▁скрин
▁сутек
▁шешіп
▁Қазір
▁үштік
▁gözyaş
▁katlan
▁strong
▁çirkin
▁İtalya
▁Еуропа
▁Жамбыл
▁аптада
▁жазған
▁жасауы
▁жасына
▁желіге
▁көбеюі
▁лекция
▁лизинг
▁мұсылм
▁қоржын
▁ұнтағы
▁anlaşma
▁another
▁believe
▁doğruyu
▁sectors
▁uğramış
▁yaşadım
▁баратын
▁мүшелік
▁сабақта
▁саудаға
астырылып
▁derecede
▁vermedim
▁ауыспалы
▁жасампаз
▁көпұлтты
▁тарихына
▁қуатының
▁gerekecek
▁kurtarmak
▁yaptığına
▁басқарады
▁бүлдіршін
▁датчиктер
▁кездесуді
▁келешегін
▁кеңесшісі
▁реакциясы
▁семинарға
▁сканерлеу
▁сұранысты
▁форумының
▁өлшенетін
▁yapacaksın
▁газдандыру
▁жеделхатта
▁зерттеледі
▁ипотекалық
▁метрология
▁мүдделіміз
▁пікірлерін
▁секторында
▁тұрғызылды
▁францияның
▁independent
▁söylediğine
▁Информатика
▁деректермен
▁компонентті
▁мақсаттарды
▁üniversiteye
▁мекемелерінде
.8
do
ЕШ
қм
ңд
зақ
▁Cd
▁Ля
goti
most
ınca
дыны
ксим
оцен
▁155
▁eti
▁win
▁Çev
▁Ней
▁Там
▁мун
▁нам
▁окқ
▁таи
▁Қау
sının
yonel
түрік
ықсыз
▁0,62
▁0,71
▁alda
▁amen
▁masa
▁paid
▁аясы
▁ақсу
▁гель
▁лақт
▁сана
lüğünü
ılması
иясына
қозғал
қызмет
▁Ailem
▁Cezay
▁Sıcak
▁gülüm
▁temel
▁айдар
▁граду
▁жылын
▁жыныс
▁пирам
▁өріст
икадағы
тарында
▁altıda
▁baktım
▁bekler
▁festiv
▁kararı
▁keskin
▁negoti
▁saatte
▁yatağa
▁çoğunu
▁аналар
▁берілу
▁гранул
▁графен
▁себепт
▁шығымы
▁қатпар
▁өтуіне
исекешев
▁Merhaba
▁intihar
▁yolunda
▁zamanki
▁çabucak
▁Топырақ
▁Төменде
▁арматур
▁бригада
▁бөлетін
▁витамин
▁еңбекақ
▁жасалуы
▁жүйемен
▁жөнінен
▁иранның
▁көзінің
▁науқаны
▁орнынан
▁сабаққа
▁сорбция
▁стартап
▁талапқа
▁түрлену
▁қарауды
әрекеттің
▁approach
▁başkenti
▁bırakmak
▁gitmiyor
▁yorgunum
▁Дәстүрлі
▁белгілеп
▁жарылғыш
▁жиілігін
▁заттарға
▁зауыттар
▁климатты
▁комплекс
▁нәтижені
▁ресейден
▁созылған
▁сүзгілеу
▁сәттілік
▁қоректен
▁қуантады
▁ediyorlar
▁Маңғыстау
▁бұзылуына
▁бұйымдары
▁келетінін
▁кеңейтеді
▁кішігірім
▁маусымына
▁орындалып
▁полковник
▁электроли
▁қорғайтын
▁Bilgisayar
▁generation
▁pencereden
▁yapmalıyım
▁çocukların
▁çoğunlukla
▁Деректерді
▁жылдығымен
▁заңнамасын
▁интерфейсі
▁кадрлардың
▁сыйлығының
▁сұхбаттасу
▁bulaşıkları
▁isteyebilir
▁айқындалады
▁мекемесінің
▁уағдаластық
▁шығындардың
▁эмпирикалық
▁құрылымдары
▁өнеркәсібін
▁есептелінеді
▁келісімдерді
▁әріптестіктің
▁инвесторлармен
▁технологиясына
▁міндеттемелерін
▁қатысушыларының
DF
ИТ
ath
hen
ona
ruf
sta
бұз
гар
доз
ров
▁eh
▁МБ
▁фл
ason
ogue
zhan
блок
олин
ісов
▁10%
▁Bit
▁Diş
▁bol
▁eae
▁hon
▁max
▁men
▁neş
▁вер
▁гел
▁дсә
▁хок
▁әул
-2021
ersem
fendi
ladık
абуыл
акрил
кеңес
күйін
стағы
транз
қарсы
▁0,67
▁0,70
▁1993
▁400-
▁Yine
▁aşçı
▁baba
▁done
▁seri
▁брон
▁жұту
▁ижтм
▁тұра
▁үиид
liğini
агност
инвест
ліктің
монтаж
орынды
інізге
▁Durum
▁ertel
▁favor
▁gözle
▁purch
▁yönet
▁yılda
▁Интег
▁беріл
▁біліп
▁елест
▁ешкім
▁келес
▁күмән
▁лайық
▁мәміл
▁никол
▁олқыл
▁парал
▁санкт
▁төлен
▁істем
автожол
екциясы
▁bahsed
▁olurum
▁yaygın
▁çarptı
▁Орташа
▁балалы
▁бейнеу
▁доңғал
▁елінде
▁күнкөр
▁сызығы
▁талдап
▁қайнар
▁Anahtar
▁dinledi
▁kapının
▁yapıldı
▁консерв
▁мерейлі
▁негізді
▁орнатып
▁резонан
▁саммиті
▁сипатта
▁тіркелу
▁шешетін
▁қоңырау
▁bilgisay
▁duymadım
▁düşündün
▁köpeğini
▁çalıştır
▁şiddetli
▁Оқытудың
▁бастадық
▁кестесін
▁табиғаты
▁тарифтер
▁транзист
▁шаймалау
▁құйылған
▁алқасының
▁бағалауда
▁бағдарлау
▁плазмалық
▁секторына
▁талдаулар
▁тотықтыру
▁Televizyon
▁bilmiyoruz
▁söyleyebil
▁yapacağına
▁болашағына
▁гигиеналық
▁жапонияның
▁массасының
▁қабылдағыш
▁өміріндегі
▁аккредиттеу
▁бұйымдардың
▁естерінізге
▁жұмыссыздар
▁кәсіпорынға
▁көмірқышқыл
▁мүшелерімен
▁облысымызда
▁әрекеттесуі
▁requirements
▁жемқорлықпен
▁мұғалімдерді
▁қазагроқаржы
▁қорытындысын
▁hissetmiyorum
▁реконструкция
▁қызығушылықты
▁профилактикалық
05
Ne
uan
uru
ЫҚТ
акр
жин
имн
иру
риг
сол
цет
▁(5
▁4)
▁Of
▁ИК
▁ры
ames
arus
uvar
ІНДЕ
АССР
ЕРДІ
езов
ерді
онит
рипт
росс
▁Fut
▁Kam
▁Per
▁dam
▁hır
▁ltd
▁СМЖ
▁жен
▁жот
▁түн
ports
пунов
ғаяды
▁Komş
▁days
▁eaeu
▁near
▁ques
▁team
▁Şans
▁Дүни
▁Мақс
▁бект
▁ерен
▁сорт
▁түйе
▁ісік
cağıma
lerdir
yleyse
алмасу
дамент
тиллер
улярлы
ұлының
▁Bebek
▁Sonuç
▁eylem
▁paket
▁ready
▁relev
▁ödedi
▁заңын
▁кемел
▁комму
▁санды
▁топта
▁түлек
▁тұруы
▁ширек
▁Қоғам
алынады
люзивті
құтқару
▁Futbol
▁Yorgun
▁dükkan
▁ettiği
▁kandır
▁oyuncu
▁sandım
▁yıldan
▁бөлген
▁ойымыз
▁сарқыл
▁соқтыр
▁ілеспе
▁bakalım
▁oluştur
▁tarzını
▁yazıyor
▁ажырату
▁ауқымда
▁жиналыс
▁жылының
▁күйінің
▁шақырту
▁қабатын
▁өндірді
▁өрістер
орларының
▁doldurdu
▁kitaplar
▁portakal
▁аумақтың
▁дағдылар
▁нанокомп
▁негіздеу
▁нығаюына
▁нұсқасын
аторлардың
санитарлық
▁etmeliyim
▁gideceğiz
▁hissettir
▁kalabilir
▁pencereyi
▁yıllardır
▁жасақтама
▁микроэлем
▁тоқталған
▁қатысуына
▁ұйымдарда
▁әліпбиіне
▁өткізілуі
▁Біріншіден
▁байланысқа
▁бекітіледі
▁біріктіріп
▁жаттықтыру
▁комиссияға
▁консорциум
▁кооперация
▁топырақтар
▁қаулысымен
▁birbirimizi
▁дағдарыстың
▁жалғастырып
▁жұмыскерлер
▁мамандармен
▁министрлері
▁стандартына
▁тербелістер
▁қабылдаудың
▁қарашасында
▁қағидаларын
▁өзгерістері
▁жалғастыруда
▁ресурстарына
▁тектоникалық
▁архитектурасы
▁бөлімшелерінің
▁объектілерінің
▁қызметкерлерін
▁корпорациясының
▁қаржыландырылды
.9
34
64
NN
mb
CAD
III
rol
une
üğü
атэ
виз
игн
кий
осы
іре
▁04
▁оп
▁хи
▁шк
▁Әу
dana
etic
ünüz
дену
исті
▁(8)
▁4,2
▁5,2
▁cen
▁ЖЭС
▁қир
earch
ganda
imser
ystem
генер
танды
ғанақ
▁0,44
▁STEM
▁evet
▁halk
▁hede
▁kast
▁kırk
▁Ölüm
▁алма
▁касс
▁коал
▁фрон
▁қиыр
▁үгіт
igital
ograph
елігін
▁Başar
▁Hafta
▁alkol
▁dönem
▁green
▁yağar
▁Çince
▁Мұның
▁аустр
▁дсәдм
▁екеуі
▁еліне
▁ержан
▁милан
▁норма
▁осыны
▁оқуды
▁сұлба
▁шаһар
▁эволю
acaksın
alarına
далатын
▁almost
▁anlamı
▁günlük
▁gürült
▁güçlük
▁higher
▁raporu
▁sevgil
▁üçüncü
▁еритін
▁жүгіру
▁мыңдай
▁науқас
▁пункті
▁түпнұс
▁түсіні
▁швеция
▁қалаул
larımızı
▁Cezayir
▁bağımlı
▁istedin
▁isteyip
▁sabırlı
▁takıyor
▁öldürül
▁Ляпунов
▁басқада
▁белдеуі
▁бөлімде
▁ешқашан
▁жуықтау
▁жылудың
▁нысанын
▁оқушыға
▁таиланд
▁татулық
▁тигізіп
▁Құрылыс
кезеңімен
▁Facebook
▁açıklaya
▁hikayeyi
▁kahraman
▁muhteşem
▁Авторлар
▁Туристік
▁арттырды
▁дамытады
▁кезеңнің
▁кейбіреу
▁километр
▁көліктер
▁көтерілу
▁сауданың
▁топтарға
▁қонақжай
▁өлшенген
▁байлықтар
▁басқаруда
▁белгіледі
▁жүзіндегі
▁комбинаты
▁шығарылым
▁қатардағы
▁kalacağını
▁korkuyordu
▁priorities
▁жетекшілер
▁жобаларына
▁жоғарылады
▁жұмағалиев
▁нүктесінде
▁сәйкестігі
▁түсірілген
▁тұсаукесер
▁ылғалдылық
▁ұйымдасқан
▁öğreniyorum
▁ведомствода
▁зерттелінді
▁критерийлер
▁ластануының
▁мақаласында
▁атмосфераның
▁инвестицияны
▁мамандығының
▁монополиялар
▁органдарында
▁қызметкердің
▁бастамаларына
▁жағдайларында
▁тәжірибелерді
▁қалдықтарының
▁қауіпсіздікке
▁қондырғысының
▁мемлекеттермен
▁станцияларының
▁біліктіліктерін
2/
78
СП
ео
әм
.20
bus
hur
кеш
мед
сам
▁ШР
▁лы
ints
uşak
yalı
лену
рлық
сіби
тари
▁1-2
▁raf
▁she
▁Önc
▁Маш
▁ког
▁лар
▁леб
▁нық
▁отб
▁пик
▁тұм
adaki
aport
arası
eğine
kiler
лятор
ньган
сенбі
ттрий
▁0,61
▁600-
▁Arap
▁able
▁egov
▁апат
▁молд
▁ролі
▁саға
▁сырқ
▁тасы
▁қазу
düğümü
ferans
seydim
шісіне
▁Amcam
▁Balık
▁Smith
▁gelip
▁günüm
▁okuma
▁rural
▁yerel
▁абстр
▁айыру
▁бақша
▁бетке
▁дубай
▁клетк
▁прото
▁ішіне
▁өлімі
elerine
аттылық
дігімен
индустр
▁Afrika
▁demand
▁devlet
▁kapıya
▁odadan
▁pratik
▁safety
▁toplan
▁uyumak
▁ауысуы
▁бұлшық
▁дамиды
▁кавказ
▁оқыған
▁салсақ
▁ұмтылу
ықтықтан
▁Kırmızı
▁istedik
▁kitabın
▁sorunum
▁tanıdık
▁çamaşır
▁çekiyor
▁Алдымен
▁арқалық
▁аяғында
▁ертінді
▁жинауға
▁зондтау
▁импортт
▁нысанда
▁сенеміз
▁термині
▁тудырды
▁өлшегіш
▁өтемақы
сайлауком
▁biriktir
▁politika
▁Сырдария
▁дүниетан
▁енгізеді
▁жерлерге
▁келтіріп
▁кешендер
▁сеніммен
▁смартфон
▁сұранысы
▁тартудың
▁терминал
▁құрамның
▁әсерінің
▁gitmekten
▁алдымызға
▁берушінің
▁дәлелдеді
▁егіншілік
▁павильоны
▁терминдер
▁тоқаевтың
▁тұрғандай
▁тұтқырлық
▁қабатында
▁қосындысы
▁konuşmuyor
▁Зерттеудің
▁аймақтарға
▁байқауының
▁басталатын
▁бастығының
▁белсендіру
▁бұйымдарды
▁конкурстық
▁металдарды
▁нүктесінің
▁оқиғаларды
▁реформаның
▁сүйемелдеу
▁сәулесінің
▁тұтқырлығы
▁шілдесінен
▁айналасында
▁дәрежесінің
▁елшілігінің
▁кәсіпорынды
▁нысандарына
▁тұрақсыздық
▁байланысының
▁микроқұрылым
▁ортсайлауком
▁талқыланатын
▁экстремизмге
▁қиындықтарды
▁әбдірахманов
▁орындарындағы
▁тәжірибелерін
▁нанотехнология
▁сайлаушылардың
▁стандарттардың
▁қызметкерлерге
76
CI
zh
АК
үт
-30
[1]
ado
cup
süz
ОГИ
вал
ень
луы
мас
▁(4
▁Бл
ceye
inal
ines
lash
orda
tern
имов
ская
тарм
яғни
қысы
үлей
▁Pol
▁Sar
▁Suç
▁mac
▁mel
▁çöp
▁Арн
▁Шет
▁нив
▁әрт
ledim
дықов
ников
тырау
ілуге
▁Ders
▁Fark
▁Gemi
▁Kons
▁conv
▁meth
▁uyuy
▁буль
▁трам
▁түсі
▁юрий
▁ізгі
dayken
encies
иллион
▁Bilet
▁Silah
▁carry
▁deter
▁dinle
▁press
▁Алдын
▁Тірек
▁зиялы
▁кенді
▁Қалып
▁әлемі
▁өткел
ıyorlar
ауыздан
▁consum
▁kanser
▁polise
▁yaraya
▁бойлық
▁бірігу
▁маманы
▁ұңғыма
аттарына
инералды
кезеңмен
стерінің
ілігінде
▁Sizinle
▁aramaya
▁belarus
▁bırakma
▁dönüyor
▁etmemiz
▁mühendi
▁yardımı
▁арналды
▁болжамы
▁жерлері
▁ойлауды
▁саралау
▁сақталу
▁ұсынысы
▁өзгерді
lanıyorum
қауымдаст
▁geçmeden
▁güzeldir
▁konuştun
▁mutfakta
▁verdiler
▁öğrendin
▁Мобильді
▁гибридті
▁көмірдің
▁назардан
▁ормандар
▁созылады
▁сүйіспен
▁талантты
▁таратуға
▁тұрғанын
▁қолданды
▁үйренуге
▁ұлғайған
▁өсімінің
▁2014-2016
▁2015-2017
▁Yeterince
▁borçluyum
▁gerekirse
▁yapıyordu
▁öğrencisi
▁байқалуда
▁ветеринар
▁гидрогель
▁даярлауда
▁жалпылама
▁жүргізуші
▁көмекшісі
▁регрессия
▁саммитіне
▁сапарымен
▁тасымалын
▁функцияны
▁шарттарға
▁шақырымды
▁ғасырдағы
▁Қарапайым
▁Қарағанды
▁қолдауына
▁құрылысты
▁Өнеркәсіп
▁өзгертеді
▁Зерттеулер
▁аппараттың
▁жинақтаушы
▁жылдығында
▁корпусының
▁мөлшердегі
▁қашықтықты
▁bilmiyorsun
▁göründüğünü
▁аудандардың
▁дайындайтын
▁параметрлік
▁сейсмикалық
▁тәжірибемен
▁қарастыруды
▁planlıyorsun
▁математиканы
▁органдарымен
▁отырғандығын
▁beklemiyordum
▁düşünmediğini
▁şüpheleniyorum
▁ведомствосының
▁проблемалардың
▁республикадағы
▁белсенділігінің
▁ведомствоаралық
37
CM
LP
PO
SS
НҚ
СК
ЭМ
жі
йм
уи
үк
▁ü
aki
ins
ауд
инк
нығ
тұз
ялы
▁(«
▁CD
▁Eş
▁Gi
▁Жи
▁кэ
ergy
keti
ones
асов
ахан
птың
▁118
▁128
▁bed
▁ece
▁fig
▁rol
▁tit
▁tör
▁Айн
▁Көб
▁Тәу
▁кре
▁мыз
▁онт
▁рай
▁хай
avori
ОЛОГИ
оксик
паров
▁0,68
▁0,72
▁1990
▁Mate
▁Roma
▁coll
▁dial
▁Жүйе
▁бүрк
▁праг
▁сығу
▁тозу
▁энер
liyeti
анитар
▁Deniz
▁Hepsi
▁Kahve
▁aktob
▁bayan
▁build
▁denir
▁gözük
▁kızla
▁müsün
▁needs
▁saati
▁staff
▁sıkış
▁yenil
▁yolcu
▁күтім
▁көгал
▁сәлем
▁шаңғы
▁шихта
eşekkür
ladılar
masının
▁aldığı
▁declar
▁edilir
▁kalmış
▁kaynak
▁moment
▁sözleş
▁yazmak
▁çıplak
▁банкін
▁дуалды
▁дәлізі
▁жазады
▁жағдая
▁карбид
▁нөмірі
▁одақты
▁пішіні
▁талшық
▁тосқау
▁экскав
▁қайтты
▁әртүрл
ыстарына
▁dilerim
▁neredey
▁Жапония
▁алмасып
▁бурабай
▁есебіне
▁кернеуі
▁маршрут
▁метрлік
▁пайдасы
▁репроду
▁сотының
▁спектак
▁сырттан
▁тізілім
▁іріктеп
▁Қолдану
▁әділбек
▁babasına
▁congress
▁december
▁property
▁research
▁алмасуды
▁басталуы
▁жалпылау
▁ойындары
▁сырықтың
▁топтарын
▁қорларын
▁үлесінің
ezervasyon
▁gönderdim
▁hatırlaya
▁yapmaması
▁күшейткіш
▁маңыздысы
▁орнындағы
▁сөздердің
▁теориясын
▁хаттамаға
▁энергияға
▁Қызылорда
▁құбырлары
▁әңгімелеп
▁başlıyorum
▁challenges
▁бірауыздан
▁жеткізудің
▁зерттейтін
▁оқытылатын
▁потенциалы
▁техникамен
▁шарттардың
▁қарашадағы
▁association
▁authorities
▁realization
▁çocuklarına
▁алгоритмдік
▁басшылығына
▁күрделілігі
▁мұхамедиұлы
▁мәжілісінде
▁қосылыстары
▁Affedersiniz
▁диапазонында
▁есептеулерді
▁кепілдендіру
▁принциптерін
▁таныстырылым
▁төзімділігін
▁шоғырландыру
▁manufacturing
▁декларациялау
▁орынбасарының
▁оңтайландыруға
01
ЕК
эй
ғи
ets
gro
ril
аци
кте
лык
соң
шөп
ызы
қақ
▁АЛ
▁ЖА
▁уы
ised
teki
term
арды
імде
өнім
▁145
▁5-6
▁Fik
▁Kul
▁bür
▁cro
▁pan
▁Заң
▁қош
▁өлк
wards
ағаны
езист
кенде
▁1996
▁gran
▁idea
▁kimi
▁manz
▁mark
▁sour
▁tadı
▁дағы
▁дист
▁жүзу
▁сұхб
▁таяқ
▁Үкім
▁өлең
coming
діктің
ингтон
майтын
ртүрлі
▁basic
▁baskı
▁cevab
▁danış
▁duvar
▁içmem
▁kovul
▁oğlum
▁yüzde
▁Күкір
▁атлет
▁байқа
▁батыл
▁нығая
▁отыны
▁ставк
▁танып
▁іздеп
▁құмды
edektif
андарды
апшағай
елерден
▁Favori
▁deprem
▁etmeni
▁having
▁miydin
▁terror
▁yangın
▁öfkeli
▁биікті
▁бухгал
▁жаңбыр
▁иондық
▁осымен
▁сананы
▁таңдай
▁теңдес
▁тоқтап
▁ықпалы
▁ісінің
▁үйінде
muyorsun
аболалық
ирленген
▁görmeyi
▁Стандар
▁балапан
▁заттары
▁нәтижел
▁румыния
▁тигізді
▁шашырау
▁шағылыс
▁үрдісті
▁Korkarım
▁ameliyat
▁attended
▁transpor
▁азаматты
▁басшысын
▁гидрофоб
▁дауларды
▁еңбекақы
▁кешеніне
▁пікірлер
▁реттейді
▁тыңдалды
▁формасын
▁шешілген
▁шілдеден
▁үлестіру
▁kalmasını
▁konuşalım
▁logistics
▁minnettar
▁olacaktır
▁tanımıyor
▁umuyordum
▁Жезқазған
▁алматылық
▁ауруларды
▁безендіру
▁дамытатын
▁елбасымыз
▁жақсартып
▁импорттық
▁талданады
▁ферроқоры
▁экспортты
▁қабаттағы
▁қашықтығы
▁қылмыстар
тәжірибелік
▁considered
▁düşündüğün
▁ilgilendir
▁бағытталуы
▁ережелерді
▁ляньюньган
▁тұрғылықты
▁үнемдейтін
▁әзірленеді
▁bulamıyorum
▁биохимиялық
▁мекемелерде
▁тазартылған
▁қасиеттерді
▁ұзындығының
▁achievements
▁ардагерлерге
▁аудандарының
▁бақылаушылар
▁кафедрасының
▁мамандықтары
▁сабақтарында
▁саясаткерлер
▁өзбекстанның
▁edebileceğini
▁ерекшеленетін
▁факторларының
▁ынталандыруға
▁өнімділігінің
▁administration
▁düşünüyorsunuz
▁конференциялар
▁параметрлеріне
▁қондырғылардың
▁ұлыбританияның
▁жекешелендіруге
LE
УР
юс
үм
-17
nde
put
етч
жық
сак
тіл
улл
▁Le
▁SO
▁ic
▁ри
▁яс
adil
ided
ique
lass
естр
еңке
имен
спер
турд
шығы
құйр
▁4,9
▁Con
▁Mah
▁Mağ
▁Tab
▁ima
▁jus
▁mov
▁ПӘК
▁Тор
▁аек
▁бит
▁төг
▁Қаж
▁Қат
eğimi
ially
meyen
аплас
жітім
тінің
шымен
▁700-
▁HTML
▁Yüks
▁both
▁cana
▁emer
▁inst
▁live
▁карб
▁нитр
▁реті
▁құпт
геннен
дүйсен
измнің
торлық
▁Güven
▁arama
▁ayağa
▁espec
▁lider
▁uydur
▁vakti
▁yüzme
▁дауыл
▁жігер
▁роман
▁қақты
▁өндеу
larımın
функция
▁aktobe
▁import
▁itiraz
▁mevcut
▁olmanı
▁Интерн
▁вакцин
▁көшуге
▁уранды
▁шебері
▁шындық
▁Құмкөл
▁өзіміз
ымыздағы
қылардың
▁Yapabil
▁eldiven
▁friends
▁hapiste
▁promote
▁rekabet
▁saattir
▁sahibiz
▁salladı
▁Жүйенің
▁алтыншы
▁геометр
▁дистриб
▁дмитрий
▁кездест
▁мұнымен
▁тұлғаға
▁химияны
▁шешімге
▁істерді
▁қалдыру
▁қашаған
▁құралды
▁Brezilya
▁dialogue
▁miktarda
▁müzisyen
▁sıklıkta
▁yaparsın
▁байқаушы
▁бағалары
▁еуропаға
▁жабдықты
▁жатақхан
▁сигналды
mayacağımı
meyeceğini
▁bisikleti
▁göstermek
▁telefonda
▁çiçekleri
▁авторлары
▁айналымға
▁астындағы
▁еңбектері
▁жоспардан
▁мағынасын
▁мүшелерін
▁суреттегі
▁қоспалары
▁қышқылдық
▁құбырының
▁құжаттама
▁әйелдерге
▁өзгерісін
▁hoşlanırım
▁uyuşturucu
▁бағалайтын
▁дайындаған
▁негізделіп
▁нысандарға
▁сертификат
▁қатынастың
▁competitive
▁innovations
▁istediğimiz
▁қуаныштымыз
▁әдіснамалық
▁әкімдігінен
▁аймақтарының
▁жарақтандыру
▁жетілдірудің
▁заңдылықтары
▁операторының
▁тасымалдаушы
▁орналастыруға
▁лингвистикалық
▁өнеркәсібіндегі
жа
cın
ews
nik
ube
udu
ümc
иял
роз
сат
ьев
ьяк
▁08
▁Ен
▁ЖҮ
▁СЖ
▁ші
.00-
амма
аңғы
баны
конг
▁360
▁pik
▁Дир
▁баш
▁ойп
▁сәл
dirdi
eyici
layın
oloji
ейтен
иссер
кесті
майор
темір
қосым
▁0,39
▁0,64
▁0,73
▁Işık
▁erdi
▁half
▁just
▁much
▁odak
▁qual
▁used
▁Проц
▁Түрк
▁еріт
▁есту
▁када
▁такс
dergar
tember
ılıyor
умилев
ционды
ілерін
▁korku
▁tuval
▁ışığı
▁васил
▁ерлер
▁мотор
▁номен
▁одақт
▁солай
▁сәбіз
▁текст
▁өзгеш
ecekler
elerden
lerimiz
olution
іңіздің
▁around
▁sözünü
▁ulaştı
▁Арнайы
▁Бұндай
▁аталым
▁дәріпт
▁жылуды
▁консул
▁тектес
▁толығы
▁транск
▁түзеді
▁түйірш
▁қазақт
▁Elimden
▁bağırdı
▁defense
▁gelmesi
▁identif
▁natural
▁parties
▁азаюына
▁апаттар
▁баталов
▁жүйелеу
▁корпусы
▁көмегін
▁салығын
▁табанды
▁тауарлы
▁топтағы
▁қалаған
▁үлестір
dergarten
рополитен
сауықтыру
▁dikkatle
▁алаңдары
▁анимация
▁білімгер
▁жалғасып
▁көтереді
▁мұнаймен
▁нейрожел
▁технопар
▁тосқауыл
▁цзиньпин
▁әсерлесу
▁anlamadım
▁financing
▁kazasında
▁materials
▁olacağına
▁olmalıyız
▁tarafında
▁verdiğini
▁yakalandı
▁бағытының
▁заттармен
▁көтеріліп
▁нақтылады
▁орындарды
▁орындауды
▁оқытушысы
▁партиялар
▁салыстыра
▁тұтынатын
▁ультрадыб
▁әкімдікте
▁especially
▁gidiyorsun
▁insanlarla
▁Эксперимен
▁баспанамен
▁ескерілген
▁жасақталды
▁мектептері
▁мемлекетте
▁минералдар
▁отырғанына
▁қазавтожол
▁қашықтыққа
▁қолбасшысы
▁қонақтарға
▁өзгеріссіз
▁interaction
▁кемшіліктер
▁көшбасшылық
▁сайлаушылар
▁салтанатына
▁сигналдарын
▁тұрақтандыр
▁қабаттардың
▁қабілетінің
▁қатысатынын
▁қолдайтынын
▁үдерістерін
▁әкімдерінің
▁өндірістегі
▁hatırlatıyor
▁kazakhstanis
▁kindergarten
▁алгоритмінің
▁жамылғысының
▁жоғарылатуға
▁жылдамдығына
▁корпоративті
▁перспективті
▁ілгерілетуге
▁құндылықтары
▁алгоритмдерді
▁желтоқсандағы
▁механизмдерін
▁қозғалтқыштың
▁әріптестермен
▁прокуратураның
▁жартыжылдығында
yc
»,
сқ
юр
қк
ЕЛІ
аил
бик
бөл
ена
көш
нез
сеф
ұст
▁bi
▁ce
-100
.000
ales
diği
ksür
ling
oför
астр
ауыш
здер
икан
нүкт
огид
огур
птік
іске
қары
▁124
▁260
▁Gid
▁Gül
▁Sin
▁fık
▁göm
▁kel
▁дев
▁көг
▁ұйы
▁ұқк
▁әйт
aydın
tures
аскад
оника
тамыр
фракт
▁Otel
▁gıda
▁kaça
▁ordu
▁resm
▁sayf
▁talk
▁келм
▁керн
▁мойн
eyelim
ternet
іктегі
▁Devam
▁Hasta
▁ağacı
▁consi
▁domuz
▁evlat
▁gecik
▁kaybı
▁ералы
▁жапыр
▁жетік
▁кідір
▁кіріп
▁мәзір
▁ролін
▁тақта
▁іздел
▁қойма
eksiyon
▁bildin
▁iyisin
▁kamera
▁mektub
▁игілік
▁кірісі
▁нәрест
▁омаров
▁паспор
▁темекі
▁төндір
естігіне
▁başında
▁diploma
▁several
▁vatanda
▁yapılır
▁бағамен
▁дизайны
▁жүргізе
▁иондары
▁күнінен
▁одақпен
▁сағатқа
▁табатын
▁шамадан
▁шығуына
▁ғылымға
▁ұлғаяды
▁әкімнің
▁өлшеуіш
астикалық
омпозиция
▁arabanın
▁ağlamaya
▁bulamadı
▁doğrudur
▁meetings
▁practice
▁proposed
▁yemekten
▁бекітуге
▁бөлінуде
▁дәрістер
▁жерлерін
▁миграция
▁отырғызу
▁салдарын
▁секторды
▁синтакси
▁әлеуметт
қатерлерге
▁bulacağım
▁etmeliyiz
▁gördüğümü
▁çocuklara
▁асырылуын
▁аудандағы
▁ақорданың
▁дайындады
▁желісінде
▁жүргіздік
▁күкірттің
▁көздерден
▁көлігімен
▁машинақұр
▁мақаланың
▁менеджмен
▁моральдық
▁номиналды
▁салаларға
▁серверлік
▁сириядағы
▁созылмалы
▁қадағалап
▁olduğunuzu
▁Çocukların
▁жерлердегі
▁жеткізетін
▁реттелетін
▁төрағалары
▁формаларын
▁insanlardan
▁karşılaştır
▁İngilizceyi
▁аппаратының
▁жасақталған
▁мәслихаттар
▁сұйықтықтың
▁тақырыптары
▁тәжірибеден
▁contribution
▁konuşuyorsun
▁кәсіподақтар
▁техникасының
▁технологияға
▁гравитациялық
▁мемлекеттерде
▁қызметшілерді
▁құбылыстардың
▁өндірушілерге
▁компоненттерді
▁қоғамдастықтың
▁артықшылықтарын
со
-18
ave
ira
Хим
быс
жав
жің
иде
көк
сүй
тид
▁Ca
▁Tr
▁мк
▁ра
arat
etin
imle
lerj
year
ğime
ктің
мені
оний
осси
птық
терр
шіге
шіні
ыпты
ңгей
▁(9)
▁134
▁157
▁20%
▁4,6
▁50%
▁Hız
▁Yum
▁gdp
▁jud
▁med
▁pos
▁Айм
▁Май
▁Сат
▁Тең
▁атл
▁жұқ
▁тех
▁Әрі
andum
irsin
kinci
ladın
lisin
nover
ınıza
мішев
мәтін
патри
тамын
уымен
құлық
▁0,50
▁9001
▁Baba
▁Emin
▁Mike
▁cham
▁ikiz
▁kuşk
▁moda
▁suya
▁Айта
▁Сапа
▁маус
▁мону
iyatro
ınızda
▁Emily
▁amend
▁farkı
▁inkar
▁recon
▁yağdı
▁çekin
▁НАССР
▁Робот
▁атына
▁газға
▁десек
▁жүйке
▁орыны
▁оқырм
▁поляк
▁пәнге
▁сынап
▁шыдам
azartes
mamıştı
алынған
▁kocası
▁kızlar
▁masaya
▁sürece
▁önceki
▁бензол
▁бұндай
▁кіргіз
▁магатэ
▁тілект
▁хлорлы
▁шамалы
ebiliriz
erebilir
ашингтон
▁düzenli
▁meraklı
▁olmamız
▁visited
▁yağmaya
▁çocuğun
▁астықты
▁аукцион
▁банктік
▁бақытты
▁бірінде
▁демпфер
▁күресте
▁нақтылы
▁номенкл
▁санынан
▁тілінен
▁фотосур
▁шипажай
▁істеуін
▁қазылар
▁құратын
▁өткенін
▁sigarayı
▁sinirlen
▁turnover
▁umuyordu
▁yaşamaya
▁гектарды
▁жіберуге
▁жұмсалды
▁мекендер
▁негізсіз
▁норвегия
▁ойымызша
▁сипатына
▁спектрін
▁танысады
▁теңдеуге
▁тоғжанов
▁тыныштық
▁шамасына
▁шешіміне
▁ғимараты
▁қоймайды
▁қылмысқа
▁құралады
▁Endişelen
▁düşündüğü
▁geçiriyor
▁çaldığını
▁алатындай
▁бағаланды
▁бағдаршам
▁босатылды
▁зауытында
▁маңыздағы
▁мәртебелі
▁объектіге
▁потенциал
▁тарихымен
▁теңдессіз
▁топтастыр
▁тотығының
▁шығарылып
▁қасиетіне
▁қаттылығы
▁қорғанысы
▁dikkatlice
▁gördüğümde
▁üstesinden
▁активтерді
▁есептеймін
▁көмірсутек
▁наурызында
▁нүктелерін
▁орындаудың
▁сорбенттер
▁сынақтарға
▁туристерді
▁тілдерінде
▁тұлғаларды
▁эффективті
▁қорғалатын
▁әрекеттері
өнеркәсіптік
▁corporation
▁ihtiyacınız
▁istemiyoruz
▁Зертханалық
▁атқарылатын
▁лицензиялау
▁мүмкіндікті
▁шекарасында
▁үміттенеміз
демографиялық
▁көгалдандыру
▁салтанатында
▁секторындағы
▁тасымалдауды
▁қабаттарының
▁қондырғылары
▁биотехнология
▁пайдаланушыға
▁тиімділігінің
▁агроөндірістік
▁операторлардың
▁тыңайтқыштарды
▁жылуөткізгіштік
68
On
TP
жу
хн
-23
[2]
con
iew
old
ura
ymp
ОЛД
діл
шең
▁0-
▁Із
esen
ffuz
uyum
дала
жаңа
ктік
офаг
▁127
▁5,7
▁Bas
▁Com
▁Değ
▁Mot
▁Sey
▁amb
▁fil
▁ise
▁Кан
▁ЭҚК
▁ашм
▁вар
▁гом
▁ким
▁шөп
andır
cadem
duino
ented
sında
tefan
umdan
анипу
арниз
далуы
егері
индер
минес
мәнді
сүлей
тауға
ышьяк
▁9000
▁araz
▁told
▁uzan
▁yarı
▁алса
▁алым
▁атыс
▁едім
▁кемі
▁көшп
▁литв
▁неге
Reduce
астағы
еңкелі
операт
шысына
▁could
▁dahil
▁düğün
▁hatam
▁işine
▁mesaf
▁point
▁yapıp
▁авиак
▁аслан
▁ауада
▁жетуі
▁сайыс
▁тенни
▁шақты
▁шеткі
▁әлсір
▁өңдеп
dığımda
itation
битумды
ограмма
проксим
сикалық
қимылын
▁Server
▁Stefan
▁ağacın
▁geriye
▁gitmez
▁patrio
▁гарниз
▁енгізе
▁жақтың
▁кептір
▁логика
▁сөзбен
▁таяуда
▁түкпір
▁қисығы
▁қосуды
ılabilir
▁Kendime
▁aşağıya
▁concept
▁concern
▁gençken
▁hayalet
▁motosik
▁oldular
▁sanatçı
▁sustain
▁systems
▁yürümek
▁ödevimi
▁Педагог
▁азайған
▁бейнені
▁бірінен
▁етудегі
▁зауытты
▁квадрат
▁кеңесін
▁көлікті
▁нәресте
▁тудырып
▁қатарын
ification
еляциялық
логистика
▁arkasına
▁düşünmüş
▁yaptılar
▁даярлығы
▁курсында
▁пайымдау
▁сызықтар
▁тексеріп
▁тоқсанда
▁тырысады
▁ығыстыру
▁қойылымы
▁құқығына
▁өрісінің
▁өңделеді
▁engelledi
▁producers
▁september
▁öğretiyor
▁депутатты
▁еуропаның
▁жеңімпазы
▁кездескен
▁келмейтін
▁келісімін
▁миллионға
▁оқытудағы
▁полициясы
▁респонден
▁реформасы
▁тарапының
▁тақырыпқа
▁тұздардың
▁тұтынудың
▁фундамент
▁шақырамыз
▁экспортын
▁әзірлеуде
▁өңірлерге
▁agreements
▁electronic
▁indicators
▁memorandum
▁Математика
▁бастапқыда
▁бөлімшелер
▁дайындайды
▁денелердің
▁кедергісін
▁корреляция
▁көріністер
▁тексерулер
▁форматтағы
▁қабылдауда
▁endişeliyim
▁profesyonel
▁söylüyorlar
▁süpermarket
▁заңнамасына
▁кеңістігіне
▁оқиғалардың
▁парламентке
▁қағидаттары
▁hoşlandığını
▁аймақтардағы
▁міндеттеріне
▁нүктелерінің
▁Технологиялық
▁ерітіндісінің
▁каталитикалық
▁мүмкіндігінің
▁фотоэлектрлік
▁ұйымдастырушы
▁responsibility
▁визуализациялау
▁қанағаттанарлық
NO
yz
ân
ИН
ИП
еч
кв
set
tau
орб
сұр
тол
әлі
▁CF
▁Oh
▁Pi
▁St
▁ГА
▁жк
▁ил
eleg
işti
orge
sına
ауыл
ағыл
бұзу
омет
▁138
▁154
▁192
▁Bul
▁Hoş
▁Ver
▁Бөл
▁Мак
▁Шығ
▁бұт
▁доғ
▁кін
▁ота
▁тық
▁ӘДІ
tıldı
бағыс
олары
ылмай
▁audi
▁hale
▁işit
▁kayd
▁keşf
▁spir
▁west
▁âşık
▁біле
▁көлі
▁мұхи
▁тиеу
emical
manent
активт
амызға
озаның
тігіне
қолдан
▁ailem
▁bakma
▁fizik
▁örnek
▁Класт
▁бұлар
▁дарын
▁екпін
▁жасуш
▁кесен
▁монет
▁рецеп
▁съезд
▁сөзді
▁Қатты
▁қазын
▁қалуы
▁ұсына
lamadan
азиялық
тердегі
ылуымен
імізбен
▁Mümkün
▁fiyatı
▁instit
▁itibar
▁kasaba
▁kimdir
▁koltuğ
▁samimi
▁tedavi
▁çekmek
▁ақырғы
▁байқап
▁держав
▁дәулет
▁кезден
▁мейман
▁наубай
▁пәннің
▁судағы
▁сөздің
▁фазалы
▁шалдық
eklerden
masından
тациялау
тірілген
▁growing
▁tanıştı
▁yatıyor
▁şaşırdı
▁алмаған
▁аурудың
▁зерттей
▁кептіру
▁көмірді
▁сайлану
▁сілтеме
▁сұраққа
▁тартады
▁тағдыры
▁іздеуге
▁қалдығы
▁өрістің
кционалды
▁Dışarıda
▁adresini
▁agencies
▁existing
▁gitmedim
▁relevant
▁tanıştığ
▁tasarruf
▁yaparsan
▁yapılmış
▁çalıştık
▁балалары
▁бейнесін
▁бизнесін
▁бразилия
▁компресс
▁көгілдір
▁металдың
▁меңгеруі
▁модифици
▁мәндерді
▁нүктесін
▁пассивті
▁салмағын
▁талданды
▁халқымыз
▁эволюция
▁өндірген
▁өнерінің
▁өңдеуден
▁kendisini
▁абсолютті
▁анықтауды
▁дағдылары
▁жамылғысы
▁жандардың
▁жүктемесі
▁индонезия
▁ластануын
▁сайлауына
▁сұранысын
▁топыраққа
▁түсінеміз
▁шығарудың
▁қатысқаны
▁қолданыла
▁үлестерін
мырзахметов
▁corruption
▁geldiğince
▁industries
▁innovation
▁korkuyorum
▁olabilirdi
▁көкейкесті
▁көпмүшелік
▁мекендерде
▁пайдалануы
▁реактордың
▁реакторлар
▁станциялар
▁тексерілді
▁формулалар
▁өлшемдерін
▁ebeveynleri
▁preparation
▁specialists
▁анимациялық
▁дайындалуда
▁жеңілдетуге
▁модельдеуге
▁украинадағы
математикалық
▁istemiyorsun
▁olmadığından
▁yapabilirsin
▁yapılacağını
▁бөліктерінің
▁потенциалдық
▁әрекеттестік
▁anlayamıyorum
▁birbirleriyle
▁компанияларын
▁transportation
▁эксперименттер
))
SM
kel
yth
şap
анг
лес
мың
нас
пыз
рог
іме
әрі
▁мж
▁ін
vard
ğına
дісі
икіз
факт
ятын
өзен
▁111
▁113
▁210
▁270
▁5,8
▁Dav
▁Fak
▁Rap
▁Sal
▁gal
▁maç
▁net
▁sap
▁бқо
▁ерт
▁нәз
▁тоң
▁фор
▁хам
▁ция
▁ісп
▁қүр
ansör
bette
dates
denin
masız
ploye
изайн
кенің
пейді
▁(11)
▁gücü
▁kons
▁kost
▁sent
▁uyur
▁şiir
▁Есіл
▁Төрт
▁адап
▁арғы
▁газы
▁мото
▁туып
eğimiz
дейміз
▁Canım
▁Genel
▁Kural
▁amacı
▁anlay
▁belki
▁bulur
▁court
▁daldı
▁diyor
▁kalın
▁koyun
▁reads
▁talep
▁tanık
▁yapın
▁yedik
▁şoför
▁Судың
▁Химия
▁жатса
▁калық
▁кеңсе
▁көзге
▁нивел
▁объек
▁оқыды
▁became
▁güldür
▁içmeye
▁koydum
▁pirinç
▁uzandı
▁İkinci
▁бюросы
▁етуіне
▁жүргін
▁камера
▁күштің
▁көзіне
▁көрдік
▁сарайы
▁ілгері
▁қоршау
▁ұнының
lıyorsun
спорттық
▁Tamamen
▁birlikt
▁ciddiye
▁organiz
▁sevmedi
▁yapardı
▁Бүгінде
▁ауысады
▁ережесі
▁жарнама
▁кадастр
▁мұнайлы
▁осцилля
▁оңтүсті
▁тетігін
▁туындау
▁қаржыға
▁құзырлы
▁құрамда
▁Әлемдік
▁өкілдер
тижесінде
▁izlemeyi
▁yolculuğ
▁şeylerin
▁алмаймыз
▁барысына
▁кабинеті
▁кандидат
▁күнкөріс
▁магнитті
▁мәскеуде
▁пайызбен
▁прогресс
▁съезінде
▁сұйықтың
▁триллион
▁уақыттық
патриоттық
▁Arkadaşım
▁MapReduce
▁yapmamızı
▁yaşıyoruz
▁çalıştığı
▁çalışırım
▁ауруларға
▁ашылуымен
▁бастайтын
▁болғаннан
▁векторлық
▁дисперсті
▁жаһандану
▁жұртшылық
▁кеңесінде
▁мемлекеті
▁мәжілісте
▁орындарда
▁польшаның
▁түсірілім
▁қосымшаны
▁ұстанымын
геологиялық
▁registered
▁алгоритмді
▁жерлерінің
▁жобалаудың
▁итальяндық
▁компанияны
▁коррозияға
▁көрсетеміз
▁мүдделілік
▁отырғандай
▁порталында
▁спектрлері
▁субъектісі
▁суреттерді
▁уағдаласты
▁қымбаттады
▁söylemesini
▁yapmamasını
▁Тәжірибелік
▁ережелеріне
▁кездесуінде
▁компьютерде
▁механизмнің
▁мәселесінің
▁түзетулерді
▁түсіндіреді
▁тұтынушылық
▁қарастыруда
▁isteyeceğini
▁авиакомпания
▁механизмдері
▁министрлігін
▁радиоактивті
▁хабарландыру
▁әрекеттердің
▁арифметикалық
▁жетістіктерді
▁индустриалдық
▁нәтижелерімен
▁студенттеріне
▁тасымалдаудың
дифференциалдық
▁hoşlanmadığını
▁тасымалданатын
2(
Cr
СЖ
дз
мг
esk
irc
mon
wit
ydi
üle
ДЫҚ
жүз
каш
реж
ткі
фаз
▁[7
▁Вт
▁Шу
▁ЭМ
akal
ekiz
lini
reti
vidu
бита
етов
спан
схем
таны
ттай
хром
қаны
▁117
▁126
▁Ayr
▁Gec
▁Nor
▁Yok
▁bıç
▁dos
▁kür
▁pre
▁tey
▁çap
▁Диф
▁Сәт
▁жэк
▁иіл
▁туу
ansın
light
ylece
алдыр
емний
есігі
ийдің
интер
паева
ылсын
▁0,69
▁Jack
▁Kala
▁Mery
▁Paul
▁ayda
▁elli
▁ever
▁kafa
▁onar
▁sonr
▁şamp
▁Кіші
▁Отан
▁Поли
▁ТЕХН
▁дені
▁екеу
▁ерес
▁крах
▁сыну
▁ұпай
▁өтер
lemeyi
madığı
кердің
мебаев
▁Karar
▁Kuzey
▁Tatil
▁adama
▁affed
▁bring
▁dönün
▁enerj
▁hüküm
▁roads
▁артта
▁жолақ
▁канал
▁күзет
▁оралм
▁сорғы
▁соққы
▁физик
бұрышты
дардағы
▁academ
▁action
▁bilmez
▁kutuyu
▁küçüms
▁method
▁mıydın
▁okudun
▁olağan
▁oluşur
▁yerini
▁баталь
▁болмау
▁біріге
▁біткен
▁графит
▁патрио
▁пойызы
▁рөліне
▁тауары
▁телекө
▁тілдес
▁ҚазҰПУ
▁әдісте
алдарына
жошыбаев
▁Arduino
▁Harvard
▁Hükümet
▁aldığım
▁doluydu
▁gitmemi
▁however
▁perform
▁village
▁yaramaz
▁çalındı
▁Аталмыш
▁Проблем
▁Тұрақты
▁Төменгі
▁алаңдау
▁аяқтады
▁гонконг
▁салудың
▁таптырм
▁форумды
▁эстония
▁қадамда
▁қамтыды
eminister
кіменстан
қатынаста
▁bekledim
▁hayvanat
▁individu
▁numarası
▁otobüsle
▁yazılmış
▁yetişkin
▁ақордада
▁бастауға
▁бөлімдер
▁дерекқор
▁еркіндік
▁жақтарын
▁нанобөлш
▁сапардың
▁светлана
▁секторда
▁секторға
▁таңдайды
▁туындады
▁шешудегі
▁қандайда
▁қатысуды
▁alacağını
▁durdurmak
▁kardeşine
▁sevdiğimi
▁бастамашы
▁жалдамалы
▁зерттеген
▁игерілген
▁коллектор
▁орталықты
▁тырысамыз
▁тәртіппен
▁gelmeyecek
▁gereklidir
▁leadership
▁асырылуына
▁бесжылдығы
▁көздерінен
▁мезгілінде
▁орнықтылық
▁саясаттағы
▁тербелмелі
▁транзакция
▁украинаның
▁қолданыста
▁hoşlanmıyor
▁olmayacağım
▁желтоқсанға
▁желісіндегі
▁кездесулері
▁нығайтудағы
▁қорғаушылар
▁үрдістердің
▁tehlikelidir
▁Инновациялық
▁жабдықтармен
▁жалғастырады
▁зейнеткерлер
▁тасымалдағыш
▁düşünmemiştim
▁белсенділікті
▁жағдайларының
▁пациенттердің
▁тақырыбындағы
▁бейорганикалық
▁кәсіпорындарын
▁субъектілеріне
▁қалыптастыратын
0)
Cu
EE
ЫР
қи
lek
ner
ple
ıst
АНЫ
жау
унг
шею
▁07
▁Lo
▁pp
▁vo
▁Öd
▁дБ
▁за
▁зә
▁оя
ages
alet
ysis
ümüş
üyüm
ımla
атай
едиа
илді
йтын
мдер
рлік
▁(4-
▁116
▁136
▁5,3
▁Arc
▁EHR
▁Elb
▁Koş
▁Lis
▁alı
▁bre
▁cad
▁ker
▁rak
▁tec
▁ЕСЕ
▁Сау
▁ШРК
▁еге
▁мус
▁тун
▁ыст
▁ҚҰР
ağını
ental
erini
inese
taydı
tober
ython
ırlar
гидро
гімен
елиор
ептид
ланың
▁0,78
▁0,81
▁ekim
▁farm
▁guar
▁huge
▁ince
▁topu
▁yazı
▁Кері
▁алар
▁евро
▁кеск
▁мини
▁моно
▁ұңғы
▁өкпе
alesef
employ
inceye
mental
айынов
дәстүр
старға
▁Sakin
▁[1-3]
▁deleg
▁delik
▁goals
▁kapan
▁köprü
▁makul
▁sebze
▁seçti
▁Сарап
▁бергі
▁графи
▁демон
▁жоққа
▁күшею
▁мұраж
▁реген
▁ретін
▁сәтте
▁шаңыр
▁құрық
▁әдемі
▁өтілі
ecektir
болалық
сіздігі
ытбеков
▁Meryem
▁Studio
▁Zengin
▁ethnic
▁fabrik
▁kalkar
▁oturma
▁spirit
▁target
▁unique
▁verilm
▁Жолдау
▁аудара
▁баласы
▁бейсыз
▁жеріне
▁келдік
▁көздің
▁михаил
▁рахмет
▁сынама
▁ықылас
▁юнисеф
▁қолайл
енциалды
▁employe
▁ettiğin
▁evlilik
▁iyimser
▁kaçırdı
▁meydana
▁october
▁yumuşak
▁айналма
▁жазбаша
▁келешек
▁кіріспе
▁моменті
▁ойларын
▁ортадан
▁себепші
▁тізімге
▁түсініп
▁төлеген
▁шешілуі
▁іргелес
▁өсіруге
eyeceğimi
▁dediğini
▁ettiğimi
▁iletişim
▁konuşmaz
▁ofisinde
▁problemi
▁stations
▁telaffuz
▁yaşadığı
▁Параметр
▁басқарды
▁бетонның
▁бидайдың
▁жіктелуі
▁кернеулі
▁кестелер
▁контекст
▁пункттер
▁тартатын
▁шығарушы
▁іргетасы
▁ғасырлар
▁қайталау
▁ұлғаюына
нығматулин
ристикалық
▁2016-2020
▁edemezsin
▁güvenebil
▁kadarıyla
▁karaganda
▁kendinden
▁konuşmadı
▁yapılacak
▁атмосфера
▁вашингтон
▁графиктер
▁масштабты
▁радионукл
▁үкіметіне
▁әңгімелес
отехникалық
қатынасының
▁yaptığımız
▁айналысуға
▁белгілеген
▁беріктілік
▁жаңғыртуды
▁мекендерді
▁семинардың
▁сорбциялық
▁тапсырысты
▁тағылымдам
▁техногенді
▁тізбегінің
▁gitmiyorsun
▁архитектура
▁күнтізбелік
▁міндеттерге
▁номенклатур
▁стратегияны
▁халықтардың
▁электрондар
▁қуаныштымын
▁өздеріңізге
▁istediğinden
▁жоғарылауына
▁навигациялық
▁программалар
▁пропорционал
▁шешімдерінің
▁қиындықтарға
▁құрылымдарды
▁primeminister
▁мәліметтеріне
▁президенттері
▁тотықсыздандыр
▁competitiveness
▁классификациясы
42
55
PS
RA
[1
tt
ux
хо
әз
üsü
ОМП
ави
ақб
ино
йыр
люл
түй
шин
▁Li
▁БҚ
▁Ко
▁аи
road
saka
бест
прет
ышев
ғытт
▁14-
▁185
▁3,9
▁5,4
▁Nan
▁göç
▁ple
▁sez
▁sym
▁гфр
▁неб
▁Қыр
ified
ition
терлі
тылуы
тының
уқұйр
▁aday
▁ayın
▁açar
▁dear
▁elde
▁hope
▁iliş
▁note
▁şark
▁şart
▁Ақсу
▁биат
▁киіз
▁меші
▁пест
▁плит
▁стил
▁суын
▁құрб
▁ұлық
govern
mamıza
жоғары
итивті
тарихи
цемент
▁Neler
▁Rusya
▁dalga
▁demon
▁izlen
▁means
▁midir
▁sokak
▁units
▁алмаз
▁береш
▁дабыл
▁мүсін
▁тазал
▁флюор
▁шөлей
▁Құрыл
▁ұмтыл
cations
▁Gökyüz
▁adamla
▁cooper
▁eğildi
▁silahı
▁sözcük
▁Лаплас
▁атқара
▁геожүй
▁жемісі
▁иегері
▁тамшыл
▁түспек
▁хоккей
▁ғылымы
▁қорыту
▁үлгіде
malıydın
активтік
▁conduct
▁decreas
▁digital
▁ederler
▁finance
▁hangisi
▁harmony
▁olmazdı
▁partisi
▁peoples
▁transit
▁yemedim
▁Электро
▁делегат
▁каталог
▁контурд
▁ойдамын
▁сайысқа
▁тысқары
▁түрімен
▁төлеуге
▁форматы
▁шамалар
▁эмиссия
▁эстафет
▁қабатта
▁өзгерте
eyeceğine
ологияның
▁annesini
▁compared
▁etmesine
▁festival
▁position
▁sıklıkla
▁yaşamayı
▁çalışkan
▁çikolata
▁Бұрғылау
▁артиллер
▁ақтөбеде
▁детоксик
▁жемістер
▁карталар
▁курстары
▁медиация
▁мерекесі
▁меңгерту
▁нүктенің
▁тартылып
▁теңгелік
▁тұтынуды
▁қапшағай
▁өлшеудің
▁өңірлері
▁2016-2017
▁dikkatsiz
▁residents
▁генерация
▁жасалынып
▁жүктеледі
▁кезектегі
▁командирі
▁көшербаев
▁степногор
▁табиғатқа
▁толқындар
▁учаскелік
▁хаттаманы
▁шақырымға
▁қабаттары
▁қозғалған
▁құрметіне
▁құрылымға
▁әлеуетіне
формациялық
▁hakkındaki
▁Жергілікті
▁аппараттар
▁бағыттарда
▁белгілерін
▁болатынбыз
▁білесіздер
▁жүктемесін
▁заңнаманың
▁кластерлеу
▁мәжілісмен
▁нарықтарға
▁табыстарға
▁холдингтер
▁қонақтарды
▁құрылымдау
▁әдебиеттер
▁havaalanına
▁yaptığından
▁анықтамалар
▁белгісіздік
▁деңгейлерін
▁жағалауында
▁террористік
▁түрлендіруі
▁қарастырдық
▁ветеринарлық
▁декомпозиция
▁мүгедектерге
▁процесстерді
▁қолданушының
▁құрастырылды
▁конференцияда
▁көшбасшысының
▁мәліметтермен
▁трансформатор
▁тәжірибесінде
▁материалдармен
▁орналастырылады
▁қазақстандықтың
94
ox
ІМ
АШ
LAB
cur
kaz
mec
odi
pri
üde
ІНІ
ляр
маш
пат
рип
цев
чев
▁(8
▁kt
▁Жұ
ense
mert
ping
tmak
ЕМСТ
зомб
имин
кова
огон
ольт
сика
ыққа
▁May
▁Sok
▁Süt
▁gev
▁nas
▁sco
▁Çor
▁Şem
▁Ері
▁ЭЕМ
▁афф
lusun
memek
scale
usuna
ömert
аэроб
бірін
имуля
омдық
ондыр
ссоци
түсін
іркеу
қазақ
құрам
▁150-
▁Olan
▁Siya
▁bina
▁deep
▁itti
▁june
▁meyv
▁onda
▁play
▁traf
▁veda
▁егип
▁келб
▁саях
▁ҚОЛД
▁қайс
▁әбіл
▁өтім
asıdır
алынды
анттар
детуге
деңгей
ембаев
ешелік
ластық
шабуыл
энерго
▁10-11
▁Asker
▁Eğlen
▁asian
▁baban
▁hakkı
▁kartı
▁komşu
▁mıdır
▁recog
▁tavuk
▁ағымы
▁байла
▁елмен
▁катар
▁майда
▁миним
▁мәңгі
▁сүзгі
▁хатта
▁Құзыр
арияның
ханалар
ыңыздың
▁crimin
▁döndüm
▁ihanet
▁mahkum
▁malzem
▁summit
▁sırada
▁vaktim
▁Оларға
▁абылай
▁алаңға
▁алулар
▁алынуы
▁алқасы
▁емделу
▁заңдық
▁кіруге
▁орбита
▁салдар
▁шығуын
▁қаупін
▁қойдық
▁құрдық
alarının
lararası
артылған
астырғыш
ектелген
отехника
▁Gerçeği
▁discuss
▁hakaret
▁karşıya
▁kurabiy
▁saatten
▁uzaklaş
▁victory
▁азайтып
▁елдерді
▁жұқпалы
▁жөнелту
▁заңдары
▁инерция
▁компенс
▁күшімен
▁мәнінің
▁облысын
▁синтезі
▁сульфид
▁тоқтала
▁уранның
▁қазанды
▁өтініші
шараларын
шылықтары
▁Maalesef
▁achieved
▁ағзасына
▁бірмәнді
▁коалиция
▁массасын
▁мұғалімі
▁проекция
▁себептер
▁шетелден
▁істеудің
▁қазғарыш
▁қамтылуы
▁үйретеді
▁Matematik
▁bulunuyor
▁kazanıyor
▁merkezine
▁çantasını
▁öldürmeye
▁özlüyorum
▁üzerinden
▁аппроксим
▁ақпаратын
▁болғанына
▁деңгейлік
▁жиіліктік
▁капиталын
▁нығайтуда
▁нұсқалары
▁органының
▁пәндердің
▁таралуына
▁татарстан
▁телекөпір
▁тәуліктік
▁шалдыққан
▁әдістерге
▁administra
▁candidates
▁efficiency
▁аумақтарды
▁баяндалады
▁дағдарысты
▁интернетке
▁мөлшерімен
▁нормаларды
▁персоналды
▁талқыладық
▁топтастыру
▁түйіршікті
▁тұтынушыға
▁экспорттың
▁қосымшаның
▁traditional
▁академияның
▁иерархиялық
▁инновацияны
▁мектептерді
▁нанокомпози
▁instructions
▁жандандыруға
отехнологиялық
▁міндеттемелер
▁тасмағамбетов
▁температуралы
▁тұрақтылықтың
▁қосымшалардың
▁ayakkabılarını
▁жетекшілігімен
▁конституцияның
▁мұғалімдерінің
▁сарапшыларының
▁кәсіпорындармен
LI
OS
yn
ОТ
же
йы
eff
evi
oks
urg
uğu
анк
еци
лим
нтт
рет
ура
▁%)
▁Eh
▁PH
▁Бу
▁мб
▁фи
ject
банк
едов
салт
таст
тынд
этил
ұрыс
▁5,1
▁ard
▁dra
▁rem
▁tez
▁бок
▁гем
▁деф
▁лік
▁ықп
▁ұбх
▁өсе
bahar
deyiz
duğun
etary
imini
kenin
makla
seydi
thing
tınız
ırken
далау
ділік
иқалы
▁(10)
▁0,63
▁acqu
▁ayar
▁fırs
▁günd
▁judi
▁otan
▁uyku
▁yast
▁Міне
▁Фосф
▁джон
▁кост
▁ксро
▁қыст
Script
omobil
гілері
есімов
иалдық
импуль
▁Mağaz
▁Osaka
▁april
▁clima
▁close
▁demir
▁dersi
▁eşlik
▁giyer
▁hapse
▁veren
▁yaktı
▁Мысал
▁алсақ
▁волон
▁диақб
▁драма
▁коман
▁кілті
▁орташ
▁телев
▁шегін
ектерге
инамика
охирург
▁Yüksek
▁alındı
▁expand
▁expert
▁inatçı
▁polisi
▁sosyal
▁tatmin
▁антенн
▁аялдам
▁дархан
▁мерген
▁нышаны
▁сүруге
▁теледи
▁телімі
▁тозуға
▁түрткі
▁іздену
▁қалуға
▁қиынға
минесцен
▁continu
▁sürüyor
▁uzundur
▁альтерн
▁ауданға
▁болмады
▁дәнекер
▁модифик
▁молдова
▁мұрасын
▁нүктелі
▁отбасын
▁суларын
▁суретке
▁шарттық
malısınız
матикалық
ологиясын
▁Ayakkabı
▁Bunların
▁Kütüphan
▁kiliseye
▁kitabını
▁specific
▁söyleyin
▁teachers
▁yapardım
▁üzereydi
▁şaşırttı
▁артуымен
▁ауылының
▁аяқтаған
▁базасына
▁беретіні
▁білімдер
▁еместігі
▁жазбалар
▁жарлыққа
▁кезеңдер
▁көлемнің
▁мектепті
▁мүддесін
▁отырысты
▁салиқалы
▁себептен
▁сілтілеу
▁түйіндер
▁тұғырнам
▁Қойылған
▁ұнтақтау
▁başlangıç
▁diliyorum
▁konuşacak
▁kullanmak
▁rastladım
▁tehlikede
▁Модельдеу
▁Пайдалану
▁австралия
▁актілерді
▁ауқымдағы
▁болжамдар
▁бөлімшесі
▁дақылдары
▁екібастұз
▁еріктілер
▁есептелді
▁жоғарлату
▁журналист
▁зерттеуші
▁интерпрет
▁интерфейс
▁келісімде
▁мазмұндық
▁орналасты
▁салтанаты
▁тереңірек
▁толқындық
▁қысқартып
▁өңделетін
emeyeceğini
▁istasyonda
▁istersiniz
▁olmadığına
▁аминқышқыл
▁басымдыққа
▁ерітіндіге
▁жартысынан
▁жүргіземіз
▁капиталдың
▁кезеңдерде
▁кеңсесінің
▁наурыздағы
▁сарапшылық
▁станциясын
▁қорларының
▁құрылыстар
▁әзірленуде
▁Көрсетілген
▁гетерогенді
▁механизмдер
▁нүктелердің
▁соғысындағы
▁қазтрансойл
▁söylemelisin
▁ескерткіштер
▁маркетингтік
▁объектісінің
▁қолданушылар
▁өндірушілері
▁anahtarlarını
▁söyleyeceğini
▁ауғанстандағы
▁орталықтардың
▁yapamayacağını
▁айырмашылықтар
▁қабілеттілікті
▁тасымалдаушылар
▁қондырғыларының
»)
ня
пс
loc
sec
vel
ДАР
бын
гөз
код
моб
ноз
спа
тақ
▁Be
▁Gr
▁uf
▁ех
▁мэ
adem
eves
ydık
yone
ğünü
асақ
атер
ауру
фрам
ғылы
▁122
▁137
▁165
▁5,6
▁650
▁8,5
▁Mil
▁Sus
▁böc
▁low
▁pul
▁Çab
▁Сан
▁Сем
▁адр
▁бжк
▁біш
▁инг
▁ред
▁ққс
ising
mayan
ақпыз
дылық
пласт
ғанов
▁0,40
▁Data
▁[1].
▁does
▁emir
▁iken
▁ilan
▁iran
▁koya
▁nokt
▁omuz
▁terc
▁then
▁Орын
▁алаш
▁амил
▁геом
▁жақт
▁коэф
▁отыз
▁рейс
▁сома
▁түст
▁өлке
amızda
ediniz
талдау
▁Bisik
▁Cevap
▁Nehir
▁Odada
▁boğul
▁early
▁oldun
▁opini
▁sides
▁testi
▁çıkış
▁атағы
▁ауылы
▁басшы
▁белок
▁жаққа
▁жүйел
▁кеуде
▁теңде
▁тәмам
▁шынай
▁ұсақт
лануына
▁Aniden
▁Parayı
▁favori
▁kirala
▁peynir
▁servis
▁sistem
▁tutmak
▁бағаға
▁беделі
▁ескерт
▁иелену
▁лагерь
▁музейі
▁пісіру
▁сарбаз
▁сөйлеп
▁табуда
▁қабатт
дарыстан
розиялық
әрекетке
әрекетті
▁arabada
▁bahçede
▁bırakın
▁ertelen
▁justice
▁kiminle
▁objects
▁olanlar
▁vuruldu
▁Энергия
▁базаның
▁бағдары
▁бейімді
▁ететіні
▁маусымы
▁мұрағат
▁символы
▁суретті
▁түзілім
▁түрінен
▁шетелге
▁Құрылым
▁қабатқа
▁әкімдер
▁өміршең
forcement
армашылық
▁bazıları
▁gülümsem
▁included
▁involved
▁mühendis
▁olsaydım
▁öneririm
▁болаттың
▁дереккөз
▁жапондық
▁жоғалған
▁игерудің
▁иордания
▁мағынада
▁наурызға
▁пестицид
▁санаймын
▁сыртында
▁танытуда
▁тізбегін
▁шиеленіс
▁қалыптас
▁үлгісіне
▁өткеннен
ациялаудың
гигиеналық
▁interests
▁introduce
▁kardeşini
▁konuşurum
▁sorabilir
▁çalışacak
▁бірліктің
▁дегеніңіз
▁диалогтың
▁мерекемен
▁мәтінінде
▁нанотүтік
▁пайымынша
▁парниктік
▁талшықтар
▁тәрбиелеп
▁шілдедегі
▁Құрамында
▁қолдандық
▁құрылыста
электрондық
▁amendments
▁etmiyorsun
▁instructed
▁автобустар
▁бағытталып
▁бөліктерін
▁кластерлер
▁оқшаулағыш
▁режимдерін
▁суреттерде
▁сұйытылған
▁тартылатын
▁төмендетіп
▁қышқылдары
▁үрдістерін
▁ayrıldığını
▁konuşmasını
▁Келтірілген
▁Медициналық
▁кеңістіктің
▁миссиясының
▁орналасатын
▁тәжірибеміз
▁commissioned
▁жолаушыларды
▁идеологиялық
▁компьютерлер
▁метрополитен
▁станцияларын
▁энергетиканы
▁Қарастырылып
▁жетістіктеріне
▁машинақұрылысы
▁мультимедиалық
67
89
Fi
оС
oda
olu
osp
ots
ped
ЕГІ
вич
ену
нар
ным
сип
▁hy
▁öv
▁жы
▁фо
▁ҮШ
cısı
ison
rete
бина
гелі
жылы
илиз
кери
ници
огип
отип
▁135
▁215
▁26-
▁6,6
▁fed
▁fre
▁kuv
▁kyz
▁mid
▁rul
▁çür
▁şah
▁Жақ
▁елу
▁кок
▁рмк
▁Қыш
▁ұак
diğim
iliği
unuzu
актер
града
діңіз
жұмыс
коның
рафия
тқышы
уллин
ғасын
ғылық
Қазақ
▁0,38
▁Neye
▁Odam
▁astr
▁come
▁cred
▁gemi
▁hand
▁pati
▁quar
▁rema
▁teor
▁vars
▁Özür
▁ағып
▁бокс
▁жару
▁жұма
▁тиян
▁фтор
▁Ұялы
iciydi
isions
memeye
titude
ектепт
▁bilip
▁döner
▁emerg
▁gündü
▁honor
▁multi
▁radyo
▁tepki
▁trene
▁trust
▁yorul
▁бұның
▁жабыс
▁жерін
▁күнгі
▁мысты
▁ноқат
▁октан
▁полик
▁секір
▁сында
▁қайда
▁үймен
tığında
дығында
энергия
▁Python
▁Yangın
▁anladı
▁dayana
▁havada
▁reddet
▁sandal
▁satmak
▁skills
▁sonucu
▁uyardı
▁yaprak
▁şehrin
▁Атырау
▁Физика
▁алмады
▁алқабы
▁аспауы
▁бейжің
▁герман
▁желіде
▁катион
▁күйіне
▁көреді
▁манипу
▁микроп
▁ректор
▁станок
▁сілтем
▁тоқтал
▁түлегі
▁тұлпар
▁қалақш
▁Eskiden
▁arabamı
▁içeriye
▁kendime
▁otobüst
▁percent
▁sahipti
▁uğradım
▁workers
▁yiyorum
▁асырыла
▁кеңсесі
▁кулагин
▁курстың
▁күнінде
▁режимді
▁сапарын
▁сәулесі
▁түсуіне
▁форумын
▁қалаушы
▁қамтама
▁қозғалу
дүйсенова
▁Kadınlar
▁criminal
▁götürmek
▁vermeyin
▁yaptırdı
▁zamanını
▁Германия
▁байқаған
▁бассейні
▁мінездем
▁тіркеуге
▁шығаруда
▁істердің
▁қазақтар
▁құрудағы
▁үйренеді
дықтарының
иметриялық
құрылымдық
▁apartment
▁araştırma
▁districts
▁gerçekleş
▁hoşlanmam
▁olacağımı
▁organized
▁söylememi
▁Мақаланың
▁байқаймыз
▁еңбегінің
▁желілерде
▁жәрдемдес
▁зерттейді
▁кезеңінен
▁көпжылдық
▁оқытылады
▁растайтын
▁туроперат
▁шикізатын
▁қаралатын
▁қоймалары
▁қорғалған
▁үкіметпен
▁additional
▁düşündüren
▁edilebilir
▁everything
▁gitmeliyim
▁istiyorlar
▁айналғанын
▁басымдықты
▁көпшілікке
▁орындардың
▁регламентт
▁шалғайдағы
▁қысқартады
▁әзірлеудің
▁götüreceğim
▁konuşacağım
▁kütüphanede
▁olabilirsin
▁rezervasyon
▁sustainable
▁zamankinden
▁Органикалық
▁бөлшектерді
▁дағдарыстан
▁дақылдардың
▁жабдықтарын
▁жарияланады
▁жемқорлықты
▁жыныстардың
▁магистранты
▁сезімталдық
▁шектеулерді
▁қабілеттері
▁қатынасының
▁Интерактивті
▁жолдауындағы
▁матрицасының
▁қағидаттарын
▁құзіреттілік
▁sabırsızlıkla
▁депутаттығына
▁интеграцияның
▁энергетиканың
▁Қарастырылған
▁ұйымдастырады
▁серіктестермен
▁серіктестігінің
▁ынтымақтастықта
EG
IM
ІЛ
ПЭ
ЫРУ
ияз
пеш
пыл
ыра
ғас
өрі
▁03
▁5%
▁пи
▁ым
ansa
anya
ders
likh
rown
time
üfen
итет
ихле
кель
ктур
офил
план
сәул
ғазы
▁(5-
▁119
▁123
▁4.0
▁Yön
▁alb
▁sız
▁tıp
▁şef
▁Дам
▁Лог
▁ТБТ
▁Фер
▁асы
▁бун
▁еұу
▁мәл
▁сил
▁Қыс
▁өрі
-2025
liğin
mamak
osunu
terna
utive
ақпан
бөкен
оград
ықтай
▁Yaşa
▁[16]
▁aver
▁azal
▁cuma
▁hali
▁mass
▁meat
▁nesi
▁tool
▁бұлт
▁жанж
▁цехы
▁қымб
▁Өзен
-2017-
energy
ататын
ағанын
еталық
инаның
циклоп
▁15-20
▁Flash
▁Yalan
▁aldat
▁bakar
▁bavul
▁garaj
▁hedef
▁house
▁nadir
▁parka
▁seviy
▁Жібек
▁абаев
▁арсен
▁аттан
▁бірің
▁жағын
▁йогур
▁призм
▁стади
▁талас
▁торап
▁түнгі
▁целин
▁шұжық
▁Құбыр
▁қорды
eklerin
inizden
ильберт
иясында
▁Konser
▁Trafik
▁ağladı
▁ağrısı
▁başara
▁belada
▁elinde
▁evlili
▁fırtın
▁havaya
▁hoşuma
▁levels
▁preven
▁söndür
▁yöntem
▁öpücük
▁Алатау
▁Синтез
▁айтқым
▁ауызша
▁берлин
▁болдым
▁королі
▁күйдір
▁көшесі
▁отыруы
▁парақш
▁салығы
▁санаты
▁синерг
▁сөйтіп
larımdan
lerinizi
еттілігі
ықтығына
▁Kendine
▁Masanın
▁Oradaki
▁babamın
▁birinci
▁faydası
▁geçiyor
▁kararlı
▁misafir
▁prosper
▁sakladı
▁uyumaya
▁çalmayı
▁Күрделі
▁алушыға
▁баррель
▁бағалар
▁бизнесі
▁жеңілді
▁жойылып
▁жұмыртқ
▁ирандық
▁мәртебе
▁отырмын
▁саудасы
▁саңырау
▁теорема
▁шынымен
▁қалдырм
▁қуандық
▁Үлгілер
▁өлшенді
▁function
▁gösterir
▁güçlükle
▁haftadır
▁incitmek
▁kaldılar
▁seversin
▁vazgeçti
▁yaratıcı
▁айналысу
▁акцияның
▁аномалия
▁бірлікке
▁жойылады
▁жолақтар
▁заңдарды
▁кешендік
▁кеңестік
▁көбейеді
▁оркестрі
▁таксоном
▁шақырады
▁қорларды
▁ұсынамын
▁Cumartesi
▁bakıyordu
▁buradayız
▁bırakıldı
▁düşünmedi
▁ediyordum
▁sorunumuz
▁çalışması
▁öğreniyor
▁анықталуы
▁даярлауға
▁енгіземіз
▁жыныстары
▁көлемінен
▁көлеңкелі
▁нығайтады
▁нүктесіне
▁орденімен
▁рейтингте
▁сәуірінде
▁ғимаратта
▁қазанында
▁қатысында
▁құрылуына
▁başlayacak
▁kardeşimin
▁kardeşinin
▁transition
▁çalışırken
▁жасалынады
▁кезеңдерін
▁магистраль
▁нұсқаларын
▁органдарын
▁полимерлер
▁реформасын
▁рәсімдерді
▁тапшылығын
▁цилиндрлік
▁қабілетіне
▁қалғандары
▁қозғалатын
сараптамалық
▁duygularını
▁Зерттелетін
▁амплитудасы
▁бейнелейтін
▁географиясы
▁жеңімпаздар
▁орталығымен
▁орындарынан
▁рейтингінде
▁саналатынын
▁таныстырады
▁тауарларына
▁қалыптасуын
▁ұйымдарында
▁өкілдігінің
▁бөлімдерінің
▁изотермиялық
▁модельдердің
▁президенттер
▁талаптарының
▁терроризммен
▁unutmayacağım
▁Бағдарламалық
▁Статистикалық
▁жалпыхалықтық
▁кәсіпкерлікке
▁мектептерінде
▁моноқалаларды
▁тағайындалсын
▁құзыреттілігі
▁құрылғылармен
▁yapabileceğimi
▁кәсіпкерліктер
▁министрлерінің
▁жетістіктерімен
-7
-11
[3]
ari
baş
hiş
obe
sas
tle
АСТ
біл
иті
най
оск
раж
хам
▁MS
▁şö
▁Де
▁гв
▁це
▁әз
anti
beri
embe
ions
lata
mola
uncu
дуақ
ктор
овал
ыңғы
▁146
▁148
▁28-
▁4-5
▁Duy
▁Kor
▁MAT
▁Oğl
▁Pla
▁arm
▁ask
▁işç
▁poz
▁six
▁çen
▁ДНҚ
▁Сөз
▁аэф
▁аңғ
▁теу
▁әкт
gular
ilies
ommen
ordin
rehen
tayım
ативт
балық
басар
еттес
еңбек
жақып
одтық
оссер
путин
сульф
ыруға
▁1300
▁boyu
▁ceza
▁clos
▁corr
▁iade
▁okum
▁usan
▁жэне
▁жқжк
▁кені
▁легі
▁мета
▁нукл
▁прав
▁ығыс
▁ұран
▁ұшып
aların
ayalım
irketi
sizlik
ануына
атайым
етінші
мостық
стерге
трация
фосфат
▁alerj
▁analy
▁aydır
▁bagaj
▁daire
▁dedim
▁ilacı
▁index
▁solve
▁tabak
▁takes
▁tutun
▁yazıl
▁yazın
▁артқы
▁домен
▁ендір
▁етуін
▁жазда
▁жояды
▁кішір
▁лазер
▁метил
▁мұнан
▁нәзік
▁оқиды
▁қоюды
▁әлиев
baharda
madığım
masında
лылықты
сенбаев
▁George
▁Savaşı
▁akmola
▁commer
▁tadını
▁toplum
▁Биогаз
▁асуына
▁аяқтап
▁жабайы
▁композ
▁рельеф
▁суретт
▁тойлау
▁ядросы
▁қазпош
▁өнерін
▁өрісін
ейтенант
елігінің
танымдық
▁Dünyada
▁average
▁ağlıyor
▁certain
▁isterse
▁maslikh
▁produce
▁station
▁Есептің
▁Жасанды
▁автомат
▁атанған
▁бөлмелі
▁елдерін
▁еркімен
▁жазамыз
▁жиындар
▁кірісіп
▁көрікті
▁перинат
▁тарапқа
▁төлейді
жекешелік
ционалдық
қимылының
▁Kimsenin
▁families
▁giysiler
▁hediyesi
▁prepared
▁recommen
▁sandalye
▁авторлық
▁газдарды
▁дәлелдеп
▁дәстүрге
▁жүгінген
▁көшпенді
▁лазерлік
▁оқытатын
▁оңайлату
▁таңдалып
▁экспертт
▁істеуіне
▁ұсынысын
▁өкілдігі
сүлейменов
▁Hangisini
▁arabasına
▁bahçesine
▁buralarda
▁executive
▁kaldığını
▁olmalıydı
▁personnel
▁religious
▁ТЕХНОЛОГИ
▁алмасудың
▁алғысымды
▁аппаратты
▁деңгейлер
▁жаңартуға
▁жобалауға
▁карталары
▁кодекстің
▁мәжіліске
▁нейтронды
▁польшалық
▁танытатын
▁таңдалады
▁тексереді
▁теорияның
▁тиімдірек
▁хаттамасы
▁шектеледі
▁құралының
▁ağladığını
▁gitmelisin
▁principles
▁süreceğini
▁öneriyorum
▁айналымына
▁гидрофобты
▁жүктеменің
▁келісіміне
▁критикалық
▁көтеріледі
▁мүліктерді
▁мәлімдеген
▁объектісін
▁орналасуын
▁психикалық
▁табылатыны
▁болдырмауға
▁делегацияны
▁кандидаттар
▁мекемелерге
▁мекендердің
▁оператордың
▁орталығынан
▁оқушыларына
▁потенциалын
▁толықтырғыш
▁экспортының
▁қолданғанда
▁құрастыруға
▁өзендерінің
▁балабақшаның
▁елбасымыздың
▁кеңістігінің
▁механизмінің
▁тәсілдерінің
▁эквивалентті
▁электрокарди
▁қызметіндегі
▁құрылғыларын
▁өнеркәсібіне
▁өсімдіктерді
▁бөлімшелердің
▁студенттермен
▁таныстырылымы
▁траекториясын
▁шаруашылықтың
▁әрекеттерінің
▁өндірісіндегі
▁геодинамикалық
▁серіктестерінің
▁қауіпсіздігінің
.-
=2
АА
АЗ
әқ
▁]
eal
eum
gyz
pan
pet
има
көп
нда
оды
рай
рис
эдр
▁-1
▁Ti
ases
tren
ukuk
альд
берг
етон
здік
олок
отан
пери
ғақт
ғышы
▁144
▁35-
▁5-7
▁Bağ
▁Fer
▁Kab
▁iii
▁mad
▁nit
▁teb
▁yel
▁Ген
▁Жаб
▁Сөй
▁азо
▁жің
▁лем
▁эйр
▁ізг
adoop
enden
veren
ахмет
делді
жайып
төмен
ғымен
үмкін
▁(12)
▁0,79
▁Kate
▁Port
▁biti
▁esti
▁even
▁ismi
▁mach
▁mahv
▁psik
▁Şüph
▁МОДЕ
▁Ради
▁гөрі
▁инсу
▁канц
▁келі
▁соны
▁сүзу
▁әлім
▁Өнім
elerde
taları
tively
байұлы
дастыр
имидті
компон
роцесс
ісімен
қимылы
▁Annen
▁Değiş
▁Güney
▁diyet
▁ensur
▁fully
▁harit
▁katil
▁kazak
▁north
▁prosp
▁sırrı
▁takıl
▁tutul
▁yemez
▁yılın
▁çizgi
▁öksür
▁üstün
▁МЕМСТ
▁аулау
▁ауруы
▁бөлше
▁етіне
▁жарма
▁кесіп
▁кросс
▁көшуі
▁резер
▁рельс
▁суыту
▁тікұш
▁фирма
▁қайшы
▁қанық
industr
бетонды
ониялық
техника
ымызбен
▁Tartış
▁battan
▁combat
▁compet
▁doğdum
▁düşkün
▁gelene
▁günler
▁mesajı
▁müşter
▁repair
▁stable
▁values
▁Önemli
▁Объект
▁аргент
▁ауысым
▁болаша
▁біржол
▁достар
▁еріген
▁жіктел
▁иондар
▁контен
▁кіріст
▁меморг
▁мышьяк
▁мүгеде
▁соттар
▁түсіне
▁шапшаң
▁қалуда
▁қанығу
▁ұшырау
▁Okuldan
▁chamber
▁doktora
▁gününde
▁güzeldi
▁katlana
▁legisla
▁receive
▁related
▁respect
▁sağlığı
▁sonsuza
▁suçlama
▁tutuyor
▁zamanın
▁аударым
▁бульдоз
▁бәрінен
▁бөлімше
▁диоксид
▁драйвер
▁жіберіп
▁отыруға
▁пакетін
▁сигналы
▁суретші
▁сұрыпты
▁табысын
▁химиясы
▁қалғаны
▁өсуімен
eyeceksin
rehensive
әрекеттік
▁gelmeden
▁görmedik
▁kapısını
▁kaçırdım
▁konuşama
▁olasılık
▁tutuklan
▁veterans
▁Компания
▁атқаруға
▁ауылдағы
▁болмасын
▁біріңғай
▁бұйымның
▁жансейіт
▁жағалауы
▁көбейген
▁сарыағаш
▁туындауы
▁қателігі
▁қышқылын
▁әлеуетке
шаруашылық
▁2010-2014
▁2016-2019
▁institute
▁supported
▁Оптикалық
▁бағаларын
▁даярлығын
▁желдеткіш
▁жиналатын
▁жолағының
▁зерттедік
▁идеяларын
▁иондардың
▁кеңейтуді
▁концепция
▁курстарын
▁кәмелетке
▁мамырында
▁процессін
▁ресейдегі
▁сабақтаст
▁топтамасы
▁трансферт
▁konuşurken
▁аяқталатын
▁бұйымдарын
▁жалғасатын
▁жарнамалық
▁жеткізілім
▁индикаторы
▁кеңістікке
▁көтермелеу
▁медицинада
▁рационалды
▁тармақтары
▁телефондар
▁учаскелері
▁шақырымдық
▁қоспағанда
▁үкіметтері
▁өзгеруінің
▁өзендердің
▁arkadaşının
▁birbirimize
▁enforcement
▁etmeyeceğim
▁жүйелердегі
▁орнықтылығы
▁павильонның
▁толтырылған
▁турбулентті
▁туристердің
▁туындыларын
▁формулалары
▁қуаттылығын
▁associations
▁presidential
▁Экономикалық
▁бухгалтерлік
▁ведомстволық
▁геофизикалық
▁конфигурация
▁насихаттауға
▁тақырыптарды
▁толқындардың
▁финляндияның
▁хабарламалар
▁энергиясымен
▁қалыптасатын
▁әдебиеттерде
▁жолаушылардың
▁классификация
▁уағдаластыққа
▁үйлестірілген
▁бастамаларының
▁ықпалдастықтың
▁söyleyebilirsin
▁кәсіпкерлерінің
▁республикасынан
-(
93
].
АБ
-16
SiO
biy
kab
lit
ugu
üyü
дик
ейх
маг
рег
цид
▁FB
▁fa
▁Фр
▁жө
▁цз
▁ҚО
apan
larm
odar
vers
ülük
адыр
айыр
бері
лыпт
овка
отор
поль
псих
серу
▁16-
▁17-
▁18-
▁Kir
▁Luk
▁Tem
▁nom
▁pap
▁sov
▁vef
▁İsa
▁Кат
▁Тұз
▁акц
▁бұн
▁екп
▁жуу
▁лак
▁мжс
▁тжм
heres
ildim
imdir
анықт
білік
көмір
оскоп
қанда
▁800-
▁Alış
▁Orta
▁Otuz
▁agro
▁arch
▁duya
▁enti
▁epey
▁fair
▁hall
▁mill
▁star
▁öpüş
▁БІЛІ
▁ацет
▁сына
▁эстр
▁этил
encere
ilmesi
mazlar
sından
ğinizi
ділігі
екбаев
сыздық
▁beden
▁bekar
▁büyül
▁dergi
▁fight
▁içtim
▁işlem
▁koşul
▁march
▁sport
▁while
▁şeyle
▁арқау
▁аққыш
▁жаман
▁манда
▁панел
▁поляр
▁фитос
▁шойын
▁эксит
▁қырық
▁өзегі
▁өртке
amazsın
biliyor
дігінде
онометр
терінен
ілуінің
▁Pekala
▁dahaki
▁dinler
▁duvara
▁ederiz
▁formed
▁founda
▁geldik
▁karnın
▁kişiyi
▁online
▁sefere
▁termin
▁ölçüde
▁Şemsiy
▁Кәсіби
▁балқаш
▁береке
▁даңғыл
▁индекс
▁капсул
▁көпбал
▁момент
▁ниетін
▁оқудан
▁реттел
▁түстік
▁фотокө
▁қауымы
▁қоятын
eyefendi
ежүзілік
еттеріне
оссертал
оңтүстік
▁climate
▁düşürdü
▁fırsatı
▁genelde
▁kalması
▁mission
[...]
