<blank>
<s>
</s>
▁b
ar
en
in
an
ir
er
or
▁T
▁k
om
un
▁Tom
▁s
▁y
▁g
ın
▁o
▁d
ma
▁i
yor
▁B
di
me
il
▁bir
la
dı
im
da
le
▁h
▁a
▁O
▁ya
▁e
ek
lar
▁v
um
▁m
ün
▁ç
ak
de
▁t
lı
st
▁ol
du
iyor
▁ka
iz
ya
ce
on
tı
▁yap
▁S
▁n
ok
▁ş
ey
unu
li
am
▁M
ım
▁de
ur
ız
ti
▁iç
▁On
ler
▁ö
ye
ini
▁sö
den
▁on
▁ist
yle
ını
▁z
▁gö
▁Mar
ah
▁için
▁Mary
▁ge
▁gi
ca
ır
▁Bu
at
ab
mak
▁ne
▁oldu
mek
▁değ
ana
▁söyle
et
yi
▁p
sin
▁Ben
ıyor
▁et
ür
▁bil
▁var
▁çok
▁değil
ka
dan
▁K
▁mi
▁şey
▁gör
az
▁ger
aş
as
▁ve
▁bu
▁H
üz
ıl
ında
üş
▁olduğ
si
▁A
ık
dım
lan
iyorum
üyor
▁ar
em
diğ
ta
▁f
▁mu
▁ben
sun
▁ha
uş
alı
▁se
bil
yı
uz
cağ
dir
el
aha
▁sa
dü
▁ver
▁düş
▁kon
iş
▁kad
dim
ceğ
iç
te
aman
ış
▁N
▁Bir
▁al
▁iyi
uy
maya
ul
cak
▁Y
▁zaman
ra
▁kadar
▁daha
▁düşün
▁git
▁D
▁olduğunu
ki
▁yar
▁onu
sın
ik
▁baş
▁İ
dır
ğr
▁G
ük
eni
nin
▁her
▁kar
se
dığ
▁ola
üm
ura
ları
▁gel
▁olma
bilir
cek
enin
▁konuş
▁an
ol
ten
▁iste
▁Onun
sa
uk
▁sev
alış
▁ön
▁ev
▁mı
orun
meye
▁çalış
ere
▁gerek
it
▁E
▁bunu
▁Ne
ına
▁söyledi
▁in
▁yapma
üt
▁yok
▁son
▁ye
uyor
lik
▁bana
▁Onlar
len
▁hiç
▁Onu
çek
ara
ine
es
▁yaş
▁L
bi
sı
▁r
diyor
▁Biz
▁F
▁hak
▁ay
▁görün
▁gün
▁yaptı
ıyorum
tir
▁onun
▁da
▁geç
▁iş
▁yardım
kında
sız
san
dece
▁kal
urada
ami
mem
▁P
tu
leri
eceğ
dum
▁Sami
▁Ç
▁en
diğini
mam
ost
çekten
▁zorun
cı
▁zorunda
erk
oş
▁benim
▁etti
üç
üy
abil
▁kim
▁te
is
ran
ark
ap
▁misin
▁do
miyor
al
▁sür
man
asıl
cağım
▁Bunu
▁gibi
der
▁öğr
▁hakkında
din
ut
▁tek
▁istiyorum
ay
gi
eri
dığını
▁Sen
medi
ci
▁iz
tır
▁biz
▁sor
▁tan
oston
▁Boston
imiz
oc
▁Ş
▁ok
ül
▁nasıl
gün
imi
cağını
▁ke
▁bul
▁ken
▁musun
ği
▁düşünüyor
▁görünüyor
▁aç
▁önce
▁biliyor
imdi
▁uy
▁il
kada
mez
lu
tan
▁yapmak
ağ
ından
▁kö
▁çık
kadaş
gil
bir
▁anla
▁gerçekten
▁ediyor
▁yapa
▁ko
arı
▁burada
▁bek
▁ma
ladı
eye
erede
unun
▁ede
▁ile
▁uz
▁istiyor
▁öl
▁dö
meli
▁or
ip
inde
▁ih
▁neden
▁büy
ğini
▁senin
lık
▁J
iye
tü
▁kız
maz
ocuk
▁sadece
▁arkadaş
lıyor
min
▁yer
meyi
eş
ların
▁"
aba
mayı
fen
▁beni
▁as
ev
azla
sını
▁yıl
ika
ça
▁yüz
laş
▁ona
▁ihti
yim
▁ot
▁duy
ırım
dur
▁fazla
▁oy
▁par
▁me
▁şeyi
▁ama
▁Fran
▁Sa
ütfen
▁sonra
▁öğren
▁yaz
larak
düğ
▁ki
ydı
▁Neden
mış
▁sana
inden
oğ
▁ihtiya
▁olarak
▁bak
▁nerede
▁sık
▁kiş
ke
ası
madı
▁biraz
▁büyük
▁san
▁kap
abilir
sini
tık
tim
ep
▁Fransız
▁istem
yım
aya
▁ak
dın
▁üz
▁el
lâ
▁söy
▁Bana
▁San
▁kaz
▁u
▁kor
âlâ
mıyorum
▁İn
▁yan
malı
▁üç
▁ta
▁dur
▁gece
dam
ene
▁insan
üzel
▁Fransızca
tım
şı
▁c
▁Ö
dür
op
▁emin
angi
ütün
ırak
▁Senin
▁dön
miyorum
▁olacak
yon
▁Sanırım
düm
▁Her
▁kay
▁asla
medim
▁izin
▁bırak
▁Benim
larını
▁Ley
▁iki
▁Leyla
▁gitti
▁kişi
ımız
▁har
▁hoş
ğı
▁ce
▁olur
▁oku
iler
▁geri
▁çocuk
fta
siz
▁saat
una
ünü
▁mut
▁haya
▁Ona
▁his
ydi
men
ken
▁kul
▁ala
▁kaç
▁etmek
▁gü
na
▁erk
▁tak
▁su
▁verdi
▁bekle
▁Lütfen
▁zor
sine
▁dış
inin
▁yeme
▁Hiç
▁sah
▁olmak
ımı
ecek
lerini
miş
rar
▁adam
▁inan
iniz
▁Ar
▁yak
▁bo
▁bilmiyor
▁şimdi
va
▁olduk
▁güzel
▁eder
▁para
ceğim
▁kork
▁C
likle
▁U
lış
▁vardı
hte
▁ağ
▁göz
▁kur
eki
▁karşı
yız
▁Sana
▁hâlâ
iy
diği
▁sat
lü
ğını
▁biri
▁Sadece
unuz
likte
▁hiçbir
▁gen
▁ara
▁doğr
▁dil
tiğini
▁yeni
▁plan
▁biliyorum
▁gitmek
▁seni
hteme
▁ister
set
▁gerekiyor
▁um
▁aldı
▁ihtiyac
▁süre
▁kullan
▁bit
▁gide
▁Çok
▁hafta
ven
ada
▁yol
lüyor
dil
lara
▁uzun
htemelen
sına
▁değilim
▁tut
▁Dün
▁Bunun
▁kendi
ne
eceğini
▁başka
▁Ge
▁R
▁fark
▁yemek
ması
▁be
▁doğru
▁ilgil
▁dün
ve
▁karar
mıyor
▁fik
laya
▁gele
▁tekrar
▁Yar
eyi
▁sever
ının
▁Şimdi
▁araba
▁yağ
tap
▁açık
ğer
▁kötü
▁birlikte
▁oldukça
▁Ger
▁gir
▁kayb
deş
aret
▁yet
▁öz
diğim
▁ayr
▁söylüyor
kaç
müyor
nı
ör
▁sorun
▁sab
▁kır
unda
▁haz
mesini
ans
ret
çe
▁ediyorum
▁kı
▁söz
▁mer
arım
üp
eli
▁oda
▁şek
▁istedi
▁bile
us
▁tara
▁değildi
▁hoşlan
let
▁dav
lay
▁Burada
▁at
madım
▁An
▁olan
▁yaşa
tal
▁kab
▁eve
ro
azı
▁kardeş
▁eğ
▁olabilir
▁hat
▁söyleye
▁Bugün
▁geçir
▁çek
kan
öyle
re
umu
▁değiş
▁geldi
▁öğret
ızı
nız
▁kazan
▁olmadığını
▁muhtemelen
arkı
▁taraf
▁ik
▁dik
▁olmalı
▁yapmaya
▁der
▁gerektiğini
▁bize
▁Seni
şam
ot
▁siz
▁hem
▁Ha
▁güven
▁Siz
▁kitap
uyorum
ceğini
mesi
▁din
▁hast
▁İngil
▁yapıyor
▁unu
hangi
undan
kat
▁tar
▁az
▁aynı
▁hazır
gin
nın
▁yür
abı
yse
▁bizim
▁öde
▁hep
mediğini
üst
oli
▁göst
▁aş
▁otur
enüz
▁konu
▁üzer
▁satın
▁yal
▁top
tür
sunuz
ğle
▁orada
duğ
▁unut
isi
▁mü
yiz
▁Ü
▁şarkı
▁kala
▁sahip
▁mutlu
if
▁tele
▁kimse
▁merak
▁bah
diş
mayacak
▁istemiyorum
eceğim
tın
ebilir
▁tam
ıldı
▁istemiyor
lama
▁bugün
▁miyim
▁sen
up
▁sak
yan
▁bütün
▁İngiliz
▁giy
öz
▁edil
▁olduğu
▁köp
▁Gerçekten
oh
▁re
▁çalışıyor
aten
▁Ken
▁düşünüyorum
▁hatır
abam
▁dışarı
üçük
gun
raf
▁koy
▁Daha
▁önem
▁Baş
▁yalnız
gul
▁İş
mi
▁es
fon
▁mısın
▁kez
dun
▁birkaç
dde
liyor
çok
lır
ede
uraya
azar
▁doğ
▁Herk
▁nedir
▁dev
▁2
▁si
ilde
lim
dün
▁bilmiyorum
▁çalıştı
▁kah
asında
tik
▁yoktu
ob
▁sır
anı
▁meş
▁Kim
▁Onların
▁bağ
ptal
▁yapar
leş
▁dikkat
▁içinde
▁hisset
▁nef
masını
▁olacağını
▁1
▁çıkar
deki
▁Beni
▁Z
siye
▁kabul
tar
ver
▁boy
gın
▁onunla
ile
tr
▁başladı
▁meşgul
eh
▁Ev
▁tarafından
▁etmeye
▁göster
▁suç
▁artık
düğünü
▁den
▁öldür
▁hız
diğin
▁gidiyor
ge
▁getir
▁sabah
▁akşam
▁öğle
▁yapmayı
yla
▁erkek
sen
▁ilk
iyaret
▁yemeği
."
vaş
ledi
▁endiş
ünde
▁düşündüm
▁cev
▁şekilde
▁evde
üs
▁sanmıyorum
▁sağ
▁İngilizce
▁ter
▁değildir
lığ
▁tamam
daki
▁bitir
üph
cu
▁Onunla
mur
▁Joh
▁yaşıyor
▁ziyaret
▁Bütün
muş
apon
edi
▁John
▁bunun
▁almak
dık
▁çal
▁Yarın
▁konuşmak
▁Japon
▁seç
lardan
▁En
▁şaş
▁gül
▁Al
▁ek
tesi
▁taş
alık
▁kolay
▁kaybet
tin
ayı
▁küçük
asını
af
cağız
▁yeter
▁yapmam
▁yaptığını
▁istediğini
▁önemli
▁tem
▁söyledim
▁dak
▁Bel
▁herhangi
be
tur
▁dok
▁görmek
uğ
▁kapı
ellikle
▁teş
▁l
▁Fa
▁arab
▁zaten
anın
▁ses
▁kend
▁yapabil
▁Am
landı
meyecek
siniz
▁katı
kür
▁nefret
lerin
▁devam
▁erken
▁gön
▁tav
yet
dik
▁Herkes
▁davran
ahat
larım
ince
▁görünüyordu
▁ra
fa
▁tanış
nun
tış
▁sı
▁telefon
▁bin
▁yalan
lak
ekkür
▁seviyor
tak
▁günü
ri
üc
▁Çocuk
▁tür
acak
▁hay
▁götür
▁tane
▁Keş
▁Son
▁evlen
çı
sinlikle
▁yanlış
▁Keşke
▁henüz
▁kit
▁yor
▁yiye
▁gerçek
▁Av
▁eski
▁hava
uyu
▁vardır
▁eminim
aç
▁etme
dığı
▁ihtiyacım
▁genç
▁seviyorum
▁gider
▁parti
lamak
▁mem
▁Belki
▁yük
▁buraya
ili
suz
▁söyleme
▁oyna
▁hisse
lıyorum
▁Onları
▁res
▁Biraz
?"
▁cevap
▁değiştir
▁neredeyse
▁aptal
▁rahat
elen
▁Ora
▁izle
▁şaşır
▁boş
▁tanı
▁okul
▁hızlı
▁oyn
▁eğlen
▁pro
ttı
ereye
imizi
▁göre
ıs
lım
▁dakika
▁teşekkür
▁tüm
bol
say
melisin
▁yapabilir
▁soru
umuz
▁işe
▁hayat
▁gördüm
▁çev
larla
▁yaptığ
tor
▁Eğer
manı
▁kaldı
yin
▁Yap
▁başına
▁ku
▁bazı
▁ilgilen
▁bab
▁bula
▁aldım
▁uzak
ddi
ren
▁ettim
30
▁alt
nem
▁ederim
▁Geç
ste
sinde
▁yarın
▁görünmüyor
▁ça
▁Şu
▁V
sek
▁şeyler
▁yapacak
▁Kö
▁alış
olis
▁ayak
▁yara
▁Dan
▁ad
▁piş
diğimi
larına
▁birçok
▁olduğumu
cağımı
▁bilgi
▁söylemek
▁Bil
▁zorundayım
unca
▁benz
▁öp
▁ilgili
▁fikir
▁olmaya
▁mek
duk
▁ül
lantı
▁seninle
▁fil
dığım
▁temiz
▁lütfen
▁uyu
asyon
laşık
▁tamamen
▁ihtiyacı
▁şans
ildi
üne
▁bizi
▁sını
▁görüş
larda
▁geliyor
▁böyle
▁yaşında
▁anda
▁İnsan
▁harika
▁gerekir
lere
▁koş
düğüm
▁misiniz
aber
▁fak
▁müz
▁gitme
ba
▁birbir
yo
▁kil
▁beri
▁yakın
▁üzerinde
▁hayal
van
▁As
▁memnun
bilirim
can
▁ser
▁yaka
▁soğ
▁üst
▁uç
iya
▁ci
▁hemen
meni
▁öldü
▁dinle
dıl
▁teh
▁Bizim
▁Fadıl
▁istedim
▁ün
▁kadın
▁başarı
▁Artık
▁Onlara
▁kesinlikle
▁tat
▁bulun
▁gelecek
memiz
▁hissediyor
▁ikna
malısın
ola
▁gönder
▁yapacağını
azartesi
enc
▁Hep
tum
▁Kar
imde
▁mektu
▁yaptım
ral
▁kims
ağı
▁yürü
▁benden
▁şüph
▁dol
uyordu
▁üzgün
lerine
▁Kız
▁benimle
yın
▁bilmek
▁Par
▁oyun
▁yerde
▁kendini
▁Ok
sinin
▁çıktı
▁bekliyor
arda
▁anne
▁onları
tıyor
av
▁fır
ınız
▁sonu
▁şu
▁nereye
eğ
▁kat
▁hata
gı
▁Bence
▁yağmur
▁oğ
▁insanlar
sında
yen
▁İs
▁güç
iğer
ket
▁genellikle
ekli
▁konuda
ehir
▁eş
▁bel
▁sar
tuğ
▁sal
ıyordu
kes
liş
alım
▁ayrıl
▁farklı
oy
▁li
ant
▁dair
eyn
▁yardımcı
gu
▁Başka
lük
ddet
▁işi
tiş
yah
lerim
▁kalk
▁terk
▁ondan
za
▁tartış
bileceğ
bileceğini
▁kom
ust
mekten
▁Ameri
▁dene
ıka
lecek
ön
▁Yeni
ıma
▁Amerika
▁Um
▁yapması
▁beş
lam
▁oraya
ih
▁fikr
▁yaşlı
▁kam
▁baktı
sam
▁bas
▁boyunca
▁vur
▁gereken
▁çöz
▁du
▁kısa
▁geçen
lem
▁Er
▁İyi
▁tavsiye
ist
▁kimin
lerden
▁okula
▁severim
▁soğuk
luk
usu
maktan
▁yoksa
uh
▁başla
os
▁düşünüyorsun
ıla
gara
engin
cih
▁Hâlâ
▁yere
▁öner
ıcı
▁kol
▁sordu
mamız
▁yorgun
▁herkes
ter
▁birini
▁olacağım
ane
isik
umda
▁tercih
rak
▁düşündüğünü
▁yüzden
trol
▁Bay
▁dünya
▁konuşma
lek
▁Nerede
▁sıcak
mel
ac
sem
▁olduğuna
por
memi
meden
▁Ay
▁ban
▁verdim
▁hasta
▁biliyordu
▁konuşur
▁etk
▁gördü
▁öğleden
arak
▁sin
00
▁öyle
▁kitabı
▁sürü
▁katıl
▁mak
▁Haya
tiler
▁kontrol
luy
kün
▁Geçen
manın
▁tehlik
▁musunuz
cil
▁gelir
▁kapat
▁pat
ısı
▁kardeşim
▁arkadaşım
▁düz
madığını
lerde
▁arkadaşı
▁ıs
▁Öğr
▁kan
▁can
▁duydum
▁zorundayız
ümüz
▁Babam
lında
▁Kon
▁say
madan
▁yüksek
▁Ak
▁kahve
▁El
fi
▁dere
▁arasında
tiğ
sel
▁Te
ocuğ
▁yedi
▁Umarım
▁çevir
▁hal
▁öğrenci
bilirsin
ıp
▁zamanı
▁öğretmen
▁hav
▁saç
için
ydım
mesine
▁haber
▁konuşuyor
ete
▁hap
▁hika
öl
▁mah
iyorsun
▁durdur
▁Seninle
▁Avust
▁rahatsız
lığı
acağım
tığ
▁ülke
▁tah
ıyorsun
▁derece
▁Hem
kin
▁Alman
▁fakat
▁hatırla
▁sil
masına
amıyorum
▁Japonya
▁olmadan
dünç
ga
▁ciddi
▁Bazı
▁Ön
çeği
▁hangi
▁bizimle
30'
▁değilsin
eyim
ekler
▁aile
▁olduğundan
▁er
meyeceğim
▁hala
▁uyan
larının
asına
ğa
▁onlara
▁zengin
▁karış
amı
teş
▁is
▁bisik
▁vak
obüs
▁endişeli
▁doktor
▁Hiçbir
umar
esini
▁buluş
▁sizin
ralya
var
▁pişir
▁bahset
▁muy
▁biliyordum
▁kendim
lana
▁kes
▁ödünç
▁Avustralya
layı
▁yapıl
▁olup
üğ
▁Polis
▁düşünmüyor
▁Üç
▁alır
meliyim
uma
iver
▁hedi
iyet
▁elbi
ümle
▁vaz
▁çoğ
▁düşündü
cele
▁Büy
▁yeterince
sunda
▁edildi
▁yapmasını
çi
▁zar
larından
▁bıraktı
▁görünüyorsun
ff
▁herke
iyordu
▁bilmiyordum
▁ba
iversi
▁otuz
▁Yak
▁Köp
lığına
▁kırık
▁dikkatli
▁diğer
▁yaklaşık
▁sessiz
bev
eket
▁köpek
▁davet
▁karşılaş
▁kir
kın
▁yön
▁istemedi
azen
mıştı
kü
ang
▁gez
▁değer
▁zorundasın
ünden
▁edecek
ift
ginç
▁yakında
▁söylediğini
▁kızgın
▁söylen
oz
izi
▁yiyecek
ımda
beveyn
▁şeyin
▁çalışmak
▁2.
ilen
ümkün
sinden
▁balık
bar
▁im
▁akıl
ez
uldu
elim
▁verme
val
▁Gün
geç
mamı
son
▁mesa
▁hissediyorum
ceğiz
erken
▁Git
▁yapmalı
vi
met
▁edi
▁İki
lidir
▁çocuğ
▁etmeyi
▁arka
liği
▁olmayacak
▁film
▁umuyorum
viz
▁Ka
▁size
▁kapıyı
▁uyk
▁içeri
▁av
▁Es
▁yapacağım
▁çiç
▁keli
lüğ
▁Hava
▁kaçır
▁Tüm
dığımı
▁koydu
▁söylemedi
▁çar
ükem
▁kıs
▁sayı
▁altında
▁edebilir
▁hediye
sal
▁Tek
ereden
▁biliyorsun
▁mil
▁uğ
▁giz
▁ikisi
▁Gelecek
▁Kap
▁Nasıl
▁çalışıyorum
▁Büyük
▁toplantı
▁hepsi
rı
inizi
lıdır
▁nedeni
▁Kimse
ükemmel
▁söylediği
▁Orada
▁ilginç
▁açtı
meliyiz
▁İl
▁Bize
▁park
▁pazartesi
eydi
duğunu
▁bilgisay
irket
▁yaptın
▁ihtiyacımız
kabı
vizyon
▁Gen
ladım
ğen
▁Henüz
▁aldın
rt
▁alabilir
▁Hangi
▁gittim
▁savaş
mal
▁gar
▁man
liğ
ork
lamaya
▁gerçeği
▁istiyorsun
ıntı
▁bor
ban
▁Uz
▁öğrenmek
▁vermek
▁çalışır
▁buldu
ınav
muyor
meyeceğini
▁boz
▁olsa
ilik
▁Yan
▁kaf
▁kedi
larımız
▁söyler
▁konuşabilir
lardı
▁umur
▁silah
▁sinir
▁yemeğ
▁etmedi
▁eğlence
▁evi
▁sek
▁yeterli
ırsız
mazsın
tıcı
▁bilmiyordu
▁yum
memiş
miyorsun
leye
▁harca
▁onların
erek
▁onlar
▁sigara
mızı
▁iyidir
▁Birçok
▁süredir
▁diye
▁Hepimiz
ydim
▁Annem
▁oldum
▁hayvan
malıyız
▁orta
▁cümle
▁çıkardı
vet
▁planlıyor
▁Yaş
▁yetiş
▁anlat
▁şehir
▁istediğim
eği
▁kas
▁sahi
▁mektup
rup
düğü
ışık
▁2.30'
▁olması
▁vazgeç
▁ağr
▁pah
▁sınıf
▁takım
▁beğen
▁böl
▁dans
▁oluyor
▁mükemmel
▁söyledin
yahat
▁döndü
▁yaptığı
▁anlaya
▁istediği
▁İnsanlar
▁Biri
▁hikaye
▁şiş
caksın
▁görmedim
▁dolar
▁yapmasına
aka
tadır
▁penc
▁şeye
▁Herhangi
▁Ot
▁ada
▁ulaş
▁özel
▁verir
▁elbise
▁kuş
▁Bun
▁uğra
müş
▁Erk
▁konusunda
ron
▁ateş
diğine
mayacağım
enis
oel
▁yen
▁hareket
▁ihtiyacın
▁Dünya
▁doğum
▁Böyle
kı
▁tır
oğraf
▁bilir
yken
▁Saat
larımı
▁ödev
▁reddet
iyat
uradan
▁acı
lıydı
▁sorum
▁istasyon
▁dört
▁mümkün
▁iy
▁sorunu
leme
▁Kah
pr
bu
cağına
▁ür
mayın
▁anlam
mayacağını
hoş
▁mo
▁Üz
asının
mezsin
▁olmasını
iğ
iyan
▁yürüy
▁ölüm
menin
diğinden
▁Tan
▁uğr
▁ettiğ
▁istey
▁yanında
inci
▁güçlü
▁biç
▁poli
▁geçirdi
▁anah
▁çift
▁yavaş
stor
valtı
▁Kana
otoğraf
▁Arkadaş
fer
▁kok
▁Birkaç
ize
▁özür
▁planla
sik
▁attı
▁kaybetti
çak
ina
▁yatak
▁Tat
▁altı
▁pahalı
▁edin
eyecan
ser
ardı
▁mal
▁kurtar
▁ayakkabı
▁Neredeyse
▁dışında
urt
▁20
▁Noel
▁Yardım
▁olurdu
▁yerine
lerinden
▁eğit
sından
ydin
▁ana
liyorum
eyz
luğ
▁içki
lerinin
▁sonunda
▁müzik
lif
▁mas
dırdı
leştir
▁bildir
▁zamanında
ışı
▁yaşamak
▁bekleye
▁Yağ
▁Okul
▁masa
▁mesaj
▁yaptık
▁ca
▁barda
▁gördün
anede
yaz
▁araya
▁resim
▁girdi
▁olmaz
▁ayrıldı
tif
▁ağır
▁anlaş
larında
▁akıllı
▁inc
pan
▁Mu
▁gelen
cağından
▁seyahat
▁şimdiye
ram
▁la
▁teşekkürler
▁ces
▁dolayı
▁görüyor
▁ettiğini
▁yapabileceğ
tıl
▁yolu
▁miyiz
▁üniversi
▁durdu
net
▁adını
▁dışarıda
per
▁kardeşi
bek
emi
▁ber
▁itir
▁restor
ılır
▁Eve
▁gaz
▁heyecan
▁kelime
▁içer
lıkla
▁endişelen
▁ren
▁düzen
▁bisiklet
▁istemediğini
▁pek
▁sarhoş
anda
▁olursa
▁ut
arap
▁yanı
▁tanım
▁kalmak
▁gördüğüm
▁sevmiyorum
▁yat
▁Erkek
▁yaban
▁Tele
▁tenis
diğinde
▁Kanada
art
şık
fade
ürül
urur
sidir
▁ders
▁far
▁büyü
▁gülüm
▁oturdu
▁gitmeyi
▁istemedim
▁Gör
▁isteme
▁otobüs
▁olduğum
ındı
▁göm
▁mey
▁tehlikeli
tuk
▁rom
▁Ondan
malıyım
ileri
▁görev
sının
▁kırıklığına
▁şi
uluk
▁İlk
▁şap
▁kazana
▁yıldır
ici
▁ifade
isini
▁bildiğini
▁Top
veriş
▁zarar
ulu
▁İç
ciler
dığın
▁Su
▁rağ
▁İst
▁Sizin
▁geçti
▁yapmaktan
▁buna
▁tab
▁önünde
▁fotoğraf
▁ör
▁yıka
▁edeceğim
▁Lin
▁adı
▁geliş
▁rağmen
▁yaptır
▁bilgisayar
▁Benimle
▁eğlenceli
▁istiyoruz
▁kaldım
▁televizyon
ica
▁Dev
adir
bat
▁evli
▁mutluy
eti
▁tren
▁bundan
▁konuşa
▁Buraya
ümüzdeki
▁mağ
▁çab
ru
ide
unç
▁vere
▁sınav
sak
▁Be
▁Dok
▁Öğret
▁ila
▁aptalca
sta
▁uygun
▁Yağmur
cü
eyin
▁kut
üldü
▁olmayı
▁görmeye
dal
ılmış
ceğimi
▁Kendi
▁Kaç
aneye
▁Araba
▁tamir
lat
sti
▁güneş
▁yaşam
▁alıyor
▁koru
▁Oraya
▁tanıyor
akta
▁şirket
ırı
ırdı
▁demek
▁haklı
▁Kendim
▁Ke
▁istiyordu
▁Har
▁bahçe
▁fin
imize
▁durum
▁çarp
urta
▁Zaman
▁gurur
▁kav
▁borç
▁babası
▁haf
ürüst
▁tutuk
ha
uhaf
ınca
▁Çin
▁aşık
▁hatalı
▁Jac
▁diş
▁Hay
▁söylemeye
▁Göz
▁sok
▁Onlarla
▁yine
dığından
▁değildim
▁gideceğim
lum
▁alacağım
utbol
emek
landır
lerimi
▁garip
▁almaya
ic
▁teklif
▁kırmızı
▁dal
▁Üzgün
▁değiliz
ji
lemek
▁babam
ücü
▁seb
hal
▁bı
alan
arken
▁Jack
▁nadir
hir
▁bay
▁numar
▁üzgünüm
ula
cağı
▁Kaz
diniz
uştur
uyorsun
▁üzerine
▁reddetti
bet
▁kov
▁ebeveyn
▁Aç
ayla
▁çiz
mişti
▁Söyle
▁senden
▁Muhtemelen
ümü
▁zev
▁Sorun
▁buldum
▁yapmaz
▁yoktur
▁söyleyebilir
▁Anne
▁adım
▁bulmak
▁ait
mıyorsun
ze
▁Kapı
▁sizi
şa
▁Uzun
▁etraf
▁konuştuğ
▁olduğumuz
▁çağ
▁Çocuklar
▁gittik
▁çalıştım
▁parça
▁gittiğini
▁kutu
▁Mer
▁Sor
attı
▁veril
▁şapka
▁yabancı
mana
▁Buna
▁elma
▁çocuklar
ydın
▁düştü
▁çiçek
▁TV
▁konuştu
▁konuşmaya
▁polis
▁yazdı
▁yürüyüş
ceği
▁sağlık
▁vermedi
▁yık
▁çay
▁zamanda
gar
sey
▁bira
▁aradı
▁arıyor
▁sevdiğini
▁geldim
▁ü
gan
▁iliş
ural
▁bun
▁olmalısın
▁dedi
▁biridir
sün
▁olmam
ağa
▁Ma
eter
▁kurt
lerle
▁spor
▁çaldı
▁Doktor
▁umuyor
▁döv
▁güv
▁Asla
▁kahvaltı
▁zevk
ütüph
▁yapmadı
▁konuşabil
▁ettin
▁gidecek
osta
▁köpeğ
▁saygı
▁le
▁Akşam
▁birine
▁okulda
▁Tok
▁parayı
▁süt
▁Der
▁deli
▁incit
▁nereden
▁tr
▁ünlü
▁aşağı
▁alışveriş
▁yapacağımı
▁inanamıyorum
▁Se
raki
▁şem
▁korkunç
uyla
madık
▁taşı
▁beyaz
▁şarap
▁gidiyorum
▁söyleyecek
zer
dığında
▁olmadı
ori
ünkü
lüm
olo
▁sıkı
▁unutma
▁zamanlarda
▁olmuş
▁kazandı
▁gösterdi
▁niçin
▁olsun
▁şanslı
▁başarısız
▁otel
lardır
diğimiz
▁kendine
▁boya
▁İşte
▁Linda
▁şeker
▁Öğretmen
imli
▁ağaç
▁roman
▁kimseye
imin
▁bar
imden
▁İste
▁biçimde
▁konuşmayı
▁Oda
eyzbol
▁görünmüyordu
▁gidelim
gel
medik
▁fikrim
ucu
yanın
▁alan
ikayet
▁gelmek
ilir
▁şan
eceğiz
▁tuhaf
▁dinlen
▁sayıda
▁sürede
▁hayatta
▁üc
fet
▁Tam
▁Gö
▁bes
▁don
▁Pazartesi
ber
▁Ol
▁tarz
esi
▁piyan
▁duyduğ
▁Yakında
▁unuttum
▁öf
▁kilit
▁geleni
▁tarih
▁itiraf
ileş
▁istediğin
▁Ek
tedir
dığına
▁başlaya
dev
tiği
miyordu
▁çocukları
▁Niçin
▁gelmedi
▁etmesini
ımızı
▁sonraki
▁başıma
▁anahtar
▁yapıyorsun
oto
▁gitmeye
▁günde
▁sakin
oe
▁tes
▁olamaz
▁yapmamız
▁aff
rafik
▁dest
▁gürül
▁tahmin
amam
▁Size
▁kendin
▁ail
▁soy
▁düşünce
anlık
▁kanı
iyoruz
▁kitab
▁tas
▁dolu
▁evine
ıyordum
▁gülümse
cık
ılmaz
▁kaybol
▁yeniden
▁pa
▁Tokyo
▁bazen
▁yapmamı
üler
▁mez
▁bekliyorum
lah
▁Avrup
▁belir
▁Oğ
▁cek
▁çıka
▁rica
▁yata
▁Üzgünüm
▁güvene
▁insanların
▁defa
▁ilgi
▁em
▁pop
▁duya
▁eden
mene
laştı
▁bitti
▁ettir
▁fincan
▁pişman
▁zordur
meliydim
▁Kork
▁komik
▁aslında
▁korkuyor
azik
oğun
▁bur
▁mağaz
▁takip
▁ediyordu
dar
▁Ara
mamış
▁Eski
▁düzel
▁sürdü
üf
yüz
▁köpeği
▁Para
▁sevin
▁yarar
▁anlamıyorum
▁Uy
emin
▁param
▁İspan
▁Ağ
sınız
▁Yüz
▁alacak
ort
▁ofi
▁sonuç
▁başkan
▁şüpheli
▁uyar
▁olası
▁dürüst
▁nadiren
dini
▁Hayat
▁acele
yol
▁Az
irim
lendir
▁geldiğini
aştır
▁kayı
▁prob
▁pazar
▁Düş
▁uyku
▁yaşadı
çası
▁engel
▁Ki
▁şeyim
▁alma
▁Or
▁tep
▁kilo
▁nazik
▁buradan
▁fikri
▁tu
▁Bek
▁destek
▁kasaba
viç
▁sıra
▁bardak
▁yapman
▁birinin
▁şikayet
▁benziyor
▁Konuş
▁arabasını
▁yaşıyorum
▁arkadaşları
iri
▁Do
▁pay
▁hakk
▁yeri
lo
▁Tren
▁Tanrı
▁yapabileceğini
ğın
ukat
mayız
▁mutf
▁umut
▁yapan
biliyor
▁söylemedim
▁Bur
▁Öğle
diğiniz
▁vereceğim
gür
uluğ
diler
▁dili
▁çeki
▁kalacak
▁şeyleri
dıma
▁ayrı
▁farkında
ale
ire
▁Oy
▁çant
▁vakit
▁ödeme
uydu
▁Dış
▁gitar
leriyle
▁hepimiz
▁şemsiye
▁üniversite
▁etmez
oğu
▁kalır
oeba
▁Mut
▁işini
▁Aslında
▁başarılı
▁Si
▁uc
aban
siyon
▁çıkmak
urum
▁harc
▁bilme
▁siyah
▁temizle
▁ris
▁anlama
▁Kendimi
ıyoruz
▁iyileş
▁parası
▁yürüdü
▁etmiyor
▁Aş
ayıf
enek
ünün
▁per
▁kapalı
▁ettiler
▁çalışma
▁hissetti
andı
▁Yal
▁çünkü
erik
▁duygu
▁ücret
▁doldur
▁Telefon
▁kaza
▁çö
▁Herke
▁Sonunda
▁arabası
atçı
erkez
▁Bazen
▁çekti
▁isteye
▁yumurta
▁yemeğini
dra
ayda
▁201
▁rapor
▁zeki
▁neler
▁Jackson
ker
▁Mas
▁renk
▁kibar
▁gerekli
▁popüler
▁am
▁Küçük
▁Parti
ört
▁İk
▁boğ
matik
▁İtal
▁kural
ate
diven
▁durumda
▁sabırsız
▁sol
balık
lerinde
▁güvenli
meyiz
siyle
▁dokun
▁geçin
▁okuya
▁futbol
▁istekli
▁şeh
▁yarı
▁Birisi
▁kendimi
▁yapıyorum
▁yay
▁fikirde
▁sevmiyor
▁duyuyorum
▁saldır
▁Tatoeba
▁sahiptir
▁nedeniyle
▁Sab
▁Yer
▁hapis
▁almayı
▁etkilen
▁Avrupa
▁yapıla
▁Almanya
▁kişidir
▁Rus
▁üye
▁kayn
▁ceket
fes
andev
▁inşa
alıyor
▁yarış
▁Yalnız
▁biliyoruz
lerce
▁Önce
▁Öyle
kinden
▁Bundan
▁bilmediğini
▁bilet
▁kamer
▁arabayı
▁geçirdim
▁Öz
gram
▁Söz
▁not
▁hatırlaya
▁Bizi
▁şaka
▁Güneş
▁kaldır
▁kütüph
▁çocuğu
▁mantık
▁odasında
▁çalışmaya
▁ayır
▁emek
▁taşın
ğin
▁mev
▁kalan
▁yiyor
▁yıldı
▁Dışarı
▁verecek
▁edeceğini
derken
biliriz
▁sıkıcı
▁beyzbol
▁dile
▁kızı
lanmış
▁adamı
▁sekiz
▁araştır
▁Kanadalı
ığ
mada
▁kaçtı
▁elinden
▁olmaktan
▁sırasında
▁verebilir
▁Savaş
▁merkez
eder
▁vurdu
▁yanıt
▁getirdi
▁Hat
▁alın
▁Zaten
▁okumak
▁uyuyor
oyu
▁Ya
▁öptü
▁ettik
▁anlattı
irin
▁Pro
▁zayıf
▁korkut
▁oynamak
▁yılında
taki
▁Bah
▁ülk
mezdi
▁Doğr
▁kağı
▁veya
▁çoğu
▁öğrenciler
oya
▁30
▁ceza
lamayı
▁deniz
▁tuttu
▁güvende
ert
mama
▁Sık
▁deney
▁duydu
▁oynuyor
pa
iden
▁Kedi
▁sert
▁gizli
larınız
▁izliyor
▁zamanım
ia
▁Ca
▁bık
▁komş
▁yedim
▁Birleş
▁kıskan
▁mısınız
yeyi
▁Hey
▁Yaz
▁olmayan
▁hoşlanır
id
ite
▁buz
▁ruh
▁sahibi
▁kapattı
▁Yol
medin
▁Sence
▁imkan
▁beklen
▁yalnızca
üya
▁Paris
▁basit
▁çabuk
▁Bunlar
alt
▁keş
lektr
▁edebil
gen
kar
▁Kom
▁Kötü
▁giyin
▁resmi
▁sahib
▁tatil
▁Devlet
▁isterim
▁mektubu
▁olmasına
▁etmedim
▁partiye
000
▁Mek
▁düğ
▁sandal
▁ihtiyaç
of
▁it
▁Pazar
▁Yemek
▁kanıt
▁görmez
▁bulundu
▁aşk
▁Park
▁bilin
▁karanlık
▁hissettim
▁inanıyorum
▁Lon
▁New
▁kra
▁çekici
emiyorum
▁kimsenin
tüm
▁mik
ormal
▁yurt
▁suçlu
▁verin
▁şeyden
▁şüphelen
▁arkadaşlar
▁hoşlanıyor
ılan
▁oynaya
▁inanıyor
▁olduğumuzu
▁Gel
▁içmek
▁Gerçek
▁yıldız
▁sevdiğim
▁kalacağım
dek
▁of
▁Güzel
▁yazar
▁zamanlar
▁bağır
▁bebek
▁Dik
▁dük
▁geleceğini
tika
▁izledi
▁sormak
▁alışkın
▁görmedi
▁onlarla
▁yaşadığını
tun
▁Pat
▁Sizi
üyorum
▁kulak
▁Çalış
▁avukat
▁tırman
▁uzakta
maktadır
▁olabileceğini
ime
▁Me
anta
lilik
▁ucuz
▁iptal
▁milyon
▁ez
ebil
▁Kur
▁zam
▁işim
▁yolc
▁kalem
uç
ates
▁bahse
lanıyor
▁ikinci
▁yardıma
leti
▁mavi
▁hafif
▁üstünde
▁tanıyorum
meme
lendi
▁iddi
▁sefer
▁Londra
▁Kı
▁dağ
▁Köpek
▁bıçak
▁fayda
▁yoğun
▁olduğunda
▁randev
▁yaşaya
▁önümüzdeki
zım
▁Den
▁verici
▁gönderdi
tre
ğım
▁kem
▁çor
tırdı
▁bilim
▁Amerikalı
!"
dviç
▁dah
▁mar
liye
▁aşırı
▁banka
▁hayır
▁gazete
▁makine
▁Birleşik
▁yapmadım
▁düşündüğüm
ıyla
▁nok
▁oğl
▁suyu
▁Almanca
▁ediyorsun
▁kaybettim
▁istediğimi
▁bağım
meliydi
▁evlendi
▁başlıyor
ipar
üzdan
▁koca
acağını
▁mutluyum
▁kr
▁Fil
▁Kal
larca
▁cadde
▁odada
▁Toplantı
▁beklemek
endi
leyi
dunuz
▁karı
ipariş
▁niyet
▁ortaya
ladığını
ni
▁Müz
liydi
▁şiddet
▁yatakta
ğe
▁sav
▁çıl
▁Adam
▁Geri
emiyor
▁ekmek
▁gitmem
▁sevmez
mini
▁Kay
▁kış
▁tuz
leyin
▁oğlu
olf
olon
▁Hak
▁kop
▁utan
▁kamyon
▁Şimdiye
▁olacağız
▁zamandır
▁pla
düğün
▁kapa
ceğine
▁çağır
▁annesi
▁seçene
▁3
▁he
▁ip
▁aya
madın
eceğimi
▁yaparım
▁İspanyol
▁arkasında
har
▁başar
▁filmi
▁arkadaşın
▁görebilir
▁söylemeyi
▁yapabilirim
erim
▁Tak
▁tük
▁piyano
▁verdin
▁gerekmiyor
ko
irmi
stik
▁kesin
layabilir
▁kullanabilir
▁üzere
▁şüphe
▁sorumlu
▁tur
ınızı
▁fiyat
▁meyve
▁odaya
▁paraya
▁yaptığımı
▁Kesinlikle
▁istemiyordu
▁söyleyeceğim
sat
kyüz
▁Yaşlı
▁tatlı
▁giderim
▁Birlikte
ton
vat
▁Bak
▁dan
▁süp
lüman
▁Açık
▁Japonca
▁günleri
▁sorunun
▁yapmanı
▁şarkıyı
ayan
▁Doğ
▁baba
▁etmem
▁varsa
▁Genellikle
yu
luluk
▁mıydı
▁sebep
▁gittiğ
▁hayran
▁muydun
▁sordum
omuz
▁Müs
▁gergin
▁dünyanın
▁olacaksın
▁has
dılar
▁imza
▁sona
▁imkansız
▁ah
aket
▁hiz
▁rast
lığını
▁ancak
muyorum
▁saniye
▁gitmesine
▁arasındaki
▁söylemedin
▁cina
▁lise
▁Esper
▁karısı
▁hatırlıyor
aydı
▁ışık
memizi
▁Diğer
mektedir
▁Ebeveyn
▁Ko
▁Rom
kiler
▁Allah
▁Yeter
▁ayında
▁hepsini
rin
▁doğdu
▁gürültü
▁öldürdü
▁Müslüman
▁Bilgi
▁Kitap
mıyoruz
▁teslim
amız
eyle
▁dost
▁banyo
▁evinde
▁duyuyor
▁yapamaz
▁arıyorum
▁yaşar
▁ikiniz
▁sandviç
▁etrafında
eb
ayet
▁derin
▁sürer
▁patron
▁kimseyi
▁Ve
▁Saç
▁nehir
▁özgür
▁Dikkat
▁berbat
▁takdir
▁yakaladı
▁idi
▁yasa
üb
onom
priz
rika
▁hayatım
▁Herkesin
üme
lemi
▁annem
▁mezun
▁okudu
layacak
▁Otobüs
▁arabam
▁sürekli
▁ödevini
bileceğimi
▁istiyorsan
meyin
▁York
▁korku
imizden
▁yapamam
biliyorum
▁sanıyordum
dip
▁dayan
▁önemlidir
su
uru
stan
üydü
▁planladığını
zet
tarı
tına
▁dönüş
▁görür
▁yazık
▁etmesi
▁yapılması
▁düşünmedim
ali
dyo
▁Ün
▁ham
ikola
▁isim
▁boylu
▁güldü
▁Esperant
▁gerekiyordu
ade
emiz
▁düşür
▁koştu
▁hayatı
▁cesaret
▁Ail
▁rüya
▁emekli
meliydin
▁anlıyorum
▁insanları
▁düşünüyordu
▁hissettiğini
▁Tür
▁Yat
▁otob
▁salon
▁işaret
▁göstere
▁sağlıklı
▁hatırlıyorum
tere
▁Sır
▁Tar
dukça
▁içti
▁Burası
▁benzer
▁değişik
▁herkese
bah
▁cez
▁sine
üyordu
▁budur
fe
go
maş
haba
▁Pek
▁Gece
▁Plan
▁niye
▁yönet
▁yakışık
ranç
üdür
▁Haz
▁Kit
▁sey
▁ağrı
▁oyunu
▁sesle
▁Kendini
▁sakınca
dit
sten
▁Ann
▁lez
▁kalma
▁orman
▁ailesi
▁hapish
▁paylaş
▁trafik
▁eşya
erikan
▁açıkça
▁kendisi
▁söyledik
▁yapmadığını
duğu
▁Sağ
▁ağz
▁Evde
▁Hadi
▁ilaç
enekli
▁Hemen
▁okuyor
▁kalıyor
▁okumayı
▁herkesin
▁sevindim
▁hastaneye
▁test
▁olsam
▁redde
eceksin
▁atıyor
▁düzelt
▁yaklaş
▁olduğun
▁babasının
▁Sak
▁ele
irler
▁Jane
▁bebe
▁boşa
▁öfke
▁Tekrar
▁ilişki
▁gelmesini
▁yaşındayken
ie
üle
eşit
üzgar
▁işten
▁Fransa
▁veriyorum
▁öğretmeni
saf
▁10
▁ödü
▁şok
yecek
▁Genç
▁hızla
▁olman
▁sürpriz
▁çalıştığını
▁yazı
▁giydi
asından
▁Oldukça
▁diz
▁neye
▁Benden
▁şişman
▁kalmayı
▁yapmanın
tör
▁2013
▁oluş
▁Tamam
larıyla
▁Kır
▁Kadın
▁affet
▁indir
▁çalar
▁pencere
▁yüzmeye
▁çalıyor
▁giderken
▁öldürüldü
indi
▁ince
▁okudum
▁bakıyor
▁Amerikan
▁umurumda
▁çalışmıyor
▁düşünüyordum
▁min
▁iddia
▁oynar
▁mutsuz
▁uyandır
▁gitmesini
ja
ydık
▁rek
▁sem
alığı
ereyi
▁istif
▁Senden
▁giyiyor
▁yetenekli
▁por
lukla
▁Sını
▁kira
▁Doğru
▁masum
▁derhal
▁götürdü
▁Onlardan
orm
ukarı
▁başv
▁uygu
saydım
▁Acele
▁endişe
▁sipariş
▁olduklarını
▁sevmediğini
ati
lığa
▁Ber
▁kül
▁Hayır
▁evini
▁kayıp
memiştim
▁anlıyor
▁iyisini
▁bal
▁program
▁görüyorum
▁heyecanlı
▁yemeğinden
uka
cade
dını
üstü
▁ata
▁giriş
ikolata
▁geçmiş
▁unuttu
▁okuldan
▁şarkıcı
▁konuşmam
▁mantıklı
▁saatlere
▁yetiştir
▁hatırlamıyorum
cam
▁kuz
▁giys
▁çala
▁canlı
▁yirmi
▁konuştum
stı
▁edile
▁uyuya
▁Sigara
▁gittin
▁etmeyecek
▁görmezden
ayım
ürüz
▁ann
▁adil
▁alda
▁dışı
▁istek
▁neyin
▁arabayla
▁onlardan
aberi
▁kart
▁Sabah
▁yüksel
▁korkmuş
▁oturuyor
▁hastanede
▁At
▁Pa
isel
▁Din
sanın
▁Köpeğ
▁gelme
▁normal
▁Buradan
▁yaralan
▁olmayacağını
lüğü
duğum
tığım
▁uçak
▁sınır
▁tasar
▁başlar
▁dondur
▁duymak
▁lezzet
▁sevimli
▁görmüyor
▁buradayım
▁inanılmaz
▁Af
amıyor
▁daire
▁tehdit
▁olsaydı
▁Esperanto
▁yapmayacağını
▁açı
▁tanıştı
▁davrandı
ğim
şem
▁aldık
lektrik
▁hizmet
▁Hayatım
▁sanırım
▁Buradaki
▁geldiğinde
Ben
mıştır
▁evden
▁nefes
abilirim
▁yatmaya
▁söylediğim
▁Ban
▁alk
anlar
ledim
▁proj
▁şişe
▁kolayca
▁Bilgisay
▁yakışıklı
▁kalacaksın
urdu
iktir
▁olun
▁çevr
▁giden
▁kalktı
▁yürüyüşe
▁yüzünden
▁sakıncası
Tom
yal
▁Ku
▁edemem
▁yerinde
üşe
▁güc
▁sam
▁Aynı
▁Hala
▁golf
▁sarı
▁elini
▁neydi
▁veriyor
▁özlüyor
▁öğrendim
erm
ima
▁bat
▁cep
▁azından
taj
▁Ch
ımın
▁dök
tuğunu
▁bulmaya
▁İspanyolca
▁Fransızcayı
iği
▁İslam
▁problem
▁söylendi
▁toplantıya
aze
lin
nek
redi
ğına
▁hariç
▁İçeri
▁uyanık
ceğinden
▁bekledi
▁hayatını
▁alay
▁evin
ihayet
lıktan
▁utang
▁çözüm
▁ayrıntı
▁kullanıyor
işan
▁ort
▁ışı
abiye
▁Evet
▁eğil
▁Hafta
▁almam
▁fakir
▁karma
▁Bizimle
▁karıştır
best
▁Bab
acağız
seydim
▁düşük
▁parmak
▁önerdi
▁gitmedi
▁sinirli
▁bıraktım
▁tanışmak
▁Penc
miyoruz
▁düşman
▁hırsız
▁almadım
▁aldığını
▁restoran
▁gideceğini
▁söylüyorsun
▁kek
▁ölç
▁Peki
▁yana
▁kırdı
▁durdura
▁oynamayı
▁hoşlanmıyorum
▁yu
izza
▁ağa
▁Kims
▁Yanlış
▁dersin
▁eğitim
▁kaldık
▁vermeye
▁Li
▁sebe
▁vide
düğünde
▁Kapıyı
▁fırsat
▁mücade
▁biriyle
öne
▁De
sanız
▁iler
▁sist
zersiz
▁dokuz
lerimiz
▁yetene
▁Öğrenc
▁gitmesi
▁Üniversi
▁İngiltere
bo
lattı
layın
▁ener
▁çoğun
gzersiz
▁kalmaya
▁kişinin
▁utangaç
▁sevdiğin
▁yaralandı
▁j
bel
ita
lili
▁Rob
langı
▁kere
▁kest
▁kavga
▁kesti
▁yorum
antolon
▁Birbir
▁izlemek
▁parçası
▁tutmaya
▁olmadığı
▁tanıştım
▁vermeyecek
▁düşünmüyorum
▁Sev
▁yeş
ternet
▁Endiş
▁gönül
▁kayak
▁muydu
▁soruyu
▁kişiydi
▁gerektiğ
▁inanmıyorum
▁çalışacağım
▁vermeyeceğim
▁fl
▁işte
▁sesi
ketbol
▁profes
▁samimi
▁zamana
larımızı
layacağım
▁bitirmek
▁gidebilir
mede
▁küç
tıldı
▁lazım
▁ekonom
▁miktar
▁odasına
▁serbest
▁ayrılmak
▁konuştuğunu
▁Et
▁Ali
▁Kas
▁dövüş
▁taksi
▁sandalye
▁arkadaşlarım
rü
ladın
meyen
▁acil
▁okur
▁yola
▁duyar
▁ileri
▁yukarı
▁ediyoruz
..
uc
ğren
▁hük
▁pil
▁Ayak
dığımız
▁gördük
▁kurtul
▁deneyim
▁haftada
▁Can
▁köy
▁muh
lıkta
▁Çoğu
▁Okula
▁kağıt
▁sabır
▁ikimiz
umartesi
▁cinayet
▁sorular
▁şaşırdım
▁gelebilir
▁şaşırtıcı
▁değiştirdi
▁Önümüzdeki
zil
ayır
teye
▁göl
▁Kısa
▁kıya
▁maaş
▁teda
▁mıyım
▁dışına
▁katıldı
▁istersen
zu
▁Ky
▁sene
▁çağr
ılacak
ındaki
▁Görün
▁havuz
▁içecek
▁kravat
▁öğrendi
▁kayboldu
▁AB
▁gı
▁Yıl
▁pas
inize
landa
▁bozuk
▁dükkan
▁sensin
▁Yapacak
▁kullanır
▁Sah
▁Ses
▁kör
▁şansı
▁Arabam
▁altına
▁gözleri
▁yapalım
▁etmekten
▁olabilirim
▁doğal
▁kopya
▁buldun
▁iyiydi
▁meşgulüm
▁telefonu
dem
sap
luğu
▁adr
▁peş
areti
liyet
▁Oyun
▁depr
▁yedin
▁zehir
▁parkta
▁yaşına
▁dönecek
▁masanın
▁istersin
üncü
▁Cev
posta
▁grup
▁kili
enecek
mezdim
▁gömle
▁içine
▁çevre
▁minnet
▁şaşkın
▁geliştir
▁yaparken
yat
▁bi
ısır
▁göze
▁list
▁bağış
▁boşan
▁oyunc
▁planı
▁konser
▁fikrini
▁verdiği
Ne
lip
ülü
▁dir
çiler
▁tela
▁çaba
lemeye
▁geniş
▁düşünür
▁geçirmek
▁Öğrenciler
▁birbirlerine
kâ
▁neh
ladık
▁kaba
▁yüze
▁genel
▁dönmek
▁Birinin
▁konuşan
▁satranç
▁Gü
▁İh
ceki
▁Jim
▁duş
▁nüf
▁çığ
luyum
▁geldin
▁gelmez
▁ödemek
▁sınıfta
▁çiçekler
▁şaşırmış
▁güvenilir
▁istasyona
▁Yor
▁mate
▁cüzdan
▁taşındı
▁öğretti
abilirsin
laşıkları
▁havaalan
▁mücadele
▁öldürmek
▁Ba
esiz
eyif
▁ABD
▁sos
▁vat
ilmiş
▁fiya
▁Düşün
▁komşu
▁yasak
▁diledi
▁içiyor
▁Şirket
ebilirim
larınızı
▁sıkıntı
▁çıkıyor
▁evlenmek
▁söyleyen
▁Anah
▁acık
▁risk
▁katta
▁ortak
▁ayakta
▁duydun
▁yemeyi
▁kullana
▁anlamına
▁hazırlan
▁söylemem
▁etmelisin
▁kitapları
▁çalışmayı
▁Em
▁uyum
▁Cadde
▁bağlı
▁edici
▁seçim
▁aniden
▁istifa
malıydım
▁açıklama
▁politika
▁partisine
▁tanıdığım
▁söylediler
ikâ
▁Beş
▁Başkan
▁adamın
▁borçlu
▁büyüdü
▁etkile
▁başladım
▁kurabiye
amp
obi
sul
ucak
lıklı
▁bilen
▁mıyız
▁selam
▁çeşit
▁Nereye
▁durumu
abileceğ
▁partide
▁alıyorum
▁gidiyoruz
▁insanlara
▁ilgileniyor
▁görünmüyorsun
yar
▁dem
▁kamp
▁olay
▁ürün
▁sebze
▁uzman
▁günlerde
▁kalabalık
▁sorunları
▁Devletleri
▁söyleyemem
ch
otor
sadü
ılda
▁ayı
▁bec
▁gec
▁sön
lığın
ımdan
▁üret
▁keyif
▁fikrin
▁yürüye
▁önceden
▁zamanımız
▁çalışıyordu
lep
▁fe
takal
▁Uçak
▁araç
▁iğren
▁kaçta
▁odası
▁almadı
▁birisi
▁ülkede
▁verildi
▁kolaydır
▁pantolon
▁olmayabilir
▁Eğ
▁gru
▁asker
▁Harika
▁uykulu
▁çılgın
▁etmeyin
▁davranıyor
mar
olab
▁Kuz
luluğ
▁Poli
▁ağac
▁dola
▁inti
▁uğraş
▁bizden
▁etmemi
▁üstüne
▁beraber
▁bitirdi
▁elimden
yaş
şun
yalı
▁sözc
▁oğlan
▁sanat
▁bakmak
▁hazırım
▁oyuncak
▁gelmiyor
ii
▁ı
sör
amış
▁Kor
▁ölü
Hayır
lamış
mazdı
ratik
ılmak
▁yapmış
uralarda
▁denemek
▁isteksiz
▁çikolata
▁İstasyon
▁cezalandır
▁muz
▁part
▁yeşil
▁aramak
▁olabil
▁zorluk
▁edilmiş
▁yaşayan
▁davranış
▁hakkımda
▁olmalıyım
dr
şi
bur
nik
▁Bre
▁Tav
▁tip
layan
▁kalp
▁Mısır
▁koltuk
▁düşünmek
▁karmaşık
teri
▁hes
▁şar
dınız
▁tema
▁eksik
▁ısrar
▁gözlük
düğünden
▁edersin
▁eğitimi
▁edebilirim
uzur
▁başa
▁mahk
▁bıktım
▁gülümsedi
▁arayacağım
▁oturuyordu
▁bö
tici
▁Soğ
▁fat
ımıza
▁dura
▁gemi
▁bindi
▁nokta
▁saçma
▁çanta
lıyordu
▁edelim
▁geldiği
▁İtalyan
▁etmiyorum
▁çalışıyoruz
asız
▁ödül
▁üste
▁Şarkı
▁çoktan
▁çocukken
▁gerektiği
▁alışverişe
avul
eğini
▁Robert
▁başını
▁iletiş
▁sevdiği
▁seçenek
▁dışarıya
▁yemeğine
▁fazlasını
▁gerçekleş
▁yapmalıyız
cut
bini
ıdır
laması
▁yayın
▁çıkma
▁kızdır
▁yazdım
edersiniz
▁katılmak
▁anlamıyor
▁İnsanların
süz
ıza
▁üş
▁Fır
▁Sat
saydı
▁Hast
▁İhti
▁kurdu
▁savun
▁yürür
▁Brezil
▁herkesi
▁ağlamaya
▁sinemaya
▁yaptığına
do
sü
insel
tiniz
▁Hazır
▁altın
▁diler
▁kanep
▁yerim
▁anlata
▁gömlek
▁sonsuz
▁kişisel
▁düşündür
▁zamandan
lamadığını
▁dünyadaki
▁söylediğin
▁karşılaştım
▁planlıyorum
▁Du
ğında
▁bina
▁tuta
▁misaf
▁pizza
melidir
▁içmeyi
▁kazanmak
▁şüpheliyim
▁değiştirmek
▁sun
▁ısı
bette
▁kans
▁kuru
maları
▁cesur
▁zordu
▁otelde
▁parlak
▁yağıyor
▁yapmayacak
▁Boş
▁müş
▁onay
▁tere
▁Erken
▁gündür
▁ilgisi
▁saçını
▁sözlük
▁İhtiya
▁şeydir
miyordum
▁değişti
▁giysiler
▁konuştuk
▁yolculuk
▁matematik
▁konuşmuyor
▁Kol
arlar
seydi
landım
▁geçer
▁kirli
▁pasta
▁Patron
▁sürdür
▁alışkan
▁ihtimal
▁parasını
▁kalacağız
▁Televizyon
▁yapmayacağım
ruk
üse
▁tok
▁bela
▁görme
▁miydi
▁gözden
▁adamdır
▁istemez
▁yapacağız
▁çalışıyorsun
ing
▁ir
▁Ama
▁tit
dolab
▁ısır
▁Kyoto
▁posta
▁yedik
▁cevabı
▁haberi
▁korumak
▁çalışan
▁egzersiz
▁Gaz
indeki
▁inana
▁iğrenç
▁kıskanç
▁görüşürüz
sele
lanır
luyor
raman
▁Ekim
▁başı
▁geze
▁peyn
▁yöne
▁Doğum
▁bölge
▁gidip
▁Çince
▁sürücü
▁verdik
▁gönüllü
▁sahibim
▁vermeyi
▁kardeşin
▁kullandı
▁gözlerini
▁yaşıyordu
ku
▁Ah
▁Aff
▁def
▁fen
maşır
tiğim
▁üzül
langıç
▁nişan
▁odayı
▁yolda
▁sizinle
▁yapmana
▁açıkladı
mayacaksın
▁basketbol
▁geleceğim
abileceğini
ike
▁cen
▁Arab
▁serv
▁Mektu
▁barış
▁edeceğiz
▁gitmeden
br
▁Ra
▁Sı
ramı
umara
laştır
ımızda
▁yılda
malıdır
▁sesini
▁isteyen
lanıyorum
▁öğrenmeye
wa
araj
▁dua
irkin
sıdır
▁Alice
▁flört
▁konuyu
▁insanın
▁yapmıyor
ley
▁Gi
▁Sonuç
▁etmen
▁günün
▁Gitmek
diğimizi
▁yapmama
▁Yaklaşık
oo
vik
▁ap
anet
▁2013'
▁Hasta
▁Mutlu
▁hatası
▁tembel
angisini
▁dünyada
▁kalmadı
▁büyüktür
▁yaptığın
▁öğrencisi
▁Fransızcada
Bu
mür
▁Öl
▁Dil
▁dek
▁saf
yacak
ıplak
▁Yiye
hteşem
▁çekin
▁işleri
▁umursa
▁yanına
▁Hepiniz
▁anlamak
▁memnunum
▁gerekirdi
▁gördüğünü
0'
Evet
lete
▁İşe
▁adın
▁işin
ermark
▁algın
▁huzur
▁kredi
▁liste
▁uyudu
▁sevdim
▁sınavı
▁tesadü
▁uzattı
▁çığlık
▁eleştir
▁çabucak
▁İstediğin
lıp
lede
ümet
▁Res
▁Ste
▁akr
isyon
oloji
▁okuy
▁iyilik
▁katıla
▁yolunu
▁döneceğim
▁göründüğü
▁yapıyordu
▁bl
▁Sür
▁dar
▁köş
▁tedavi
▁yaygın
▁anlaşma
▁görmeyi
▁nihayet
▁umutsuz
▁bitirdim
▁yaptığım
▁olmadığımı
cım
üğü
▁met
▁Arap
▁Bill
lerdir
▁Yaban
▁belli
▁karak
▁kulüb
▁tıraş
▁bulunu
▁günlük
▁hiçbiri
▁anahtarı
▁yapabiliriz
aki
iğe
jik
omet
▁Buz
▁Kaf
▁ilg
▁suy
dildi
usunu
▁sırt
imizin
liğini
otosik
▁Bayan
▁akıcı
▁radyo
▁edemez
▁duruyor
▁intihar
▁özellikle
▁toplantıda
▁yapmalısın
dy
▁â
▁Ye
▁del
▁çiğ
▁kahv
▁odan
▁bölüm
▁izler
▁Şehir
▁Afrika
▁Başarı
▁bilgil
▁ettiği
▁teşvik
abiliriz
▁nedenle
▁suçladı
▁gittiler
▁hastalık
▁numarasını
▁tutuklandı
▁tanımıyorum
etti
▁Dur
iminde
▁paket
▁ödeye
malıydı
▁aradım
▁çarptı
▁başlamak
▁kazanacağını
tti
veç
▁Aşk
▁Kan
▁çöp
ıldım
▁Film
cağıma
yimser
▁öneri
▁alması
▁atladı
▁eskiden
▁kokuyor
▁sanatçı
▁çekiyor
▁giyiyordu
▁edemiyorum
▁çoğunlukla
▁söylediğimi
▁Yür
▁Karl
▁kime
▁odam
▁öpüc
▁treni
▁başken
▁arabaya
bileceğim
▁kitaplar
▁seviyorsun
▁şüpheleniyorum
hi
▁Bob
▁Tab
▁duv
▁yem
ohbet
▁Kaza
▁içme
▁siya
▁uçuş
▁Soğuk
▁evinin
▁gözyaş
▁miydin
▁rüzgar
▁İtalya
▁odasını
▁ücretsiz
▁hissettir
▁olacaktır
▁olabileceğ
▁üniversiteye
dana
ışın
▁diyor
▁sandım
▁uykuya
uşturucu
▁Bununla
▁kıyafet
▁derecede
▁düşündün
▁sessizce
for
ğan
▁İz
abet
seniz
▁eşit
▁kısm
▁Kimin
▁Sınıf
lanacak
▁Derhal
▁mevcut
▁Sizinle
▁başardı
▁gibidir
▁gördüğü
▁veremem
▁durdurdu
▁lezzetli
▁merdiven
▁yapıyoruz
▁yapacaksın
bon
iste
izik
taat
üyle
▁Bar
▁iti
▁nak
▁Elim
düğüne
ınıyor
▁Aptal
▁Müzik
▁bulut
▁dolara
▁üçüncü
▁Merhaba
▁edemedi
▁gittikçe
▁birbirlerini
ala
nut
suna
▁Per
▁Zor
düğümü
▁Durum
▁hesap
▁sıkış
▁yolcu
▁kaynak
▁polise
▁uğramış
▁gerektir
▁hoşlanmaz
▁konuşması
▁bekliyoruz
▁görmüyorum
▁w
gör
las
▁burn
▁dağı
▁indi
▁mola
▁Maria
▁yağar
larımın
▁keşfet
ıldığını
▁resmini
▁oyuncusu
▁portakal
▁kendisine
▁birbirimizi
▁göründüğünü
▁söylediğine
▁zorundaydım
▁çocuklarını
gaj
sef
▁Uç
irdi
lata
▁İşi
▁Baba
▁duvar
▁küçüm
▁lider
▁Yapmak
▁gökyüz
▁kamera
▁numara
▁sevgil
▁İkimiz
▁ormanda
▁ellerini
▁verdiler
▁etmeliyiz
▁gerekecek
▁göreceğim
▁yakalandı
▁eh
▁Gar
▁ceb
▁kür
irinç
▁kara
▁kent
▁neyi
▁Sınav
▁mahal
▁saati
▁yarım
▁Sessiz
▁kültür
▁çirkin
▁öfkeli
▁bununla
▁düzenli
▁isteyip
▁sorunum
▁bırakmak
▁kahraman
▁bisikleti
▁değişiklik
yip
unan
▁mor
▁kayde
▁müsün
▁tutar
üyorsun
▁makale
▁oynadı
▁patates
▁saldırı
▁yararlı
▁dondurma
▁restoranda
▁üstesinden
sür
ücu
▁Eş
▁Ça
ağın
dere
▁Sil
▁eti
▁reh
istan
▁aşçı
▁kana
▁örnek
▁eskisi
▁yarısı
▁çoğunu
▁bağımlı
▁bırakma
▁şehirde
▁duymadım
▁elektrik
▁bilmiyoruz
book
oför
ünüz
▁Fav
▁Gül
▁Kuş
▁Mil
▁öle
▁koya
▁Ailem
▁gelip
▁kaçın
▁Yaptığ
▁alırım
▁yatağa
▁yazmak
▁özleye
▁izledim
▁karışık
▁yağacak
▁kaldırdı
▁konuştun
▁pencereden
gü
mit
▁kus
▁tor
▁hede
▁kale
lamadı
memize
▁Karım
▁bacak
▁gözle
▁iyiyim
▁sonuna
▁uğradı
▁kazanır
▁biriktir
▁vermedim
▁ilgilendir
onu
▁Ül
▁Kat
manız
yonel
▁Fark
cebook
▁Bebek
▁kilis
▁muyum
▁müdür
▁video
▁yerel
▁adında
▁kafası
▁okumaya
▁yaşadım
▁şeyimiz
▁Kahvaltı
▁geldiğin
▁geçirdik
cın
▁Re
keti
umun
▁100
▁Cez
▁fırsa
▁İşler
▁ısmar
▁Favori
▁kurşun
▁oyuncu
▁pratik
▁değerli
▁dilerim
▁yalancı
▁yapıldı
▁Facebook
▁doldurdu
▁Tr
teki
▁eki
fendi
ulmuş
▁moda
▁tadı
▁kaybe
▁yargı
▁bilmem
▁olurum
▁ulaştı
▁yaraya
▁yardımı
▁çevirdi
▁öldüğünü
▁ortasında
▁olmadığından
dine
kiye
▁Çev
▁yüzü
ılması
▁ameli
▁arama
▁belki
▁işler
▁Kendin
▁saatte
▁istedin
▁yazmayı
▁babasına
▁bağlantı
▁muhteşem
▁annesinin
▁gerekirse
▁yardımına
ulur
▁form
▁kula
▁saçı
miştim
▁Kahve
▁bakış
▁danış
▁dolaş
▁çekil
▁söyley
▁çıplak
▁Anahtar
▁annesine
▁ediyorlar
▁kadarıyla
▁pencereyi
▁edebileceğini
aktan
▁Ateş
▁post
sansör
▁Kazan
▁hapse
▁okuma
▁yenil
dığımda
▁birlik
▁kararı
▁müziği
lerinizi
▁ağrıyor
▁yüzmeyi
▁zamanki
▁Brezilya
▁dinlemek
▁Yeterince
hur
osu
▁Sh
▁Ter
veren
▁gezi
ğından
▁ayağa
▁günüm
▁baktım
▁kandır
▁keskin
▁masaya
▁mağaza
▁yıldan
▁meşguldü
▁mutfakta
▁nedenini
▁zorundaydı
▁birbirleriyle
del
▁Os
resi
▁200
▁Kam
▁bol
▁pis
▁cese
▁gücü
alesef
▁parma
▁yatır
▁Kahire
▁Kitabı
▁anlamı
eceğinden
▁değiller
▁etmeliyim
▁göstermek
▁olacağına
▁tarafında
▁yapacağına
▁yapılacağını
▁Ja
emez
▁Yum
▁kuy
▁müh
▁pan
imini
▁Türk
▁vakt
▁Balık
▁itaat
▁sevdi
▁kalmış
▁kapıya
▁yüzünü
diğimden
▁Yabancı
▁bahçede
▁halinde
▁kitabın
▁yorgunum
▁umuyordum
▁gidiyorsun
▁yapmalıyım
nde
ğine
▁Mac
▁Çiç
arası
masız
▁Mike
▁erte
▁Yunan
▁temel
▁yağdı
▁yemin
▁yüzde
▁kızlar
▁birinci
▁ettiğim
▁gitmedim
▁yıllardır
▁çocukların
▁bulaşıkları
▁öğreniyorum
âr
mat
arat
ayir
▁Pas
▁bom
▁neş
▁sığ
▁Soru
▁kırk
▁mevs
▁satı
▁Fiyat
▁alkol
▁aldığı
▁edilir
▁kimdir
▁olmanı
▁peynir
▁sohbet
▁tarihi
▁Cezayir
▁istedik
▁takıyor
▁söyleyeceğini
zi
fan
.000
tmak
▁Seç
▁Sin
▁hır
▁Komş
▁evet
▁manz
▁uyur
lüğünü
▁Bilet
▁Sıcak
▁olanı
▁saklan
▁sürece
▁doğruyu
▁kapının
▁olmamız
▁geçmeden
▁telefonda
▁çaldığını
▁uyuşturucu
▁bilmiyorsun
▁yapabilirsin
ger
ruf
apor
obil
dirdi
ilere
▁bahç
▁ofis
▁uyuy
leyici
mamızı
▁Oğlum
▁Silah
▁dalga
▁dilim
▁yumuş
diğimde
ladılar
▁geldik
▁koltuğ
lıyorsun
▁bağırdı
▁fırtına
▁gençken
▁hastane
▁tarzını
▁gitmiyor
▁tehlikede
▁Affedersiniz
▁hissetmiyorum
▁hoşlanmadığını
▁Şi
▁Fik
▁bıç
▁köt
▁Otur
▁bast
▁fırça
▁oğlum
▁yüzme
leriniz
▁katlan
▁raporu
▁yetişkin
▁şiddetli
▁yapmaması
▁insanlarla
▁konuşmaktan
yem
▁La
ıkra
▁ast
▁ica
▁maç
▁pik
▁web
▁kova
imizde
liyeti
▁gazet
▁sattı
diğinin
memişti
▁Futbol
▁fatura
▁inatçı
▁kanser
▁eldiven
▁otobüse
▁miktarda
▁konuşalım
▁istediğimiz
▁söylüyorlar
▁düşünmediğini
▁şe
dern
▁cam
▁fab
▁fav
▁işle
vasyon
▁etkil
▁malze
▁kilise
▁sırada
▁vermez
▁bakalım
▁başkenti
▁düşündüğü
▁kazasında
▁gitmeliyim
▁kalacağını
sil
mith
▁Hav
▁men
▁rol
mamın
tınız
▁Roma
▁âşık
▁Smith
▁koyun
▁midir
▁tepki
▁Öğren
▁altıda
▁gitmiş
▁sözünü
▁Gerçeği
▁aramaya
▁motosik
▁Korkarım
▁dinliyor
▁kullanmak
▁kurtarmak
▁olmalıyız
▁rastladım
▁dikkatlice
▁gelmeyecek
▁yı
abın
emem
▁Kir
▁str
aport
▁kalb
▁onar
bilsem
▁gözük
▁çizgi
▁şoför
▁Mümkün
▁girmek
▁gürült
▁mesele
▁odadan
▁cümleyi
▁göndere
▁iyimser
▁yatıyor
▁yolunda
▁çalıştır
▁istemiyorsun
▁konuşuyorsun
rip
asın
▁Suç
▁şah
annem
liler
umdan
▁etki
▁kafa
▁past
▁tekn
▁yönt
▁Ölüm
▁Önem
ikâyet
lemeyi
▁Deniz
▁bulur
▁Yorgun
▁güçlük
▁tatmin
▁yangın
▁yerini
▁başkanı
▁doluydu
▁gelmeye
▁hapiste
▁yağmaya
▁dediğini
▁kurtardı
▁düşündüğün
▁olabilirdi
▁hoşlanmıyor
öm
ily
akal
▁Diş
▁day
isyen
▁kaça
▁ters
cileri
▁Bisik
▁dergi
▁ışığı
ozisyon
▁bekler
▁itibar
▁kalkar
▁yerden
▁Yiyecek
▁hatalar
▁sabırlı
▁yapılır
▁Maalesef
▁adresini
▁bulamadı
▁yazılmış
▁yemekten
▁öğrendin
▁karşısında
▁vereceğini
▁yapamayacağını
uman
yeni
▁lim
denin
madığı
▁düğün
▁sevme
▁uğrat
▁deprem
▁mektub
▁başında
▁hangisi
▁yazıyor
▁öldürül
▁açıklaya
▁güzeldir
▁inanmıyor
▁profesyonel
▁yapabileceğim
ümüş
▁tör
▁çök
ınıza
larıma
▁ağacı
▁baskı
▁dakik
▁uydur
▁Çocuğ
verengi
▁Stefan
▁vatanda
▁hikayeyi
▁yaparsın
▁geçiriyor
▁kalmasını
▁korkuyordu
▁planlıyorsun
▁düşünüyorsunuz
anne
dışı
ekiz
sika
şire
▁300
▁Man
▁hor
▁sef
▁Hata
▁Paul
▁bölg
▁kaya
▁uzat
ometre
▁Güven
▁Yalan
▁eşlik
▁talep
▁ayrıla
▁hatayı
▁söndür
▁evlilik
▁sürecek
▁bahsetti
▁süpermark
▁istemiyoruz
▁hatırlatıyor
▁söylemeyeceğim
▁ise
▁denir
▁dönem
▁kalın
▁organ
▁taktı
▁geriye
▁Elimden
▁başlama
▁gezegen
▁salladı
▁zamanın
▁çamaşır
▁köpeğini
▁sinirlen
▁kalabilir
▁yapmamızı
▁çalışacak
▁beklemiyordum
▁om
orge
▁Orta
▁tuva
▁adama
▁domuz
▁işine
▁trene
▁Gökyüz
▁fiyatı
▁dinledi
▁gelmesi
▁gitmemi
▁şaşırttı
▁bulamıyorum
▁ebeveynleri
▁Yük
▁Olan
▁Hepsi
▁kenar
bilecek
▁Hayvan
▁randevu
▁tanıdık
▁Bildiğim
▁doğrudur
▁bulacağım
▁kendisini
▁korkuyorum
ov
lerj
▁Hoş
▁Hız
▁kla
▁iken
▁Şans
inceye
lediye
seydin
ündeki
▁amacı
▁dahil
▁inkar
▁kızar
▁ödedi
▁alındı
▁devlet
▁izleye
▁sevmem
▁suçlama
▁arkasına
▁dikkatle
▁otobüsle
▁Endişelen
▁dikkatsiz
▁gideceğiz
▁gitmekten
▁konuşacak
▁çiçekleri
▁Bilgisayar
▁insanlardan
▁İngilizceyi
he
lom
▁Oh
▁öv
amda
esel
▁val
▁Gemi
▁Mate
▁sayf
▁suya
▁tepe
▁Hayal
▁makin
▁yemeye
▁faydası
▁Görünüşe
▁yaşamaya
▁çalışırım
▁hakkındaki
▁öğretmenin
cap
beri
ffuz
vard
▁Dav
▁Mağ
▁Oku
mayan
▁Kral
▁ayda
▁eyle
▁gıda
▁veda
iyatro
▁Karar
▁Kuzey
▁Rusya
▁giyer
▁mobil
▁çekme
▁üyesi
▁Zengin
▁harita
▁sözleş
▁toplan
▁aşağıya
▁Dışarıda
▁arabanın
▁düşünmüş
▁hayvanat
▁problemi
▁tasarruf
▁alacağını
▁sevdiğimi
stık
▁Fak
▁Sal
▁asi
▁atı
▁bür
makla
▁Ders
▁Hika
▁Kate
▁Yine
▁hale
▁kimi
meleri
▁Canım
▁Genel
▁aydır
▁baban
▁canım
▁farkı
▁fıkra
▁koşul
▁tavuk
▁vakti
▁Meryem
▁etmeni
▁gelene
▁sistem
▁Kırmızı
▁Meksika
▁satıyor
▁yürümek
▁kasabada
▁zamanını
▁öneririm
▁engelledi
▁sorunumuz
▁öğreniyor
▁olmadığına
▁endişeliyim
▁Ebeveynlerim
▁tehlikelidir
▁söyleyebilirim
asa
tası
▁Hük
▁pul
▁Emin
▁ordu
▁evlat
▁metre
▁yaktı
▁yarat
▁bebeği
▁bildin
▁sosyal
▁Harvard
▁gizlice
▁kiminle
▁yumuşak
▁konuşmaz
▁kaldığını
▁sorabilir
▁özlüyorum
▁başlıyorum
▁arkadaşının
ry
rım
▁ul
ğünü
▁yav
meniz
▁Bekle
▁kızla
▁Arapça
▁güldür
▁iyisin
▁tutmak
▁uzandı
indistan
▁sonsuza
▁iletişim
▁sigarayı
▁tanımıyor
▁temizledi
▁verdiğini
sk
00'
azi
tey
üyü
ksür
▁Bul
iplom
irsin
▁vücu
▁kayıt
▁yapıp
▁şehri
▁akraba
▁itiraz
▁yalvar
▁Masanın
▁karıştı
▁umuyordu
▁yaptılar
meyeceksin
▁olduğunun
▁hoşlandığını
▁anlayamıyorum
▁düşünmemiştim
▁unutmayacağım
ou
til
ette
liğe
▁Duy
▁umu
lıyım
▁Kala
▁bank
▁cana
▁grub
▁kons
▁usan
▁çatı
▁Amcam
▁bekar
▁kovul
▁kusur
▁paran
▁suçla
▁Konser
▁başara
▁ihanet
▁kişiyi
▁arabada
▁gösteri
▁yakalan
▁çocuğun
ebilirsin
▁yaparsan
mayacağımı
▁kendinden
▁konuşmadı
▁merkezine
▁minnettar
▁düşündüren
▁istiyorlar
▁Değ
▁Mak
▁tıp
▁çap
▁elde
▁elli
▁otom
▁şekl
▁Yaşam
▁kutuyu
▁sözcük
▁düşünme
▁hayalet
▁kaybede
▁ödevimi
▁bekledim
▁yolculuğ
▁borçluyum
▁istasyonda
▁konuşurken
▁olduğunuzu
▁olacağından
▁yapabileceğimi
rem
eyse
post
▁buy
▁Çor
▁öte
ağını
erini
▁dert
▁onda
▁soya
▁Annen
▁bakma
▁bavul
▁hatam
▁kaybı
▁sokak
lerimizi
muyorsun
▁Kendime
▁nasıldı
▁sürüyor
▁gösterir
▁kiliseye
▁diliyorum
▁karşılaştır
imle
▁Koş
▁huy
▁raf
▁sig
abını
▁ekim
▁ölür
▁Devam
▁Değiş
▁Neler
▁gecik
▁görül
▁izlen
▁kalbi
▁tanık
▁yaşta
▁gitmez
▁içmeye
▁okudun
▁uyumak
▁ciddiye
▁olmazdı
▁oluştur
▁çalmayı
▁Dikkatli
▁sıklıkta
▁Arkadaşım
▁anlamadım
▁gönderdim
▁kardeşine
▁değilsiniz
▁söylemelisin
ıt
cin
ony
uyum
üyüm
kinci
lenin
ılıyor
▁Emily
▁Sakin
diyorum
dığınız
▁George
▁havaya
▁inanır
▁hakaret
▁yapılmış
▁üzerinden
▁çocuklarına
bahar
imdir
▁Yaşa
▁plaj
▁Cevap
▁ailem
▁dersi
▁satış
▁yılın
▁karnın
▁olağan
▁önceki
▁Oradaki
▁geçiyor
▁meydana
▁saattir
malısınız
▁gelmeden
▁hediyesi
▁izlemeyi
▁durdurmak
▁ediyordum
▁gördüğümü
uğu
▁Da
ceye
yenin
▁ilan
dektif
liğine
▁yerli
▁ağladı
▁mıydın
lararası
▁Tamamen
▁Yeterli
▁arabamı
▁dönüyor
▁gününde
▁mühendi
▁sahibiz
▁bazıları
▁müzisyen
▁telaffuz
▁yaşamayı
▁yaşıyoruz
▁üniversitede
üsü
ocam
tucu
vvet
▁gem
lamam
▁aday
▁ayar
▁ikiz
▁kola
▁pren
▁şart
▁daldı
▁döner
▁hakkı
▁iyisi
▁kapan
▁sevgi
▁tadını
▁yoksul
malıydın
▁karşıya
▁bağımsız
▁götürmek
▁tartışma
▁kahverengi
▁korktuğunu
▁ihtiyacınız
▁isteyeceğini
▁söyleyebilirsin
baş
olu
illi
▁Kut
▁dam
▁dos
▁tık
▁öfk
duğun
▁bilg
▁hali
▁uzan
dıktan
mazlar
mıştım
▁Asker
▁fizik
▁ağacın
▁dayana
▁denedi
▁hoşuma
▁pirinç
▁şaşırdı
▁şikâyet
▁getirdim
▁internet
▁Hindistan
▁geldiğince
▁gördüğümde
▁Üniversite
▁hapishanede
▁zamankinden
▁'
etr
idir
▁kum
▁çat
liğin
memin
varda
▁iade
▁Bahçe
▁benze
▁köprü
▁tarif
▁vergi
▁yapın
▁çorap
eşekkür
▁ederiz
▁koydum
▁turist
larımdan
▁doktora
▁görelim
▁mobilya
▁saatten
▁kazanacak
▁Çocukların
bileceğinden
▁öğ
uncu
▁ard
cıdır
▁amca
▁azar
▁açar
▁boyu
▁ismi
dikten
▁Osaka
▁kartı
▁parka
▁sempa
▁sorgu
▁tekne
▁temas
▁Trafik
▁silahı
▁vaktim
▁İkinci
▁aldığım
▁oldular
▁umursam
▁yapardı
▁yemedim
▁çalışkan
▁bekliyordu
▁süreceğini
pey
▁Oğl
▁lam
▁Şem
endir
▁Gide
▁icat
▁omuz
mamıza
▁Eğlen
▁hedef
▁hamile
▁konfer
▁mahkum
▁polisi
▁sonucu
▁kişiler
▁otobüst
▁rekabet
▁Ayakkabı
▁haftadır
▁yaratıcı
▁çalıştık
▁hoşlanmam
bileceğimizi
▁kütüphanede
▁olmayacağım
▁ayakkabılarını
On
▁bey
cilik
▁Otel
▁dava
▁belge
▁diplom
▁geride
▁sebebi
▁çekmek
▁Kendine
▁harcıyor
▁vermeyin
▁Hangisini
▁bahçesine
▁geliyorum
▁kilometre
▁yüzebilir
▁çocuklara
▁ağladığını
▁konuşuyorum
▁yaptığından
lit
oda
pet
sis
ırda
▁Meş
▁tic
▁yır
daydı
▁Siya
▁erdi
▁tali
▁öden
▁aksan
▁veren
baharda
▁Kütüph
▁adamla
▁anladı
▁dinler
▁oluşur
▁Önemli
▁Türkiye
▁ofisinde
▁seversin
▁edemezsin
▁kütüphane
▁olacağımı
▁çantasını
▁hoşlanırım
▁duygularını
▁olabilirsin
▁yapmamasını
▁Ci
ahşi
laşma
mamak
memek
▁Aile
▁Günü
▁abar
▁cuma
lıklar
▁Tatil
▁bakar
▁ilişk
▁motor
▁sırrı
▁birden
▁eğildi
▁oturma
▁Elbette
▁bırakın
▁partisi
▁soğuktu
▁numarası
▁oradaydı
▁niyetinde
▁çalıştığı
▁göründüğümü
cel
ddü
sas
▁Bas
▁Tay
▁çür
▁Şeh
▁Luka
▁Odam
▁tavş
▁şiir
sizlik
▁Güney
▁dedim
▁mıdır
▁Yüksek
▁döndüm
▁düşkün
▁sakladı
▁yaramaz
▁Kimsenin
▁olsaydım
▁sıklıkla
bilirsiniz
▁başlangıç
▁kazanıyor
▁gitmiyorsun
▁havaalanına
▁Mü
▁ır
amaz
yeye
▁Teh
▁ert
▁göğ
ceğin
lacak
meler
ömert
▁Port
▁eğer
▁işit
amızda
irketi
vantaj
▁Bilim
▁Lukas
▁Nehir
▁bayan
▁delik
▁garaj
▁ilacı
▁battan
▁satmak
▁seyret
▁Dünyada
▁biriydi
▁etmemiz
▁kaçırdı
▁kötüleş
▁sağlığı
▁tutuyor
▁uyumaya
▁yetenek
▁çalındı
▁çıkmaya
▁Yalnızca
▁istemeye
▁bırakıldı
▁cumartesi
▁kardeşini
▁olmalıydı
▁söylememi
▁yapılacak
▁yaptığımız
▁gerektiğinden
tma
▁di
ılma
▁göç
▁mes
ğının
▁Elbi
dayken
tiğimi
▁Mağaz
▁riske
▁ölmüş
acaksın
▁ettiğin
▁gelmeyi
▁güzeldi
▁topladı
▁Dünyanın
▁erkekler
▁kadınlar
▁diğerleri
▁gereklidir
▁istiyordum
▁çalışırken
▁ayrıldığını
▁söylemesini
▁hoşlanıyorum
sh
hiş
lül
ddüt
reti
▁Yok
▁tez
tanın
üthiş
▁Yara
▁topu
elendi
uluyor
▁açtım
▁testi
▁varır
▁yemem
madılar
▁Dürüst
▁öpücük
▁üzerey
▁fırsatı
▁genelde
▁içeriye
▁kendime
▁tehlike
▁yavaşça
▁Kadınlar
▁etmesine
▁ettiğimi
▁araştırma
▁yürüyerek
▁bilgisayarı
▁anahtarlarını
ama
fat
yum
üde
ayın
onun
▁Gele
▁bine
▁kata
▁taze
▁öpüş
menizi
▁Haber
▁alerj
▁dosya
▁elbis
▁makul
▁oldun
▁şeyle
▁Parayı
▁Tartış
▁Yangın
▁elinde
▁korkar
▁lisede
▁Yerinde
▁kadınla
▁katlana
▁mutluluk
▁Cumartesi
▁bakıyordu
▁çalışarak
▁etmiyorsun
▁götüreceğim
her
şap
land
udur
▁Bro
▁Hol
▁Süt
emedi
tibat
umuzu
ümcek
▁Dene
▁Otuz
▁okum
▁Şüph
artman
▁Baban
▁dönün
▁kedim
▁kızım
▁ağrısı
▁denize
▁doğdum
▁favori
▁kenara
▁servis
▁yarışı
▁Hükümet
▁kilitli
▁olacağı
▁yapmada
▁kapısını
▁yaşadığı
▁buradaydı
▁girmesine
▁seviyordu
▁kardeşimin
▁yaşıyorlar
▁Lat
▁İsa
iliği
▁koyu
▁maçı
▁resm
▁tutk
▁çorb
▁Banka
▁gizem
▁kimle
▁yasal
▁yazın
▁ölümü
emezsin
▁Meşgul
▁adamdı
▁bitkin
▁enerji
▁haline
▁kuvvet
madığımı
▁oturmak
▁Bunların
▁babasını
▁edilecek
▁incitmek
▁buluyorum
▁öneriyorum
▁kendilerini
fak
tün
usuz
▁Bin
▁Sar
▁akl
alığa
ğimiz
▁aklı
▁ayın
▁epey
▁evim
▁itti
▁komp
miştir
▁almaz
▁çağrı
▁İster
ecekler
▁Pekala
▁başvur
▁etmeli
▁kocası
▁kolunu
▁mahvet
▁uyardı
▁yaprak
▁yoldan
▁irtibat
▁içeride
▁anlamaya
▁bildiğim
▁romantik
▁söylemez
▁şeylerin
▁Buralarda
▁Matematik
▁yakınında
▁alabilirim
▁karşılaştı
▁beğeniyorum
▁bekleyeceğim
wn
kır
▁va
▁Bağ
▁Bit
▁Kab
▁anı
▁buç
▁şak
▁belg
▁Özür
lerime
▁Kural
▁demir
▁gelin
▁büyükb
▁dilini
▁uyudum
▁şehrin
▁anladım
▁ağlıyor
▁denedim
▁kişisin
▁olmanın
▁buzdolab
▁geleceği
▁güçlükle
▁hikayesi
▁arabasına
▁yapıyorlar
▁yaşıyorsun
▁etmeyeceğim
muz
atör
tren
▁Ver
▁alb
▁sız
cağın
luydu
unuzu
▁odak
▁yang
▁yene
sızlık
tesiye
▁Evlen
▁Rapor
▁aktif
▁okulu
▁Eskiden
▁babamın
▁gelenek
▁olanlar
▁pişirdi
▁vuruldu
▁yaparak
▁yarattı
▁çağırdı
▁ediliyor
▁güvenlik
▁itibaren
▁tereddüt
▁umuyoruz
▁yapamadı
▁yaptırdı
▁öldürmeye
▁gerçekleştir
anc
izm
▁Ju
iyon
umlu
▁Ayr
▁Kul
▁Sok
rafta
tarım
▁seçti
▁tablo
▁türlü
▁öksür
▁bulduk
▁duyduk
▁etkili
▁günler
▁kaçını
diğinizi
▁Fırtına
▁Hayatta
▁görünüş
▁hissede
▁istemem
▁kapıdan
▁meraklı
▁sahipti
▁kanepede
▁okuyorum
▁tutuklan
▁İnternet
▁buradayız
▁edeceğimi
▁söylemeni
▁arkadaşını
▁gitmelisin
▁konuşacağım
▁planlamadığını
ub
bul
dak
kân
les
▁ac
esli
▁Dep
▁nez
▁rak
etrol
▁Alış
▁Kore
▁halk
▁Çift
▁Piyan
▁Rahat
▁Takım
▁aydın
▁bilip
▁böcek
▁okyan
▁yapış
▁çıkış
lığında
mamıştı
▁Sorunu
▁belada
▁duvara
▁toplum
▁ederler
▁etmeden
▁gitmeli
▁misafir
▁uzundur
▁yanımda
▁yiyorum
▁öğrenir
▁İspanya
▁mutluydu
▁uyuyakal
▁olamazsın
▁bekleniyor
▁hatırlamıyor
▁po
anti
diya
▁gök
▁mac
▁Çek
bildi
ırlar
▁edip
▁karş
▁nesi
▁oğul
▁uzay
▁zarf
inizin
▁Kuran
▁evime
▁evrak
▁eylem
▁kızdı
▁sayfa
madığım
▁anlayı
▁dildir
▁görmüş
▁planın
▁Okuldan
▁kadının
▁kötüdür
▁ortadan
▁uğradım
▁Polisler
▁buradaki
▁kaçırdım
▁makinesi
▁suçlandı
▁yapardım
▁söylemeli
▁gideceğimi
▁istersiniz
▁istediğinden
▁sabırsızlıkla
▁arkadaşlarından
pe
jen
kam
ock
▁Of
▁Ana
▁Fin
▁şif
cılar
letim
▁Karı
▁Odan
▁kral
memeye
ümüzde
▁diyet
▁içtim
▁kazak
▁rezer
▁tutun
▁Büyükb
▁Farklı
▁mutfak
lamasını
liğinden
▁bozuldu
▁dilemek
▁inanmak
▁olmadım
▁sarıldı
▁sorunla
▁verelim
▁geldiniz
▁kitabını
▁çıkarmak
▁gördüğüne
▁konuşurum
▁seviyoruz
▁çalışmaktan
▁istiyorsunuz
▁çalışıyordum
cını
stra
▁Mah
▁eli
▁kıza
▁ulus
▁Ciddi
▁Fazla
▁Sahip
▁gidin
▁keman
▁ofisi
▁yemez
▁incele
▁insanı
▁kaldın
▁kaptan
▁servet
▁Arabayı
▁bilgisi
▁bunları
▁dünyayı
▁kararlı
▁annesini
▁bekleyin
▁cesareti
layacağını
▁bulunuyor
▁uzaklaştı
▁gitmeyecek
▁birbirimize
▁katılıyorum
▁arkadaşlarıyla
▁üm
▁Don
▁sap
▁İla
isten
lamaz
sizdi
▁Feli
▁bodr
▁ekme
▁Ameli
▁Yanni
▁adımı
▁civar
▁kızın
▁mahke
▁unuta
▁Cüzdan
▁Okulda
▁gecesi
▁işimiz
▁mesafe
▁taşıma
eyefendi
▁gömleği
▁kişiyim
▁köpeğin
▁sokakta
▁ülkenin
▁Açıkçası
▁ceketini
▁tanıştığ
▁yaklaştı
▁hayvanlar
▁telefonunu
▁şemsiyesini
▁söylemiyorsun
og
ido
uva
larm
tımı
▁cim
tılar
umhur
▁Kutu
▁Neye
▁Tony
▁kurb
▁oper
▁teyz
mediği
sizdir
▁gündü
▁hasar
▁katkı
▁kimya
▁sakla
▁ölmek
▁öpmek
inizden
sindeki
▁Hırsız
▁çeviri
▁Beyzbol
▁götürür
▁güvenme
▁çekildi
▁Portekiz
▁ameliyat
▁bağlıdır
▁umurunda
▁yeteneği
▁bilmesini
▁bulunmadı
▁hapishane
▁kuralları
▁söylüyorum
▁düşünmüştüm
▁öldürdüğünü
▁çalışıyorlar
jin
uya
▁ab
çisi
▁Ada
▁çak
ceksin
ddenin
duğumu
▁Brown
▁Dania
▁almış
▁bomba
▁evcil
▁işbir
▁prote
▁bencil
▁bilmez
▁yarına
▁boğuldu
▁düşürdü
▁harcama
▁isterse
▁seçildi
▁siyaset
▁sürmeyi
▁şirketi
▁açlıktan
▁vermezdi
▁yediğini
▁açıklamak
▁davranışı
▁duyduğunu
▁tartışmak
▁yapmamıza
▁döneceğini
▁konuşmadım
io
ym
sır
vey
▁şa
,000
ukuk
▁toz
birli
▁Yurt
▁nere
htemel
lanmak
▁Rusça
▁bagaj
▁bastı
▁buçuk
▁katil
▁model
▁rengi
▁sadık
▁tabak
▁zorla
▁cömert
▁harcar
▁inanma
▁korkak
▁nüfusu
▁seviye
▁yedide
▁görebil
▁hayatın
▁kalması
▁küçümse
▁uzaklaş
▁yaparız
▁ülkedir
▁düşündük
▁karışmış
▁severler
▁seçeneği
▁yürümeye
▁almalıyım
▁defalarca
▁hayatının
▁olmasaydı
▁yaptırmak
▁alışkanlık
▁gerektirir
▁kardeşinin
▁benimkinden
▁anlayabiliyorum
to
Bir
nak
tay
▁Ni
adan
veti
▁zek
ilmez
tının
▁Evin
ınızda
▁dolab
▁döktü
▁önüne
eksiyon
▁Birini
▁balığı
▁bunlar
▁kedisi
▁yöntem
▁ölçüde
ceğimizi
dığımızı
▁gibiydi
▁tesadüf
▁çantası
▁erkenden
▁haklısın
▁muhtemel
▁silahını
▁dikkatini
▁eğleniyor
▁çalışması
▁rezervasyon
▁İngilizcede
▁gerekmediğini
etim
rist
ükle
▁Şey
ledik
sever
▁Kayı
▁arar
▁emir
▁fare
▁idar
▁inci
▁onur
▁suçu
▁Özel
▁özle
ceğime
mamaya
▁Hızlı
▁Macar
▁avuka
▁başta
▁kurtu
▁proje
▁sakal
▁sanki
▁ıslak
▁Rüzgar
▁cezası
▁defter
▁havada
▁yıllar
cağınızı
▁alamadı
▁bekleme
▁olmuştu
▁çeşitli
▁acımasız
▁birinden
▁doğrudan
▁etrafına
▁karısını
▁ayrılıyor
▁gördüğüme
▁konuşamam
▁olduğunca
▁saldırgan
▁yaşamıyor
▁temizlemek
▁beklediğini
▁tavsiyesini
▁göstereceğim
▁istemediğimi
cül
eyf
hen
▁Le
usun
▁Kil
▁dep
▁zih
▁Çab
antan
malar
▁Ağaç
▁prog
▁yüzy
likten
▁Oğlan
▁cimri
▁etmiş
▁gülün
▁sorma
▁utanç
▁yudum
▁çalan
▁üzücü
eceğine
▁belaya
▁benzin
▁taklit
bileceği
▁girerim
▁gitmeni
▁Teşekkür
▁sorunlar
▁söyleyin
▁vazgeçti
▁yapmadık
▁yapmakla
▁düşünmedi
▁başladılar
▁başlayacak
▁başlayalım
▁konuşmamız
▁merkezinde
▁motosiklet
dış
▁fa
iter
ster
▁Pla
▁Tah
▁Yah
▁deh
▁Altı
▁boyn
▁işçi
▁mide
▁site
▁İnan
▁alkış
▁arada
▁ağaca
▁bitiş
▁işimi
▁kuzen
▁valiz
▁yüzer
▁şirin
▁Tehlik
▁mesajı
▁takımı
▁yumruk
▁yüzüne
▁çıktım
▁Şiddet
▁Bunları
▁benimki
▁hoşlana
▁müşteri
▁yatırım
bileceğin
▁olmaması
▁umduğunu
▁buralarda
▁farklıdır
▁korkutucu
▁gördüğünde
▁gösteriyor
▁kullanılır
▁çocuklarla
▁görünüyorlar
▁gelmeyeceğini
kal
ona
uji
olog
üğün
▁cüm
▁tap
▁ırk
faiye
lığım
▁Dans
▁duyg
▁halı
▁sırr
▁şamp
▁Ailen
▁Gürül
▁Haydi
▁Neyin
▁Odada
▁aklım
▁beden
▁detay
▁ezber
▁Babası
▁Kasaba
▁Parkta
▁alamam
▁dahaki
▁sefere
▁sekret
▁telafi
▁uyandı
▁vermem
▁asansör
▁bugünkü
▁doludur
▁getirir
▁gidemem
▁kalkmak
▁kişilik
▁şanssız
ıldığında
▁ailesini
▁saldırdı
▁yönetici
▁yükseldi
▁Bunlardan
▁Kalabalık
▁gitmeliyiz
▁tanıdığını
▁şaşırmıştı
▁alabilirsin
▁değerlendir
▁ilgilenmiyorum
1'
▁fı
▁Ör
.30'
imar
▁Fer
▁Gun
▁Güç
▁Mey
▁sez
▁Üst
▁çam
▁çim
▁Şiş
kinin
▁Bebe
▁alet
▁kılı
▁teor
▁Beyaz
▁ateşi
▁açmak
▁plaja
▁süpür
▁uyarı
▁hallet
▁kokusu
▁koruya
▁olmasa
▁bulacak
▁yazmaya
▁Bisiklet
▁Erkekler
▁gerekeni
▁kaldılar
▁karakter
▁kelimeyi
▁kendimiz
▁olmamalı
▁söylerim
▁verdiğin
▁üzereydi
▁elimizden
▁masasında
▁Söylediğin
▁edilebilir
▁izlemekten
▁bırakmasını
▁edebilirsin
▁öğrencileri
ly
ila
rah
cısı
ğımı
▁küf
lerdi
malım
forman
▁Görev
▁Jamal
▁Radyo
▁nakit
▁seven
▁vahşi
▁vefat
▁yorul
▁Düşman
▁deneye
▁milyar
▁müthiş
▁taşıya
▁Babamın
▁aldınız
▁görünüm
▁istemek
▁manzara
▁severdi
▁yoluyla
mayacağız
▁Hakkında
▁almasını
▁görmedik
▁kararını
▁maliyeti
▁muydunuz
▁sahipsin
▁sorundur
▁yakından
▁aradığını
▁duruyordu
▁fikirleri
▁seçeneğim
▁hangisidir
▁neredeydin
▁yapmıyorum
▁endişeliydi
▁beklemiyordu
▁söylemeyecek
▁çocuklarının
dük
rat
▁Co
anız
▁Gir
▁Sol
▁sıç
▁tra
▁çen
osunu
▁Cuma
▁harf
▁hırs
▁kriz
illiam
ıncaya
▁sahne
▁sahte
▁tüken
▁yılan
labilir
▁Aniden
▁Gunter
▁Hatalı
▁antren
▁açıktı
▁kazası
▁ofiste
▁patlak
▁vardık
▁ölüyor
▁Bugünkü
▁avantaj
▁ayrılır
▁ehliyet
▁fabrika
▁nehirde
▁almalısın
▁tanıyorsun
▁söylemekten
▁eğlenceliydi
...
sıt
yaj
▁Mo
atik
▁Bor
▁Kra
▁May
▁aşı
▁pap
▁yiy
dinin
▁Acil
▁palt
ekleri
uracak
▁Sonra
mayalım
▁Annesi
▁ayrıca
▁bankta
▁beklet
▁modern
▁oğlunu
▁trende
▁yerdir
ılabilir
▁almadan
▁anladın
▁hallede
▁kazanma
▁unutmuş
▁anlamadı
▁arıyordu
▁atıyorum
▁hataları
▁ilerleme
▁verdiğim
▁yapmadan
▁beyefendi
▁görmekten
▁harikaydı
▁partisinde
▁yarısından
▁ayakkabılar
▁yanlışlıkla
▁söylemeliyim
ty
ıb
are
iti
abım
kine
okul
oloj
ğimi
▁dom
▁fıs
▁gev
▁küp
▁siv
▁Dört
▁Fuji
▁amaç
▁canı
▁türü
liliği
tığını
▁Gidip
▁Görüş
▁ağrım
▁mezar
▁İsveç
▁aittir
▁mağara
▁odanın
▁sayısı
▁umalım
▁yıllık
▁ölecek
ilebilir
▁açıktır
▁faydalı
▁yapılan
▁ünlüdür
▁bitirdin
▁bulundum
▁söylemiş
▁dinlemeyi
▁hastalığı
▁söylemesi
▁öğretiyor
▁olasılıkla
▁olağanüstü
▁sorumluluğ
▁konuşmasını
▁konuşuyordu
▁sakladığını
▁yaptığımızı
▁söylediğinde
int
otu
ses
yak
▁Ta
hale
liçe
▁Bet
▁Hap
▁Tem
▁kaş
▁lok
▁yut
▁zir
▁Şap
▁odur
▁uydu
▁Neyse
▁elmas
▁koşar
▁takıl
▁tarzı
▁tekme
lerimin
teriler
▁Gazete
▁Savaşı
▁alalım
▁gününü
▁kestir
ülebilir
▁Arabamı
▁adamsın
▁bırakır
▁patlama
▁sistemi
▁tiyatro
▁değildin
▁geldiler
▁vermiyor
▁böylesine
▁kaybetmek
▁çalabilir
▁İstediğim
▁özleyeceğim
▁yapabileceği
▁yapacağından
era
rim
udi
▁12
▁hi
dunu
▁gay
▁hüc
▁mül
▁mür
allah
lılar
▁Olay
▁azal
▁seks
▁üçte
▁Motor
▁krizi
▁maden
▁mısır
▁paten
▁tanır
▁şeydi
layarak
▁adının
▁kadını
▁klasik
▁çocuğa
▁çözmek
▁Herkese
▁Konuşma
▁köpeğim
▁otobüsü
▁tuvalet
▁yağarsa
▁çaresiz
▁Havaalan
▁apartman
▁geçerken
▁gitmemiz
▁görüşmek
▁kalanını
▁soruları
▁birbirine
▁sonuçları
▁çalışmadı
▁Söyleyecek
▁arabasının
▁benziyorsun
▁kütüphaneye
▁görünüyordun
koç
▁He
▁Na
▁üt
brik
ifor
▁Hal
▁fel
▁mum
▁Çay
bulan
kence
unlar
yerek
▁köle
▁kıyı
imizle
inizde
santre
▁Fakat
▁Yavaş
▁anlar
▁derse
▁enerj
▁gerçe
▁halde
▁istis
▁ofise
▁pilot
▁İşten
leyecek
ıyorlar
▁Kardeş
▁Kızlar
▁hayata
▁kapıda
▁memuru
▁muzdar
▁şansım
leksiyon
▁aldılar
▁edersen
▁Yaptığın
▁edilemez
▁izlemeye
▁olasılık
▁profesör
▁hazırladı
▁hiçbirini
▁bisikletle
▁eğiliminde
▁vermelisin
▁yapamazsın
▁buluşacağım
▁sinirlendir
▁vermiyorsun
▁yapılmıştır
▁etmeyeceğini
▁gitmeyeceğim
▁televizyonda
öy
tek
uan
▁İm
ancy
ğıma
dadır
lanan
▁Adım
▁oran
diğime
ilecek
ilmesi
▁Ceket
▁Günde
▁Nancy
▁aktör
▁deste
▁emret
▁olsan
▁tanın
▁yüzük
▁çöktü
liğinde
▁garson
▁gitmen
▁kadına
▁meydan
▁Seyahat
▁Sorunun
▁becerik
▁dilleri
▁düşmanı
▁kovuldu
▁zorladı
▁çalmaya
▁özledim
▁Elektrik
▁dedektif
▁hisseder
▁kızdırdı
▁ödeyecek
▁Alışveriş
▁herkesten
▁durdurmaya
▁edebiliriz
▁kullanmayı
▁ayakkabıları
▁gerekmiyordu
▁davranıyorsun
▁arkadaşlarının
▁merdivenlerden
cup
don
düz
yıp
▁13
▁CD
kini
laka
▁Car
▁Ham
▁Tur
▁biy
▁hev
▁nem
▁ulu
▁yel
niyet
ırken
▁Mars
▁ağla
▁maym
▁moti
saydın
şallah
▁Bırak
▁Merak
▁ahşap
▁besle
▁daima
▁madde
▁tahta
mıyordu
tığında
▁Elbise
▁açıkla
▁bıçağı
▁güncel
▁masada
▁olalım
▁soruya
▁sözlüğ
▁Partiye
▁bitmedi
▁harcadı
▁hemşire
▁sekizde
▁çekmece
▁mühendis
▁yaşından
meyeceğimi
▁ayrıntılı
▁dişlerini
▁gürültülü
▁güveniyor
▁salonunda
▁yazıyorum
▁zamanıdır
▁şekerleme
▁anahtarını
▁gitmiyorum
▁kendisinin
▁göremiyorum
amm
übe
iran
kaha
oker
ümde
▁Aya
▁Dağ
layıp
panya
sıyla
tikam
tiğin
torun
▁açım
▁dehş
▁kali
▁kırp
▁mark
▁teni
mazdım
▁Komşu
▁ateşe
▁felak
▁hukuk
▁isten
▁metro
▁alanda
▁boyadı
▁ederdi
▁etkisi
▁görmem
▁haksız
▁hoşnut
▁kazada
▁masayı
▁soruna
▁yakala
▁yaralı
▁bankaya
▁caddede
▁caddeyi
▁gitmeme
▁görüntü
▁hastalı
▁kilitle
▁peşinde
▁sınavda
▁ulaşmak
▁binlerce
▁kalmıştı
▁mağazada
▁pasaport
▁yorgundu
▁bunlardan
▁civarında
▁korkmuyor
▁vermesini
▁tanıştığım
▁yapacağımızı
▁görebiliyorum
cen
uzu
etar
iyle
lifi
ücut
▁Ağr
▁Bal
▁Cen
▁Hok
▁Mon
▁caz
▁cin
▁omz
cenin
giler
▁Akıl
▁Emek
▁Fikr
▁Otob
▁Spor
▁müsa
▁nite
▁ömür
manızı
▁ayırt
▁bulaş
▁sildi
▁cinsel
▁gezdir
▁köpeğe
▁sabahı
▁soygun
▁trenle
▁ödedim
dığımdan
▁Haftada
▁Kimseye
▁gelenin
▁konsere
▁sıradan
▁Öyleyse
▁aceleyle
▁adamları
▁ayrıldım
▁kurtuldu
▁vatandaş
▁Pencereyi
▁battaniye
▁olmalıdır
▁veremeyiz
▁çalışalım
▁arkasından
▁durduramaz
▁etkilendim
▁kullanarak
▁sevdiğiniz
▁zorundadır
▁üzerindeki
▁gerektiğine
▁minnettarım
▁konuşmalıyım
▁konuşmuyorum
ham
iriz
izah
▁Cep
▁Dem
▁Kış
▁rüş
▁Kara
▁astı
▁daki
asıdır
lenmiş
▁arttı
▁atmak
▁girer
▁havlu
▁ihmal
▁israf
▁karım
▁mudur
▁olgun
▁tüket
▁İskoç
ilerini
▁baştan
▁bileti
▁edeyim
▁gelmiş
▁geçici
▁gününe
▁ismini
▁tatili
▁tavşan
▁vardım
▁Yumurta
▁kitabım
▁suçlaya
▁taksiye
▁otomobil
▁verilmez
▁yalvardı
▁yapmadın
▁çalışmam
▁çocukluğ
▁şimdiden
▁düşünmeye
▁saatlerce
ebileceğini
▁Sabahleyin
▁kardeşimle
▁seveceğini
▁bisikletini
▁düşündüğünden
▁ilgileniyorum
▁istemediğinden
lal
▁Ab
▁Th
tele
▁ört
▁Şaş
▁Rima
▁Şaka
▁Haklı
▁Peter
▁dilde
▁günah
▁içmez
▁kariy
▁sürüc
▁yolun
▁şiiri
duğunda
▁bıraka
▁dağını
▁dertte
▁millet
▁ressam
▁romanı
▁sincap
▁Hangisi
▁böylece
▁ettiniz
▁hafifçe
▁ikisini
▁işinden
▁paramız
▁teklifi
▁çıkacak
▁arıyoruz
▁dakikada
▁edemeyiz
▁etmemizi
▁inanmadı
▁kullanma
▁muzdarip
▁uyuyordu
▁vaktinde
▁yapmakta
▁alışkınım
▁cümleleri
▁konuşamaz
▁saatlerde
▁kaybediyor
▁söylemiyor
▁yaşındayım
▁beklemesini
▁bekliyordum
▁yapabilecek
▁güvenmiyorum
ess
iyi
tah
▁hâ
▁Nor
▁Ser
▁Ulu
▁art
▁tel
▁tiş
▁yas
▁Şek
jetar
leşti
liyim
steri
▁Ayrı
▁Lise
▁üvey
layıcı
sızdır
▁Aşağı
▁Chica
▁Resim
▁dedik
▁denem
▁etkin
▁idare
▁koyar
▁taban
▁teker
▁adamım
▁affede
▁düzine
▁oturur
▁yemedi
lamaktan
▁Gürültü
▁başvuru
▁haberim
▁hepiniz
▁işkence
▁kalktım
▁kolaydı
▁olmamış
▁yiyelim
▁çıkalım
▁şüpheci
▁başladık
▁güçlüdür
▁hastaydı
▁çevirmek
▁İnşallah
▁arkadaşız
▁gözüküyor
▁karısının
▁pahalıdır
▁İtalyanca
▁arkadaşına
▁bahçesinde
▁bulacaksın
▁tartışmaya
▁kazandığını
▁söylediklerini
göz
▁Bı
▁so
emde
irci
ıbbi
▁Düz
▁kot
▁net
▁tec
▁vir
ahmet
eceği
jinal
urayı
▁açın
▁sonr
▁sunu
erenin
kardeş
ımızın
▁Okyan
▁Yürüy
▁bakın
▁boyut
▁halka
yesinde
▁Sevgil
▁bendim
▁içerir
▁olamam
▁petrol
▁temsil
landırdı
▁Berberi
▁Chicago
▁Nereden
▁Pencere
▁aklında
▁dilinde
▁görünce
▁katkıda
▁usandım
▁çıkmayı
▁Buzdolab
▁alacağız
▁dersleri
▁duygusal
▁pozisyon
▁yaşlıdır
abileceğim
▁Dünyadaki
▁cüzdanını
▁duyduğuma
▁soracağım
▁verilmedi
▁yemeğinde
▁edebilecek
▁gönderildi
▁söyleyeyim
▁yaşındaydı
▁Endişelenme
▁düşünüyoruz
▁görmediğini
▁yemeklerini
▁arkadaşların
▁yaptıklarını
▁yapıyorsunuz
▁açıklayabilir
rek
▁Mi
yolu
▁Dük
▁Giy
▁Göl
▁Köy
▁Neh
▁Sam
▁Söy
▁nes
▁ney
dayım
eyici
▁Eğit
▁Niye
▁deri
▁eriş
▁kamu
▁yılı
▁şark
ilerin
▁Kolay
▁adres
▁basın
▁bende
▁edebi
▁gidiş
▁hafız
▁içmem
▁kimdi
▁nehri
▁tutul
▁önemi
▁Marika
▁dansçı
▁deneme
▁edilen
▁farket
▁geceyi
▁girdim
▁işinde
▁kurmak
▁satıcı
▁tatile
▁yerler
▁ünifor
▁Gösteri
▁binanın
▁dokunma
▁dokuzda
▁dönmedi
▁düzelte
▁ederdim
▁evlenme
▁kibirli
▁sahilde
▁tatilde
▁yürüyor
▁zamanlı
▁Fotoğraf
▁alamadım
▁edemedim
▁yapmanız
▁şiddetle
▁ailesiyle
▁oldukları
▁sürebilir
▁sürmesine
▁yanındaki
▁şeylerden
▁arkadaşımı
▁içerisinde
▁sabahleyin
▁başkentidir
▁endişelenme
▁gidebilirim
▁konuşamıyorum
ash
cev
div
gal
isk
sto
embe
eğin
lası
üman
▁ask
▁sör
ildim
teydi
▁Mutf
▁güne
▁kuşk
▁mete
olojik
▁Fadil
▁amcam
▁duran
▁köyde
▁muhaf
▁pilav
▁sarıl
▁sevip
▁yavru
▁öngör
▁İsviç
ceğimiz
▁Bizden
▁Yarına
▁almamı
▁ederek
▁etmeme
▁kulübe
▁mahcup
▁yoksun
▁çıktık
jetaryen
▁Korkunç
▁bağladı
▁bilgiyi
▁dikkate
▁ederken
▁görünür
▁içindir
▁saatini
▁savaşta
▁çocuğum
dıklarını
▁anlatmak
▁başından
▁cümlenin
▁elbiseyi
▁saklandı
▁sempatik
▁tanıştın
▁uygulama
▁yapmazdı
▁yaşlıyım
▁ilişkiler
▁kaybettik
▁yapamayız
▁İstasyona
▁giyinmişti
▁oynamaktan
▁görebiliyor
cim
fil
▁sp
▁öd
▁şö
azak
etin
gari
sana
syon
▁arz
▁leh
▁çuk
▁Kahv
▁Mesa
▁Unut
▁aram
▁bayı
▁dağa
▁ekip
▁psik
▁ümit
▁şair
▁Barda
▁Orman
▁Yakın
▁attım
▁bakım
▁boğul
▁dudak
▁işsiz
▁sende
imlidir
lanmadı
tiğinde
▁Geçmiş
▁Sizden
▁ağzını
▁geçmek
▁kurban
▁kızart
▁olmama
▁savaşı
▁sırası
▁tahamm
▁buluyor
▁garanti
▁gençsin
▁hataydı
▁incitti
▁kırıldı
▁olmayın
▁unuttun
▁yüzüyor
▁öğretir
melisiniz
▁Karanlık
▁denemeye
▁harcamak
▁partiden
▁programı
▁randevum
▁salonuna
▁söylenil
▁isteyecek
▁kenarında
▁kilitledi
▁yakalamak
▁Büyükannem
▁inanıyordu
▁istediğine
▁bildiğinden
▁düşündüğümü
▁gerekiyorsa
▁planlıyoruz
▁üniversiteden
▁yapabileceğimiz
bak
bür
▁fi
alim
biye
lesi
▁fir
▁hey
▁mir
▁çit
angoz
enine
tımız
yargı
▁Asya
▁Prob
▁alıp
▁ağzı
▁ekle
▁lobi
▁önde
ükleer
▁Aşırı
▁Kışın
▁bulma
▁delir
▁harek
▁işlet
▁yanıl
▁şeyde
▁Profes
▁Yapmam
▁acıktı
▁açıldı
▁elektr
▁giymek
▁huysuz
▁meslek
▁nehrin
▁niyeti
▁oğluna
▁rehber
▁salata
▁uğraya
▁yastık
▁yüzleş
▁gideriz
▁görecek
▁uyandım
▁yaptıra
▁öğreten
▁Hollanda
▁Köpekler
▁bildirdi
▁ikisinin
▁olduktan
▁tırmandı
▁yakalaya
▁bırakmaya
▁ertelendi
▁görmesini
▁okumaktan
▁performan
▁tesadüfen
▁öğrenecek
▁şanslıydı
▁şapkasını
▁istasyonuna
▁hazırlanıyor
▁konuşabiliyor
bim
▁Br
▁if
.00'
çiye
▁Ces
▁Haf
▁ayn
▁gri
icdan
muştu
▁sörf
▁sözü
anenin
▁satar
▁yerin
▁İlgil
▁Söylen
▁cenaze
▁fırtın
▁konusu
▁tereya
▁toprak
▁tuttum
ebiliriz
▁Gökyüzü
▁almamız
▁aramayı
▁bıçakla
▁fazlası
▁gittiği
▁hayranı
▁merhaba
▁oturdum
▁saatimi
▁saçları
▁takımda
▁talimat
▁öyleyse
meyeceğiz
▁Askerler
▁ailesine
▁dönüştür
▁geçirdin
▁hepsinin
▁kaplıydı
▁karşılık
▁kızgınım
▁oluyorum
▁sebebini
▁yiyeceği
▁şirketin
▁Böylesine
▁buradasın
▁bahsediyor
▁etkileyici
▁konuşabilen
▁arkadaşlarına
▁ilgilendirmez
avi
iko
tük
jder
tand
▁Göm
▁Mat
▁bok
▁pes
▁şük
▁Ağrı
▁Yürü
▁atış
▁blok
▁espr
▁fena
▁kast
▁müda
▁örne
kesini
menize
▁Cümle
▁Tabii
▁Tarih
▁aldır
▁dedin
▁incin
▁maruz
▁yaşın
iyorlar
▁kırdım
▁lastik
▁reklam
▁taşıdı
▁yüzücü
▁önemse
▁Ziyaret
▁bunalım
▁bölgede
▁fısılda
▁geceler
▁oğlunun
▁çalışın
▁örümcek
▁anlattım
▁belediye
▁deneyimi
▁harcadım
▁kusursuz
▁olmuştur
▁pişmanım
▁söylemen
▁vermeden
▁Hayatımda
▁alacaksın
▁büyükanne
▁yapmamaya
▁öğretmenim
▁Yapabileceğ
▁istediğiniz
▁elbiselerini
▁hissediyorsun
▁söylediğinden
▁isteyebilirsin
rev
afer
ttım
▁bez
▁cih
esyon
lanma
lüydü
ıldız
▁Bahç
▁Evim
▁Pren
▁Thom
▁Uyan
▁Yazı
▁koku
▁parç
▁sola
▁uğur
▁özen
▁Mesaj
▁atlat
▁hüküm
▁kumar
▁serin
▁tercü
▁Karnın
▁altmış
▁dönmüş
▁hüküme
▁koştum
▁makyaj
▁yetmez
elenecek
▁görevli
▁hazırız
▁kızları
▁sıcaktı
▁takımın
▁Söylemek
▁akıllıca
▁ayrıldık
▁bahsetme
▁ilişkisi
▁içmekten
▁kazandım
▁okumadım
▁planları
▁söylenti
▁tahammül
▁ziyarete
▁şansımız
▁götürecek
▁sayesinde
▁tutukladı
▁yapabilip
▁yazacağım
▁İnsanları
▁fikirdeyim
▁verilmiyor
▁Çocuklarım
▁Amerikalılar
▁bekleyebilir
▁göndereceğim
▁uluslararası
▁çalışmıyorum
▁öğrencilerin
▁,
jan
und
▁kâ
▁Çö
▁İr
itan
kten
▁Tut
▁eya
▁koc
aketi
cının
hamet
parat
piyat
▁Batı
▁Bush
▁Hawa
▁Tanı
▁ağab
▁otop
▁Ödev
bulans
larken
▁Ekmek
▁Ferit
▁Siyah
▁azalt
▁mizah
▁poker
▁takar
▁şemsi
▁Eminim
▁Hikaye
▁Kızgın
▁alamaz
▁arayın
▁cesedi
▁değmez
▁düzgün
▁ertesi
▁ihtima
▁oyunun
▁rüşvet
▁seçimi
▁şahsen
lerimden
▁Cadılar
▁Kediler
▁Latince
▁arabanı
▁avukatı
▁bilinir
▁civarda
▁evinden
▁indirdi
▁işareti
▁kaldığı
▁kaynağı
▁kaçınıl
▁nitelik
▁olurdum
▁sormadı
▁yüzünde
▁çapında
▁Şemsiye
▁ağaçları
▁ekonomik
▁huzursuz
▁isterdim
▁sessizdi
▁özgürlük
▁aramasını
▁girdiğini
▁görüşmesi
▁karanlıkta
▁sorumluluk
▁bekliyorsun
▁korkmuyorum
▁olabileceği
▁seçeneğimiz
dya
fik
kel
taş
ysa
▁Vi
▁st
eniz
yeti
▁Uyu
▁ace
▁buğ
▁dör
▁lan
▁ori
▁süs
▁öne
bilip
cidir
likop
minin
natif
▁Doğu
▁Keli
▁Tuva
▁gali
▁susa
▁Öner
emedim
tileri
tılmış
▁Tatlı
▁Tekli
▁arazi
▁başım
▁becer
▁durur
▁kaydı
▁uzağa
▁çadır
▁çeker
▁çorba
▁bölümü
▁kırsal
▁olmamı
▁paramı
▁piknik
▁sonunu
▁yüzmek
malıydık
mesinden
▁Aptalca
▁adamlar
▁dağınık
▁doktoru
▁kazadan
▁korktum
▁kurtara
▁ofisine
▁tahliye
▁Yaptığım
▁arabalar
▁açabilir
▁değildik
▁getirmek
▁olduğuma
▁oynamaya
▁paylaştı
▁sarhoştu
▁sevmedim
▁yürümeyi
▁zamanımı
▁İstersen
▁bulduğunu
▁fiyatları
▁işbirliği
▁oynayalım
▁Çocuklara
▁Büyükbabam
▁politikacı
▁yağacağını
▁farkındayım
▁gelmediğini
▁güveniyorum
▁Arkadaşlarım
▁gidebilirsin
▁konuşacağını
▁yapamadığını
▁af
yatı
▁Giz
▁ton
▁Ülk
▁çub
cılık
errah
ğımda
▁2.30
▁Kağı
▁Mart
▁kavg
▁köşe
▁sağa
▁sütü
▁uyuş
▁Hokka
▁Kızım
▁Satın
▁Tenis
▁albüm
▁beşte
▁boyun
▁büyüt
▁dansa
▁kaplı
▁kemer
▁mikro
▁muyuz
▁mücev
▁İşini
▁araban
▁bozucu
▁gitsen
▁incite
▁kalemi
▁kalmam
▁korktu
▁sembol
▁sınıfa
▁ısırdı
mediğimi
▁gözlüğü
▁gülüyor
▁izlenim
▁niyetim
▁çocuktu
▁Fiyatlar
▁ardından
▁işlerini
▁konuşkan
▁memnundu
▁soruştur
▁yakındır
▁yapmamam
▁yataktan
▁yıllarca
▁beğeniyor
▁birliktey
▁içindeydi
▁teklifini
▁yanıtladı
▁yapmazdım
▁yardımını
▁yiyeceğim
▁benzemiyor
▁kalmayacak
▁pencereleri
▁yapabilirdi
▁eğlencelidir
fır
inc
kol
ore
▁br
iğin
line
loyu
▁Kav
▁Kür
▁fiş
▁kıl
▁kıv
▁tüf
Neden
▁deng
▁hile
▁lamb
ısında
▁Duvar
▁Kabil
▁Kocam
▁Sanki
▁dolma
▁gücüm
▁iştah
▁madal
▁seyre
▁topar
▁yağış
▁yıkan
▁çamur
▁İşimi
▁şehre
parator
▁Avukat
▁bakıcı
▁binada
▁günlüğ
▁sürmek
abiliyor
tıyorsun
▁bilgiye
▁değişir
▁listede
▁patladı
▁sözlüğü
▁yayıldı
▁çıkarın
▁kızgındı
▁nelerdir
▁okuyarak
▁vermedin
▁yapacağı
▁yaparlar
▁yapmayın
▁ışıkları
▁fotoğrafı
▁restoranı
▁yapamadım
▁bahsetmedi
▁bulunmadım
▁Birbirimizi
▁değiştirdim
▁geliştirmek
▁getireceğim
▁gördüğümden
▁umursamıyor
▁endişelendir
▁gözyaşlarına
▁istemiyorsan
▁düşündüğümden
▁?
gah
▁Je
▁kl
allı
cisi
oley
sunu
sünü
▁Var
▁gür
▁sop
erest
resif
üğünü
▁Koca
▁Sıkı
▁Utan
▁ayna
▁etek
▁gözü
▁kaşı
▁kura
▁odun
▁pikn
▁sars
▁uçtu
anacak
umuzda
vercin
▁boşal
▁güney
▁hatan
▁kısmı
▁kışın
▁tanrı
▁torun
▁uçağı
▁yattı
▁yuvar
▁İncil
mediğim
▁Köpeği
▁Tanrım
▁içerim
▁renkli
▁yokken
▁çıkmaz
▁ülkeyi
▁balıkçı
▁bulunur
▁giderdi
▁hükümet
▁olmakla
▁olmuyor
▁tanımak
▁tercüme
▁Bostonlu
▁Hokkaido
▁cezasına
▁edilmedi
▁otobüste
▁saklıyor
▁tanıştık
▁almalıyız
▁ayrılmaya
▁ihtimalle
▁köpekleri
▁resimleri
▁tartıştık
▁çekiyorum
▁duyduğunda
▁gitmiyoruz
▁hayvanları
▁istemediği
▁ilgilenecek
▁yapamayacak
▁düşünemiyorum
▁konuşabilirim
▁ebeveynlerinin
ad
je
pi
day
det
gle
lav
ood
▁lâ
hane
orta
rağı
▁Hır
▁Kiş
▁Yeş
▁han
▁sıv
▁zil
sunun
▁Elma
▁deme
▁kasa
▁müze
▁reng
iliyor
▁boştu
▁cehen
▁dolap
▁doğuş
▁plana
▁çalın
acağımı
oleybol
ımızdan
▁Hawaii
▁akşamı
▁açmaya
▁hafife
▁hesabı
▁kapadı
▁motive
▁temasa
▁yazarı
▁ücreti
▁şaşırt
mıyordum
▁Annemin
▁aldattı
▁anlatır
▁burnunu
▁denedin
▁domates
▁geçecek
▁reddede
▁sevecek
▁yurtdış
▁Öğleden
▁ölümcül
▁ölümden
▁İsviçre
landığını
ılacağını
▁Bazıları
▁bekleyen
▁bulundur
▁getirdin
▁görünüşe
▁hayatımı
▁marangoz
▁oyunları
▁Şiddetli
▁şampiyon
▁bisiklete
▁bulamadım
▁kalıyorum
▁kaybettin
▁konsantre
▁konuşulur
▁muhafazak
▁olduğunuz
▁saldırıya
▁yatıyordu
▁anladığını
▁koleksiyon
▁olduğumdan
▁çaldığında
▁kardeşinden
▁ilgilenmiyor
▁söylediğinin
▁çalışmalısın
▁ilgileneceğim
3'
▁.
▁0
col
ney
cize
lıcı
ırıl
▁Dön
▁Yen
▁içi
▁kup
▁çil
anbul
cımız
lüdür
lıktır
▁Bavul
▁Yoğun
▁adına
▁ihlal
▁kasab
▁kulüp
▁suyla
▁tavsi
▁taşır
▁ırkçı
layalım
▁Beklen
▁Haberi
▁Thomas
▁Türkçe
▁acıyor
▁alabil
▁atıldı
▁hoşgör
▁hırslı
▁kişiye
▁koymak
▁tanıya
▁tişört
▁çeneni
dığınızı
▁Yardıma
▁biriyim
▁dizüstü
▁kahkaha
▁sözleri
▁tasarım
▁ticaret
▁ödemeyi
▁önyargı
lanmıştır
▁fiziksel
▁yetişmek
▁ödevinde
▁İstanbul
▁Hepimizin
▁bildiğimi
▁bittiğini
▁etkilendi
▁istediler
▁yerleştir
▁babasından
▁evlendiler
▁kurtarmaya
▁çalışmanın
▁bilmediğimi
▁yapmıyorsun
▁heyecanlıydı
▁konuşamadığını
atu
fab
kuş
mız
str
▁11
▁Ro
isiz
iski
▁enf
▁ide
▁koç
ciğer
ilmek
▁Dağı
▁Eşya
▁köpr
▁yetk
▁İşin
luktan
▁Bagaj
▁Başar
▁Kayıp
▁Yeşil
▁alarm
▁bahar
▁beyin
▁boğaz
▁duman
▁panik
▁perde
▁suyun
▁titiz
▁vücut
▁yazma
▁Şaşır
mesinin
ılmıştı
▁Kuşlar
▁Yahudi
▁atmaya
▁beslen
▁binmek
▁evimde
▁okulun
▁zahmet
lığından
meliydik
▁almıyor
▁bilirim
▁büyüdüm
▁düşünen
▁gelmeni
▁kitapçı
▁sormaya
▁arabadan
▁başlattı
▁bulmamız
▁bulundun
▁gördünüz
▁keşfetti
▁sıkılmış
▁gelecekte
▁izliyorum
▁konuştuğu
▁kurtulmak
▁sözlerini
▁geldiğimde
▁tartışmayı
▁vardığımda
▁arkadaşımla
▁kazanmasını
▁sevmiyorsun
▁düşünmüyordu
▁konuşmalısın
▁olmayacağından
▁kullanabilirsin
şe
ciz
ick
ray
sar
wit
▁iğ
coln
kanı
▁Jon
▁Tep
▁Vaz
▁ale
▁bot
▁lis
▁ref
▁uza
▁Çık
iğeri
ğinin
▁Hint
▁Kato
▁Kayb
▁Kimi
▁batı
▁idam
▁kuyr
▁mali
▁tıka
avallı
daydım
tiğine
ülecek
▁Alkol
▁Gitar
▁ailen
▁andan
▁aylık
▁eseri
▁hoşça
▁iklim
▁kuşku
▁lisan
▁lâzım
▁mazer
▁memur
▁sihir
▁süper
▁Çünkü
▁Özgür
▁ödülü
▁önere
▁ürper
▁Şeker
▁Cumhur
▁Masada
▁Piyano
▁bindim
▁filmin
▁geçtim
▁gitsem
▁görevi
▁hastay
▁kağıdı
▁kısmen
▁oturan
▁sigort
▁tahrip
▁yemeğe
▁İkiniz
lamasına
▁Birliği
▁Herkesi
▁Köpeğim
▁Lincoln
▁Mektubu
▁anlayış
▁bahsede
▁bankada
▁bilecek
▁bitişik
▁bulmayı
▁bulunan
▁edildim
▁etmedin
▁gerekip
▁geçirir
▁görevde
▁istendi
▁kesildi
▁mutfağa
▁odadaki
▁terbiye
▁vermesi
▁İrlanda
diklerini
lanıyordu
▁Mükemmel
▁alanında
▁buluşmak
▁derinden
▁olanları
▁çalıştın
▁akıllıdır
▁duyuyoruz
▁gelinceye
▁göreceğiz
▁kızkardeş
▁güvenmiyor
▁hissetmeye
▁yapmıyoruz
▁gerçekleşti
▁götürüyorum
▁karşılaştığ
▁verebilirim
▁konuşabiliriz
▁söyleyeceğimi
vel
▁rö
ahil
ulan
▁Min
▁fon
▁maz
▁mon
▁ürk
▁Twit
▁askı
▁eser
▁keyf
cinsel
uncaya
▁Giriş
▁Roman
▁alanı
▁hayli
▁hücre
▁sorar
▁sürme
▁terfi
▁yeriz
▁Çabuk
▁Çanta
▁gözlem
▁gülünç
▁günden
▁kitaba
▁okurum
▁sahile
▁sizden
▁yaşama
▁çalmak
▁şarabı
▁Doğruyu
▁Nihayet
▁Twitter
▁aramadı
▁bahçesi
▁emretti
▁mutlaka
▁okurken
▁oynarım
▁parasız
▁planını
▁saatler
▁sağladı
▁yatağın
▁Öğrenci
▁bilimsel
▁cümleler
▁duyduğum
▁etkiledi
▁karnınız
▁korkuttu
▁mağazaya
▁olmaktır
▁tanıştır
▁yarısını
▁yasadışı
▁ötesinde
▁öğretmek
▁ayrılacak
▁döndüğünü
▁hangisini
▁konuşmacı
▁mektubunu
▁yakaladım
▁yiyebilir
▁çiftlikte
▁çıktığını
▁alışkındır
▁kendisiyle
▁sanıyorsun
▁yapıyordum
▁Birbirimize
▁bulabilirim
▁görünüyorum
▁öğretmendir
▁davranıyordu
▁gösterebilir
▁söylemeliydim
enk
▁Dö
▁ec
▁kü
▁Öf
▁Ağz
▁Met
▁Pan
▁Say
▁Süp
▁ani
▁isp
▁üçü
amadı
iyeti
ludur
oogle
uyucu
▁Mavi
▁Rüya
▁Taro
▁Uzay
▁otor
▁Şika
▁Polon
▁alter
▁karın
▁kemik
▁salak
▁sığır
▁vatan
▁yönel
▁çukur
▁üstün
▁Deprem
▁Normal
▁adalet
▁araman
▁bilinç
▁göçmen
▁kalite
▁kasten
▁kesmek
▁kızını
▁sağlar
▁siyasi
▁tebrik
▁yıkadı
▁öldüğü
▁Partide
▁acelesi
▁dünyaya
▁etrafta
▁girmeye
▁gitmene
▁kapatın
▁şapkası
▁şeylere
▁belirsiz
▁buluştum
▁caddenin
▁davranma
▁filmleri
▁tarafsız
▁öptüğünü
▁Gelecekte
▁ailesinin
▁algınlığı
▁alıyorsun
▁hayatında
▁kardeşime
▁kaçmasına
▁restorana
▁taşınıyor
▁uyuduğunu
▁ölümünden
▁Portekizce
▁arabasında
▁geliyorlar
▁vejetaryen
▁çalıştılar
mayacağından
▁Bulaşıkları
2'
co
baz
ice
mos
kesi
rana
ınır
▁Acı
▁Han
▁eri
▁sur
cinin
mekte
oratu
risin
▁Kong
▁Neyi
▁Yani
▁aşkı
▁hayv
▁kele
▁muay
▁titr
▁trom
mezler
▁Ancak
▁Dinle
▁Kedim
▁aracı
▁ikiye
▁inanç
▁işlem
▁kasıt
▁resme
▁turta
▁tıbbi
▁Çinli
▁çiğne
▁çözdü
▁çözül
▁şekil
lamadan
tandart
▁Akıllı
▁Sarhoş
▁alayım
▁asgari
▁astron
▁aşkına
▁cebine
▁dindar
▁düşmüş
▁ekmeği
▁elmayı
▁eyalet
▁kuyruk
▁neşeli
▁solgun
▁vicdan
▁çıldır
lendirdi
▁Asansör
▁Elinden
▁deneyin
▁ekonomi
▁etmenin
▁gelmemi
▁kapatır
▁yaparsa
lamıyorum
landırıcı
▁Belediye
▁altından
▁bitkiler
▁cebinden
▁dolarlık
▁düzenlen
▁gördüğün
▁kafasını
▁kimseyle
▁köpeğine
▁mücevher
▁pahasına
▁çocuktur
▁şehirdir
▁Kendinizi
▁buluşalım
▁geçtiğini
▁meşguldüm
▁edilmiştir
▁elektrikli
▁gelecektir
▁girdiğinde
▁oynuyorlar
▁reddediyor
▁hissetmiyor
▁konuşacağız
▁havaalanında
▁söylemediğini
ed
uko
▁Dr
▁Eh
ikat
okie
ymiş
▁Mic
▁Yet
▁aca
▁sel
▁sit
▁Ofis
▁Post
▁Yedi
▁asıl
▁kesi
ayarak
burger
caktır
ılmadı
▁Karşı
▁adadı
▁bunda
▁kalab
▁kelep
▁metal
▁riski
▁susam
▁teori
enekler
▁Mağaza
▁Norveç
▁kastet
▁kötüye
▁ulusal
▁umarım
▁İşleri
▁bildiği
▁bilerek
▁bilmeni
▁emniyet
▁gelince
▁geçerli
▁kahveyi
▁kötüydü
▁oynadık
▁pastayı
▁pikniğe
▁plastik
▁tarafta
▁yanıyor
▁yürüdüm
▁önlemek
▁Biletler
▁antrenör
▁eğlendik
▁faturayı
▁fırlattı
▁kaybetme
▁korumaya
▁yüzlerce
▁Çiçekler
▁Elimizden
▁babasıyla
▁borçlusun
▁göndermek
▁istasyonu
▁konferans
▁listesini
▁rekabetçi
▁yaptığıma
▁toplantıyı
▁veriyorsun
▁yapıyordun
▁Teşekkürler
▁benzediğini
▁bilgilendir
▁bırakacağım
▁gitmediğini
▁imkansızdır
▁kazanmasına
▁yapıldığını
▁başlayacağız
▁beğenmiyorum
▁söylemiyorum
▁ebeveynlerine
▁edemeyeceğini
▁istemeyeceğini
ck
evi
log
orn
▁Fl
aklı
bağa
dına
elik
üret
ışıl
▁Evi
▁hek
▁nas
▁reç
▁sis
▁tüy
▁Çar
▁Çöp
ovyet
▁Tere
▁Test
▁atın
▁dizi
▁kafe
▁üzüm
cilere
fendim
lamada
ımılda
▁Düğün
▁Gömle
▁Misaf
▁Sinir
▁Sizce
▁Yazar
▁artır
▁aslan
▁battı
▁içten
▁kaygı
▁pembe
▁sağır
▁seksi
▁tipik
▁Mektup
▁Polisi
▁elleri
▁gayret
▁hassas
▁hayali
▁mevsim
▁tırnak
▁yaşamı
▁Caddesi
▁Patates
▁artıyor
▁baharat
▁bardağı
▁buluştu
▁düşünül
▁fikrimi
▁hazırdı
▁içerken
▁kalmanı
▁kamyonu
▁vermemi
▁yarışma
▁öğrenme
▁Pasaport
▁başladın
▁bıraktın
▁geceleri
▁numaranı
▁resimler
▁taşınmak
▁yaptınız
▁çalışmaz
▁çılgınca
▁almayacak
▁açısından
▁bağımlısı
▁depresyon
▁izliyordu
▁zengindir
▁değerlidir
▁okuyabilir
▁tanışmadım
▁anlatacağım
▁eğilimindedir
"'
bin
izz
lie
mes
pit
üks
▁Bo
▁İt
bere
üzün
▁Def
▁Fat
▁Mal
▁Muh
▁ası
▁kık
▁rah
aydın
gılan
iyang
▁Olim
▁Yolc
▁cami
▁daya
▁takı
▁ufak
▁öder
▁üzün
▁üşüt
▁İlaç
▁Duygu
▁Marie
▁Yarım
▁açığa
▁borcu
▁girme
▁gölge
▁kampa
▁korun
▁kucak
▁rekor
▁yüzey
▁Araban
▁Bilmek
▁Saldır
▁Sovyet
▁Teklif
▁burası
▁canını
▁durmak
▁lobide
▁maymun
▁pislik
▁sordun
▁varmaz
▁varmış
▁yazısı
▁yüzyıl
▁İçecek
▁Şehrin
malarını
▁aldığın
▁başının
▁dinleye
▁duyabil
▁getirin
▁liseden
▁tanıdım
▁çekmeyi
▁şapkayı
▁davranır
▁giderdim
▁hediyeyi
▁imzaladı
▁inceledi
▁kadındır
▁kasabayı
▁kendiniz
▁kilisede
▁konferan
▁müzikten
▁oynarken
▁sabahtan
▁Başlangıç
▁arıyorsun
▁bütünüyle
▁gözlüğünü
▁konuşarak
▁pişmanlık
▁sıkıcıydı
▁yaşındaki
▁çıkıyorum
▁İhtiyacım
▁arkadaşıma
▁başlamadan
▁bekleyelim
▁bilmediğim
▁gideceksin
▁kıyafetler
▁popülerdir
▁söyleyemez
▁yaşamaktan
▁bisikletimi
▁götürebilir
▁pazartesiye
▁İngilizceye
▁bildireceğim
▁kullanıyorum
▁yarayacağını
kâr
ong
ceğe
ıştı
▁Luc
▁Pil
▁Sey
▁Zar
▁eşi
anızı
kanın
umuza
▁Mark
▁Yeme
▁araz
▁giye
▁grev
▁göle
ington
luğunu
seleyi
▁Banyo
▁Yazın
▁buton
▁damla
▁evsiz
▁lanet
▁mekan
▁memle
▁tokat
bilirdi
▁Ayrıca
▁Cookie
▁Google
▁Kamyon
▁diğeri
▁gelmem
▁güçsüz
▁kapısı
▁kazara
▁oturup
▁planım
▁sağlam
▁sitesi
▁tanıdı
▁yerleş
▁çektim
▁çektir
▁İlginç
▁şeytan
elimenin
▁Tavsiye
▁dehşete
▁düşüyor
▁etmedik
▁ettirdi
▁indirim
▁izledin
▁madalya
▁maliyet
▁vardiya
▁çıkmadı
leyebilir
leyeceğim
▁Fransızc
▁ambulans
▁bacağını
▁büyükbab
▁görünmek
▁ilginçti
▁sağlamak
▁toplamak
▁yardımın
▁şeklinde
▁edeceksin
▁gitmemizi
▁taşıyordu
▁vatandaşı
▁yemekleri
▁üzereydim
▁değiştirir
▁etmediğini
▁geleceğine
▁kitapların
▁mektupları
▁uyuyakaldı
▁öğrencidir
▁dinlemekten
▁getirebilir
▁harcıyorsun
▁isteyeceğim
▁edebileceğimi
▁gitmeyeceğini
cik
yer
ekke
list
uklu
ızda
▁Boğ
▁Gal
▁Mem
▁Pap
▁arı
▁hok
▁mus
▁teb
▁yit
uğunu
▁affe
▁artı
▁borc
▁geve
▁müte
bekler
▁Barış
▁Belli
▁Betty
▁Suçlu
▁annen
▁cüret
▁gözet
▁karla
▁miras
▁soydu
▁uçağa
▁yazım
larıdır
muyordu
tansiye
tırıldı
▁Amelia
▁Saçımı
▁Sağlık
▁aradın
▁askeri
▁bilsem
▁gözalt
▁hoşuna
▁mendil
▁olumlu
▁sersem
▁seslen
▁ölmedi
likopter
▁Bahçede
▁Zamanın
▁bulmadı
▁duymadı
▁gecenin
▁gelişme
▁intikam
▁koşmaya
▁malzeme
▁merkezi
▁muayene
▁seninki
▁Önceden
▁öncelik
▁üzgündü
lanabilir
▁Profesör
▁Sigarayı
▁arayacak
▁eğlendir
▁eşcinsel
▁insandır
▁kedileri
▁Çocukluğ
▁çıkardım
▁şarkılar
▁Doktorlar
▁Gözlerini
▁altındaki
▁bunalımlı
▁kadınları
▁kardeşimi
▁kazanmaya
▁mahallede
▁yağıyordu
▁beklediğim
▁bulacağını
▁büyüleyici
▁gösterecek
▁karşılamak
▁olabiliriz
▁olmasından
▁rahatlamış
▁söyleniyor
▁anlayamadım
▁duyabiliyor
▁erkeklerden
▁yapamayacağım
so
ras
uro
▁iP
▁İb
ağım
eliş
fsan
graf
kırı
▁Sek
▁Taş
▁som
süyor
▁Mayı
▁Ulus
▁Uyku
▁Yasa
▁anti
▁atıl
▁ihra
▁kuşu
▁suçl
▁toka
▁tost
▁ısın
alığın
dığıma
▁Etraf
▁Garip
▁Hatta
▁Temiz
▁Yatak
▁alfab
▁bitki
▁durak
▁giysi
▁halkı
▁sıfır
laşıyor
▁Birden
▁Eğitim
▁Garson
▁Sürücü
▁Yıldız
▁ayırdı
▁baktık
▁balığa
▁bitmiş
▁buluna
▁kaydet
▁kediyi
▁notlar
▁sevinç
▁sözler
▁yerime
▁yerken
▁Şikago
▁Eğlence
▁geçmişi
▁gizemli
▁gülmeye
▁havanın
▁istemiş
▁itfaiye
▁kasıtlı
▁nazikti
▁nedenim
▁nişanlı
▁noktası
▁oynadım
▁tabanca
▁varacak
▁çiftlik
▁öldürür
ashington
▁Konuşmak
▁bekledik
▁bulmadım
▁doktorun
▁hatırlat
▁izlerken
▁kaldığım
▁kimyasal
▁mahvetti
▁olacaktı
▁ortalama
▁piyanist
▁pişirmek
▁toplandı
▁zorlukla
▁öğrendik
▁almıyorum
▁deneyelim
▁edeceğine
▁evlenecek
▁gerisinde
▁geçiniyor
▁gidiyordu
▁gülümseme
▁konuşmada
▁koyduğunu
▁köpeğinin
▁mantıksız
▁olacaklar
▁unutmayın
▁vazgeçmek
▁çıkmasını
▁Bugünlerde
▁Toplantıya
▁almaktadır
▁alternatif
▁anlayamadı
▁bisikletim
▁kararmadan
▁yaklaşıyor
▁yemediğini
▁bitirdikten
▁söylemesine
▁geleceğinden
▁yaşamaktadır
gh
no
Sen
odu
sim
şiş
▁Ey
rans
üğüm
▁Ofi
▁Tır
▁Yön
▁ipi
kanda
teyim
vanoz
şamba
▁Golf
▁Konu
▁Sine
▁Teyz
▁ekşi
▁elle
▁kole
▁notu
alılar
liksiz
lığımı
▁Aslan
▁Güçlü
▁Param
▁Tuhaf
▁Yarış
▁Yüzme
▁ilham
▁rakip
▁yıkar
▁zafer
▁zemin
▁çıkıp
lanmaya
uşturdu
▁Mektub
▁Saçını
▁aklıma
▁anneme
▁boşuna
▁geceki
▁gündüz
▁kestim
▁olanak
▁savaşa
▁şansın
▁Hemşire
▁Satranç
▁canavar
▁değilse
▁giderse
▁göründü
▁korktuğ
▁mahalle
▁olmazsa
▁soruyor
▁uymuyor
▁uzaktan
▁aramızda
▁bildirin
▁doğruydu
▁giderler
▁görmedin
▁haklıydı
▁iyileşti
▁kiraladı
▁kullanım
▁köpekler
▁merhamet
▁müdahale
▁piyanoyu
▁pişirdim
▁protesto
▁voleybol
▁yalnızdı
▁Çikolata
▁Olimpiyat
▁bakıyorum
▁düzenledi
▁geliyordu
▁giysileri
▁görünümlü
▁gülmekten
▁kapatmayı
▁korkunçtu
▁oynayacak
▁sessizlik
▁takıyordu
bileceğimiz
layabilirim
▁Söylediğim
▁bazılarını
▁biliyorduk
▁eskisinden
▁ödeyeceğim
▁giysilerini
▁matematikte
▁olmalısınız
▁çalışacağız
▁hissettiriyor
▁yapmayacağına
▁değiştirebilir
▁güvenebilirsin
çü
sep
▁Bi
▁Jo
▁Ze
eral
kray
urie
▁Diz
▁Hes
▁Men
▁Por
▁hip
▁laf
▁lav
▁tom
▁üşü
ostüm
▁Part
▁Sebe
▁Yang
▁adre
▁aşağ
▁eşek
▁inek
▁tale
ferans
çileri
▁Anlaş
▁Gazet
▁Meyve
▁davul
▁dikiş
▁gezin
▁hesab
▁içtin
▁kaşık
▁mahve
▁nehre
▁terör
▁tuzak
▁yedek
▁yendi
lıkları
▁Dinlen
▁Evimin
▁Modern
▁Saatim
▁bulmam
▁dostum
▁elimde
▁insana
▁kutsal
▁tespit
▁toplam
▁uçuyor
▁çiftçi
larınıza
ristiyan
ılmasını
▁Evlilik
▁Olanlar
▁felaket
▁gelirim
▁girecek
▁işçiler
▁kızardı
▁severiz
▁sürmeye
▁vermeni
▁yazılım
▁çözmeye
▁şeklini
▁Hayvanat
▁alerjisi
▁cesedini
▁gazeteyi
▁kasabaya
▁kaybeder
▁ofisimde
▁telefona
▁uygunsuz
▁Şimdilik
▁Berberice
▁Zamanında
▁duyduğumu
▁edersiniz
▁hayvandır
▁korkmuştu
▁koşabilir
▁geliyorsun
▁geçirdiler
▁hatırlattı
▁konuşurlar
▁Fransızcaya
▁beklenmedik
▁buluşacağız
▁isteyebilir
▁yaralanmadı
▁çalışmasını
▁hapishaneden
▁hissettiğimi
▁zorundasınız
▁beklediğimden
▁söyleyemezsin
ebe
ija
pag
rik
vüz
anıt
arız
itam
kana
keli
meti
neye
▁Hil
▁Vay
▁Yas
▁You
▁kök
▁şef
iftek
racak
çidir
▁Kent
▁Kime
▁devr
▁etik
▁hobi
▁tecr
▁yapı
▁Ülke
luluğu
stival
tümser
▁Hatır
▁Jones
▁Nisan
▁alçak
▁bakan
▁buydu
▁grubu
▁harap
▁ihbar
▁kafam
▁kovdu
▁nasih
▁odamı
▁salat
▁sonuc
▁tavan
▁temin
▁çeliş
▁önems
▁almanı
▁anlaşı
▁ararım
▁açıdan
▁cerrah
▁ekstra
▁kalmaz
▁yaradı
▁yoluna
mamıştım
mazsınız
▁Bugünün
▁Genelde
▁bakmayı
▁güneşli
▁hakkına
▁konuşul
▁kurmaya
▁nezaket
▁noktada
▁paranın
▁satılık
▁sınıfın
▁tükendi
▁yüzerek
▁yıkamak
▁yıkıyor
▁yıldızı
▁çevrede
▁arkadaşa
▁gidersin
▁ihtimali
▁meşgulüz
▁sözünden
▁yetersiz
▁öfkesini
▁üyesidir
▁ağlıyordu
▁bahsetmek
▁baktığını
▁beklemeye
▁ettiğinde
▁evlenmeyi
▁fısıldadı
▁geçirmeyi
▁gözlerine
▁haberleri
▁ilerliyor
▁kendinizi
▁telefonla
▁yazabilir
▁biliyordun
▁etkilemeye
▁ilgilenmek
▁kaybedecek
▁konuştular
▁kullanmaya
▁reddedildi
▁söylemeden
▁tartışıyor
▁vereceksin
▁yaptığında
▁çikolatalı
▁anahtarları
▁deneyeceğim
▁karşılaştık
▁kitaplarını
▁köpeklerden
▁planlamıyor
▁heyecanlıyım
▁hissediyordu
▁duyabiliyorum
▁istediklerini
▁planlamıyorum
▁süpermarkette
öf
ska
uar
▁FB
başı
emen
▁Hir
▁Not
▁Sos
▁küt
▁çöl
erler
şembe
▁Aman
▁Lucy
▁Ordu
▁akar
▁açma
▁bite
▁salı
▁yavr
▁ölen
▁Şart
lamama
postal
▁Posta
▁Ukray
▁demok
▁havuç
▁işgal
▁keşif
▁kolye
▁kutlu
▁muhab
▁otele
▁sabit
▁telaş
▁yandı
▁yönde
▁yükse
▁çatal
▁ödevi
elendir
mediler
▁Berlin
▁Ekonom
▁Sensiz
▁evlili
▁kaplan
▁konuya
▁koruma
▁köşede
▁seçtik
▁şoförü
amayacak
duğundan
ildiğini
lacağını
▁Sınıfta
▁annemin
▁bakacak
▁dilidir
▁efendim
▁kalırsa
▁koşuyor
▁nükleer
▁oradaki
▁savunma
▁sıkışık
▁unutmak
▁yangını
▁yazıldı
▁yaşadık
▁yıkıldı
▁çevrili
▁Sonuçlar
▁alıyordu
▁inanacak
▁kalkarım
▁kapattım
▁kaçırmış
▁yasaktır
▁çevirmen
▁çocukluk
▁Hristiyan
▁biletleri
▁bulacağız
▁dakikalık
▁günlüğüne
▁hikayeler
▁kaybetmiş
▁programın
▁selamladı
▁takımında
▁Özellikle
▁öldürecek
▁öğrenmeyi
▁beklemiyor
▁bitirmedim
▁edemeyecek
▁etkilenmiş
▁gökyüzünde
▁katlanamam
▁kollarında
▁memnuniyet
▁meteliksiz
▁saklanıyor
▁uzaklaştır
▁çocuklarım
▁arkadaşımın
▁arkadaşıyla
▁beklemekten
▁bıraktığını
▁ediyorsunuz
▁geçiriyorum
▁kalabilirim
▁sakinleştir
▁İstediğiniz
▁düşünüyorlar
▁görebilirsin
▁istasyonunda
▁istiyorsanız
▁konuşuyorlar
▁sorunlarımız
▁hoşlanacağını
▁vermeyeceğini
naz
omu
uğa
▁ga
skop
▁Meg
▁Müş
▁Val
▁psi
▁til
▁Öde
cavüz
renin
sızdı
tığın
▁Bina
▁Char
▁Umut
▁anal
▁İran
gileri
kileri
umuzun
▁Başım
▁Komik
▁Nefes
▁atmos
▁açgöz
▁gümüş
▁irade
▁iyice
▁kurul
▁kuzey
▁saate
▁sesli
▁sudan
▁zirve
▁Çorba
▁çizdi
▁İbran
▁İkisi
leridir
lığınız
▁Sonsuz
▁aykırı
▁bacağı
▁buğday
▁düştüm
▁epeyce
▁gelmen
▁geçine
▁ilerle
▁kuşlar
▁oradan
▁tezgah
▁yüzüğü
▁çıkara
▁Bayramı
▁binmeyi
▁canlısı
▁eğlendi
▁fırladı
▁geçmedi
▁geçmeye
▁görüşme
▁karardı
▁pişirir
▁saklaya
▁taşımak
▁yapayım
▁zehirli
▁Şikayet
▁Başarılı
▁Ellerini
▁anlamını
▁aynısını
▁açıkçası
▁baktılar
▁başvurdu
▁dakikaya
▁ettirmek
▁gerçekçi
▁kokusunu
▁mutluyuz
▁okuyordu
▁sürerken
▁temizlik
▁varlıklı
▁çıkmadan
▁bırakmadı
▁etmiyoruz
▁güvenliği
▁temizleme
▁yağabilir
▁alamıyorum
▁biliyorlar
▁cinayetten
▁eşyalarını
▁hakkımızda
▁hikayesini
▁sözleşmeyi
▁vermeliyiz
▁şaşırmadım
▁konuşuyoruz
▁Bilgisayarım
▁Buzdolabında
▁hayvanlardır
▁Öğretmenimiz
▁ilgilendiğini
▁kullanacağını
▁söylemeliydin
▁arkadaşlarımdan
eç
atı
gon
pri
▁Ce
▁ag
isti
onik
▁Bat
▁Kob
▁Kıs
▁dür
▁tay
laman
lekli
▁Kalk
▁dede
▁grip
▁lüks
▁oydu
▁rafa
▁rock
▁saya
▁Çatı
▁şunu
jderha
lasyon
ğinden
▁Altın
▁Davet
▁Köprü
▁Yolda
▁düzey
▁ilgim
▁kenti
▁nemli
▁otura
▁soktu
▁çubuk
▁çıkan
▁Şarap
▁şekli
ecektir
▁Konuyu
▁Laurie
▁boşalt
▁ceketi
▁cezaev
▁duruma
▁düşüne
▁gemiye
▁gencim
▁gitarı
▁havalı
▁inandı
▁iyiyiz
▁neyden
▁teknik
▁uzmanı
▁yaktım
▁yazdın
▁yazılı
▁yelken
▁yoldur
▁Avustur
▁Değişik
▁Düşünce
▁Hareket
▁Polonya
▁bakmaya
▁dokundu
▁edinmek
▁gelirse
▁günümüz
▁kocaman
▁koşarak
▁olursun
▁uyardım
▁veririm
▁yemiyor
▁yürüdük
▁Çocuğun
▁Anahtarı
▁Japonlar
▁Politika
▁Telefonu
▁Yardımın
▁başımıza
▁diyorsun
▁gösterin
▁olamazdı
▁patlamış
▁söylerdi
▁söyleyip
▁uyumadım
▁hediyeler
▁hepimizin
▁kendimizi
▁mutluydum
▁potansiye
▁yaşayacak
▁çıkarıyor
▁öldüğünde
▁öğrenmesi
▁İnsanlara
▁gördüğümüz
▁hoşlanmadı
▁kelimeleri
▁müşteriler
▁olanlardan
▁sinirlendi
▁soruyorsun
▁veremezsin
▁endişeliyiz
▁güvenebilir
▁hissetmedim
▁kullanılmış
▁televizyonu
▁başlayacağım
▁beklemiyorum
▁biliyorsunuz
▁edilmektedir
▁suçlamıyorum
▁Anahtarlarımı
▁arkadaşlarını
▁söylemeyeceğine
ho
ard
azz
fun
nam
nda
asul
ende
lüğe
orma
tılı
ydik
▁Vak
▁izi
▁şaf
kanlı
tayım
▁Arka
▁Dost
▁Juli
▁Peyn
▁alev
▁arzu
▁feda
▁gram
▁nokt
▁yaya
▁Üzer
▁şifr
emizde
ilemez
rikada
ınızın
▁Bacak
▁Günün
▁Karın
▁Kimle
▁Müdür
▁Sokak
▁gölde
▁güreş
▁kanun
▁keşfe
▁küfür
▁kıran
▁limon
▁oranı
▁sürün
▁sıktı
▁tarla
▁torba
▁yakıt
luğunda
lığının
pagetti
▁besler
▁bilmen
▁dükkân
▁kilolu
▁liseye
▁paketi
▁plajda
▁uçakta
▁yapsan
▁ölmeyi
▁Katolik
▁Program
▁Sipariş
▁Tuvalet
▁ailenin
▁atlattı
▁bilmesi
▁bulmaca
▁elmalar
▁güneşin
▁konuyla
▁kuruldu
▁kısmını
▁mürekke
▁radyoyu
▁sigorta
▁sırrını
▁tanıttı
▁umduğum
▁yazdığı
▁yiyoruz
▁zararlı
▁ölümüne
▁önemsiz
▁Patronum
▁birisini
▁gidersen
▁gitmenin
▁gitmişti
▁giyinmiş
▁giymişti
▁hapisten
▁hepimizi
▁içiyorum
▁korkarım
▁önerdiği
▁şirkette
▁Kütüphane
▁Yıllardır
▁bilseydim
▁cüzdanımı
▁farklıydı
▁hayatımın
▁kelimenin
▁konuşmamı
▁mümkündür
▁oynuyordu
▁pişirmeyi
▁zamanının
▁çıkmasına
▁Hiçbirimiz
▁beceriksiz
▁benziyordu
▁bırakmayın
▁davranmaya
▁göstereyim
▁hazırlıyor
▁parçasıdır
▁çalıştığım
▁fotoğrafını
▁hoşlanmadım
▁milyonlarca
▁kalabilirsin
▁yapabileceğin
Onu
ata
ent
kip
sus
▁Ap
▁Va
ahiş
bire
eler
elli
hite
izde
leği
time
önül
ülte
▁Gök
▁cil
▁ima
▁kel
▁rap
▁toh
incir
tikçe
▁Burn
▁Büyü
▁Kili
▁atma
▁dahi
▁gevş
▁iğne
▁kask
▁piya
▁puan
uluyum
▁Kuzen
▁alına
▁atlet
▁bildi
▁gezeg
▁ithal
▁lamba
▁melek
▁Çiçek
▁şansa
▁şükür
▁Birine
▁Emekli
▁Okumak
▁Sincap
▁amatör
▁dekore
▁diller
▁doksan
▁duymaz
▁heykel
▁izleri
▁içelim
▁kazaya
▁kovula
▁oynama
▁saatin
▁sahtek
▁sensiz
▁tecrüb
▁uykuda
▁vermiş
▁yemesi
▁çevrim
▁Arabanı
▁Kitabın
▁belgeyi
▁doğruca
▁filmden
▁görüşte
▁hevesli
▁kimsesi
▁kurtula
▁okuluna
▁saatlik
▁sevgili
▁sevmedi
▁silahlı
▁taşıyor
▁ödülünü
▁Hastalık
▁birazcık
▁buldular
▁bunların
▁dersiniz
▁doğuştan
▁geçimini
▁güzelsin
▁harekete
▁hayatına
▁hayranım
▁ilişkiyi
▁kafasına
▁kalkıyor
▁kocasını
▁kullanıl
▁kullanın
▁kötümser
▁küçüktür
▁numaramı
▁orijinal
▁standart
▁veremedi
diğimizden
▁Yapılması
▁ayrılmayı
▁dakikadan
▁doğduğunu
▁dönünceye
▁gitmemeye
▁güzelliği
▁hoşlandım
▁ilgilenir
▁kopyasını
▁kırıklığı
▁kızgınsın
▁okuduğunu
▁paylaşmak
▁planlarım
▁sınıftaki
▁tanıyoruz
▁veriyoruz
▁çıkacağım
▁şarkıları
▁şemsiyemi
▁dinlemiyor
▁edildiğini
▁giyiyorsun
▁gözyaşları
▁isimlerini
▁kartpostal
▁kaçınılmaz
▁kolaylıkla
▁olamayacak
▁uyuyamadım
▁Öğretmenin
▁Başlangıçta
▁arkadaşıdır
▁kitaplardan
▁öğretebilir
▁istediğimizi
▁bilgisayarını
▁görünmediğini
dol
ris
uşi
şır
▁cu
▁cı
▁ru
aray
ifte
iniş
ınak
▁Gez
▁Mez
▁kre
▁lay
▁vas
▁çör
akere
düncü
sızca
üstah
▁Bira
▁atan
▁camı
▁haft
▁izni
▁mini
▁olum
▁yaşı
▁övün
▁Fince
▁Gülüm
▁Kabul
▁Yirmi
▁dilin
▁fatur
▁göğüs
▁hüzün
▁konuk
▁layık
▁mimar
▁sıska
▁tedav
▁önlem
▁ürünü
incilik
▁Karısı
▁Restor
▁Sözleş
▁bahane
▁bilgim
▁birleş
▁fiyata
▁izinli
▁koydun
▁merdiv
▁okuyun
▁seksen
▁suyunu
▁suçsuz
▁uyudun
▁varmak
▁yediği
▁Haziran
▁alırsın
▁ağaçtan
▁bakarak
▁boşandı
▁bulalım
▁dairesi
▁dolaştı
▁durumun
▁düğmeye
▁görünen
▁konudan
▁konuşun
▁parayla
▁uyarmak
▁yaratır
▁yetecek
▁zekidir
▁Çalışma
▁Çamaşır
▁çıkarır
larımızın
▁eğlendim
▁güzellik
▁ikinizin
▁kararlar
▁katıldım
▁konuşman
▁memleket
▁milyoner
▁misafiri
▁oluyordu
▁taşındım
▁yapardın
▁yağmurda
▁yerlerde
▁açıkladım
▁bağırmaya
▁beklerken
▁değişiyor
▁inanamadı
▁karşısına
▁kazanmayı
▁kurallara
▁oturdular
▁pişiriyor
▁saçlarını
▁tanışmanı
▁vurduğunu
▁yazdığını
abilirsiniz
▁Yunanistan
▁almıyorsun
▁dairesinde
▁filmlerini
▁gidiyorlar
▁kullanırım
▁makinesini
▁sonlarında
▁Fransızcası
▁arkadaşımdı
▁bilmiyormuş
▁destekliyor
▁görmemiştim
▁birbirimizle
▁istemiyordum
▁yapmayacağız
▁çocuklarıyla
▁öğretmenimiz
▁arkadaşlarımla
boy
iro
▁Pi
pera
unus
örün
üste
▁Böl
▁Kes
▁kli
▁paz
▁ütü
ikâye
kolik
makta
sijen
unuza
yarak
▁Adın
▁Dede
▁Matt
▁Mide
▁Uçuş
▁Yöne
▁aley
▁melo
▁okun
▁uçur
▁ziya
▁şarj
abildi
liforn
mazsan
tikten
▁Kayak
▁Mayıs
▁Susan
▁Tavuk
▁ahlak
▁arası
▁dövdü
▁etsen
▁kanat
▁masaj
▁nesne
▁süren
▁trans
▁ölüme
▁öptün
ampanya
leyelim
▁Bardak
▁Gelmek
▁Kullan
▁askıya
▁ateşli
▁beyler
▁döndür
▁dörtte
▁geziye
▁havuza
▁kalsın
▁mantar
▁mucize
▁müsait
▁onayla
▁saygın
▁seçici
▁sormam
▁tarafı
▁varsay
▁çaldım
▁çıkmış
abilecek
▁Araştır
▁Yaşamak
▁açıklar
▁boyamak
▁dairede
▁davrana
▁düşünüp
▁dışarda
▁elbette
▁eşittir
▁gidemez
▁görürüm
▁haftaya
▁kaldıra
▁kaptanı
▁kaçmaya
▁kısadır
▁sonları
▁susamış
▁veremez
▁yaratık
▁Güvenlik
▁Kabiliye
▁anlaşmaz
▁atıyordu
▁bulmakta
▁cevabını
▁cevaplar
▁dedikodu
▁demektir
▁dinlemez
▁edebilip
▁fazladır
▁geçinmek
▁güvenmek
▁herkesle
▁ilerledi
▁izlerini
▁oturalım
▁sormadım
▁sınavını
▁taraftan
▁topluyor
▁yaşarlar
▁Başarısız
▁bakacağım
▁cevaplaya
▁düşünürüm
▁gömleğini
▁göremiyor
▁gösterdim
▁götürüldü
▁kiralamak
▁olmadığım
▁partimize
▁taşınmayı
▁vereceğiz
▁vericiydi
▁önyargılı
▁İhtiyacın
abileceğimi
▁ayrıldılar
▁beklememiz
▁gittiğinde
▁karıştırdı
▁tanıştınız
▁çıkacağını
▁başkalarına
▁beklentiler
▁evlendiğini
▁geçirdiğini
▁ihtiyaçları
▁sevmediğimi
▁söylemiştim
▁toplantının
▁Uluslararası
▁anlamıyorsun
▁başladığında
▁istediğinizi
▁katılmıyorum
▁söylediğimde
▁süpermarkete
▁verebilirsin
▁kazanmayacağını
Sa
mı
Bil
riz
▁ni
arna
cini
eyik
güdü
ymış
şığı
▁Bri
▁Kel
▁Ruh
▁Seb
▁izn
▁Ödü
diyan
kacak
lemin
lüyüm
▁ahır
▁aktr
▁aran
▁gidi
▁payı
▁semt
▁terc
unuyor
çiliği
üpiter
▁Aklım
▁Bunda
▁Kalem
▁Korku
▁Kızın
▁Madem
▁aşkın
▁bozdu
▁cahil
▁dilek
▁durun
▁gözde
▁ipucu
▁korid
▁lavab
▁mütev
▁santi
▁uzlaş
▁öptüğ
▁öğlen
ilerine
▁Mayuko
▁almalı
▁babamı
▁cennet
▁dediği
▁devral
▁gözünü
▁kaçmak
▁kötüsü
▁motoru
▁nereli
▁riskli
▁strate
▁vücudu
▁yırttı
▁çantan
▁ülkeye
▁Şanslı
larımıza
madığına
mayacağı
▁Kişisel
▁Kraliçe
▁Tiyatro
▁Yatmaya
▁birinde
▁duyarlı
▁duyunca
▁içinden
▁katılır
▁tepeden
▁türüdür
▁unuttuğ
▁yazmadı
▁çekmeye
▁Sağlıklı
▁doktorla
▁eğilimli
▁gereksiz
▁girmeden
▁gönderir
▁kalemini
▁kazandın
▁makaleyi
▁olmamızı
▁soyadını
▁takılmak
▁tartıştı
▁yürürken
▁İbranice
▁başarıydı
▁birbirini
▁deneyimli
▁fazlasına
▁hamburger
▁ilginçtir
▁istemedik
▁katılmayı
▁operasyon
▁tehlikeye
▁teknoloji
▁yiyeceğiz
▁Çocukları
▁Şemsiyemi
▁Geçenlerde
▁arkadaşlık
▁bekleyemem
▁bulacağımı
▁bulmalıyız
▁geleneksel
▁gerçekleri
▁kardeşiyle
▁sonbaharda
▁söylemezdi
▁yapmasının
▁yüzeceğini
▁alışkanlığı
▁değişikliği
▁duyamıyorum
▁gidebiliriz
▁hapishaneye
▁karanlıktan
▁karardıktan
▁karıştırıcı
▁konuşmasına
▁yapmalıydım
▁zorundaydık
▁öğretmenlik
▁istemediğine
▁kaybettiğini
▁kullanmasına
▁reddediyorum
▁değişiklikler
▁öğretebilirim
aj
ald
enip
izin
seri
ünel
ızın
▁Far
▁Kör
▁Ola
▁Reh
▁aln
▁ark
▁pir
▁yoğ
▁Çim
Onlar
aneyi
ikrar
kalya
▁Cina
▁Grup
▁Kobe
▁Kurt
▁atar
▁basa
▁dini
▁pija
▁seve
▁uçan
▁vade
▁çayı
▁çöpü
duktan
istler
larlar
ılandı
▁Evimi
▁Sabır
▁bence
▁biber
▁bölün
▁eline
▁gülme
▁hakim
▁ispat
▁kesme
▁kiraz
▁kocam
▁maaşı
▁mesaf
▁saçlı
▁sağdu
▁stres
▁taciz
▁vurgu
▁yeğen
▁yürüt
▁zalim
▁çatış
▁çekir
▁Kaybol
▁Kilise
▁Polise
▁adresi
▁doğmuş
▁duymuş
▁evimin
▁gecede
▁içimde
▁karara
▁kutuya
▁tarafa
▁uçakla
▁yürüme
▁Çantan
▁öneren
masından
▁Jüpiter
▁aradığı
▁bilgili
▁dönmeye
▁evlidir
▁gelemem
▁gelemez
▁gidebil
▁kalırım
▁kavanoz
▁kazanan
▁listesi
▁mazeret
▁nasihat
▁okumadı
▁organiz
▁otopark
▁partiyi
▁rahatla
▁sesleri
▁sonrayı
▁tabloyu
▁tutmayı
▁verimli
▁yaşadın
▁Egzersiz
▁Mutfakta
▁attığını
▁bitirdik
▁ettiğine
▁insansın
▁karısına
▁kitaptan
▁onayladı
▁organize
▁otoriter
▁söndürdü
▁söylenir
▁Çalışmak
▁deneyimdi
▁dinlenmek
▁durmasını
▁düzeltmek
▁evlenmeye
▁fabrikada
▁görevlisi
▁hatalısın
▁katılacak
▁konuşulan
▁parmağını
▁pişirmede
▁sanıyorum
▁sınıfında
▁tiyatroya
▁çıkarıldı
▁öldürüyor
▁arayabilir
▁bugünlerde
▁döndüğünde
▁güvenilmez
▁isteksizce
▁kaybetmeye
▁pencerenin
▁söylüyordu
▁yükseliyor
▁görülebilir
▁kaybettiler
▁yapmadığımı
▁Başkalarının
▁bekleyeceğini
▁dayanamıyorum
▁yapamayacağımı
bay
kab
ole
ota
ump
▁Ad
▁Bö
▁nö
▁öt
▁öy
ment
stır
tisi
unki
ımar
ırga
▁His
▁hil
▁çey
abere
bilen
etnam
ümden
ünüzü
▁Ange
▁Benz
▁Hedi
▁Yumi
▁aras
▁nefe
▁razı
▁suda
▁topl
▁üstü
▁İçki
emeyiz
sundan
▁Bağır
▁Düzen
▁Gitme
▁Kağıt
▁Kulak
▁Odayı
▁Yorum
▁adada
▁alman
▁beste
▁boyan
▁efsan
▁fasul
▁formu
▁geçiş
▁güler
▁harit
▁keser
▁koyma
▁kürek
▁masal
▁sürüş
▁tutuş
▁umurs
▁yemiş
▁Ödünç
▁ülkem
leniyor
lumbağa
müyorum
▁Berbat
▁Gözlük
▁Kutuda
▁Randev
▁Raporu
▁Sınavı
▁anında
▁arkada
▁gemide
▁isteği
▁karbon
▁korkma
▁person
▁sürmez
▁sıkıca
▁takıma
leceğini
▁Gençken
▁Hayalet
▁Johnson
▁Kapının
▁Tayland
▁bulaşık
▁dişleri
▁dişçiye
▁doğduğu
▁duyduğu
▁dönüştü
▁edilmek
▁giriyor
▁girişim
▁güçleri
▁insanım
▁istisna
▁kalbini
▁kibarca
▁kızının
▁raporun
▁sevilir
▁yediler
▁yükselt
▁önceydi
▁İçeriye
▁şanslar
▁Köpeğimi
▁bildiğin
▁dolardan
▁döndüğüm
▁edilmesi
▁elbisesi
▁kaçınmak
▁kontrolü
▁makineyi
▁oğulları
▁paraları
▁suçluyor
▁tanınmış
▁yarısına
▁yiyorsun
▁yıldırım
▁çekingen
▁çıktılar
▁ölüyordu
bileceğine
▁Basketbol
▁Diğerleri
▁alkışladı
▁bahsettim
▁bağışladı
▁bilebilir
▁dönmesini
▁edecektir
▁etmiyordu
▁getirmeyi
▁kapalıdır
▁konuşmama
▁kullanmam
▁satrançta
▁sevgilisi
▁takımının
▁yürüyordu
▁çantasına
▁şemsiyesi
▁bakıyorsun
▁duyduğumda
▁geçerlidir
▁gidemezsin
▁yaptığının
▁şanslıydım
▁hissettirdi
▁sınıfındaki
▁Ebeveynlerin
▁edebileceğim
▁konuşuyordum
▁korkmadığını
▁kurabiyeleri
▁söylemeliyiz
▁tanımadığını
▁Üniversitesi
▁açıklayacağım
▁endişelenecek
▁yapmayacağımı
▁birbirlerinden
▁konuşabilirsin
ari
mer
oga
omi
sur
tip
usa
▁Üş
eyen
gele
luğa
rama
ülük
▁Cam
▁Fen
▁Kok
▁Pik
▁Tor
▁Uyk
▁Zam
▁büt
▁nab
▁pen
▁rob
▁sir
▁umr
▁yir
danın
imine
siyet
tmaya
ınava
▁Ayda
▁Gali
▁Kapa
▁Katı
▁Kilo
▁bomb
▁iple
▁pusu
▁sırı
▁yani
asıyla
dirler
likler
lüğümü
ülüyor
▁Garaj
▁Kredi
▁Kızıl
▁Nadir
▁Perde
▁Sanat
▁aleyh
▁cihaz
▁dikti
▁elimi
▁espri
▁fahiş
▁hatta
▁hitap
▁iflas
▁kömür
▁sardı
▁sundu
▁yüzdü
▁Şemsi
▁şöyle
lamadım
▁Ertesi
▁Millet
▁Pirinç
▁Temmuz
▁Yaprak
▁ateşin
▁babama
▁doları
▁etmede
▁etmene
▁korsan
▁olmana
▁sanatı
▁zincir
▁ödüyor
▁Birinci
▁Vietnam
▁ağlamak
▁bakındı
▁birisin
▁hastası
▁kalmamı
▁kibardı
▁kraliçe
▁partime
▁projeyi
▁saygılı
▁takıldı
▁tecavüz
▁utandır
▁yaşardı
▁Binlerce
▁bulunmak
▁cehennem
▁eğlenmek
▁gitarist
▁görmemiş
▁haberdar
▁iyisidir
▁içindeki
▁kararsız
▁kazandır
▁kovaladı
▁kullanış
▁kutusunu
▁masasına
▁mutludur
▁olamayız
▁planladı
▁sonbahar
▁sıcaklık
▁temizler
▁yanlıştı
▁yedikten
▁Babasının
▁annesiyle
▁arabaları
▁düşünerek
▁geldiğimi
▁gitmemesi
▁gittikten
▁iletişime
▁karakteri
▁olmamıştı
▁tanıyordu
▁telefonun
▁uyandırdı
▁yemiyorum
▁çektiğini
▁bulmalıyım
▁buluyorsun
▁bıraktılar
▁elbiseleri
▁hastalandı
▁sandalyeye
▁seveceksin
▁sevmiyordu
▁sürmeyecek
▁temizliyor
▁vermeliyim
▁yapacaktır
▁çalıştırdı
▁ayrıntıları
▁başarılıydı
▁bırakabilir
▁kahvaltıdan
▁resimlerini
▁sormuyorsun
▁çocuklardan
▁olmayacaksın
▁Öğrencilerin
▁çalışmalıyız
▁çalışmaktadır
▁konuşabildiğini
ord
par
sit
ube
uşu
▁eg
▁sü
akes
anlı
brit
dava
hret
kova
rail
varı
ümün
üsün
şama
▁Dal
▁Döv
▁Kem
▁Soy
▁ecz
▁ten
▁Çal
emini
leyen
luğun
▁Hede
▁Maaş
▁Plaj
▁Sist
▁Umur
▁adlı
▁bara
▁doğu
▁foto
▁göğs
▁keki
▁pasp
▁soyg
▁yıla
▁şehr
edecek
gisini
landık
ılmalı
▁Hapis
▁Odaya
▁Pizza
▁alaka
▁asist
▁bedel
▁bilge
▁ceset
▁dağın
▁direk
▁doldu
▁gölet
▁gören
▁ideal
▁kalıp
▁köken
▁odama
▁onsuz
▁pound
▁susuz
▁tanıt
▁yansı
▁yürek
▁ıslık
dığının
lamıyor
mamızın
▁Dondur
▁Finlan
▁aksanı
▁alışık
▁bayrak
▁durgun
▁duvarı
▁emindi
▁fıstık
▁kafalı
▁kimden
▁koşucu
▁kışkır
▁melodi
▁terket
▁töreni
▁Üçüncü
▁Ukrayna
▁Yunanca
▁Zelanda
▁avukata
▁dönmeyi
▁evliydi
▁giderek
▁görüştü
▁gözüyle
▁kadındı
▁koridor
▁listeye
▁patronu
▁polisin
▁sarışın
▁savaşın
▁sırtını
▁teselli
▁yaşamış
▁yüzebil
▁İskoçya
▁Şüpheli
▁Hayatımı
▁azarladı
▁başlangı
▁bekletti
▁cinayeti
▁dinleyin
▁gitarını
▁meselesi
▁sonuçlar
▁tanıklık
▁tereyağı
▁varmadan
▁çalışman
▁şarkının
▁şeylerim
▁Kendimizi
▁anlatacak
▁arıyordum
▁baharatlı
▁belgeleri
▁bilmesine
▁etkilemek
▁giydiğini
▁gözaltına
▁hatalıydı
▁ilgilendi
▁kanserden
▁kapalıydı
▁katılmaya
▁meslektaş
▁neredeydi
▁olmasının
▁pencereye
▁yapmamanı
▁yorgundum
▁yürüdüler
▁öğretmene
▁şikayetçi
▁açıklamaya
▁bekleyecek
▁görüyorsun
▁hazırlıklı
▁neşelendir
▁olmalıydım
▁yeteneğine
▁algınlığına
▁dilemelisin
▁dolandırıcı
▁gitmemesini
▁kalabalıktı
▁lezzetliydi
▁İhtiyacımız
▁arkadaşlarla
▁konuşmayacak
▁İngilizcenin
▁temizlemesine
▁endişeleniyorum
▁ilgilenmediğini
",
dor
ekk
est
sık
üri
ğüş
▁Fe
▁üf
nete
radı
yici
▁Ale
▁Boy
▁Ceh
▁Dos
▁Eli
▁Gem
▁Kup
▁Nag
▁Nuh
▁Rio
▁kri
▁oya
▁sus
▁Çiz
asebe
iliğe
sızın
çıvan
ümüzü
ındık
▁Kamp
▁Topu
▁alık
▁apta
▁atom
▁balk
▁blöf
▁diya
▁fırç
▁ilet
▁kase
▁leke
▁sada
▁solu
▁vize
▁İtir
dırlar
eterya
portaj
ülemez
ılırsa
▁Bende
▁aşama
▁biter
▁casus
▁dilli
▁durma
▁dövme
▁düşer
▁gayet
▁kayna
▁kaçak
▁kumaş
▁kurut
▁masam
▁olayı
▁sabun
▁sinek
▁takma
▁türde
▁tıpkı
▁vurul
▁yapım
▁yaşan
lanmayı
layamam
lerimle
peratif
ırıldan
şıkları
▁Kapıda
▁Kutuyu
▁Paraya
▁Tanaka
▁Toplan
▁bahşiş
▁bastır
▁bulduğ
▁değeri
▁görmen
▁hapşır
▁havuzu
▁inşaat
▁kostüm
▁müdürü
▁müzeye
▁süresi
▁vurdun
▁yabani
▁yumurt
▁çeyrek
▁çıkarı
▁üzüntü
▁Fikrini
▁Heyecan
▁Köpeğin
▁aileden
▁ayrılma
▁belirli
▁beşinci
▁boşanma
▁büyüyor
▁denizde
▁dükkanı
▁düşünün
▁giyindi
▁işlerim
▁karınca
▁konuldu
▁kuruyor
▁kımılda
▁nüfusun
▁politik
▁soracak
▁sormayı
▁tutuldu
▁ucuzdur
▁yağdığı
▁yüzemez
▁öfkelen
eceğimizi
liforniya
▁ağlamayı
▁beyazdır
▁beğendim
▁bırakmış
▁ettirdim
▁evlendim
▁gönderin
▁güvercin
▁haftanın
▁hazırlık
▁karşıyım
▁savaştan
▁saçmalık
▁sekreter
▁seslendi
▁sıradışı
▁ulaşmaya
▁yaşlısın
▁yemekler
▁çalarken
▁çalmakla
▁çocuksun
▁Avusturya
▁Yapılacak
▁arasından
▁bakabilir
▁dinlemedi
▁düzenleme
▁iyileştir
▁kasabanın
▁katılmadı
▁konuşmanı
▁kırmızıya
▁mektuplar
▁nitelikli
▁söylerdim
▁yapamazdı
▁yaptırdım
▁yayınladı
▁yaşayamaz
▁yönlendir
▁şanslısın
▁Sevgililer
▁bilmeyecek
▁bırakılmak
▁hikayeleri
▁iyileşiyor
▁kadınların
▁kullanılan
▁olabilecek
▁soğukkanlı
▁söylemenin
▁tanıdığımı
▁tekerlekli
▁vardığında
▁çevresinde
▁arkasındaki
▁başladığını
▁desteklemek
▁gelmiyorsun
▁gerekebilir
▁inanmayacak
▁korkuyorsun
▁kötüleşiyor
▁bilgisayarım
▁değiştirmeye
▁düşündüğümüz
▁endişelenmek
▁Çocuklarımın
▁Üniversiteye
▁İngilizceden
▁hatırlayamadı
,"
nu
Hiç
mut
uku
ümr
üzg
▁St
▁uf
Bana
bama
cına
eğim
gesi
geçe
hael
jedi
neme
▁Kum
▁Mes
▁Mos
▁Tim
▁ere
▁inç
▁ker
▁sim
cıydı
iğini
letti
luyla
luyuz
lülük
tunuz
▁Deli
▁Mahk
▁karn
▁meyv
▁soğu
▁çete
▁İzin
▁İşim
akespe
emizin
inizle
önüllü
▁Atlan
▁Deney
▁Evren
▁Fikir
▁Gerek
▁Gözde
▁Kamer
▁Nehri
▁ayrım
▁diken
▁dönük
▁evimi
▁gömdü
▁gömül
▁litre
▁metin
▁mışıl
▁seçil
▁sürük
▁terap
▁umudu
▁yazan
▁yağma
▁yörün
▁çürük
▁ısını
▁Şubat
lamanın
lanması
leşiyor
ılmadık
▁Britan
▁Dükkan
▁Galiba
▁Komite
▁Kurşun
▁Sandal
▁almama
▁anadil
▁analiz
▁döndün
▁garajı
▁hazine
▁kontak
▁kritik
▁kurnaz
▁macera
▁mahrem
▁sonuca
▁tadına
▁uyumlu
▁şekeri
abilirdi
▁Cesaret
▁adamdan
▁aşağıda
▁bayıldı
▁değişim
▁duygusu
▁etkiler
▁fırında
▁havadan
▁ilgisiz
▁kalamam
▁kurbanı
▁mevsimi
▁olumsuz
▁satıldı
▁stresli
▁uğrattı
▁veranda
▁vereyim
▁yediğim
▁İzlanda
▁İşçiler
larınızın
▁Arabanın
▁Aramızda
▁Endişeli
▁Nedenini
▁Portakal
▁dördüncü
▁gelmedim
▁gitmedin
▁haftadan
▁kadardır
▁kadınsın
▁kamerayı
▁kulübüne
▁patronum
▁sağlığın
▁taşımama
▁uğraşmak
▁yaraladı
▁Hayatımın
▁Tanıdığım
▁ameliyatı
▁bırakmanı
▁bırakmayı
▁durumunda
▁evleniyor
▁geçirecek
▁izleyerek
▁kullanıcı
▁kullanımı
▁sekreteri
▁söylersen
▁tamamladı
▁umursamaz
▁vermesine
▁yargılama
▁yatağında
▁çıkarmaya
▁Finlandiya
▁açıklaması
▁birincilik
▁cevaplamak
▁diplomatik
▁gelmelisin
▁hastaneden
▁kaldırıldı
▁kalıyorsun
▁korkutuyor
▁restoranın
▁söyleyebil
▁söyleyelim
▁telefonuna
▁uğradığını
▁yapacağıma
▁çalışırlar
▁çekinmeyin
▁İstediğini
▁Kaliforniya
▁Müslümanlar
▁gittiğinden
▁istemeyecek
▁katılmasını
▁kompozisyon
▁konuşamıyor
▁pasaportunu
▁çarptırıldı
▁öğrendiğini
▁Avustralyalı
▁düşündürüyor
▁endişeliydim
▁gelebilirsin
▁parmaklarını
▁ağlamayacağını
▁görünüyorlardı
▁Yapabileceğimiz
▁hatırlamadığını
ny
sp
ame
aşa
inç
zat
▁Sp
Onun
altı
cası
ımla
▁Dir
▁Nar
▁Sel
▁ant
▁hob
▁kıp
▁lab
▁ust
▁şık
Nasıl
inler
tacak
tifat
▁Aklı
▁Halk
▁List
▁algı
▁fren
▁kâğı
▁traf
▁Çant
kambil
undaki
ılmaya
▁Adını
▁Bahar
▁Demok
▁Kalan
▁Melan
▁Seçim
▁alana
▁artış
▁biçim
▁bozul
▁derde
▁dönme
▁dönüm
▁evren
▁kurgu
▁sosis
▁soğan
▁sömür
▁sözlü
▁tuzlu
▁viski
▁yiyen
larımda
tiğimiz
▁Hayatı
▁Kalbim
▁Soruyu
▁Sırada
▁aramam
▁biftek
▁doğrul
▁eriyor
▁gitsek
▁görüşü
▁kazanç
▁kimlik
▁koşmak
▁küstah
▁manzar
▁müziğe
▁okumam
▁pişmiş
▁sattım
▁sevmek
▁sinema
▁sınırı
▁tavana
▁yağmaz
▁yersin
▁yeryüz
▁İsrail
▁Gözleri
▁Hayatın
▁Macarca
▁Odadaki
▁Ormanda
▁agresif
▁almadık
▁babamla
▁benimse
▁dayanık
▁evdedir
▁gelişti
▁gençtir
▁giymeyi
▁hakları
▁izinsiz
▁kariyer
▁karşıla
▁katladı
▁olmadık
▁oturduk
▁vazgeçe
▁yarıyor
▁yavrusu
▁yiyemem
▁İlgilen
▁İnekler
▁İşlerin
akespeare
dığımızda
▁Dışarısı
▁Merdiven
▁Sebebini
▁açıklığa
▁gerekmez
▁gittiniz
▁haftalık
▁hatasını
▁hoşlandı
▁kaçırmak
▁kutluyor
▁saklamak
▁sağlıyor
▁severdim
▁spagetti
▁çıkmıyor
▁Arkadaşın
▁Eğlenceli
▁Süpermark
▁alamazsın
▁anlaşmaya
▁arkadaşla
▁bilmediği
▁düşünecek
▁gelmesine
▁kalmaktan
▁kalmasına
▁kazanması
▁sigortası
▁yaşadılar
▁yaşadığım
▁Çalışmaya
▁çekebilir
▁çıkabilir
▁İmparator
▁şanslıyım
▁düşünmeden
▁etmektedir
▁etmeliydim
▁fotoğrafçı
▁hediyeleri
▁karanlıktı
▁kontrolden
▁konuşmanın
▁sorumludur
▁yapmalıydı
▁yetiştirdi
▁yiyeceğini
▁arayacağını
▁bahsettiğim
▁istasyondan
▁söyleyemedi
▁bırakmalısın
▁vereceğinden
▁bulunmaktadır
▁kazanmadığını
▁umursamıyorum
▁yapmayacağından
hu
dön
sip
tes
▁Gu
▁Lu
▁dü
▁Öğ
▁Üc
ardo
dyum
eğen
lışı
miye
mura
onda
sefe
tığı
unur
▁Ant
▁Ayı
▁Dis
▁Hen
▁Mum
▁Nak
▁asp
▁diy
▁gol
▁mız
▁poz
larız
ustos
▁Ağır
▁Kula
▁Maha
▁Masa
▁Ocak
▁atla
▁büro
▁noel
▁vası
▁çalı
▁çiti
▁şaşk
ebildi
ermuar
imarka
laşmak
▁Ayağa
▁Fakir
▁Filmi
▁Gelen
▁Pasta
▁Pekin
▁Taksi
▁ayağı
▁aydan
▁aşina
▁birey
▁biten
▁bulan
▁bunal
▁dükkâ
▁esnek
▁geçme
▁imkân
▁krava
▁kızıl
▁muame
▁söndü
▁vitam
▁yanan
▁yanıp
▁yağsa
▁ötede
umuzdan
▁Kaybet
▁Paranı
▁Yaralı
▁Yoksul
▁açılır
▁barmen
▁binaya
▁butona
▁geveze
▁kadara
▁kalkış
▁kalıcı
▁kazayı
▁lideri
▁lisans
▁odamda
▁oluşan
▁piyang
▁salonu
▁saçımı
▁sözümü
▁sıraya
▁tebess
▁yenile
ceğinizi
ımızdaki
▁Cinayet
▁Kimseyi
▁Prenses
▁Sonsuza
▁akciğer
▁bahçeyi
▁dinleme
▁doğurdu
▁gideyim
▁hazırla
▁kalemin
▁kapandı
▁kelepçe
▁markete
▁uzunsun
▁yapanın
▁yöneldi
▁yıkadım
▁çorbası
larındaki
▁Dedektif
▁Paskalya
▁Problemi
▁alıyoruz
▁beğendin
▁bodrumda
▁cezasını
▁edebiyat
▁edemiyor
▁ehliyeti
▁eğitimli
▁fırsatım
▁gelemedi
▁görüşünü
▁güvensiz
▁hoşlanma
▁hızlıdır
▁incittim
▁kapatmak
▁kaybıdır
▁kirasını
▁kulağına
▁laboratu
▁mürekkep
▁mırıldan
▁odasının
▁raporunu
▁röportaj
▁topluluk
▁unutuyor
▁uyarmaya
▁yaramadı
▁yerdeydi
▁şimdilik
▁Danimarka
▁anlatmaya
▁bağırıyor
▁bulabilir
▁bırakalım
▁davrandım
▁değişmedi
▁duyduğuna
▁döneceğiz
▁düşünceli
▁elbiseler
▁gitmemize
▁kaçınmaya
▁kimliğini
▁konuşayım
▁mahkemeye
▁parçalara
▁reddettim
▁romanları
▁söylememe
▁sıkıntısı
▁tavsiyemi
▁tırmanmak
▁vermezdim
▁yanılıyor
▁yıldızlar
▁çalıyordu
▁önerisini
▁Brezilyalı
▁dinliyorum
▁dönmeyecek
▁dükkanında
▁gittiğimde
▁gözükmüyor
▁hazırladım
▁internette
▁konuşmadık
▁toplantısı
▁yaptıkları
▁almayacağım
▁bilmiyorlar
▁izleyeceğim
▁oynayabilir
▁seninkinden
▁unutmayacak
▁yapılabilir
▁yiyeceğimiz
▁alabileceğim
▁bilgisayarın
▁düşünmelisin
▁konuşabilsem
▁planlıyorlar
▁yapabilirdim
▁çalışacağını
▁kullanıyorsun
▁katlanamıyorum
▁söylediklerine
ann
daş
ira
ote
sie
uri
▁un
▁çi
Tube
besi
giyi
tıra
urun
▁Ace
▁Kaş
▁Koc
▁Kov
▁Moz
▁Nap
▁mec
▁nis
▁pre
▁sob
▁sof
▁viz
▁Şan
enler
lemiş
stein
tasın
▁Kart
▁Uzak
▁beyn
▁dişi
▁güle
▁kese
▁kuyu
▁kuşa
▁Ünlü
▁çiğn
abilip
anıdır
jantin
tığımı
▁Obama
▁Odamı
▁Oyunu
▁Saçma
▁Sekiz
▁Tekne
▁Uygun
▁Yılan
▁Yılın
▁dönüp
▁düğme
▁fırın
▁ilave
▁kurum
▁kıkır
▁maske
▁neyse
▁palto
▁robot
▁tohum
▁yakış
guluyor
memizin
▁Açıkça
▁Memnun
▁Paramı
▁aklını
▁amcası
▁bakıma
▁başlay
▁davası
▁daveti
▁derler
▁dolaba
▁edindi
▁gitsin
▁hikâye
▁ilacın
▁masraf
▁orduya
▁zekalı
▁çıkmam
▁Gitmeye
▁Michael
▁YouTube
▁Yürüyüş
▁Zavallı
▁almadın
▁alırdım
▁ağlattı
▁ağırdır
▁banyoya
▁bayrağı
▁bitecek
▁diliyor
▁diyecek
▁düşürül
▁futbolu
▁giyerim
▁gökyüzü
▁görüldü
▁iltifat
▁inandır
▁izledik
▁kanseri
▁kelebek
▁keyfini
▁kuzenim
▁mahkeme
▁oksijen
▁olmasın
▁parçaya
▁rengini
▁sınırlı
▁takıntı
▁tapınak
▁uyurken
▁yakındı
▁Örümcek
▁çantamı
▁ödemeye
▁öldüler
▁önerdim
▁önerisi
▁öpücüğü
▁ülkeden
üleceğini
▁Kazanmak
▁Okulumuz
▁anlamsız
▁aptalsın
▁başlayan
▁bilmeyen
▁bitirmiş
▁dinlerim
▁duymuyor
▁elmaları
▁gelirken
▁gelmedin
▁gösteren
▁gösteriş
▁gözlerin
▁güldürdü
▁istikrar
▁muhasebe
▁müziğini
▁naziktir
▁sahtekar
▁sivrisin
▁tarafını
▁transfer
▁yönetimi
▁yüzyılda
▁zorbalık
larımızdan
▁almıyoruz
▁bırakması
▁dayanamam
▁ekonomisi
▁engelleye
▁inanmadım
▁içiyorsun
▁kazanmadı
▁kollarını
▁kulakları
▁kızlardan
▁olmalılar
▁olmasıdır
▁oluyorsun
▁oynuyorum
▁randevusu
▁saklamaya
▁yapmadığı
▁yaygındır
▁ürpertici
▁şirketten
▁Cumhuriyet
▁bulmayacak
▁dinlenmeye
▁göstermedi
▁hatırlamak
▁kalmalısın
▁kontrolünü
▁söylememem
▁uyandırmak
▁vermiyorum
▁yakalandım
▁Shakespeare
▁araştırmaya
▁arkadaşıydı
▁edeceğinden
▁evlenmesini
▁eğilimlidir
▁konuştuğumu
▁muhafazakar
▁Arkadaşların
▁değiştirmeyi
▁düşünmemişti
▁fotoğrafları
▁şaşırtıcıydı
▁alabileceğini
▁başlayacağını
▁düşünmüyorsun
▁ebeveynlerini
▁hoşlanıyorsun
▁söyleyeceksin
▁yapmadığından
▁hissetmediğini
ço
ıç
ako
bab
not
one
▁Ga
▁pu
▁öm
oket
stir
undu
▁Kus
▁Lim
▁Mev
▁coş
▁dey
▁dib
▁doy
▁fan
▁ket
▁mav
ereti
irdim
lenir
lenme
stron
ğandı
▁Dick
▁Giys
▁Risk
▁Stre
▁abon
▁broş
▁iske
▁pizz
▁takv
▁öpme
bildim
dirgin
eterin
ilmedi
mamalı
sıklam
unuzun
usudur
yalist
▁Bahse
▁Boşan
▁Defol
▁Fizik
▁Havuz
▁Pasif
▁Tanış
▁bekâr
▁bilez
▁birer
▁burnu
▁diren
▁final
▁geyik
▁gıdık
▁kader
▁kavuş
▁kolon
▁medya
▁sahil
▁sefil
▁tilki
▁yatış
▁İstif
▁Durumu
▁Mesele
▁Mozart
▁adıdır
▁annemi
▁açıyor
▁cumhur
▁daktil
▁durdum
▁etiket
▁etrafa
▁gemisi
▁girmez
▁giydim
▁kutuda
▁kuzeni
▁madeni
▁okumuş
▁oturun
▁perili
▁sakalı
▁sınıfı
▁torunu
▁tuzağa
▁umudum
▁unutur
▁vurdum
▁yetmiş
▁yollar
▁Çeviri
▁Önceki
▁çiçeği
▁örneği
tiğinden
▁Kiminle
▁Kontrol
▁Melanie
▁Moskova
▁Yapmamı
▁adınızı
▁ailemle
▁anlamış
▁ağaçlar
▁banyoda
▁beğendi
▁bitirir
▁bulutlu
▁cevapla
▁enerjik
▁erkeğin
▁evdeyim
▁farkına
▁güneşte
▁hizmeti
▁hırsızı
▁kutunun
▁kuyruğu
▁ofisime
▁prenses
▁resmine
▁satmaya
▁sonuncu
▁sözcüğü
▁sıkıldı
▁teniste
▁yalandı
▁yaşımda
▁yönetti
▁çıktığı
▁İtfaiye
▁Şartlar
emiyorsun
▁Ameliyat
▁Arjantin
▁Karnınız
▁Sıcaklık
▁aldığımı
▁ağırlığı
▁bavulunu
▁etmezdim
▁görevini
▁kalkmaya
▁mazereti
▁okuyacak
▁sakinleş
▁sürdürdü
▁vaktimiz
▁verirsen
▁yapmaman
▁yoruldum
▁zorlandı
▁Çocukken
▁önündeki
▁ürünleri
lanacağını
▁benimkine
▁bildiğine
▁bitirmedi
▁bulunduğu
▁buluşmayı
▁düşkündür
▁geceleyin
▁geliyoruz
▁görünmedi
▁görünmeye
▁haklıydın
▁hayatımda
▁hikayenin
▁hoşnutsuz
▁kanıtlaya
▁kasabadan
▁kullandın
▁meşguldür
▁oradaydım
▁parçasını
▁postaneye
▁varacağız
▁yanlıştır
▁yarayacak
▁Çiçekleri
▁çıkıyoruz
▁ülkesidir
▁şanslıyız
▁Düşündüğüm
▁büyükannem
▁dayanılmaz
▁diyeceğini
▁düşünürdüm
▁karşılıklı
▁oturabilir
▁oynuyorsun
▁sandalyeyi
▁sorunların
▁söyleyerek
▁yapacaklar
▁önerebilir
▁Havaalanına
▁Pazartesiye
▁Toplantının
▁bağırdığını
▁ediyorlardı
▁görmeliydin
▁kilitlemeyi
▁malzemeleri
▁oturuyorsun
▁oyuncusudur
▁sevdiğinden
▁ağlayacağını
▁bekleyeceğiz
▁konuşmalıyız
▁konuşmayalım
▁tanımıyordum
▁tanımıyorsun
▁endişeleniyor
▁ilgileneceğiz
▁fotoğraflarını
▁söylememeliydim
11'
Ger
ben
ela
kur
red
yık
ıda
ılı
▁22
▁tö
asar
ella
erre
itif
kamı
otik
ozor
tara
tüsü
usta
veda
çeyi
▁Maç
▁dis
▁fit
▁kıt
▁tey
▁tir
▁ucu
▁uça
▁Ölü
Benim
ağına
ciydi
giliz
ledin
olkan
teist
çılar
çılık
▁Acık
▁Oğlu
▁Sırt
▁felç
▁flüt
▁hain
▁peri
▁suşi
▁sıvı
▁tutu
▁usta
▁usul
▁Çorb
▁çare
▁öbür
▁İkiz
▁İler
akları
amanın
kandal
larsın
sinizi
▁Ander
▁Belir
▁Dövüş
▁Hesap
▁Kesin
▁Ortak
▁Resmi
▁Treni
▁Yetiş
▁aitti
▁aldat
▁dalış
▁denil
▁favor
▁gelse
▁hasat
▁istih
▁iznin
▁karam
▁marka
▁nesil
▁sepet
▁sezon
▁seçin
▁surat
▁titre
▁tükür
▁tünel
▁yatar
▁yerdi
▁çilek
▁şefta
masının
meliler
ğandışı
ıldıyor
ınızdan
▁Babamı
▁Okulun
▁Teyzem
▁Uyanık
▁Yapman
▁alaycı
▁atalım
▁atları
▁bedava
▁belirt
▁delice
▁esiyor
▁hakkın
▁hayret
▁işledi
▁kardan
▁kediye
▁kutusu
▁meşhur
▁ormana
▁otelin
▁resmin
▁suçunu
▁teması
▁testte
▁uykusu
▁yanıma
▁yatmak
▁yıkaya
▁çözümü
▁ödedin
ılsıklam
▁Babanın
▁Nadiren
▁Paranın
▁Postane
▁Seyirci
▁Sürekli
▁Yeniden
▁büyüktü
▁etmekle
▁gençler
▁gerekçe
▁giydiği
▁görüşüm
▁kabalık
▁kalabil
▁kartını
▁korkmaz
▁kravatı
▁küresel
▁okyanus
▁perişan
▁seyirci
▁tanırım
▁umudunu
▁verilen
▁vermeli
▁videoyu
▁yaşamın
▁zorunlu
▁Gördüğüm
▁Kitaplar
▁Mutluluk
▁Söyledik
▁Yatmadan
▁adlandır
▁almasına
▁amacıyla
▁bankadan
▁başarısı
▁düzeltti
▁evlatlık
▁götürdüm
▁mağarada
▁olgunlaş
▁olsaydın
▁sorulara
▁sorumsuz
▁tatilini
▁yemesini
▁yiyorlar
▁çocuğunu
▁çıkarken
▁öldürdün
▁Hastaneye
▁ağlayacak
▁bahsettin
▁birleştir
▁düşünmeni
▁eksikliği
▁götürüyor
▁karşılaya
▁konuşuruz
▁otobüsten
▁oynayarak
▁sahibidir
▁vazgeçtim
▁yemelisin
▁yolculuğu
▁Alışverişe
▁Fransızcam
▁Gökyüzünde
▁başlamıştı
▁bilmelisin
▁cesaretini
▁dilediğini
▁duymuyorum
▁ehliyetini
▁enfeksiyon
▁geleceksin
▁seyrediyor
▁yanağından
▁yapamazdım
▁yurtdışına
▁çalışmamız
▁eğlendiğini
▁fikirlerini
▁görüşeceğim
▁gülümsemesi
▁problemleri
▁süpermarket
▁yiyecekleri
▁arkadaşımdır
▁inanmadığını
▁öğrenmelisin
▁inanmayacaksın
▁yaptıklarından
▁söylemeyeceğini
AB
my
zm
bus
ill
rof
rum
tiz
çev
çup
▁So
▁pr
▁Ür
asöz
idro
kiya
teyi
▁Fab
▁Hiz
▁Hor
▁Mor
▁Sez
▁Siv
▁and
▁hâl
▁içe
▁ruj
▁sök
▁yıp
▁zıp
cular
mişim
peten
tatör
taydı
ğinde
▁abur
▁aştı
▁ekib
▁gene
▁seçe
▁vazo
kamdan
kiyatr
tistik
ılmayı
▁Alarm
▁Dosya
▁Evden
▁Evime
▁Hafif
▁Kader
▁Prote
▁Saman
▁Zemin
▁ağlar
▁delil
▁denet
▁döğüş
▁giren
▁kabil
▁kapas
▁kopar
▁macer
▁oğlun
▁salim
▁sandı
▁silin
▁sinsi
▁sonun
▁sıkıl
▁topla
▁uçurt
▁Çevir
▁Ücret
▁çıkın
▁Şapka
liğiniz
tıyordu
▁Başbak
▁Kıskan
▁Parmak
▁Peynir
▁Planın
▁ailede
▁alıntı
▁aralık
▁aşığım
▁balina
▁bodrum
▁döndük
▁ezbere
▁giymiş
▁havası
▁havayı
▁ilgimi
▁kibrit
▁korudu
▁koşuya
▁kızına
▁sendin
▁seçtim
▁suçlan
▁tatlım
▁temmuz
▁trajik
▁uzatır
▁öpmeye
amıyoruz
cağımızı
meyeceği
▁Gerekli
▁Gidecek
▁Küresel
▁Yanında
▁Zamanım
▁bilinen
▁bozuyor
▁dövüldü
▁fasulye
▁filmler
▁girmedi
▁gizleye
▁isterdi
▁işlerin
▁korkusu
▁kuşları
▁müsünüz
▁pişirme
▁planlar
▁seferde
▁sempati
▁serseri
▁soralım
▁sürmedi
▁sıkıyor
▁tanıyan
▁trompet
▁yazarım
▁öfkeyle
▁öneriyi
▁Şehirde
▁şarkısı
▁şaşkına
▁Gözlerim
▁Günaydın
▁Yapmamız
▁ayakları
▁başınıza
▁davetini
▁dinledim
▁duymadın
▁fikriydi
▁gazetede
▁gelmişti
▁güldüler
▁ilgilene
▁ilgisini
▁içiyordu
▁karşılan
▁kaybeden
▁kırılmış
▁otomatik
▁perşembe
▁sözleşme
▁tedirgin
▁unutmaya
▁uygundur
▁uğratmak
▁vermemiz
▁yapmamak
▁yuvarlak
▁zihinsel
▁öğrenimi
▁öğrenmem
▁öğrettim
▁üzereyim
▁İlkbahar
▁şampanya
▁Gözlerimi
▁Kuralları
▁Yaşadığım
▁alacağımı
▁başlarına
▁bildirmek
▁doldurdum
▁ettiğiniz
▁farklılık
▁gerçektir
▁gürültüye
▁kaldırmak
▁katılıyor
▁korkutmak
▁meşgulsün
▁okuyorsun
▁olasılığı
▁pahalıydı
▁tarihinde
▁yapmamayı
▁yapılıyor
▁çalışırız
▁şaşırmadı
▁Elektrikli
▁Pencereden
▁adamlardan
▁ağlamaktan
▁bulutların
▁dünyasında
▁ettiğinden
▁gülümsüyor
▁helikopter
▁ilişkileri
▁isterseniz
▁kalacağımı
▁seviyorlar
▁sorumluyum
▁sorunlarım
▁soruşturma
▁söylenmedi
▁yayınlandı
▁üzülüyorum
▁Afedersiniz
▁Kütüphanede
▁bilmeliydim
▁birlikteydi
▁diğerlerine
▁gelebilirim
▁hazırlanmak
▁istemiyorsa
▁kadınlardan
▁sorunlarını
▁tanıştığını
▁temizlemeye
▁çalışmasına
▁özleyeceğiz
▁öğretmenler
▁İngilizcesi
▁söyledikleri
▁kullanılabilir
NA
yö
San
ary
daj
dat
içi
lel
lis
puz
tıp
uck
üzü
▁1.
▁Gr
▁To
▁Uğ
acın
arya
deli
ikal
oshi
ronz
ston
teli
urda
▁10'
▁Bol
▁Bıç
▁Dar
▁Del
▁Dom
▁Kül
▁Piş
▁Sur
▁Tuz
▁eği
▁fet
▁hom
▁pal
▁püs
▁yün
▁çeş
ograf
uldum
ğiniz
ğımız
▁Evli
▁Nara
▁Tali
▁Taze
▁Yanı
▁Ziri
▁ardı
▁deve
▁eşiğ
▁ilke
▁koşu
▁plat
▁sade
▁torb
▁tuzu
▁yayı
hanede
ilmeli
kestra
matiği
nekler
seydik
▁Bekir
▁Bıçak
▁Doğal
▁Kanıt
▁Kavga
▁Mahal
▁Sende
▁Tavsi
▁Zayıf
▁buhar
▁cevab
▁cubur
▁ekran
▁evler
▁finan
▁hokey
▁kılıç
▁marat
▁ortam
▁sakat
▁satır
▁vücud
▁yapay
▁yapsa
▁zarfı
istiyan
layayım
lenmesi
▁Benzin
▁Hilton
▁Hizmet
▁Köpeğe
▁Lisede
▁Odamda
▁Sözünü
▁Vazgeç
▁acelem
▁altıya
▁ağlama
▁bebeğe
▁efsane
▁ekledi
▁eliyle
▁gençti
▁girdin
▁güller
▁kapağı
▁kısaca
▁kızsın
▁nefese
▁sesler
▁tanesi
▁yanıtı
▁yapsın
▁yönden
▁almayın
▁anlatma
▁ağladım
▁bacağım
▁bulmama
▁duyurdu
▁dönmesi
▁edilmez
▁gibisin
▁gururlu
▁görmeni
▁harcaya
▁izlerim
▁içmiyor
▁katılım
▁kedinin
▁kiralık
▁lokanta
▁olurdun
▁oynadın
▁sahneye
▁servisi
▁sevmeye
▁sıkıştı
▁tahmini
▁trajedi
▁unutkan
▁uzaklık
▁yatırdı
▁yazacak
▁yönetim
▁çalıntı
▁çekinme
▁ödemedi
▁Anderson
▁Beklemek
▁Sinemaya
▁Söylenti
▁almaktan
▁aramadım
▁bahseder
▁beklemem
▁beslemek
▁bilirsin
▁bulaşıcı
▁diyorlar
▁evliliği
▁festival
▁gezisine
▁kimseden
▁korkudan
▁kızların
▁meseleyi
▁peşinden
▁renkleri
▁tarihini
▁uyumuyor
▁verdiniz
▁yaşamadı
▁yemeğimi
▁yenilmez
▁Özgürlük
▁öylesine
▁ısınıyor
▁şekersiz
▁Cüzdanımı
▁Hayvanlar
▁arkadaştı
▁bıçakladı
▁düşüncesi
▁düşünmeyi
▁getiriyor
▁gittiğimi
▁gizlemeye
▁göremedim
▁günlerden
▁karısıyla
▁kaybolmuş
▁kelimeler
▁kötüleşti
▁nerededir
▁oynadılar
▁seçeneğin
▁tanımadım
▁tartıştım
▁tükeniyor
▁uzaklıkta
▁yalanladı
▁yardımıma
▁özgürlüğü
▁Ebeveynler
▁Kaybedecek
▁altındadır
▁arkadaştır
▁bilinmiyor
▁bilmeliyim
▁davranmayı
▁gezegendir
▁giymiyordu
▁iyileşecek
▁kahvaltısı
▁sağlığınız
▁yaparsınız
▁yapmamamız
▁zorundalar
▁öldüğünden
▁öğrenmenin
▁şarkıcıdır
▁Pencereleri
▁bacaklarını
▁bekliyorlar
▁büyükannesi
▁bırakamayız
▁deneyebilir
▁görebiliriz
▁istemediğin
▁kendisinden
▁olacağımızı
▁sevindiğini
▁sırılsıklam
▁Öğretmenler
▁denemiyorsun
▁gözlüklerini
▁istediğimden
▁istemiyorlar
▁Üniversitede
▁öğreniyorsun
▁Yapabileceğim
▁destekliyorum
▁göründüğünden
▁kalmayacağını
▁karşılaşmadım
▁olabileceğine
▁görünüyorsunuz
▁kullanabilirim
▁yapabileceğine
▁Arkadaşlarımdan
oj
Her
afa
car
idi
▁Di
▁ov
▁Öp
▁ız
Bunu
Seni
akoz
ağan
liyö
çika
▁Alt
▁Bür
▁Col
▁Fir
▁Pop
▁Rek
▁Umu
▁Zil
▁imz
▁kıy
▁ted
▁çan
erçev
orida
urken
ızdan
▁Tavş
▁Vide
▁Vücu
▁adet
▁baka
▁baya
▁esir
▁fiil
▁hece
▁içen
▁kavş
▁klav
▁küpe
▁rüzg
▁yağı
▁öğüt
eninde
eyecek
ımdaki
▁Carol
▁Demek
▁Derin
▁Frank
▁Gelip
▁Kolom
▁Kulüb
▁Orası
▁Selam
▁Trump
▁atlar
▁birik
▁ekibi
▁erdem
▁isyan
▁nisan
▁seyir
▁sütün
▁tetik
▁uymak
▁zorlu
▁Ülken
▁çörek
▁öncek
▁ürküt
liyordu
▁Ailemi
▁Anneme
▁Cevabı
▁Makine
▁Piknik
▁Street
▁Yıllar
▁ağzına
▁bayram
▁binayı
▁dayalı
▁düştüğ
▁elmalı
▁evleri
▁feneri
▁fındık
▁güneye
▁içgüdü
▁kalman
▁kaygan
▁kaynat
▁kırgın
▁mahçup
▁oluruz
▁pazara
▁taşına
▁varlık
▁yasayı
▁yüzüme
▁çıktın
▁ülkesi
▁şantaj
▁şöhret
diyorsun
kilerden
lanmıştı
mektense
müyorsun
▁Belçika
▁Dünyayı
▁Etrafta
▁Kıskanç
▁Saldırı
▁acıkmış
▁affedil
▁affetti
▁babanın
▁bayramı
▁bulması
▁duyarım
▁etmezdi
▁fermuar
▁gecikti
▁geminin
▁hüzünlü
▁inandım
▁kahveye
▁pisliği
▁sabırla
▁soğuyor
▁sırayla
▁veterin
▁yemeğin
▁yöntemi
▁çekmedi
▁çıkarma
▁üyeleri
▁İçeride
ileceğini
mayabilir
ılmayacak
▁Gittikçe
▁Otobüste
▁Yolculuk
▁aperatif
▁ağabeyim
▁boşalttı
▁etmektir
▁gazeteci
▁geçirmiş
▁gidemedi
▁gününden
▁inanmayı
▁içtiğini
▁kalmadım
▁kandırdı
▁kapıları
▁karamsar
▁kazandık
▁kilidini
▁koşullar
▁numaralı
▁numarayı
▁oturmayı
▁partiler
▁patronun
▁salatası
▁sanmıyor
▁sıcaktır
▁sınıftan
▁tanımadı
▁valizini
▁vazgeçme
▁yaparsam
▁yapmazsa
▁ölüyorum
▁şehirden
▁Araştırma
▁Telefonda
▁Yapraklar
▁bakılırsa
▁başladığı
▁başlaması
▁duyuyordu
▁gerçeğini
▁hissetmek
▁istemedin
▁istiyorsa
▁itfaiyeci
▁kahvesini
▁kendileri
▁olduğumda
▁planladık
▁psikiyatr
▁sanmıştım
▁seveceğim
▁sonrasına
▁sürüyordu
▁tanıştıra
▁tarzından
▁yapmanızı
▁yapılmalı
▁çıkmaktan
▁ülkelerde
▁Caddesinde
▁bölgesinde
▁direksiyon
▁düzenlendi
▁hatalarını
▁inanıyoruz
▁kaplumbağa
▁kedilerden
▁mükemmeldi
▁oturuyorum
▁sinirliydi
▁tamamlandı
▁tanıyordum
▁taşımasına
▁varacağını
▁yararlıdır
▁alışacaksın
▁alışılmadık
▁anlayabilir
▁buzdolabına
▁geldiğinden
▁hayvanların
▁motosikleti
▁olmamalısın
▁sanmıyordum
▁söylediğime
▁temizlemeyi
▁yumurtaları
▁öğreneceğim
▁öğreteceğim
▁Televizyonda
▁gidiyorsunuz
▁vermeyeceğiz
▁yapmamalısın
▁istemeyebilir
▁gelebileceğini
▁çalışmayacağım
Kim
ano
dvi
dye
güt
oko
sah
tüğ
yap
▁İy
ahür
açık
burg
caya
gede
inna
ütte
▁Akl
▁Los
▁Mik
▁Nef
▁Sir
▁mot
▁süz
▁tuş
▁Çıl
▁Şif
anıme
erime
gatif
iyeyi
leriz
safon
santr
yonun
ürken
▁Budi
▁Dair
▁Jeff
▁Müze
▁Shin
▁burk
▁dalı
▁emre
▁endü
▁eşar
▁iniş
▁nabz
▁parf
▁Çaba
▁ölme
Bunlar
asyonu
letmek
liktir
ülüydü
▁Böcek
▁Demir
▁Gizli
▁Hedef
▁Hoşça
▁Kafam
▁Mezun
▁asılı
▁bıktı
▁figür
▁fikre
▁gözlü
▁halle
▁hindi
▁içini
▁iştir
▁karda
▁keşke
▁kolej
▁kısal
▁mesai
▁nüfus
▁odanı
▁olana
▁peşin
▁sakın
▁sivil
▁sığın
▁tenek
▁topra
▁uzaya
▁yetim
▁Çeşit
ladığım
larımla
likleri
▁Günlük
▁Harita
▁Hediye
▁Hesabı
▁Kaptan
▁Kelime
▁Odanın
▁Teksas
▁Tembel
▁Trenle
▁Yukarı
▁annene
▁aynada
▁ederse
▁gezisi
▁gözüne
▁güveni
▁ihraca
▁ikiyüz
▁kalanı
▁kanaat
▁kentin
▁kentte
▁kovboy
▁kırmak
▁müşter
▁onunki
▁piyasa
▁sabaha
▁sevdin
▁tıraşı
▁vardın
▁varken
▁yorucu
▁ödevim
▁ülkemi
▁üşüyor
▁Şişman
▁şişeyi
ilmiştir
ladığımı
▁Ayrıntı
▁Florida
▁Radyoyu
▁Taninna
▁Yanımda
▁Yüzmeyi
▁aklımda
▁aramanı
▁asistan
▁bitiyor
▁buçukta
▁diledim
▁görmeme
▁görüşlü
▁hatasız
▁havuzda
▁inanmaz
▁kalalım
▁karakol
▁oynardı
▁pasapor
▁sanıyor
▁saçmalı
▁sağlaya
▁servete
▁soyuldu
▁takılır
▁tersine
▁uğradık
▁verilir
▁zekisin
▁çalmada
▁çantaya
▁çıkarım
▁öğleyin
▁öğrenim
▁öğretim
▁Evlenmek
▁Nasılsın
▁Restoran
▁Yönetici
▁aklımdan
▁alamayız
▁atmosfer
▁açmasını
▁başardım
▁durağına
▁düşmanın
▁erteledi
▁etmezsen
▁gördüler
▁görmeden
▁hastayım
▁hatırlar
▁hayalini
▁hükümeti
▁kalemimi
▁kalmamız
▁kitaptır
▁kızarmış
▁nispeten
▁okuduğum
▁rüzgarlı
▁sonucuna
▁sürücüsü
▁tuvalete
▁vardılar
▁yaklaşım
▁yararlan
▁çarşamba
▁çevirdim
▁çıkardın
▁öpmesine
▁şeylerle
▁şüphesiz
Bilmiyorum
mediğinden
▁Tehlikeli
▁araştırdı
▁beklemeyi
▁doktordur
▁edilmişti
▁ellerinde
▁geleceğiz
▁getirmeye
▁geçmesine
▁hatırladı
▁kaçırıldı
▁kendimize
▁kocasının
▁masasının
▁mağazadan
▁odasından
▁parasının
▁söylemede
▁telefonum
▁tutuyorum
▁yağmurdan
▁yaşayamam
▁çalışırdı
▁öğrenciye
▁İnanılmaz
▁şehirdeki
▁alabiliriz
▁aptalcaydı
▁aramalısın
▁bıçaklandı
▁göreceksin
▁göreceğimi
▁göstermeye
▁hazırlamak
▁istekliyim
▁kardeşidir
▁kurtarıldı
▁kırmızıdır
▁okumalısın
▁parlıyordu
▁planlarını
▁potansiyel
▁seçenekler
▁sinirlenir
▁tırmanmaya
▁yaşadığımı
▁çalışmadım
▁öğrenmedim
▁Bisikletimi
▁ayrılmasını
▁ayrılıyorum
▁açıklayamam
▁denemelisin
▁düşünmesini
▁fotoğraflar
▁kurabiyeler
▁söylememeye
▁tartışmanın
▁uzunluğunda
▁yapamıyorum
▁yardımımıza
▁öğrencilere
▁destekleyici
▁dinlemeyecek
▁karşısındaki
▁okuyabilirim
▁söylemeliydi
▁öğrencisidir
▁endişelenmeye
▁ayakkabılarımı
An
ai
eğe
rid
▁Kü
▁Po
▁ib
amuk
eden
eton
form
inik
inle
obik
tina
unma
vali
ysan
▁Ala
▁Bey
▁DNA
▁Det
▁Duş
▁RAB
▁Rak
▁Ric
▁Tıp
▁bis
▁dra
▁ism
▁lak
▁len
▁ılı
etici
ümrük
ırsın
ıçkır
▁Fare
▁Ford
▁Gıda
▁Lisa
▁Past
▁Tekn
▁Uğra
▁anım
▁avcı
▁blog
▁boru
▁geçe
▁kare
▁köye
▁memn
▁tram
▁uçar
▁vura
▁yama
▁Çevr
▁çöze
▁Şunu
▁şefi
aliyet
amadım
casına
geçmiş
siyonu
stakoz
tıktan
ıldığı
▁Basit
▁Başın
▁Canın
▁Evini
▁Eylül
▁James
▁Mahke
▁Midem
▁Paulo
▁Tavan
▁Uzman
▁birde
▁bulup
▁böldü
▁defol
▁diley
▁duşta
▁ergen
▁gölün
▁hamam
▁heves
▁kalka
▁kanal
▁karan
▁kaste
▁kefil
▁kıyas
▁raket
▁talih
▁yağlı
▁Çadır
▁Çevre
▁Çorap
▁İşbir
eceğime
iyetini
tığımız
uşturma
▁Ağacın
▁Bilmem
▁Davran
▁Endişe
▁Salata
▁Sekret
▁Toplam
▁Toplum
▁aksine
▁akşama
▁arayan
▁ateşim
▁başımı
▁dünden
▁habere
▁hesaba
▁imkanı
▁karşın
▁okuyan
▁reform
▁rehine
▁sanmam
▁seçtin
▁tasarı
▁yararı
▁yağışı
▁yaşını
▁çerçev
▁İstifa
▁Angeles
▁Ejderha
▁Gönüllü
▁Gülümse
▁Misafir
▁Motosik
▁Oğlumun
▁Pasifik
▁Polisin
▁Sonuçta
▁açgözlü
▁binadan
▁buluşur
▁denedik
▁denizci
▁doların
▁dönelim
▁giyecek
▁gizledi
▁göremez
▁gözardı
▁ileriye
▁keyifli
▁kişiden
▁kişiyle
▁koruyor
▁kutlama
▁lambayı
▁polisle
▁sadakat
▁sayfayı
▁tezahür
▁turuncu
▁uyumadı
▁yemeden
▁yürürüm
▁yıkarım
▁Çabucak
▁çantayı
▁çıkması
▁önünden
▁ürünler
▁üzüldüm
▁Avrupalı
▁Normalde
▁Rahatsız
▁Yürüyüşe
▁adamıdır
▁aradığım
▁bastırdı
▁boyludur
▁buldunuz
▁danışman
▁dağlarda
▁dereceye
▁dünyadan
▁düzensiz
▁enerjisi
▁eşyaları
▁gittiğim
▁hizmetçi
▁itirazım
▁kelimesi
▁kişiliği
▁koltukta
▁kurallar
▁kültürel
▁mağaraya
▁oynardım
▁söylesen
▁sözlükte
▁tatlıdır
▁yalnızım
▁yukarıya
▁yüksekti
▁çıldırdı
▁ölmesine
▁ülkedeki
▁ısırıldı
▁Şirketin
▁Havaalanı
▁Kitapları
▁Sınıftaki
▁Yağmurdan
▁bakmaktan
▁bölümünde
▁dönüyorum
▁düşüncede
▁ertelemek
▁getirildi
▁gökyüzüne
▁sebzeleri
▁tutacağım
▁uğurlamak
▁yapraklar
▁yüzündeki
▁çekiyordu
▁çoğunluğu
▁çözebilir
▁öfkeliydi
▁üstündeki
▁ısmarladı
▁Macaristan
▁Toplantıyı
▁almadığını
▁birbiriyle
▁geleceğimi
▁istekliydi
▁kanıtlamak
▁söylememiz
▁söylenilen
▁tutuyorsun
▁yaşlarında
▁öğrencinin
▁ısmarladım
▁anlatabilir
▁başkalarını
▁bilmiyorduk
▁girişiminde
▁gittiğimizi
▁hastalıktan
▁istedikleri
▁kendilerine
▁olmayacağız
▁suçluyorsun
▁veremiyorum
▁yapabiliyor
▁çalışabilir
abileceğimizi
▁anlamadığını
▁bulacağımızı
▁davrandığını
▁inanmıyorsun
▁niyetindeyim
bileceğimizden
▁güvenebiliriz
▁kullanacağımı
▁yapacaklarını
▁bulabileceğimi
▁cezalandırıldı
▁hatırlayamıyor
▁söyleyebilirdi
▁yapabilirsiniz
▁sabırsızlanıyor
".
pt
ahh
gua
ino
jek
kez
mon
ora
vol
▁ho
▁vi
▁yi
aryo
iyiz
rasi
sene
stığ
yağı
yene
▁And
▁Bom
▁Ceb
▁Lam
▁Peş
▁Sav
▁bav
▁beğ
▁fer
▁züp
ambon
deniz
enden
itler
iyeye
tarak
ullar
▁Kızı
▁Veda
▁Vene
▁aktı
▁cazi
▁coşk
▁disk
▁dışa
▁fana
▁Üzül
▁öğün
▁ıska
haneye
imidir
lamana
maması
retsin
tüğünü
▁Boğaz
▁David
▁Henry
▁Katil
▁Kibar
▁Kitab
▁Lanet
▁Latin
▁Proje
▁Sakın
▁başlı
▁dilen
▁donan
▁doğur
▁duruş
▁etsin
▁gücün
▁hoştu
▁kabus
▁kayın
▁keder
▁makas
▁morar
▁nöbet
▁rahip
▁tartı
▁taşım
▁tesis
▁virüs
▁yedir
▁yüzen
▁Çoğun
▁çeken
▁çitin
lardaki
lenecek
liğinin
lığıyla
muyoruz
tasıyla
üttefik
▁Aralık
▁Disney
▁Kalmak
▁Kazada
▁Kırsal
▁Mantık
▁Meydan
▁Mutfak
▁Nagoya
▁Uzakta
▁Yamada
▁acayip
▁antika
▁açacak
▁baston
▁beceri
▁canımı
▁dostça
▁elveda
▁iyiler
▁kafayı
▁kulağı
▁soyadı
▁sınava
▁trenin
▁vurmak
▁özledi
▁üretir
▁şefkat
▁Arabada
▁Caddede
▁Nehirde
▁Olduğun
▁Otobüse
▁Sorumlu
▁araması
▁ayından
▁bakmadı
▁banliyö
▁dağlara
▁doğrult
▁gömüldü
▁haziran
▁kalamaz
▁kaçırma
▁kediler
▁kurbağa
▁makarna
▁oyunlar
▁prensip
▁projeye
▁skandal
▁tutuklu
▁uyumayı
▁vurmaya
▁yürüyen
▁çocukla
▁ölümünü
▁üzgünüz
▁İnsanın
Gerçekten
lerimizin
▁Almanlar
▁Arabayla
▁Olanları
▁Otobüsle
▁ahşaptan
▁askerler
▁başardın
▁beğenmiş
▁bitirmem
▁bulduğum
▁ciddiyim
▁destekle
▁doğmadan
▁duymamış
▁ediciydi
▁evlendik
▁girdiler
▁göremedi
▁görürsen
▁gülümsem
▁harcadın
▁istismar
▁içeriyor
▁kurtaran
▁kutuları
▁kırsalda
▁nefesini
▁okulunda
▁oyuncağı
▁parlıyor
▁pazarlık
▁satıcısı
▁sevmeyen
▁tedavisi
▁tercüman
▁uzmandır
▁vergiler
▁yüzüğünü
▁çevirisi
▁ışığında
▁Şüphesiz
▁Konferans
▁Sanıyorum
▁becerikli
▁bulamıyor
▁bırakacak
▁bırakamam
▁cevapladı
▁duymaktan
▁dışındaki
▁edecekler
▁gösterisi
▁kafeterya
▁kapatıldı
▁koyduğumu
▁okumasını
▁planlayıp
▁sorunlara
▁tavsiyesi
▁tutabilir
▁tutuyordu
▁umursuyor
▁uykusunda
▁yakaladık
▁yapılmadı
▁yatağının
▁yemeyecek
▁Öncelikle
▁çalışmanı
▁çalıştıra
▁Hıristiyan
▁bahsetmeyi
▁başlıyordu
▁biliyormuş
▁destekledi
▁dokunmayın
▁edebiliyor
▁geçenlerde
▁gidecekler
▁girdiğimde
▁göndermeyi
▁görmeyecek
▁güvenmedim
▁hissetmedi
▁inandığını
▁istemezdim
▁kamerasını
▁kararlıydı
▁kaynağıdır
▁misafirler
▁olağandışı
▁tamamlamak
▁telefonumu
▁yapmayalım
▁yaprakları
▁öncekinden
▁öğrenciyim
bileceğimden
▁başlangıçta
▁değiştirdin
▁hoşlanırsın
▁insanlardır
▁patatesleri
▁planlıyordu
▁postalamayı
▁sonuçlarını
▁tanımıyordu
▁uyuyakaldım
▁yaramayacak
▁yardımsever
▁yaşamıyorum
▁yaşındaydın
▁yurtdışında
▁üzerindedir
▁arkadaşlarız
▁arkadaşından
▁kazanmayacak
▁kullanmaktan
▁diğerlerinden
▁çocuklarından
▁çalışıyorsunuz
▁kullanılacağını
El
FO
bı
ue
bez
bra
cuz
gır
olk
run
sso
üğe
şaf
▁21
▁Pr
Beni
bedi
dıra
emli
limi
ozof
süel
yaza
çoğu
▁Ayn
▁Dak
▁Joe
▁Ren
▁Sih
▁UFO
▁doz
▁gaf
▁nar
▁Şük
cuydu
latma
tırma
çilik
▁Amca
▁Beth
▁Köpr
▁Kıya
▁Manz
▁Oyna
▁Pica
▁Sıra
▁Yolu
▁asit
▁açığ
▁etse
▁kade
▁karg
▁lens
▁mang
▁yuva
bilmek
iliğin
imleri
kipedi
▁Ayrıl
▁Bitir
▁Chuck
▁Dedem
▁Değer
▁Elini
▁Kayıt
▁Kızar
▁Layla
▁Olası
▁Yerde
▁acaba
▁acemi
▁antik
▁aylak
▁ayına
▁balta
▁başın
▁halen
▁kaptı
▁kuruş
▁meden
▁soluk
▁sporu
▁toplu
▁tutma
▁yatma
▁zarif
▁şidde
cağının
dikleri
dırıyor
indedir
tacağım
tığımda
▁Asyalı
▁Geceyi
▁Geriye
▁Kongre
▁Sosyal
▁Tahmin
▁Tesadü
▁baktın
▁beyaza
▁bizzat
▁cinaye
▁dayadı
▁deneyi
▁dilbil
▁dolabı
▁durağı
▁galiba
▁giymem
▁günümü
▁işinin
▁kolumu
▁kulağa
▁kuralı
▁kırdın
▁kırptı
▁modası
▁okumaz
▁omzuna
▁otuzlu
▁paspas
▁saatim
▁sundur
▁takmam
▁tarifi
▁toplar
▁tuttuğ
▁türden
▁unutul
▁yazmış
▁yetkil
▁yılına
▁Çocuğu
▁çantam
▁öğrene
caksınız
▁Doktora
▁Duvarda
▁Gidelim
▁Hastane
▁Kazadan
▁Picasso
▁Sandviç
▁Yatakta
▁almakla
▁alıştım
▁anlamlı
▁aspirin
▁attılar
▁ağacını
▁bahçeye
▁bakışta
▁besledi
▁beğenir
▁denilir
▁duymaya
▁ekipman
▁evrenin
▁fakülte
▁geceden
▁geceydi
▁kalbimi
▁kalıntı
▁kaçındı
▁konudur
▁kulüpte
▁kötülük
▁kötüyüm
▁lehinde
▁okuyucu
▁olurlar
▁olursam
▁oynamaz
▁parmağı
▁sonrası
▁sürmeme
▁yemenin
▁yiyordu
▁Çeşitli
▁çaldığı
▁çağrısı
▁önemsem
▁ışıklar
▁şansını
▁şekerli
biliyordu
▁Ceketini
▁Doğrudan
▁aptaldır
▁aradığın
▁atacağım
▁balıklar
▁dersinde
▁edilmeli
▁fikirler
▁gerçekte
▁gezdirdi
▁geçirmez
▁girerken
▁iskambil
▁kampanya
▁kararımı
▁kartları
▁kaçırdın
▁kilogram
▁köprünün
▁kısmında
▁nasılsın
▁olanlara
▁personel
▁sevgilim
▁soğuktan
▁sıkıldım
▁teleskop
▁törenine
▁uzmanlaş
▁yıllarda
▁çiftliği
▁ödevimde
▁örnekler
madığından
▁Biliyorum
▁Hepinizin
▁arıyorlar
▁bacakları
▁balıkları
▁beğenmedi
▁buluşmaya
▁demiryolu
▁geldiğine
▁gelişiyor
▁görüşmeye
▁gürültüsü
▁harcamayı
▁imparator
▁karşıladı
▁kaybolduk
▁kirliliği
▁soruyorum
▁sıkıcıdır
▁tezahürat
▁unutmuşum
▁yapamıyor
▁yoksulluk
▁yüksektir
▁çalıyorum
▁öleceğini
▁Şemsiyeni
▁Sonbaharda
▁bilinmeyen
▁döneceksin
▁elektronik
▁etmeliydin
▁faydalıdır
▁geldiğiniz
▁hareketsiz
▁hayatından
▁hayvanlara
▁olmamasına
▁planladığı
▁uzaktayken
▁vereceğimi
▁yakalamaya
▁yaşındadır
▁yiyecekler
▁yiyeceksin
▁öldürmekle
▁ülkelerden
mayacağımızı
▁aramıyorsun
▁bahsetmedin
▁edebilirdim
▁edileceğini
▁görebilirim
▁istediğinin
▁kararlaştır
▁konuşabilip
▁muhtemeldir
▁sağlıklıdır
▁tavsiyesine
▁vasıtasıyla
▁yazılmıştır
▁şaşırmıştım
▁bakıldığında
▁başarısızlık
▁durdurmasını
▁evleneceğini
▁hoşlanıyordu
▁kullanıyordu
▁okuyamıyorum
▁olmayacağına
▁yapmamalıyız
▁öğrendiğinde
▁birbirlerinin
▁hastalığından
▁konuşamayacak
▁Arkadaşlarımın
bö
çu
Mer
Tab
cis
gur
hel
kim
vır
çap
▁ey
Mary
bert
eref
ezer
lima
lime
mece
oyak
rını
ysen
▁Dol
▁Gre
▁Kla
▁Loj
▁Müh
▁Ney
▁Ven
▁cip
▁cıv
▁gıc
▁nin
▁Çöz
azzam
cınız
derim
donez
leyip
lükte
çinin
ülmüş
ürler
ırsan
▁Adem
▁Ceza
▁Judy
▁Maym
▁Renk
▁Salı
▁Ucuz
▁bran
▁imha
▁keçi
▁kule
▁reak
▁tipi
▁Şang
ağımız
ağında
ildiği
lanmaz
lileri
muştum
üyoruz
▁Atlar
▁Brian
▁Dağın
▁Deste
▁Dokuz
▁Dünkü
▁Harry
▁Helen
▁Metro
▁Rezer
▁Sınır
▁Valiz
▁Yerel
▁Yerli
▁Yolun
▁abone
▁elden
▁fırla
▁iyiye
▁kabar
▁kariz
▁lokma
▁metni
▁onara
▁otori
▁seçer
▁tabii
▁yuttu
▁çekip
▁şımar
atistik
edersin
gilizce
lıyoruz
lığımız
▁Anlama
▁Astron
▁Masayı
▁Nehrin
▁Sandra
▁Umarız
▁ardına
▁arzusu
▁ağlaya
▁bandaj
▁başlat
▁bensiz
▁camiye
▁cihazı
▁demedi
▁direkt
▁efendi
▁etrafı
▁geçtin
▁izleme
▁karpuz
▁kazağı
▁kızdan
▁mahvol
▁paranı
▁pateni
▁seçkin
▁sokağa
▁suçtur
▁taneye
▁tombul
▁uçağın
▁versin
▁yöneti
▁yıkıcı
▁yıpran
▁çaldın
▁ılıman
ceğimize
ebilecek
▁Annenin
▁Arabaya
▁Charles
▁Deneyim
▁Mısırlı
▁Oğlunun
▁Sokakta
▁Tehlike
▁Yüzmeye
▁alkolik
▁alkollü
▁anlamaz
▁arasına
▁bakayım
▁cebinde
▁denilen
▁dostluk
▁elbisem
▁element
▁etmekte
▁etmeniz
▁fazlaya
▁formunu
▁gelirdi
▁geçmeyi
▁hakkını
▁ilaçlar
▁kabaydı
▁kalmalı
▁kapanır
▁karmaşa
▁karışma
▁karşıtı
▁katında
▁mavidir
▁muamele
▁ofisini
▁olanını
▁olmasam
▁sahnede
▁sayısız
▁suyumuz
▁süpürge
▁teyzesi
▁unuttuk
▁yazılır
▁yağışlı
▁yerleri
▁yıkayın
▁öldürme
▁ülkeler
▁İyimser
▁şeftali
▁şirkete
▁Başbakan
▁Bitkiler
▁Britanya
▁Caddenin
▁Kardeşim
▁Yardımcı
▁asistanı
▁bakıcısı
▁başardık
▁bebeğini
▁belirgin
▁bileğini
▁boşanmak
▁bulmadık
▁bölümünü
▁bıraktık
▁dediğimi
▁dersimiz
▁devraldı
▁değersiz
▁değişmek
▁doldurun
▁duydunuz
▁düğününe
▁düşünmez
▁dışından
▁etmemize
▁evlerini
▁gazeteye
▁gitmedik
▁gitmeyin
▁görüşmem
▁istemeyi
▁iyileşme
▁kaldığın
▁kamerası
▁kaplıdır
▁kemerini
▁kenarına
▁koymayın
▁kullanan
▁kuvvetli
▁listeden
▁mağazayı
▁memnunuz
▁miydiniz
▁mütevazı
▁peynirli
▁planının
▁rastgele
▁rastladı
▁romanlar
▁sarılmak
▁tavsiyem
▁yapardık
▁yapıştır
▁yukarıda
▁çalışanı
▁çalışmış
▁öleceğiz
▁üzerimde
▁Sovyetler
▁anlatamam
▁aradığımı
▁aşağıdaki
▁başarıyla
▁bırakmamı
▁dairesine
▁dillerini
▁dinlerken
▁düştüğünü
▁fırtınası
▁görüyoruz
▁harikadır
▁kafasının
▁kanıtladı
▁kardeşler
▁kazandığı
▁koşulları
▁mutluluğu
▁problemin
▁seslerini
▁silahları
▁söylemene
▁utangaçtı
▁yazmaktan
▁çekmeceyi
▁öğrenmedi
▁Toplantıda
▁ayrılmadan
▁aşamasında
▁durduracak
▁eldivenler
▁erkeklerin
▁görmeliyim
▁harcıyoruz
▁ihtimaline
▁istasyonun
▁izlediğini
▁karışıklık
▁kaybettiği
▁kaydediyor
▁konuştuğum
▁kullanmama
▁mahremiyet
▁naziksiniz
▁sonuçlandı
▁sorunlarla
▁söylememek
▁uyuyacağım
▁şeylerimiz
▁Başkalarına
▁Rezervasyon
▁Televizyonu
▁birbirinden
▁bırakıyorum
▁farkındaydı
▁katılacağım
▁korkuyordum
▁kullanırken
▁oynayacağım
▁söylememeli
▁sıkıldığını
▁yaptığınızı
▁çevirebilir
▁öneriyorsun
▁durdurabilir
▁düşündüğünüz
▁kurtarabilir
▁uzaklıktadır
▁yanılıyorsun
▁çalışmalıyım
▁öğretmeninin
▁konuşmuyorsun
▁Ebeveynlerimin
▁konuşuyorlardı
▁değiştirmeyecek
?!
hy
we
bre
dos
kor
oka
ons
unk
▁Ti
▁aj
dili
gini
illa
oose
vayı
velt
ülür
▁Eti
▁Mag
▁Muz
▁Rah
▁Tez
▁aşa
▁cid
▁döş
▁esn
▁hür
▁sik
▁zan
▁Çen
▁Şah
Senin
Tabii
aktif
ampir
dayız
muşum
sünüz
tılır
tımla
umunu
▁1000
▁Fred
▁Kırk
▁Suyu
▁afal
▁akla
▁ceha
▁cila
▁esne
▁faks
▁iPad
▁koka
▁kolu
▁meşe
▁muaf
▁okşa
▁peni
▁yirm
dırdım
eceğin
liğimi
maktır
perest
şıklar
▁Bitiş
▁Bulut
▁Cehen
▁Chris
▁Kasım
▁Kırık
▁Roose
▁Saray
▁Video
▁Yokoh
▁alsan
▁arayı
▁armut
▁artan
▁barın
▁darbe
▁duyur
▁düşen
▁eteği
▁eşini
▁giyen
▁giyim
▁halük
▁hamil
▁hobil
▁idiot
▁ikram
▁intih
▁kondu
▁kurar
▁kısıt
▁mermi
▁moral
▁norma
▁rakam
▁refah
▁rehin
▁tarım
▁tökez
▁vuran
▁yolla
▁züppe
▁çamaş
▁çetin
▁İsyan
▁İçmek
celeyin
liyoruz
tıcıydı
tıyorum
▁Ailesi
▁Aklıma
▁Annemi
▁Fırsat
▁Galile
▁Kültür
▁Lastik
▁Sesini
▁Soruna
▁Yaptık
▁aklına
▁akıyor
▁araçla
▁atlata
▁atmayı
▁babanı
▁birayı
▁burayı
▁entere
▁gemiyi
▁gizlen
▁hakkım
▁hecele
▁hedefi
▁hıçkır
▁içeren
▁kafede
▁kimsem
▁kimsin
▁mutlak
▁mızmız
▁onardı
▁sektör
▁sürdün
▁ticari
▁uyurum
▁uzundu
▁yarasa
▁ziyade
▁üstünü
▁Şeytan
liliğini
yacağını
▁Ağustos
▁Başkanı
▁Doktoru
▁Endonez
▁Güneşin
▁Hatalar
▁Hayalim
▁Sınavda
▁alerjim
▁aptaldı
▁aydınla
▁bebeğin
▁biletim
▁bulduğu
▁durumla
▁ekleyin
▁ertelen
▁evliyim
▁getiren
▁haberin
▁ifadesi
▁kalemle
▁koltuğa
▁koltuğu
▁komikti
▁korkutu
▁kurtarı
▁miktarı
▁mutfağı
▁partine
▁peyniri
▁sarıdır
▁sayılır
▁sihirli
▁telaşlı
▁uzaktır
▁yazması
▁yemedin
▁Ödevimi
▁çağırır
▁önemini
meyebilir
▁Aradığın
▁Doktorun
▁Güvercin
▁Hayatını
▁ayrılmaz
▁bekledin
▁biletini
▁bilgiler
▁bitirmez
▁cinsiyet
▁diplomat
▁ellerimi
▁faaliyet
▁gergindi
▁geçmişte
▁hareketi
▁hayattan
▁hazırlar
▁hoşlanıp
▁ilkbahar
▁isimleri
▁kaldırın
▁kibardır
▁kurdular
▁kurulmuş
▁köpeğimi
▁köprüden
▁olmazdım
▁platform
▁saatimiz
▁saatinde
▁saksafon
▁sorundan
▁taksiyle
▁tanıdığı
▁toplumda
▁yaklaşma
▁yanılmış
▁yağmurlu
▁yerinden
▁Önümüzde
▁Devletler
▁Geceleyin
▁Günümüzde
▁Roosevelt
▁anlatmadı
▁anlaşmayı
▁antrenman
▁buluşuyor
▁cevapları
▁dayanıklı
▁delikanlı
▁detayları
▁duyguları
▁döneminde
▁fırçaladı
▁geçeceğim
▁gittiğine
▁keşfettim
▁komşuları
▁korkuttun
▁koruyacak
▁kullandım
▁oynamıyor
▁sıkıntılı
▁tehlikesi
▁toplantım
▁yakaladın
▁yapmaktır
▁çevrimiçi
▁ödediğini
▁Değişiklik
▁Düşündüğün
▁Fransızcan
▁Misafirler
▁ailesinden
▁anlıyorsun
▁arabasıyla
▁başkanlığı
▁bekleyemez
▁beğenmedim
▁bittiğinde
▁bulmuyorum
▁büyükbabam
▁cezaevinde
▁dinliyordu
▁edebilirdi
▁gözlerinde
▁hatalıydım
▁hayranıyım
▁hoşlanacak
▁inandırıcı
▁kahvaltıyı
▁kazasından
▁kullanabil
▁kıskanıyor
▁performans
▁tartışalım
▁titriyordu
▁utanıyorum
▁uygulamaya
▁yetiştirir
▁öğrenciydi
▁arayacağımı
▁açıklayacak
▁ağırlığında
▁bitireceğim
▁değişebilir
▁düşünebilir
▁gitmektense
▁harcadığını
▁inanılmazdı
▁sorumluluğu
▁söylemememi
▁söylemezsen
▁söyleseydin
▁yarayabilir
▁yememelisin
▁yılanlardan
▁öldüreceğim
▁öğrenmesini
▁öğretiyorum
abileceğinden
▁arkadaşımdan
▁birlikteydim
▁bırakmayacak
▁değiştirecek
▁ebeveynlerim
▁faturalarını
▁gözyaşlarını
▁kalmayacağım
▁konuşmuyoruz
▁kütüphaneden
▁söylendiğini
▁söylenildiği
▁çalışmayacak
▁öğrencisiyim
▁götürebilirim
▁yapmayacağıma
▁ebeveynleriyle
▁gidemeyeceğini
▁ilgileneceğini
▁kazanacağından
▁planlıyorsunuz
▁söylememelisin
Ha
İn
buz
gaç
ocu
tra
▁Ed
▁id
arın
canı
dika
ihai
irse
iğim
lena
opat
tüst
uyun
uğun
ysam
ınla
▁Akr
▁Ein
▁Kek
▁Koç
▁Laf
▁Sis
▁Sun
▁kep
▁kâr
▁taz
▁toy
▁tüc
▁yeğ
▁yuv
▁zul
▁Çil
▁çır
▁üne
▁Şar
acağı
geler
lanın
letik
lüler
metre
mışım
onlar
ostop
tüler
yotik
ümüze
▁Ayna
▁Bodr
▁Hong
▁Mola
▁Sola
▁Terk
▁arke
▁avro
▁bluz
▁dalg
▁denk
▁ipek
▁kate
▁meta
▁ocak
▁ruhu
▁stil
▁stok
▁teki
▁teşh
▁zili
▁üzdü
dirmek
memeli
unuzda
yalnız
ılamaz
▁Ahşap
▁Hakim
▁Okina
▁Planı
▁Saçım
▁Terör
▁Trene
▁akrab
▁akvar
▁astım
▁bakıp
▁batım
▁bağla
▁biner
▁cildi
▁derdi
▁duyul
▁enstr
▁evdir
▁hidro
▁hızda
▁korka
▁kremi
▁kılıf
▁kırıl
▁limit
▁mülte
▁oynan
▁pürüz
▁saydı
▁saçım
▁servi
▁sular
▁takın
▁verip
▁yiyin
▁yiyip
▁yığın
▁Ölmek
Sanırım
akistan
ebilmek
lamalar
lüğünde
mediğin
▁Adamın
▁Annene
▁Petrol
▁Saatin
▁Yatağa
▁alıkoy
▁alıştı
▁apaçık
▁atasöz
▁ayının
▁açmayı
▁aşıktı
▁barışı
▁dehşet
▁demeyi
▁derste
▁dönmez
▁erkeği
▁fahişe
▁fareyi
▁gücüne
▁gücünü
▁güneşi
▁halkın
▁hanıme
▁harcan
▁hemfik
▁kağıda
▁komplo
▁mahrum
▁olayım
▁otları
▁oyunda
▁rekoru
▁tatsız
▁zannet
▁zevkti
▁çözdüm
▁öğleye
▁üstlen
▁şartlı
▁şüphem
▁Ağaçlar
▁Bekleme
▁Biriyle
▁Caddeyi
▁Problem
▁Saatimi
▁Seninki
▁Umutsuz
▁Yurtdış
▁aldatma
▁aynıdır
▁baharda
▁bölgesi
▁detaylı
▁düzenle
▁evdeydi
▁evimden
▁felsefe
▁girmeme
▁girmene
▁girmesi
▁güvenim
▁inanmam
▁içersin
▁kalemim
▁olandan
▁paralel
▁tanıdın
▁trenden
▁yoğundu
▁yükseğe
▁yüzmede
▁Ölümden
▁çürümüş
▁çıkmanı
▁öksürük
▁öpmedim
▁ısıtıcı
▁şimdiki
amıyorsun
lanacağım
larınızla
▁Kurabiye
▁Yolculuğ
▁anlayışı
▁bahçıvan
▁belgesel
▁bilmemiz
▁bulutlar
▁dengesiz
▁edilmeye
▁etmemeye
▁etmenizi
▁geçtiler
▁harcadık
▁hazırdır
▁isterler
▁istersem
▁kavuştur
▁kutusuna
▁köpeğime
▁müzakere
▁nadirdir
▁oturacak
▁pahalıya
▁piyanoda
▁sarhoşum
▁soğuktur
▁söylesin
▁sözlüğün
▁sırtında
▁takmıyor
▁tarafına
▁terörist
▁tutamadı
▁unutalım
▁uzanıyor
▁yapmamın
▁yapmamış
▁yaraları
▁yargılan
▁yaşamını
▁yüzyılın
▁çocuktan
▁öldükten
▁öldürdüm
▁şaşırdık
mayacağına
▁akıllısın
▁anlatayım
▁beklememi
▁benimkini
▁bilinçsiz
▁cinayetle
▁duyabilir
▁etmediler
▁ettirmeye
▁güldüğünü
▁güvenemem
▁ilgilidir
▁istemeyen
▁kahvesine
▁kendimden
▁konserden
▁planların
▁sanatçısı
▁sarsılmış
▁tasarrufu
▁uyuyamadı
▁vermekten
▁yapmanıza
▁yarısında
▁öldürmedi
▁önerirsin
▁Arkadaşlar
▁Kadınların
▁Yaptığımız
▁dayanamadı
▁dondurmayı
▁fermuarını
▁gönderdiği
▁göreceğini
▁haberlerim
▁istikrarlı
▁kadınlarla
▁kahvaltıda
▁karısından
▁konuşmakta
▁oynadığını
▁paylaşıyor
▁sağlayacak
▁sessizliği
▁söylemedik
▁söylememiş
▁yalancıdır
▁yapabilsem
▁zamanımızı
▁çıkıyorsun
▁İngilizler
▁Bilgisayarı
▁Kahvaltıdan
▁etmemelisin
▁gitmeliydim
▁görünebilir
▁hatırlamaya
▁kurallarına
▁lezzetlidir
▁muhafazakâr
▁olabilirler
▁reddettiler
▁seçenekleri
▁söylemediği
▁tanıştığıma
▁yapılmasını
▁çantasından
▁öğreneceğiz
▁Fransızcadan
▁Fransızcanın
▁başkalarının
▁evlenecekler
▁geçiriyorsun
▁görmeyeceğim
▁varsayıyorum
▁Bilgisayarlar
▁bilmediğinden
▁düşüncelerini
▁düşünmüyordum
▁eldivenlerini
▁hazırlanmakla
▁suçlayamazsın
▁söyleyecektir
▁çalışmadığını
▁görebilirsiniz
▁ilgilendiriyor
▁karşılayacağım
▁beklediğimizden
▁söylediklerinin
▁söylemeyeceğime
od
ws
ero
fez
hat
lez
lup
pul
ürn
▁Mc
▁zı
▁İp
anak
grat
isip
kala
kili
rımı
sama
yonu
ücük
ünce
üsüz
ırız
▁30'
▁Aca
▁Alp
▁Biy
▁Boz
▁Düğ
▁Gru
▁Mus
▁Nep
▁Nik
▁Ori
▁Pay
▁Sığ
▁Ton
▁bük
▁haş
▁sün
▁tik
Bugün
araja
beral
deydi
eytin
kadem
ndeki
stiği
stığı
vetli
▁2000
▁Adil
▁Ağab
▁Boşa
▁Geze
▁Gran
▁Kans
▁Komp
▁Mali
▁Omuz
▁Palt
▁Sarı
▁Uyuy
▁arma
▁doğa
▁geyi
▁mayo
▁mayı
▁paça
▁raki
▁tesi
▁yoga
▁yumr
▁Öbür
▁şeri
▁şika
balığı
dilmiş
itenin
menler
yetini
ğınızı
▁Başla
▁Domuz
▁Elimi
▁Evrak
▁Kiraz
▁Kirli
▁Kumar
▁Mario
▁Muham
▁Okulu
▁Panik
▁Pilot
▁Prens
▁Saygı
▁Tomun
▁adaya
▁açtın
▁bronz
▁buzlu
▁dener
▁dondu
▁etsem
▁galak
▁inter
▁izini
▁işime
▁kabuk
▁konut
▁kısım
▁monte
▁sakız
▁süvet
▁uçuşu
▁yürüm
▁Öldür
▁çekiç
▁öptüm
Merhaba
amazsın
cilerin
lerimde
madınız
masıdır
mesidir
üyordum
▁Başını
▁Bensiz
▁Karımı
▁Kupası
▁Oradan
▁Oyunun
▁Satürn
▁Suriye
▁Zamanı
▁aktris
▁antlaş
▁aralar
▁ateist
▁açmadı
▁babana
▁baygın
▁broşür
▁durmaz
▁erecek
▁ezildi
▁formda
▁işitti
▁kanıtı
▁kemeri
▁kilidi
▁kovmak
▁kördür
▁küçüms
▁maması
▁okuman
▁püskür
▁satışa
▁sağduy
▁sporcu
▁tahrik
▁türünü
▁uyumam
▁vermen
▁yersen
▁yıldön
▁önümde
▁üzüldü
Teşekkür
laştırdı
liyorsun
sepsiyon
tesileri
▁Ailemin
▁Değişim
▁Durumun
▁Everest
▁Fikrimi
▁Francis
▁Gitmene
▁Güvenli
▁Mademki
▁Okyanus
▁Sahilde
▁Sinirli
▁Yazılım
▁aramamı
▁ayağını
▁bayılır
▁besleme
▁bilemez
▁bulmada
▁büyükel
▁demedim
▁duyacak
▁esprili
▁eğilimi
▁fikirdi
▁filozof
▁iddialı
▁içmedim
▁kapladı
▁kavgaya
▁kaçmayı
▁kurmayı
▁küçüktü
▁mahvede
▁masadan
▁mumları
▁niyetli
▁noktaya
▁ofisten
▁olmamak
▁pozitif
▁rüyalar
▁senaryo
▁sorunuz
▁stratej
▁tahtaya
▁tanınır
▁tarikat
▁tepenin
▁tutacak
▁tutmadı
▁yükledi
▁çalarım
▁çıkmama
▁öldüren
▁ölmeden
▁ölmüştü
▁üretimi
▁İntikam
▁şampuan
▁Açlıktan
▁Değiştir
▁Faturayı
▁Köpeğini
▁Pantolon
▁Piyanoyu
▁Yokohama
▁Zamanını
▁azalıyor
▁basittir
▁beyzbolu
▁bilseydi
▁dinlenme
▁düşüncem
▁etmiştim
▁faydasız
▁gelişini
▁gidişini
▁güvendim
▁hastanın
▁havlıyor
▁istihdam
▁işlerine
▁kanepeye
▁kaydetti
▁kaygılan
▁mağazası
▁mesafede
▁mutluluğ
▁orasıdır
▁orkestra
▁planlama
▁sevilmek
▁seyahate
▁sonundan
▁suçlamak
▁sıkışmış
▁varsayım
▁vermedik
▁yangında
▁yapsaydı
▁yazardır
▁yazdığım
▁yeşildir
▁yiyeceğe
▁Öğrenmek
▁Ücretsiz
▁ölmesini
▁öneriler
▁şaşkındı
▁Aşağıdaki
▁Birleşmiş
▁Hikayenin
▁Kendinize
▁Konuşmayı
▁Takımımız
▁Yıldızlar
▁akşamları
▁anlamıyla
▁anlayacak
▁aylarında
▁ağrıyordu
▁bardağını
▁bittiğine
▁böcekleri
▁bıraktığı
▁cesaretim
▁danışmanı
▁dönebilir
▁eleştirdi
▁enteresan
▁geldikten
▁genelinde
▁günlüğünü
▁hastaymış
▁hayranlık
▁hırsızlık
▁isteyerek
▁konuşmalı
▁küçümseme
▁kırdığını
▁merdivene
▁oynamadım
▁parçaları
▁sarhoşsun
▁sağlığını
▁söylerken
▁verandada
▁yarışmayı
▁yaşamadım
▁yerlerden
▁yürüyorum
▁yüzmekten
▁çalışamam
▁Motosiklet
▁Müşteriler
▁Yardımınız
▁aldığından
▁annesinden
▁bacağından
▁bakımından
▁başaramadı
▁başlarında
▁durumlarda
▁gelmiyorum
▁gideceğine
▁gözlerinin
▁gözlükleri
▁hatırladım
▁sormalıyız
▁suçlanacak
▁tutmalısın
▁yapayalnız
▁yeteneğini
▁bilgisayara
▁düşünceleri
▁edilecektir
▁etrafındaki
▁gelmektedir
▁haftalığına
▁hoşlanırlar
▁istemediğim
▁kalabalığın
▁karşılamaya
▁kelimelerle
▁kurallarını
▁mesafesinde
▁okuyacağını
▁olmamasının
▁sandalyenin
▁söylemiştin
▁yaptığımdan
▁çalıştırmak
▁çoraplarını
▁öğretmesini
▁ücretsizdir
▁İstediğimiz
▁beklemeyecek
▁dakikalığına
▁değişmeyecek
▁söylediğimiz
▁tırnaklarını
▁yarışmasında
▁yaşıyorsunuz
▁yemeyeceğini
▁yetiştirildi
▁yiyebilirsin
▁anahtarlarımı
▁anlaşılabilir
▁bilgisayarımı
▁bırakmıyorsun
▁görebiliyordu
▁sorumluluğunu
▁örümceklerden
▁Amerikalıların
▁affetmeyeceğim
▁hazırlayacağım
▁konuşmayacağım
▁yapabileceğime
▁öğrencilerinin
▁ilgilendirmiyor
20
ato
bap
baç
büs
fel
gam
gas
git
ibe
kaz
ros
yiş
üce
şir
▁Om
▁Yu
camı
cide
ciye
ence
ford
hana
iyer
kati
luyu
neti
sist
süne
tana
tifi
yıcı
üyen
▁Arı
▁Con
▁Dua
▁Göğ
▁Lab
▁Lis
▁Nez
▁Sig
▁Sim
▁Str
▁Tes
▁The
▁Vat
▁Yay
▁dul
▁lev
▁tim
▁Çığ
amdan
ağımı
dilli
dison
enizi
halat
iteye
lüğün
mazan
▁Camı
▁Köle
▁Merk
▁Oper
▁Tale
▁Teor
▁Yere
▁anki
▁ağız
▁beşe
▁bire
▁depo
▁ekti
▁seti
▁tenc
▁uyut
▁vela
▁yiyi
▁zira
▁Çöpü
▁önse
▁öykü
▁ışın
▁Şehr
duğuna
iridye
landın
muşsun
teşekk
ışıklı
▁Ablam
▁Afgan
▁Elias
▁Geliş
▁Gölet
▁Kilis
▁Kimya
▁Okuma
▁Oğlun
▁Sally
▁Sarah
▁Sevgi
▁Sihir
▁Tahta
▁Vahşi
▁Vergi
▁ablam
▁biskü
▁devre
▁dişçi
▁dostu
▁gafil
▁gereğ
▁geçit
▁gitse
▁gizle
▁gruba
▁içtik
▁kavra
▁kedin
▁krema
▁küvet
▁lehçe
▁muhta
▁odalı
▁peruk
▁satan
▁satıl
▁taahh
▁torna
▁tören
▁tüfek
▁uykum
▁Öksür
▁Öğlen
▁çekim
▁çimen
▁ördek
▁ülken
▁İleri
▁ıssız
▁şeref
anların
biyotik
cağında
lerinle
malılar
▁Bebeği
▁Bulgar
▁Burayı
▁Ermeni
▁Filmin
▁Gözyaş
▁Kulağa
▁Lojban
▁Martha
▁Mutsuz
▁Narita
▁Newton
▁Tayfun
▁Tebrik
▁alfabe
▁aramda
▁atlama
▁ağırdı
▁dargın
▁dursun
▁ehliye
▁güldük
▁iklimi
▁istila
▁jambon
▁kanepe
▁kapsam
▁karton
▁koktey
▁maviye
▁online
▁ordusu
▁sabıka
▁semtte
▁sergil
▁sezonu
▁seçmek
▁sorusu
▁takmak
▁teyzem
▁vazoyu
▁yapıcı
▁yarası
▁yarayı
▁yazmam
▁yenmek
▁yolumu
▁yoğurt
▁Şükran
▁şüphel
imizdeki
mamıştır
unlardan
▁Denemek
▁Ekonomi
▁General
▁Kahveyi
▁Kendisi
▁Korkmuş
▁Uzaktan
▁alınmış
▁alırsan
▁amacına
▁atmayın
▁benzeri
▁benzini
▁birimiz
▁bulabil
▁cümlede
▁gerçeğe
▁gibiyiz
▁görünme
▁gözetim
▁günüdür
▁hasreti
▁hastayı
▁hepsine
▁huzurlu
▁ilacını
▁izleyin
▁konseri
▁koymayı
▁kıpırda
▁muazzam
▁müsaade
▁müziğin
▁normale
▁okuması
▁oldunuz
▁otostop
▁oğludur
▁oğluyla
▁planına
▁resimde
▁satılır
▁savaştı
▁savundu
▁solucan
▁sosisli
▁sunuyor
▁tekneye
▁ulaştım
▁vuracak
▁yenildi
▁yerimiz
▁yüzüstü
diğimizde
lanmasını
lerindeki
mamalısın
▁Arabamın
▁Einstein
▁Meseleyi
▁Sivrisin
▁Tartışma
▁Yıllarca
▁ağacının
▁ağaçlara
▁aşağılan
▁bayanlar
▁birazdan
▁bozulmuş
▁buluştuk
▁değerini
▁durmadan
▁dönmeden
▁düşürdüm
▁etkileri
▁fiyatlar
▁gelirler
▁güvenmem
▁hayvanın
▁insanlık
▁kameramı
▁kariyeri
▁kaçırdık
▁kolundan
▁kızmıştı
▁okulumuz
▁oğlanlar
▁partinin
▁sihirbaz
▁sonuçtan
▁tamamını
▁temizlen
▁yapmıştı
▁yaslandı
▁yüzeysel
▁Üzerinde
▁çarparak
▁çekerken
▁çekilmiş
▁çevrildi
▁şişesini
▁Büyükanne
▁Endonezya
▁Hırsızlar
▁Kocasının
▁Milletler
▁Romalılar
▁bakmasını
▁başlamaya
▁beklemesi
▁bitirecek
▁bulmacayı
▁cehenneme
▁deneyecek
▁durakladı
▁edebiyatı
▁etmeyelim
▁evlenmedi
▁gidemedim
▁gönderdin
▁gözlerimi
▁hissettik
▁hükümetin
▁izleyelim
▁içmiyorum
▁kararıyor
▁katılması
▁kaşlarını
▁koyacağım
▁oluşturur
▁popülerdi
▁sabahları
▁sarhoşken
▁sorularım
▁söylerler
▁takımımız
▁tatilinde
▁varacağım
▁yakındaki
▁yapmaları
▁yapmamalı
▁yolculuğa
▁ziyaretçi
▁çeviriyor
▁şifresini
▁Bilmiyorum
▁apartmanda
▁bağımlıdır
▁bisikletin
▁buradaydım
▁döneceğimi
▁elbisesini
▁etmemiştim
▁ettiğimizi
▁gönderiyor
▁inanamıyor
▁isteksizdi
▁içtenlikle
▁kandırmaya
▁koltuğunda
▁konuşmadan
▁konuşursun
▁kullanacak
▁kullandığı
▁kızkardeşi
▁numaranızı
▁oturmasını
▁sandalyede
▁sorumluydu
▁suçlayamam
▁verecektir
▁çıktığında
▁öğrenirler
▁şirketinde
▁Karanlıktan
▁arkadaşımız
▁ayrıldıktan
▁bulunduğunu
▁diğerlerini
▁geçirmekten
▁hastalıktır
▁hazırlanmış
▁hissedersin
▁hoşlandığım
▁inanıyorlar
▁kalabiliriz
▁kanserinden
▁kardeşlerim
▁karmaşıktır
▁korkuyorlar
▁minnettarız
▁olduklarına
▁rahatsızlık
▁söylemezdim
▁taşıyabilir
▁temizlememe
▁yapacağımız
▁yaşındaydım
▁yerleştirdi
▁yetişkinler
▁Çocuklarımı
▁öldürebilir
▁beklemeliyiz
▁biriktiriyor
▁davranışları
▁gideceğimizi
▁kaçıracaksın
▁olduğumuzdan
▁pazartesiden
▁alabilirsiniz
▁arkadaşlarımı
▁bilgisayarlar
▁oturuyorlardı
▁vermeyecektir
▁yaptığımızdan
▁yaralandığını
▁çalışmıyorsun
▁yaramayacağını
▁edebileceğimizi
▁kullanıyorsunuz
▁olabileceğinden
rk
gıç
isa
ity
lon
med
osh
tis
uda
▁3'
▁Sy
▁sm
▁üs
cusu
ello
inti
ling
opya
seni
tady
tiye
tülü
ulaf
utin
uyuz
vida
yang
yaşı
ülen
▁...
▁Cat
▁Ede
▁Eki
▁Fel
▁Jes
▁Koy
▁Sız
▁Ted
▁Viy
▁alç
▁for
▁fos
▁pey
▁tul
▁zır
▁Çiğ
▁çif
aftiz
anete
irken
jital
laska
liğim
tirdi
tıyla
zerva
üsünü
▁3000
▁Atom
▁Dola
▁Eyle
▁Eşim
▁Fars
▁Fili
▁Fiya
▁Kale
▁Mari
▁Otom
▁Proj
▁Sağa
▁Sert
▁Yola
▁bloğ
▁ezil
▁hapı
▁kazı
▁kust
▁mülk
▁tümü
▁uyuk
▁Ödül
▁çene
▁ördü
▁övgü
▁İliş
Hiçbir
baharı
ebilip
kurtar
larnet
manıza
ostrof
tasyon
ucuydu
usuyla
▁Açlık
▁Dalga
▁Duman
▁Gecik
▁Julia
▁Kanep
▁Katıl
▁Onsuz
▁Organ
▁Temel
▁Uygur
▁Venüs
▁alıcı
▁belle
▁boğdu
▁bıyık
▁deyiş
▁disip
▁düşüş
▁fante
▁firma
▁haric
▁incir
▁kadeh
▁kapak
▁kaçış
▁korur
▁kâğıt
▁kıvır
▁namaz
▁onarı
▁oyuna
▁parla
▁porno
▁sinca
▁sıram
▁tecrü
▁teyze
▁uğrar
▁vegan
▁yitir
▁yükle
▁zerre
▁zevki
▁çalma
▁çarpı
▁çelik
▁ıspan
Elbette
abildim
diğince
üyorlar
▁Adımın
▁Alaska
▁Amacım
▁Benzer
▁Berber
▁Donald
▁Gergin
▁Kaplan
▁Kravat
▁Kutsal
▁Mahkum
▁Mevcut
▁Sistem
▁Trenin
▁Uçakla
▁akıntı
▁alırız
▁açmamı
▁bagajı
▁bavulu
▁bindik
▁boşluk
▁büyüme
▁düğünü
▁geliri
▁göreve
▁hobisi
▁işlere
▁katına
▁kavram
▁kirayı
▁komşum
▁kurduk
▁market
▁misyon
▁müzeyi
▁pijama
▁pilavı
▁soğuğa
▁teneke
▁tüfeği
▁uçurdu
▁Çıplak
▁çaydan
▁öncesi
▁ısırık
emiyordu
emiyoruz
ilmesini
lerinize
zavantaj
▁Bitişik
▁Havanın
▁Hepsini
▁Kolayca
▁Okinawa
▁Siyaset
▁Sonraki
▁Yapmanı
▁altıncı
▁annemle
▁aptalım
▁atletik
▁aşçıdır
▁cevabım
▁dakikan
▁deniyor
▁devirdi
▁duvarda
▁dükkânı
▁etmemiş
▁evimizi
▁evliyiz
▁fanatik
▁geçmesi
▁görevim
▁günümde
▁güvence
▁hatamdı
▁hayalim
▁insandı
▁içtiler
▁kasırga
▁kaybola
▁kazaydı
▁kolları
▁kolunun
▁konuşup
▁kumanda
▁nedenin
▁negatif
▁oynayan
▁papağan
▁saatine
▁sakindi
▁serttir
▁sömürge
▁sözlüğe
▁sızıntı
▁tanışma
▁teorisi
▁tokalaş
▁unutmaz
▁uğramak
▁yetkili
▁yitirdi
▁zavallı
▁çektiği
▁özledik
▁öğrenin
▁İhtiyaç
▁ıstakoz
▁şarabın
▁şiirler
emiyorsan
▁Düşünmek
▁Gitmeden
▁Laboratu
▁Muhteşem
▁Silahını
▁Yarından
▁aklından
▁anlaştık
▁asansöre
▁astronom
▁astronot
▁açacağım
▁bakarken
▁bebekler
▁belirtti
▁belliydi
▁birisine
▁bıraksan
▁bıçağını
▁depresif
▁dokuzdan
▁doğduğum
▁düşünmem
▁ettikten
▁fikriniz
▁geciktir
▁gönderme
▁görürsün
▁gösterme
▁gözlerim
▁güçlüsün
▁haritası
▁hastadır
▁hepinize
▁hesabını
▁ilişkili
▁korkusuz
▁koruyucu
▁küçükken
▁kızlarla
▁olamadım
▁riskleri
▁savunmak
▁sormayın
▁söylerse
▁ticareti
▁unutmadı
▁vazgeçir
▁yolcular
▁çalmadım
▁çözemedi
▁üniforma
▁İlerleme
abiliyorum
▁Hastanede
▁Hayatının
▁Kurallara
▁Sabahları
▁Sessizlik
▁Tehlikede
▁Yardımına
▁aksanıyla
▁aldatıyor
▁anlıyoruz
▁ayrılması
▁ağaçların
▁beklediği
▁bitirelim
▁boşanmayı
▁dinlemeni
▁doğrulttu
▁duvardaki
▁emeklilik
▁endişeyle
▁eylemleri
▁fırsatını
▁götürmemi
▁izlemiyor
▁koridorda
▁kullanmaz
▁makinenin
▁nedenleri
▁nüfusunun
▁otoparkta
▁otururken
▁pişirdiği
▁santigrat
▁sevmekten
▁sevmesini
▁söylersin
▁takılmayı
▁taşıyarak
▁umutsuzca
▁veteriner
▁yakalanır
▁yapmamamı
▁yardımımı
▁yüzleşmek
▁zorlandım
▁çekicidir
▁çıkaralım
▁öldürdüğü
▁öldürmeyi
▁öğrenelim
lamayacağım
▁Birdenbire
▁Pencerenin
▁birbirleri
▁caddesinde
▁dinleniyor
▁duyarlıdır
▁engellemek
▁filmlerden
▁gelecekler
▁görmemişti
▁ilkbaharda
▁kokuyorsun
▁konuştuğun
▁korkutmaya
▁kullanırız
▁kullanışlı
▁kızartması
▁kızdırıyor
▁odasındaki
▁sembolüdür
▁sevimlidir
▁sivrisinek
▁sorularını
▁sundurmada
▁suçlanıyor
▁sürüyorsun
▁takıyorsun
▁temizledim
▁yaşındasın
▁yemiyorsun
▁Çoğunlukla
▁çalışırdım
▁çalışırsan
▁çıkıyorlar
▁İstasyonun
▁Diğerlerine
▁Matematikte
▁anlayamıyor
▁arabasından
▁başlıyorsun
▁beklenmiyor
▁bekliyorduk
▁belirtileri
▁birlikteyiz
▁edilmelidir
▁fakültesine
▁katılabilir
▁kaybettiğim
▁koleksiyonu
▁saklıyorsun
▁sersemlemiş
▁sınıfımızda
▁tartıştılar
▁yetenekleri
▁yetiştirmek
▁biliyorlardı
▁bitirmeliyim
▁diğerlerinin
▁düzenlenecek
▁gerektiğinin
▁inanabiliyor
▁kütüphanenin
▁oluşmaktadır
▁yapacağınızı
▁yaptırabilir
▁yüzüleceğini
▁öğrenmeliyim
▁öğretmenidir
▁Devletlerinde
▁başlayacağımı
▁edebilirsiniz
▁hissediyordum
▁konuştuğumuzu
▁kullanmıyorum
▁olabileceğimi
▁verilmediğini
▁vermemeliydim
▁yapmayacaksın
▁sinirlendiriyor
▁söylemeyeceksin
jo
Üz
ele
kay
laj
ome
tih
utu
▁Pl
▁Sk
▁Şö
beli
dows
geyi
hone
natı
oban
okin
türü
utan
uzlu
veye
ward
yaço
üyüz
▁Ata
▁Güc
▁Güv
▁Kuy
▁Lou
▁Pah
▁Sao
▁Som
▁Til
▁azı
▁fot
▁hac
▁iba
▁pra
0.000
emizi
falet
günüm
imler
imsiz
inmek
lenip
lısın
masın
mazon
seyle
terek
tinin
umanı
çının
ümünü
ıldık
ıldın
▁Araç
▁Carl
▁Doğa
▁Gezi
▁Grub
▁Jüri
▁Kira
▁Kova
▁Lobi
▁Sözc
▁Teni
▁Term
▁adan
▁ahla
▁aksi
▁andı
▁cilt
▁erit
▁euro
▁fonk
▁gazı
▁husu
▁hızı
▁last
▁medi
▁oruç
▁seri
▁sıva
▁tırn
▁ufuk
▁veri
▁vite
▁yorg
▁çivi
▁İddi
▁İsab
ağının
indows
iranda
lattım
raktör
terlin
tığına
ıknatı
ıncası
▁Adımı
▁Arada
▁Ateşi
▁Avuka
▁Beğen
▁Eylem
▁Filip
▁Gölün
▁Lider
▁Magda
▁Nakit
▁Ofisi
▁Paket
▁Plaja
▁aktar
▁aşkım
▁bandı
▁bariz
▁branş
▁burun
▁cenaz
▁devra
▁doğar
▁ebedi
▁eşarp
▁ferah
▁ihraç
▁ikide
▁inmek
▁katım
▁kazdı
▁kollu
▁kurun
▁maddi
▁mesle
▁panda
▁prens
▁reçel
▁saman
▁teset
▁topal
▁tıkan
▁yanar
▁yatan
▁yetki
▁Öneri
duğumuz
ebilsem
ettebat
lamamız
luyordu
olojide
▁Ağlama
▁Balina
▁Evimiz
▁Gemiye
▁Kapıya
▁Kazana
▁Klasik
▁Millie
▁Milyon
▁Ofiste
▁Pahalı
▁Pratik
▁Uçağın
▁Yeryüz
▁atandı
▁berber
▁bilimi
▁bitire
▁bitmez
▁bugüne
▁cidden
▁dalgın
▁dizgin
▁doğası
▁ekleye
▁faktör
▁filmdi
▁inanan
▁içerdi
▁içmedi
▁kaleme
▁kartım
▁kaydol
▁konfor
▁kuştur
▁mahsur
▁masası
▁meteor
▁oluştu
▁otuzun
▁prense
▁sandvi
▁sinyal
▁smokin
▁suçlar
▁sürdüm
▁takmaz
▁taktım
▁tanısı
▁tayfun
▁tenisi
▁uydura
▁uçurum
▁vergil
▁yapımı
▁çarşaf
▁çektin
▁ölümle
▁ülkeme
▁üşümüş
▁İlerle
▁ızgara
▁ışıkta
▁şakası
diğimize
▁Ailemle
▁Bacağım
▁Bebeğin
▁Ehliyet
▁Elmalar
▁Emniyet
▁Fabrika
▁Kıyafet
▁Manzara
▁Nükleer
▁Utangaç
▁Uyumaya
▁anlamam
▁anlamda
▁açıkken
▁ağırlık
▁başkası
▁besleye
▁bulmana
▁buyurun
▁bölgeyi
▁davetli
▁dağıldı
▁dergiyi
▁dersini
▁desteği
▁dileriz
▁dilinin
▁dinozor
▁duyardı
▁dövmesi
▁düzeyde
▁dışıdır
▁evimize
▁garajda
▁gelmeme
▁göreyim
▁hayvanı
▁hediyem
▁ifadeyi
▁incindi
▁işimizi
▁kazanın
▁kesiyor
▁kitapta
▁koymamı
▁mesajım
▁okumamı
▁olamadı
▁olmanız
▁oynamam
▁radyoda
▁savaşçı
▁spordur
▁taahhüt
▁tartışı
▁uydurdu
▁uzlaşma
▁uçurtma
▁yarıştı
▁yörünge
▁zorlama
▁Ülkenin
▁çalardı
▁çatıdan
▁çevirin
▁İkizler
lanmaktan
▁Atlantik
▁Ağabeyim
▁Ceketimi
▁Gardiyan
▁Geceleri
▁Kendiniz
▁Okyanusu
▁Ortalama
▁Patronun
▁Yapmanız
▁Yorgunum
▁Zamanımı
▁alınacak
▁aptallık
▁aramadın
▁atıyoruz
▁açılıyor
▁ağlarken
▁bağlıydı
▁başkanın
▁benzemek
▁büyüksün
▁ceketimi
▁derecesi
▁değişmez
▁diktatör
▁dinledin
▁dolardır
▁durdurun
▁durumunu
▁dönerken
▁dövüşmek
▁eşiğinde
▁gardiyan
▁giymiyor
▁gülümsey
▁habersiz
▁hafızası
▁içebilir
▁içkisini
▁kalkmayı
▁kapattın
▁kazanmış
▁kelimeye
▁keyifsiz
▁kitabımı
▁kutlamak
▁kötüsünü
▁mıydınız
▁okumuyor
▁ortaokul
▁oturmaya
▁porsiyon
▁saatleri
▁sakladım
▁sayılmaz
▁sebzeler
▁sorusunu
▁soyguncu
▁tepesine
▁tıklayın
▁verirler
▁yapmayız
▁yarından
▁yatmadan
▁yazmadım
▁özgeçmiş
▁ülkeleri
▁Şimdiden
ebileceğim
layamazsın
▁Bahçedeki
▁Başkaları
▁Kendimden
▁Kendinden
▁Sakıncası
▁Samanyolu
▁Sincaplar
▁Sonuçları
▁Yakışıklı
▁Yardımını
▁aleyhinde
▁bitirmeye
▁canlandır
▁değişecek
▁dişlerimi
▁durağında
▁dürüsttür
▁elleriyle
▁enstrüman
▁giyiyorum
▁görülecek
▁görüşmeyi
▁günlerimi
▁güçlendir
▁hissettiğ
▁hiçbirine
▁hoşgörülü
▁imzalamak
▁içindeyim
▁kaçınıyor
▁kokuyordu
▁koltuğuna
▁mağazanın
▁mevcuttur
▁meşguldük
▁oynuyoruz
▁perdeleri
▁problemim
▁reaksiyon
▁sahipliği
▁samimiyet
▁sevmezler
▁sürprizim
▁tasarımcı
▁tekrarlar
▁tepesinde
▁uykuluyum
▁verdiğimi
▁yapabildi
▁yapsaydım
▁yaptırdın
▁yazmasını
▁yorumları
▁zorluklar
▁çıkacağız
▁şemsiyeni
▁şemsiyeyi
▁Affedersin
▁Bisikletim
▁Helikopter
▁Karanlıkta
▁Soruşturma
▁Telefonumu
▁aradığında
▁arkadaştan
▁ayrılırken
▁başlamamız
▁dezavantaj
▁değiştirme
▁diyorsunuz
▁döndüğümde
▁etmemesini
▁faturasını
▁güvenlidir
▁hoşlandığı
▁izliyorsun
▁karışmıştı
▁kasabadaki
▁kaybetmeyi
▁keşfedildi
▁konuşamadı
▁konuşmayın
▁olmadığıma
▁olmalarını
▁oturduğunu
▁politikası
▁soracağını
▁sormalısın
▁sormalıyım
▁süreliğine
▁unuttuğunu
▁vazgeçmedi
▁vermiyoruz
▁yardımcısı
▁yasaklandı
▁yaşıyordum
▁yıkamasına
▁yıldızları
▁zararlıdır
▁Öğretmenim
▁çalacağını
▁çantasında
▁şanslıydık
▁Fransızcamı
▁Yanlışlıkla
▁Yumurtaları
▁araştırıyor
▁ayrılacağım
▁bahsetmedim
▁bulabiliriz
▁bulunabilir
▁büyükbabası
▁dokunabilir
▁dudaklarını
▁geldiğimden
▁gidemiyorum
▁götürmesini
▁inanıyorsun
▁kalmıyorsun
▁kazanabilir
▁nedenlerden
▁olmamasıdır
▁sinirlerimi
▁sonuçlardan
▁talimatları
▁televizyona
▁yapmadığına
▁yaptığımıza
▁zorluklarla
▁öğreniyoruz
▁ağlamadığını
▁bilmediğimiz
▁bulacaksınız
▁dönmeyeceğim
▁etmeyeceksin
▁gelmeyeceğim
▁güvenemezsin
▁hayvanlardan
▁heyecanlıyız
▁hissediyoruz
▁keskinleştir
▁konuşuyorduk
▁sorabilirsin
▁söyleyemeyiz
▁tanıyorsunuz
▁vardiyasında
▁duyabiliyordu
▁düşünebiliyor
▁gerçekleşecek
▁hoşlanmıyordu
▁gerçekleştirdi
▁hoşlanmadığımı
▁umursamadığını
▁yasaklanmıştır
▁yüzebileceğini
▁ebeveynlerinden
▁söyleyeceğinden
''
Ah
Ar
âl
cuk
hil
mda
oin
oku
opa
ova
ple
tem
şik
▁Ho
▁Kr
▁No
▁to
▁üy
amit
amın
atür
bola
cayı
cımı
elle
eyiz
feri
oter
vara
ışma
şaat
▁Adr
▁Adı
▁Lan
▁Lez
▁Pul
▁Tel
▁arg
▁sep
▁zom
andan
birya
canın
ehcen
ginin
ineyi
itesi
olyon
otlar
ranın
siydi
verdi
ürafa
▁Ayın
▁Bile
▁Borç
▁Jean
▁Jiro
▁Kaba
▁Kalb
▁Karn
▁Kons
▁Kule
▁Olum
▁Onda
▁Otop
▁Yarı
▁Yoko
▁balı
▁buda
▁burc
▁cadı
▁eğdi
▁feth
▁obez
▁topa
▁vida
▁çile
▁çürü
▁çırp
▁ömrü
▁özgü
Lütfen
dyonun
fettiş
memesi
muştur
tırmak
tırıcı
ulacak
ydiler
ydılar
▁Andre
▁Aşkın
▁Cesur
▁Colum
▁Edebi
▁Havuç
▁Hiroş
▁Jimmy
▁Kanun
▁Odanı
▁Sebep
▁Titan
▁Torun
▁abart
▁akort
▁anaya
▁anket
▁aylar
▁azdır
▁açlık
▁açtık
▁bayra
▁bürom
▁cazip
▁dürtü
▁girin
▁hobim
▁kabak
▁kanap
▁kazık
▁komün
▁kutup
▁kızma
▁mater
▁müziğ
▁opera
▁pamuk
▁paund
▁reşit
▁roket
▁seviş
▁takas
▁tipim
▁tırma
▁yüklü
▁çölde
▁çömel
▁ötürü
▁ürkek
abilsem
kademik
landığı
olojisi
seksüel
ülasyon
▁Adınız
▁Amazon
▁Babana
▁Eskisi
▁Kartal
▁Korece
▁Kurban
▁Market
▁Müziği
▁Olağan
▁Sözlük
▁Sözümü
▁Teslim
▁Ulusal
▁Yanına
▁Yaşaya
▁Yüzmek
▁Yüzünü
▁artışı
▁baloya
▁baskın
▁bastım
▁biberi
▁dilimi
▁dizini
▁dokunu
▁durduk
▁dönene
▁dönmem
▁fişini
▁garaja
▁geçtik
▁gramer
▁görüle
▁gülmek
▁hapist
▁hasara
▁ibadet
▁iştahı
▁kafama
▁kahval
▁kalkan
▁kalpli
▁kaçmış
▁kokain
▁komada
▁kıyıya
▁maçını
▁muhtaç
▁okuyup
▁olanın
▁omzuma
▁ortağı
▁resmen
▁sanayi
▁sertti
▁sevdik
▁ucunda
▁verdir
▁yapısı
▁yazdık
▁yeşile
▁ödemem
▁öldüre
▁öpmedi
▁özenli
▁üfledi
▁İnşaat
bilirler
luğundan
mıyorlar
zervatif
üstehcen
▁Aklımda
▁Aklında
▁Büyükel
▁Değerli
▁Ellerim
▁Kapılar
▁Kazanın
▁Liseden
▁Mühendi
▁Oturmak
▁Partiyi
▁Tanrıya
▁aldırış
▁alırken
▁alırlar
▁alışmak
▁açmayın
▁ağabeyi
▁babalar
▁bağırma
▁bilezik
▁bilimci
▁binelim
▁boyunda
▁cevabın
▁daireye
▁delisin
▁dolapta
▁dosyayı
▁dönmeli
▁dönüşüm
▁edemeye
▁fırçası
▁gelmeli
▁görmesi
▁görürüz
▁hapları
▁içmenin
▁içmeyin
▁kanıyor
▁komplek
▁korkmam
▁koyuyor
▁kısaydı
▁kızacak
▁kızıyla
▁lastiği
▁maraton
▁metroya
▁midilli
▁muhabir
▁olursan
▁oturmuş
▁pizzayı
▁projesi
▁resmimi
▁sayfada
▁sıfırın
▁sırları
▁trenini
▁umrumda
▁yağması
▁yağmura
▁yenilik
▁zamanla
▁Ödevini
▁çıkamam
▁Şikâyet
lamalıyız
larımızla
tılmıştır
▁Ayrılmak
▁Müzakere
▁Napolyon
▁Sandalye
▁Yetişkin
▁alınmadı
▁azaltmak
▁bacağımı
▁benzeyen
▁biyoloji
▁dramatik
▁etrafını
▁ettiğime
▁futbolcu
▁fırsatta
▁gelişmiş
▁gizlilik
▁gücendir
▁güvenini
▁güçlüydü
▁haftaydı
▁havuzuna
▁hızlıydı
▁ilişkiye
▁işsizlik
▁kazağını
▁kesindir
▁klostrof
▁kurtarma
▁kuşların
▁mikrofon
▁müteşekk
▁okuldaki
▁olacağın
▁sahipler
▁sakalını
▁saklayın
▁saniyede
▁sorusuna
▁takımına
▁tesettür
▁tutkuyla
▁verdirdi
▁yanından
▁yaptırma
▁yaptırır
▁yediğimi
▁yemesine
▁yıkamadı
▁zararsız
▁Çarşamba
▁çamaşırı
▁çarpıldı
▁öğrenmen
▁üyesiydi
▁üzereyiz
▁İsabella
▁şehridir
larınızdan
▁Japoncayı
▁Mektubunu
▁Söylemeye
▁Tesadüfen
▁amcasının
▁anlaşılma
▁başaracak
▁başkaları
▁başlamayı
▁benzersiz
▁biyolojik
▁büyükbaba
▁dinleyici
▁durduğunu
▁duyamadım
▁dükkanına
▁ettirildi
▁ettiğimiz
▁getireyim
▁gidemeyiz
▁girebilir
▁görüşüyor
▁hislerini
▁isteseydi
▁karartıcı
▁köşesinde
▁kızdırmak
▁milyondan
▁sıcaklığı
▁tehlikeyi
▁tokalaştı
▁unutmadım
▁veremiyor
▁verilecek
▁yapabilen
▁yönetiyor
▁zayıfladı
▁öfkelendi
▁özlüyoruz
▁öğrenirse
▁Şaşırtıcı
bileceğiniz
▁Afganistan
▁Seçenekler
▁acımasızca
▁ayaklarını
▁ayırabilir
▁bilmeliydi
▁birdenbire
▁borçlarını
▁diyeceğimi
▁durumdayım
▁düzenlemek
▁ebeveynler
▁eşyalarımı
▁gelemezsin
▁güvendeyiz
▁inanamadım
▁kardeşinle
▁karizmatik
▁kaybetmedi
▁kurtaracak
▁lisedeyken
▁makinesine
▁olamıyorum
▁olmamasını
▁olmayacağı
▁oyunlarını
▁pencereler
▁santimetre
▁tanıdığına
▁yaralanmış
▁zamanların
▁çikolatayı
▁öğrenciden
▁Arkadaşımın
▁beklettiğim
▁birbirinizi
▁boğuluyordu
▁davranışını
▁deneyeceğiz
▁düşünmekten
▁gelmemesini
▁geçireceğim
▁hayalperest
▁istemelisin
▁kapatabilir
▁konferansta
▁konuşamayan
▁kıyafetleri
▁oturuyorlar
▁restoranına
▁saatlerinde
▁suçlamaları
▁söylentiler
▁takılmaktan
▁uyumadığını
▁yabancılara
▁yardımımızı
▁yaşadığımız
▁Başarısızlık
▁arkadaşımsın
▁değişeceğini
▁değiştirmesi
▁gerektiriyor
▁gidileceğini
▁görmeyeceğiz
▁olmayacağımı
▁suçlayabilir
▁vazgeçmesini
▁yakınlarında
▁çalışmıyordu
▁anlayabilirim
▁anlayabiliyor
▁araştırıyoruz
▁hatırlıyorsun
▁kendiliğinden
▁olmadıklarını
▁bulabileceğini
▁gelemeyeceğini
▁gidebilirsiniz
▁hoşlanmıyorsun
▁ilgileniyorsun
▁açıklayabilirim
▁edebileceğimden
Biz
abi
ayi
ght
imş
lız
tlı
udu
vil
▁23
▁Bl
aför
anto
ceni
ding
eşir
feti
kara
niği
okyo
stin
stri
tion
tist
wood
yata
▁Abd
▁Ang
▁Art
▁Etk
▁Hob
▁Nob
▁Pen
▁Pes
▁Pin
▁Raf
▁Sap
▁Sem
▁Sep
▁Yel
▁bam
▁fal
▁iri
▁ric
▁rit
▁sıy
▁yur
▁Çağ
▁şer
amızı
erson
ferin
genin
likçi
tiyor
tmeye
uzuki
vanda
▁Andr
▁Avcı
▁Bara
▁Dedi
▁Eliz
▁Fren
▁Mete
▁Pizz
▁Rock
▁Uygu
▁Yüzü
▁avlu
▁aziz
▁azın
▁bıyı
▁deha
▁dona
▁elin
▁esas
▁eteğ
▁ezdi
▁görk
▁izne
▁kupa
▁kurs
▁kürk
▁kıta
▁menü
▁metr
▁peki
▁rolü
▁saha
▁sayg
▁susk
▁sust
▁vali
▁yarg
▁Çeki
▁övdü
▁ılık
▁ısıt
▁Şiir
ederal
isidir
luğuna
mektir
suzluk
tırlar
usuydu
yangoz
ydınız
ırdadı
▁Belge
▁Bozuk
▁Cevab
▁Detay
▁Eston
▁Farkı
▁Masum
▁Mikro
▁Parma
▁Sorum
▁Yönet
▁acıya
▁ahmak
▁aşısı
▁basıl
▁başör
▁beyni
▁bölüş
▁cezbe
▁durup
▁ender
▁evrim
▁eşleş
▁ineği
▁kaset
▁kokar
▁kurak
▁kılav
▁meşru
▁milli
▁nihai
▁patla
▁rezil
▁saray
▁siste
▁soldu
▁soran
▁süreç
▁tabur
▁tutan
▁uygar
▁uçmak
▁varış
▁yakar
▁yemen
▁çattı
▁örgüt
▁İklim
▁Şehre
▁Şüphe
acağına
ilmişti
imizdir
lamadın
lanamaz
lemeler
leyerek
çisidir
▁Ağzını
▁Budizm
▁Elimde
▁Koltuk
▁Motoru
▁Suzuki
▁Uyuyor
▁Yarışı
▁acıklı
▁aileme
▁amacım
▁aradık
▁atacak
▁aşkını
▁bayağı
▁başbak
▁daldım
▁değnek
▁dolusu
▁dönemi
▁girdik
▁girmiş
▁grubun
▁grupta
▁gülüms
▁hissim
▁kaderi
▁ketçap
▁komedi
▁koştuk
▁kurulu
▁kırıcı
▁lahana
▁mağdur
▁miydim
▁pusula
▁savuna
▁sofist
▁sorman
▁sorumu
▁tavuğu
▁tepesi
▁tiksin
▁timsah
▁tutmaz
▁tutucu
▁tümünü
▁utandı
▁uzaylı
▁vaktin
▁valizi
▁zemini
▁Çılgın
▁Öfkeli
▁Öğleye
▁önleye
▁üzülme
▁İtiraf
▁İtiraz
▁İyileş
▁İçinde
▁Şangay
amıyordu
cilerden
ılmıştır
▁Adınızı
▁Amcamın
▁Anneler
▁Bekleye
▁Dersler
▁Domates
▁Düzenli
▁Eldiven
▁Gençler
▁Kasırga
▁Kuzenim
▁Otobüsü
▁Sabırlı
▁Sıkıntı
▁Venedik
▁almanız
▁anlayan
▁atlamak
▁ayırmak
▁ağırdan
▁banknot
▁birliği
▁büyüğüm
▁cehalet
▁cesurdu
▁dağıttı
▁defteri
▁demeden
▁deyişle
▁diyorum
▁doğruya
▁durmadı
▁durmaya
▁dükkana
▁eklemek
▁emindim
▁gelebil
▁götürün
▁gülleri
▁gülmedi
▁güvenle
▁havamda
▁hızlıca
▁ihanete
▁kimliği
▁komşusu
▁kulübün
▁kuşkulu
▁kültürü
▁liberal
▁nazikçe
▁notları
▁odaklan
▁onarmak
▁oyundan
▁piyango
▁postane
▁protein
▁raftaki
▁rehberi
▁sevgisi
▁sormamı
▁sırıttı
▁taşıyan
▁teknesi
▁telgraf
▁toprağa
▁trenine
▁trombon
▁umrunda
▁varıyor
▁yerlere
▁yoruldu
▁Çantamı
▁çoğunda
▁çözmeyi
▁ülkemde
▁İsveççe
▁şansına
▁Başlamak
▁Davranış
▁Geleceği
▁Gördüğün
▁Muhammed
▁Tanrılar
▁Yüzlerce
▁alamıyor
▁aldığına
▁arkamdan
▁avantajı
▁avukatla
▁bankanın
▁başarıya
▁boyamayı
▁bulaştır
▁bulduğun
▁ciddiydi
▁deneyime
▁değilsen
▁değişken
▁dokunmak
▁döndüler
▁dönmemek
▁düşürdün
▁edemedik
▁etmemesi
▁eğlendin
▁fazladan
▁fenerini
▁fikrimiz
▁fıkralar
▁gizlemek
▁gülümser
▁güneşten
▁güvenmez
▁insandan
▁işçileri
▁kalbimle
▁kamyonet
▁kendinin
▁kestirdi
▁kulaklık
▁kulübesi
▁mektubun
▁olayları
▁olmanızı
▁oluncaya
▁oranında
▁referans
▁sahiptim
▁salladım
▁sevinçle
▁siyahtır
▁sınavına
▁tartışır
▁tavsiyen
▁trafikte
▁trenleri
▁unutamam
▁unuturum
▁yalanlar
▁yazısını
▁yağmıyor
▁yaşarken
▁yoğunlaş
▁çabaladı
▁çabaları
▁çaldılar
▁çağrıldı
▁çağırdım
▁ölmekten
▁özelliği
▁şafaktan
bileceğime
layacağımı
▁Biletleri
▁Hapishane
▁Japoncaya
▁Kahretsin
▁Kendisini
▁Tebrikler
▁Yaptığını
▁anlattığı
▁başlamadı
▁belirtisi
▁bırakıyor
▁destekler
▁dinlemeye
▁doktorlar
▁dolaşıyor
▁düşünelim
▁edilmedim
▁erkekleri
▁geleceğin
▁geçebilir
▁giriyorum
▁halükarda
▁harcamaya
▁hastaydım
▁hatasıydı
▁havasında
▁havuzunda
▁hususunda
▁incelemek
▁incitecek
▁istenilen
▁kadınlara
▁kelimedir
▁kelimeyle
▁kendinize
▁korkmayın
▁okuduktan
▁olacağıma
▁paltosunu
▁paranoyak
▁pişirmeye
▁sandığını
▁sağlığına
▁söylersem
▁sürmekten
▁sırlarını
▁takılıyor
▁tanışmayı
▁tekmeledi
▁tornavida
▁tutulması
▁uyandırma
▁uyumasına
▁veriyordu
▁yakışıyor
▁yapmazlar
▁yaptıktan
▁yaralanma
▁yaramıyor
▁çaldırdım
▁çocuğumuz
▁çıkıyordu
▁öğreniriz
▁şarkıcısı
▁Kahvaltıda
▁Telefonunu
▁Uyuşturucu
▁adaylığını
▁arayacağız
▁aşağısında
▁bildirildi
▁bilmediğin
▁dizlerinin
▁durumdayız
▁duruyorsun
▁dönmeliyim
▁düştüğünde
▁edilmesini
▁gereğinden
▁göremezsin
▁görmelisin
▁hangisinin
▁hazırlandı
▁isteklidir
▁kabalıktır
▁kalabalığı
▁kalamazsın
▁kalmalıyım
▁kartlarını
▁karıştırma
▁kitaplarım
▁kocasından
▁konferansa
▁korktuğumu
▁kırmızıydı
▁listesinde
▁omuzlarına
▁oturacağım
▁savunmasız
▁sınırlıdır
▁tanıştırdı
▁yapmadığım
▁yaptırmaya
▁yaradığını
▁yumurtalar
▁yürüdüğünü
▁çevrilidir
▁çıkmıyoruz
▁öğretmendi
▁İnsanlarla
▁Kanadalıdır
▁Patatesleri
▁Süpermarket
▁algınlığını
▁anlamayacak
▁anlaşmazlık
▁ayrılıyoruz
▁açıklayayım
▁beğendiğini
▁buluşuyorum
▁depresyonda
▁değiştirmez
▁görüşebilir
▁götüreceğiz
▁hanımefendi
▁kurulmuştur
▁laboratuvar
▁mükemmeldir
▁pantolonunu
▁uğrayacağım
▁yardımınıza
▁yürüyebilir
▁çalışmaları
▁çalıştığımı
▁çocuklarıma
▁öğrenebilir
▁İlgilenecek
▁şarkılarını
▁aracılığıyla
▁bahsedebilir
▁başkanlığına
▁dinlemiyordu
▁düşünüyordun
▁dışarıdayken
▁gönderiyorum
▁istememiştim
▁kahvaltısını
▁karşılayacak
▁karşılığında
▁kaybediyorum
▁kaybetmekten
▁kıskanıyorum
▁paylaşıyorum
▁söyleyemedim
▁tanıştırayım
▁vermemelisin
▁yapabilirdik
▁yapacaksınız
▁çalıştırıyor
▁şüphelenmedi
▁bahsediyorsun
▁görünmüyordun
▁gülümsediğini
▁hissedeceksin
▁ilgileniyordu
▁olabilirsiniz
▁yapmamalıydım
▁Üniversiteden
▁öldürüldüğünü
▁İmparatorluğu
▁Ayakkabılarımı
▁duyabiliyordum
▁kanıtlayabilir
▁kullanabiliriz
▁endişelenmenize
▁gerçekleştirmek
Dün
aat
all
ani
gbi
gre
han
ner
ttü
vis
yam
çıl
▁33
▁ök
Sana
adet
alon
avru
bayı
beye
dney
gide
ilme
lısı
opar
otka
umla
uğla
ysem
▁Buy
▁Cid
▁Cin
▁Gür
▁Mis
▁Sch
▁güz
▁had
▁peç
▁pip
▁spr
▁van
▁Çat
▁Öfk
amana
amanı
anağa
anına
dalar
dırım
edyen
ikast
irdin
müştü
neğin
oksit
ometr
timde
urdan
valye
yeydi
üydün
▁Boya
▁Buda
▁City
▁Depr
▁Devr
▁Ekme
▁Form
▁Kamu
▁Kanı
▁Kole
▁Kuru
▁Maka
▁Marc
▁Müda
▁Sing
▁Soya
▁Susa
▁Toyo
▁duyu
▁erer
▁folk
▁güve
▁ikti
▁ipuc
▁kron
▁kuma
▁olim
▁peşe
▁soda
▁staj
▁sulu
▁temp
▁özet
haneyi
isyeni
ulamaz
ğimize
ğımdan
▁1,000
▁Aktör
▁Bomba
▁Canlı
▁Hakem
▁Hisse
▁Holly
▁Huzur
▁Liisa
▁Odama
▁Sahne
▁Sezar
▁Vakit
▁Yavru
▁Yunus
▁adayı
▁arkan
▁attın
▁balon
▁besin
▁bilse
▁boşum
▁dağıt
▁emlak
▁eroin
▁esmer
▁eşine
▁eşsiz
▁havai
▁hissi
▁hurda
▁idrar
▁kablo
▁kitle
▁konul
▁konum
▁kralı
▁manip
▁neyle
▁sebeb
▁terke
▁teyit
▁türün
▁uysal
▁yayım
▁yüzüc
▁Ödülü
▁önsez
▁İsmin
▁şifre
arımsak
bilmeyi
duğunuz
düğümde
larınla
oğrafya
▁Ateşin
▁Cidden
▁Evimde
▁Evinin
▁Hoşlan
▁Lezzet
▁Markku
▁Mücade
▁Müthiş
▁Oturma
▁Parlak
▁Piyang
▁Rehber
▁Uçakta
▁alarak
▁albümü
▁arkaya
▁ayakla
▁ayırın
▁ağrıya
▁bardan
▁bayana
▁bağlan
▁belası
▁binası
▁böceği
▁dersim
▁devrim
▁duyuru
▁döktüm
▁güneşe
▁haftas
▁hekimi
▁hemşir
▁iklime
▁iletin
▁içtiği
▁kalkma
▁kesici
▁komite
▁kurbağ
▁kurdum
▁küfret
▁kıymet
▁macunu
▁makbuz
▁manyak
▁masalı
▁neresi
▁okşadı
▁parfüm
▁pastır
▁ruhsat
▁senedi
▁sindir
▁sürgün
▁tepeye
▁uyacak
▁uyuyan
▁vaftiz
▁volkan
▁yalına
▁yarıya
▁yıkama
▁zeytin
▁ödendi
▁öfkesi
▁ölmeye
▁şekere
mediğine
▁Denizde
▁Galileo
▁Mahkeme
▁Plastik
▁Talimat
▁Yaptığı
▁Yarınki
▁Yılbaşı
▁aldatıl
▁alındım
▁anlaştı
▁anısına
▁arkamda
▁arkanda
▁bakmanı
▁basitti
▁birbiri
▁bodruma
▁cesurca
▁dersler
▁dikkati
▁diyette
▁dolarım
▁duvarın
▁düşmana
▁elemanı
▁engelle
▁engelli
▁etmişti
▁evliler
▁geçinir
▁giremez
▁görevin
▁görülür
▁gözyaşı
▁güvenen
▁güvenir
▁ikisine
▁inancım
▁insanla
▁isteğim
▁ithalat
▁içerler
▁kapadım
▁kartımı
▁kaçınır
▁klarnet
▁kolunda
▁konular
▁koyduğu
▁koşabil
▁koşarım
▁kökenli
▁kızlara
▁müzikle
▁mıknatı
▁neşeyle
▁oyundur
▁oyununu
▁paralar
▁plandan
▁sabahın
▁satmayı
▁sayfası
▁sağduyu
▁sembolü
▁silahın
▁takarım
▁toplama
▁tutkulu
▁yazarın
▁yağmuru
▁yokluğu
▁zamandı
▁çamurlu
▁çekerek
▁çıkaran
▁öksürdü
▁ölümsüz
▁özgürce
▁şartlar
anacağını
ulacağını
ınacağını
▁Aylardır
▁Bayanlar
▁Bebekler
▁Elizabet
▁Ellerimi
▁Festival
▁Güzellik
▁Hepinize
▁Hikayeyi
▁Koşullar
▁Mühendis
▁Sonbahar
▁Yemekten
▁aldatıcı
▁aldıktan
▁anlattın
▁artistik
▁ayrılmış
▁aşağılık
▁bakmıyor
▁besliyor
▁bindiler
▁birazını
▁bulursun
▁büyüdüğü
▁caddeden
▁dilemeye
▁dillerde
▁doğruluğ
▁düşmanca
▁etkinlik
▁geleceğe
▁gelirsen
▁gezegeni
▁görünmez
▁götürdün
▁günlerce
▁haritada
▁hidrojen
▁inanılır
▁inanırım
▁irtibata
▁istemesi
▁kaliteli
▁kestiler
▁kurtulan
▁köpekten
▁kırılgan
▁masasını
▁mesajını
▁okudunuz
▁olmaları
▁oynarlar
▁polisler
▁pürüzsüz
▁seçtiler
▁sinemada
▁sporları
▁tasarımı
▁taşındık
▁topluluğ
▁uzaklara
▁verirdim
▁yapmasan
▁yapmayan
▁yararsız
▁yazarken
▁yetmiyor
▁yılından
▁zenginim
▁çekmiyor
▁çocuğuna
▁çorbanın
▁çıkardık
▁ödüyorum
▁ölümünün
▁öneriyor
▁üzgündüm
▁üzgünsün
▁İkinizin
▁Şaşırmış
▁şartları
mayacaklar
▁Cüzdanını
▁Heyecanlı
▁Konsantre
▁Konuşmacı
▁Konuşmaya
▁Magdalena
▁Söylediği
▁Zamanımız
▁affedecek
▁akıllıydı
▁alacaktır
▁anlamadın
▁babasıdır
▁benimsedi
▁birisiyle
▁bitirmeyi
▁bulunacak
▁buradalar
▁cömerttir
▁denemedim
▁doğruladı
▁ederseniz
▁elinizden
▁etmeliydi
▁gelmişken
▁geçirmeye
▁götürelim
▁günlerini
▁kanepenin
▁kaçırıyor
▁kilisenin
▁kiraladık
▁koltuklar
▁koltuğunu
▁korkarlar
▁kucakladı
▁mezuniyet
▁okyanusta
▁olanaksız
▁olmadığın
▁oyuncudur
▁patronuna
▁rahatlama
▁sürdürmek
▁sınavında
▁tabakları
▁tasarladı
▁tesisatçı
▁tutuluyor
▁uzlaşmaya
▁uzmanıdır
▁uğrayacak
▁ölmeyecek
▁önemsiyor
▁öğretmemi
▁Sözleşmeyi
▁ayrıntılar
▁başarısını
▁başlıyoruz
▁benimkinin
▁dinlenelim
▁ellerinden
▁etmiyorlar
▁eğlendirdi
▁faturaları
▁fikirlerin
▁fırçalıyor
▁geliştirdi
▁geçiyorsun
▁gittiğimiz
▁hatalarına
▁hissettiği
▁ilişkisini
▁iyileşmesi
▁kavuşturdu
▁konuşmadın
▁küçümsüyor
▁okumuyorum
▁okuyacağım
▁oynamasını
▁oyuncaklar
▁resepsiyon
▁sorguluyor
▁söylemeyin
▁sözleşmesi
▁tartışmalı
▁tırmanmayı
▁umursamadı
▁unutuyorum
▁utangaçtır
▁vazgeçmeye
▁yalancısın
▁yürümekten
▁çalışmadan
▁çıkmıyorum
▁ödevlerini
▁İlkbaharda
▁Pasaportumu
▁arkadaşlara
▁başlayanlar
▁bilmediğine
▁bitirdiğini
▁gelmeliydin
▁getirmesini
▁gidemeyecek
▁gördüğünden
▁görüntüsünü
▁göstermiyor
▁hayatlarını
▁hazırlıksız
▁ilgilenmeye
▁kalabalıkta
▁kazanacağım
▁kullanmadım
▁köpeklerini
▁mağazasında
▁müzisyendir
▁performansı
▁planlarımız
▁tanımıyoruz
▁tanıştırmak
▁taşındığını
▁yarışmasını
▁yemeyeceğim
▁yenilebilir
▁yönlendirdi
▁öğretmenini
▁anlayacağını
▁ayrılacağını
▁bahsettiğini
▁düşüneceğini
▁edemeyeceğim
▁endişeliydik
▁fabrikasında
▁gönderebilir
▁göstermesini
▁gözükmüyordu
▁gürültülüydü
▁kazanacağına
▁memnuniyetle
▁olmadığımızı
▁olmayacaktır
▁oturmuyorsun
▁tanımıyormuş
▁yapacağımdan
▁çalışmıyoruz
▁çalışıyorduk
▁öldürecekler
▁İstemiyorsan
▁şüpheleniyor
▁alabileceğimi
▁bekliyorsunuz
▁bilmiyorlardı
▁edemeyeceğimi
▁eğlenmediğini
▁karşılaştığım
▁konuşmadığını
▁konuştuğundan
▁olabildiğince
▁söyleyebilsem
▁temizlemesini
▁arkadaşlarımız
▁bekleyebilirim
▁değiştireceğim
▁hatırlayacağım
▁konuşmamalısın
▁söylememeliydi
▁hatırlatıyorsun
▁konuşabiliyorum
.1
SA
ug
cia
dut
evk
kah
lor
lör
nes
noz
ohp
vay
wer
yıl
ğız
İyi
ırg
ırk
▁Hz
▁Kâ
▁Pu
▁Sc
▁Tu
adam
anıp
apur
disi
doğu
guen
iker
inip
jina
nden
neyi
oyol
reni
tüyü
tıma
tısı
▁Bok
▁Büt
▁Faz
▁Leh
▁Mad
▁Mür
▁asa
▁bon
▁mün
▁müs
▁pür
▁rüt
▁zıt
▁üçe
aklar
cunun
jenik
layım
lüğüm
ohpoh
okoli
tenke
tırım
uydum
yeyim
▁Abar
▁Anla
▁Beet
▁Bela
▁Dava
▁Dile
▁Diye
▁Ener
▁Küba
▁Sayı
▁Sesi
▁Teda
▁ayık
▁aşar
▁balo
▁bask
▁burs
▁ecza
▁fran
▁halt
▁koro
▁köri
▁mana
▁skor
▁trop
▁virg
▁yalı
▁Ürün
▁Üzüm
▁örüm
anları
açlama
dinden
eliler
jektif
künden
lendim
leşmiş
ümüzün
▁Acaba
▁Gurur
▁Harca
▁Kanal
▁Keman
▁Limon
▁Muhaf
▁Mülte
▁Nobel
▁Otele
▁Sadık
▁Saçın
▁Sağdu
▁Sebze
▁Susuz
▁Suyun
▁Süper
▁Tasar
▁Teker
▁Testi
▁Yağış
▁Yemin
▁ahırı
▁aleti
▁bileş
▁binin
▁desin
▁dobra
▁dolun
▁eylül
▁filme
▁fişek
▁galip
▁gezdi
▁geçip
▁görgü
▁gübre
▁güver
▁harfi
▁içime
▁kabur
▁katlı
▁katır
▁keşiş
▁köpük
▁köylü
▁kıdem
▁marul
▁midem
▁papaz
▁pasif
▁sataş
▁serma
▁soyul
▁tahıl
▁uykul
▁vurma
▁vuruş
▁yönlü
▁yüzlü
▁zihin
▁Ödeme
▁çifte
▁üreti
▁İğren
cisidir
direcek
duğumda
iliğini
Üzgünüm
▁10.000
▁Anneni
▁Babanı
▁Bayram
▁Cenaze
▁Edward
▁Elinde
▁Eviniz
▁Günler
▁Hanako
▁Jessie
▁Kralın
▁Odadan
▁Otelde
▁Otelin
▁Oyuncu
▁Pişman
▁Soruma
▁Sırtım
▁Tayvan
▁Teresa
▁Zorluk
▁ailemi
▁ararsa
▁aynaya
▁ağaçta
▁bağlar
▁becere
▁bitmek
▁borcum
▁boyaya
▁bulmaz
▁dairem
▁dedesi
▁dumanı
▁düğüne
▁eczane
▁ekimde
▁eminiz
▁evimiz
▁eylemi
▁gelsin
▁geçmez
▁giymez
▁güldüm
▁halıyı
▁iPhone
▁imzala
▁kafana
▁kalbim
▁kestin
▁kirlet
▁klavye
▁makası
▁mecbur
▁modaya
▁onarım
▁ormanı
▁peygam
▁rolünü
▁satışı
▁skanda
▁tapına
▁tarzım
▁tutkum
▁uzaktı
▁verile
▁versen
▁yapsam
▁Çeneni
▁Çiftçi
▁Çocuğa
▁çalmaz
▁ölürüm
▁üzüyor
▁Şeyler
antastik
lanmamış
melerine
muyordum
tığımıza
ılmaktan
ınızdaki
▁Akdeniz
▁Cevabın
▁Gecenin
▁Gezegen
▁Görünüş
▁Karınca
▁Katılım
▁Kolombi
▁Kımılda
▁Randevu
▁Sevgili
▁Sürpriz
▁Tatilde
▁Yürümek
▁acısını
▁adından
▁anlatan
▁ardında
▁babanla
▁başlıca
▁biletin
▁bittiği
▁bugünün
▁buluşma
▁büyüdün
▁daktilo
▁dediğim
▁denizin
▁dersten
▁dijital
▁durakta
▁edildik
▁ejderha
▁ekledim
▁eğitime
▁eşyalar
▁fakirdi
▁fikrine
▁fırçala
▁gelmene
▁getirme
▁gözünün
▁heykeli
▁ilkokul
▁imzalar
▁isimler
▁izlemem
▁kalktık
▁kalmama
▁korktuk
▁korusun
▁kuruluş
▁kızımla
▁otelden
▁oğlumun
▁pastası
▁rencide
▁silahla
▁sizinki
▁süremez
▁tanıyıp
▁tarzına
▁ulaştık
▁uykusuz
▁uğursuz
▁yanıtla
▁yazardı
▁yediniz
▁yemeyin
▁yerdeki
▁yetişti
▁yirmili
▁yüzerim
▁yıkadın
▁çantada
▁çevirir
▁çiziyor
▁çorbayı
▁çıkmamı
▁ütüledi
▁ıslaktı
▁şişeden
leştirmek
▁Bagajımı
▁Dondurma
▁Evimizin
▁Filistin
▁Geçmişte
▁Giysiler
▁Hepsinin
▁Kahraman
▁Kitabını
▁Konserin
▁Kurallar
▁Kızarmış
▁Müdahale
▁Oyunları
▁Sessizce
▁Tavsiyen
▁adlarını
▁albümünü
▁anlarsın
▁arabamın
▁arayarak
▁arkasını
▁ateşledi
▁ayrıldın
▁ayrılmam
▁ağzından
▁başlayın
▁bilgelik
▁birasını
▁cinayete
▁durdurur
▁durumdan
▁durumlar
▁dükkanda
▁dükkânda
▁düzeltin
▁düşürmek
▁ellerine
▁eğitmeni
▁farketti
▁fazlaydı
▁geleneği
▁gerçeğin
▁gitmekte
▁görkemli
▁gözlerle
▁güçlüyüm
▁haftalar
▁hepinizi
▁inanmaya
▁inceleye
▁içeceğim
▁kahvenin
▁kaldınız
▁kapasite
▁kararına
▁katlandı
▁kişiliğe
▁komşumuz
▁konserde
▁konuşucu
▁kovuldum
▁kuyrukta
▁küçüksün
▁kızartma
▁mevcuttu
▁mümkünse
▁normalde
▁olmazsan
▁oluyoruz
▁oyununda
▁planımız
▁rahatlat
▁savaşmak
▁saygısız
▁severdin
▁seviyesi
▁suçludur
▁takımını
▁tanıtmak
▁testinde
▁tırmanış
▁ummuştum
▁yakalama
▁yaklaşan
▁yapılmak
▁yasalara
▁yatağını
▁yağmurun
▁yaşlanır
▁yaşımdan
▁yorgunuz
▁yorumlar
▁yürekten
▁çıkmadım
▁önlemler
▁üstlendi
▁şartıyla
dığımızdan
▁Annesinin
▁Büyükbaba
▁Dikkatsiz
▁Elizabeth
▁açacağını
▁başkanlık
▁başörtüsü
▁bilincini
▁binebilir
▁birisidir
▁birisinin
▁borçluyuz
▁bulamadık
▁bulmasına
▁buluşacak
▁ceketinin
▁ceplerini
▁dakikadır
▁değerinde
▁dillerden
▁diyebilir
▁düğününde
▁edebilsem
▁ettiğimde
▁evrakları
▁fikrinden
▁gelmediği
▁gelmekten
▁girmesini
▁gökyüzünü
▁görmesine
▁görüyordu
▁haricinde
▁hepsinden
▁içecekler
▁içindesin
▁kalıyoruz
▁kapatıyor
▁kardeştir
▁kaçtığını
▁kravatını
▁kulübünün
▁kutusunda
▁mahkemede
▁manzarası
▁mikroskop
▁mühendisi
▁müstehcen
▁noktaları
▁olabilsem
▁olanlarla
▁penceresi
▁planından
▁programım
▁sağlıksız
▁sekizinci
▁seyretmek
▁sofistike
▁sözlüğünü
▁sınırları
▁sırtından
▁teorisini
▁terbiyeli
▁umutsuzdu
▁uzaktayız
▁uzaylılar
▁uğramıştı
▁veriliyor
▁yakınıyor
▁yalınayak
▁yangından
▁yapmazsan
▁yapmazsın
▁yaratıyor
▁yeteneğim
▁yoksundur
▁yürürlüğe
▁yüzemiyor
▁zamanları
▁çocuğunun
▁şaşmamalı
▁şaşırtmak
▁şikayette
▁şirketini
▁Bacaklarım
▁Disneyland
▁Fırtınadan
▁Yakınlarda
▁alışverişi
▁anlamasını
▁araştırmak
▁ağlıyorsun
▁boyamasına
▁bıraktığım
▁denemekten
▁dinleyecek
▁farketmedi
▁fikirdeyiz
▁fırtınadan
▁geçirdiniz
▁giremezsin
▁hediyesini
▁hikayesine
▁hizmetleri
▁hoşlanmaya
▁istifasını
▁kalacağına
▁kaldırımda
▁kaynakları
▁kullanmadı
▁matematiği
▁meraklıdır
▁meraklıyım
▁mevsiminde
▁muhasebeci
▁olduğumuza
▁olmaktansa
▁oynamasına
▁programını
▁satıyorlar
▁sokaklarda
▁tanıştılar
▁umduğumdan
▁uyuyabilir
▁verdiğinde
▁yazmalısın
▁yazıyorsun
▁yeterlidir
▁yuvarlandı
▁Çocuklarla
▁ödüllendir
▁İngilizcen
▁İstasyonda
▁Diğerlerini
▁Ebeveynleri
▁Gardiyanlar
▁Profesyonel
▁alacaksınız
▁arkadaşıyım
▁başlamasını
▁bekliyordun
▁bilmiyordun
▁biriktirmek
▁bıraktığımı
▁davranışına
▁duymaktadır
▁ettireceğim
▁evleneceğim
▁gizleyemedi
▁gönderdiğim
▁hatırlamadı
▁ilgilenirim
▁izleyebilir
▁kardeşimden
▁kardeşlerin
▁konuşmamıza
▁korkmuyordu
▁koruyacağım
▁olmamalıyım
▁planladığım
▁rahatlatıcı
▁sevdiğimden
▁toplantımız
▁unutmayalım
▁unutuyordum
▁yakaladılar
▁yakalayacak
▁yürüyemiyor
▁çocukluğumu
▁anlayacaksın
▁açıklamasını
▁başlayabilir
▁beklediğimiz
▁beklentileri
▁değiştirmedi
▁dinlemelisin
▁durduracağım
▁düşünmeliyiz
▁geçeceğinden
▁hoşlanmazlar
▁saklandığını
▁söylemediğin
▁söyleyeceğiz
▁vardığımızda
▁yabancılarla
▁yaptıracağım
▁yapıyorlardı
▁yüzemediğini
▁çağrıldığını
▁öldüreceğini
▁Endişelenecek
▁algınlığından
▁durdurmayacak
▁gözyaşlarıyla
▁gülümsemesini
▁hoşlanmayacak
▁kaçınılmazdır
▁söylememesini
▁öğrencilerine
▁başarısızlıkla
▁karşılaştığımı
▁gelmeyeceğinden
▁planladıklarını
10
Am
Ama
Tat
abe
ake
bya
ife
ise
ito
kav
kot
opu
oun
rad
rın
sif
vde
yav
Çok
▁Go
▁je
▁ob
▁Şe
Saat
anas
azer
batı
cağa
dimi
itme
leni
lına
oman
pido
rini
skob
taya
tral
tını
ukla
ushu
ârda
ğram
▁Ark
▁Göç
▁Has
▁Kot
▁Lav
▁Lee
▁Pir
▁Reç
▁Sus
▁Vir
▁Zih
▁dub
▁kak
▁mig
▁nit
▁pom
▁sul
▁taç
▁Çit
▁çın
▁öyk
▁İle
▁şov
andal
arsın
banın
cinde
deyim
giniz
jderh
lenen
linge
obias
selen
ustin
vasız
üydüm
ğimin
ğınız
▁Bank
▁Gene
▁Hans
▁Prog
▁Sada
▁Sato
▁Vakt
▁arda
▁avuç
▁aşka
▁bütç
▁emri
▁faiz
▁krem
▁sopa
▁tart
▁trav
▁vara
▁zihn
▁Çiti
▁öpen
▁İnek
▁İzle
▁ışıl
▁Şişe
▁şube
abanın
antist
diveni
ladığı
lifiye
oğumuz
takalı
▁Borsa
▁Diyet
▁Dolma
▁Fazıl
▁Fırın
▁Galak
▁Kovul
▁Lehçe
▁Liste
▁Marco
▁Olmak
▁Paran
▁Peşin
▁Saati
▁Sahil
▁Seyir
▁Tıbbi
▁Yanıt
▁ampul
▁atadı
▁ağlat
▁bütçe
▁dansı
▁dedek
▁enayi
▁enkaz
▁esrar
▁etken
▁forma
▁geçim
▁greve
▁görüp
▁huylu
▁indim
▁işlev
▁karnı
▁katal
▁kibir
▁kurde
▁kütük
▁mayıs
▁miyav
▁motel
▁nakli
▁nezle
▁oynat
▁saklı
▁savur
▁sence
▁sergi
▁sisli
▁somun
▁suçun
▁tavır
▁yakma
▁yanak
▁yunus
▁çokça
▁önlen
▁örttü
▁şubat
ladınız
lanalım
layamaz
luğunun
madığın
stagram
teceğim
tılması
ulmuştu
▁Adalet
▁Ayakta
▁Barack
▁Birlik
▁Elektr
▁Farsça
▁Filler
▁Gitmem
▁Görmek
▁Hüküme
▁Kanser
▁Koltuğ
▁Komşum
▁Kusura
▁Kuyruk
▁Merkez
▁Mesajı
▁Olumlu
▁Oğlumu
▁Rehine
▁Ruslar
▁Silahı
▁Sonuna
▁Soygun
▁Tobias
▁Unutma
▁Viyana
▁Yürüye
▁ablası
▁ahlaki
▁aileye
▁alarmı
▁allerj
▁almada
▁ateşle
▁açılış
▁beraat
▁beynin
▁boksör
▁bulmuş
▁bürosu
▁bıkkın
▁cazibe
▁dişini
▁donmuş
▁doğdun
▁egemen
▁eleman
▁elması
▁farkla
▁gelişi
▁gevşek
▁grafik
▁gümrük
▁hanımı
▁havlar
▁inancı
▁iniyor
▁izleyi
▁içemem
▁işadam
▁işitme
▁işleme
▁kuaför
▁kurudu
▁köşeye
▁okuduk
▁oğluma
▁profil
▁sokmak
▁soruma
▁taktir
▁taradı
▁taştan
▁tetiği
▁uzayda
▁uğruna
▁yargıç
▁yatağı
▁yaşlan
▁yediye
▁zevkle
▁zilini
▁zorlan
▁çalışa
▁çatlak
▁çatısı
▁çıkışı
▁örüyor
▁üçünüz
▁İğrenç
▁şarkın
▁şişesi
ağındaki
dığımıza
enebilir
ilerinin
teşekkür
▁Aşağıya
▁Beraber
▁Gidiyor
▁Gitmeyi
▁Görüşme
▁Güvende
▁Janeiro
▁Kahkaha
▁Müşteri
▁Ofisime
▁Pastayı
▁Ramazan
▁Romanya
▁Sibirya
▁Yangını
▁Yaşamın
▁adresim
▁almamın
▁anaokul
▁annenin
▁arkadan
▁açamadı
▁aşçısın
▁belgesi
▁bilirdi
▁bilmeli
▁bilmeyi
▁boyuyor
▁bozulur
▁boşanır
▁bunlara
▁büyüyen
▁donarak
▁durması
▁duyuldu
▁dönmeni
▁etekler
▁gözleme
▁günüydü
▁hesabım
▁ihtisas
▁ispiyon
▁isteyin
▁işimden
▁işletme
▁kalktın
▁kameram
▁kargaşa
▁kavgayı
▁kereden
▁kokteyl
▁kolyeyi
▁kopardı
▁koymaya
▁köprüyü
▁kötüsün
▁olaylar
▁olmamın
▁oynarız
▁palyaço
▁paradır
▁parladı
▁saygısı
▁saçının
▁sonuçta
▁suluyor
▁sürmene
▁süveter
▁takmaya
▁takmayı
▁tereyağ
▁türleri
▁uğratma
▁verirdi
▁yatarım
▁yediğin
▁yeğenim
▁yolları
▁yönelik
▁çalarak
▁çalınan
▁çağırın
▁çerçeve
▁çevreyi
▁çocukça
▁çözüldü
▁ödemesi
▁öğrenen
▁üretmek
▁Şapkanı
▁şapkamı
▁şaşırır
▁şeyiniz
▁şımarık
ilerinden
landırmak
ılmalıdır
▁Columbus
▁Doktorum
▁Gazeteye
▁Gözlerin
▁Köprünün
▁Mantıklı
▁Mümkünse
▁Oğlanlar
▁Perşembe
▁Uçağımız
▁akademik
▁aptallar
▁aylardır
▁açılacak
▁bakmayın
▁başlamaz
▁bedelini
▁berbattı
▁buluşmam
▁dinlemem
▁diğerine
▁doktorum
▁dolabını
▁durdurul
▁duyduğun
▁dönmüştü
▁dürüstçe
▁edilmeyi
▁eleştiri
▁emirlere
▁engeller
▁erdemdir
▁evlenmiş
▁evrensel
▁fırından
▁geniştir
▁gerginim
▁geçmişti
▁giderdik
▁gömleğin
▁götürmem
▁halkının
▁harfleri
▁hazırdım
▁hedefine
▁ikizleri
▁itaatkar
▁kalbimde
▁kalitesi
▁kamyonun
▁kazanmaz
▁kazasına
▁kaçtılar
▁kentidir
▁kesilmiş
▁komedyen
▁konudaki
▁konuları
▁kuruladı
▁kıvırcık
▁masadaki
▁mikrodal
▁mütevazi
▁naziksin
▁okyanusa
▁olasıdır
▁oynamadı
▁projenin
▁randevun
▁sağanağa
▁seçilmiş
▁söylenen
▁tahtadan
▁tuvaleti
▁uğrattım
▁yapamaya
▁yaratmak
▁yardımda
▁yazdığın
▁yaştayız
▁yiyordum
▁çaldırdı
▁çoğunluk
▁ülkelere
▁üzeredir
▁Ayaklarım
▁Birisinin
▁Francisco
▁Jefferson
▁Kendisine
▁Konuşacak
▁Köpekleri
▁Yardımıma
▁aldatmaca
▁aykırıdır
▁başkasına
▁beklemeli
▁beklemeni
▁beslemeyi
▁besleyici
▁beyzbolda
▁bineceğim
▁bitkileri
▁büyütüldü
▁deneyimim
▁düşürüldü
▁edilmeden
▁elbisenin
▁fantastik
▁felaketti
▁fonksiyon
▁gelemiyor
▁gerçekler
▁gerçeklik
▁getirecek
▁görülmedi
▁götürmeyi
▁haklıydım
▁hastalığa
▁havalandı
▁hediyelik
▁istemezdi
▁isteyemem
▁kahramanı
▁kalıyordu
▁karışıktı
▁kaçırmadı
▁kitaplara
▁kitapçıda
▁konserine
▁konuşmana
▁kovulacak
▁mutluyduk
▁olmadıkça
▁parçaladı
▁planlamak
▁satılıyor
▁saçmalığa
▁servetini
▁siyasetle
▁sorumlusu
▁sorununun
▁sürprizdi
▁sürücüdür
▁sürüyorum
▁tanıştığı
▁taraftarı
▁taşıyacak
▁tecrübeli
▁turistler
▁tuttuğunu
▁tökezledi
▁umuyorsun
▁uğraşıyor
▁vericidir
▁yağmasına
▁yüzücüdür
▁yüzüyordu
▁yıkıyorum
▁zamanınız
▁çalmaktan
▁çalışmalı
▁çekiciydi
▁çiftçiler
▁çocukluğu
▁çıkarmayı
▁öldürürüm
▁önerdiğin
▁özleyecek
▁öğretirim
▁öğretmeye
▁öğretmeyi
▁İrlandalı
▁şaşıracak
mediklerini
▁Biliyorsun
▁Kasabadaki
▁Tartışacak
▁Yurtdışına
▁altındaydı
▁anahtardır
▁anlaşmamız
▁anlaşılmaz
▁aramalıyız
▁ayakkabısı
▁ağrısından
▁bakıyorlar
▁basketbolu
▁beklemedim
▁beğenmiyor
▁cumhuriyet
▁deneyimsiz
▁depresyona
▁durumdaydı
▁düşündüler
▁etmelerini
▁ezberlemek
▁geçinmiyor
▁gözleriyle
▁harcıyorum
▁hatırladın
▁hoşlanırdı
▁ilgilendim
▁istatistik
▁istemezsin
▁izliyordum
▁içeriyordu
▁işbirlikçi
▁kardeşleri
▁konuştunuz
▁kurbanıydı
▁malzemeler
▁olmalarına
▁psikolojik
▁sanatçıdır
▁taşındılar
▁ulaşabilir
▁uğramasını
▁veriyorlar
▁yanıtlamak
▁yapabildin
▁yaptığınız
▁yürüyüşten
▁zorlanıyor
▁çalışmayın
▁öldürdüler
▁öğrencisin
▁ürünlerini
▁şüphelendi
▁Anahtarları
▁Avrupalılar
▁Kompozisyon
▁birlikteyim
▁devamsızlık
▁dikkatliydi
▁dinlediğini
▁düşüneceğim
▁endişelidir
▁ettiklerini
▁geçiriyoruz
▁güveniyoruz
▁hakkındaydı
▁hissettiğim
▁ilgilenmedi
▁incitmesine
▁istediğinde
▁izlemiyorum
▁içmemelisin
▁kanıtlamaya
▁korkacağını
▁kullanmıyor
▁kullanırlar
▁prezervatif
▁sıkışıklığı
▁sınıflandır
▁tartışmamız
▁uyandığında
▁vermeliydim
▁yakalanmadı
▁yapmalıydın
▁yiyebilirim
▁çalışanları
▁çalıştıktan
▁çağıracağım
▁öğretmenine
▁bağımlısıdır
▁bitirdiğinde
▁büyüklüğünde
▁bırakacağını
▁değiştirildi
▁diyebilirsin
▁filmlerinden
▁incitmeyecek
▁kaçınılmazdı
▁konuşuyordun
▁kullandığını
▁organizasyon
▁planladığına
▁rezervasyonu
▁saklanıyordu
▁seslendiğini
▁söyleyinceye
▁yeteneklidir
▁zamanlarında
▁ziyaretçiler
▁zorlanıyorum
▁öğretmeniyim
▁alamayacağını
▁arkadaşlarıma
▁başarısızlığı
▁beklemiyorsun
▁bekliyorlardı
▁bilinmektedir
▁değiştirmemiz
▁dikkatsizliği
▁durdurmalıyız
▁dönmeyeceğini
▁güvenilebilir
▁ihtiyaçlarını
▁olabiliyorsun
▁olamayacağını
▁sınıfımızdaki
▁tartışıyorlar
▁vazgeçmeyecek
▁yapabildiğini
▁yiyeceklerden
▁Çocukluğumdan
▁arkadaşlarımın
▁büyükbabasının
▁konuşuyorsunuz
▁planladığından
▁söyleyebiliriz
▁endişelendirmek
TM
VD
vo
boş
fek
gor
gue
haf
rif
sko
win
çil
ığı
▁fu
▁km
▁pe
Fran
ahoş
arlı
azan
aşüt
berg
brek
cıya
deği
erry
gawa
gına
ihte
ikar
mail
onim
onto
oğlu
rene
sadı
sası
seph
slak
tmek
tura
tüel
yali
yans
ümin
▁Açı
▁DVD
▁Gev
▁Kle
▁Nat
▁Nic
▁Ped
▁Rab
▁Sop
▁Sue
▁Tic
▁Tük
▁bör
▁emz
▁nam
▁org
▁ova
▁pez
▁tüt
▁yam
▁Çam
▁Şaf
ayama
biler
dasın
dular
dıran
ersen
feran
hoven
imşek
iriel
kabaz
letir
mamda
manlı
onald
sedür
setti
sıyor
tanik
▁Alan
▁Başv
▁Boyn
▁Dili
▁Grip
▁Kalp
▁Kaya
▁Kele
▁Rami
▁Resm
▁Star
▁abla
▁ajan
▁açıp
▁best
▁gire
▁hadi
▁harç
▁hibe
▁jazz
▁kalı
▁korn
▁kurş
▁mast
▁port
▁puro
▁sosu
▁vadi
▁zeka
▁Ölen
▁Üşüt
▁öpül
▁örgü
▁Şamp
▁Şili
▁şort
daydık
dırmak
emdeki
kandin
kuşağı
lenmek
liliğe
müştür
perver
ucunun
çekimi
▁2003'
▁Ateşe
▁Dolab
▁Dolap
▁Düşük
▁Gelir
▁Gider
▁Hasar
▁Malze
▁Roger
▁Sığır
▁Talep
▁Tutuk
▁Zafer
▁acısı
▁atına
▁açmaz
▁açısı
▁balay
▁basar
▁batıl
▁biziz
▁büyür
▁damar
▁dayak
▁demem
▁demiş
▁dozda
▁eklem
▁eridi
▁girip
▁göbek
▁hakem
▁halam
▁hamur
▁ikizi
▁inkâr
▁işyer
▁kanla
▁kaçar
▁kaçık
▁kente
▁kuyum
▁kısır
▁metot
▁nahoş
▁pinti
▁saçın
▁sigar
▁sivri
▁sokma
▁sudur
▁sözde
▁taşra
▁tutum
▁yıktı
▁yılki
▁zanne
▁Çelik
▁çoban
▁ışığa
abilmek
başkanı
ilerden
ilmemiş
lektüel
madıkça
minenin
müyoruz
stığına
▁Ankara
▁Barmen
▁Baştan
▁Cennet
▁Edison
▁Fatura
▁Güller
▁Joseph
▁Kazaya
▁Keskin
▁Kyushu
▁Madrid
▁Mandar
▁Merkür
▁Meteor
▁Tahran
▁Toyota
▁Umudum
▁Umursa
▁Uyumak
▁Yazmak
▁Yemeği
▁altını
▁alırdı
▁anlaşa
▁barbar
▁batıya
▁bedeli
▁beşten
▁binden
▁demeye
▁denizi
▁dibine
▁dilden
▁erişim
▁ertele
▁ezmesi
▁fırına
▁galibi
▁gelsen
▁gülmez
▁hayati
▁kafamı
▁kalesi
▁karımı
▁kelebe
▁koluna
▁kuzeye
▁mağlup
▁mezunu
▁modeli
▁morluk
▁orduda
▁ortada
▁oyundu
▁paydos
▁psişik
▁renkte
▁ruhsal
▁sattın
▁sildim
▁sürdük
▁talebi
▁tepede
▁tüccar
▁uyanır
▁uydusu
▁uzunum
▁yaladı
▁yapsak
▁yendim
▁yokmuş
▁Çirkin
▁çekmiş
▁çikola
▁çıkman
▁öderim
▁İletiş
▁ısınma
▁Şurada
leştirdi
mezsiniz
tacağını
tığından
▁Anlaşma
▁Benimki
▁Beşinci
▁Buranın
▁Dersten
▁Etkilen
▁Gelenek
▁Geçmişi
▁Kurtlar
▁Maliyet
▁Rekabet
▁Sigorta
▁Sorular
▁Yakalan
▁Yapmayı
▁Yağmura
▁Yağışlı
▁ailemin
▁amacını
▁amcamın
▁anladık
▁armağan
▁artırdı
▁azalttı
▁ağzında
▁banyosu
▁basarak
▁başkent
▁bilardo
▁bilmece
▁binerim
▁boyadın
▁boynuna
▁bölgeye
▁büyümüş
▁bırakıp
▁canının
▁cennete
▁coşkulu
▁dediler
▁dengeli
▁dersine
▁dibinde
▁diyoruz
▁dolarla
▁eskidir
▁fıkrayı
▁garipti
▁görüşün
▁gücümüz
▁gücünün
▁gününün
▁güvendi
▁gıdalar
▁havladı
▁havuzun
▁ilişkin
▁isteriz
▁kamyona
▁kapılar
▁kararın
▁katılma
▁kayakçı
▁kayanın
▁kenttir
▁kesmeye
▁kestane
▁kutladı
▁listeyi
▁müzikal
▁okuduğu
▁olmaman
▁ortamda
▁renkler
▁riskini
▁sokağın
▁soruydu
▁soygunu
▁suikast
▁sınavım
▁tahtası
▁tamirci
▁traktör
▁tırmana
▁tırnağa
▁uyuması
▁uzattım
▁vakitte
▁varlığı
▁vasiyet
▁vermede
▁vitamin
▁vuruyor
▁yakıldı
▁yaygara
▁yazılan
▁yetişir
▁Çantanı
▁çalamaz
▁çatışma
▁çömeldi
▁çıkarıp
▁örneğin
▁ücretli
▁şakaydı
▁şiddete
▁Arabamda
▁Aslanlar
▁Bilimsel
▁Demokrat
▁Haftanın
▁Hepinizi
▁Konuştuğ
▁Mağazada
▁Merhamet
▁Pakistan
▁Partinin
▁Yaratıcı
▁Yağmurda
▁alabildi
▁aptaldım
▁araçları
▁başarmak
▁başlarım
▁başlasın
▁besledim
▁davetiye
▁dediğine
▁denemedi
▁denemeyi
▁devrildi
▁disiplin
▁diğerini
▁düşüncen
▁endüstri
▁etmememi
▁etmezler
▁etseydin
▁evdeydim
▁evimizde
▁eğitimin
▁fikirden
▁finansal
▁gidersem
▁görülmek
▁görüştüm
▁haritaya
▁haritayı
▁homurdan
▁hoşlanan
▁ikiyüzlü
▁imkânsız
▁kalmamak
▁kalmamış
▁kameraya
▁kapağını
▁kağıttan
▁mutsuzum
▁müttefik
▁nehirden
▁okyanusu
▁oynamada
▁reddedil
▁sadıktır
▁sandığın
▁saplantı
▁seçimler
▁sorarsan
▁sormadın
▁söyleriz
▁sıkıştım
▁sırrımız
▁temizdir
▁titriyor
▁utanıyor
▁uyanırım
▁uçuyordu
▁vermenin
▁yaparsak
▁yatağına
▁yatmadım
▁yaştadır
▁yıkamayı
▁çenesini
▁çıkmanın
▁öncesine
▁örnektir
▁özgürsün
▁ürkütücü
▁ürünüdür
abileceğin
biliyorsun
liğindedir
memektedir
▁Almancada
▁Beethoven
▁Dişlerimi
▁Dişlerini
▁Performan
▁Turistler
▁anlatmayı
▁anlatıyor
▁beklemedi
▁beğenecek
▁borçludur
▁bulabilip
▁buzdolabı
▁davranmak
▁defterini
▁dikkatimi
▁dokunmadı
▁elektriği
▁elmasları
▁ezberledi
▁fırsattan
▁fırtınalı
▁gelmemizi
▁geçinmeye
▁geçiyordu
▁gösterdin
▁hatalıyım
▁havlamaya
▁hissettin
▁hoşlandın
▁inanırlar
▁indirimli
▁içindedir
▁kalanında
▁kandırdın
▁kapanıyor
▁kolyesini
▁kulübünde
▁kuracağım
▁kuyruğunu
▁mektubuna
▁mezarlığa
▁noktasına
▁olimpiyat
▁organizma
▁partilere
▁pişirecek
▁problemle
▁rehberlik
▁ressamdır
▁salyangoz
▁savunuyor
▁sayfasını
▁sistemini
▁sonucudur
▁sonuçlara
▁sorununuz
▁söyleneni
▁sınıfının
▁tırmandık
▁ummuyordu
▁uyuyorsun
▁yarışmaya
▁yudumladı
▁yumurtayı
▁yürüyelim
▁yüzdüğünü
▁çalmasını
▁çekmesini
▁çorapları
▁önemliydi
▁öpeceğini
▁üşüdüğünü
▁İşbirliği
▁ısırıldım
▁şarkısını
lanmaktadır
▁Fransızlar
▁Gözyaşları
▁Kahverengi
▁adresinizi
▁aralarında
▁açamıyorum
▁bakıyordum
▁başkanıdır
▁bilemezsin
▁biriktirdi
▁diğerinden
▁durdurmadı
▁duyuyorsun
▁dönmelisin
▁düzenliyor
▁etmiyordum
▁eğlenmiyor
▁geçeceğini
▁hapsedildi
▁harcayacak
▁havalandır
▁hissederim
▁iyileşmedi
▁içmediğini
▁kalacaklar
▁kalmalıyız
▁karşılandı
▁karşıyayız
▁katlanamaz
▁kelimesine
▁konuşmazdı
▁koyacağımı
▁kuşkuluyum
▁malzemeden
▁meditasyon
▁muhteşemdi
▁nişanlandı
▁oluşturmak
▁saatliğine
▁sevmeyecek
▁sorumlusun
▁söylendiği
▁söylenmeli
▁takmıyordu
▁tehlikenin
▁tekrarladı
▁tereddütlü
▁tutacağını
▁tutmalıyız
▁uyumuyorum
▁yaparsanız
▁yardımınız
▁yargılandı
▁yaşamasını
▁yaşlarının
▁Çikolatalı
▁çalışmakla
▁çarptığını
▁çiçeklerle
▁öldüresiye
▁üstündedir
▁şaşırtıyor
▁şekillerde
▁şüphelerim
abileceğimiz
▁arkadaşınla
▁artmaktadır
▁bağırıyordu
▁boğulmaktan
▁bulunuyorum
▁buradasınız
▁buzdolabını
▁dayanamadım
▁edeceğimizi
▁eldivenleri
▁eğleneceğiz
▁güveniyordu
▁korumalıyız
▁kovulduğunu
▁pişirebilir
▁planlarınız
▁romanlarını
▁selamlarımı
▁silahlarını
▁söylememesi
▁tartışırlar
▁telefonunun
▁uyandırmaya
▁yapmalarına
▁yaşayabilir
▁yıkayacağım
▁zehirlemeye
▁ödeyeceksin
▁Birbirimizle
▁ayrılmayacak
▁başarısından
▁başvurusunda
▁bilmeyeceğiz
▁bırakmalıyız
▁endişelendim
▁gerekeceğini
▁gideceğinden
▁gitmemelisin
▁kalacağımızı
▁kaybolduğunu
▁klostrofobik
▁konuşacağımı
▁mücevherleri
▁planlarımızı
▁tartışmaları
▁ulaşamıyorum
▁uyuyamıyorum
▁yapabilirler
▁yapmamalıydı
▁yiyemediğini
▁üniversiteyi
▁Arkadaşlarını
▁Bilgisayarını
▁bekleyemezsin
▁boşanırcasına
▁değiştirdiler
▁dinlenmelisin
▁hissetmiyordu
▁katılmıyorsun
▁olduklarından
▁sinirlendirdi
▁söyleyeceğine
▁unutmayacağız
▁çalışabilirim
▁çalışmalarına
▁çalışmalıydım
▁Arkadaşlarımla
▁Ayakkabılarını
▁bilgisayarında
▁bilgisayarının
▁bırakmayacağım
▁ebeveynlerimin
▁gidebileceğini
▁gösterebilirim
▁kardeşlerinden
▁söylediklerimi
▁ısmarlayacağım
nü
yn
.30
Kar
adı
bot
boz
bri
fin
itr
nav
ode
ont
rag
umi
way
ydu
zan
üpe
▁''
▁BM
▁Ee
▁Fi
▁MP
▁Ty
▁Un
▁uş
bara
bekü
dalı
geli
guay
izmi
tiğe
çili
ürüm
▁ATM
▁Air
▁Aki
▁Hel
▁Hom
▁Jen
▁Neş
▁Slo
▁Tas
▁Teş
▁Tha
▁Tip
▁Tra
▁Vic
▁ava
▁bow
▁ego
▁eks
▁jür
▁kıç
▁piç
▁set
▁vah
▁yığ
▁zaf
▁âşı
eğine
ganda
ilson
kavuk
latan
layış
mekle
ormon
stocu
tüstü
yetik
çimiz
çiyim
▁Ahır
▁Anna
▁Aşçı
▁Bask
▁Beat
▁Bell
▁Dani
▁Kelt
▁Koku
▁Kuyu
▁Kıyı
▁Maya
▁Odak
▁Sade
▁Sara
▁Suçu
▁Tara
▁Time
▁Uran
▁Zeki
▁akan
▁alım
▁arız
▁atım
▁aşin
▁duru
▁ekin
▁eşim
▁jüri
▁keşf
▁kodu
▁krak
▁krep
▁köyü
▁paha
▁sent
▁taht
▁turş
▁vaat
▁çapr
▁örtü
Sadece
bildin
daydın
işleri
mezsen
mışsın
sastır
tınızı
unaydı
urları
üğüdür
ğımızı
▁Antik
▁Apple
▁Atina
▁Beyin
▁Dakik
▁Dudak
▁Eyfel
▁Gidiş
▁Kayin
▁Maden
▁Nazik
▁Nişan
▁Robin
▁Sergi
▁Steve
▁Terfi
▁Vücut
▁Yenil
▁Yeğen
▁Yoshi
▁Zehir
▁aralı
▁atını
▁açsın
▁badem
▁bahis
▁basma
▁bayım
▁bekçi
▁ceviz
▁cılız
▁değir
▁dikiz
▁dirse
▁etini
▁etsek
▁falan
▁günkü
▁iltih
▁izole
▁kafat
▁kanlı
▁kasap
▁kattı
▁kursu
▁kısar
▁malik
▁molek
▁mühür
▁müydü
▁nabzı
▁olaya
▁reçet
▁ruhun
▁sapık
▁sarar
▁sevil
▁solda
▁soyut
▁taleb
▁tersi
▁tuğla
▁tütün
▁ucube
▁uyara
▁uzadı
▁votka
▁yelek
▁yüküm
▁zihni
▁Çizgi
▁çözün
▁üçünü
▁İşine
▁Şiiri
▁şınav
Tatoeba
aperest
ladığın
lemenin
lerdeki
lilerin
sundaki
tenkele
yalıyım
▁Acelen
▁Aferin
▁Arthur
▁Aynada
▁Cerrah
▁Haksız
▁Hamile
▁Hitler
▁Kabile
▁Kahven
▁Kenara
▁Kentin
▁Lobide
▁Mucize
▁Numara
▁Ofisim
▁Plajda
▁Senato
▁Sohbet
▁Tedavi
▁Tehdit
▁Teknik
▁Volkan
▁acıdır
▁adrese
▁alınır
▁amacın
▁astero
▁açalım
▁ağrıyı
▁bayanı
▁baykuş
▁camdan
▁cevizi
▁dalmış
▁girişi
▁görece
▁gözümü
▁hatıra
▁hürmet
▁ibaret
▁iterek
▁içindi
▁içkiye
▁işçisi
▁kapıcı
▁kasaya
▁kaşığı
▁kimler
▁kombin
▁limana
▁margar
▁memeli
▁molaya
▁okurdu
▁oturum
▁paniğe
▁sandık
▁sorgul
▁sunmak
▁sözüne
▁süreli
▁sıkmak
▁tarzın
▁tedbir
▁tekila
▁tercüm
▁tüyler
▁uymadı
▁vampir
▁yeteri
▁yorumu
▁yönünü
▁yüzümü
▁yığını
▁Çığlık
▁Üzülme
▁çatıya
▁çektik
▁önerim
▁özenle
▁İşaret
▁Şişede
▁şakayı
▁şikaye
Nasılsın
diğinize
emizdeki
kandinav
kurtaran
lıkların
unuzdaki
▁Ailenle
▁Birçoğu
▁Böylece
▁Cümleyi
▁Futbolu
▁Haftaya
▁Hiçbiri
▁Kahvemi
▁Karımın
▁Listede
▁Nezaket
▁Okumayı
▁Oynamak
▁Popüler
▁Silahlı
▁Söyleye
▁Tutuklu
▁Yapmaya
▁Yavaşça
▁Yazarın
▁Yüzünde
▁affeder
▁almanın
▁arabulu
▁ateşini
▁ayrılan
▁azınlık
▁batarya
▁batıyor
▁bayanın
▁beyazdı
▁bileyim
▁binmeye
▁borcunu
▁botları
▁boyutta
▁buluruz
▁bıraksa
▁cümleye
▁delilik
▁dolunay
▁doğurur
▁duracak
▁duyulur
▁düşmeye
▁erişimi
▁etiketi
▁etmemek
▁finanse
▁geçelim
▁girmeyi
▁giyinir
▁giymedi
▁gözünde
▁göğsüne
▁havluyu
▁hayrete
▁ikizler
▁iştahım
▁kalkmam
▁kılavuz
▁makinem
▁mektuba
▁mineral
▁musluğu
▁olmasan
▁proğram
▁sayıdır
▁sevgiye
▁sıçradı
▁takımız
▁tarihte
▁tatilin
▁teknede
▁testere
▁testini
▁tutalım
▁vahşice
▁varmadı
▁vermeme
▁yatmadı
▁yaşamaz
▁yenilen
▁yolladı
▁yönetir
▁zayıftı
▁ziyafet
▁çıkamaz
▁İstiyor
▁Şapkamı
▁Şeyleri
abildiğim
dığınızda
eceğinizi
emezsiniz
liklerine
liklerini
▁Başkanın
▁Bildiğin
▁Birazcık
▁Cehennem
▁Dürüstçe
▁Dışarıya
▁Gazetede
▁Gömleğin
▁Kasabada
▁Kiliseye
▁Kitabımı
▁Komşular
▁Komşunun
▁Masadaki
▁Orijinal
▁Sekreter
▁Sokaklar
▁Uyuyakal
▁Yağmurlu
▁aktiftir
▁alfabesi
▁anasıdır
▁anlaması
▁aydınlık
▁ayırtmak
▁ağlamadı
▁babamdan
▁bahseden
▁bakarsan
▁balkonda
▁bağlandı
▁beslenme
▁biletler
▁bilinçli
▁bilirler
▁bilmeden
▁böcekler
▁bıkmıştı
▁bırakmaz
▁değişmiş
▁dinlemen
▁dolaştım
▁doğuşunu
▁durumdur
▁duydular
▁düşüktür
▁evinizde
▁fikrinin
▁gelmemin
▁gelmezse
▁gelseydi
▁gitmesen
▁grubunda
▁gönülsüz
▁görünüşü
▁haklıdır
▁hastalan
▁heceleye
▁hükümete
▁hızlısın
▁ihtimale
▁ikimizin
▁inanmamı
▁incinmiş
▁içmesine
▁kalanına
▁kaldırım
▁kalemler
▁kapattık
▁katılmam
▁kavşakta
▁kaynattı
▁kazaları
▁kocasına
▁komşumun
▁komşunun
▁koruması
▁koydular
▁kupasını
▁mahvoldu
▁olanıdır
▁otuzuncu
▁parampar
▁patlattı
▁saklanma
▁satarlar
▁sayıları
▁sonradan
▁strateji
▁sözlüğüm
▁sınavdan
▁talihsiz
▁tanımlar
▁tarihine
▁tedbirli
▁terapist
▁topladım
▁toplumun
▁tırmanma
▁uyguladı
▁yalandır
▁yanağını
▁yazılımı
▁yediğine
▁yelkenli
▁yerleşim
▁yetiştim
▁yıkamaya
▁çekirdek
▁çoraplar
▁ödeniyor
▁ölebilir
▁şakasına
▁şaraptan
▁şaşırtan
biliyordum
▁Anneannem
▁Arabistan
▁Bildiğimi
▁Bisiklete
▁Dinlenmek
▁Gerçekler
▁Gideceğim
▁Gözlüğümü
▁Hollywood
▁Hükümetin
▁Köpeğimin
▁affetmesi
▁akıllıyım
▁alacağına
▁anahtarın
▁arkamızda
▁askerleri
▁açıklayın
▁başvurusu
▁bitmesini
▁defasında
▁defterine
▁demeliyim
▁deneyeyim
▁dengesini
▁değiştire
▁doldurmak
▁durgunluk
▁düşünceye
▁düşünürdü
▁emredildi
▁etmelidir
▁fakirlere
▁farklıyız
▁fotoğrafa
▁gelmemesi
▁getirmedi
▁gezegenin
▁geçirildi
▁girmekten
▁gitmektir
▁gösteriyi
▁gözlüğümü
▁gürültüyü
▁haftasonu
▁hatalıdır
▁ilgiliyim
▁ilişkimiz
▁insanlığa
▁istediniz
▁istemeden
▁istiridye
▁kalamayız
▁kanatları
▁kaşınıyor
▁kelepçeli
▁kitabının
▁kişilerin
▁koyabilir
▁küçümsedi
▁liderleri
▁listedeki
▁lokantada
▁mahvettin
▁mektubuma
▁meşguldün
▁mutfaktan
▁normaldir
▁okuyorlar
▁oradaydın
▁ovuşturdu
▁parmağına
▁sanatıdır
▁savunmaya
▁seferinde
▁sormaktan
▁suçlamaya
▁sürdüğünü
▁takıntılı
▁tarafımda
▁tokatladı
▁umuyorduk
▁uyguluyor
▁uyuyorlar
▁varlığını
▁verdiğine
▁veremedim
▁yanılsama
▁yemeliyiz
▁yemeğinin
▁yiyeceğin
▁yıkayacak
▁zahmetine
▁Çiftçiler
▁çabalıyor
▁çekmeceye
▁çıkarmadı
▁ödemesini
▁ölüyordum
▁öğretecek
madıklarını
▁Arkadaşımı
▁Ellerinizi
▁Gerçekleri
▁Köpeklerin
▁Olağanüstü
▁Politikacı
▁alışıyorum
▁anladığına
▁bırakmadan
▁delicesine
▁düzeltmeye
▁düşmanları
▁ettiğimden
▁geçirirsin
▁giderseniz
▁götürdüler
▁güvendesin
▁hatırlarım
▁hiçbirinin
▁istemiştim
▁içecekleri
▁işaretleri
▁kapılarını
▁kilitliydi
▁koyacağını
▁kulübesini
▁kurtulalım
▁müziğinden
▁olmalıydın
▁onarabilir
▁oyuncuları
▁rahatlattı
▁salatasını
▁savaştılar
▁sisteminin
▁suçlayacak
▁söndürmeyi
▁söylemekle
▁sürdürüyor
▁tanımlamak
▁tavsiyeler
▁temizleyin
▁vatansever
▁vermeliydi
▁yabancıdır
▁yardımıyla
▁yazacağını
▁yiyecekten
▁çalıyorsun
▁çiçeklerin
▁çıkmayacak
▁çıktığımda
▁öldürmedim
meyeceğimizi
meyeceğinden
▁Beklenmedik
▁Beklentiler
▁Bisikletini
▁alıyorsunuz
▁anlamadığım
▁antibiyotik
▁arıyorsunuz
▁bisikletine
▁değiştirmem
▁duygularımı
▁duymadığını
▁düşünmemeye
▁endişelendi
▁etmelisiniz
▁geldiğimizi
▁gerekenleri
▁geçireceğiz
▁inanmıyordu
▁kalmadığını
▁kalmamasını
▁kardeşimdir
▁kazandığına
▁kitaplarımı
▁korkutmuyor
▁köpekbalığı
▁olduğunuzda
▁pişireceğim
▁yapabildiği
▁yapmalıydık
▁yaşayamayız
▁Çocuklarıma
▁çalışkandır
▁çevirdiğini
▁şehirlerden
▁beğeneceğini
▁birbirinizle
▁bulabilirsin
▁buzdolabında
▁bırakamazsın
▁dinlenmesini
▁elbiselerimi
▁etkilenmişti
▁geçireceksin
▁kastettiğini
▁kıskanıyordu
▁oynayacağını
▁oynuyorlardı
▁planladığımı
▁reddettiğini
▁tanıdığından
▁tanıştığımda
▁tartıştığını
▁telefonundan
▁temizleyerek
▁yakışıklıdır
▁çalınacağını
▁Sivrisinekler
▁Yapabileceğin
▁bulunmadığını
▁bırakmamasını
▁etkileyiciydi
▁istemeyeceğim
▁kardeşlerinin
▁kastediyorsun
▁konuşmasından
▁küçümsüyorsun
▁olmayabilirim
▁vazgeçmelisin
▁yağmayacağını
▁yeteneklerini
▁çocukluğundan
▁öğrencilerden
▁başlayabiliriz
▁istemediğimizi
▁kazanamadığını
▁kullanıldığını
▁planlamıyorsun
▁tutuklandığını
▁verebileceğini
▁öğrenebilirsin
▁öğrencilerinden
Aç
DS
ud
ıh
ach
aza
gat
kil
nad
nuv
oma
org
peş
pik
sch
uke
uki
çın
örf
ürb
▁02
▁3.
▁NA
▁Nö
cede
cimi
dara
doğr
dört
esem
guyu
hiro
ilim
juku
kodu
lini
mağı
mete
ramp
satı
span
tayı
taşı
vari
yuma
Öyle
üyük
▁Dam
▁Gan
▁Get
▁Gön
▁Hip
▁Köş
▁Mec
▁Mid
▁Moğ
▁Pok
▁Sün
▁Van
▁gur
▁ika
▁lek
▁lik
▁los
▁zem
▁zen
▁Öle
▁İpi
▁şen
adaki
alist
anası
ander
bilim
dinde
dının
hayır
içeği
memen
navut
prizi
stığa
tikte
tünüz
ukuka
undak
uyduk
Çünkü
üsten
üzyon
üşünü
ıştır
▁Amaç
▁Aziz
▁Aşık
▁Cana
▁Fena
▁Gölü
▁Hakk
▁Joan
▁Kavg
▁Kayn
▁Klav
▁Klin
▁Lafı
▁Linu
▁Oğul
▁Plüt
▁Soph
▁Sörf
▁Tadı
▁Toki
▁Tran
▁Yaşı
▁Zarf
▁arpa
▁asma
▁atık
▁atıp
▁ayet
▁ayıp
▁açan
▁boks
▁boğu
▁eman
▁esin
▁esti
▁fast
▁gang
▁göbe
▁içil
▁kabl
▁kaka
▁kemi
▁kont
▁mumu
▁nede
▁okut
▁sosy
▁spek
▁suça
▁tabl
▁tank
▁vaaz
▁vinç
▁vuru
▁yakı
▁Üret
böceği
edilen
latıcı
lüğüne
nastik
tistan
▁Akıcı
▁Alter
▁Bekar
▁Bilge
▁Bizde
▁Buluş
▁Daire
▁Engel
▁Evcil
▁Geniş
▁Giant
▁Green
▁Hafız
▁Hamam
▁Hobim
▁Hukuk
▁Kilit
▁Koyun
▁Lavab
▁Leton
▁Malez
▁Odana
▁Ofise
▁Parka
▁Pedro
▁Satış
▁Tablo
▁Takip
▁Tütün
▁Tıraş
▁Yolcu
▁alçal
▁antif
▁atışı
▁baraj
▁benzi
▁beyan
▁biran
▁biçer
▁borsa
▁cıvıl
▁diyen
▁dönen
▁dünkü
▁fener
▁fosil
▁ilaca
▁itici
▁kalış
▁konuğ
▁kramp
▁kısın
▁malol
▁odana
▁odağı
▁panel
▁sayım
▁sesin
▁solak
▁subay
▁sunum
▁sıçan
▁teşeb
▁tozla
▁uyanı
▁uçmaz
▁yulaf
▁yıkat
▁çizim
▁çizme
▁ölene
▁ölçtü
▁üzmek
▁İmkan
▁şerit
asyonel
cağınız
dyasyon
ikipedi
irsiniz
lemeyen
masıyla
olojiye
santrik
stivali
▁Acelem
▁Acıktı
▁Bebeğe
▁Cömert
▁Daniel
▁Defter
▁Denize
▁Dilini
▁Diller
▁Duvarı
▁Dünden
▁Elmayı
▁Fiyatı
▁Garajı
▁Gerisi
▁Hamlet
▁Heykel
▁Kirayı
▁Kocası
▁Kurtar
▁Mennad
▁Minnet
▁Nedeni
▁Nefret
▁Neptün
▁Oturun
▁Samimi
▁Seçene
▁Sözcük
▁Tarihi
▁Toprak
▁Trende
▁Uykuya
▁adımın
▁affedi
▁aileyi
▁anneni
▁arasan
▁açığız
▁aşikar
▁bakkal
▁bakımı
▁balkon
▁baylar
▁bozdur
▁buralı
▁burktu
▁buyrun
▁bıyığı
▁canına
▁centil
▁cezayı
▁civarı
▁deliği
▁direne
▁diyete
▁düşeni
▁eşyayı
▁finans
▁geceye
▁golfçü
▁görsel
▁harman
▁haydut
▁hedefe
▁hocası
▁inledi
▁işiniz
▁kahkah
▁kanalı
▁katını
▁kaykay
▁kaçtım
▁koymam
▁lekesi
▁onuncu
▁onurlu
▁parkın
▁pohpoh
▁raketi
▁rengin
▁reçete
▁rüyayı
▁sarsın
▁savunu
▁sporda
▁sporla
▁suladı
▁taşlar
▁telsiz
▁termin
▁tiryak
▁tuttur
▁uyuduk
▁vadede
▁yaktın
▁zararı
▁Çoktan
▁çakırk
▁çarpış
▁çıkart
▁üretti
▁ürünün
▁İyiyim
▁İçimde
▁İşimiz
▁İşiniz
▁şeysin
ikipedia
lemesine
lığımızı
tılmıştı
ulabilir
▁Arnavut
▁Bahçeyi
▁Binanın
▁Bulaşık
▁Bunlara
▁Evimizi
▁Kazanan
▁Klingon
▁Kutunun
▁Makarna
▁Muiriel
▁Noeller
▁Partime
▁Sözleri
▁Yatağın
▁Yazacak
▁Yönetim
▁aileyiz
▁alanına
▁anneler
▁anormal
▁ansızın
▁anıları
▁araziye
▁araçtır
▁barbekü
▁başımın
▁bebeğim
▁beladan
▁belirti
▁bombası
▁boyattı
▁bulurum
▁büyüttü
▁cüretle
▁cüzdanı
▁endüstr
▁erkekle
▁etkisiz
▁fantezi
▁fikirli
▁fincanı
▁fıstığı
▁gitgide
▁giymeye
▁gölette
▁hafızam
▁havalan
▁ikimizi
▁işkolik
▁işçidir
▁kapanık
▁kararım
▁karımız
▁kaçının
▁kesinti
▁kuyumcu
▁kızımız
▁mülteci
▁organik
▁otorite
▁oğlanın
▁paketim
▁paraşüt
▁patenle
▁penguen
▁satacak
▁sayılar
▁sağanak
▁sincabı
▁sorunlu
▁suçüstü
▁sürdüğü
▁tanırız
▁tanıtım
▁tavşanı
▁tebeşir
▁temizdi
▁trafiğe
▁trafiği
▁vedalaş
▁verirse
▁yakalar
▁yazmamı
▁yaşamım
▁yedinci
▁yenilgi
▁yerimde
▁yoludur
▁yolumuz
▁yönünde
▁yüzünün
▁yılının
▁Önemsiz
▁çalamam
▁çarptım
▁çarptır
▁çağında
▁çiçekçi
▁çocuksu
▁çoğunun
▁çıkarız
▁çılgına
▁ölürsün
▁önerini
▁öpmüyor
▁özledin
▁ışığına
▁Şirketi
▁şafakta
▁şakalar
memelisin
terlingua
▁Afrikalı
▁Antlaşma
▁Açıklama
▁Bahçıvan
▁Bağlantı
▁Başından
▁Birisini
▁Bulutlar
▁Dedikodu
▁Duvarlar
▁Düşmanın
▁Edebiyat
▁Gerçekte
▁Köylüler
▁Lezzetli
▁Mandarin
▁Mücadele
▁Otobüsün
▁Patlamış
▁Sabahtan
▁Shinjuku
▁Singapur
▁Sonuçtan
▁Sözleşme
▁Tasarruf
▁alabalık
▁alakasız
▁alnından
▁annemden
▁aramamız
▁aramıyor
▁ateşinin
▁atlamaya
▁basmayın
▁bağlamak
▁bağlayın
▁bilginin
▁bitmeden
▁boğazını
▁bulursan
▁bırakmam
▁bırakman
▁cevaptır
▁coğrafya
▁delirmiş
▁dilemedi
▁dolandır
▁doğruluk
▁durumuna
▁duyamadı
▁duyarlar
▁edemezdi
▁geldiğim
▁gezisini
▁geçemedi
▁gizliyor
▁görünümü
▁gülmemek
▁harcarım
▁hemfikir
▁hepimize
▁hikayeye
▁hissetme
▁ilaçları
▁incittin
▁intihara
▁kalkmadı
▁kapılmış
▁kasvetli
▁kavanozu
▁kayıtsız
▁kazanmam
▁kağıdını
▁kedisini
▁komşular
▁konuşsan
▁korkmadı
▁korkutur
▁kulübede
▁kızdıran
▁markette
▁mezarını
▁millerce
▁mıknatıs
▁nehirdir
▁ofisinin
▁okuyamam
▁okuyamaz
▁oluşuyor
▁otobüsün
▁piyasaya
▁psikolog
▁raporumu
▁sevdiler
▁silahlar
▁sorunsuz
▁söyletti
▁sıkıştır
▁takdirde
▁tansiyon
▁teklifim
▁tezgahta
▁tuttular
▁tükenmez
▁uyarıldı
▁uydurmak
▁uyuyorum
▁uçlarına
▁versiyon
▁vitamini
▁vurmadım
▁yazmakla
▁yazmıyor
▁yaşardım
▁yaşlıydı
▁yaştayım
▁yerleşti
▁yüzerken
▁yıldönüm
▁çektirdi
▁çözümler
▁çıkmıştı
▁üretilir
▁şemsiyem
▁şemsiyen
▁Akşamları
▁Bardaktan
▁Gazeteler
▁Kelimeler
▁Kızkardeş
▁Kızlardan
▁Maymunlar
▁Saldırgan
▁Satrançta
▁Teknoloji
▁Telefonun
▁Yaşayacak
▁Yoksulluk
▁adamlarla
▁aldığımız
▁alırsınız
▁anlaşması
▁anlaşılır
▁aralarını
▁atmosferi
▁açıklıyor
▁ağlıyorum
▁bahçedeki
▁bahçesini
▁bakıcılık
▁beğenirim
▁binmekten
▁boşunaydı
▁buluşuruz
▁bıçakları
▁dakikamız
▁dayalıdır
▁dayanamaz
▁demokrasi
▁denemedin
▁dokunuyor
▁dokuzuncu
▁durdurdum
▁durumumuz
▁edilmemiş
▁ekonomist
▁enflasyon
▁esprileri
▁ettikleri
▁geçeceğiz
▁geçiririm
▁gireceğim
▁görüşleri
▁gülüyordu
▁haksızlık
▁hastaları
▁hatırlama
▁havuçları
▁hayattaki
▁ihtiyatlı
▁imkansızı
▁internete
▁izlediler
▁işlerimiz
▁kafasında
▁karşılama
▁kayboldum
▁kollarına
▁koyunları
▁kurtardım
▁kurtuldum
▁kuşlardır
▁kızgındım
▁makaleler
▁mesafeden
▁mevsimini
▁meyveleri
▁meyvesini
▁mutfağını
▁notlarını
▁okuyordum
▁olanların
▁pantolonu
▁partideki
▁piyangoyu
▁randevuya
▁randevuyu
▁resimlere
▁sakladığı
▁sevdiğine
▁sevgisini
▁söylerdin
▁tamamıyla
▁tavsiyede
▁toplamaya
▁töreninde
▁verilmeli
▁vurguladı
▁yanıyordu
▁yatacağım
▁yazarıdır
▁yaşamanın
▁yemiyoruz
▁yorgunduk
▁yüzeyinin
▁yıpranmış
▁zirvesine
▁zorlaştır
▁Çalışmayı
▁çalışamaz
▁çevirmeye
▁öncelikle
▁ücretleri
▁üzereydik
▁ısıtıcıyı
▁şanssızdı
▁şüpheleri
▁şüpheliyi
abileceğine
▁Alternatif
▁Ermenistan
▁Eşyalarımı
▁Geldiğiniz
▁Hollandaca
▁Matematiği
▁Neredeydin
▁Yumurtalar
▁altındayım
▁anahtarımı
▁anladığımı
▁aradığımda
▁açıklamadı
▁ağlamasını
▁bahsettiği
▁bakacağını
▁balıkçılık
▁bağlantısı
▁bağışlayın
▁başkanının
▁becerileri
▁belirlemek
▁bileceğini
▁bitirmedik
▁bulacaklar
▁demokratik
▁derslerine
▁değiştirin
▁dinleyelim
▁dinleyerek
▁dokunmadım
▁durduramam
▁durduruldu
▁duyduğumuz
▁duyuyorlar
▁dürüstlüğü
▁düşüncesiz
▁düşündünüz
▁giriyorsun
▁giyiyorlar
▁görmüyoruz
▁göründüğün
▁gösterişli
▁günlerinde
▁hastalığın
▁hatırlatır
▁ihtimalini
▁inanabilir
▁insanlığın
▁işaretidir
▁kaldırmaya
▁korkuyoruz
▁kullanımda
▁kıskançtır
▁merkezidir
▁mücadeleye
▁olmayanlar
▁oturmaktan
▁oğullarına
▁paramparça
▁sallayarak
▁salonundan
▁susadığını
▁suçladılar
▁söylememin
▁sözcükleri
▁tanıyordun
▁tartışacak
▁tebessümle
▁tehlikeden
▁uzatabilir
▁yabancıyım
▁yararlandı
▁yağdığında
▁yağmayacak
▁yiyecektir
▁zorunluluk
▁Çalışırken
▁çarpıyordu
▁ödeyebilir
▁özlediğini
▁öğrenmekle
▁İskandinav
▁Şirketimiz
▁şaşırtmadı
▁şüpheliydi
▁Anlamadığım
▁Beklemekten
▁Sınıfımızda
▁anlaşılması
▁arasındadır
▁ayrılabilir
▁bilebilirim
▁bilmiyorsan
▁birlikteler
▁bitirinceye
▁bulamıyoruz
▁cümlelerini
▁davranmıyor
▁dayanıyordu
▁değiştiğini
▁düşüncesini
▁düşündüğüne
▁düşünemedim
▁dışarıdaydı
▁etmemeliyiz
▁etmeyeceğiz
▁farketmedim
▁gazetecilik
▁gelebilecek
▁gelmeyeceği
▁getiriyorum
▁geçirebilir
▁görünüyoruz
▁götürdüğünü
▁gülümsemeye
▁haftalardır
▁hatırlatmak
▁hikayesinin
▁horladığını
▁hırsızlıkla
▁karıştığını
▁karşılaştın
▁karşılığını
▁kullandılar
▁kullanmayın
▁kırıklığını
▁materyalist
▁milyarlarca
▁oynamıyorum
▁oyuncakları
▁sabırsızlan
▁söyleyeceği
▁sürmemesini
▁tekrarlamak
▁temizlerken
▁toplamaktır
▁valizlerini
▁yapmalarını
▁yarışmasına
▁yazabilirim
▁yaşayacağım
▁Çocuklarına
▁Çocuklarını
▁çalındığını
▁öldürüldüğü
▁önemsemiyor
▁öğretmekten
▁öğretmenime
▁öğrettiğini
▁İstasyondan
▁Havaalanında
▁Kütüphanenin
▁Televizyonun
▁adlandırılır
▁affetmeyecek
▁anladığından
▁başlamalıyız
▁beklemiyoruz
▁beğeniyorsun
▁bildiklerini
▁gittiğimizde
▁görmezlikten
▁götüreceğini
▁hediyelerini
▁hikayelerini
▁hoşlandığımı
▁imzalamasını
▁korkutucuydu
▁kırıklığıydı
▁pişireceğini
▁saklayacağım
▁söylediğiniz
▁söylemediğim
▁tanıştığımız
▁Çocuklarınız
▁önemsiyorsun
▁öğreneceksin
▁İtfaiyeciler
▁ısmarlayayım
meyebileceğini
▁Tanıştığımıza
▁ayakkabıların
▁cevaplayamadı
▁davranışından
▁dinlemiyorsun
▁havaalanından
▁iyileşeceğini
▁karşılamasını
▁korkutuyorsun
▁olgunlaşmamış
▁penceresinden
▁sevmeyeceğini
▁vereceklerini
▁yapabildiğine
▁yetiştirildim
▁yumurtalarını
▁çalıştığından
▁bulamayacağını
▁göstermektedir
▁güvenmemelisin
▁kalabileceğini
▁konuşabilirler
▁değiştiremezsin
▁düşündüğümüzden
▁karşılaştığında
▁konuşabildiğine
▁olabileceğimizi
▁sakinleştirmeye
Av
by
oi
ts
ahi
bağ
ble
com
dai
değ
fte
hew
iza
oke
pte
roe
tla
tme
örü
▁1'
▁1,
▁Fı
▁jö
▁Şa
Peki
alır
amin
amık
arka
atya
baba
ekte
epsi
erde
esih
este
eyfi
hard
izle
lanı
leşe
nedy
onca
opol
osun
oğum
pati
pres
semi
tira
vekk
örtü
üzde
▁Aka
▁Ani
▁Ağa
▁Bon
▁Bow
▁Gri
▁Hon
▁Omz
▁Ram
▁Ris
▁Rol
▁Shi
▁Ten
▁Vik
▁avı
▁ağı
▁dır
▁eko
▁gır
▁hus
▁jet
▁jim
▁kin
▁roz
▁rön
▁stü
▁süm
▁tüp
▁ziy
▁zım
▁ömr
▁İsm
▁Şak
▁Şok
Bunun
aksız
amiye
antil
artma
atörü
aydım
ayolu
başlı
biyen
delen
dunda
enkul
ifonu
iştir
kabım
kleri
lanıp
luten
luğum
lükle
lüyüz
ninde
ninki
ofobi
okrat
okula
opoli
press
sıyım
tecek
çıdır
▁Aksi
▁Alet
▁Anti
▁Beyn
▁Borc
▁Clin
▁Ekip
▁Emir
▁Flor
▁Grev
▁Göğs
▁Hang
▁King
▁Kudü
▁Kılı
▁Moda
▁Tabi
▁Takv
▁Yaya
▁acen
▁antr
▁araş
▁açız
▁baca
▁bağı
▁cazı
▁fina
▁food
▁fırs
▁gari
▁gebe
▁geçi
▁ikil
▁ilçe
▁kavr
▁klas
▁koli
▁kuzu
▁mahz
▁meme
▁raha
▁serp
▁stat
▁stre
▁tasv
▁turu
▁çaya
▁çöpe
▁öper
Donald
acağın
duğuma
etleri
evkala
ilirse
inenin
isteki
iyetin
larsan
luğumu
ografi
ristal
unacak
▁Adres
▁Açgöz
▁Bakın
▁Balon
▁Basın
▁Bağım
▁Bulma
▁Daima
▁Dayan
▁Dişçi
▁Eksik
▁Evlat
▁Fayda
▁Harek
▁Hırva
▁Kayın
▁Kazak
▁Kenji
▁Kocan
▁Mesih
▁Muhab
▁Neyle
▁Pembe
▁Sakal
▁Santa
▁Sağır
▁Susie
▁Sütün
▁Tanık
▁Taşın
▁Tıpkı
▁Uyarı
▁Yatma
▁alışı
▁atıcı
▁ağrın
▁bando
▁biniş
▁binme
▁burcu
▁buzda
▁cipsi
▁demet
▁doğan
▁döviz
▁etnik
▁evvel
▁gövde
▁hırsı
▁kafes
▁kaçan
▁kaçma
▁konak
▁koyul
▁kukla
▁kumda
▁limuz
▁omlet
▁oteli
▁rafta
▁sağla
▁sirke
▁sorul
▁soğut
▁sözüm
▁sıkan
▁tasla
▁tehdi
▁ucuna
▁ucuza
▁uyuma
▁uzunu
▁vanil
▁vites
▁vurup
▁vurur
▁yanık
▁yarda
▁yaydı
▁yazıl
▁çalgı
▁çizel
▁çöküş
▁ölçek
▁öncül
▁ütüle
▁İtaat
▁ısıya
▁Şoför
izasyon
kilerin
lamayın
lediler
liliğin
postayı
▁Aileme
▁Albert
▁Asgari
▁Aslına
▁Bahşiş
▁Biftek
▁Bilmen
▁Bizler
▁Bugüne
▁Christ
▁Deneme
▁Dükkân
▁Ekstra
▁Etrafa
▁Güvene
▁Havada
▁Justin
▁Kardan
▁Kaçmak
▁Kağıdı
▁Kolomb
▁Korsan
▁Kulesi
▁Makyaj
▁Planım
▁Reklam
▁Tırnak
▁Yaklaş
▁Yelken
▁Yöneti
▁adapte
▁akılda
▁alanın
▁altyaz
▁alınan
▁aranız
▁atlara
▁azıcık
▁açılan
▁ağabey
▁bağcık
▁bağlam
▁beline
▁berrak
▁bezgin
▁bindin
▁birgün
▁bitene
▁boyuna
▁bulama
▁bıçağa
▁demode
▁derdim
▁diktim
▁dileği
▁diline
▁dindir
▁duyusu
▁edinir
▁eposta
▁evdeki
▁eşinin
▁gereği
▁gideli
▁görsem
▁gözüme
▁halsiz
▁harfle
▁hileli
▁iadesi
▁ikamet
▁ismimi
▁kanunu
▁karate
▁kartal
▁karşıt
▁katili
▁kekler
▁kilosu
▁koştur
▁kulübü
▁kökeni
▁listen
▁midesi
▁molası
▁müydün
▁nüfusa
▁ofisin
▁otopsi
▁patika
▁peçete
▁planda
▁resmim
▁saklar
▁sansür
▁soymak
▁sporun
▁suskun
▁sütten
▁sırtım
▁sığına
▁tamamı
▁usandı
▁uyumuş
▁uzanır
▁yasaya
▁yasağı
▁yazıcı
▁yendin
▁yenmiş
▁yeğeni
▁yılını
▁zürafa
▁Çekici
▁âşığım
▁çayına
▁övündü
▁üyeler
▁üçünün
▁İlacın
▁ısırır
alanacak
bildiğim
duğumdan
oseksüel
ürbasyon
ılıyordu
▁Adamlar
▁Ailenin
▁Arabama
▁Baharat
▁Dostluk
▁Estonya
▁Hastalı
▁Kennedy
▁Krallık
▁Otopark
▁Oyuncak
▁Patlama
▁Pinokyo
▁Savaşta
▁Savaşın
▁Sendika
▁Sevimli
▁Seçenek
▁Taksiye
▁adanmış
▁affedin
▁aksiyon
▁almakta
▁anadili
▁anlarım
▁arabama
▁atasözü
▁ateşten
▁atladım
▁aynanın
▁ağlarım
▁balığın
▁basamak
▁bağırır
▁başıboş
▁besteci
▁bilgeli
▁biniyor
▁boynunu
▁ceketin
▁dakikam
▁dayanır
▁delidir
▁denemen
▁devamlı
▁dokunul
▁durumum
▁dönüşür
▁düşecek
▁edindim
▁ekmeğin
▁elbisen
▁ellerim
▁emindir
▁enerjim
▁etmemem
▁etmezse
▁galaksi
▁gençlik
▁girelim
▁grubuna
▁göremem
▁götürül
▁gülmeyi
▁hastaya
▁havalim
▁hisleri
▁iddiayı
▁ikinizi
▁incitme
▁iyiydim
▁iyiydin
▁kabloyu
▁karımın
▁kasları
▁katildi
▁kaydını
▁kayıtlı
▁kaçıyor
▁kedimiz
▁kefalet
▁kitaptı
▁klimayı
▁konunun
▁koşmayı
▁kursuna
▁maskesi
▁onayını
▁oğlumuz
▁paradan
▁sabrını
▁sarılma
▁sebeple
▁serveti
▁seçimdi
▁susadım
▁suçları
▁sıcakta
▁tanımaz
▁tekniği
▁tersini
[...]
