<blank>
<s>
</s>
▁t
he
▁a
in
▁the
▁o
re
on
at
▁of
▁s
▁w
er
▁c
en
an
is
▁p
it
or
es
al
ion
▁in
nd
ing
ed
▁m
▁f
▁b
ou
ic
▁to
ar
▁d
▁th
▁and
ent
ro
st
le
ct
▁h
ve
ation
▁e
▁re
as
ll
▁n
om
▁I
▁l
▁is
et
▁g
▁A
ut
▁that
id
ur
▁T
im
ly
▁y
▁we
▁be
▁for
se
▁pro
▁st
▁on
ot
ra
ment
ol
ce
ow
▁u
ak
ch
ig
op
il
ver
▁it
▁you
ay
▁con
ith
ul
ir
▁with
ad
▁de
▁S
ill
▁wh
ter
ies
▁he
▁com
▁are
if
▁The
▁this
od
ate
ld
ge
▁an
▁as
am
nt
▁K
ess
az
ity
▁"
ect
▁ex
ure
ort
ist
stan
art
um
ive
▁wor
▁at
ers
▁was
▁ne
▁ha
ial
▁me
akh
qu
du
azakh
her
▁2
iv
pp
ant
▁k
▁1
▁v
res
▁-
▁not
est
▁se
ical
▁C
us
▁Kazakh
▁W
▁M
ore
▁And
iz
ab
▁im
▁or
ction
oc
▁comp
▁B
▁cou
▁ab
and
ain
vel
▁by
os
og
ac
▁have
▁sp
out
▁(
igh
rom
em
▁le
▁all
▁will
▁ch
ud
▁Kazakhstan
▁su
▁can
▁en
▁N
au
▁r
▁go
▁imp
▁al
ry
th
▁int
▁from
ear
▁do
▁pl
▁P
ip
ult
▁sh
▁te
ition
gh
ous
cc
ib
ru
▁In
▁work
ere
per
▁E
▁they
el
▁R
▁part
▁pe
velop
▁j
ding
▁20
▁D
un
▁about
ec
▁us
ated
very
ans
▁whe
▁reg
ople
ust
ag
ally
▁year
▁our
all
orm
ight
ep
ap
▁develop
ations
▁res
ary
lic
ie
rou
aid
ich
▁people
ational
age
▁Th
ff
▁inc
ke
ub
ast
ome
con
▁F
ide
▁were
▁ad
▁one
▁there
ign
▁O
▁H
form
▁which
▁So
▁so
▁cont
▁co
▁out
▁what
olog
act
▁count
▁sy
▁produ
ther
▁It
ence
are
ions
ine
▁--
end
ime
ould
ard
ok
ject
▁my
ov
▁li
our
▁act
▁has
▁their
ire
▁ag
stem
▁tr
▁kn
ater
▁bec
ace
▁but
ram
so
▁rep
▁qu
▁tra
ber
▁un
▁more
▁cre
▁dis
▁per
ice
▁G
▁.
cess
ities
▁man
ance
▁We
▁system
ause
▁these
▁state
ublic
ake
▁like
▁them
▁inter
ost
▁know
ri
▁new
ind
eth
ric
▁who
one
▁exp
ase
ia
chn
▁201
uc
▁am
▁sc
ong
pt
▁development
ink
ame
ens
dition
▁also
▁up
▁ev
▁acc
▁time
illion
ree
▁L
lo
ach
▁ar
able
ments
ass
▁lo
ors
▁than
ents
▁3
▁region
▁world
▁comm
▁said
▁other
ory
ue
▁stud
ren
▁techn
ific
▁app
▁when
conom
▁But
00
gan
▁into
irst
▁just
▁mod
▁ro
ress
iff
ang
▁if
▁U
ks
▁been
▁,
▁spec
stru
▁This
▁cl
etw
▁trans
ative
erv
▁pre
▁cons
ording
▁inv
lect
▁very
▁incre
▁your
ident
▁think
▁first
▁diff
ings
▁some
▁ed
▁Y
▁years
▁get
nder
."
▁head
▁ent
▁econom
ount
uring
▁tw
▁project
vers
▁prog
lement
ite
ose
ack
ating
▁process
ces
▁po
ays
ev
▁how
ew
▁ind
▁ob
▁had
▁educ
▁form
▁under
▁because
reat
int
▁sol
gy
▁rel
▁prov
ient
▁technolog
ization
ian
ution
ys
▁need
formation
ics
▁country
ries
▁see
▁import
▁would
ons
▁em
▁two
▁dep
ual
eration
ates
ph
▁every
ord
▁ph
ues
▁soc
erm
av
▁program
▁car
ural
▁pres
ious
hen
▁ra
▁well
▁main
▁J
▁bas
▁As
ild
augh
▁5
▁partic
te
▁des
ility
▁fu
▁dec
ound
▁organ
ures
ually
rough
amp
▁bu
▁use
▁plan
▁att
▁implement
▁supp
▁eff
▁4
▁want
▁noted
get
▁meet
▁only
ital
▁over
▁going
een
▁cap
▁its
▁then
▁exper
▁differe
▁pr
▁most
les
▁result
▁iss
enge
etween
▁where
▁cent
▁gen
▁between
ives
hed
aughter
▁look
ethod
▁information
row
▁num
lud
uss
▁prob
dust
ob
ized
ced
ience
▁countries
ange
▁really
▁pos
▁product
ark
air
ied
▁St
▁now
ning
▁Rep
▁intern
▁way
iness
ining
▁high
▁rec
▁through
▁method
Laughter
▁any
▁comple
ish
▁could
▁Min
▁fe
▁Acc
▁tenge
▁his
vern
ife
▁no
▁serv
▁should
▁special
ists
rib
ality
ism
▁here
xt
▁disc
ough
▁indust
▁fo
▁equ
ousand
ork
itt
▁According
ract
▁sign
iss
▁thousand
▁make
ergy
▁Republic
▁pol
▁invest
▁ass
▁right
▁important
▁ac
▁pers
day
▁Ch
tain
▁did
lem
▁off
▁different
▁production
▁many
▁hum
▁det
ayev
als
round
▁show
▁med
▁don
▁number
▁start
▁Al
hip
cy
ible
ivers
▁call
20
▁same
ister
hem
sel
▁billion
ern
urs
ulation
▁sm
▁sub
struction
ower
aw
▁bus
▁art
der
fter
▁inst
ool
▁You
▁life
alk
ade
ell
ield
▁coop
▁min
▁fin
▁good
urn
▁includ
▁compan
said
▁col
▁som
▁meeting
▁energy
▁actually
▁fl
▁million
tern
▁addition
pe
fore
▁things
ile
▁used
▁op
▁Wh
ices
ris
▁problem
chool
▁They
▁dire
alth
▁dat
▁level
ove
ular
▁[
ful
▁fact
▁Now
▁dist
▁international
▁mu
▁mon
▁provid
▁amount
ft
▁take
▁0
▁He
ants
▁she
▁those
iron
▁met
▁cooperation
arb
▁happ
ize
rit
▁economic
ody
▁education
▁6
ered
▁lar
▁business
aking
▁field
mb
arch
eral
▁person
▁activ
▁today
▁vis
▁water
▁elect
▁particip
▁impro
ature
▁bo
▁even
▁effect
▁commun
port
▁child
other
▁report
▁support
▁say
▁10
▁lead
ds
▁There
▁sur
ail
▁V
,"
▁conc
▁being
ased
▁br
▁val
▁issues
ts
▁products
▁cor
▁inf
▁social
▁sim
urre
▁buil
ron
▁model
▁data
▁human
▁such
▁school
▁condition
▁7
▁back
▁great
wn
▁grow
ines
ething
viron
▁each
its
ving
own
erest
▁rem
▁mat
▁after
ick
arm
▁much
ctions
▁does
cture
▁public
▁something
▁three
▁increase
▁lot
▁meas
cept
▁loc
▁city
▁str
urrent
▁On
▁gra
vironment
▁interest
vernment
uture
▁kind
be
ict
rol
imes
ined
ration
▁ide
▁Un
▁bl
▁her
the
▁got
ank
▁national
▁using
▁oper
▁him
ention
aterial
ty
▁par
ection
ved
▁projects
ample
▁lear
▁aut
▁pat
▁open
▁That
ages
▁var
de
▁leg
▁poss
▁implementation
▁consid
▁future
ng
▁construction
▁day
iet
▁requ
ited
▁real
roup
▁made
▁design
▁material
▁compet
▁cour
ars
▁capital
▁stru
▁during
▁set
▁conf
▁environment
▁technology
▁end
ium
▁training
▁place
▁fam
▁z
ically
led
▁health
ily
▁results
▁modern
▁pop
▁thing
hes
▁hel
▁power
▁fore
red
▁8
▁bel
▁secon
▁discuss
iven
ned
ency
▁group
▁determ
▁Pres
arbayev
▁talk
▁gu
llow
▁study
▁may
io
▁point
▁turn
▁necess
▁fund
anc
old
ting
▁ins
▁9
man
▁19
▁own
resent
▁students
▁President
▁allow
▁order
▁cult
▁enter
ieve
ittle
▁help
ince
rodu
▁around
▁ty
▁conditions
loy
▁resp
istry
▁At
way
▁quest
▁Minister
▁last
▁long
eg
▁change
▁little
▁char
▁large
ros
▁anal
▁second
▁scient
azarbayev
▁create
mer
▁If
ases
▁fun
▁working
▁mark
ral
▁ext
▁chang
▁example
pris
ave
omen
▁def
▁necessary
ted
▁For
ploy
▁called
▁appro
▁small
ission
ried
cent
▁represent
here
atives
ute
▁again
▁prot
▁spe
▁relations
pl
▁children
▁complex
ilities
ness
▁oil
orth
▁rese
▁technologies
▁put
ability
▁What
▁control
▁economy
pos
▁within
▁comput
▁prof
▁ele
▁according
ared
▁down
▁vol
▁present
▁transport
mat
ax
▁found
ise
lear
ale
ense
self
▁rece
▁created
▁instit
▁quality
▁educational
rain
ey
ential
▁Com
▁tell
ward
rial
tal
▁though
▁ref
▁0,
ological
▁Nazarbayev
reng
▁fram
ator
▁market
gether
▁together
▁hist
▁held
▁understan
▁stand
▁fac
▁read
▁De
▁tas
▁sec
▁object
▁organiz
nc
-20
▁mil
▁streng
bal
▁redu
▁indic
▁current
▁follow
▁come
akes
par
iving
acter
▁beg
▁land
ves
▁law
▁cal
▁industry
▁big
utions
ix
ources
▁based
▁mem
ived
nov
000
read
▁sit
▁air
ivid
▁Go
iew
▁opp
icle
▁contin
nce
▁conn
▁eng
▁ask
li
▁est
ultan
▁experience
▁before
▁sk
▁course
▁Z
▁percent
ck
▁find
▁including
▁gr
▁become
▁carried
itive
▁test
▁happen
ple
▁When
ional
▁try
ished
ortun
▁jo
▁feel
▁building
▁center
▁cer
urity
▁During
hib
▁require
ision
▁ann
▁population
ven
▁introdu
iod
▁next
lobal
▁company
▁let
▁improve
▁ter
▁framew
▁services
eng
ified
▁phys
▁systems
thing
azakhstan
▁government
▁class
angu
▁research
▁To
▁framework
▁general
▁enterpris
▁space
▁care
▁areas
▁15
ination
ification
▁area
▁methods
▁employ
▁developed
igure
oth
▁young
ators
▁top
▁ach
▁200
▁tem
▁sl
▁expl
▁various
ology
iety
cul
rep
ricult
uro
ock
▁lab
▁event
▁hy
ected
▁times
ins
atic
▁without
agement
▁dem
▁polit
▁another
▁netw
ctor
▁bi
uty
maty
▁pot
▁pass
ption
▁able
▁pur
▁job
▁gas
▁total
▁doing
ends
▁pract
▁adv
▁activities
ond
ocu
ene
▁trade
uation
▁langu
ering
▁ens
raph
▁account
▁idea
▁proper
▁sing
▁dev
▁innov
▁agree
ina
▁companies
▁regional
rene
▁applic
ners
▁effective
up
▁bet
▁give
▁planned
icy
▁exhib
▁mean
iversity
▁possible
▁cost
▁service
▁global
▁month
▁docu
▁investment
itiz
▁took
▁since
reprene
▁sect
▁move
▁article
iation
▁women
orts
▁why
ccess
▁period
▁less
han
ten
▁Russ
▁hand
▁tour
pect
af
▁di
▁still
▁Ministry
▁attention
▁must
acher
▁ve
inc
▁30
▁foreign
▁Almaty
epend
▁success
aj
itary
▁tru
ood
ross
▁industrial
ledge
▁play
▁brain
▁init
▁full
▁kazakhstan
▁citiz
then
▁plant
ways
▁means
▁perform
▁signific
rop
▁basis
▁materials
▁started
▁gre
▁An
atural
,000
min
ather
▁exhibition
urther
ume
▁How
chan
ursultan
▁non
▁obtain
▁el
▁measures
▁better
▁agricult
artment
▁light
▁regions
▁add
aces
▁character
▁prev
▁aff
▁increased
▁strengthen
▁contrib
yl
ffic
▁discussed
ner
▁term
sc
▁opportun
alf
▁worth
ressed
ysis
▁2015
▁food
com
▁road
▁profess
▁body
▁particular
udget
ai
▁Pro
▁teacher
),
▁dr
▁works
ash
▁problems
▁management
▁financ
ouse
▁didn
▁local
▁four
▁question
▁potential
▁begin
▁growth
ets
ath
▁cell
ppl
yn
▁science
▁further
▁best
▁value
imed
▁president
▁might
hemical
▁comb
50
▁wr
ograph
ibility
▁beh
▁knowledge
▁100
▁computer
▁communic
ended
▁representatives
▁fri
ids
▁never
-201
▁ident
▁hu
abl
▁entreprene
▁press
istics
▁provided
▁five
▁State
Appl
▁society
▁budget
Applause
▁hol
▁propos
▁Well
▁single
▁mult
urope
▁few
▁Intern
▁mechan
%,
meric
▁natural
▁policy
▁typ
imate
odies
▁Ind
▁One
ify
ird
ope
▁individ
▁temper
med
ending
▁independ
▁ge
?"
▁ser
rict
▁Af
▁Nursultan
▁organizations
ories
▁given
ote
▁integ
▁structure
face
▁dom
▁standard
▁whole
▁provides
▁active
▁mom
▁organization
▁language
osp
gest
ull
▁thought
▁republic
▁hous
▁dra
erg
▁individual
▁12
▁bodies
▁always
▁case
▁medical
▁significant
▁considered
▁opt
▁military
▁ago
▁hard
▁story
▁tool
ik
▁rad
▁establ
▁solution
▁understand
.5
ek
▁strate
▁mov
▁citizens
ncil
▁rele
▁scientific
▁live
▁function
▁came
ember
▁2017
selves
▁visit
▁too
▁mic
airman
▁Is
▁Europe
ex
structure
▁National
▁Americ
▁old
ret
ipment
▁che
▁reas
▁ear
▁doll
▁following
▁creation
ware
▁security
icial
ties
▁volume
duct
▁went
▁analysis
▁certain
▁step
▁pay
▁tre
▁compos
hor
▁history
▁rest
▁side
oss
▁Dep
▁political
▁25
oms
▁unt
▁amounted
arth
▁These
▁formation
▁tons
▁infra
▁2016
▁hig
lia
▁equipment
▁labor
body
▁colle
▁provide
▁changes
ury
▁2014
▁aimed
▁issue
▁learning
outh
▁Sh
▁love
▁enterprises
▁among
▁partners
▁11
▁50
ever
agn
▁due
atory
▁list
verage
▁Ak
▁technical
▁direction
▁family
▁mass
▁dig
ah
▁complete
▁ak
▁situation
▁temperature
▁resources
▁low
▁legal
ogn
▁done
hemat
▁bit
liament
▁concept
▁direct
▁mess
▁taking
▁achieve
▁cho
oney
▁ways
▁1,
▁believe
erence
▁cr
less
amet
asing
stana
ters
action
▁infrastructure
▁free
▁saf
▁engine
▁av
aken
▁conduct
▁Con
▁culture
icult
land
airs
▁joint
▁access
▁community
▁competition
▁entrepreneurs
ici
▁Bec
▁assoc
▁consum
▁Ar
▁thinking
lf
▁lim
▁mus
▁participants
▁prom
▁processing
▁implemented
▁tasks
sw
▁dollars
▁built
go
▁hyd
▁past
▁anim
ides
▁occ
▁both
▁until
▁won
▁book
ier
▁specific
irc
line
▁activity
nel
▁days
▁view
bo
▁Because
estic
▁institutions
▁home
▁months
▁desc
▁difficult
ills
▁share
▁stage
▁network
▁mach
▁'
▁content
ats
me
▁Pr
stit
gen
▁phot
▁fil
▁financial
▁treat
▁build
▁initi
▁received
inal
▁18
▁states
▁common
%.
▁processes
▁half
iver
▁ris
▁Or
yz
▁surface
▁importance
▁priv
ole
▁Comm
velopment
▁commission
▁words
▁fre
ger
▁participation
▁ret
▁environmental
▁along
▁types
pec
ert
▁leaders
▁doesn
▁attract
▁agreement
▁role
▁alloc
▁electron
olution
▁presented
▁developing
omet
▁creating
ably
cing
semb
inary
▁teach
▁calcul
ithm
▁sw
pose
▁China
▁programs
ead
▁left
struct
-1
▁memb
▁enough
▁dise
▁answ
▁wanted
▁team
▁money
▁domestic
▁With
▁mathemat
gor
ony
▁Sec
ateral
▁circ
ode
oring
ien
▁accord
▁gl
ones
▁ur
▁often
▁composition
ots
rior
▁exch
que
arent
▁accordance
amic
▁Afric
▁requirements
▁goal
▁taken
▁subject
▁obs
orn
▁imag
▁rate
▁Cent
▁Tur
▁ensure
lose
▁everything
▁Ex
▁while
▁author
▁bene
utes
iter
▁electric
▁ke
▁sum
▁nuc
idence
▁making
▁tradition
▁away
▁chemical
ivity
▁flow
▁bring
isl
▁respons
▁ant
▁cities
ilateral
▁facilities
▁simple
▁regard
▁values
▁sound
ially
▁self
▁Development
▁eas
▁Econom
▁wast
cer
▁famil
istance
).
▁experim
▁run
▁lay
▁measure
▁properties
ivil
▁looking
hing
ipl
▁against
ently
▁physical
▁type
aster
▁nature
▁14
gorithm
▁13
▁infl
fer
▁jobs
▁ever
▁hour
▁cultural
▁places
▁My
▁cur
▁sector
▁decre
ready
▁capac
▁exc
▁rob
▁es
▁third
▁prior
▁living
▁benef
▁close
uras
▁makes
▁gener
▁improving
▁housing
▁invol
istic
▁objects
incip
▁log
anu
▁moment
▁obtained
any
▁application
ova
▁exist
▁sever
▁abs
▁neg
istan
▁deep
▁average
▁mind
▁trying
ately
aus
acy
ocus
▁bro
▁territ
▁higher
▁Ab
▁line
▁began
etic
▁[1
▁document
▁specialists
▁adop
▁No
▁Rec
itte
▁stat
▁digital
izing
▁i
▁Zh
▁stop
▁members
▁determined
stant
▁lau
iveness
▁struct
▁All
let
▁clear
▁became
ource
▁already
▁distrib
▁house
ains
▁May
▁legisl
▁impact
▁New
▁Pe
▁algorithm
▁norm
▁bre
▁paramet
▁mot
▁department
ream
▁nam
▁several
▁princip
▁collect
▁sens
ideo
▁terms
▁expand
▁agricultural
rm
aps
▁lives
▁related
ior
bek
anuary
atch
atures
idd
▁funds
▁farm
▁entire
por
▁rev
▁focus
▁parties
minist
▁needs
sy
ug
▁ste
▁solve
▁arch
▁crit
▁akim
▁She
over
▁micro
▁supply
▁increasing
▁dyn
▁16
▁autom
▁qual
aut
fact
▁wind
▁assess
▁fuel
▁hydro
▁reason
▁signed
iol
▁told
▁text
▁groups
▁professional
▁prepar
ape
ients
▁harm
▁task
▁communication
yr
imum
ired
ules
vernor
most
ror
▁vill
▁nuclear
▁allocated
rate
▁short
oday
ulf
▁questions
▁war
▁keep
▁poll
▁heads
ees
▁learn
▁capacity
▁purpose
▁17
leg
▁forum
▁schools
ling
put
▁bilateral
ided
▁inform
ittee
▁civil
▁having
▁district
mber
▁chall
▁innovative
▁associ
▁bank
▁green
po
▁message
▁Today
ief
▁kids
▁heat
▁hope
▁University
▁sure
▁40
erc
▁mar
▁mob
▁maj
▁soft
amples
▁maybe
▁reform
▁Sc
urasian
▁tourism
▁ce
▁sil
▁tax
▁compon
▁student
▁er
▁aud
▁minister
▁comes
▁recogn
▁univers
▁January
amb
▁mut
▁tar
▁Astana
▁interesting
▁liter
▁others
▁personal
▁men
▁strengthening
▁sort
▁(1
▁vir
▁events
▁expressed
▁age
-2017
▁Also
onom
▁seen
▁seem
irl
▁monit
▁pict
rete
▁Prime
▁medium
▁poly
▁sent
▁cop
sembly
▁figure
▁beginning
tle
▁partnership
▁shows
▁win
▁squ
▁pain
▁goods
▁2013
▁allows
▁far
aged
pects
▁room
▁cust
aper
▁mechanism
▁opportunity
▁Current
pr
▁sense
ane
▁soil
orld
▁friends
rated
▁getting
▁cong
▁mor
▁optim
ait
usion
▁ideas
ept
ule
▁deg
▁electronic
not
oman
▁People
.2
▁describ
▁position
▁Let
▁across
osed
▁sal
▁says
to
▁member
▁viol
▁Russian
met
▁peace
▁Therefore
▁pros
▁prim
ee
ym
idents
▁ox
ming
▁known
▁install
▁cells
▁coming
side
▁positive
▁indicators
▁action
▁sports
▁talking
.6
▁2020
▁teachers
▁operation
▁name
for
▁concent
.3
▁elements
▁Russia
ump
ront
▁central
iciency
ufact
ky
▁consider
▁decision
▁exchange
▁almost
▁wide
▁reduce
▁Internet
▁ability
▁Here
▁zone
▁Currently
▁plants
▁manufact
tical
▁pret
ully
▁key
▁ey
▁six
▁scientists
▁white
lood
▁Governor
▁therm
▁date
wards
▁speak
ires
▁post
▁waste
▁ec
▁States
▁walk
▁noting
▁protection
▁tools
▁holding
▁Earth
▁parts
▁asked
▁Gen
▁quite
▁affect
▁Cou
▁influ
▁institution
vant
▁inside
▁pred
rug
▁Te
▁strong
▁strateg
app
▁administ
▁histor
▁relationship
.4
ery
▁determine
ained
uff
▁early
▁mother
pecially
▁else
▁century
▁everyone
ored
▁En
▁port
▁corre
anks
ising
▁transfer
▁compared
resp
▁saw
▁matter
▁carb
▁Ag
▁protect
▁efficiency
▁Eurasian
▁basic
▁youth
▁major
▁convers
▁heart
▁later
▁happened
ached
▁World
▁experiment
▁Kar
▁caus
▁someone
▁attended
▁parent
avor
.7
aring
orks
▁video
▁paid
ament
ression
▁path
▁exec
une
▁themselves
▁bad
▁once
▁connect
▁studies
▁cannot
fficient
ilar
▁points
▁connection
fully
▁Council
▁annivers
▁size
▁plat
ety
▁continue
ares
▁Pl
▁relig
▁regul
▁quick
▁anniversary
▁meters
▁official
▁probably
▁proposed
▁girl
▁gradu
▁planet
▁practice
▁territory
tion
iously
isions
ogical
▁becom
▁species
▁stability
▁vo
aev
▁documents
▁movement
▁21
▁above
▁pretty
iar
bs
oke
▁opportunities
▁completely
▁decided
▁acqu
▁emerg
▁ground
▁standards
hy
.1
▁Aff
▁anything
▁United
.8
▁skills
▁eth
▁Union
▁additional
reme
▁ap
▁face
▁especially
▁constant
▁software
▁super
ique
year
ble
▁yet
cle
▁bill
▁conference
itect
▁Deputy
▁Fore
IS
ech
▁Res
▁sug
iddle
rat
sh
▁near
▁image
▁parameters
▁sources
▁hund
anda
where
▁deputy
▁teaching
▁Par
▁South
▁shown
ival
ler
▁equation
▁climate
▁takes
▁platform
oy
▁corresp
▁concrete
▁hours
▁solar
▁opening
cies
▁hold
▁rights
▁currently
▁cy
▁extra
▁remember
▁understanding
▁carbon
▁interested
ening
▁exact
▁private
▁approach
▁least
ceed
▁growing
▁black
▁answer
▁By
▁drug
▁whether
▁treatment
▁introduction
hol
▁spect
ges
ipp
ison
▁continu
ude
▁Recall
ourn
▁quant
▁prep
▁force
▁avail
▁established
▁Affairs
▁mathematical
▁graph
▁party
▁myself
▁proced
▁European
▁republican
▁engineering
▁independence
▁speed
aches
▁cases
▁cle
▁characteristics
▁modernization
▁Ad
▁workers
hat
ellig
lt
▁enc
▁front
▁select
▁theory
▁happens
hens
▁chairman
ran
▁generation
ung
▁square
▁leading
▁expert
▁located
▁separ
mit
▁models
ensive
▁Eng
▁favor
▁technological
▁solutions
▁medic
▁jud
▁news
▁sust
co
▁map
▁camp
▁machine
▁199
erve
▁60
astic
▁record
▁gave
▁goes
▁true
▁safety
▁named
▁organized
▁creative
▁range
ott
▁et
adem
▁appl
ED
rip
anced
▁rules
▁thank
▁worked
illed
ised
▁Germ
▁media
▁music
▁Foreign
itation
▁First
gg
roll
▁devices
▁Economic
▁architect
▁parliament
men
▁US
▁centers
▁km
▁forces
▁similar
▁friend
▁factors
▁cra
bers
autif
▁word
▁70
▁Africa
rehens
▁introduced
und
risis
▁pressure
▁networks
▁agriculture
▁designed
▁Asia
▁wrong
▁employees
▁experts
▁memor
▁night
▁internal
aving
▁After
lish
arian
ength
▁Chairman
ms
ospital
▁dest
▁approved
▁regist
▁plans
▁includes
uties
▁Turk
▁ready
.9
▁bar
▁largest
▁Am
▁itself
▁showed
▁beautif
▁reports
▁sustain
sych
▁reported
▁equations
▁fully
▁stuff
▁establish
▁search
▁cat
abilities
▁max
ension
▁Thus
▁investments
ieved
▁coord
▁prevent
▁stories
▁heard
▁bir
▁Kaz
▁pric
▁mobile
▁practical
▁reflect
ulated
▁opened
aly
mp
▁export
▁hon
▁Then
▁elections
▁wonder
iplom
▁nothing
ban
▁arr
▁formed
▁Off
▁amaz
▁conv
stitution
▁difference
▁demand
rehensive
▁fall
itative
▁traditional
▁interaction
encies
▁journ
▁risk
▁fight
▁somet
lection
▁produced
els
▁calc
▁office
▁Head
▁imagine
▁LL
-2
▁24
uted
▁needed
▁feed
▁contribute
ames
▁East
▁substan
▁cut
▁week
▁respect
▁vers
▁Since
bayev
ged
▁units
▁mill
▁instead
▁personnel
edag
▁General
30
▁ver
▁robot
▁levels
▁picture
▁enterprise
▁strategic
▁applications
econom
▁rat
▁council
ighb
▁sometimes
▁village
▁table
▁diplom
▁hospital
▁accept
▁learned
▁raw
▁priority
▁possibility
▁costs
▁intellig
▁beautiful
ext
inese
▁UN
▁repl
▁buildings
▁receive
▁American
▁Government
▁transition
▁pub
▁However
▁eval
▁disease
reen
ruption
▁cancer
▁board
inear
▁animals
▁analyz
het
▁stre
▁investors
▁ones
▁Do
ians
▁emb
▁Central
ring
▁initiative
term
▁fail
▁Office
▁interv
▁independent
▁..
▁sex
itting
▁progress
amber
▁exam
▁reach
ites
order
▁knew
▁observ
▁sat
▁successful
▁paper
▁saying
▁actions
▁adopted
▁minutes
▁instruction
▁comprehensive
▁families
▁draw
▁frequ
▁changed
▁reached
inate
▁goals
▁base
▁wasn
▁behav
▁Sy
▁coll
▁depend
▁integration
▁rail
▁strategy
▁fish
▁travel
▁structures
cl
▁isn
na
▁woman
ables
economic
▁amazing
▁site
▁outside
▁huge
▁looked
artments
▁Some
ying
arc
▁performance
▁mi
▁code
▁prices
sec
▁psych
▁cars
▁forms
▁Su
▁hom
▁flu
elt
▁Ph
▁2018
▁neighb
▁target
▁thousands
▁80
▁socio
▁LLP
ternal
▁2015,
anger
leb
▁ourselves
book
▁quickly
▁steps
▁completed
▁functions
The
▁patients
▁insp
▁contract
▁game
▁parents
kh
▁relevant
▁historical
▁...
▁color
quality
lim
▁death
▁interact
bit
▁Our
▁solving
▁carry
rap
itude
▁correct
▁components
cious
iable
▁included
▁tur
▁scale
structed
hood
rought
▁features
▁assistance
▁improvement
rad
NA
▁red
illing
▁expect
▁investig
▁Every
▁blood
▁powerful
▁emot
▁lower
oration
▁customs
cks
den
vest
pid
▁Fin
▁liqu
▁congrat
▁assessment
▁online
▁moving
▁incred
▁nation
▁studied
▁imm
▁produce
iece
▁Can
▁fra
▁thermal
ences
▁easy
ulate
▁industries
▁predict
▁Why
lex
▁Thank
▁contain
▁director
ero
▁device
▁involved
▁residents
▁ir
▁tele
ensity
▁exactly
▁pack
▁legislation
▁etc
▁address
▁layer
▁employment
▁unique
▁acid
▁looks
▁launc
▁distribution
▁include
▁experien
▁From
▁orig
▁magn
▁weight
▁deleg
▁therefore
▁OK
▁fire
▁celeb
edagogical
use
▁Be
▁meat
▁pattern
▁university
icles
▁hear
uck
▁check
▁reality
▁bal
▁hor
▁cert
▁crisis
▁station
zh
ests
itted
▁rout
▁lib
▁changing
▁Fr
ither
▁lif
▁mole
▁clean
▁depos
▁trust
▁transportation
▁watch
▁conclud
zhan
▁middle
▁correspon
▁electricity
▁deal
▁tal
▁spent
▁normal
▁providing
of
▁speech
▁innovation
▁source
▁influence
▁Figure
apt
▁threat
▁directions
assad
▁writ
▁available
▁increases
▁Of
▁break
▁spoke
▁depending
ma
apan
sequ
ober
▁Techn
ched
▁hect
▁ensuring
▁mutual
▁spir
aves
hest
▁consist
▁cry
▁degree
▁sphere
▁America
▁transform
▁cross
▁challeng
eed
hern
▁detail
▁launched
▁meetings
▁metal
▁opin
▁veter
oun
▁clin
▁monitoring
▁traffic
omm
mosp
arily
▁Chinese
duc
▁dream
▁advant
▁anc
▁property
ton
▁dial
▁sold
▁rural
▁vac
▁associated
iverse
otic
▁thanks
▁distance
▁bat
▁calculation
▁instructions
▁operating
▁preparation
▁22
iting
▁numbers
▁brought
▁leadership
▁dou
▁requires
▁Sp
▁phen
▁wall
▁couple
▁draft
▁classes
aries
▁link
▁bur
▁turns
▁fundament
▁23
issions
▁reforms
▁universities
▁Bel
▁strength
▁felt
▁decisions
obe
▁deputies
▁fru
▁length
▁guy
▁responsibility
▁pip
▁India
▁happening
▁cam
estern
▁accur
▁participate
▁dynamic
▁defin
▁towards
nch
▁applied
edic
ctors
▁maximum
▁achievements
▁prospects
ords
▁x
▁load
aff
▁samples
▁concentration
▁Bank
▁vict
▁businesses
▁simp
▁subs
▁wait
▁highly
key
▁ess
▁roads
▁cool
▁leave
▁actively
▁election
unt
▁Co
▁gets
▁ill
▁train
▁sustainable
arant
▁principles
oph
▁surv
cember
ography
▁existing
▁committee
rative
▁extreme
▁consumption
▁liquid
ifying
▁atmosp
▁visited
▁ang
▁oce
▁smart
▁diseases
▁return
▁consists
abil
▁recon
ogue
SC
ula
▁rather
▁everybody
▁card
▁hot
ola
▁Educ
kay
pite
eptember
▁equal
assador
▁meaning
▁turned
ades
aganda
▁phase
▁depends
▁connected
60
utive
eah
▁phenomen
aging
▁terror
▁poor
▁2014,
▁decrease
▁contribution
▁piece
▁recent
imens
▁cand
▁behind
reg
▁trend
▁hectares
▁maintain
rew
▁images
▁Pol
▁bab
▁fix
▁democ
rec
▁Akt
ray
▁cover
uly
▁anti
▁2016,
fect
▁realized
▁conversation
ne
ibly
scale
▁father
PO
haps
▁Man
▁universe
▁2,
iate
▁CA
▁Re
▁York
▁humans
retary
▁price
iations
ively
▁Japan
ift
▁sun
oting
▁grand
▁Kazakhstanis
ilis
ises
▁mixt
cast
▁Key
verse
ession
▁English
lusion
▁born
▁yourself
▁basically
▁cate
▁final
▁primary
▁slow
▁income
▁sho
▁mechanical
TI
▁28
▁seven
inated
▁500
▁eyes
▁fair
▁spread
iy
hers
▁phone
▁popular
▁section
pro
▁negot
▁reserv
▁gives
rans
9,
osing
▁laws
▁master
ental
sized
▁2012
▁acquain
▁danger
dy
▁Just
ously
▁virt
oon
▁Comp
▁park
▁indicator
ese
rical
ground
▁apply
▁coe
▁diagn
▁remain
1,
▁added
ception
▁respon
▁statement
▁ethn
▁spirit
▁forward
▁behavior
ush
ounds
▁recently
▁fast
ken
▁del
▁happy
▁stress
new
▁unit
coming
ender
▁safe
▁purch
▁Tw
oint
▁dam
▁trip
▁confidence
▁directly
▁altern
▁leader
▁%
▁appear
▁proposals
▁substances
▁veh
▁earth
rid
▁film
▁familiar
▁theore
▁couldn
▁synt
▁Within
▁choice
▁topic
▁urban
▁flo
▁divid
▁stages
▁radiation
▁kinds
▁starting
izes
▁buy
▁ple
Figure
▁expected
▁required
▁agreements
▁27
▁Tra
▁suggest
▁Maj
▁longer
▁fear
▁demon
▁sectors
▁nan
cra
lan
▁arm
On
▁displ
force
▁elim
▁stay
mission
▁negative
oud
▁chan
▁90
ctober
ued
▁Ge
▁hands
▁achieved
▁0,4
olute
government
▁gold
▁defined
▁somebody
▁studying
▁calculations
▁acquainted
ps
▁solid
▁transl
avl
▁alone
▁categ
▁visual
▁Bo
▁union
▁copper
▁[2
▁Kazakhstani
hev
oved
▁arg
gyz
▁mount
ights
▁publ
phas
▁International
▁pow
▁allowed
▁Se
uth
▁Over
yrgyz
▁coal
▁pollution
eria
▁Fed
▁write
agram
▁relative
kn
▁26
▁March
▁manufacture
▁Ro
aught
▁lost
▁quar
rosc
▁Education
ko
▁cere
▁dark
▁voice
▁demonst
▁Assembly
▁element
▁TED
▁September
reed
▁explain
uit
▁Department
▁)
▁corpor
▁Sen
▁fly
▁benefits
▁Cl
ops
▁chem
▁instru
overed
▁pedagogical
▁sn
▁0,5
▁300
▁pick
▁seeing
▁colleag
arus
▁weap
▁box
▁upd
▁June
▁emphas
▁fields
▁guarant
▁December
▁conscious
▁Fe
▁mag
▁obv
▁soon
▁limit
▁either
▁becomes
▁dialogue
▁Parliament
▁yes
▁factor
▁govern
▁surpris
eks
iction
▁contact
▁passeng
.,
▁finally
▁ministry
▁discussion
ographic
▁effects
▁Mod
▁clust
▁exceed
▁context
▁reduced
▁external
▁planning
▁candid
▁mining
▁simply
lier
▁amb
▁instructed
oly
▁award
▁girls
▁Des
▁2017,
▁informed
osph
▁loss
▁procedure
▁signal
▁animal
▁assembly
andum
▁appe
▁shape
▁opinion
erb
▁North
▁controll
nces
▁heav
▁subsid
▁(2
▁books
3]
iny
▁sea
▁acce
▁Security
▁laboratory
▁decl
▁bacter
▁prepared
fort
▁sle
▁ball
▁reve
yt
▁led
▁significantly
▁effectiveness
▁35
▁save
▁dynam
indust
▁feeling
▁advanced
▁tou
ellect
▁eight
▁reasons
▁Committee
▁emp
▁lines
▁bott
▁cred
▁spend
▁identified
▁Health
urg
ented
itten
▁dead
▁birth
usiness
▁perfect
aced
▁fulf
▁simpl
mbol
▁Great
▁commerc
▁Dire
▁crop
▁partner
▁frequency
orb
reds
▁principle
▁responsible
▁DNA
);
80
▁limited
▁react
stitute
▁heating
▁competit
▁Def
▁bound
▁response
▁War
▁choose
▁evidence
▁performed
▁communities
▁expo
▁markets
unic
rig
▁tried
▁modeling
▁forest
▁camer
▁police
▁authorities
ses
▁coun
▁effic
▁initial
▁absolute
▁memorandum
organ
icon
▁Brit
▁landsc
▁milk
▁mineral
▁logistics
▁mechanisms
ervation
ox
▁lots
▁multip
pril
▁deli
▁financing
▁healthy
▁deb
words
manent
▁Kyrgyz
like
▁div
▁blue
▁flour
▁October
▁Iran
▁realize
▁CIS
▁weeks
▁Soc
olved
▁memory
▁perhaps
▁competitive
road
▁datab
▁Aktobe
▁houses
▁sample
we
▁cause
orda
▁holid
▁academ
▁executive
ike
▁ast
▁mix
▁repair
idential
itch
▁God
▁unity
▁likely
▁Information
ergart
▁initiatives
▁kid
▁recomm
▁interests
▁sulf
▁annual
▁patient
▁published
▁commercial
5,
iev
rary
anium
vision
▁block
ellectual
▁dedic
asc
▁ult
▁Center
▁medicine
tan
▁semin
▁views
▁session
▁resistance
▁administration
▁symbol
aign
▁Stud
▁rich
ovember
▁channel
▁testing
▁rot
ugust
▁border
▁conflic
▁Secretary
▁kindergart
▁legislative
▁user
▁print
enda
▁Ass
▁clos
▁lack
▁ocean
▁Isl
▁Cons
isc
atever
▁exerc
▁linear
▁selected
▁efficient
▁concluded
rote
▁fem
craft
▁imposs
oid
aul
▁occup
▁renew
▁hundreds
▁specialized
abor
▁ord
▁implementing
ows
cers
▁stable
▁railway
▁challenge
oh
▁stations
▁challenges
fl
come
▁sell
▁physics
▁manufacturing
ging
▁Not
▁trillion
odes
▁grain
▁programming
▁Reg
▁prop
alle
ults
▁sav
▁famous
rab
▁agenda
▁presence
by
ales
ocol
ogen
▁Organ
▁leads
▁fib
▁users
▁agreed
▁shared
▁machines
▁Karaganda
▁determining
▁individuals
▁delegation
utor
▁pen
▁prote
ghan
▁ath
▁nut
▁clearly
▁millions
▁da
▁ties
▁fundamental
▁foot
▁suff
▁campaign
yzyl
▁mathematics
vey
▁conducted
▁definition
▁rock
▁weapons
▁Asian
▁bed
▁unf
▁status
▁corresponding
iant
zy
ipped
▁guys
▁muse
▁evolution
▁doctor
▁giving
▁concern
▁doctors
▁Cal
▁West
▁adapt
▁constitution
4]
▁Im
▁Kore
uations
head
▁registered
▁nom
▁prec
▁Ac
▁launch
ON
▁truth
▁audience
▁languages
▁Vice
itarian
▁invited
70
▁Germany
40
▁reduction
ES
▁sequ
▁games
▁rapid
▁Belarus
▁provision
ingu
▁pet
▁confir
▁museum
▁impossible
▁crim
▁computers
lor
room
employ
▁decreased
▁July
▁introduce
▁constantly
▁alternative
gram
▁miss
▁useful
▁Sw
▁webs
▁drugs
▁mainly
hold
▁iron
mitted
▁tests
▁compar
▁series
odar
▁die
▁ice
▁veget
▁written
▁Me
▁differential
ason
▁Science
▁religious
▁discovered
▁Col
▁express
▁structural
iring
▁breat
▁profession
ounced
▁operations
▁agency
▁follows
▁tourist
▁algorithms
▁competitiveness
ook
rel
▁Int
▁Majilis
▁fig
▁conver
▁divided
▁presidential
acks
▁virtual
▁wrote
avlodar
▁Expo
▁sand
osy
▁pan
▁san
▁send
▁apprec
racy
▁150
▁freed
▁mixture
▁researc
▁Institute
▁listen
▁African
udden
▁host
rage
ildren
iced
▁belong
▁bottom
▁biological
▁seems
▁behalf
▁regular
▁dedicated
▁sleep
▁Act
▁wish
ometric
▁secret
kent
unch
▁eat
based
▁accum
▁reveal
▁conclusion
▁town
▁Indust
▁warm
▁mission
ricts
▁hundred
▁selection
being
▁efforts
▁secondary
▁collection
▁aw
zbek
▁pil
▁remote
▁finding
▁intellectual
aur
time
▁transp
▁intelligence
ollow
▁stim
▁amend
▁morning
▁Director
▁reading
▁location
ny
▁Commission
▁regulation
▁fest
ificial
▁integrated
▁Road
forcement
▁29
▁wat
▁estim
▁glass
▁Afghan
ances
▁widely
▁[1]
▁anyone
▁Yes
▁sem
urance
▁court
▁zones
▁usually
▁Keywords
▁whatever
▁Federation
▁bey
▁Aust
▁gone
▁grew
▁skin
▁occur
▁entities
omp
▁immed
--
.0
▁Amb
▁acceler
▁counter
▁architecture
▁OF
▁radio
▁mig
▁beyond
▁raised
▁essential
mon
▁mode
▁drive
▁vision
▁emergency
▁throughout
uls
light
▁April
▁sitting
▁November
▁productivity
▁drink
▁pipel
▁explained
▁negotiations
▁gard
▁engaged
isf
iated
▁colleagues
10
▁Most
▁2013,
▁atmosphere
▁veterans
▁mas
25
ches
▁aware
▁critical
ims
▁ut
▁Part
itable
▁organic
▁supported
▁corruption
▁repe
▁becoming
yzylorda
ae
▁kil
▁lat
overy
▁command
▁separate
EC
iers
orage
▁asking
▁consequ
▁sym
▁previous
vis
▁actual
▁street
▁wouldn
▁review
▁talked
▁examples
ips
▁despite
▁formula
▁reducing
hesis
▁Fund
icians
▁settle
▁transit
rum
rist
▁zero
▁assign
▁Lat
▁consumer
▁nit
▁pull
▁thanked
▁concepts
▁turnover
▁wonderful
asp
usic
▁persons
alt
▁Senate
▁focused
▁violence
vere
ata
▁3,
▁evalu
baev
▁favorable
▁installed
▁nar
▁uses
▁college
▁upcoming
▁Mon
▁har
▁diagram
▁harmony
▁identify
actions
orption
▁topical
▁stressed
rix
▁pi
mola
▁credit
▁electro
▁version
▁schem
▁aspects
▁minimum
uk
▁multi
▁causes
▁chance
▁however
heres
house
▁broad
▁45
▁App
▁conven
▁guests
▁Economy
atization
▁component
▁methodological
orrow
▁resource
▁theoretical
amm
▁dry
▁web
▁Energy
▁running
▁announced
yle
▁CO
▁athlet
▁chamber
▁districts
▁highest
▁ine
▁August
ordinary
ards
king
▁phil
▁reven
ription
▁telling
▁coefficient
What
eces
▁eye
▁forecast
▁Ambassador
pri
▁cooper
▁holiday
▁Table
▁described
▁producers
▁institutional
▁administrative
5]
ured
▁honor
inating
▁quarter
▁bacteria
▁sounds
atically
▁revolution
▁zhol
▁creates
sk
▁More
▁sudden
▁association
▁Organization
pper
▁aren
▁release
▁criminal
▁residential
▁round
▁sides
▁Follow
▁measuring
▁approaches
▁fert
▁storage
▁writing
▁observed
▁cogn
▁east
You
▁Many
▁detect
rown
▁armed
▁appropri
mar
governmental
▁oxid
ortunately
abet
▁brid
▁effectively
dom
▁adj
▁2010
▁knows
ibilities
▁reaction
osc
vered
▁tiny
▁photo
▁abroad
▁deposits
ider
arding
▁lived
▁dangerous
▁literally
ping
ansion
▁thick
▁chemistry
▁departments
▁associations
▁died
▁metals
▁ancient
▁database
▁Following
-3
▁whose
imov
▁optimal
▁rule
▁daily
▁combat
▁plastic
▁capabilities
▁voc
eds
earch
▁tend
▁index
▁particularly
▁Le
▁attack
▁artificial
ari
▁defense
▁justice
▁competence
ped
oted
▁acts
▁disp
▁below
▁phosph
▁Pavlodar
mony
osis
▁Goog
▁earlier
▁sen
▁summer
▁journal
industrial
▁indicated
▁electrical
bru
▁mort
▁signals
olit
▁tit
▁upon
▁Uzbek
▁virus
▁consult
▁serious
▁ceremony
▁humanity
▁calculated
rupt
▁banks
ocks
atell
▁hydrogen
ambyl
bruary
▁website
▁Kyzylorda
rs
kaz
map
▁rare
▁Trans
▁track
▁32
iling
▁moved
ultural
ologists
imb
riers
▁covered
▁incredible
▁heavy
▁staff
uration
▁complic
▁functional
lymp
▁Cont
▁Another
▁settlements
▁0,6
▁JSC
▁sites
▁density
▁Us
▁feet
▁mental
▁presentation
uz
enses
▁hero
▁System
8,
water
▁note
▁output
▁volunt
▁supporting
▁consciousness
▁representative
lig
isms
▁passed
▁strugg
▁appoint
uable
▁measurement
▁Plan
▁appropriate
▁rid
▁river
▁identity
ores
▁guess
▁underway
▁vehicles
▁spiritual
band
▁song
ativity
▁metall
▁awarded
5%
▁ten
▁drew
though
▁Program
rench
ymkent
▁Invest
▁expansion
amin
cules
▁mast
istical
▁Uk
▁pump
▁distributed
lus
▁Each
▁risks
▁motion
▁commissioned
▁Even
▁baby
▁manag
▁freedom
▁hall
▁Turkey
▁benefit
▁agencies
▁neighbor
▁entrepreneur
hetic
▁taught
rem
▁fat
▁Google
▁journey
▁Bl
eter
▁Arab
▁ratio
▁amendments
▁brother
▁playing
▁dynamics
irt
antic
▁pension
▁trained
▁construct
▁brand
▁loans
▁uranium
▁quantitative
val
known
▁lesson
▁balance
▁comfort
▁trees
ygen
▁charge
▁terrorism
▁sus
iform
▁caused
AS
▁[2]
ports
▁advantage
▁cognitive
▁congratulated
2,
▁fa
▁mm
▁furn
▁attracting
▁successfully
▁fruit
▁literature
▁agro
▁sett
▁offer
▁Day
▁gal
Music
▁pieces
▁contains
verty
▁stra
▁thus
▁molec
▁steel
▁poverty
ara
urt
ought
▁fill
▁organize
▁emphasized
▁pav
▁custom
back
▁nice
▁expanding
▁disabilities
ius
▁400
▁Method
▁career
▁starts
▁textbook
▁Western
▁mention
▁Right
▁figures
▁competitions
Well
obody
▁fine
riotic
▁German
▁satell
▁certific
▁Where
▁genetic
▁finished
ley
▁astana
▁begins
▁screen
▁expense
▁experimental
anch
▁Mat
▁late
▁format
▁patterns
▁relationships
▁cycle
▁Defense
▁Islamic
▁son
▁unemploy
izon
▁mine
▁page
▁wave
▁bigger
▁portal
▁himself
▁particles
▁Afghanistan
▁participating
▁Mus
▁dri
▁nine
▁Akmola
▁phenomenon
▁promote
▁permanent
▁humanitarian
ha
gra
etus
uries
▁star
osystem
secutor
▁waiting
▁renewable
iqu
rest
iences
▁Social
▁satisf
▁spheres
▁registration
cont
▁expanded
▁enforcement
▁experiments
kal
work
▁cryst
▁motor
▁wheat
▁Academ
imensional
▁recognize
umin
▁cru
▁Yeah
▁noise
▁accuracy
▁friendly
load
▁oppos
▁characterized
▁1)
▁II
▁Ko
▁courses
anged
▁race
▁pavil
▁route
▁destro
▁except
▁Zhambyl
▁improved
▁wealth
▁judicial
▁presents
▁conducting
umes
▁Maybe
▁closed
▁harmful
▁passenger
▁installation
100
▁fourth
▁matrix
▁decades
▁operator
▁perspect
7,
▁camera
▁mountain
raz
uge
umb
▁ign
ference
▁citizen
▁Mang
▁lose
▁rates
▁combined
▁criteria
▁statistics
rly
cell
pped
▁roll
▁serve
▁remains
▁mis
▁brief
▁greater
▁investigated
▁Az
▁Sum
iately
▁afford
ball
▁fol
▁chain
▁desire
▁disapp
▁prison
▁athletes
▁reserves
▁insurance
ument
▁crops
▁putting
▁specified
▁interactive
▁Last
▁Second
▁respond
▁possibilities
ns
▁Mr
istau
▁miles
▁store
▁Chamber
going
▁vent
ulture
outhern
▁exports
▁evaluation
▁organizing
rim
▁Okay
▁robots
▁equipped
▁universal
▁core
▁audit
3,
▁Em
▁dog
▁oxygen
▁Ser
▁Cong
▁feature
▁priorities
hors
▁doub
▁cloud
▁motiv
▁neural
▁interview
▁absolutely
ta
carb
▁capt
▁stars
imately
▁layers
▁consumers
oll
▁tree
▁names
▁shall
▁congress
▁rational
▁subjects
ster
uman
▁Car
▁Med
▁tot
lands
▁cold
▁isol
▁biggest
▁discover
rian
▁wild
▁compounds
▁Kyrgyzstan
ube
▁showing
▁employed
▁certainly
▁promising
▁consideration
▁2017.
▁cluster
▁Mar
andom
▁faster
▁original
▁apartments
▁immediately
▁Art
▁vul
aired
ether
▁mist
▁neur
▁circuit
▁politics
level
▁obtaining
hmet
▁din
▁kill
▁streets
▁AI
▁[3]
▁Christ
▁notice
▁window
children
more
▁kaz
allel
ometers
▁physic
▁biology
▁everywhere
▁31
▁encou
▁prosper
▁expensive
jan
▁weak
▁obser
▁democracy
▁incredibly
▁spectrum
▁readiness
4,
▁Olymp
▁steam
▁France
▁branch
▁winter
▁favorite
apes
▁orient
▁valuable
IT
ST
olve
▁diss
▁Based
▁farms
▁shell
▁combust
▁recognition
▁Ob
▁Nur
right
▁Inst
▁arrived
▁seminar
▁Research
▁standing
▁scientist
▁situations
▁innovations
iary
osity
▁door
▁raise
▁daughter
▁beneficial
abled
▁foundation
▁qualitative
6,
iox
▁intens
▁reliable
▁procedures
▁operational
▁pharm
▁protocol
▁sections
▁consequences
▁transformation
des
▁wants
Kazakhstan
▁regulatory
▁determination
▁tick
▁prepare
▁governments
6]
▁Anal
▁speaking
▁reconstruction
▁oblig
▁offic
▁bright
▁display
▁molecules
omb
hedu
▁hit
▁Latin
▁French
▁easily
▁impetus
▁communications
kes
▁mal
▁vacc
▁analy
▁vulner
▁purchase
▁recognized
▁Spec
▁double
▁methodology
oz
ript
vent
▁mel
▁upper
▁ore
▁sch
otion
rates
▁closely
▁smaller
▁researchers
ancy
care
cles
▁Per
▁neut
▁fixed
▁minds
▁answers
▁creativity
▁previously
iability
liminary
▁replace
▁ion
▁meant
▁older
▁height
▁February
▁diplomatic
empt
▁Public
▁artists
▁positions
▁eventually
▁Inc
▁annually
inter
▁helps
▁helped
▁spring
▁farmers
▁magnetic
▁experiences
stanay
▁talks
▁pictures
▁Mangistau
▁Pat
▁hop
▁Serv
hedule
▁polic
▁Thanks
▁random
roduction
▁conflict
▁extraordinary
fra
ria
iles
▁bra
▁rise
▁assets
▁inj
▁worse
▁destru
iyev
▁fit
▁slight
ographical
▁extremely
▁significance
vert
▁depth
▁letter
▁affects
▁33
▁fer
▁released
▁emissions
▁practices
aspian
▁Inter
▁avoid
▁moral
▁gender
rible
▁atom
▁River
▁assum
▁champ
▁graduates
▁egg
▁fed
poses
▁flex
▁collected
▁indicates
ada
▁36
▁agg
idity
▁combination
inct
▁drop
rations
▁summit
▁tariff
rogen
▁haven
▁female
▁larger
▁ax
▁bridge
▁remind
▁academic
ifications
▁issued
▁Academy
▁collective
▁0,7
atics
▁wear
ologist
▁stabil
MS
airy
oles
phone
stood
▁Coop
▁shar
▁candidates
We
rees
▁[4]
ratic
ishing
▁ended
▁solved
▁trends
▁producing
▁monitor
▁polymer
▁Shymkent
▁multiple
▁religion
▁75
▁sugar
▁damage
▁landscape
ER
ama
aren
iological
▁advantages
%)
TION
alled
▁loved
▁controlled
▁Like
▁tells
▁touch
▁horizon
▁walking
▁Dr
▁Joh
▁Sim
▁boy
oples
▁timely
▁characteristic
aim
▁chair
▁extrem
▁emotional
AT
▁Tok
▁grav
▁kazakh
▁optical
▁totally
▁parallel
▁authority
▁happiness
▁dependence
ux
▁Ent
▁band
▁floor
▁authors
▁schedule
aker
ieving
▁plays
▁massive
▁continuous
how
used
▁Law
▁2050
anging
▁microsc
▁watching
ened
▁slag
ieties
▁spaces
500
erson
▁Prot
▁turb
▁purposes
▁600
▁Two
▁Those
▁pilot
▁south
▁driving
▁adoption
▁friendship
IC
uil
raine
▁boil
▁interp
▁owners
▁primarily
bekov
▁truly
▁qualified
▁pul
▁angle
▁invent
▁payment
▁uniform
▁Spe
▁rocks
▁philos
ulations
▁integral
▁statistical
▁category
▁complicated
▁perspective
▁transferred
uled
▁wire
▁garden
▁extract
▁complexity
tage
▁kept
raction
▁decade
▁computing
▁vot
▁alph
▁entered
▁package
11
90
▁sky
▁Mayor
▁operate
unications
ogy
▁hus
▁grown
ulating
urement
▁automated
▁combustion
▁bea
▁dram
▁trial
osm
roc
rael
▁Geor
▁onto
orders
▁chrom
orthern
▁convenient
▁4,
▁Any
oking
▁Korea
▁begun
ologies
hel
▁dro
ander
▁loan
▁2015.
▁manage
▁Kostanay
▁preliminary
IN
spe
▁cargo
▁crime
▁grant
▁supposed
▁determines
▁prevention
uan
▁Cor
▁Don
▁diox
▁rein
▁revealed
▁photograph
ems
▁crazy
▁forget
▁honest
▁scheme
▁victory
▁abilities
▁recommend
Oh
state
▁Otan
▁fing
▁2016.
▁describe
-4
Th
anov
wise
▁City
▁Such
▁jump
▁male
▁wife
▁sulfur
▁involve
▁obvious
▁greatest
▁considering
fin
arat
▁scan
▁season
▁deliver
▁explore
▁fulfill
dimensional
▁ep
sect
▁Are
aijan
▁diagnost
▁measured
▁villages
▁preschool
▁consisting
▁und
▁cart
▁dairy
erbaijan
▁forming
▁peoples
▁tiss
▁teams
▁forced
▁refuge
▁dioxide
▁Agricult
▁fraction
▁straight
▁transmission
▁Ant
roduct
▁paint
▁saving
▁library
▁facility
ica
▁IS
▁vib
-2050
ashing
istant
stance
▁recre
▁theme
▁Uzbekistan
▁Cooperation
▁communicate
▁den
▁Mars
arency
▁flows
position
▁instruments
▁Mal
▁mac
agine
anches
▁decree
▁Industry
▁differences
oscow
▁mand
▁movie
▁fertil
▁diversity
▁simulation
▁34
▁Who
▁opposite
▁Gu
aling
rition
▁effort
▁switch
▁excited
▁equality
▁television
▁pou
▁rent
▁brains
▁destroy
▁socially
▁ecosystem
ino
lies
rating
▁closer
▁distingu
▁variable
▁establishment
IV
▁Mu
▁TV
▁Work
▁hair
▁adjust
▁ethnic
▁nav
▁rub
▁bread
▁waves
▁easier
▁compass
▁describes
▁Mic
iding
▁protein
▁Investment
▁kilometers
OR
yp
ze
joy
free
liance
unction
▁speaker
▁Internal
▁aircraft
▁analytical
▁understood
▁generations
▁Oh
mary
▁gross
▁herit
▁stick
▁artist
▁Culture
21
▁beauty
▁passion
▁examination
▁(3
scill
▁finance
▁Business
▁bringing
▁Entreprene
▁hyp
ffect
▁Your
▁meth
▁occurs
▁husband
▁categories
oes
gent
▁sale
▁irrig
▁nobody
▁mutually
▁intensity
▁reference
▁expression
ogenic
▁twice
▁topics
▁updated
▁surround
▁exploration
gypt
wide
▁sac
▁continues
▁Pet
▁Sem
erent
▁sets
▁resolution
▁cm
▁signs
ochemical
▁preparing
▁transparency
ij
▁37
requ
▁Due
▁vast
▁affairs
▁concert
▁letters
sp
ils
▁Imp
gment
▁Sing
▁stock
▁ancest
▁capable
ondon
▁join
▁worry
▁cement
▁heritage
▁sufficient
ronic
▁Assoc
▁flight
▁rating
▁survey
▁sensors
▁somewhere
▁experienced
▁esc
▁flood
▁genes
▁classification
▁organizational
▁Tal
ivate
▁masli
▁powers
▁regime
▁analyze
▁traditions
▁rain
▁vari
▁ahead
▁indeed
▁ecological
▁difficulties
▁gain
▁sched
▁Akhmet
▁define
▁minute
▁willing
▁accepted
▁exciting
dra
orial
owing
▁younger
In
conn
enov
agint
▁club
▁resid
▁circle
▁analyzed
▁accounting
▁compliance
▁constitutional
ams
▁250
aceut
▁wood
▁Roadmap
agintayev
▁kindergartens
▁Sm
iang
▁lic
▁shop
▁enjoy
▁input
▁former
▁sexual
▁stream
▁funding
ajik
▁hole
▁decide
▁sister
▁worksh
▁Americans
▁continued
off
▁Web
erals
▁galax
▁oscill
▁preserv
▁migration
7]
abi
▁nearly
aceutical
▁execution
▁London
▁filter
▁microb
▁Entrepreneurs
olid
▁ends
▁grade
▁Instead
▁deposit
▁treated
▁remaining
15
ka
▁wa
char
▁Red
▁ampl
apital
▁Imagine
▁listening
▁deformation
▁geographical
EM
nic
▁King
▁Ukraine
▁reserve
aste
▁joy
▁north
▁shift
▁sensor
▁tested
▁neighborhood
▁1.5
▁Board
▁plane
▁explos
▁killed
▁psychological
▁identification
rov
enty
▁fle
razil
▁Their
▁error
▁degrees
▁inspect
▁obviously
▁intelligent
uing
cohol
elect
▁Elect
▁expos
▁wished
▁British
onds
▁Ken
▁Rel
▁glo
▁Under
▁cyber
▁signing
▁stopped
▁theater
▁pipeline
▁policies
▁suddenly
▁sad
▁2011
▁played
▁discipl
▁matters
▁eliminate
▁hydrocarb
kz
gery
mark
▁era
▁ions
▁walls
▁Moscow
▁akimat
inations
▁sequence
▁mortality
DS
aust
rons
▁liv
▁row
▁swe
idden
▁army
▁silk
▁alive
▁Israel
▁pavilion
▁submitted
▁certification
St
ont
▁Det
▁Sea
▁nur
▁vote
▁Egypt
▁branches
▁recorded
▁connections
ked
▁42
▁pra
▁visc
▁proved
▁factory
▁barriers
▁Azerbaijan
AN
faces
▁feels
▁placed
▁exercises
oir
▁IT
▁fif
▁susp
▁thin
▁blind
▁entry
urities
▁broken
imensions
▁drilling
II
wh
▁math
▁yell
erences
▁origin
▁winners
▁complexes
▁reporting
▁productive
▁vocational
▁description
comm
▁mer
uting
▁fasc
▁thickness
▁lad
ancing
▁birds
▁Caspian
▁cutting
▁clinical
bra
rors
▁wel
board
▁filled
AR
EU
▁IN
▁bul
▁lessons
▁everyday
▁phosphor
▁background
▁Gree
▁fant
▁rank
▁scen
▁Among
▁novel
▁explan
▁volunte
▁contributes
enn
aria
atur
▁[5]
ameter
porary
▁2018,
▁hearing
▁majority
▁prosperity
ilit
▁sou
rency
▁2019
▁flat
▁sick
▁dance
▁fertiliz
▁satellite
▁Technology
onic
▁unp
▁proc
▁spot
▁anybody
▁achievement
▁od
aped
▁advis
▁Brazil
▁Analysis
▁Congress
▁email
▁Finance
▁voltage
▁healthcare
▁functioning
fess
▁wis
making
▁enorm
▁fiber
▁batter
▁livest
▁vector
▁essentially
roud
▁Alex
▁failure
▁centuries
▁receiving
ste
▁Her
▁der
▁salt
▁harvest
▁intended
▁payments
▁Tajik
▁Austral
▁drawing
▁repeated
▁objective
▁importantly
▁pace
othing
tenance
uilding
emic
▁dust
▁therap
▁festival
▁slightly
ef
▁mid
▁pus
uments
▁anymore
▁literacy
▁fr
▁sharing
▁variety
ded
cial
erek
▁trou
aratus
urgical
▁knowing
▁seconds
▁parameter
▁destruction
▁Dan
▁pal
vance
▁Hung
▁clar
▁perm
▁incom
▁facing
▁moments
▁2)
▁cast
▁grid
▁server
▁logical
▁neurons
▁quantum
▁affected
▁instance
▁livestock
▁underground
lad
▁44
▁il
▁nerv
itness
orient
▁shock
▁alumin
▁contam
▁divers
▁volumes
▁although
▁differently
etov
habil
▁John
▁obst
▁2014.
▁proud
▁attempt
▁register
▁supports
▁pun
▁managed
▁strange
▁phenomena
▁dimensions
EN
▁kg
assy
akers
▁apparatus
▁pharmaceutical
aud
▁Ne
▁prize
▁Service
▁processed
insk
▁calls
▁parad
▁alphabet
▁Environment
Ch
set
▁(4
enced
▁pays
▁soils
▁alcohol
▁request
▁targeted
▁automatic
▁compassion
▁specialties
▁preservation
ipal
▁Har
▁tun
apore
▁shot
▁trib
▁weren
▁beings
▁options
▁nazarbayev
▁smell
▁noticed
▁survive
▁channels
▁contracts
▁systematic
▁48
rier
▁Bas
inates
▁Using
▁routes
▁typical
▁preserve
▁mentioned
▁probability
kar
pat
▁38
▁zh
▁Note
▁grat
▁engage
▁remark
▁operators
▁instrument
▁55
▁Ber
▁forth
▁southern
▁tourists
▁interface
▁coordinate
▁protecting
▁represented
nam
eper
icip
▁198
▁tro
point
▁teen
▁Trade
▁faith
▁manif
▁adults
▁accident
▁managing
▁household
▁promotion
▁convention
▁correspond
▁professionals
att
umn
ingly
▁Data
▁perce
▁Agency
▁choices
▁Japanese
▁revenues
▁maintenance
xic
▁Sil
▁Look
▁homel
▁pages
▁cataly
▁aviation
▁servants
▁spending
▁textbooks
▁specialist
▁legalization
▁belt
▁coast
▁match
▁remov
▁throw
▁Strate
▁Britain
▁silicon
▁philosop
▁comparison
▁reliability
▁bunch
▁intensive
▁kindergarten
▁schoolchildren
▁His
▁schol
certain
▁circum
▁offices
▁nitrogen
arr
win
▁mo
▁"100
▁School
▁brings
▁mostly
▁savings
orruption
▁hospitals
▁translation
agro
view
▁declar
▁printing
▁detection
▁Management
▁Agriculture
▁43
▁99
itter
ogene
▁Face
▁vice
▁cheap
▁engineers
▁depression
▁comfortable
EO
▁burn
▁curve
▁assigned
▁feedback
▁objectives
rust
heric
itely
▁epid
▁pair
▁habit
▁belief
▁recording
▁automation
▁completion
fol
▁MP
▁disabled
▁Constitution
resh
▁fir
▁crow
▁pure
▁equival
▁recovery
▁greenhouse
▁vulnerable
AEU
osen
▁0,8
▁pig
ifically
▁autonom
▁nutrition
▁synthesis
mal
▁El
▁Main
▁ship
▁Modern
▁cattle
▁deeply
▁produces
▁reflected
▁absorption
▁temperatures
▁Kh
▁Think
▁gases
▁rapidly
▁currency
▁messages
▁confident
▁procurement
▁46
▁alt
-2020
▁Phys
▁anth
▁flag
▁swim
ivered
▁toler
▁Turkish
▁passing
▁terrible
▁confirmed
▁relevance
▁Mil
essel
▁turning
▁drinking
▁corporate
▁scheduled
erion
▁paying
▁soldiers
▁geological
12
▁Nig
▁obstac
▁absence
▁delivery
▁invested
▁medicines
▁conservation
%),
olic
▁ban
▁bio
▁exh
▁hub
▁Char
▁vide
▁sales
▁advert
▁infect
▁amounts
▁helping
▁proport
▁somehow
▁certificate
▁purs
▁apart
▁facts
▁illeg
▁Muslim
▁Sports
▁clinic
▁anywhere
▁appeared
itor
urch
▁120
▁boys
▁mixed
oriented
▁airport
▁mothers
▁communal
▁thoughts
AC
rium
▁las
place
▁resc
▁Other
▁catch
▁leaving
▁threats
▁weather
▁diameter
▁totaling
▁professor
habilitation
▁corporation
▁corresponds
ograp
▁mamm
▁facilit
▁attracted
▁delivered
▁Association
▁65
▁HIV
atern
▁coff
▁push
advant
apping
▁navig
▁norms
▁ongoing
▁emotions
▁entering
▁exercise
ifts
▁Ste
▁thr
▁Four
▁gran
▁Which
▁faces
▁seats
istries
▁blocks
▁gradually
▁oxidation
▁introducing
sky
oses
▁Cre
linear
▁akims
▁mouth
▁sorts
▁Middle
▁astron
▁minerals
▁pressing
▁Singapore
14
lined
umber
▁2000
▁Scient
▁commit
dr
▁neu
acing
gments
▁insect
▁trading
▁protected
▁reception
▁ambassador
AL
▁00
ltry
▁Sam
ikova
▁latest
▁vessel
▁surgery
oks
oral
ogram
puter
▁phones
▁triang
▁walked
▁robotics
▁continent
▁estimated
▁performing
▁parliamentary
icks
rich
▁0,3
▁aer
▁cub
▁dad
▁minim
▁rooms
▁driver
▁radical
▁uncertain
ruk
▁gene
▁Canada
▁Turkic
▁stored
▁planets
▁feelings
▁exchanged
▁guarantee
▁Tajikistan
▁availability
iled
▁tum
▁pref
▁Special
▁substance
▁Op
▁(1)
▁aid
▁laid
▁stone
▁Facebook
▁relation
▁marketing
down
▁Big
▁Dis
▁Shu
▁cad
▁giant
▁sharp
▁please
▁coverage
▁enormous
▁restrict
▁While
▁chief
▁moves
▁carrying
▁invented
▁reflects
gn
How
▁Er
athy
▁Aut
▁eggs
▁lies
olving
▁atoms
▁magic
▁babies
▁propag
▁believed
▁sensitive
▁relatively
▁disciplines
▁congratulate
ship
arabi
othes
▁forg
ultane
▁judges
▁Results
▁raising
▁subsequ
▁internet
▁resolved
▁variables
mers
▁mos
▁reb
▁tim
ureau
▁attacks
▁overall
▁victims
▁accurate
▁ordinary
▁observers
▁respectively
▁bag
▁smo
▁prove
▁lights
ometimes
▁missing
PP
▁gun
luding
▁desert
▁strict
▁reactor
▁calculate
yc
lin
----
hand
▁1000
▁lung
▁compl
▁worst
▁collabor
ya
-10
itz
rand
▁700
▁Supp
▁cash
estyle
▁About
▁chosen
▁Summary
▁elected
▁manager
▁vehicle
▁boundary
▁cultures
▁profound
▁existence
▁gratitude
▁architectural
la
▁Di
roph
stra
▁10,
ATION
atial
▁fell
▁Green
▁wheel
▁corrid
▁incent
▁circles
▁inspired
▁manifest
▁reservoir
▁extraction
amed
▁Dav
iment
isher
▁king
▁Italy
▁powder
▁removed
▁witness
▁achieving
▁economies
▁molecular
DP
▁47
▁Park
▁cond
▁homes
▁reaches
▁independently
aks
equ
▁refer
▁Represent
▁designers
▁connecting
▁percentage
▁personality
▁optimization
ucky
▁kin
asion
estan
fraid
iforn
▁Will
▁opens
▁afraid
▁details
▁competent
pet
tic
zen
▁org
ifies
useum
▁poet
▁surve
section
▁option
▁silver
▁Despite
▁reverse
▁examined
▁designing
▁religions
▁containing
▁orientation
▁manufacturers
imp
▁EU
quar
▁adap
▁hate
itions
▁2020,
▁pleas
stances
▁advice
▁contra
▁yellow
▁advance
liamentary
▁celebrate
▁unfortunately
Al
made
rous
soil
viet
▁aim
▁tom
obile
ylind
ashion
inding
▁chlor
▁lands
▁logic
▁limits
ocultural
▁fighting
▁peaceful
▁societies
8]
exp
rau
urred
▁Forum
▁newsp
▁flying
▁poultry
▁proposal
▁champions
▁privatization
▁Met
▁ment
▁coffee
▁gather
▁consolid
▁ton
▁taxes
ifornia
▁colors
▁waters
▁Sometimes
▁subsidies
▁ultimately
▁violations
-5
exic
iber
▁Sun
agers
folio
▁EAEU
culiar
elling
▁2012,
▁stepp
▁Process
▁compare
▁offered
▁interval
▁officers
▁peculiar
▁San
iance
lying
▁arms
otechn
lication
▁institute
▁informatics
▁qualifications
uel
▁mir
▁tub
▁uns
▁dies
iscipl
▁allowing
▁inequality
ita
▁ST
▁sew
▁wid
▁High
▁sending
rological
▁entertain
▁simultane
▁celebration
▁civilization
▁Ed
apers
▁whom
▁fresh
▁patri
▁anthrop
▁emotion
▁carefully
▁organisms
▁equivalent
akov
▁ran
iques
▁tissue
▁mandatory
▁boundaries
▁coordination
ears
▁194
▁800
eding
lines
▁legs
▁stri
▁cylind
▁defect
▁leaves
▁metrop
▁poison
▁served
▁billions
▁fal
▁clic
▁prem
▁faced
private
▁deeper
▁hidden
▁immune
▁rivers
▁unlike
olitical
▁devoted
▁struggle
isciplinary
▁necessarily
▁Step
▁beat
▁ware
acters
▁Women
▁decom
▁skill
▁headed
▁Profess
▁compens
▁graphics
▁ancestors
▁generated
▁ethnocultural
tech
▁cosm
▁yield
▁accounts
▁California
▁settlement
lemn
▁197
▁Ext
▁ing
comes
▁Code
▁envis
ressive
▁profit
▁ecology
▁largely
▁Administ
▁criterion
▁obligations
bl
lets
▁Armen
▁fifth
▁hyper
▁corner
▁errors
▁fellow
▁module
▁akimats
▁scholars
▁discovery
▁characters
▁passengers
▁rehabilitation
oo
iot
orry
▁clay
▁trem
▁yeah
▁infin
▁disadvant
▁appearance
▁(5
asma
ulin
actic
hered
▁debt
▁acids
▁numer
▁oxide
▁prime
▁Indian
▁solemn
standing
opes
▁Khan
▁none
active
▁dreams
▁seemed
▁diction
▁colleges
▁vertical
▁childhood
▁economics
-6
17
urb
▁39
▁fab
▁Once
▁tens
▁Micro
▁cardi
▁trick
▁Museum
▁courage
▁profile
▁overcome
▁preparations
9]
bre
ket
▁bub
▁snow
▁accomp
▁Tokayev
▁reduces
▁organizers
23
▁53
east
part
▁diet
▁empt
▁gent
igital
▁lecture
▁precise
▁northern
▁movements
▁regardless
▁Fl
▁IC
rome
umen
▁[6]
▁gap
▁Vlad
▁Human
▁Mexic
▁nervous
fficients
▁promoting
parliamentary
pread
▁Shan
▁edge
ipline
mother
▁meets
▁saved
▁excess
▁burning
▁extremism
rog
even
▁Map
insky
techn
terday
▁eating
▁combine
idespread
▁estimate
▁officials
▁qualities
▁suffering
▁Protection
No
ls
ups
role
▁lawy
▁Chris
▁furnace
▁possibly
▁regarding
▁declaration
▁recommended
my
orph
zone
eping
riage
▁rice
income
▁Model
▁Roman
▁macro
▁setting
▁evaluate
▁hardware
▁returned
▁atmospheric
▁politicians
kov
▁bak
▁fort
ilation
▁Soviet
▁boiler
▁courts
ditional
▁visible
▁cleaning
▁Turkestan
▁nursultan
▁supplement
▁techniques
▁vegetables
▁fertilizers
▁foundations
8.
ET
▁Sup
▁biom
▁crus
▁mayor
▁nodes
▁wells
▁atomic
▁aluminum
▁intention
▁establishing
sis
ulum
▁suc
▁plot
▁antib
▁inner
▁borrow
▁island
▁defines
▁illegal
▁applying
▁deepening
▁appreciated
▁maintaining
▁recommendations
ibek
heast
▁roof
imedia
iration
▁narrow
▁videos
▁Supreme
▁restaur
▁rotation
▁sciences
▁fantastic
▁democratic
▁remarkable
▁widespread
▁conversations
imir
▁2.5
▁Its
▁maps
▁score
aiterek
▁lending
▁Only
▁Design
▁offers
▁retail
▁symmet
▁borders
▁records
▁catalyst
▁lifestyle
▁coefficients
tra
▁Dem
roleum
▁Before
▁sovere
▁tremend
aparbayev
▁painting
▁tomorrow
tt
hab
wood
▁films
▁absorb
▁curric
▁methane
▁unknown
▁awareness
▁vit
▁links
▁recip
▁attrib
▁commod
▁gravity
▁unemployed
ras
▁54
chen
ometry
▁invis
agnetic
▁10,000
▁smooth
▁eastern
▁reactions
▁inspection
▁restoration
opy
reet
utors
▁Viet
▁approx
▁surfaces
▁diagnostic
Why
atau
rick
▁202
▁2030
▁Cour
▁frame
▁sympt
▁toxic
▁breath
▁compat
▁grants
▁proteins
▁competencies
hyd
ulic
▁Pal
▁god
▁file
▁shut
▁embra
▁shoes
▁failed
▁evolved
▁choosing
▁apartment
▁purchased
▁Technologies
▁metallurgical
▁56
▁MW
▁Air
▁Mass
▁Take
▁colon
▁drawn
▁laser
▁highway
▁humidity
▁neighbors
▁discipline
▁demonstrate
16
oys
alian
▁weird
▁joined
▁symbols
▁considers
▁programme
TO
box
rity
▁dying
▁orbit
▁crimes
▁Turkmen
▁cooling
▁unified
▁articles
▁involves
▁generally
▁resulting
▁measurements
lar
▁Pre
▁Rem
▁Tem
▁tow
▁loop
▁Exper
▁Water
▁false
▁pregn
▁formal
▁spatial
▁lighting
▁occurred
▁employers
mans
▁Vol
▁net
▁okay
▁Paris
▁photos
▁calling
▁proceed
▁revenue
▁prosecutor
It
▁PR
roid
▁Nor
▁lie
▁orph
▁native
▁troops
▁forever
▁perception
▁calculating
▁documentation
..
▁5,
atom
▁dim
▁abst
▁Policy
▁slowly
▁watched
▁entirely
▁otherwise
▁pipelines
▁adaptation
▁ju
▁Tar
▁bot
▁sed
class
▁seed
energy
▁1,000
▁seeds
▁title
▁acting
▁appeal
▁senior
▁subsoil
▁succeed
▁Strategy
▁systemic
▁workshop
▁classroom
▁geometric
▁conversion
▁Hy
▁Sl
anges
oline
▁Paul
▁contrad
▁flights
▁fruitful
▁isolated
▁Australia
▁affecting
▁diffusion
rant
▁explo
▁ideal
▁microc
▁causing
ashington
▁Regional
▁visitors
▁encourage
▁Prosecutor
▁entrepreneurial
uum
▁Tr
rect
▁900
▁ads
▁Swed
▁cott
-2017.
▁rough
akistan
▁Control
▁publish
▁resolve
▁imagination
arov
Video
▁2009
▁Mark
▁items
▁parking
▁accidents
▁irrigation
▁sagintayev
▁neighboring
loc
▁52
▁sod
khats
print
ourism
▁climb
▁lucky
▁magaz
▁scene
vention
▁Vladimir
▁employee
▁strategies
-8
hent
onym
ulov
▁Leg
▁Sar
inery
▁asph
▁copy
▁lamp
▁Three
▁bills
▁bought
▁exists
▁intend
▁Kazagro
▁exhaust
▁sentence
▁subsequent
18
OL
PS
▁:
ney
ype
▁py
onal
▁Bay
▁Sat
redit
▁Oper
igious
▁Labor
▁towns
ishment
▁manner
▁voices
ogeneous
▁territorial
do
kt
▁Val
chest
iture
ouses
▁foss
ometer
▁chick
▁sport
▁tough
▁generate
▁graduate
▁sanitary
▁appointed
anes
▁ben
▁eld
▁elev
▁voting
▁Olympic
▁fashion
▁detailed
▁engineer
▁Washington
▁unemployment
anz
raq
▁PC
▁ISO
▁anx
ethyl
▁Next
▁glad
▁visa
▁zinc
▁button
▁muscle
▁outcomes
▁inspections
▁57
pass
▁haz
▁ped
quarters
▁illness
▁assessing
▁customers
▁decreases
▁technique
▁regulations
gin
▁[7]
▁eve
▁via
▁diam
-2017,
▁newly
▁notes
▁orders
▁organs
▁trains
▁firstly
▁graphic
▁strengthened
asm
▁41
▁85
iade
rane
▁vel
▁bone
lusive
▁coinc
▁empty
▁nucle
▁decline
▁Consider
▁followed
corruption
▁Patriotic
▁worldwide
▁authorized
ana
uses
▁Put
etary
▁dism
▁pool
ipping
▁Plant
▁immig
ogether
▁anyway
▁breast
▁excell
▁banking
▁musical
▁nations
▁geography
GO
▁spl
uality
▁pulse
▁wages
▁dispos
▁petroleum
▁spacecraft
cel
olar
▁cook
ctures
olding
ifferent
▁dispers
▁directed
ID
iat
▁98
kind
uous
erior
icing
▁Mamin
▁stuck
▁temporary
zech
▁Did
aching
aliyev
hentic
▁illust
▁remove
▁Project
▁periodic
▁estimates
▁inflation
▁maslikhats
▁environmentally
-19
uzz
▁95
▁97
▁See
▁hun
▁rac
▁guid
▁spin
zhanov
▁House
▁Innov
▁chose
▁encry
earning
▁losing
▁evening
▁secondly
▁Technical
▁Transport
-7
▁"-
▁Mc
irty
▁ring
▁scre
▁trig
▁holes
▁reject
▁imports
▁Speaking
▁managers
▁suggests
▁horizontal
▁circumstances
ira
soft
▁Bak
▁kit
trans
▁axis
▁nurs
▁shad
▁Korean
▁interd
▁Pakistan
▁emerging
▁concerned
▁extensive
▁ministries
▁provisions
▁(2)
▁Dar
▁bes
dykal
▁Iraq
ameken
▁gained
▁genome
▁harder
▁inject
regional
▁correctly
▁envisaged
▁uncertainty
▁automatically
200
This
ails
itud
▁GDP
▁bear
uclear
▁arena
▁presc
▁united
▁shouldn
▁Mathemat
▁extended
▁indicate
vironments
▁phosphorus
▁transparent
...
▁49
life
ulpt
▁196
▁50%
▁Oil
▁Street
▁battle
▁sculpt
▁shapes
▁analyzing
▁emergence
24
su
osh
▁(6
oust
▁kar
▁blog
▁duty
▁Found
▁alloy
▁funny
▁Global
▁handed
security
▁monument
▁Environmental
ava
ishev
▁Phil
▁plen
arians
▁exped
▁manip
▁Number
▁almaty
▁deploy
▁fairly
▁gotten
▁urgent
▁Methods
▁refugees
▁surprise
▁platforms
▁contributed
▁increasingly
▁GO
▁mg
ishes
▁hack
angers
owledge
▁cameras
▁wearing
▁corridor
▁homeland
2)
aik
urd
▁Ba
hanov
▁intu
▁moon
Farabi
▁cubic
▁moist
▁caught
▁married
▁periods
▁western
▁duration
▁exposure
▁cooperate
▁synthetic
▁coordinates
osa
opic
▁130
▁enem
▁brill
▁tight
▁critic
▁Twitter
▁diverse
▁argument
▁ownership
▁yesterday
▁environments
▁ratification
-9
▁David
▁judge
▁nutri
▁Determ
▁implic
▁complain
▁diplomat
▁intermed
▁terminal
dykalikova
▁microscope
▁advertising
▁propagation
ING
kin
▁TH
▁Che
▁clim
▁Stand
▁sheet
▁veloc
▁assemb
▁finger
▁Armenia
▁coating
▁intense
▁stimulate
▁Industrial
▁multimedia
▁entertainment
ilib
▁ash
kelet
▁myth
ductor
▁hydra
▁plate
▁taste
▁Poland
▁attitude
▁survival
▁accession
▁demonstrated
rd
bul
yna
▁iP
prof
▁gar
rants
▁ranks
▁scales
▁asphalt
▁clinics
▁flexible
▁invisible
▁mountains
▁familiarized
45
rows
▁rig
▁bath
▁fate
▁node
▁laugh
ilibrium
▁propose
▁trouble
▁worried
▁tremendous
run
lete
▁20,
▁30%
etics
▁root
▁sorb
▁panel
▁charity
▁encoura
▁polling
▁selling
▁warming
iferation
▁covering
▁mixtures
▁molecule
▁reaching
▁seminars
▁creatures
▁tolerance
▁affordable
▁journalists
▁decomposition
.3%
▁58
born
ghai
ongol
▁Good
▁bits
ussian
▁aspect
▁dollar
▁protot
▁voters
▁Iranian
▁clothes
▁consent
▁figured
▁approval
▁contrast
▁constructive
▁computational
che
audi
burg
▁Dec
▁Arch
▁Count
▁doubt
▁client
▁divide
▁compuls
▁interpret
▁accessible
▁meaningful
▁reflection
13
▁72
odyn
▁NAS
▁cow
▁que
stein
icking
▁argue
▁quiet
▁covers
▁dinner
ffective
▁monthly
▁restore
permanent
▁replaced
▁container
▁destroyed
▁hydraulic
▁guaranteed
▁partnerships
▁specifically
▁commissioning
uits
ipalat
▁metap
▁suppl
▁vital
odynamic
ployment
▁Italian
▁missions
▁symptoms
mas
▁180
▁lit
▁crew
ousing
related
▁movies
▁plasma
▁ensures
▁players
▁appreciate
▁grandmother
bb
emen
▁cav
gebra
ridge
tyrau
▁tank
okshet
▁Civil
▁Georg
▁modes
▁morph
resents
▁versus
▁essence
▁keeping
▁composite
Ex
▁AC
▁IR
▁enh
▁Stat
istrib
▁2013.
▁lifet
▁metab
▁meter
▁Forces
▁contest
▁filling
▁melting
▁modified
▁optimize
▁committed
▁perfectly
▁attractive
▁headquarters
▁simultaneously
asi
▁6,
▁Kn
iors
icted
▁Franc
▁White
▁minor
ivation
▁correl
requency
ipalatinsk
▁realization
▁investigation
.5%
▁Ec
▁Eth
iology
▁Askar
▁Given
▁Space
▁adult
▁codes
▁stret
ocation
▁extent
▁fruits
▁telecomm
▁authentic
▁photograp
▁invitation
▁accumulation
):
isco
ogas
▁Court
▁Czech
▁falls
reement
▁Mexico
velength
▁cheaper
▁marriage
▁conflicts
▁microorgan
19
2]
oot
van
ager
▁phr
▁arts
▁boat
abetes
aternal
▁convin
▁Natural
▁privile
▁Professor
▁patriotic
▁viscosity
▁represents
▁involvement
▁qualification
▁Communications
▁representation
kol
ayer
andon
▁bird
▁wage
▁Incre
▁Spain
▁grass
▁slide
ultanov
▁diesel
▁multid
▁vacuum
▁financed
▁wireless
▁expertise
▁surprised
▁collecting
▁Administration
sm
ads
atal
atar
ulph
zing
▁Lib
anish
stand
▁uncon
▁estate
▁rising
okshetau
etherlands
▁curriculum
▁surprising
▁accumulated
▁equilibrium
▁publication
▁fundamentally
▁(7
olds
▁Mart
▁Zhum
▁luck
ytzhan
▁2,000
▁corps
▁penet
▁convey
▁secure
▁Univers
▁patriot
ependence
▁clusters
▁chemicals
▁nonlinear
▁separation
▁multilateral
▁zo
▁syn
▁hunt
▁parks
▁polar
▁severe
▁exposed
▁gasoline
▁shortage
▁supplied
▁commodity
▁obstacles
▁specialty
2.
ett
▁7,
▁fro
▁Does
▁Form
▁lingu
▁recyc
▁scope
▁assist
▁Nations
▁tariffs
▁Alexander
▁convinced
▁portfolio
▁signature
▁consistent
gs
can
ault
rence
▁Bang
▁Port
akhmet
▁Syria
▁adopt
▁fluid
▁teles
▁debate
▁summar
▁battery
▁dealing
connected
▁exceeded
▁normally
romagnetic
▁highlight
▁Turkmenistan
▁participated
Wh
.6%
▁""
▁66
▁Alt
▁Tim
enova
▁defend
▁pollut
▁rubber
▁sacred
▁voiced
ineering
▁capture
▁falling
▁touched
▁disappear
▁vegetable
▁championship
Sh
▁64
▁meg
luded
▁Serb
▁style
▁Malays
▁duties
▁rescue
▁telesc
▁checked
▁breeding
▁disaster
▁division
▁violation
▁definitely
ora
▁10%
▁Mukh
▁Wind
▁coat
▁abuse
▁brown
▁hypot
▁opera
▁stead
▁player
▁monuments
▁terrorist
▁autonomous
If
acc
ala
gic
▁195
▁350
▁bomb
▁Black
▁advoc
▁claim
▁dense
▁grate
▁songs
manship
▁Computer
▁mobility
▁narrative
▁guarantees
▁wavelength
▁UK
igen
▁Unf
▁Amaz
▁Sary
▁Vict
▁horm
▁stem
▁buses
▁recru
athered
▁attach
▁interf
▁intensify
▁installations
97
▁3)
▁Bar
▁Unt
atter
inant
ulous
▁gift
▁arise
▁crypt
entions
▁finish
▁fisher
▁heated
▁oceans
▁steppe
▁stores
▁wisdom
▁confirm
▁forests
▁vessels
▁Training
▁suitable
▁classical
▁diagnosis
▁seriously
▁positively
▁transported
asy
ota
ysh
▁Aud
▁Meas
▁puzz
▁wake
iating
▁mosqu
▁roots
lements
▁Mongol
▁capita
▁suffer
▁Akhmetov
▁Shanghai
▁designer
▁opinions
▁breathing
▁ministers
▁preventing
▁sup
green
otive
▁libr
▁peas
▁audio
hematic
▁invite
▁linked
▁Justice
▁stronger
▁velocity
▁impurities
.2%
pon
apse
▁firm
olitan
▁guide
▁hotel
itivity
▁enable
▁fossil
▁replen
▁visits
▁violent
▁diabetes
28
TS
apor
▁Rob
itzer
▁hide
▁fuels
▁fishing
▁promise
▁mistakes
▁Netherlands
▁dynamically
▁problematic
▁hydrocarbons
▁Unfortunately
Is
▁68
▁78
ouds
▁Bul
▁Yet
eness
icide
▁GOST
▁soul
licity
▁2020.
▁craft
▁maxim
▁potat
▁traum
▁width
▁burden
▁worker
controll
▁abandon
▁traject
▁memories
▁receives
▁theories
▁restrictions
▁eu
hyth
▁140
▁Rev
iency
merce
▁euro
▁indu
▁seek
ancial
▁mobil
▁infant
▁losses
▁reward
▁tables
aturally
national
▁adapted
▁crystall
▁educated
▁remained
ologically
▁brilliant
▁evolutionary
",
ropy
essed
▁dual
▁cards
▁folks
▁guard
▁surge
▁teeth
▁fabric
▁relief
▁curious
▁exceeds
▁synthes
▁abstract
▁electoral
▁memoranda
▁Pedagogical
▁circulation
▁commissions
emb
sen
ague
edia
▁550
▁Emb
▁Som
▁lov
etric
ickel
ifier
▁rose
▁monop
▁fibers
▁elastic
▁insects
▁Actually
▁Chemical
▁personally
▁pH
ford
▁bull
▁incor
▁stood
▁synch
patient
▁Compet
▁accred
▁bureau
▁forgot
▁panels
▁submit
▁Through
▁instant
▁jointly
▁plenary
▁conclude
▁integrity
▁conceptual
▁protective
▁Semipalatinsk
mes
▁59
▁73
▁CEO
▁Iss
▁sam
▁pock
▁Saudi
▁sorry
▁Atyrau
▁harmon
▁refers
▁algebra
▁equally
▁answered
▁discussing
▁proportion
▁conductivity
5.
▁74
berg
omer
▁(10
▁1,0
▁Gal
▁chap
▁gram
▁mini
▁pill
▁2011,
▁stops
▁column
▁escape
▁strain
▁observe
▁exported
▁initiated
1]
ami
▁11,
aping
ieves
lysis
▁filt
▁rect
▁sees
Americ
arbage
▁Islam
▁Until
▁fract
▁uncom
▁festive
▁clothing
▁grateful
▁Microsoft
▁additions
▁specially
▁preserving
▁controlling
▁microorganisms
oe
ali
udd
▁EC
▁Ir
.6%,
▁Sch
▁ride
▁2010,
▁agent
▁landf
▁outer
istrict
▁mirror
▁constra
▁veteran
▁attached
▁expenses
▁lectures
▁microbes
▁candidate
▁combating
▁interregional
▁digitalization
▁Cr
iest
rely
utch
▁Den
▁Opt
acent
erman
▁cort
▁wond
orters
▁advent
▁analog
▁biogas
▁medals
industry
▁Company
▁empathy
▁2017-201
▁comments
▁governor
▁investor
▁modernize
.4%
▁hell
▁alkal
▁eleph
▁differ
▁freight
▁orchest
▁privacy
▁gathered
▁instability
▁certificates
ios
haul
inem
▁cha
esome
field
plant
▁corn
▁hurt
▁tall
called
riction
▁cotton
▁unless
▁therapy
▁combining
▁compulsory
▁scholarship
▁supervision
▁characterizing
▁Representatives
6.
▁63
alks
▁Atl
ifted
rooms
▁asym
▁dear
▁keys
▁shel
▁tube
▁Impro
▁airpl
▁fewer
▁neuro
illance
▁deaths
▁magnet
itzerland
▁galaxies
▁instruct
▁lifetime
▁occupies
▁reflecting
▁intermediate
yk
▁SM
▁100%
▁gate
▁storm
▁Corpor
▁Future
▁enrich
building
▁Hungary
▁drivers
▁malaria
▁detected
▁moisture
▁synchron
▁Production
▁explanation
▁contributions
▁gay
gradu
oster
speed
▁bond
▁semi
▁tail
father
uction
▁Again
▁salts
keeping
▁encoun
▁bitumen
▁tension
▁tickets
▁artistic
▁speakers
▁addressed
▁excellent
▁physicochemical
SR
oil
▁67
▁gut
▁hem
▁kha
orous
otent
▁Test
▁cure
▁terr
▁chart
▁static
▁conclus
▁disrupt
▁paradig
▁ranking
▁contacts
▁crossing
▁recreation
▁Id
ompl
▁WTO
stream
▁crack
▁lists
▁tumor
▁archae
▁passes
▁ticket
▁declared
otechnology
▁dictionary
▁philosophy
roliferation
▁potentially
▁requirement
▁economically
SA
Hey
vas
▁Si
▁Add
▁Serge
▁Times
essimov
▁accompl
▁garbage
▁joining
▁planted
▁cellular
▁disposal
▁imported
▁patriotism
▁expectations
▁distinguished
▁informatization
rav
▁Bu
what
▁cab
▁unus
mented
saving
▁grows
▁horse
▁thres
▁radius
▁transf
▁impacts
▁geometry
▁magazine
▁accelerate
▁developers
olf
▁(9
urgy
with
▁20%
▁Way
riend
▁Armed
▁Therm
▁label
▁pasta
▁subsc
atories
ierarch
▁Nation
▁galaxy
▁microd
▁academy
▁farming
aboration
▁talented
▁typically
▁celebrated
▁motivation
▁challenging
▁consultations
ker
▁[3
agan
word
▁Sur
▁mes
▁west
▁broke
▁pounds
▁rocket
▁conserv
▁swimming
▁Agreement
▁naturally
▁attraction
▁membership
▁volunteers
▁homogeneous
▁intersection
▁manufactured
ael
kel
▁Na
▁Zhe
oding
orter
ounce
stage
▁mood
▁myst
asters
▁Power
▁doors
▁mouse
▁Taking
▁rental
▁dischar
▁silence
▁Baiterek
▁newspaper
▁insulation
▁conclusions
▁surveillance
isp
▁Du
olis
▁Max
▁ble
ctive
▁Abay
▁Rich
▁fake
▁weld
▁2018.
▁tunnel
▁England
▁calcium
▁turbine
fficiency
▁2015-201
▁develops
▁animation
▁Foundation
▁pollutants
▁accordingly
▁territories
▁62
ypes
▁Mad
▁Mich
▁puts
▁Kenya
▁frust
▁strip
▁arising
▁flowers
inational
▁Learning
▁drawings
▁particle
▁wondering
▁fascinating
▁concentrations
PR
zz
ann
org
onel
▁rom
▁hasn
▁lens
▁seat
▁wing
▁basin
▁picked
outheast
▁crucial
▁gentlem
▁outcome
▁overhaul
▁visiting
▁accelerated
▁groundwater
▁anthropogenic
Cl
DA
rz
Yes
nom
▁Bi
▁CR
▁id
aeva
▁Est
ariat
while
▁inev
▁Greek
▁disse
▁fluct
▁keeps
▁lunch
▁sulph
▁acoust
▁hazard
▁prefer
▁shares
▁sodium
▁earthqu
▁allocate
▁repaired
▁preventive
proliferation
eal
artz
vard
▁[10
▁hyg
aikon
istor
▁hadn
▁peak
atorium
essions
▁alloys
▁basics
▁grades
▁precip
▁Finally
▁belongs
▁chronic
▁properly
▁Abdykalikova
▁concentrated
brid
▁Bur
eting
▁Bill
itives
▁coral
cedented
perature
▁viruses
▁physically
▁flexibility
▁chairmanship
▁continuation
1)
ago
bay
▁(8
▁Av
onge
▁bicy
▁hung
▁sail
▁3,000
▁bonds
▁globe
▁holds
aikonur
▁adding
▁barrel
▁expend
izations
▁Spanish
▁compact
▁crystal
▁welcome
unctional
▁Yessimov
▁accompan
▁epidemic
recedented
▁telephone
▁Saparbayev
▁regulating
▁experiencing
ilt
.3%,
khat
onia
▁(20
▁Equ
▁Rad
aters
▁Very
▁Zhan
▁swit
phones
urasia
▁Party
▁Would
▁pairs
▁contem
▁flower
▁heroes
▁arrange
▁modules
▁muscles
▁serving
▁spectra
▁sulfide
▁unusual
▁compiled
▁occasion
▁outlined
▁pleasure
▁Kokshetau
▁infection
▁regularly
▁nomination
▁permission
▁photographs
▁replacement
AZ
CO
▁(0
▁05
▁adm
▁inn
pping
▁2008
▁bare
▁slud
▁reson
▁shame
▁traff
▁handle
▁worthy
armament
speaking
▁Article
▁Although
▁defining
▁operates
▁Construction
cm
.7%
▁76
▁Jud
▁asp
▁civ
▁gam
inity
kazyna
▁Integ
▁excav
▁nanop
▁quote
▁rhyth
▁spons
ipotent
▁assume
▁attend
▁marine
▁notion
▁phases
electric
▁appears
▁applies
▁federal
▁mankind
▁permits
▁vaccine
▁carriers
▁monetary
▁shooting
▁versions
▁behaviors
▁furniture
▁generator
▁machinery
▁influenced
▁observation
▁peculiarities
di
▁oh
ulty
uleim
▁Have
▁jail
▁soph
acific
▁irrad
▁overw
▁sheep
▁unite
▁metric
▁wastes
▁worlds
▁Capital
▁Digital
▁Georgia
▁discrim
▁intends
▁praised
▁removal
▁roughly
▁eurasian
▁metaphor
▁sectoral
▁supplies
▁transmit
▁electrons
▁identical
▁traveling
▁Switzerland
▁microcredit
▁conventional
▁electromagnetic
27
De
rot
.2%,
from
▁mira
ewater
houses
▁Games
▁digit
▁elder
▁gifts
▁owner
▁sweet
▁Kazakhs
▁Tourism
▁defects
▁briefing
▁distinct
▁download
▁floating
▁football
▁specifics
▁vibration
▁metallurgy
▁psychology
▁restaurant
▁compression
▁discussions
▁Mathematical
▁unprecedented
mic
▁83
▁CH
▁MS
.1%,
.4%,
.8%,
amil
bert
▁Jew
▁THE
▁tag
cence
itual
▁Land
▁dign
▁stup
ifting
riched
▁array
▁honey
▁shoot
▁valid
anguage
ensions
▁thinks
▁disturb
▁empower
▁observer
▁belonging
▁mechanics
▁searching
▁successes
▁trajectory
▁appointment
MA
sum
▁AN
▁Life
▁Open
▁rely
▁sight
▁golden
▁100,000
▁Finland
▁eternal
▁mosquit
▁updating
▁transmitted
hi
nik
▁1.
▁51
ocal
▁12,
▁Kal
iosity
profit
▁locom
▁proof
▁relax
▁resil
▁texts
erative
▁George
▁arrive
▁besides
▁officer
▁concerns
▁councils
▁quantity
▁spectral
▁broadcast
▁Republican
▁identifying
▁nm
ario
imal
oice
ulas
▁15,
▁nor
inals
urric
▁ores
▁alarm
▁delay
▁loads
▁posts
▁treas
▁agents
▁stands
akhmetov
▁Vietnam
▁shopping
▁evaluated
▁sentences
▁disability
▁governance
▁multinational
dyk
That
akup
fish
real
▁14,
▁Ben
▁[8]
▁oct
sekes
▁Gold
▁beam
▁gall
▁loud
crisis
▁chest
▁inhab
ictions
through
▁clouds
hemistry
▁Khanate
▁killing
▁withdra
▁disorder
▁displace
▁semantic
▁amplitude
▁elimination
▁exhibitions
▁transformed
▁diversification
CA
EL
tem
▁Ur
anth
stock
▁Lead
▁util
▁Study
▁consc
▁drain
ambetov
▁arrest
▁config
▁prosec
▁repeat
▁chicken
▁venture
▁Students
▁generalized
▁collaboration
ikh
rob
▁86
erts
omes
▁LED
▁Lab
▁Lar
apped
ussia
▁10-1
▁bees
▁calm
▁wise
forest
▁sizes
▁Amazon
▁Polish
▁manual
▁salary
▁ensured
▁feeding
▁mistake
▁neutral
▁pleased
▁Baikonur
▁recalled
▁acceptance
▁applicants
▁Corporation
gl
.7%,
ints
▁Sub
▁van
adays
ensus
herent
▁Prize
▁anger
▁embed
▁pride
▁Issues
▁Sweden
▁trials
▁writer
▁engines
▁gardens
▁granted
▁acquired
▁birthday
▁hierarch
▁thematic
▁triangle
▁interstate
▁comparative
ao
nes
▁8,
aksy
izer
▁30,
▁bon
▁plus
Kazakh
▁paral
▁pipes
▁adoles
▁stimul
▁update
▁Studies
▁carries
▁museums
▁undergo
▁customer
▁mastered
▁nanopart
▁dependent
▁graduated
▁libraries
▁classified
▁simplified
▁satisfaction
▁87
▁Gl
-200
adic
▁Bek
▁Use
▁pit
▁ric
eries
▁glac
▁impl
▁regen
matulin
osphere
▁ethics
▁mixing
▁founded
▁friction
▁regulate
▁Conference
▁continuity
▁verification
▁systematically
My
.8%
▁77
ache
alty
icit
▁Mach
▁mail
▁suit
▁Could
▁boxes
▁pyram
▁Embassy
▁Medical
▁fiction
▁organism
▁colleague
▁contained
▁precisely
▁hydrocarbon
▁contaminated
▁dramatically
▁globalization
4.
OD
.1%
och
tar
▁01
lock
obic
▁110
eline
thnic
▁bias
▁bike
▁Class
▁Enter
▁Group
▁clock
▁liked
instein
rainian
▁buying
▁toward
▁targets
▁infinite
▁fulfilled
▁hopefully
▁secretary
▁Everything
▁expedition
▁wastewater
▁disarmament
▁metrological
3)
CS
aked
arby
aure
▁Bal
▁Bro
▁Yer
▁pup
bally
neath
▁aged
▁2019,
▁cable
▁inert
theless
▁awards
▁decent
▁serves
Business
sekeshev
▁breathe
▁robotic
▁brothers
▁whenever
-0
ye
▁EM
.5%,
▁Pop
▁[9]
Table
▁Year
▁evil
etwork
kazgan
▁Extra
▁angry
▁deriv
▁march
▁medal
▁smoke
▁Rights
▁replic
erethnic
learning
▁kitchen
▁pushing
▁Compared
▁deterior
▁eurozone
▁paradigm
▁simplify
▁investing
▁navigation
▁underwater
▁accompanied
▁participant
▁laboratories
▁purification
▁transformations
29
ss
Tur
otes
rets
rance
▁2007
▁dogs
▁unst
▁Never
▁Mother
▁autism
▁ignore
▁nickel
▁winner
▁careful
▁license
▁passage
▁recover
▁reinfor
roductive
▁Together
▁invention
▁sophistic
▁describing
▁attractiveness
Si
UR
ih
bel
era
▁96
▁Mo
▁Calc
▁coup
ithuan
ulator
▁helic
▁funded
▁graphs
▁retain
▁Kingdom
▁chaired
▁lawyers
▁overwhel
▁mastering
▁commitment
▁repeatedly
▁populations
▁sensitivity
▁functionality
AB
.9%
iop
▁AB
▁SD
ulse
well
▁Aks
▁mad
erate
power
▁1990
▁runs
▁Treat
▁Common
▁desper
▁sludge
American
▁classic
▁enhance
▁advisory
▁dramatic
▁focusing
▁openness
▁substant
▁commander
▁perceived
▁expectancy
▁landscapes
▁officially
ML
inov
oded
▁Bre
issov
lings
▁Ange
▁grad
encing
▁bones
▁files
▁analys
▁firing
▁pulled
▁stated
cultural
▁budgets
▁printed
▁apparent
▁treating
▁explosion
▁workplace
RI
▁RK
▁Abd
▁akt
▁blo
▁shr
▁sin
eless
▁recl
▁tact
▁vary
ustain
▁adequ
▁arbit
▁brick
▁trace
▁turbul
▁anxiety
▁masters
▁nominal
▁Einstein
▁Mongolia
▁Particip
▁inclusion
▁occurring
▁radically
▁satellites
▁separately
▁centralized
▁familiarize
MP
▁Je
▁jun
lease
romet
▁2025
▁Mult
▁lake
ethnic
ptions
▁china
▁civic
isition
zkazgan
▁curves
▁degrad
▁ingred
▁orphan
▁parade
▁thread
▁treaty
▁anticip
▁precious
▁pregnant
▁titanium
▁activists
▁correction
▁harvesting
▁mathematic
▁demographic
▁sustainability
RA
za
:00
▁0,9
▁bow
under
▁earn
▁sown
▁stro
▁Putin
▁drives
▁shadow
▁shells
▁Theater
▁dismiss
frequency
▁Everybody
▁preserved
ipotentiary
▁continuing
▁underneath
▁conditional
▁interethnic
//
9.
ESC
aza
▁170
▁Nob
▁Ter
▁mud
▁scr
grade
▁2005
▁gray
ysical
▁weigh
▁nearby
▁wholes
▁Harvard
▁assumed
▁barrier
▁metabol
▁formulas
▁infected
▁Francisco
▁threshold
▁intervention
▁disadvantages
no
gon
▁93
fall
mbek
pring
▁Java
▁wars
rarian
▁click
▁marks
▁Suleim
▁driven
▁multif
▁relate
▁stupid
▁Eastern
▁arrival
▁helicop
▁loading
▁theorem
▁Atameken
▁believes
▁sunlight
▁electronics
▁DB
irds
▁Hig
▁Tom
store
▁1980
▁NASA
▁Prob
▁ackn
▁flux
▁hang
osaurs
▁myster
▁Perhaps
▁Society
▁neurosc
▁circuits
▁macroeconomic
1.
▁Ear
▁dol
▁ven
rator
▁Bulg
▁Third
▁cinem
▁enemy
▁toile
▁usual
comings
expected
▁Holding
▁Everyone
▁adjacent
▁induction
▁regulated
▁facilitate
▁businessmen
▁distinguish
▁Commissioner
▁cybersecurity
▁nationalities
zhe
▁69
▁ru
olat
▁Cop
▁MIT
▁wet
erator
▁Taraz
▁aging
▁alien
▁expon
▁lungs
▁paths
▁ships
▁proven
▁twenty
▁millenn
▁soldier
▁Standard
▁astronom
▁contrary
▁counting
▁requests
▁biometric
▁cooperatives
▁contamination
iel
Tube
tell
zens
▁70%
▁Whe
ician
▁1970
▁Lake
imbayev
keleton
▁church
▁Further
▁educate
▁segment
▁windows
rochemical
▁databases
▁dimension
▁Belarusian
▁simplicity
▁undergradu
▁shortcomings
.9%,
▁Sal
▁USA
▁cup
▁biod
▁insu
▁marg
▁nose
-2017"
▁dress
▁quasi
▁aggreg
▁extend
▁awesome
▁herself
▁modular
▁washing
▁breaking
▁improves
Nazarbayev
▁additives
▁relatives
▁transfers
▁outpatient
▁grandfather
▁interacting
▁trafficking
▁developments
▁recreational
.'
mm
▁q
arsh
ctic
educ
uble
west
▁odd
adium
alley
ordan
▁bell
▁buck
▁folk
▁irre
▁lapt
▁blank
▁Darwin
▁YouTube
▁appeals
▁Children
▁employer
▁restored
▁survived
▁factories
▁variation
▁elementary
col
idu
nex
▁uk
agon
ette
icts
okes
ovsk
▁tap
urban
using
▁Five
▁Stru
▁bind
▁reag
▁wool
arrass
▁Mount
▁guest
▁scary
▁wrest
▁domain
▁patent
▁recept
▁majilis
▁mapping
▁monopol
unication
▁membrane
▁ultimate
▁delegates
▁inclusive
▁legalized
▁suggested
▁surrounded
▁inspiration
▁secretariat
▁interactions
▁stabilization
-30
nty
▁9,
ESCO
aled
▁125
▁160
▁190
▁hal
▁reef
agraph
elting
rosion
▁Frank
▁camps
▁plots
▁stere
▁yeast
inction
▁papers
--------
▁compete
political
▁2014-201
▁acoustic
▁requiring
▁containers
▁researcher
▁Engineering
Do
def
▁84
acco
hour
otal
▁Hon
▁Out
▁cla
adian
itors
liers
manov
▁busy
▁kick
▁1,500
▁hearts
▁Eurasia
▁convert
▁refugee
▁winning
▁compound
▁controls
▁conferences
▁correlation
▁corporations
▁Br
uxil
▁3.5
▁pin
▁Balk
▁ages
▁prox
erated
▁crowd
▁delic
▁tired
▁Valley
uxiliary
▁grounds
▁liberal
▁suicide
▁supreme
▁refining
▁sulfuric
▁translate
▁uncomfort
▁hypothesis
▁Application
Be
ham
nish
▁Mem
▁ate
irect
ormal
▁Time
▁aggl
iatric
▁smile
▁Arabia
▁cheese
▁summed
▁condens
▁dropped
▁neutron
▁pumping
▁roadmap
technical
▁embarrass
▁initially
▁responses
▁separated
▁warehouse
▁architects
▁unexpected
▁Universiade
▁diagnostics
▁forecasting
35
kg
dep
ida
enko
grow
baeva
▁cave
iotics
rovers
wealth
▁Altai
▁ammon
▁anten
▁asset
▁chimp
▁femin
▁pitch
forming
▁fought
▁legacy
▁string
chanical
dykorgan
ependent
▁diamond
▁peasant
▁rolling
▁Remember
▁sessions
▁strongly
▁Depending
▁curiosity
▁disasters
▁wholesale
▁Convention
▁Scientific
▁Scientists
▁encryption
▁incentives
▁continuously
lu
oked
plex
▁GPS
▁blow
▁dots
▁geop
▁slic
▁tack
▁tent
▁Democ
▁Rober
▁lying
▁vivid
▁wound
▁UNESCO
▁hybrid
▁Indones
▁dignity
▁stretch
▁collapse
▁executed
▁scenario
▁somewhat
▁Christian
▁deviation
▁exception
▁maslikhat
▁spreading
▁earthquake
▁filtration
▁internship
▁observations
▁sophisticated
▁standardization
da
▁88
▁Ay
best
arest
ignty
▁Exec
▁Prov
▁pand
▁checks
▁dozens
▁gravit
▁studio
▁closing
▁Sultanov
▁climatic
▁historic
▁interloc
▁isolation
PI
hus
▁KZ
hash
imer
uten
igned
isted
▁tech
▁5,000
▁admit
▁balls
▁beach
umbayev
▁comment
▁ethical
▁mystery
▁balanced
▁captured
▁convince
▁immediate
▁dispersion
▁securities
▁treatments
▁acquisition
▁metropolitan
26
ENT
son
▁()
orsk
▁30-
▁Cau
▁mol
▁tea
human
ucose
▁dict
ambers
inking
▁2020"
▁chaos
orative
▁enters
▁rarely
▁scared
▁speaks
▁transm
mination
▁beliefs
▁doubled
▁singing
▁discrete
▁converted
▁investigate
▁displacement
▁uncomfortable
ura
▁Po
expo
ials
▁ICT
▁Var
▁twe
ubric
▁Myrz
▁caps
▁Colle
▁Dutch
▁Nobel
▁immun
▁legit
▁silic
iratory
▁bubble
▁chains
▁evolve
▁surviv
▁Support
▁insight
▁segments
▁encounter
▁paintings
istribution
▁addressing
▁vegetation
▁Calculation
▁assumptions
▁delegations
▁sovereignty
▁nanoparticles
ukh
▁coc
rying
▁Moon
▁[10]
▁hook
▁plug
▁sacr
▁2009,
▁apple
▁males
▁Serbia
▁fortun
▁occupy
▁quartz
▁retire
▁ritual
▁sowing
▁checking
▁vaccines
▁directors
▁activation
▁explaining
▁ED
▁[4
anta
iano
▁Bab
▁Vis
▁ski
cript
ecess
ijing
▁1960
▁fold
ancies
elines
▁emuls
▁heter
▁liver
taining
tically
▁bottle
▁europe
leration
▁Housing
▁Lithuan
▁existed
▁Recently
▁Southern
▁wondered
▁Hungarian
▁auxiliary
▁involving
▁privilege
▁ecosystems
▁transplant
▁concentrate
aig
wing
ercul
henko
▁Camb
▁[12]
▁bron
ounder
▁Apple
▁Compar
▁freely
▁stones
▁Richard
▁constit
▁embrace
▁Election
▁packages
▁Financial
▁comparing
▁dinosaurs
▁metropolis
▁profitable
▁discoveries
▁occupational
▁peacekeeping
▁Modernization
pa
edge
arity
atomp
▁gaps
▁hors
bekova
▁James
▁Jordan
▁anonym
▁comply
▁devast
▁epidem
▁script
atomprom
▁chambers
▁unstable
▁residence
▁selecting
▁prediction
▁quantities
▁practically
▁stimulating
▁transactions
▁visualization
IM
los
mod
▁CD
ille
psum
▁Del
▁Mom
▁aqu
icago
▁dose
icious
ospace
▁Youth
▁flash
▁trips
▁resort
▁stayed
▁trucks
▁Nigeria
▁mammals
erculosis
▁Physical
▁Sciences
▁disputes
▁grinding
▁proposes
▁batteries
▁disorders
▁nutrients
▁orchestra
▁predicted
▁screening
▁Employment
▁programmes
▁reasonable
▁struggling
▁constructed
▁acceleration
▁coordinating
▁Extraordinary
▁comprehensively
85
He
PA
edy
▁Ah
Expo
bits
fold
▁104
▁80%
▁Dzh
ovich
▁poem
imeter
istory
owered
▁awful
▁poore
▁Sergey
▁copies
▁labour
▁steady
▁College
▁Concept
▁Diagram
▁elderly
▁fingers
▁engaging
▁holidays
▁perceive
▁Including
▁economists
▁indicating
▁exponential
▁surrounding
▁interpretation
73
OK
cil
gos
she
arin
bles
foot
▁Cap
▁Los
▁Mer
▁alg
▁bee
▁hat
quare
rison
▁Holl
▁exit
▁gang
▁lady
inator
▁frank
▁inhib
▁Region
▁boring
▁calend
▁facial
▁hunger
chemical
▁Address
▁Michael
▁Product
▁cooking
▁glucose
▁spectac
▁globally
▁numerous
▁astronaut
▁pavilions
▁recycling
onstruction
▁deviations
▁presidents
▁smartphone
▁veterinary
▁coordinated
▁proceedings
▁professions
▁insufficient
▁microdistrict
ums
▁IV
khan
ynch
▁Hel
amins
▁Euro
▁ants
▁gest
▁hits
ighter
▁hopes
▁reput
▁truck
▁basket
▁dishes
▁marked
▁poetry
▁portra
▁Network
▁Systems
▁distant
▁champion
▁chimpanz
▁injuries
▁potatoes
▁subscrib
▁Christmas
▁formations
▁eliminating
▁limitations
▁breakthrough
3.
▁Ev
.5%.
tier
▁60%
▁Att
▁gym
▁tor
plete
▁Cust
▁disk
change
▁Autom
▁acute
▁finds
▁lakes
▁lamps
▁repet
▁stack
▁hoping
▁laying
▁prizes
▁prohib
▁struck
erential
▁Android
▁Chicago
▁distort
▁imaging
▁didactic
▁scanning
▁strangers
▁Innovative
▁;
▁ID
▁ah
gage
oons
▁AND
▁Ang
▁Gas
▁KZT
▁unc
▁Food
▁frag
▁mile
nament
▁brave
▁brows
▁split
▁receip
ethylene
▁Muslims
▁Without
▁painful
▁Malaysia
▁chloride
▁fulfilling
▁physiological
".
75
ald
opl
▁Ox
long
ovol
▁iPh
amine
bound
isons
▁Math
▁Silk
▁nest
▁rear
▁seas
lessly
raining
▁actors
▁behave
▁lowest
▁lubric
▁servic
ilingual
▁Charles
▁habitat
▁traveled
▁discusses
▁extension
▁placement
▁infectious
PU
cal
oma
▁94
agin
inet
oven
rape
uity
▁193
▁25,
osion
▁Phot
▁tape
▁disag
ascular
▁Report
▁cortex
▁oldest
▁phrase
▁plates
▁silent
▁talent
▁cartoon
▁crushed
▁inhabit
▁rectang
▁Northern
▁amending
▁imagined
▁prescrib
▁sediment
▁forecasts
▁irrigated
▁Issekeshev
▁reinforced
▁expressions
▁compensation
▁Determination
▁configuration
.)
Es
Zh
aki
car
dyn
edu
see
▁IP
▁Ke
ptic
▁1.2
▁40%
▁Get
▁Kul
▁sla
irtau
▁Both
▁ears
itudes
ogorsk
▁Super
▁ridic
▁seism
▁wires
▁Budget
▁Having
▁anatom
▁drying
▁russia
▁Victory
▁charged
▁conform
▁issuing
▁polynom
▁slavery
▁consumed
▁prisoners
▁controvers
frastructure
▁accessibility
Fe
▁2.
▁5%
husi
isive
night
▁Poly
▁pray
▁Grand
▁crude
▁fluor
▁persu
▁stake
▁tower
▁Samruk
▁Beijing
▁angular
▁designs
▁nowadays
▁stopping
▁resistant
lementation
▁difficulty
▁passionate
▁servicemen
▁translated
▁frequencies
▁oscillations
▁transnational
SP
aws
bed
tes
uts
▁82
mium
▁(3)
▁Mur
▁Tas
▁Wik
▁spr
ammad
▁Plen
▁anom
astics
ensing
storey
▁Along
▁ambit
▁ambul
▁owned
▁Nature
▁binary
▁horses
▁hotels
▁pocket
▁traged
▁Pacific
▁clients
▁chromium
▁embedded
▁ideology
▁pensions
▁diplomacy
▁exploring
▁voluntary
▁accurately
▁optimizing
▁reservoirs
uh
ipe
▁61
anol
oken
spec
▁Dra
▁Kur
▁Pen
▁Init
▁Thom
ittees
▁Order
▁bases
▁cents
▁edges
▁tries
▁refrig
▁lifting
▁neither
▁pyramid
▁terrain
▁explains
▁ventures
▁Ukrainian
▁injection
▁villagers
.6%.
asty
play
says
type
▁13,
▁16,
▁18,
▁gel
▁gor
enter
asting
ledged
queous
urning
▁fears
fection
ferrous
▁Alatau
▁deepen
▁senses
▁enthusi
▁readers
▁Anderson
▁compatri
▁wherever
▁ambitious
▁fragments
▁packaging
▁evaluating
▁publishing
▁statements
▁fluctuations
Turk
aith
cean
▁Ash
▁Dal
▁Mac
▁chip
▁flew
▁thor
▁urge
inging
requis
rupted
▁Trump
▁nerve
▁walks
inafter
▁Norway
▁butter
▁frozen
▁tender
▁ceiling
▁hydroge
▁crystals
▁honorary
▁candidacy
▁discharge
▁utilities
▁linguistic
▁antibiotics
▁additionally
▁qualitatively
▁Plenipotentiary
ba
▁PM
▁TB
arya
rose
▁Tit
▁arc
▁jew
▁AIDS
▁Anti
▁amino
▁artif
viously
▁Robert
▁Syrian
▁barely
▁outbre
▁damaged
▁january
▁leasing
▁guidance
▁arguments
▁depressed
▁incentive
▁protocols
▁prototype
▁Akhmetzhan
▁progressive
▁publications
▁tuberculosis
gly
mun
eted
▁29,
▁Fig
▁hur
▁mur
▁tob
amily
chlor
▁1950
▁Doss
global
semble
urable
▁Obama
▁abund
igenous
▁Change
▁Martin
▁puzzle
▁varies
formance
olutions
▁reprodu
▁sisters
▁thereby
▁producer
▁tendency
▁Executive
▁diagnosed
▁forgotten
▁replacing
▁workshops
information
▁capability
▁implements
▁Participants
▁compositions
▁traditionally
▁interconnected
ua
Aud
▁89
▁ml
step
ymph
▁106
▁aug
▁onc
▁rul
▁neck
▁zoom
ontane
▁Major
▁prost
istence
▁genius
▁rector
employed
▁Windows
▁consume
▁deficit
▁gradual
▁greatly
▁painted
resistant
▁darkness
▁offering
▁oriented
▁residual
▁vitamins
▁varieties
▁consulting
▁modification
▁reconstructed
22
pan
▁BG
▁gy
gers
odal
rine
ucks
▁10-
▁NGO
▁cas
▁Back
▁scar
▁till
▁wine
assium
odetic
▁Media
▁aside
▁teleg
▁Indeed
▁missed
▁pupils
▁strive
▁Israeli
▁chapter
▁gaining
▁tissues
▁diplomas
▁listened
▁offenses
▁polymers
ustainable
▁Indonesia
▁fertility
▁prerequis
▁enrichment
▁journalist
▁stationary
▁preferential
▁demonstration
▁petrochemical
36
IL
yg
▁AT
bank
▁1.3
▁15%
▁Pan
▁unn
eared
igare
iotic
oxide
▁Frid
▁dish
▁sket
places
ulates
▁2008,
▁2050,
▁Graph
▁Peter
▁flies
▁inher
thermal
▁Calcul
▁palace
▁recall
▁shaped
▁trauma
▁whales
▁repairs
▁gentlemen
▁teenagers
▁worldview
▁acceptable
▁committees
▁negatively
▁sanitation
▁convenience
▁gravitational
ado
▁Ku
thal
▁25%
▁90%
▁Cer
▁dot
▁yog
▁aest
▁beer
▁radi
illary
parent
▁conqu
▁fleet
▁Things
▁Zhumag
▁equity
▁nurses
▁victim
▁Austria
▁Federal
▁briefly
▁focuses
▁tobacco
▁writers
▁Secondly
▁performs
▁reactors
▁Resources
▁sovereign
▁suppliers
▁confection
▁occurrence
▁inefficient
▁penetration
▁conservative
▁transferring
EA
SI
▁4)
.2%.
▁450
▁Hyd
▁fan
▁lob
▁rod
assym
sters
▁Talk
▁ours
▁tear
abayev
abling
▁elite
▁plain
▁wings
▁Treaty
▁clever
▁perpet
▁Nuclear
▁charges
▁deserve
▁landing
▁mastery
▁routine
▁thirdly
▁Austrian
▁airplane
▁enriched
▁horrible
▁incoming
▁fractions
▁monitored
▁satisfied
▁volunteer
hereinafter
▁contributing
UL
aft
sin
vol
yan
▁79
▁Cu
conf
ilic
▁1.7
▁FOR
▁Haw
▁III
▁MPa
▁toy
aspor
▁List
▁asia
▁cord
▁item
▁lock
▁rope
▁tang
school
▁arsen
▁foods
▁matte
▁screw
▁sends
▁stamp
working
▁ending
▁pushed
▁tracks
▁wishes
▁carrier
▁Massimov
▁artifact
▁momentum
▁pandemic
▁Ministers
▁storytell
▁telescope
▁Independence
▁geopolitical
eu
Kaz
pes
via
▁[5
▁pp
abul
case
conc
etra
post
▁105
▁26,
▁Dub
▁MPC
▁Mor
elled
ommod
ywood
▁Conc
▁depr
▁limb
rapeut
scious
▁Ident
▁euros
▁satur
ighters
▁Consid
▁filler
▁injury
▁resist
▁transc
attering
▁incomes
▁magical
▁partial
aksybekov
▁Planning
▁calendar
▁coatings
▁occupied
▁suffered
▁switched
▁Something
▁activated
▁correctness
▁reconstruct
▁presentations
HO
aa
ga
elf
▁BC
▁Ly
▁Up
bola
hess
imet
inic
othe
▁115
▁Ven
worth
▁Akim
▁Mary
▁bags
▁fung
▁sque
▁Basic
▁Young
▁paras
▁asympt
▁fright
▁thrown
othermal
▁heights
▁hunting
▁pointed
▁scratch
▁semicon
▁senator
▁Audience
▁interpre
▁ambulance
▁carbonate
▁allocation
▁automotive
▁compatriots
▁documentary
▁kazakhstani
▁ventilation
▁constructing
▁discrimination
39
OC
aze
ugh
war
▁MB
▁Jer
ashes
ashev
erous
ipher
itate
oning
▁quad
▁rays
ailand
ganese
ipedia
▁Peace
▁conce
▁ignor
▁sixth
▁Arabic
▁arises
▁brands
▁racism
▁robust
▁scream
▁tempor
▁Angeles
▁aqueous
▁paradox
▁wanting
▁Olympics
▁philanth
▁supervis
▁tracking
▁locations
▁paragraph
▁assignment
▁indigenous
▁consequence
▁archaeological
34
eva
sey
▁92
wash
▁Gra
▁Lad
▁pel
▁unh
aliev
amics
aning
arter
ashed
clock
ienic
plate
▁0,55
▁Comb
▁Desc
▁Rome
▁boss
▁dump
▁pipe
▁scal
makers
▁Swiss
▁dolph
▁skept
▁skull
▁tanks
▁Greece
▁bronze
▁namely
▁sevent
▁shifts
zumbayev
▁Physics
▁chromos
▁dancing
▁frankly
▁kinetic
▁summing
uneration
▁Canadian
▁fragment
▁sorption
▁corrosion
▁divisions
▁intuitive
▁spectrosc
▁implications
▁approximately
▁neighborhoods
78
ena
▁("
doll
elly
llip
▁cos
ocial
▁Soft
▁ease
irates
minent
system
▁2012.
▁dozen
▁munic
attered
▁Nobody
▁editor
▁iPhone
▁plenty
▁posted
▁raises
▁Fourier
▁cadmium
▁honored
▁inverse
▁passive
▁honestly
▁smelting
▁conductor
▁complaints
▁compressed
▁cooperative
▁outstanding
▁Infrastructure
▁simplification
OG
bas
▁1:
▁Hi
aman
fast
roat
▁Mag
▁bom
▁cyc
matic
proof
▁Sund
▁Turn
▁bulk
▁jury
▁mice
friend
health
rators
▁conve
▁knock
▁pumps
▁Inform
▁Thomas
▁Unlike
▁caring
▁crying
▁listed
▁rememb
▁volcan
issenova
ithmetic
▁closest
▁nearest
▁sensory
▁failures
▁instinct
▁maximize
▁resident
▁spontane
▁vacation
▁liability
▁fulfillment
▁performances
")
fe
gu
Ata
hag
▁Lo
▁Py
esis
exas
keys
noon
▁Nik
ading
drakh
▁Sign
▁Ural
▁defe
▁icon
▁pour
▁unre
akupov
▁blade
▁fires
forward
▁Commun
▁neuron
▁bridges
▁residue
▁residues
▁romantic
▁strictly
▁symmetry
▁gathering
▁similarity
▁definitions
▁representing
▁supplemented
▁dissemination
▁Reconstruction
5)
flu
▁Sk
ione
serv
▁CEC
▁gig
bling
ester
mates
▁Satp
▁clip
▁exos
▁leaf
▁synd
▁tort
icular
ropavl
▁Texas
▁blame
▁halls
▁jewel
▁pedag
▁roles
▁spark
organic
▁chocol
▁cycles
▁prompt
▁samruk
▁comprom
▁receipt
▁secrets
▁seeking
▁airports
▁alkaline
▁geodetic
▁literary
▁smallest
▁afternoon
▁distances
▁husbandry
▁justified
▁motivated
▁Revolution
▁generating
▁underlying
▁nutritional
▁remuneration
III
ani
ati
▁Es
▁Jo
▁SP
▁du
▁Hum
▁Jim
▁ram
allow
esium
rones
▁Aral
▁aims
▁asks
▁butt
▁phyt
▁stom
iaries
iments
▁Alzhe
▁antim
▁piano
▁trail
Russian
holders
▁Speaker
▁Thermal
▁emerged
▁entrust
▁profits
▁returns
▁sensing
▁warning
▁Thailand
▁confused
▁connects
▁Alzheimer
▁Different
▁Enterpris
▁Wikipedia
▁displayed
▁integrate
▁musicians
▁witnessed
▁countering
▁engagement
▁monopolies
▁retraining
▁threatened
▁constraints
▁disappeared
▁synthesized
▁biodiversity
▁contradictions
99
Let
bur
ozo
illy
rite
ryst
▁1.6
▁31,
▁Bol
▁gro
▁wed
▁Stan
▁beet
▁boom
▁fees
▁lift
▁odds
▁orth
▁soap
itures
▁Solar
▁slope
amation
▁Master
▁breaks
▁catast
▁cinema
▁pedest
▁unions
▁assured
▁biomass
▁filters
▁opposed
▁printer
▁smoking
▁tragedy
▁utility
▁confront
▁landfill
▁converter
▁projected
▁electrodes
▁frequently
▁infections
▁respiratory
As
SM
eo
▁DC
ders
▁(4)
▁103
▁Lou
▁Sad
▁Saf
ector
ncing
owers
▁Pers
▁Rail
▁emer
▁evac
▁feas
▁joke
▁Opera
▁Willi
▁dirty
▁Argent
▁Nurlan
▁blades
▁floors
▁forums
▁timing
▁valley
▁bicycle
▁diaspor
▁entropy
▁inspire
▁liquids
▁Language
▁accommod
▁decisive
▁elephant
ropavlovsk
▁workforce
▁comparable
▁punishment
▁efficiently
▁predictions
AP
UC
Che
ima
.4%.
aint
cond
oron
▁21,
▁Net
▁Tre
▁lux
integ
oston
world
▁cats
▁leap
dollar
▁Antar
▁Large
Western
▁Berlin
▁digest
▁sharks
▁kingdom
▁leather
▁nucleus
▁percept
▁tonight
▁Africans
▁compress
▁creature
▁cylinder
▁entrance
▁exhibits
▁obsessed
▁Relations
▁graphical
▁inventory
▁virtually
▁accredited
▁disappoint
▁immigrants
▁confectionery
▁Implementation
7.
Yeah
▁Gul
ancer
esity
iates
▁Conf
▁flip
▁grab
▁intr
▁lith
formed
▁dried
ynchron
▁Ethiop
▁buried
▁excite
▁hardly
▁needle
▁ceramic
▁chances
▁protest
▁Atlantic
▁announce
▁conducts
▁dominant
▁senators
▁emphasize
▁explosive
▁Zhezkazgan
▁presenting
▁propaganda
▁Taldykorgan
Don
lla
whe
▁1%
.1%.
Look
omic
▁17,
▁Bat
▁Ten
▁cis
▁pix
ailov
arios
ourse
▁0,48
▁Alma
▁Gulf
▁Long
▁Ocean
▁Steve
▁innoc
edicine
▁angles
▁stroke
▁Country
▁Silicon
▁Similar
▁adverse
▁desired
▁failing
▁glasses
▁permiss
▁whereas
▁Egyptian
▁agrarian
▁approxim
▁frequent
▁hygienic
▁illusion
▁inherent
▁prevents
▁Basically
▁municipal
▁realizing
▁scenarios
▁behavioral
▁reputation
▁cylindrical
▁expenditures
HR
▁/
rla
▁71
▁dy
▁na
hene
▁2-3
▁Nan
▁Non
aming
gency
ircul
▁Plat
▁fans
▁hire
irtual
rology
weight
▁bands
▁donor
▁resin
▁stiff
ersburg
▁Legisl
▁ballet
▁burned
▁frames
▁hungry
▁ladies
▁lawyer
▁sewage
▁shield
▁toilet
▁History
▁helpful
▁mindset
▁minimal
▁recruit
▁storing
▁viscous
▁Balkhash
▁boarding
▁hormones
▁stranger
▁telegram
▁inspiring
▁capacities
▁maintained
▁regression
VI
awn
yal
▁Ug
appy
card
engu
▁Vas
▁fur
▁geo
▁tat
imide
lfare
osaur
rable
ropic
▁0,49
▁Hait
▁bold
▁heal
▁lamb
▁ugly
contin
riends
▁Being
▁Ebola
▁Heads
▁Timur
▁chips
▁enlar
▁shaft
▁whist
century
nthesis
▁Friday
▁aktobe
▁farmer
▁immers
▁subord
ecessary
▁erosion
▁pulling
▁stomach
▁welfare
▁descript
▁minimize
▁obstacle
▁reminded
▁algebraic
▁backwards
▁saturated
▁therapeut
▁Population
▁medication
▁newspapers
▁consolidation
74
Go
uba
▁ub
andy
anim
ogan
tery
▁Bor
▁Dev
▁Idr
▁Pot
▁Rio
▁nob
▁0,47
▁Hong
▁Move
▁cock
▁lets
iances
umines
▁Karim
▁Tatar
▁bench
▁burst
▁dated
▁voted
veloped
▁Object
▁racial
▁spinal
▁uneven
▁deliber
▁fastest
▁founder
▁letting
▁miracle
▁revised
September
agambetov
▁diagrams
▁sleeping
▁admission
▁respected
▁sculpture
▁wrestling
temperature
▁Suleimenov
▁arithmetic
▁legitimate
▁professors
▁preferences
65
But
For
cycl
lers
rays
uild
ymes
▁Ary
▁Exp
ripts
▁Cost
▁Heat
▁Kong
▁Miss
▁exem
▁germ
▁chess
▁drove
▁liber
▁overl
▁prest
▁safer
▁tears
▁viral
▁votes
▁Square
▁deserv
▁rhythm
▁acquire
▁approve
▁auction
▁enables
▁indices
▁Commerce
▁prospect
▁singular
▁sorbents
▁withdraw
▁addiction
▁chocolate
▁detecting
▁capitalism
▁complement
▁hydrolysis
▁impressive
▁structured
▁tournament
▁degradation
▁ingredients
32
4)
OS
bi
tz
azz
cas
lev
lon
nas
pay
rey
vet
▁81
akol
▁Bir
▁Mel
▁Rus
arbon
cents
iolet
ylene
▁suck
taking
▁algae
▁clubs
▁drops
▁ellip
▁ferro
▁spots
▁subst
▁Anyway
▁Boston
▁emerge
▁guided
▁pursue
▁demands
▁diploma
▁formats
▁hanging
▁poorest
▁sorbent
▁surgeon
effective
mentation
▁memorial
▁referred
▁removing
▁reviewed
▁rotating
▁bacterial
▁daughters
▁intervals
▁sincerely
▁originally
▁sanatorium
▁subsidiary
▁spectacular
BM
EG
upp
plan
▁1,4
▁1.4
▁20-
▁NPP
▁tip
olves
▁Mont
▁evap
▁mold
▁tect
hesion
ovolta
▁aston
▁shark
▁tomat
▁tours
Chinese
essment
▁Almost
▁Arctic
▁bakery
▁safely
▁Finnish
▁obesity
▁placing
▁reviews
▁seismic
▁welding
efficient
▁Idrissov
▁graphite
▁taxation
▁Bakytzhan
▁electroly
▁Electronic
▁Petersburg
▁assumption
▁prosperous
▁arrangement
▁individually
▁grandchildren
95
gar
▁Sn
▁af
.8%.
arka
ught
▁102
▁Cam
▁Dom
▁Nav
acity
owned
rices
▁Come
▁Less
▁cute
curric
ograms
shaped
▁Indic
▁Start
▁intim
▁nanoc
▁queue
finance
▁circul
▁proves
▁unable
▁balloon
▁charter
▁picking
▁schemes
▁servers
▁indirect
curricular
▁addresses
▁collector
▁southeast
▁statehood
▁aggressive
▁encouraged
▁impression
▁politician
▁accountable
▁evaporation
▁photography
▁Nevertheless
▁historically
▁authoritative
▁understandable
3/
NAL
VID
bet
ias
lav
▁Ek
▁rib
▁unw
meter
odied
▁Answ
▁SMEs
▁[11]
▁beds
▁meal
▁peer
▁Child
▁Local
▁Sever
▁juice
▁mines
ersonal
▁depart
▁eradic
▁locked
▁oxides
▁scores
▁speeds
ountered
▁Certain
▁Colonel
▁cardiac
▁collaps
▁implant
▁nowhere
▁shelter
▁sulphur
▁Mukhamed
▁activate
▁findings
▁freezing
▁homeless
▁inclined
▁incorpor
▁Algorithm
▁Obviously
▁physician
▁resolving
▁suspended
▁apparently
▁interfaith
▁encountered
▁transporting
▁characterizes
▁manifestation
▁precipitation
AM
ea
you
oshy
outs
rapy
▁Hen
▁Ice
▁Syr
▁Tam
▁[1-
agash
chair
piece
story
▁0,53
▁Girl
▁cows
▁desk
▁pale
entsia
▁fines
▁colony
▁cracks
▁embank
▁wheels
etically
itudinal
▁Whether
▁linking
▁monkeys
▁renewal
▁satisfy
▁suppose
▁advances
▁potassium
▁prominent
▁turbulent
▁polynomial
▁remembered
▁reproductive
▁intelligentsia
38
DM
OH
OM
irm
isy
▁ts
▁4.5
▁Ann
▁Jul
▁ecu
▁ren
There
cular
▁2021
▁Mold
public
▁Aktau
▁arose
▁crash
▁cream
▁illum
▁imper
▁likes
▁whale
verages
▁Winter
▁massif
▁Machine
▁stereot
▁displays
▁planting
▁associate
▁fisheries
▁adsorption
▁inevitable
▁suspension
▁cultivation
▁transaction
▁contemporary
AK
agg
aph
gaz
▁PH
lace
▁Kat
▁sib
▁Bron
▁Tell
▁holy
flower
horgos
irical
▁Woman
▁drill
itoring
ulative
verning
▁Church
▁Island
▁Mobile
▁astero
▁cigare
▁laptop
▁planes
▁sought
ractical
▁Customs
▁delight
▁faculty
▁ordered
▁teaches
▁trigger
▁wedding
▁Intellig
▁adaptive
▁attempts
▁circular
▁syndrome
ynchronous
▁hazardous
▁stabilize
▁attributes
▁conformity
▁eliminated
▁institutes
▁workplaces
▁highlighted
▁deterioration
▁interlocutors
▁psychologists
dis
▁FB
iens
mail
uine
▁Bob
chers
ernal
innov
names
▁bars
▁gods
▁khan
▁oral
▁pink
▁trop
border
inping
market
▁Polit
▁catal
▁incub
▁merit
▁strat
▁yours
▁Comput
▁Jewish
▁Kassym
▁autumn
▁crafts
▁openly
▁orange
▁subtle
▁weapon
▁cereals
▁females
▁fragile
▁ignored
▁diaspora
▁emission
▁railways
▁Architect
▁catalysts
▁magnitude
▁Processing
▁projection
▁adolescents
▁approaching
▁inhabitants
EF
ki
tw
chy
inz
▁Rw
.3%.
▁19,
▁Ili
▁ink
ricks
venue
▁Wall
▁beef
▁dorm
▁melt
▁Scott
▁dates
▁reads
▁vocal
ificant
▁claims
▁phased
▁sponge
▁thrive
ibration
▁athlete
▁casting
▁chromat
▁legally
▁screens
religious
▁automate
▁holdings
▁infrared
▁Knowledge
▁fraternal
▁poisoning
▁optimistic
▁Traditional
▁understands
▁vulnerability
▁accountability
ii
msk
uch
▁HT
cher
ello
uana
▁dil
▁sau
kward
zymes
▁0,46
▁auto
▁batt
▁brut
▁cris
▁trap
▁unch
points
vasive
▁Light
▁cruel
▁humor
▁knife
▁nurse
▁pengu
▁pione
▁serge
▁tooth
▁wider
▁Bureau
▁Palace
▁antenna
ovascular
▁Software
▁absorbed
▁homework
▁overview
▁pedagogy
▁sponsors
▁striking
ribusiness
▁Improving
▁convicted
▁elsewhere
▁entrusted
▁footprint
▁nominated
▁partially
▁switching
▁Statistics
▁automobile
▁incomplete
▁irradiation
▁preparatory
▁recognizing
▁pharmaceuticals
";
DF
Em
Can
eor
▁3%
expl
▁Age
▁Fil
▁Was
▁sne
▁leak
▁sink
▁tong
▁wash
source
▁probe
▁tatto
▁verte
capital
cession
▁Sunday
▁Yerlan
▁bypass
▁cadets
▁injust
▁slides
▁tragic
▁tumors
aterials
▁derived
▁fathers
▁vectors
ationally
▁commands
▁insights
▁publicly
▁precision
▁summarize
▁welcoming
▁Increasing
▁historians
▁lubricants
▁modernized
▁resilience
▁subjective
▁destructive
▁microscopic
▁radioactive
▁therapeutic
▁collectively
▁confirmation
UN
br
bai
iro
▁3.
atov
leep
zhar
▁12-
▁220
▁ber
▁lag
dybek
flies
ieval
oidal
white
▁0,51
▁2006
▁merg
▁murd
▁sons
▁2007,
▁Guard
▁Serik
▁Total
▁align
▁firms
▁winds
▁Effect
▁Server
▁kaznex
▁landed
▁polycl
▁archive
▁coastal
▁couples
▁differs
▁harness
▁impulse
▁surveys
including
istically
oshybayev
▁Protocol
▁alliance
▁analyses
▁figuring
▁implicit
▁marginal
▁maternal
▁dissolved
▁incorrect
▁providers
▁seemingly
▁guidelines
▁interfaces
▁mysterious
▁photovolta
▁universiade
▁Petropavlovsk
▁congratulations
IR
300
600
eyn
iad
izz
oye
▁AS
alin
ilev
tail
▁Six
▁fee
ifice
ioned
kulov
licit
▁0,43
▁0,52
▁Free
▁Mean
▁casc
▁drum
▁tied
normal
▁4,000
▁Semey
▁const
▁grids
▁searc
fledged
lective
rometer
▁Family
▁Father
▁copoly
▁hiding
▁Several
▁awkward
▁beneath
▁bubbles
▁colored
▁orphans
▁ratings
▁reveals
▁startup
▁assessed
▁diamonds
▁incident
▁salaries
▁symbolic
▁alongside
▁breakfast
▁manganese
▁optimized
▁poisonous
▁accomplish
▁formulated
▁parametric
▁solidarity
▁citizenship
▁permissible
▁manufacturer
▁overwhelming
▁polyethylene
▁proportional
64
PC
Gen
omy
▁3-
teen
▁Emp
▁LLC
▁Lag
▁Ros
eterm
ivals
oviet
▁Belg
▁Mill
▁Sure
▁epis
▁mush
urpose
▁Andre
▁COVID
▁Haiti
▁deals
▁enhan
▁tends
▁tubes
ievable
▁fusion
▁loving
▁monkey
▁preval
commerce
▁assault
▁closure
▁descend
▁skilled
▁sorting
▁textile
▁Partners
▁arrested
▁democrat
▁navigate
▁stresses
▁unlikely
containing
▁adventure
▁electrode
▁Duissenova
▁distribute
▁excitement
▁fascinated
▁interviews
▁retirement
▁ridiculous
pi
irs
▁Ma
gold
▁000
▁230
▁Abs
▁Dyn
▁Jes
▁por
imary
liest
orney
▁mesh
▁pole
▁porn
Astana
▁aspir
▁datas
▁peers
▁slags
▁upset
-2017."
Capital
connect
eternal
ringing
▁Uganda
▁boards
▁cavity
▁drones
▁tribes
▁wooden
▁Karatau
▁binding
▁fillers
▁Building
▁disagree
▁ensemble
▁neutrons
▁ratified
▁theaters
nazarbayev
▁Lithuania
▁abandoned
▁assistant
▁collision
▁ignorance
▁Nigmatulin
▁physicians
▁warehouses
▁derivatives
▁oscillation
▁Commonwealth
▁spectroscopy
▁cardiovascular
▁differentiated
▁extracurricular
TP
hot
nis
ucl
▁ma
.7%.
.9%.
bean
odor
poll
▁Kam
▁Lin
▁ham
▁mim
-2015
aware
ogens
phase
▁Army
▁Requ
▁abol
▁menu
▁pron
▁solo
reland
terror
▁erect
▁poems
▁shout
▁sperm
▁vapor
▁voter
▁Member
▁Palest
▁Please
▁bricks
▁cosmic
▁evapor
▁lenses
▁poured
▁spoken
▁Romania
▁encrypt
▁genuine
▁happier
▁insulin
▁summary
▁vitamin
omeration
▁altitude
▁composed
▁excluded
▁explored
▁genetics
▁certified
▁diplomats
▁governing
▁philosoph
▁Sagintayev
▁ideological
▁neuroscience
▁urbanization
So
yo
gel
iph
pox
▁rh
flow
▁Moh
▁Vir
inson
▁Adam
▁Mand
▁Text
▁epic
▁logo
▁nano
▁rats
cyclop
namese
▁coach
▁fired
▁juven
▁loves
version
▁Baibek
▁lasted
▁latter
▁motors
▁pestic
▁racist
▁Abdrakh
▁Ireland
▁clarify
▁squares
concluded
▁Cultural
▁Ethiopia
▁nutrient
▁websites
▁analogues
▁criticism
▁instantly
▁memorable
▁necessity
▁physicist
▁returning
▁performers
▁predicting
▁restaurants
▁accelerating
98
IP
800
Mod
bow
▁Cy
▁PP
▁aa
▁kW
bone
esty
hana
iode
stro
▁101
▁Bon
▁Mir
▁Naz
▁cul
▁sel
opoly
posed
▁Bish
▁Flor
▁Zeal
▁eleg
▁glam
rocess
▁Nodal
▁diver
▁rings
▁shake
▁trium
▁50,000
▁Answer
▁centre
▁exclud
▁sheets
▁tackle
▁unanim
▁Abishev
▁Nothing
▁fluores
▁fractal
▁immense
▁refused
▁builders
▁passport
▁treasury
▁weakness
conference
▁accompany
▁bakytzhan
▁consensus
▁excessive
▁inorganic
▁numerical
▁sunflower
▁scattering
▁sequential
▁Considering
▁countryside
▁smartphones
▁disadvantage
▁sufficiently
2%
Ar
abs
▁AD
eros
inth
omed
uant
▁175
▁240
▁ADS
▁Dou
▁ech
▁fut
▁nic
▁pad
▁rif
▁Grow
▁Pass
▁Read
▁prag
▁quit
▁toys
liness
phosph
rontal
▁Urals
▁Veter
▁bears
▁refin
▁ridge
▁sandw
ditions
▁entity
▁hemisp
▁regret
ressions
▁enzymes
▁extinct
▁hardest
▁healing
▁Stanford
▁advocate
▁autonomy
▁coincide
▁detector
▁informal
▁aesthetic
▁polyimide
▁predators
▁Educational
▁reclamation
▁unnecessary
▁reproduction
▁collaborative
▁professionalism
aya
dam
dem
tyn
unk
▁Ok
▁Tu
Nrla
cost
gone
yzed
▁280
▁Nat
▁caf
▁dow
▁eco
▁hip
▁rew
atile
chain
ibast
range
seeds
▁Jose
▁fool
▁hill
author
estone
hattan
iguous
▁grief
▁squee
utenant
▁deadly
▁intrig
▁malign
▁spider
▁tribal
raviolet
▁Maximum
▁Zealand
▁amended
▁imagery
▁smarter
▁uniting
▁admitted
▁drainage
▁elevator
▁enabling
▁shoulder
▁systemat
▁magnesium
▁pregnancy
▁modulation
▁genetically
▁unification
▁intensifying
▁surprisingly
▁controversial
31
CH
GB
.00
ais
rah
rak
▁91
▁ON
acry
grad
itis
quef
rong
sell
▁28,
▁Fac
▁Blue
▁Post
▁[13]
▁guns
▁horr
▁pose
erable
ournal
▁Chile
▁dough
▁fault
▁ought
ordable
▁Newton
▁Proced
▁Should
▁intake
▁killer
▁masses
▁refere
▁slopes
▁Average
▁Complex
▁Library
▁Virtual
▁justify
▁trapped
▁Bulgaria
▁Concrete
▁airlines
▁climbing
▁promised
▁reagents
▁throwing
▁wildlife
▁Manhattan
▁Meanwhile
▁dominated
▁economist
▁intuition
▁regulates
▁sequences
▁survivors
▁vacancies
▁Enterprise
▁delivering
▁extinction
▁journalism
▁overcoming
▁terrifying
▁Integration
▁destination
▁subsidizing
▁Myrzakhmetov
▁dictionaries
▁personalized
▁subsidiaries
▁transmitting
▁accreditation
▁undergraduates
68
UT
FOR
May
ika
isk
agad
five
ilty
text
▁(5)
▁Fre
▁Kum
▁RES
▁Ver
affin
first
group
holds
imity
▁buff
▁gear
▁lone
▁merc
▁samp
▁sits
raphic
▁2005,
▁Citiz
▁Johns
▁Video
▁bombs
▁hired
▁marat
▁naked
▁polio
▁spell
▁utter
abulary
ressing
▁elabor
▁halluc
▁legend
▁liters
▁microw
▁surely
▁transg
assadors
▁Student
▁airline
▁amongst
▁jewelry
▁newborn
▁scanner
▁settled
▁shocked
▁streams
▁Services
▁bathroom
▁highways
▁oilseeds
ernization
▁hierarchy
▁incidence
▁mediation
▁reforming
▁Innovation
▁Regulation
▁federation
▁fertilizer
▁metabolism
▁landscaping
▁prosecutors
▁conditioning
▁improvements
▁longitudinal
▁agglomeration
wl
avt
gat
jud
lyn
▁EL
▁Hom
▁Mah
▁Nov
onite
▁Book
▁Crit
▁hipp
spring
ushing
▁2019.
▁Carol
▁Words
▁queen
▁trash
imeters
inology
▁Consum
▁dating
▁dispar
▁incomp
▁pilots
▁refuse
▁strand
▁subway
▁Various
▁Working
▁counsel
▁interse
▁freedoms
▁monitors
▁receiver
▁Hollywood
▁artifacts
▁audiences
▁realities
development
▁influences
▁suggesting
▁terrorists
▁vocabulary
▁emergencies
▁biologically
▁communicating
▁Representative
▁mathematicians
New
▁9/
▁AR
▁kh
erce
mind
▁23,
▁Bet
▁Has
▁Kan
▁SiO
▁gly
▁hoc
ighth
izoph
otics
shara
uance
▁0,56
▁bump
▁corp
▁mask
▁pile
▁saus
▁Smith
▁Voice
▁inval
▁lanes
▁metro
▁penal
ibastuz
▁20,000
▁Really
▁liquef
▁nuclei
▁ranges
▁reader
▁unites
ortheast
otherapy
paration
▁boiling
▁fitness
▁staying
▁triumph
mentioned
▁activist
▁charging
▁gradient
▁interior
▁shipping
▁astronauts
▁classrooms
▁physicists
▁saturation
▁feasibility
▁explanations
▁intensification
LE
UD
Who
pre
unc
▁Ni
▁[6
aded
away
iger
nect
oric
▁Jac
▁Ref
▁orb
-2014
amous
eches
iders
shift
▁Jane
▁dive
▁nozz
vation
▁Activ
▁Brown
▁fatty
▁shops
▁spong
olation
parents
▁Rwanda
▁enroll
▁harass
▁loaded
▁lovely
▁merely
▁traine
▁tricks
▁Climate
▁capsule
▁hectare
▁injured
▁novelty
▁strains
▁2016-201
▁Amending
▁Creating
▁Electric
▁commonly
▁crushing
▁capillary
▁proximity
▁afterwards
▁challenged
▁completing
▁opposition
▁convocation
▁politically
▁subordinate
▁semiconductor
▁thermodynamic
td
vy
bar
dle
doz
gas
gov
ila
isa
▁ww
arre
fire
idal
lick
uryz
viol
▁1.8
▁24,
▁Cur
▁Fif
▁Mam
ctica
depth
gence
ungan
▁Jeff
▁Kash
▁Love
▁Tele
▁apps
▁seam
▁summ
▁toll
athlon
rophic
▁drone
▁inequ
igation
issance
▁analyt
▁bullet
▁finite
▁partly
▁tennis
▁verify
recision
▁Content
▁corners
▁endless
▁persist
ophysical
▁Creation
▁Features
▁combines
▁distract
▁tectonic
▁teenager
Corruption
▁Conscious
▁Structure
▁anonymous
▁attribute
▁extracted
▁observing
▁selective
▁morphology
▁perfection
▁undergoing
▁acknowledge
▁respondents
▁ultraviolet
▁mobilization
▁photovoltaic
58
At
vin
▁2%
▁SS
ardo
stud
vity
▁(6)
▁22,
▁3-4
▁MAT
▁Pay
▁PhD
▁Set
▁Sol
▁dop
athon
shore
▁0,45
▁STEM
▁desp
▁rapp
▁span
▁subt
▁surg
▁tone
August
orious
▁2000,
▁Amend
▁Niger
▁badly
▁loose
▁lymph
▁marry
▁punch
alities
ashkent
▁2020,"
▁habits
▁packed
▁photon
▁traits
▁barrels
▁clarity
▁hydroph
▁neglect
▁teenage
▁Dossayev
▁rejected
▁countless
▁disturbed
▁Assessment
▁disruption
▁geographic
▁helicopter
▁telescopes
▁encouraging
▁technically
▁photographer
▁psychologist
▁civilizations
▁nanotechnology
48
77
EV
].
hr
azh
When
abek
sens
urov
wear
▁Bit
▁EHR
▁Mas
▁Ray
▁Say
▁Wal
▁biz
▁gau
▁kul
berry
herom
isure
lades
oving
stone
uster
▁2004
▁Budd
▁Disc
▁bioc
▁cath
▁cuts
▁damp
▁edit
▁enzy
▁knee
Soviet
▁Event
▁Index
▁Still
▁gorge
▁threw
limited
▁Doctor
▁concer
▁poorly
▁reflex
▁richer
▁scenes
▁triple
business
izophren
▁acidity
▁analogy
▁nitrate
▁stadium
▁wishing
▁attaches
▁commerce
▁generous
▁granules
▁innocent
▁plastics
▁thorough
▁Religious
▁elephants
▁exclusive
▁healthier
▁launching
▁organizer
▁scattered
▁strongest
▁Antarctica
▁adjustment
▁approached
▁intentions
▁crystalline
▁explanatory
▁interviewed
▁modernizing
▁replenished
▁simplifying
▁supervisory
▁appreciation
▁microcontroll
▁morphological
"?
3%
Hz
ini
kul
oor
illa
kaya
loys
plus
▁360
▁50-
▁Top
▁Ult
▁bay
▁dys
▁hex
▁mit
ching
izers
ozoic
ranes
▁Fact
▁Pole
▁bent
▁conj
▁forb
▁prin
▁2050.
▁Steps
▁dehyd
▁realm
▁rises
▁tempt
looking
ogenous
stanbul
▁Latvia
▁guilty
▁gypsum
▁joints
▁luxury
▁nurlan
▁upload
▁washed
ermanent
lessness
▁browser
▁drought
▁enabled
▁prevail
▁talents
▁awarding
▁colonies
▁fighters
▁glaciers
▁shifting
▁simulate
Employment
ecological
innovative
▁exceeding
▁filtering
▁pediatric
▁sacrifice
▁withstand
▁Australian
▁Laboratory
▁basketball
▁frustrated
▁chimpanzees
▁Abdrakhmanov
▁asynchronous
3;
55
CD
cr
ser
uez
uri
▁5)
ifer
link
tysh
urge
▁MRI
▁wra
Where
ammed
front
ikhan
ostru
usive
▁Expl
▁None
▁Real
▁ahko
▁barb
▁cake
▁fart
▁sole
▁tast
▁worn
iative
second
tained
▁Darya
▁Small
▁downt
▁intra
▁laure
▁meals
factory
oleptic
▁Carbon
▁campus
▁drinks
▁helium
▁inevit
▁murder
▁octane
▁permit
▁tongue
computer
▁Denmark
▁Problem
▁flowing
▁geology
▁photosy
▁rebuild
▁reminds
▁stepped
▁currents
▁forestry
▁licenses
▁migrants
▁pleasant
▁simplest
▁worrying
controlled
▁assembled
▁campaigns
▁landfills
▁primitive
▁sanctions
▁undergone
▁accumulate
▁Fortunately
▁negotiating
▁philosopher
▁consistently
CE
TR
bat
▁Mi
June
ovak
uest
umns
▁15-
▁Kok
▁Kos
▁Kus
▁Log
▁eae
arbek
enger
izons
uated
▁0,57
▁[14]
▁biof
▁incl
▁neat
▁shru
▁solv
abolic
compon
ifiers
losure
metric
solete
▁Cloud
▁Coord
▁boost
▁entit
▁likel
▁reefs
▁relay
▁sidew
▁thumb
imental
western
▁Action
▁Columb
▁adsorb
▁predom
▁crossed
▁embassy
▁envelop
▁heavily
▁seventh
▁chairmen
▁concerts
▁dividing
▁earliest
▁enlarged
▁password
▁province
▁Banglades
▁Procedure
▁aerospace
▁biosphere
▁membranes
▁principal
▁unchanged
▁Supplement
▁Vietnamese
▁identities
▁indication
▁ambassadors
▁biochemical
▁Introduction
▁cryptographic
VD
Pro
oul
▁1-
▁AG
▁IM
▁Wi
agle
aran
city
just
list
onna
unov
▁2.4
▁bug
▁jet
arded
▁doct
▁flaw
▁Tokyo
▁amate
▁slave
fulness
▁Theore
▁drople
▁floods
▁makers
▁poster
▁slower
▁unlock
entation
standard
▁Earlier
▁anatomy
▁employs
▁leisure
▁sincere
▁wealthy
▁Istanbul
▁archives
▁civilian
▁legality
▁operated
▁outbreak
▁visually
▁broadband
▁injustice
▁probation
▁reproduce
▁foreigners
▁arbitration
▁hospitality
▁utilization
▁Agricultural
▁alternatives
▁demonstrates
▁Consciousness
▁philosophical
▁reinforcement
HN
db
All
dig
oli
rin
sil
tau
▁MT
▁je
atts
gust
indu
irov
▁27,
▁Ins
▁Jup
▁Typ
▁fod
▁shu
▁sli
▁tab
heart
oleum
ville
▁CRIS
▁Omsk
▁bail
▁nurt
▁outs
▁pigs
▁recy
▁reth
▁rows
izable
omorph
urally
yright
▁Yesil
▁divor
▁exams
▁harsh
▁inexp
▁unbel
▁uncle
ulators
▁Virgin
▁gifted
▁guides
▁preced
▁revers
▁adviser
▁mandate
▁origins
▁russian
isfactory
▁doctoral
▁hydrodyn
▁judgment
▁laughing
▁matrices
▁optimism
▁oxidized
▁promotes
▁settings
▁speeches
▁tactical
▁Southeast
▁expecting
▁responded
▁Simulation
▁asymptotic
▁exchanging
▁profoundly
▁contracting
▁fingerprint
▁specificity
▁Communication
▁approximation
▁familiarization
py
700
ugg
▁gh
▁ze
aryn
hero
iper
irus
leys
usal
▁2.3
▁Hol
▁Kab
▁Mak
▁Tel
▁www
asses
ribly
▁Ardu
▁Eric
▁Pyth
▁anch
▁benz
▁nets
▁prey
odrome
▁Dubai
▁Music
▁Satur
▁Temir
▁gamma
▁grace
▁lever
▁panic
▁sewer
ounding
▁30,000
▁Access
▁builds
▁fallen
▁tablet
bringing
▁Leaders
▁columns
▁holders
▁Movement
▁Solution
▁deployed
▁emulsion
▁obsolete
▁offshore
▁template
▁Argentina
▁Permanent
▁aggregate
▁declining
▁wheelchair
▁Independent
▁Legislative
▁distinctive
▁schizophren
▁unanimously
▁combinations
▁transforming
▁hydroelectric
▁teleconference
BR
OP
▁AM
▁Da
▁IE
▁Ms
▁SO
▁Ts
alyk
eday
food
half
igma
isen
itus
ktop
rade
rent
▁750
▁Mig
eling
rover
works
▁0,54
▁Aksu
▁Camp
▁Emer
▁Harm
▁Make
▁Mama
▁Soil
▁bend
▁carp
▁coin
▁dent
▁dirt
▁oils
▁spra
▁turk
ancers
ortium
▁Henry
▁Milan
▁Short
▁assim
▁bored
▁radar
▁rigid
▁scrap
▁shelf
▁tract
product
riminal
▁CRISPR
▁equals
▁fodder
▁junior
changing
▁Jupiter
▁islands
▁locomot
▁phrases
▁prisons
▁shifted
▁Measures
▁Military
▁ammonium
▁calories
▁morality
▁outgoing
▁overhead
▁surgical
▁licensing
▁normative
▁subjected
▁triangles
▁whitewash
performance
▁pensioners
▁Partnership
▁astonishing
▁celebrating
▁counterpart
▁emotionally
▁transformer
▁participates
▁justification
▁supplementing
▁Classification
▁scientifically
63
bot
dec
non
obs
▁2-
▁AL
▁BF
▁CF
▁MR
irts
kins
▁Men
▁Sus
▁fuz
▁tin
olite
storm
▁0,65
▁Cath
▁Hard
▁Norm
▁Zhol
▁asyl
▁palm
▁shoe
odynam
▁Check
▁Congo
▁Higgs
▁Kassy
▁alter
▁arous
▁crews
▁dilem
▁drama
▁inver
▁outdo
▁shore
▁shots
▁sinus
▁slice
▁usage
General
growing
pliance
▁Analyz
▁Monday
▁Portug
▁Rather
▁exclus
▁nitric
▁pollen
▁recipe
▁resemb
Audience
rational
▁Figures
▁bizarre
▁simpler
▁viewing
education
oneliness
▁adequate
▁animated
▁interven
▁minority
▁randomly
▁augmented
▁interrupt
interrupted
▁compelling
▁continents
▁rainforest
▁existential
▁stimulation
▁connectivity
▁perspectives
▁prerequisites
▁correspondence
▁epidemiological
2-
Fi
],
tr
Wow
nut
pen
uma
core
itic
yard
▁(18
▁Ele
▁Far
▁Nic
▁dup
▁ont
ihood
tices
▁0,60
▁Deep
▁Dmit
▁Sand
▁Star
▁cruc
▁drip
▁fier
▁golf
▁mate
holder
ijuana
oluble
▁Color
▁Stage
▁Tenge
▁anest
▁cater
▁decor
▁ingen
▁kinem
▁lions
▁pause
▁rotor
▁spare
▁chairs
▁emails
▁forens
▁jumped
▁weekly
▁writes
aternity
▁Account
▁Teacher
▁ambient
▁buttons
▁enemies
▁heading
▁hormone
▁locally
▁photons
▁pursuit
▁refract
artmental
intensive
precision
▁Berdybek
▁Moreover
▁blocking
▁ferroall
▁limiting
▁misunder
▁portrait
connection
▁displaced
▁offspring
▁realistic
▁receptors
▁confirming
▁repetition
▁Azerbaijani
▁desperately
▁interventions
▁revolutionary
Are
sts
▁7%
▁DH
▁SW
agen
idth
ilov
kele
neum
ophy
oves
pace
rise
▁2.2
▁95%
▁Gum
▁Jon
▁Sir
▁alb
▁bin
▁gin
anche
▁2001
▁Balt
▁Find
▁Give
▁[15]
▁brib
▁jack
▁oath
▁phon
▁unsc
-2020.
Europe
bayeva
carbon
illery
isting
usions
ussion
verest
▁Arist
▁Bronx
▁Chief
▁Louis
▁Radio
▁Turns
▁actor
▁embry
▁grasp
▁hosts
▁silly
▁stays
▁tribe
▁unint
raising
▁Contin
▁Search
▁Twenty
▁bother
▁excurs
▁firmly
▁foster
▁mentor
▁mosque
▁nights
▁presid
▁pulses
December
restrial
▁Arduino
▁Journal
▁bending
▁cascade
▁edition
▁imposed
▁pretend
▁abnormal
▁borrowed
▁evolving
▁founders
▁juvenile
▁profiles
▁skeleton
▁Malaysian
▁believing
▁liquefied
▁nonprofit
▁Monitoring
▁antibiotic
▁appliances
▁biologists
▁embankment
▁installing
▁likelihood
▁consolidate
▁pollination
▁interference
▁biotechnology
▁Constitutional
----------------
EP
NN
esc
occ
▁BL
▁["
▁az
alia
anal
iene
runk
▁Isn
▁Muh
▁Ram
▁Sit
▁vag
dated
hipov
maker
ompos
phony
tered
▁Jack
▁Kazk
▁Type
▁brig
▁kiss
▁rabb
▁verb
▁warn
person
thirds
unning
▁Eight
▁Field
▁Honor
▁Maple
▁Point
▁antid
▁fraud
▁perse
▁query
ividual
ndering
otation
▁Avenue
▁crowds
▁eighth
▁fixing
▁heaven
▁ladder
▁purely
▁serial
▁steels
▁thirty
▁undert
ausoleum
▁Florida
▁bedroom
▁boilers
▁default
▁examine
▁feather
▁grammar
▁shorter
▁useless
▁emphasis
▁european
▁horizons
▁interrog
▁kindness
▁mosquito
▁pastures
▁portable
▁turbines
▁youngest
authorized
▁Economics
▁developer
▁dismissed
▁diversify
▁mutations
▁oxidizing
▁phosphate
▁replicate
▁converting
▁exposition
▁expressing
▁stabilized
▁upbringing
▁variations
▁Temperature
▁inclination
▁spontaneous
▁grandparents
▁substitution
▁interreligious
▁crystallization
7)
CC
En
dm
ask
iac
law
net
sub
▁4.
▁CM
▁Ga
▁Li
▁ko
OLOG
amen
ania
dull
iyar
odox
sten
ytes
▁'60
▁Boy
▁Cup
▁Dam
▁Ham
▁Tes
▁Too
▁sap
March
naire
onent
osmos
ubile
▁Cert
▁Play
▁Shar
▁deaf
▁glue
▁labs
▁rush
▁subm
▁wrap
people
▁2030.
▁camel
▁chore
▁demol
▁fancy
▁minus
▁noble
▁ozone
▁rally
▁redes
▁steal
▁straw
▁wired
ameters
umetric
▁Cauchy
▁Irtysh
▁Metall
▁Proper
▁Though
▁apples
▁burial
▁grains
▁grocer
▁kidney
▁microp
▁shrink
▁unload
▁upside
olumines
▁Railway
▁bulldoz
▁dressed
▁expands
▁hitting
▁pharmac
▁portion
▁soluble
▁someday
amination
▁Citizens
▁Modeling
▁deserves
▁fairness
▁granular
▁hypothes
▁mobilize
▁validity
generation
▁Similarly
▁Strategic
▁accepting
▁coalition
▁educating
▁empirical
▁sensation
▁Abishevich
▁Eventually
▁satisfying
▁vibrations
▁collections
▁devastating
▁discovering
▁locomotives
▁suggestions
▁confidential
▁photographed
▁contradiction
▁uninterrupted
71
neg
ppe
▁2:
July
keev
mass
▁(7)
▁185
▁192
▁Ens
▁Old
ivial
▁1995
▁Bern
▁NGOs
▁Wars
▁grap
▁isot
▁prol
minded
ocracy
▁1,200
▁2006,
▁2010.
▁decay
▁imped
▁olymp
▁poets
▁shirt
▁spill
▁versa
lectric
▁akmola
▁corals
▁hyperb
▁lonely
▁mature
▁solves
generous
keletons
▁Swedish
▁cleaned
▁hosting
▁penalty
▁sliding
▁sounded
▁suspect
▁weekend
▁attacked
▁keyboard
▁laughter
▁monoxide
▁mortgage
▁premises
▁silicate
▁borrowers
▁competing
▁copolymer
▁defenders
▁empowered
forestation
▁Democratic
▁clustering
▁destroying
▁inevitably
▁nationwide
▁recipients
▁helicopters
▁remembering
▁Intellectual
▁considerable
33
94
IA
NO
-25
hal
mys
▁AK
▁Ce
▁KB
▁LE
▁ho
arse
auyr
ocin
oths
roit
size
unis
▁1.1
▁108
▁2.7
▁GAZ
▁Had
▁Low
▁Rat
▁Sky
▁Tor
▁Tro
▁Vik
▁ner
cycle
itous
smart
▁0,58
▁Abai
▁Arts
▁Bell
▁Diff
▁Eval
▁Farm
▁Leon
▁carc
▁chat
▁cope
▁cycl
▁flee
▁mang
▁mild
▁ster
▁wand
▁yard
hetics
▁Bible
▁Ghana
▁Jesus
▁cared
▁draws
▁fuzzy
▁limbs
▁risky
▁tetra
▁yards
▁Resear
▁Safety
▁acknow
▁electr
▁hydrop
▁hydrox
▁offset
▁pherom
▁sticks
▁unfair
▁yields
▁zoning
▁Section
▁cabinet
▁captain
▁extends
▁hackers
▁obliged
▁pricing
▁selfish
iologists
odynamics
▁cavities
▁contents
▁explicit
▁kinetics
▁recycled
▁suburban
▁Brazilian
▁exporters
▁terminals
Development
▁graduation
▁mainstream
▁popularity
▁suggestion
▁beautifully
▁consciously
▁exclusively
▁gasification
▁standardized
▁storytelling
▁Supplementing
▁mathematician
1:
km
ARS
Fig
aty
esh
iid
ili
tte
enez
test
▁2.1
▁Aer
▁Bah
▁EEC
▁Ecu
▁Hey
▁bol
itage
tanov
▁0,41
▁1998
▁Peru
▁fits
▁sake
▁taxi
▁woke
Cheers
compet
comput
istors
teness
▁Leban
▁Level
▁Smart
▁altru
▁annoy
▁caves
▁crust
▁deeds
▁fairs
▁flame
▁hated
▁pries
▁rails
▁stunt
nogorsk
▁Golden
▁Higher
▁Studio
▁Uralsk
▁allies
▁canvas
▁coding
▁enzyme
▁guards
▁starch
November
herbayev
▁Ecology
▁centres
▁contour
▁exclude
▁inertia
▁orbital
▁pellets
▁solvent
different
▁issuance
▁marathon
▁releases
▁spinning
▁treaties
▁Mukhamedi
▁accounted
▁airplanes
▁generates
▁processor
▁reasoning
▁succeeded
▁2017-2018.
▁Collective
▁Ministries
▁enthusiasm
▁generators
▁manipulate
▁mosquitoes
▁relational
▁withdrawal
organization
▁Technological
▁demonstrating
▁authentication
TA
And
aer
aug
cut
low
adow
iler
late
olen
▁10.
▁114
▁5.5
▁Luc
▁jur
▁les
▁0,59
▁Bash
▁Fire
▁Kair
▁acet
▁dece
▁narr
▁panc
▁seaw
ibbean
social
soever
▁Analy
▁Appro
▁Asset
▁irony
▁jelly
▁lifel
▁theat
▁ubiqu
healthy
keletal
▁Caucas
▁Visual
▁absent
▁buyers
▁crises
▁exempt
▁purple
National
finished
▁Someone
▁Summing
▁William
▁broader
▁confron
▁corrupt
▁cycling
▁decides
▁grouped
▁spreads
▁winding
igmatulin
▁Hospital
▁baseball
▁examines
▁nanostru
▁pointing
▁protects
▁provider
▁refinery
▁siblings
▁Kassymbek
▁attitudes
▁copyright
▁criminals
▁planetary
▁pressures
▁Bangladesh
▁celebrates
▁concerning
▁narratives
▁playground
▁popularize
▁throughput
▁whatsoever
▁Measurement
▁restriction
▁differentiation
▁multifunctional
SE
ano
cor
fly
lie
rys
▁LA
▁OS
▁Os
▁RB
▁TR
▁Ti
▁ai
Best
apch
atin
chem
iban
sels
seud
▁188
▁Rom
▁Ust
▁fav
ilism
onyms
rolog
▁Acts
▁Club
▁Coll
▁Hall
▁chop
▁deck
▁dock
▁eidu
▁lion
▁soup
▁toug
aceous
artite
erness
future
henium
▁Apoll
▁alpha
▁naval
▁pneum
▁poses
▁redef
idation
imbetov
service
▁Akorda
▁Geneva
▁diving
▁insane
▁parlia
▁purity
▁rolled
▁spends
iqueness
▁careers
▁hopeful
▁jumping
▁secular
▁creators
▁discount
▁finances
▁furnaces
▁grouping
▁relating
▁revision
▁sandwich
▁sporting
▁touching
▁underest
▁Chemistry
▁Otherwise
▁aluminium
▁clearance
▁paralyzed
▁passwords
Information
▁attachment
▁microscopy
▁prescribed
▁visibility
▁volumetric
▁competitors
▁parliaments
▁strengthens
▁Distribution
▁consolidated
▁developmental
▁specialization
▁straightforward
LP
NG
Sah
arn
pic
rup
tor
▁La
atab
bled
nova
olyb
omon
pack
wind
▁Adv
▁Kor
▁Lim
forms
opard
space
▁Gand
▁Half
▁Pale
▁arom
▁retr
▁tale
▁trun
metall
mobile
rategy
vement
▁6,000
▁Relig
▁boats
▁eaten
▁manus
▁overs
▁wrist
angered
arrator
avtodor
enezuel
uristic
▁Mining
▁biases
▁cooled
▁exempl
▁helmet
▁perman
▁postal
▁strike
▁viewed
irements
▁Detroit
▁Moldova
▁ammonia
▁anxious
▁cancers
▁congest
▁elegant
▁gallery
▁nursing
▁restric
▁retreat
▁slowing
Nursultan
▁Carolina
▁Muhammad
▁analyzes
▁graphene
▁harmonic
▁learners
▁penguins
▁supplier
▁unreason
▁vertices
▁Cambridge
▁answering
▁biologist
▁departure
▁fortunate
▁marijuana
▁purchases
▁resonance
▁shoulders
▁therapist
▁unlimited
▁concluding
▁critically
▁loneliness
▁microphone
▁uniqueness
▁advancement
▁descendants
▁intensified
▁medications
▁rectangular
▁terminology
▁unauthorized
▁questionnaire
▁synchronization
.]
49
6)
69
OT
▁?
bon
cop
ecd
enz
▁LT
▁Pa
adel
aire
alls
rint
star
▁1-2
▁109
▁191
▁320
▁Ait
▁Kel
▁Kin
▁Van
▁gul
anies
lecom
month
party
south
start
width
▁0,66
▁2003
▁Bush
▁aids
▁bust
▁drag
▁dumb
▁mell
▁pave
▁wins
Almaty
asonic
retion
ttrium
▁Later
▁artic
▁breed
▁glory
▁hoped
▁incon
▁saves
Turkish
olutely
▁Govern
▁comedy
▁discom
▁potato
▁themes
auyrzhan
ractions
specific
▁Alright
▁Reserve
▁Serbian
▁Usually
▁convinc
▁dismant
▁faction
▁flooded
▁scaling
▁swallow
▁Saturday
▁Specific
▁Tashkent
▁Whatever
▁adapting
▁confirms
▁inferior
▁intimate
▁leverage
▁sampling
▁suppress
▁Caribbean
▁applicant
▁corridors
▁microbial
▁microwave
▁northeast
▁pathogens
▁regulator
▁stressful
▁symmetric
▁attributed
▁contractor
▁documented
▁pesticides
▁accelerator
▁immigration
▁nominations
▁peculiarity
▁simulations
▁notification
▁occasionally
▁simultaneous
▁compatibility
":
61
LC
NH
Un
ATI
hop
uds
weg
▁Od
agai
egal
good
meas
pres
rypt
uilt
▁107
▁Arc
▁Ast
▁bid
▁dug
arbor
asive
attle
enges
ermek
ierra
layer
produ
▁0,62
▁0,71
▁1930
▁actu
▁feat
▁pond
▁tuna
ealous
earing
essing
hedral
invest
minute
▁Crime
▁Hedge
▁Spect
▁doses
▁fatal
▁feeds
▁kills
▁loses
▁mercy
▁ports
process
regular
station
▁Slovak
▁battal
▁carpet
▁corpus
▁hockey
▁hosted
▁learns
▁singer
▁storms
▁thrust
▁Johnson
▁beating
▁bottles
▁braking
▁coaches
▁deepest
▁dispens
▁genital
▁liberty
▁pockets
▁sadness
▁Interest
▁adjusted
▁doctrine
▁dolphins
▁pathways
▁seasonal
▁striving
▁clarified
▁karaganda
▁mausoleum
▁overnight
▁servicing
▁visualize
▁Especially
▁endangered
▁evacuation
▁moratorium
▁trilingual
▁establishes
▁greenhouses
▁researching
▁subsistence
▁communicative
▁desertification
Me
ml
chi
eda
▁4-
▁SC
▁TO
▁ib
▁ka
▁nu
aine
ghed
iany
osan
rimp
▁155
▁Bra
▁Dad
▁MET
▁RNA
▁abd
▁bip
▁soy
ambet
▁0,67
▁1200
▁1991
▁Circ
▁Line
▁Thai
▁mere
▁rape
▁seiz
▁surf
driven
effect
khanov
reedom
▁Nikol
▁Optim
▁Santa
▁annum
▁comic
▁coron
▁fever
▁gonna
▁royal
▁stair
Saharan
erating
olybden
▁Albert
▁Little
▁Review
▁amazed
▁apolog
▁argued
▁denial
▁embark
▁fluids
▁incons
▁insign
▁joyful
▁mayors
▁parach
▁sewing
▁shovel
▁turkey
olecular
▁200,000
▁Belgium
▁Friends
▁Opening
▁Princip
▁conting
▁damping
▁desktop
▁logging
▁priorit
▁refined
▁relates
▁subsidy
▁Catholic
▁Kaztrans
▁Narrator
▁Venezuel
▁dinosaur
▁enhanced
▁magnific
▁moreover
▁multiply
▁Companies
▁Increased
▁catalytic
▁struggles
▁Comparison
▁disclosure
▁processors
▁recognizes
▁Description
▁Informatics
▁contractors
▁dissolution
▁inexpensive
▁intensively
▁Presidential
▁scholarships
▁investigating
▁Identification
▁redistribution
62
ti
Kar
ady
awa
cre
iya
rac
rof
zak
▁MI
▁VI
mukh
otor
prop
raft
thur
▁Ach
▁Bot
▁Gre
▁KAZ
▁awe
▁iod
▁pie
abaev
backs
bolat
ushed
▁1900
▁HTML
▁Lord
▁Tool
▁USSR
▁blah
▁dens
▁eaeu
▁lump
▁shed
▁worm
apshag
screen
▁Altyn
▁Gates
▁Hawai
▁INFOR
▁blast
▁flags
▁maker
▁quota
▁revel
housing
ountain
uddenly
ultures
▁Donald
▁Except
▁Farabi
▁Native
▁Simple
▁anomal
▁asleep
▁hatred
▁layout
▁marrow
▁sketch
▁waited
▁weaken
▁yogurt
▁Changes
▁Develop
▁Gumilev
▁anomaly
▁destiny
▁disgust
▁dreamed
▁rethink
▁sulfate
▁suscept
▁trusted
▁warrior
component
▁Veterans
▁conveyor
▁deciding
▁dreaming
▁entitled
▁paraffin
▁sewerage
▁sexually
▁steadily
▁artillery
▁compiling
▁cylinders
▁decentral
▁dispersed
▁harvested
▁inability
▁resilient
▁restoring
▁seedlings
▁stiffness
▁controller
▁convincing
▁deployment
▁hemisphere
▁hyperbolic
▁managerial
▁nanocompos
▁references
▁submission
▁Kazatomprom
▁astronomers
▁exceptional
▁exoskeleton
▁influencing
▁prestigious
▁subscribers
▁undergraduate
67
SO
dp
-80
azy
eys
ioc
rue
▁Pi
▁[7
crit
four
high
lesh
mate
prom
rone
seen
▁Fer
▁Kas
▁MOD
▁Wow
▁tox
-2016
about
ilbek
olith
tingu
yshev
▁0,44
▁2002
▁Mikh
▁Sens
▁Tasm
▁aunt
▁bang
▁cens
▁ende
▁narc
▁opio
Health
access
bright
▁2025,
▁Brook
▁Karak
▁energ
▁fails
▁flora
▁fungi
▁hills
▁perme
inister
onopoly
ulatory
▁2020."
▁Daniel
▁Sierra
▁advers
▁cables
▁heroic
▁resett
▁soccer
▁stocks
▁virgin
friendly
ogeneity
▁Already
▁Estonia
▁Islands
▁auditor
▁blocked
▁enjoyed
▁execute
▁extingu
▁fortune
▁handful
▁hygiene
▁shipped
▁singers
▁staring
olybdenum
▁Managing
▁arranged
▁fabulous
▁medieval
▁mellitus
▁shocking
▁tropical
▁abundance
▁desperate
▁headlines
▁replenish
▁screaming
▁similarly
▁sustained
▁victories
▁visionary
▁Efficiency
▁Functional
▁bozumbayev
▁consortium
▁discomfort
▁introduces
▁limitation
▁locomotive
▁refineries
▁electrocard
▁financially
▁vaccination
▁Experimental
▁hierarchical
▁philosophers
6%
An
ela
kum
▁ly
bing
ethe
oton
rame
xual
▁'90
▁112
▁4.0
▁Bes
▁PRC
▁Roy
▁TEC
▁rab
▁rou
▁zoo
aires
anova
books
comed
educe
ellow
gered
itory
onomy
▁Gard
▁adds
▁bite
▁jung
▁lean
▁zher
acious
boards
chenko
esters
growth
payers
▁Defin
▁Legal
▁gains
▁genoc
▁phant
▁plank
▁posed
▁rifle
▁spray
▁swing
▁worms
ourcing
▁Others
▁Sarinz
▁Victor
▁absurd
▁earned
▁gentle
▁inflow
▁mapped
▁nerves
▁pillar
▁shrimp
▁spiral
▁stolen
▁sugars
▁viewer
February
▁Aristot
▁Stephen
▁benzene
▁blowing
▁dispute
▁emitted
▁premium
▁texture
▁travels
▁weights
▁Christop
▁attracts
▁dissemin
▁parental
▁prisoner
▁remotely
▁spelling
▁Religions
▁allowance
▁delicious
▁elemental
▁inspected
▁magazines
▁orphanage
▁terrified
▁compromise
▁criticized
▁derivative
▁fractional
▁invaluable
▁procedural
▁Composition
▁Zhoshybayev
▁backgrounds
▁collectives
▁integrating
▁neuroscient
▁permanently
▁pornography
▁predictable
▁sedimentary
▁Professional
▁Zhumagaliyev
▁broadcasting
▁spectrometer
▁interestingly
88
jo
va
ESS
bye
deg
erk
ogs
▁ES
▁MA
auna
feed
keep
risk
writ
▁128
▁2.6
▁40-
▁Bud
▁Tai
▁blu
▁lip
▁vic
Laugh
burgh
found
hetys
table
uther
▁0,61
▁Fort
▁Hope
▁Rock
▁Show
▁cass
▁damn
▁evid
▁hind
▁nuts
▁oven
center
ilbert
ionucl
▁Block
▁Buddh
▁Hydro
▁Yemen
▁buyer
▁ethno
▁fence
▁peaks
▁swarm
▁twent
ubility
▁Around
▁debris
▁intest
▁paints
▁slaves
▁temple
▁violin
▁belarus
▁editors
▁laughed
▁reagent
▁rituals
▁shelves
▁strings
▁Criminal
▁Heritage
▁Olympiad
▁Suddenly
▁bankrupt
▁colonial
▁feminist
▁violated
▁kinematic
▁metabolic
▁releasing
▁revealing
▁strengths
▁Activities
▁engineered
▁illustrate
▁irradiated
▁obligation
▁practicing
▁tripartite
▁ubiquitous
▁vertically
▁Sustainable
▁computation
▁consistency
▁perceptions
▁willingness
▁Comprehensive
▁photographers
▁theoretically
1-
7%
oto
top
▁MO
▁Yu
▁mr
▁ov
ONAL
fare
gged
iana
ihad
irth
prot
ueen
zero
▁5-6
▁Cat
▁Kir
▁Neg
▁ait
▁sco
▁tok
aulet
eller
scape
umble
ysics
▁0,70
▁Eliz
▁Home
▁Lore
▁Lyap
▁Orth
▁hash
▁seal
▁symp
▁wore
accept
awatts
enders
icides
redict
ulsion
umbers
ytocin
▁2025.
▁Hello
▁Vasil
▁alert
▁alleg
▁batch
▁messy
▁repay
▁shine
▁spite
▁teens
▁twins
▁ultra
▁Andrei
▁Cambod
▁Disney
▁Joseph
▁Norweg
▁immort
▁miners
▁nozzle
▁riding
▁tattoo
▁verbal
breaking
itations
▁Mineral
▁Taliban
▁creator
▁editing
▁ethanol
▁intrins
▁relying
▁sharply
▁shortly
▁specify
▁Palestin
▁abundant
▁cartoons
▁colorful
▁deadline
▁december
▁flooding
▁forensic
▁interdep
▁purified
▁pursuing
▁respects
▁smallpox
▁terribly
▁weighing
▁Effective
▁deadlines
▁exporting
▁historian
▁radionucl
▁struggled
▁subsystem
▁taxpayers
continental
▁compatible
▁hydropower
▁orphanages
▁programmed
▁deprivation
▁expenditure
▁facilitated
▁magnificent
▁negotiation
▁accomplished
▁nevertheless
▁prescription
▁recommendation
54
IG
ja
400
cap
lam
rag
Okay
anas
arma
irlf
ttes
will
▁CHP
▁End
▁Lap
▁Ted
▁bun
▁eeo
agons
gging
grand
inger
nikov
ranch
rians
roche
ulose
▁0,68
▁1300
▁Card
▁Mike
▁News
▁Poss
▁odor
▁pige
▁torn
▁unim
aceted
consum
ctural
ubilee
▁2030,
▁Force
▁Linux
▁Rules
▁Sorry
▁erlan
▁fatig
▁lifes
▁nanot
▁sands
▁sauce
▁swamp
Singing
amiliar
centers
digital
inarily
powered
rasonic
uminous
▁Bridge
▁Cities
▁Decree
▁Greeks
▁Senior
▁admire
▁cheers
▁commem
▁copied
▁dining
▁horror
▁multic
▁quarry
▁rotate
▁sooner
hibition
language
▁donated
▁footage
▁pouring
▁retired
▁rewards
▁yttrium
ianyungan
istration
itiveness
▁Products
▁arriving
▁avoiding
▁bicycles
▁dopamine
▁gestures
▁leaching
▁matching
▁musician
electronic
▁Emergency
▁Political
▁immigrant
▁inconsist
▁irregular
▁iteration
▁simulated
▁charitable
▁identifies
▁pedestrian
▁polyclinic
▁prevalence
▁prosthetic
▁Mathematics
▁confidently
▁fortunately
▁unconscious
▁voluntarily
▁unbelievable
▁transformative
72
iva
kil
opt
▁6%
▁EF
▁Gi
agul
alov
comp
earl
eric
igil
ikal
live
offs
olin
ques
quis
riqu
that
▁Abu
▁Cyr
▁FBI
▁Hor
▁Hub
▁IBM
▁Lie
▁Muk
▁Sah
▁kum
aigas
icked
ienna
▁(10)
▁1800
▁1999
▁Bakh
▁Ford
▁Full
▁Omar
▁Rece
▁Snow
▁Soon
▁chef
▁cube
▁foam
▁herb
agonal
inance
▁2003,
▁2011.
▁TECHN
▁Titan
▁crane
▁fifty
▁flesh
▁patch
▁unman
herical
nuclear
▁Aliyev
▁Dmitry
▁Empire
▁Oxford
▁Python
▁Select
▁Tamara
▁accent
▁aerial
▁barley
▁cousin
▁deform
▁depths
▁garage
▁hiring
▁marker
▁meteor
▁underm
ongevity
▁Firstly
▁Germans
▁exhibit
▁gateway
▁multipl
▁ranging
conscious
istorical
▁Lyapunov
▁activism
▁envelope
▁headline
▁outdated
▁trainees
▁welcomed
▁advisable
▁cigarette
▁educators
▁extremist
▁gentleman
▁iterative
▁recovered
▁sexuality
▁trainings
▁collectors
▁congestion
▁disconnect
▁explosions
▁networking
▁signatures
differential
▁Researchers
▁checkpoints
▁phosphorite
▁transistors
▁organoleptic
▁polarization
▁deforestation
▁photosynthesis
▁administrations
Pe
SS
Te
.'"
him
▁02
▁Bh
▁DM
▁PV
Iran
aque
avan
obia
▁Ide
▁Sud
▁lap
▁rip
▁shy
April
Third
ograd
peare
reach
retty
ropri
▁0,39
▁0,72
▁0,73
▁Dark
▁Iron
▁View
▁clue
▁gala
▁inex
▁mukh
▁sept
▁ward
bestos
letion
racies
▁[1-3]
▁chron
▁prone
▁ruler
▁tiles
onation
▁Spring
▁akhmet
▁counts
▁excuse
▁nightm
▁pencil
▁prejud
▁retina
▁scored
▁stairs
▁traces
▁Conduct
▁arsenic
▁exploit
▁grocery
▁jealous
▁matches
▁missile
▁outrage
▁phantom
▁shining
akespeare
▁Exchange
▁Gulshara
▁Obtained
▁archival
▁athletic
▁constitu
▁dropping
▁founding
▁temirtau
▁textiles
production
▁Bauyrzhan
▁blindness
▁exclusion
▁finishing
▁geosystem
▁paralysis
▁rejection
▁repeating
▁therapies
▁Affordable
▁Lianyungan
▁altogether
▁chromosome
▁geodynamic
▁separating
▁solubility
▁waterproof
▁collaborate
▁consultants
▁continental
▁hydrophobic
▁Calculations
▁accompanying
▁commissioner
▁disconnected
▁kazakhstanis
▁unreasonable
▁schizophrenia
▁Administrative
avy
bag
eem
inf
mir
▁5-
▁NB
▁TK
▁gi
▁ip
abai
enza
igan
phia
rill
uate
▁3.3
▁6.5
▁FDA
▁Jen
▁MSW
▁Rog
▁ego
▁sab
added
energ
onian
▁(200
▁Kent
▁axes
▁bugs
▁cher
▁chim
▁rend
▁seap
▁soda
▁tsun
acchar
arcity
degree
golden
ishers
umbled
▁Allow
▁Press
▁carbo
▁float
▁grabb
▁grams
▁grave
▁merch
▁paste
▁tutor
▁urged
rasound
zhanova
▁Colomb
▁Employ
▁Saturn
▁births
▁boxing
▁census
▁courty
▁digits
▁ingots
▁paired
▁racing
▁thermo
adelphia
ogenesis
▁Iceland
▁Philipp
▁bearing
▁distill
▁farther
▁mirrors
▁patents
▁pursued
▁reclaim
▁tactics
▁threads
▁trivial
▁wounded
financial
terrorism
▁diagnose
▁enrolled
▁exploded
▁hopeless
▁impaired
▁mentally
▁protests
▁redesign
▁surgeons
▁switches
▁watering
ditionally
rientation
▁Character
▁Typically
▁dictators
▁evidenced
▁imagining
▁limestone
▁malignant
▁negotiate
▁slaughter
▁Generation
▁anticipate
▁elasticity
▁inherently
▁programmer
▁Competition
▁Preparation
▁adjustments
▁calibration
▁campaigning
▁commitments
▁recruitment
▁Philadelphia
▁Requirements
▁antimonopoly
▁dependencies
▁authoritarian
▁harmonization
▁informational
2/
92
YS
ECD
ITY
Ind
aba
eps
gal
sat
▁4%
▁BM
▁Ca
▁Ka
▁MC
▁RG
▁SB
▁ba
▁ic
▁tu
coin
ieva
itar
itri
open
owed
▁260
▁Moz
▁VAT
▁gdp
▁hay
▁jam
▁lin
▁ltd
▁rum
accur
ietal
iscal
omics
ostic
pling
yalty
▁0,64
▁1997
▁Brun
▁Homo
▁Pack
▁Poll
▁STUD
▁Tony
▁athe
▁blew
▁dedu
▁frog
Reduce
imated
itance
ivated
onents
▁Leone
▁Minsk
▁Stock
▁Types
▁beams
▁beets
▁ferry
▁lasts
▁lobby
▁myths
▁polym
angible
keepers
▁Lesson
▁Streng
▁Sultan
▁Yorker
▁advise
▁bucket
▁cradle
▁intent
▁knives
▁marvel
▁pixels
▁selves
▁throat
etheless
▁Dalenov
▁Example
▁Senegal
▁Station
▁arguing
▁battles
▁despair
▁dilemma
▁marking
lications
portfolio
rochement
▁Examples
▁Romanian
▁Saryarka
▁Somebody
▁ancestor
▁asteroid
▁chlorine
▁encyclop
▁moderate
▁oxytocin
▁predator
▁temporal
▁Aerospace
▁Aristotle
▁acquiring
▁bandwidth
▁collapsed
▁exhausted
▁hydrogels
▁miserable
▁parenting
▁Additional
▁Evaluation
▁adequately
▁blockchain
▁commanders
▁creatively
▁economical
▁geothermal
▁infinitely
▁responding
▁subscriber
▁subsidized
▁yourselves
▁Shakespeare
▁controllers
▁fluorescent
▁agribusiness
▁chemotherapy
▁consultation
▁compassionate
▁professionally
"]
8%
9%
AI
CL
MM
Re
aco
afe
cad
pot
▁om
▁pm
-100
atpa
greg
inea
oker
olas
stop
▁'80
▁(8)
▁Hot
▁Ily
▁Ren
▁ain
▁asc
ashak
cking
count
hesia
optic
wheat
▁9/11
▁Ever
▁Gate
▁Jews
▁KazN
▁Luck
▁Much
▁cups
▁curv
▁fict
▁kern
▁numb
▁pupp
▁volt
hetysu
iciary
illage
▁1995,
▁Bayes
▁Early
▁Flash
▁Liter
▁Staff
▁burns
▁cance
▁clues
▁jihad
▁mined
▁polls
▁pseud
▁reper
▁tenth
chloric
orphous
▁Create
▁Pretty
▁acidic
▁cowork
▁donors
▁empire
▁exotic
▁humble
▁lining
▁tenges
▁valves
▁wasted
erations
ociation
▁Seattle
▁declare
▁mentors
▁powered
▁valleys
ciliation
▁Consumer
▁Distance
▁Satpayev
▁backbone
▁backyard
▁demanded
▁shymkent
amenogorsk
▁Formation
▁Norwegian
▁Practical
▁bulldozer
▁confusion
▁inherited
▁longevity
▁maternity
▁medicinal
▁september
▁skeptical
▁superhero
residential
▁Dependence
▁Fatherland
▁Geographic
▁Indicators
▁compressor
▁dielectric
▁innovators
▁normalized
▁presidency
▁spectromet
▁Sarinzhipov
▁Statistical
▁frightening
▁supermarket
▁temporarily
▁characterize
▁deliberately
▁interruption
▁regeneration
▁similarities
▁strategically
43
UPU
har
iti
kas
oen
oft
oub
rik
was
▁Ul
▁Ze
▁ca
▁cu
alym
fund
hole
iffs
mill
neys
utan
▁'70
▁(19
▁138
▁204
▁7.5
▁Dir
▁Enc
▁Pos
▁Voc
▁cum
▁erg
▁jar
▁rap
▁xen
abeth
digit
onald
orted
▁0,50
▁Pros
▁Rust
▁Walk
▁Zimb
▁dawn
▁sexy
▁twin
▁unle
lights
▁Bayan
▁Marat
▁Offic
▁Sound
▁Zholy
▁belly
▁detox
▁drast
▁eagle
▁irrit
▁mills
▁pills
▁theft
atabase
aurzhan
hetical
ouncing
▁Apollo
▁Arthur
▁Danial
▁Expert
▁Import
▁Kumkol
▁League
▁Ruslan
▁Theory
▁Vienna
▁asylum
▁breeds
▁dental
▁detach
▁fierce
▁impair
▁optics
▁overlo
▁scarce
▁shower
▁shrubs
▁sights
minister
▁cathode
▁dancers
▁divides
▁generic
▁gesture
▁lithium
▁longest
▁markers
▁nonviol
▁onstage
▁powders
▁richest
abilistic
patriotic
▁Programs
▁chickens
▁exploits
▁extraord
▁famously
▁genocide
▁immunity
▁innovate
▁irrevers
▁lifelong
▁patience
▁peripher
▁psychiat
▁responds
▁scarcity
▁startups
▁tangible
▁MapReduce
▁beverages
▁impressed
▁intersect
▁mentality
▁parachute
▁pervasive
▁Christians
▁Individual
▁Kazavtodor
▁practition
▁predictive
▁recordings
▁sculptures
▁supporters
▁Methodology
▁Programming
▁productions
▁distributing
▁microprocess
▁multifaceted
▁refrigerator
▁personalities
▁manifestations
Cu
US
-18
ixt
lab
sem
uct
▁Lu
▁Ra
▁SK
▁ii
2015
Here
ikov
iped
itas
lead
lict
▁(9)
▁1.9
▁Cra
▁Ush
▁VII
▁dye
▁fog
▁tel
▁tie
adata
andyk
elson
imova
inton
losed
▁9000
▁Drug
▁Hans
▁ISIS
▁SARS
▁Self
▁Yuri
▁Zham
▁[1].
▁bats
▁gast
▁impe
▁pine
▁seaf
▁tune
▁whis
Laughs
aseous
mbetov
ocated
search
▁2004,
▁Goals
▁Kyzyl
▁Psych
▁arche
▁briqu
▁choir
▁coins
▁escal
▁frost
▁girlf
▁humil
▁noisy
▁prism
▁raped
▁reimb
▁scaff
▁sheer
▁sweat
Caspian
rystall
ungsten
▁Andrew
▁Ground
▁aliens
▁proton
▁runoff
▁towers
▁valued
European
metallic
▁Atlanta
▁Mikhail
▁categor
▁fertile
▁labeled
▁lasting
▁monster
▁sailing
▁Medicine
▁Mountain
▁Nigerian
▁adhesion
▁downtown
▁promises
▁resulted
▁uniquely
▁demanding
▁endurance
▁exchanges
▁polluting
▁Amendments
▁eliminates
▁harassment
▁prototypes
▁Governments
▁appreciates
▁coordinator
▁democracies
▁electrolyte
▁geophysical
▁impressions
▁interpreted
▁oncological
▁registering
▁revolutions
▁embarrassing
▁subsequently
4%
47
Co
iga
obi
ona
pha
sea
wan
▁CL
▁Gr
▁NO
▁SE
▁SY
▁Ye
▁ek
▁kV
▁sq
abwe
emia
enth
oxid
race
regn
usup
▁118
▁123
▁127
▁Amy
▁Oft
▁Sey
atson
icism
leted
▁COMP
▁Coal
▁Cold
▁Nick
▁Prom
▁aust
▁bark
▁inch
▁jazz
▁pend
alling
geries
▁1998,
▁Champ
▁Cross
▁Jones
▁Maria
▁Moore
▁Reduc
▁Seven
▁arrow
▁batyr
▁cited
▁diode
▁elong
▁gates
▁races
▁rides
▁unamb
atively
itories
lighten
nthetic
pective
portion
ytbekov
▁Abdull
▁Anyone
▁Copper
▁Inside
▁Neural
▁anchor
▁depict
▁dispro
▁merits
▁miscon
▁noises
▁porous
▁refine
▁smells
▁vagina
▁warned
Strategy
agadiyev
▁amateur
▁coolant
▁domains
▁mercury
▁smailov
▁torture
fessional
ikalikova
▁Brooklyn
▁Caucasus
▁Virginia
▁Zimbabwe
▁addicted
▁carbohyd
▁junction
▁leveling
▁mutation
▁orbiting
▁sacrific
▁traction
▁Venezuela
▁certainty
▁embracing
▁encrypted
▁festivals
▁organizes
▁sediments
▁supplying
▁transcend
▁universes
▁chimpanzee
▁compensate
▁decorative
▁dependency
▁exhaustion
▁inspectors
▁preference
▁purchasing
▁supportive
▁turbulence
▁Interactive
▁aspirations
▁distinction
▁excavations
▁formulation
▁ineffective
▁overwhelmed
▁susceptible
▁Architecture
▁catastrophic
▁completeness
▁Understanding
▁profitability
▁representations
1%
Ag
IF
Ph
bus
eve
ige
log
nar
usp
▁CT
▁Ky
▁Zn
axis
bage
elve
evin
iots
lice
obil
oids
page
poly
sing
▁117
▁124
▁60-
▁DEV
▁Nep
▁aks
▁dub
▁eru
▁wre
after
borne
bulak
oping
▁0,78
▁0,81
▁10%.
▁Appl
▁Hero
▁Ivan
▁OECD
▁Tanz
▁Word
▁bulb
▁echo
▁horn
▁obsc
▁pulp
▁quot
-2020,
MATION
astana
fields
ronics
uesday
▁2008.
▁Brian
▁Lagos
▁Medic
▁Sarah
▁chase
▁comet
▁dread
▁eject
▁ghost
▁inaug
▁reass
balance
ometown
roverts
▁County
▁Michel
▁Police
▁Prince
▁Survey
▁brutal
▁carrot
▁defeat
▁denied
▁outlet
▁stigma
▁titles
▁venues
interest
▁Kulagin
▁Members
▁Primary
▁Purpose
▁aquatic
▁artwork
▁beloved
▁climbed
▁copying
▁fatigue
▁genomes
▁manages
▁october
▁origami
▁outlets
▁prolong
▁protons
▁regimes
▁sausage
▁strikes
▁unhappy
▁viewers
▁worship
▁wrapped
etermined
explained
▁Emirates
▁Probably
▁additive
▁analysed
▁auditory
▁converts
▁determin
▁embraced
▁hearings
▁rainfall
▁relieved
▁seawater
▁stimulus
▁tolerant
▁tomatoes
▁Saryagash
▁advertise
▁amorphous
▁amplifier
▁attending
▁breakdown
▁catastrop
▁coincides
▁consisted
▁interfere
▁signaling
▁withdrawn
▁workpiece
▁Mechanical
▁conductors
▁cosmodrome
▁harmonious
▁ingredient
▁intangible
▁manifested
▁remarkably
▁ultrasonic
▁ultrasound
▁Theoretical
▁algorithmic
▁facilitates
▁influential
▁marketplace
▁projections
▁transgender
Modernization
▁hydrodynamic
▁hypothetical
▁philanthropy
▁stakeholders
Ak
KZ
Sm
ERS
GBT
LAB
max
uce
▁03
-202
MENT
aver
gets
ilot
pend
seit
sins
ukas
went
▁136
▁210
▁270
▁650
▁75%
▁ATM
▁Ald
▁Div
▁Joe
▁Ord
▁Rod
▁Tax
▁los
▁pod
actor
auren
▁1500
▁Best
▁DBMS
▁Docu
▁Fast
▁Fred
▁Scot
▁Whit
▁acry
▁drow
▁gamb
▁mart
▁yons
Sultan
bodied
export
handed
ibayev
ilayer
irable
urgeon
vetlan
▁1997,
▁Bregg
▁Bruno
▁Coast
▁Costa
▁Murat
▁argon
▁blown
▁cares
▁cereb
▁clays
▁deval
▁dimin
▁excit
▁motto
▁optic
▁pulls
▁rated
▁telem
atility
natural
onymous
▁Establ
▁Export
▁Multip
▁Online
▁Yermek
▁beaten
▁divine
▁hammer
▁iconic
▁indoor
▁mammal
▁methyl
▁minors
▁ranked
▁relies
▁rented
▁sealed
▁shores
ographer
▁Airport
▁Jinping
▁Samples
▁Whereas
▁cleaner
▁desires
▁fantasy
▁lottery
▁nomadic
▁tablets
▁tractor
▁tsunami
▁Judicial
▁imprison
▁infinity
▁inventor
▁noticing
▁referend
▁volatile
▁Commander
▁Kazakhmys
▁Parkinson
▁TECHNOLOG
▁adjusting
▁anomalies
▁budgetary
▁elaborate
▁intervene
▁meanwhile
▁mysteries
▁populated
▁targeting
▁Motherland
▁Structural
▁extractant
▁households
▁inventions
▁relativity
▁stretching
▁suspicious
▁Christopher
▁Comparative
▁circulatory
▁compilation
▁nationality
▁programmers
▁questioning
▁transitions
▁variability
▁Abdikalikova
▁accidentally
▁electrocardi
▁examinations
▁inequalities
▁heterogeneous
▁rapprochement
▁reconciliation
SD
VE
Did
ITH
hma
ois
oro
▁6)
▁AP
They
ador
asai
pher
uary
worm
▁3,0
▁85%
▁Bru
▁Jam
▁TRA
▁Tay
▁Try
▁cuc
▁dod
arrhe
asant
block
child
hydro
▁(11)
▁0,69
▁LGBT
▁Same
▁Term
▁june
▁lane
▁toss
anking
arming
ctured
ibekov
ranean
ritten
strong
ultans
▁10-15
▁Milky
▁Stone
▁Talas
▁anaer
▁asian
▁drunk
▁ethyl
▁haunt
▁ionic
▁knees
▁ninth
▁seals
▁unequ
control
imetric
telecom
vetlana
▁60,000
▁KazUPU
▁cereal
▁dragon
▁fiscal
▁freeze
▁hippoc
▁jungle
▁tomato
▁truths
▁varied
Learning
▁Connect
▁Optimal
▁Paralym
▁brigade
▁dataset
▁descent
▁diarrhe
▁divorce
▁dolphin
▁emerges
▁khanate
▁pathway
▁portals
▁shadows
▁updates
▁utterly
▁varying
▁visions
▁Russians
▁adopting
▁aromatic
▁attorney
▁basement
▁biathlon
▁capitals
▁catching
▁handling
▁hometown
▁pavlodar
▁survivor
▁Ekibastuz
▁Elizabeth
▁Materials
▁firsthand
▁illnesses
▁lightning
▁premature
▁spherical
▁surgeries
▁unpredict
▁Absolutely
▁Bozumbayev
▁assembling
▁calculates
▁consultant
▁contradict
▁decreasing
▁designated
▁landscaped
▁reflective
▁relaxation
▁translator
▁synchronous
▁assimilation
▁hydrochloric
▁congratulation
,'
2.5
Con
She
aby
lly
lot
pin
two
▁08
▁OP
▁Pu
▁[8
▁la
ICAL
gels
hran
ieth
robi
this
▁111
▁4.4
▁Bos
▁Ric
▁bib
▁sar
▁voy
Every
iably
impse
itime
omers
ribed
trial
▁..."
▁1994
▁Aman
▁Auez
▁Base
▁Core
▁Fuel
▁Mess
▁Sher
▁Zero
▁adul
▁cage
▁dare
▁hood
▁iPod
▁reck
▁snap
▁tran
Script
ambets
iators
itated
levant
mental
monaut
neighb
▁Derek
▁Heart
▁Image
▁Tunis
▁april
▁backs
▁blogs
▁bucks
▁cheer
▁equip
▁gauge
▁loops
▁perin
▁pound
▁sandy
inograd
ogypsum
▁Direct
▁Forest
▁Linear
▁Marine
▁alkali
▁camels
▁costly
▁dances
▁inches
▁influx
▁lasers
▁margin
▁mating
▁parity
▁statue
▁viable
roscopic
▁Honored
▁Mexican
▁Tuesday
▁aroused
▁counted
▁cousins
▁digging
▁frontal
▁gaseous
▁glacier
▁glimpse
▁impover
▁isolate
▁laptops
▁loyalty
▁assisted
▁catering
▁donation
▁flourish
▁gorgeous
▁helpless
▁humility
▁inviting
▁lecturer
▁peasants
▁reinvent
▁reminder
▁treasure
▁weekends
▁arbitrary
▁astronomy
▁battalion
▁curricula
▁detectors
▁governors
▁influenza
▁inventors
▁maintains
▁massively
▁millennia
▁portraits
▁recession
▁accidental
▁brightness
▁confronted
▁disappears
▁disturbing
▁observance
▁prohibited
▁kazatomprom
▁stabilizing
▁substantial
▁symmetrical
▁anticipation
▁exploitation
▁fermentation
▁resettlement
▁complications
▁unconditional
▁generalization
▁Competitiveness
▁electrochemical
▁systematization
91
Ni
-12
-15
Man
nia
▁5.
▁dB
▁eo
agat
anna
aser
held
isot
izza
mann
uers
uffs
unus
user
yles
▁11.
▁113
▁137
▁157
▁3.1
▁380
▁Ark
▁CON
▁McC
▁Rap
▁akh
▁bam
▁dzh
▁hob
▁mum
▁nas
South
aline
amruk
ensed
kenov
opath
ovsky
▁0,40
▁Eidu
▁Josh
▁Reyn
▁Tour
▁emit
▁goat
▁inde
▁lact
▁orch
▁otan
▁ripp
▁shit
atized
dinger
hesive
icidal
nasium
phthal
worthy
▁15-20
▁2001,
▁2009.
▁Delhi
▁Hindu
▁Lower
▁Venus
▁album
▁awake
▁candy
▁gloss
▁lease
▁maneu
▁mitig
▁seeks
▁valve
▁visas
ambayev
fluence
iberian
▁40,000
▁Edward
▁Ladies
▁Nauryz
▁Nelson
▁adhere
▁canopy
▁casual
▁cosmos
▁elders
▁makeup
▁modest
▁overse
▁thesis
▁upward
amentals
enriched
function
intellig
unctions
▁compris
▁dangers
▁dietary
▁folding
▁futures
▁happily
▁resting
▁rhenium
▁scholar
▁shallow
▁skating
▁warfare
▁whistle
▁whoever
osanitary
▁Aviation
▁Changing
▁Deputies
▁Ensuring
▁Portland
▁analogue
▁assemble
▁baseline
▁classify
▁composer
▁garrison
▁impacted
▁ionizing
▁outreach
▁overload
▁thriving
▁unaccept
▁Assistant
▁Tatarstan
▁alcoholic
▁anaerobic
▁civilized
▁heuristic
▁imaginary
▁jellyfish
▁modelling
▁underwent
Orientation
ternational
▁Particular
▁Ultimately
▁downloaded
▁exceptions
▁hypotheses
▁instructor
▁referendum
▁summarized
▁Intelligent
▁chromosomes
▁embarrassed
▁empowerment
▁expectation
▁linguistics
▁hydrothermal
▁shareholders
▁insignificant
▁intersections
▁administrators
▁mineralization
▁extraordinarily
42
BC
Ge
xi
ECT
add
lip
mel
sur
uda
▁Ap
▁LP
▁RS
▁Ve
arks
asis
erer
ikes
loid
ocon
seat
unge
wall
▁122
▁2.9
▁4.2
▁Arm
▁NSA
▁Osp
▁Rub
▁Tib
▁Tul
▁cel
▁cod
▁thy
ampus
angle
ansas
anted
engiz
haust
ighed
onder
ostat
otine
third
thood
▁0,38
▁0,63
▁Abyl
▁Alan
▁Cart
▁Cuba
▁Jenn
▁Uber
▁Zhas
▁[16]
▁ener
▁goss
▁mega
▁misf
▁owns
▁stew
embers
kbayev
redits
▁1994,
▁7,000
▁Advis
▁Reven
▁Waste
▁belts
▁borne
▁enshr
▁goats
▁humid
▁juris
▁overt
▁pests
▁poles
▁shany
▁trunk
inators
▁15,000
▁25,000
▁Watson
▁cadast
▁condol
▁ideals
▁kicked
▁mascul
▁ratios
▁silica
▁skiing
▁slogan
▁waking
arantine
erencing
resource
urricane
▁Between
▁Dynamic
▁Faculty
▁Freedom
▁Luckily
▁Testing
▁cleared
▁deserts
▁dialect
▁episode
▁fibrous
▁honesty
▁implies
▁intimid
▁luckily
▁monarch
▁mounted
▁posters
▁proving
▁recycle
▁sponsor
▁tightly
represent
ukashenko
▁Orthodox
▁Reynolds
▁distress
▁droplets
▁glorious
▁pavement
▁reactive
▁superior
▁taxonomy
▁thinkers
▁workings
▁Associate
▁glamorous
▁kilograms
▁penetrate
▁prevented
▁recipient
▁subsidize
▁substrate
▁Artificial
▁Experience
▁encounters
▁estimation
▁irrational
▁privileged
▁sequencing
▁sinusoidal
▁theatrical
ographically
▁coincidence
▁stereotypes
▁Applications
▁Intelligence
▁disappointed
▁instrumental
▁satisfactory
▁clarification
AA
Cs
fi
-90
1.5
One
Par
TSD
bin
cca
tur
wed
▁AF
▁Cd
▁UV
▁kt
aunt
circ
comb
harm
home
idel
inda
isov
rats
vian
▁14%
▁145
▁3.2
▁850
▁APP
▁Dos
▁Mes
▁Mut
▁Rah
▁TPP
▁Tri
▁UNT
▁Win
▁adb
▁amy
▁gru
▁quo
-2021
Audio
heads
ioxid
keley
lamic
ortex
▁5-10
▁Case
▁Fest
▁Help
▁Loss
▁PTSD
▁SYST
▁Schr
▁Stop
▁duck
▁epit
▁iran
▁pits
▁reun
▁trad
-2050"
edical
hedron
matism
method
strain
▁1992,
▁Joint
▁bonus
▁couch
▁crown
▁holog
▁jumps
▁mimic
▁naive
▁onset
▁param
▁pixel
▁steep
▁urine
▁venue
▁verge
▁wives
electro
illions
olester
▁Fourth
▁Howard
▁Humans
▁contag
▁dialog
▁giants
▁prayer
▁revise
▁slowed
▁strips
▁unfold
▁Element
▁Hilbert
▁Laplace
▁Mathcad
▁armored
▁claimed
▁halfway
▁jubilee
▁leakage
▁matched
▁outdoor
▁pressed
▁sealing
▁servant
▁shaping
▁texting
apartment
computers
naissance
ographics
sequently
▁Interior
▁Provides
▁contexts
▁fracture
▁goodness
▁habitats
▁holistic
▁inertial
▁journals
▁mattered
▁meanings
▁persever
▁plankton
▁quarters
▁searched
▁severity
▁stepping
▁symphony
▁thrilled
▁tungsten
pendicular
▁2017-2018
▁balancing
▁capacitor
▁examining
▁practiced
▁triggered
▁unhealthy
engineering
▁compaction
▁indicative
▁motherhood
▁pheromones
▁uniformity
▁Bishimbayev
▁alternating
▁attractions
▁indifferent
▁philanthrop
▁transmitter
▁Dzhaksybekov
▁authenticity
▁illustration
▁prerequisite
▁Certification
▁differentiate
▁radionuclides
▁mathematically
4-
AO
DD
HC
Le
PT
nur
▁GP
▁Ha
▁ul
▁ye
akas
drop
eren
hips
iads
isan
nedy
oler
oned
oper
ouch
pert
umed
wave
yrau
▁(14
▁135
▁15.
▁2.8
▁Gaz
▁Ker
▁Kha
▁Mos
▁Nai
▁PSC
▁Pic
▁RSA
▁Sab
▁Sav
▁Sib
▁Wil
azing
chief
erted
ibull
iking
jamin
mbuds
metry
ringe
tales
wheel
▁2022
▁Auto
▁Born
▁Brad
▁Oraz
▁Rakh
▁demo
▁extr
▁glow
▁marb
▁mock
▁moms
▁slip
▁vest
course
▁Broad
▁Dream
▁NASSR
▁Tesla
▁Watch
▁aggra
▁alike
▁arter
▁bluep
▁cried
▁genre
▁pizza
▁roofs
▁spine
-2017,"
apparov
chanics
project
▁Jersey
▁Luther
▁Person
▁Recomm
▁Territ
▁banned
▁errone
▁harbor
▁insert
▁intric
▁pumped
▁submar
▁tasked
boundary
cellular
▁Cluster
▁Harmony
▁Indians
▁Kazpost
▁Mediter
▁Nairobi
▁Persian
▁astroph
▁bedding
▁carbide
▁erected
▁ferrous
▁funeral
▁urgency
ventional
▁Armenian
▁Kashagan
▁Leonardo
▁ambition
▁chapters
▁deformed
▁elective
▁feathers
▁immersed
▁murdered
▁searches
▁tensions
▁threaten
▁unmanned
▁Reference
▁attempted
▁bilingual
▁composers
▁corrected
▁distilled
▁enhancing
▁enshrined
▁exemplary
▁followers
▁histories
▁imperfect
▁manifesto
▁outbreaks
▁passports
▁perinatal
▁rectangle
▁unloading
▁biomedical
▁courageous
▁emphasizes
▁extracting
▁transistor
▁triangular
▁unintended
▁Improvement
▁Palestinian
▁abstraction
▁accommodate
▁assignments
▁combustible
▁homogeneity
▁informative
▁nationalism
▁proposition
▁Mukhamediuly
▁departmental
▁disciplinary
▁irreversible
▁unacceptable
▁Mediterranean
▁Metallurgical
▁phytosanitary
▁specifications
66
Ah
RT
fa
kk
boy
div
ega
idi
lli
sim
▁07
▁FG
▁KA
Come
acon
fits
pers
rots
ubes
▁(30
▁005
▁2.0
▁3.4
▁Anc
▁Bad
▁Cab
▁Gar
▁Kay
▁Lux
▁Mid
▁SMS
▁Sev
▁hey
ainov
andin
birth
epler
ganov
imony
inder
ylvan
yping
▁1940
▁1992
▁Anth
▁Chan
▁Chap
▁Gore
▁Ibra
▁Jean
▁LEGO
▁Mans
▁Pitt
▁Wait
▁Wide
▁Wood
▁cone
▁egov
▁fled
▁kair
▁lips
▁pept
▁tips
▁tire
▁uter
atalov
lation
sultan
▁Avail
▁Build
▁Croat
▁Exact
▁Hence
▁ambig
▁annex
▁beats
▁centr
▁cores
▁eager
▁obese
▁ruled
▁sells
▁shale
▁slows
▁surre
berbank
rencies
umbling
▁Active
▁Cancer
▁Gandhi
▁MATLAB
▁coated
▁comics
▁curved
▁duplic
▁famine
▁incarc
▁kernel
▁lifted
▁punish
▁resume
▁shafts
apchagai
mbudsman
▁Kennedy
▁Neander
▁Zhetysu
▁accused
▁catalog
▁costume
▁crowded
▁drafted
▁hacking
▁impregn
▁jinping
▁pillars
▁seaport
▁seizure
▁shaking
▁smiling
▁tipping
organized
▁2012-201
▁Berkeley
▁Colombia
▁Function
▁Mohammed
▁Portugal
▁Projects
▁Svetlana
▁backward
▁blasting
▁coherent
▁contamin
▁envision
▁inconven
▁laureate
▁metadata
▁mistaken
▁pendulum
▁promoted
▁sergeant
▁Bulgarian
▁apologize
▁cognition
▁consuming
▁detention
▁discarded
▁elevators
▁informing
▁kyzylorda
▁penalties
▁statistic
▁transient
▁Definition
▁conviction
▁distracted
▁empowering
▁logistical
▁nigmatulin
▁prioritize
▁Accordingly
▁hippocampus
▁illustrates
▁predominant
▁termination
▁terrestrial
▁abdykalikova
▁declarations
▁transitional
▁incarceration
▁perpendicular
▁phosphogypsum
▁statistically
▁hallucinations
ART
aka
akb
bes
but
eck
hew
oca
ths
▁1/
▁EN
▁JC
asts
bian
eses
holm
mile
onio
pine
rams
▁144
▁178
▁4-5
▁5-7
▁Eve
▁ICD
▁Jan
▁Kon
▁SDG
▁dip
▁lex
▁zhe
adoop
agent
arial
aurus
great
iodes
ocene
oming
style
▁2500
▁Baku
▁Band
▁Hund
▁Kras
▁Side
▁Task
▁Unit
▁chur
▁coke
▁cues
▁dash
▁fats
▁junk
▁neoc
▁rehe
▁smok
German
anical
charge
ilated
ritish
rogram
server
static
▁8,000
▁Alger
▁Clear
▁Erlan
▁Excel
▁Moroc
▁Nepal
▁Often
▁Simon
▁Sudan
▁autoc
▁brake
▁dwell
▁essay
▁marsh
▁memes
▁reuse
▁rocky
▁sadly
▁scans
▁slums
▁tweet
account
amilton
country
driving
ethoven
ophobia
ylvania
▁Advant
▁Sahara
▁Tehran
▁Telesc
▁holder
▁improv
▁intact
▁melody
▁nomads
▁redund
▁scroll
▁segreg
▁seized
▁stamps
▁virtue
▁weighs
ccessful
othermic
pleasant
▁Besides
▁Bitcoin
▁Brother
▁advised
▁ashamed
▁bounded
▁chaotic
▁commons
▁easiest
▁forgive
▁hazards
▁magnets
▁menstru
▁migrate
▁modeled
▁toilets
▁tracked
▁weighed
olesterol
olocation
phosphate
▁Robotics
▁antennas
▁frontier
▁salinity
▁scalable
▁shanyrak
▁Influence
▁amazingly
▁analytics
▁attacking
▁buckwheat
▁cardboard
▁curvature
▁excluding
▁fictional
▁guarantor
▁quarrying
▁reporters
▁schedules
Kamenogorsk
▁Integrated
▁bankruptcy
▁decoration
▁ionization
▁molybdenum
▁noticeable
▁contractual
▁diffraction
▁frustrating
▁internships
▁translating
▁unambiguous
▁correctional
▁carbohydrates
▁collaborators
▁experimenting
▁intellectuals
▁microcontroller
37
41
89
Ad
Af
BO
HS
bu
pm
sl
GIS
boo
din
mag
ols
sev
▁"(
▁6.
▁CB
▁JA
▁KT
▁TE
▁TM
▁WW
East
beat
dala
eman
igul
isha
rock
shak
▁126
▁189
▁3.7
▁35%
▁50,
▁Ale
▁Ask
▁Cle
▁Erd
▁Ill
▁Mun
▁PET
▁Rau
▁SOL
▁Sel
▁lun
▁ted
▁tet
-2030
inker
▁0,79
▁Lear
▁Mind
▁aver
▁craw
▁dams
▁gaze
▁jams
▁mall
▁pier
▁pots
▁rack
▁sang
assies
atomic
mentia
ogonal
reated
tering
ussels
winner
▁2,500
▁Chern
▁Kevin
▁Thurs
▁acres
▁anion
▁armor
▁badge
▁cheat
▁fairy
▁filed
▁firef
▁folds
▁midst
▁piles
▁secre
▁twist
ICATION
clusion
olitics
respons
▁Hawaii
▁affair
▁arable
▁atyrau
▁cutter
▁encaps
▁execut
▁flavor
▁induct
▁recomb
▁tastes
▁theirs
activity
munition
ropriate
▁Clinton
▁Created
▁Khorgos
▁Lebanon
▁Optical
▁Somalia
▁assumes
▁blessed
▁durable
▁energet
▁explode
▁germany
▁goodbye
▁illiter
▁inaccur
▁interim
▁kidneys
▁outputs
▁premise
▁quietly
▁romance
▁tunnels
▁Increase
▁Tanzania
▁antioxid
▁assuming
▁canceled
▁delicate
▁dissolve
▁elevated
▁filtered
▁incompat
▁neurolog
▁persuade
▁petition
▁solvents
▁stunning
▁sultanov
▁vicinity
▁vultures
▁Beethoven
▁Initially
▁Investors
▁abolition
▁embassies
▁humankind
▁listeners
▁megawatts
▁preferred
▁surviving
▁waterfall
realization
uantitative
▁Conditions
▁Zhumagulov
▁girlfriend
▁liberation
▁motorcycle
▁oppression
▁persistent
▁physiology
▁regulators
▁unpleasant
▁catastrophe
▁dehydration
▁nonetheless
▁suppression
▁concentrates
▁condensation
▁digitization
▁perseverance
▁photographic
▁hydrogenation
▁nanocomposite
▁unpredictable
▁polymerization
▁popularization
▁Standardization
DB
DI
GE
oa
AKH
Not
fil
hex
▁CC
▁KH
▁Mg
▁Ol
▁Ut
Beat
aeda
anka
balt
ella
flix
hard
isol
rama
supp
zinc
▁165
▁184
▁24-
▁25-
▁3.6
▁Bey
▁Inf
▁Nam
▁Nut
▁Occ
▁[2-
▁apk
▁rav
▁sir
▁wow
achel
peace
press
psych
riors
sided
ulite
value
▁0,42
▁0,74
▁0,76
▁Area
▁CEOs
▁Care
▁Chen
▁Dise
▁Gall
▁Link
▁Marc
▁Marg
▁bowl
▁bund
▁ecot
▁hint
▁kidn
▁zhan
Please
esteem
ophage
orphic
period
▁Death
▁Prior
▁Steam
▁acted
▁boron
▁brush
▁calor
▁cliff
▁guilt
▁souls
▁spike
▁stare
▁taraz
▁wrink
ULATION
athetic
eastern
indered
itating
mercial
sterdam
▁Engine
▁Garden
▁Kepler
▁Volkov
▁awaken
▁ballot
▁cation
▁dissip
▁evenly
▁folded
▁lethal
▁mouths
▁patrol
▁plural
▁rabbit
▁rooted
▁superv
▁tricky
▁typing
▁verteb
▁wagons
aggering
apshagai
avorable
onuclear
ortunate
▁Growing
▁Liberia
▁Looking
▁Mandela
▁Mission
▁Netflix
▁cocaine
▁fellows
▁forcing
▁hostile
▁squeeze
▁upgrade
ificially
ropolitan
sensitive
▁Academic
▁Bayanaul
▁Benjamin
▁Zhakupov
▁applause
▁cohesion
▁damaging
▁depicted
▁enjoying
▁meantime
▁monopoly
▁reacting
▁settling
▁societal
▁stealing
▁topology
▁triggers
▁trusting
compliance
▁2015-2019
▁Frequency
▁Standards
▁Telescope
▁Vasilenko
▁assigning
▁emulsions
▁ethnicity
▁exhibited
▁forefront
▁judiciary
▁legendary
▁parabolic
▁satisfies
▁Friendship
▁ammunition
▁cumulative
▁deliveries
▁distortion
▁excellence
▁excitation
▁multilayer
▁possession
▁rationally
▁regenerate
▁condolences
▁shareholder
oluminescence
▁interlocutor
▁localization
▁sociological
▁decentralized
Sc
ji
mo
yd
IES
lah
▁Il
▁Ty
▁ta
▁yu
-300
ELOP
ENTS
TICS
acle
erey
eton
icky
loom
ogai
prob
rals
▁(11
▁151
▁215
▁4.3
▁45%
▁Beh
▁DVD
▁Gab
▁Kim
▁Len
▁MHz
▁McD
▁PCM
▁Ret
▁TBT
▁Tob
▁hes
▁iso
▁ket
▁nud
adequ
avors
crast
ettes
inety
irate
isans
isson
izard
orean
▁(12)
▁30%.
▁Ages
▁Alab
▁Ansh
▁Coke
▁Coss
▁Kids
▁LEDs
▁Prog
▁Zone
▁[2].
▁blur
▁bush
▁inqu
▁rage
▁stub
▁tags
achine
alytic
boxing
plates
rances
tening
▁1999,
▁30-40
▁Batyr
▁Hyper
▁Phase
▁Tibet
▁antit
▁careg
▁denom
▁fauna
▁incar
▁insec
▁mixer
▁nasty
▁polyg
▁rebel
▁woods
October
entimes
heduled
ographs
percent
soluble
teacher
unclear
▁Fisher
▁Hadoop
▁KAZAKH
▁Nathan
▁Worker
▁addict
▁biased
▁buffer
▁deterg
▁devote
▁donate
▁exquis
▁fights
▁hostel
▁labels
▁neuros
▁rubble
riptions
strakhan
▁DEVELOP
▁crosses
▁debates
▁depress
▁filming
▁invites
▁lowered
▁portray
▁queries
▁rabbits
▁spiders
▁sultans
▁uncover
▁vicious
▁Abdullah
▁Teaching
▁centners
▁convicts
▁cracking
▁embarked
▁hardness
▁lowering
▁motivate
▁reinvest
▁smoothly
▁surveyed
▁uniforms
functional
structural
▁Migration
▁Zhamishev
▁alignment
▁approving
▁bentonite
▁cellulose
▁deception
▁depletion
▁ingenuity
▁intrinsic
▁metrology
▁mushrooms
▁obsession
▁redistrib
▁schematic
▁streaming
▁traumatic
▁Lieutenant
▁Lithuanian
▁deficiency
▁explosives
▁frameworks
▁lieutenant
▁spectators
▁staggering
▁unhindered
▁Directorate
▁Performance
▁bloodstream
▁conventions
▁documenting
▁pedestrians
▁precipitate
▁sponsorship
▁unfortunate
▁arrangements
▁cartographic
▁descriptions
▁diversifying
▁fundamentals
▁manipulation
▁microcredits
▁microfinance
▁spirituality
▁surroundings
otechnological
▁disproportion
▁electronically
▁experimentally
▁unconventional
/(
2;
84
Am
Cr
TU
bn
uv
zi
50.
Eng
Our
aga
awi
eer
rus
sex
tag
▁Dh
▁GW
▁Hu
▁vi
AIDS
arer
cour
eron
iner
oros
reas
ulus
▁(15
▁1,5
▁116
▁154
▁65%
▁ABC
▁BAS
▁ECE
▁Lew
▁PPP
▁bis
▁bud
▁gad
▁hij
▁nap
▁obl
Great
INING
endix
essim
indic
nings
peror
ullin
ursor
▁Barb
▁Cape
▁Doug
▁Fair
▁Hand
▁Keep
▁Ross
▁Rost
▁True
▁buzz
▁perf
▁puls
▁rust
▁styl
design
imedes
master
ouring
resses
▁Creat
▁Hague
▁Langu
▁Larry
▁Penns
▁Solid
▁absor
▁autop
▁cabin
▁cough
▁endoc
▁fills
▁pants
▁picks
▁rains
▁repos
▁scand
▁suits
▁trait
▁troll
▁zeros
akhanov
akupova
ammable
ikhanov
lifting
onsense
ousands
▁Atmosp
▁Centre
▁Either
▁Growth
▁Guinea
▁Hubble
▁Unions
▁circus
▁decont
▁heroin
▁hollow
▁imagin
▁kyrgyz
▁melted
▁orbits
▁patron
▁potent
▁rotary
▁senate
▁sticky
uestions
▁Suppose
▁Workers
▁aligned
▁arrives
▁broadly
▁evident
▁fossils
▁grabbed
▁inmates
▁kidding
▁needing
▁outward
▁revival
▁shepher
▁summits
▁wasting
developed
formatics
icultural
inization
▁Attorney
▁Columbia
▁District
▁Williams
▁advocacy
▁airspace
▁appealed
▁calculus
▁churches
▁datasets
▁declined
▁landmark
▁predicts
▁receptor
▁replaces
▁selfless
selinograd
▁Kazkosmos
▁Programme
▁appealing
▁asteroids
▁capturing
▁civilians
▁excavator
▁excursion
▁habitable
▁illegally
▁incidents
▁interacts
▁recruited
▁shortages
▁wintering
environment
▁activating
▁asymmetric
▁culturally
▁dedication
▁devastated
▁generosity
▁phosphoric
▁repetitive
▁restricted
▁submitting
▁assessments
▁centimeters
▁convergence
▁manipulator
▁millennials
▁ministerial
▁prosecution
▁Pennsylvania
▁announcement
▁disappearing
▁motivational
▁neurological
▁exponentially
▁intercultural
▁predetermined
%;
?'
FL
To
ho
uy
vo
zo
:30
Com
mad
pop
▁'9
▁9%
▁BA
▁GB
▁NI
▁NP
▁PI
amas
amel
eyed
hani
ibir
inch
ippi
ixed
ocur
opia
rout
▁168
▁174
▁182
▁20.
▁API
▁CNN
▁Dus
▁EMG
▁Lee
▁Obs
▁[3-
▁ank
▁cyt
▁inh
▁jsc
▁muc
▁ray
▁wax
State
akova
black
inces
oenix
tally
theta
umbai
unity
▁0,88
▁20-2
▁3000
▁5000
▁Anna
▁Baim
▁Cany
▁Cell
▁Erik
▁Feyn
▁Flow
▁Must
▁Plus
▁Risk
▁Week
▁Wild
▁Yale
▁epip
acting
lahoma
omatic
▁Adapt
▁Ahmed
▁Fifty
▁Koran
▁Plato
▁Schem
▁Trust
▁Unity
▁Years
▁axial
▁drift
▁eclip
▁epile
▁hurts
▁penis
▁petri
▁tales
▁tense
▁tires
issippi
otional
▁Karach
▁Leader
▁Matlab
▁Models
▁Mumbai
▁Output
▁Secret
▁Values
▁assure
▁filmed
▁guitar
▁novels
▁priori
▁unsuit
▁upgrad
ognition
osterone
▁Ancient
▁Batalov
▁Congrat
▁Experts
▁Feynman
▁Mukhtar
▁Surface
▁chinese
▁inadequ
▁lighter
▁packets
▁paleont
▁reperto
▁rescued
▁seasons
▁strands
▁telecom
ulometric
▁Cambodia
▁Decision
▁Transfer
▁costumes
▁coupling
▁defeated
▁disinteg
▁explores
▁inspires
▁maritime
▁pharmacy
▁printers
▁rescuers
▁skeletal
▁toxicity
▁Champions
▁Dzhakupov
▁Languages
▁academics
▁celebrity
▁cosmonaut
▁fishermen
▁incubator
▁instances
▁pragmatic
▁referring
▁sidewalks
▁spreadshe
lightenment
traditional
▁antibodies
▁classifier
▁disruptive
▁frightened
▁millennium
▁occupation
▁weaknesses
▁cooperating
▁frustration
▁intentional
▁liquidation
▁threatening
▁Tasmagambetov
▁authorization
▁extinguishing
▁nanostructured
▁microbiological
76
SU
.0%
/20
11,
BRD
aky
asa
gsy
now
ovo
tas
ugs
uni
zed
▁BR
▁Ig
▁OL
▁TF
▁oz
Gold
aksh
beam
dess
iful
path
uban
ugar
verb
▁12%
▁12.
▁14-
▁340
▁Bio
▁Cho
▁Opp
▁PRO
▁SDR
▁Wel
▁bil
▁psy
▁rhe
▁wto
agger
apest
apses
assic
athan
atisf
ellar
endor
river
▁0,80
▁1996
▁50%.
▁Kuan
▁Path
▁Soph
▁biot
▁cess
▁deny
▁eman
▁hosp
▁hubs
▁lime
▁malt
▁mams
▁mant
budget
ibirsk
ighted
obiles
rystal
usalem
volume
▁2002,
▁Ethic
▁Glass
▁enact
▁etern
▁gotta
▁jokes
▁laund
▁milit
▁mycel
▁recur
▁risen
▁snake
▁snaps
▁tiger
▁tuned
chestra
ophosph
primary
voltage
▁12,000
▁Labour
▁Monaco
▁Summit
▁affirm
▁binder
▁dancer
▁excise
▁faiths
▁geomet
▁impose
▁insult
▁lactic
▁lovers
▁priest
▁psycho
▁quotas
▁render
▁roller
▁ruling
▁solids
▁staged
▁unused
▁vermic
▁warmer
▁warmth
aculture
invasive
osibirsk
resolved
▁Adilbek
▁Alexand
▁Charlie
▁Exactly
▁Traffic
▁altered
▁antagon
▁arsenal
▁cookies
▁delayed
▁encoded
▁expects
▁infants
▁learner
▁motions
▁needles
▁packing
▁recipes
▁sailors
▁turnout
▁wonders
kilometer
▁Advanced
▁Critical
▁Thursday
▁asbestos
▁borrower
▁ceramics
▁cerebral
▁collects
▁crashing
▁diarrhea
▁dominate
▁invasive
▁manually
▁passions
▁policing
▁readings
▁solemnly
▁sticking
▁unimagin
▁workload
stationary
structures
▁Amsterdam
▁Communist
▁Computing
▁Greenland
▁Instagram
▁adsorbent
▁adulthood
▁athletics
▁benchmark
▁condensed
▁decorated
▁distorted
▁equipping
▁explorers
▁favorites
▁initiator
▁kilometer
▁parasites
▁performer
▁sentenced
▁stretched
▁viability
▁wandering
▁Competence
▁Electrical
▁Lukashenko
▁Paralympic
▁cigarettes
▁collateral
▁composites
▁concession
▁displaying
▁meditation
▁millimeter
▁multiplied
▁repertoire
▁simplifies
▁tightening
▁Interaction
▁Mississippi
▁Nazarbayeva
▁Significant
▁adolescence
▁brotherhood
▁cholesterol
▁invitations
▁artificially
▁circumstance
▁guaranteeing
▁subscription
▁accommodation
▁collaborating
▁investigative
▁specification
▁investigations
))
82
Or
Int
gue
igg
oda
pit
pys
ref
yon
▁RO
▁SH
▁eV
Just
STAN
airo
aral
asms
enes
insp
lass
nerg
rics
salt
uels
urbs
wait
zhko
▁'50
▁129
▁134
▁18-
▁183
▁5.2
▁Die
▁Fal
▁Geo
▁bor
▁hed
▁idr
Chief
Uzbek
ailed
alkar
check
crime
doing
gsyan
hagen
icill
laved
marks
nesty
young
▁100-
▁Dick
▁Fram
▁Game
▁Liqu
▁Need
▁Nike
▁Nord
▁Rest
▁TEDT
▁Turg
▁bore
▁cram
▁croc
▁hats
▁july
▁keen
▁mash
▁mism
▁pent
▁pork
▁rink
▁temp
▁wolf
angali
reatic
▁1991,
▁Below
▁Bolat
▁Forms
▁Girls
▁Jason
▁Prote
▁Truth
▁allev
▁belie
▁comed
▁dealt
▁disin
▁fetus
▁jeans
▁rolls
▁scrat
▁steer
▁timed
Turkmen
markets
ourable
special
winners
▁Alakol
▁Canyon
▁Desert
▁Mozart
▁abused
▁afghan
▁anisot
▁arrows
▁assort
▁asthma
▁baking
▁bamboo
▁bitter
▁cobalt
▁gravel
▁inputs
▁modify
▁pessim
▁salmon
ammation
distance
harmonic
ientific
istricts
olecules
products
▁Concent
▁Doctors
▁Everest
▁Getting
▁Minimum
▁beaches
▁carrots
▁chasing
▁fission
▁genomic
▁hunters
▁indefin
▁pigment
▁retains
▁rhythms
▁scanned
▁spirits
▁springs
▁tribute
▁watches
▁zhambyl
▁Accounts
▁Alliance
▁Oklahoma
▁Satpaeva
▁Slovakia
▁Temirtau
▁biogenic
▁defended
▁degraded
▁doubling
▁fixation
▁grounded
▁incarcer
▁insisted
▁intimacy
▁licensed
▁parasite
▁patriots
▁prestige
▁retained
▁spraying
▁traveler
▁variants
▁volcanic
▁warriors
regulation
sufficient
▁Analyzing
▁Automatic
▁Egyptians
▁Employees
▁Europeans
▁Potential
▁acknowled
▁advancing
▁delighted
▁eradicate
▁hydroxide
▁intellect
▁intrigued
▁neglected
▁nightmare
▁prejudice
▁remembers
▁repairing
▁repayment
▁requested
▁trillions
▁Situations
▁articulate
▁condensate
▁convection
▁deliberate
▁enormously
▁intriguing
▁pragmatism
▁stimulates
▁synthesize
▁thoroughly
▁translates
▁transverse
▁unfamiliar
▁witnessing
▁dormitories
▁meritocracy
▁oscillators
▁progression
▁commonwealth
▁inflammation
▁transformers
▁tremendously
▁administrator
▁commemorative
▁practitioners
▁geographically
▁multiplication
▁virtualization
▁democratization
▁internationally
.[
IZ
ww
.).
God
URE
kok
oln
raw
▁3:
▁7)
▁Dy
▁ER
▁GC
▁JF
▁PA
▁Sa
▁VR
TING
arts
dest
disc
gate
hany
igin
inum
note
oval
rosp
ston
▁119
▁146
▁164
▁179
▁186
▁225
▁3.8
▁Ank
▁Cru
▁Ell
▁Gib
▁PHP
▁PMS
▁Tog
▁Vit
▁Yel
▁Zen
▁hug
▁jan
▁nod
▁owe
▁tri
▁upt
Point
aigaz
enium
iator
impro
metal
shirt
ursed
▁0,83
▁0,84
▁Down
▁Hill
▁Insp
▁Ohio
▁Page
▁Writ
▁[23]
▁[34]
▁apes
▁buys
▁curb
▁mono
▁mund
▁pist
▁slot
▁weed
aining
anbaev
arithm
epress
ilings
itrile
ocaust
riages
usable
▁20-30
▁Cairo
▁Copen
▁Royal
▁Tower
▁Turks
▁Value
▁alley
▁appet
▁bikes
▁blink
▁cloth
▁ingot
▁occas
▁sanct
aulbaev
ertales
plastic
racting
uggling
▁Atomic
▁Kinect
▁Market
▁Tengiz
▁Viktor
▁beside
▁cooked
▁cooler
▁jurisd
▁median
▁pulmon
▁retros
▁spongy
▁taller
▁toxins
▁traded
▁voyage
▁weaker
▁Dossaev
▁Francis
▁Knowing
▁Redwood
▁curator
▁docking
▁knocked
▁margins
▁movable
▁possess
▁replied
▁scripts
▁selects
▁shuttle
▁surplus
▁warrant
knowledge
ographers
propylene
▁External
▁Festival
▁Resource
▁Starting
▁Telecomm
▁analyzer
▁attacker
▁brighter
▁cocktail
▁competed
▁defender
▁dementia
▁emirates
▁endeavor
▁enslaved
▁feminine
▁harmless
▁monsters
▁optional
▁primates
▁reliably
▁sidewalk
▁sketches
▁steering
efficiency
processing
▁Countries
▁Equations
▁Selection
▁biography
▁companion
▁counterfe
▁digitally
▁erroneous
▁feedstock
▁flammable
▁guardians
▁nanotubes
▁pathology
▁projector
▁witnesses
▁Advantages
▁Copenhagen
▁Transition
▁animations
▁brainstorm
▁childbirth
▁collisions
▁corrective
▁discretion
▁encourages
▁irrelevant
▁nonviolent
▁phenomenal
▁publishers
▁questioned
▁unsuitable
▁Philippines
▁academician
▁aerodynamic
▁constitutes
▁ferroalloys
▁flourishing
▁warehousing
▁wavelengths
▁Conservation
▁accelerators
▁contaminants
▁exoskeletons
▁illumination
▁salinization
▁modifications
▁notifications
▁polypropylene
▁spontaneously
▁Kazagrofinance
▁congratulatory
▁thermodynamics
01
79
CP
ez
-1)
900
ASS
Bel
aaS
alg
cur
icc
ido
imm
kat
len
oxy
uli
▁"[
▁HP
▁MG
▁MM
▁bn
Fund
Hung
alzh
aska
aved
azar
cons
kova
opus
tice
tles
uryk
uter
▁0.1
▁147
▁3.0
▁30.
▁370
▁Ara
▁Ban
▁GSM
▁Han
▁IMF
▁Kun
▁Pub
▁Pur
▁[4-
▁ale
▁bos
▁cro
▁fet
▁jac
▁kWh
▁lou
antal
opter
ouver
overs
skaya
▁(100
▁0,36
▁0,77
▁0,97
▁1600
▁Agro
▁EBRD
▁Fish
▁Jama
▁Magn
▁Mend
▁Rica
▁Ulan
▁Vanc
▁dome
▁grey
▁leuk
▁meme
▁olig
▁ramp
▁reim
▁yoga
erting
sticks
▁1993,
▁Beach
▁Fried
▁Gauss
▁Talks
▁Urban
▁Works
▁amput
▁anode
▁birch
▁chalk
▁devil
▁faint
▁icons
▁japan
▁pools
▁riots
▁slime
▁wasps
Digital
achelor
bearing
emption
ilismen
olithic
uniform
▁Status
▁Taiwan
▁Terror
▁Valent
▁Wright
▁anthem
▁armies
▁arrays
▁august
▁basins
▁betray
▁candle
▁expose
▁fluent
▁grapes
▁hooked
▁hugely
▁hunter
▁interm
▁iodine
▁ironic
▁lately
▁macrom
▁opioid
▁pigeon
▁queues
▁runway
▁stator
▁wounds
ochastic
training
▁150,000
▁Holland
▁Janeiro
▁Revenue
▁Senator
▁Solving
▁anytime
▁compost
▁cottage
▁defence
▁escaped
▁flashes
▁offense
▁offline
▁rectors
▁seroton
▁suburbs
▁surpass
▁tranche
▁Brussels
▁Honorary
▁Siberian
▁autistic
▁baiterek
▁balloons
▁bleeding
▁captures
▁ceilings
▁cheating
▁depended
▁episodes
▁granting
▁horrific
▁marching
▁multitas
▁nicotine
▁offences
▁precinct
▁prostate
▁punished
▁realizes
▁reporter
▁semester
▁shouting
▁shutdown
▁stumbled
▁tractors
Saparbayev
▁Jerusalem
▁Logistics
▁Transform
▁ambiguous
▁boyfriend
▁confusing
▁donations
▁exemption
▁forbidden
▁imbalance
▁modifying
▁routinely
▁staircase
▁supernova
▁Depression
▁Ecological
▁Parameters
▁Presidents
▁applicable
▁explicitly
▁indirectly
▁isothermal
▁multiplier
▁perceptual
▁DEVELOPMENT
▁Preliminary
▁antidepress
▁constrained
▁millimeters
▁unscheduled
▁accumulating
▁cryptography
▁destinations
▁electrolysis
▁horizontally
▁interrelated
▁permeability
▁championships
▁conditionally
▁interpolation
▁thermonuclear
▁unsustainable
▁experimentation
▁vulnerabilities
96
RO
Sp
Up
-11
App
bol
bor
dim
eli
kek
mol
ogg
six
tin
▁04
▁AA
▁CE
▁GK
▁HS
▁Iv
▁LG
▁Om
▁iv
▁kz
TIES
Your
apon
bees
ighs
ineu
orus
othy
scar
unes
zhol
▁16%
▁17%
▁203
▁4.1
▁7%,
▁GAN
▁Joy
▁Wed
▁[11
▁cem
▁cyn
▁gab
▁nov
TIONS
esian
ewart
incre
inics
leans
nered
▁0,37
▁0,86
▁20%,
▁50%,
▁Cels
▁Emma
▁Gran
▁Lots
▁METH
▁Matt
▁Meet
▁Mirz
▁Resp
▁SDOH
▁Upon
▁arys
▁cann
▁crap
▁fame
▁herd
▁obey
▁resh
▁sary
▁skip
▁sour
▁stir
▁toes
People
abytes
anting
atable
ccable
ecause
ewable
native
object
omencl
sement
steppe
summed
uitive
▁Alice
▁Lewis
▁MODEL
▁Night
▁Story
▁Zhang
▁blows
▁creep
▁gland
▁maize
▁melan
▁renam
▁salty
▁scrut
▁skies
▁slept
▁taboo
▁theor
▁traps
▁upris
Eternal
acities
andinav
ductors
holding
repared
rolysis
trained
▁Ballet
▁Barack
▁Bhutan
▁Reform
▁Vocera
▁aiming
▁backup
▁carcin
▁carved
▁charts
▁closet
▁empath
▁gluten
▁jacket
▁packet
▁pseudo
▁pushes
▁syntax
▁tranqu
▁twelve
▁wiring
▁Anybody
▁Initial
▁Nikolai
▁Yerzhan
▁beetles
▁colonel
▁conquer
▁crashes
▁granite
▁guiding
▁lattice
▁literal
▁metrics
▁mukhtar
▁narciss
▁posture
▁puzzles
▁unequal
▁weaving
protected
▁Agrarian
▁Baurzhan
▁Hundreds
▁Suleimen
▁TRAINING
▁backpack
▁biofuels
▁confined
▁consumes
▁embodied
▁lifespan
▁lightbul
▁melodies
▁mushroom
▁opposing
▁polluted
▁pyramids
▁shortest
▁stubborn
▁synapses
▁toponyms
▁upstream
structured
▁Community
▁Interface
▁Operation
▁Paleozoic
▁Reduction
▁Thousands
▁Vancouver
▁absorbing
▁ambiguity
▁appearing
▁bacterium
▁cessation
▁energetic
▁expresses
▁gymnasium
▁inspector
▁logically
▁messaging
▁provinces
▁retention
▁serotonin
▁travelers
▁vibrating
omenclature
▁KAZAKHSTAN
▁biometrics
▁chemically
▁complained
▁constraint
▁converters
▁executives
▁imperative
▁manuscript
▁overlooked
▁psychopath
▁purposeful
▁quarantine
▁unresolved
▁aquaculture
▁cleanliness
▁commodities
▁comparisons
▁lightweight
▁systematize
▁universally
▁deformations
▁encyclopedia
▁systematized
▁testosterone
▁Kazakhtelecom
▁breakthroughs
▁technologically
8)
EW
Pr
TC
dd
ju
5%)
://
avi
dad
inn
iry
muk
psy
uar
var
▁9-
▁AV
▁DG
▁HC
▁KM
▁ML
▁RP
Germ
Star
acet
alam
ante
aret
aron
aven
ceum
lave
ounc
quer
rosh
ulak
week
▁(40
▁0.8
▁139
▁187
▁256
▁330
▁4.6
▁Deg
▁Ess
▁Lev
▁Ott
▁Sex
▁WHO
▁[20
▁alk
▁dar
▁pap
▁piv
▁tam
▁wal
brush
cerpt
pound
ronym
tedly
umann
▁(14)
▁0,27
▁0,34
▁30%,
▁Karl
▁Laur
▁Nich
▁Simp
▁TEDx
▁Tenn
▁Wang
▁Wolf
▁[4].
▁arth
▁bakh
▁bisc
▁dwar
▁font
▁gymn
▁inks
▁pled
Stokes
TIONAL
engine
ortion
oulder
uating
▁2000.
▁2050:
▁Himal
▁Maced
▁Noise
▁Pitts
▁Seoul
▁Sochi
▁Stasi
▁bytes
▁eigen
▁flush
▁kumys
▁mound
▁procl
▁proxy
▁reign
▁sword
▁verbs
Germany
UCATION
amkulov
draulic
enbayev
herence
icillin
leyball
renburg
▁Acting
▁Alaska
▁Artist
▁Diplom
▁Galile
▁Kazmun
▁Kenyan
▁Phosph
▁SYSTEM
▁cockro
▁mesoph
▁praise
▁presum
▁prophe
▁rounds
▁snakes
▁treats
▁undoub
▁uterus
▁vacant
▁vertex
▁whites
▁wolves
Building
Pavlodar
educated
relation
sembayev
▁400,000
▁Celsius
▁Century
▁Clearly
▁Command
▁Orleans
▁Reports
▁accepts
▁bipolar
▁ceremon
▁complim
▁condoms
▁dynasty
▁goddess
▁overlap
▁sapiens
▁touches
▁valence
▁variant
▁Creative
▁Division
▁Equation
▁Hamilton
▁Nowadays
▁Scotland
▁accessed
▁agglomer
▁auditors
▁contempl
▁immortal
▁inaccess
▁injected
▁maneuver
▁miracles
▁mycelium
▁prepares
▁proceeds
▁quantify
▁redefine
▁registry
▁slowdown
▁sympathy
▁troubled
technology
▁Equipment
▁Important
▁Scandinav
▁amounting
▁brightest
▁connector
▁conquered
▁cucumbers
▁cultivate
▁envisages
▁extending
▁fattening
▁genuinely
▁inpatient
▁intricate
▁logarithm
▁oxidative
▁prolonged
▁reinforce
▁republics
▁schooling
▁threatens
▁2014-2015,
▁Analytical
▁Historical
▁Throughout
▁allocating
▁clarifying
▁confession
▁contagious
▁elliptical
▁ferroalloy
▁impeccable
▁maximizing
▁motherland
▁overhauled
▁qualifying
▁saparbayev
▁Demographic
▁Enforcement
▁Kusherbayev
▁Tselinograd
▁controversy
▁earthquakes
▁interrupted
▁oscillatory
▁Metropolitan
▁fluorography
▁marginalized
▁uncontrolled
▁Interestingly
▁intentionally
▁proliferation
▁socialization
▁supercomputer
▁transboundary
▁Methodological
▁microprocessor
05
86
CM
Hi
Mr
sa
uj
-17
Ass
Tok
ato
ifc
iza
odd
ozh
urm
zes
▁Au
▁BI
▁DJ
▁Hz
▁Pb
▁SU
▁[9
▁ni
EAEU
auer
brev
coal
erty
imic
isec
kill
look
mond
oglo
ongo
osov
oura
umbs
uset
walk
▁"20
▁148
▁18%
▁206
▁Dor
▁ECD
▁Erm
▁Exc
▁Hal
▁Isa
▁ald
▁bod
▁dum
▁fax
▁hut
▁tul
-2025
Thank
Would
aders
adloc
betov
ilson
mable
metov
negie
odium
perse
traum
ulent
▁1920
▁APPL
▁Abra
▁Asyl
▁Film
▁Holy
▁Jobs
▁Manu
▁Near
▁Nine
▁Rand
▁WITH
▁[3].
▁beta
▁bury
▁chol
▁dyes
▁eats
▁hurd
▁insc
▁nour
▁nove
▁rhet
▁tilt
▁tops
factor
naires
orship
orting
outing
stones
terior
▁1990,
▁Bashk
▁Drama
▁Libya
▁Memor
▁Pract
▁Turan
▁adren
▁anecd
▁bribe
▁cease
▁clips
▁desks
▁favel
▁hobby
▁infer
▁moons
▁overd
▁plaus
▁proto
▁setup
▁shiny
▁tails
▁tread
erators
hearted
meeting
onomous
rotechn
uchinsk
▁Annual
▁Baltic
▁Dauren
▁Impact
▁Judges
▁Living
▁METHOD
▁Matrix
▁Navier
▁Philip
▁Single
▁Sounds
▁Volume
▁Warsaw
▁condom
▁darker
▁feared
▁hacker
▁nicely
▁photoc
▁reconc
▁smiles
▁synest
▁thirds
▁unreal
▁warmly
Eurasian
acrylate
aturated
positive
urations
urbances
▁Applied
▁Unified
▁chooses
▁curtain
▁equated
▁equator
▁excerpt
▁glamour
▁pasture
▁primate
▁steppes
▁tattoos
▁vending
criptions
haustible
▁Georgian
▁McDonald
▁Platform
▁Whenever
▁february
▁flashing
▁gigantic
▁implants
▁initiate
▁invasion
▁jealousy
▁millisec
▁mitigate
▁newborns
▁regarded
▁rendered
▁resonant
▁restruct
enaissance
integrated
management
▁EDUCATION
▁Measuring
▁Orchestra
▁Principle
▁airmobile
▁blueprint
▁bureaucra
▁continuum
▁courtyard
▁crossings
▁defective
▁discourse
▁epidemics
▁headaches
▁judgments
▁marriages
▁nurturing
▁shrinking
▁suspected
appropriate
▁2017-2018,
▁Mamytbekov
▁assortment
▁cybercrime
▁ecotourism
▁estimating
▁inadequate
▁megacities
▁pancreatic
▁pronounced
▁topography
▁volleyball
▁Atmospheric
▁accelerates
▁anticipated
▁butterflies
▁multiplying
▁persistence
▁plantations
▁polyclinics
▁restorative
▁stepnogorsk
▁substantive
▁technicians
▁unfavorable
▁Christianity
▁Coordination
▁demographics
▁regenerative
▁amplification
▁inexhaustible
▁restructuring
▁archaeologists
▁industrialized
▁microdistricts
▁confidentiality
Ro
ku
ni
rh
tm
ACH
TIC
alc
bro
eur
fit
las
lay
mur
mut
ulu
uns
yry
yst
▁DR
▁JS
▁SG
-400
atyr
auov
base
basy
hall
heon
hill
kers
lore
odic
site
sole
velt
▁131
▁132
▁153
▁158
▁5%,
▁8.5
▁CPU
▁Cut
▁ECG
▁Heb
▁Myn
▁Nit
▁PCs
▁Sap
▁Sid
▁Sri
▁Syl
▁YNH
▁ipo
▁kus
▁oft
▁pyr
China
EMENT
abric
acerb
acuum
clean
datpa
eland
ilers
ionic
raphy
rites
ritis
stroy
three
vious
▁0,75
▁Bene
▁Igor
▁Kozh
▁Ways
▁amyg
▁arid
▁carn
▁doss
▁geek
▁lend
▁pall
▁rash
▁trim
amedov
ankton
import
incoln
irling
izards
lihood
opardy
ulsive
usetts
▁Alash
▁Going
▁Gradu
▁Johan
▁Maxim
▁Petri
▁Place
▁biore
▁blend
▁boots
▁depot
▁diary
▁forty
▁freak
▁rival
▁stain
Pacific
erosene
estrian
itching
oscopic
ranking
respect
ryption
▁Instit
▁Listen
▁Madina
▁Omarov
▁Sloven
▁Steven
▁Summer
▁Talgat
▁Taylor
▁Wouldn
▁agrees
▁bloody
▁closes
▁condem
▁cookie
▁delays
▁denote
▁elites
▁ferros
▁flawed
▁forbid
▁kaolin
▁marble
▁micros
▁reluct
▁restra
▁slices
▁spices
Minister
appiness
assembly
iologist
laration
omponent
▁500,000
▁Alabama
▁Captain
▁Galileo
▁Morocco
▁Siberia
▁Stewart
▁caravan
▁chemist
▁constan
▁coupled
▁cruelty
▁dealers
▁grammat
▁hallway
▁heroism
▁iceberg
▁lateral
▁lengths
▁morally
▁puberty
▁rainbow
▁reacted
▁relaxed
▁sponges
▁thunder
▁trailer
▁tubular
▁upwards
▁vibrant
▁violate
▁zeolite
achusetts
electroly
traumatic
▁Database
▁Michigan
▁Overview
▁Progress
▁balances
▁coaching
▁collagen
▁constell
▁energies
▁listener
▁literate
▁maturity
▁timeline
▁tolerate
▁totality
Beatboxing
resolution
▁Astrakhan
▁Democracy
▁Nutrition
▁actuators
▁chlorides
▁declaring
▁defending
▁equitable
▁limitless
▁northwest
▁occupying
▁ombudsman
▁quarterly
▁registers
▁submarine
▁Automation
▁PowerPoint
▁adventures
▁beginnings
▁classmates
▁conception
▁cooperates
▁credential
▁excavation
▁filmmakers
▁humanities
▁livelihood
▁oftentimes
▁prefrontal
▁recruiting
▁renewables
▁stochastic
▁substitute
▁superpower
▁thoughtful
▁vaccinated
▁whiteboard
▁worthwhile
professional
▁approximate
▁emphasizing
▁objectivity
▁astronomical
▁consultative
▁incarcerated
▁multitasking
▁pathological
▁purposefully
▁consolidating
▁probabilistic
▁Transportation
▁Informatization
▁decontamination
▁electrification
3-
Az
Sy
Ti
ui
Cre
Pol
ttp
▁)/
▁Aw
▁CI
▁CS
▁DS
▁FS
▁GS
▁JM
▁RM
▁au
▁tg
▁wt
atas
aton
date
emed
hyde
iche
igor
ilia
ipov
lyar
mira
opol
ovna
uite
umps
urts
▁0.5
▁001
▁13%
▁156
▁16-
▁163
▁24/
▁420
▁530
▁6%,
▁Aid
▁Alm
▁Haz
▁Jur
▁KPI
▁ape
▁rud
Roman
acies
akhan
alone
ework
irmed
liver
media
racle
ushes
which
wired
▁(15)
▁Arys
▁Belt
▁Bund
▁Cool
▁Karm
▁MCIS
▁Mort
▁Prop
▁Shah
▁Used
▁User
▁ausp
▁bass
▁fist
▁hypo
▁lawn
▁lazy
▁malf
▁nect
▁nost
▁pean
▁quiz
▁ruin
▁whey
▁wipe
▁zhum
-2014,
ailure
estial
figure
headed
ologic
samruk
stairs
states
▁2006.
▁Dhabi
▁Raman
▁Skype
▁Tasks
▁Tools
▁Treas
▁aktau
▁claws
▁debts
▁embod
▁graft
▁greed
▁hence
▁lined
▁tones
▁undef
atching
ecology
economy
itizing
million
versely
▁Border
▁Credit
▁Making
▁Ninety
▁Remote
▁Thirty
▁Wednes
▁blanks
▁cartil
▁chimps
▁colleg
▁diatom
▁doomed
▁flames
▁geodes
▁gloves
▁handic
▁insist
▁meadow
▁misuse
▁persec
▁plains
▁precon
▁propri
▁robber
▁sleeve
▁sniper
▁souven
▁synerg
▁traced
▁yonson
omething
▁Finding
▁Millenn
▁Smailov
▁augment
▁collide
▁coronav
▁cracked
▁discrep
▁doubles
▁dragged
▁exacerb
▁fleeing
▁laundry
▁painter
▁placebo
▁smokers
▁tenders
▁upright
ilitation
neighbour
nutrition
▁Carnegie
▁Colorado
▁Semantic
▁aeration
▁annoying
▁arteries
▁consular
▁cortisol
▁crucible
▁epilepsy
▁exposing
▁foremost
▁ignition
▁kerosene
▁logistic
▁metallic
▁notation
▁procrast
▁recreate
▁secretly
▁tackling
▁terrific
▁variance
▁writings
kazakhstan
otechnical
▁Disadvant
▁Renewable
▁Stability
▁adversity
▁coworkers
▁desirable
▁disclosed
▁employing
▁implanted
▁inventing
▁liquidity
▁opponents
▁paperwork
▁southwest
▁versatile
▁violating
▁volcanoes
▁Initiative
▁Prevention
▁clinicians
▁contingent
▁detachment
▁dispensary
▁expressive
▁graduating
▁permitting
▁refractive
▁thankfully
▁APPLICATION
▁Institution
▁Kaztransgaz
▁Singaporean
▁complaining
▁conflicting
▁expeditions
▁forgiveness
▁psychiatric
▁structuring
▁topographic
▁vermiculite
▁Differential
▁Optimization
▁dissociation
▁distillation
▁nomenclature
▁periodically
▁recognizable
▁photochemical
▁semiconductors
▁neuroscientists
46
93
EB
GA
ei
kp
-40
ERN
JSC
Rep
Res
SiO
Spe
ahu
izh
kit
olt
pak
pol
ryn
thy
tub
udb
yes
▁2]
▁7.
▁AO
▁DP
▁Iz
▁PO
▁PS
▁SR
-500
Cola
Drum
ICIT
bast
dney
egas
ieli
inos
lyab
oder
ribe
ride
riel
ulat
uler
yota
▁0.2
▁0.7
▁13.
▁152
▁4,0
▁4.8
▁Ate
▁Fox
▁Gol
▁Hus
▁Kle
▁Les
▁Mot
▁Oak
▁PCE
▁Row
▁Tol
▁amp
▁kur
▁rug
▁rut
▁tug
▁vap
airov
apons
azine
diakb
eshev
oplan
ordai
payer
plain
▁100,
▁1941
▁20%.
▁2040
▁Beat
▁Cars
▁Coca
▁Corn
▁Dear
▁Gram
▁Khal
▁Milk
▁Pant
▁SDGs
▁Uran
▁Wave
▁clap
▁fost
▁inad
▁pilg
▁pops
▁raid
▁rept
▁tide
▁tomb
▁tram
atican
energo
filled
idated
inical
kazakh
liable
oscope
pieces
uzakov
▁1,600
▁1992.
▁2007.
▁Bloom
▁Corps
▁Craig
▁Grain
▁KazNU
▁Marie
▁Multi
▁Parks
▁Spart
▁akhko
▁flask
▁gangs
▁harms
▁olive
▁remix
▁rooft
▁shred
▁venom
British
arbucks
idelity
inished
ocratic
oglobin
sharing
solving
uestion
▁Auezov
▁Kansas
▁Montan
▁Normal
▁Norman
▁Result
▁Sydney
▁beetle
▁blacks
▁brakes
▁coined
▁consec
▁galvan
▁gaming
▁glands
▁harves
▁inland
▁league
▁misfit
▁nectar
▁overhe
▁provoc
▁shocks
▁solely
▁tagged
▁throne
▁tweets
aspberry
election
▁300,000
▁Abraham
▁Bahrain
▁Erdogan
▁Patrick
▁Poisson
▁adheres
▁alleged
▁amplify
▁bonding
▁compose
▁compute
▁fingert
▁islamic
▁layered
▁lesbian
▁manuals
▁mundane
▁numeric
▁rehears
▁removes
▁revenge
▁rockets
▁unclear
awareness
iltration
sectional
ternative
▁Americas
▁Angdatpa
▁Budapest
▁Hydrogen
▁Kapparov
▁Material
▁Teachers
▁Universe
▁acquires
▁alarming
▁altruism
▁bachelor
▁belonged
▁cheapest
▁deprived
▁explorer
▁featured
▁governed
▁hydrogel
▁labeling
▁princess
▁rigorous
▁sausages
▁severely
▁suicidal
▁visceral
accounting
biological
magambetov
positional
▁Processes
▁Radiation
▁Synthesis
▁Universal
▁Yesterday
▁allowable
▁digestive
▁evacuated
▁instincts
▁neocortex
▁patriarch
▁prescribe
▁prevalent
▁rendering
▁separates
▁sociology
▁surprises
▁undergoes
▁Properties
▁anatomical
▁attempting
▁centimeter
▁countrymen
▁elongation
▁extractive
▁extremists
▁redemption
▁sensations
▁simulating
▁undertaken
▁wilderness
▁zhezkazgan
armaceutical
▁Declaration
▁Novosibirsk
▁Renaissance
▁meaningless
▁metabolites
▁proficiency
▁thermometer
▁undoubtedly
▁constituting
▁disturbances
▁inauguration
▁southwestern
▁specializing
▁multicultural
▁prescriptions
▁technologists
▁underestimate
▁centralization
▁configurations
▁meteorological
AD
pc
-1,
-60
ISO
Now
alo
bee
big
dog
exc
▁8%
▁FP
▁KK
▁ku
List
Pres
Sary
abel
burn
chin
idat
ingo
inki
ivar
ourg
oxyl
oyev
rend
wife
ylan
▁(13
▁1-3
▁121
▁162
▁310
▁4.9
▁98%
▁DoS
▁Gor
▁Hun
▁Kob
▁NET
▁Vin
▁aea
▁aul
▁chi
▁dos
▁fox
▁gum
▁jaw
▁lem
Trans
White
aimed
ammat
ascal
frame
idium
lling
ococc
ophyt
regon
roads
stick
▁(13)
▁10%,
▁1400
▁Anat
▁Aren
▁Mall
▁Malt
▁Nazi
▁PROC
▁Rose
▁Slow
▁Spir
▁Town
▁Viol
▁arab
▁argu
▁barg
▁chun
▁coil
▁foll
▁glor
▁grim
▁hamb
▁iPad
▁kits
▁knit
▁neon
▁nick
▁oily
▁piss
▁plum
▁ruth
▁sync
▁thes
▁todd
▁unsu
Kyrgyz
cripts
entric
ficial
ineral
insula
ispers
kulova
onymic
ounces
piracy
sector
umping
ussani
walled
weapon
▁10-20
▁9001:
▁Chall
▁Cisco
▁Diego
▁Front
▁Upper
▁affil
▁binds
▁crank
▁crush
▁deter
▁ethic
▁exert
▁flock
▁footh
▁haird
▁lemon
▁locks
▁pupil
▁rever
▁sciss
▁squid
▁waist
Because
angarin
anovich
aunting
channel
courses
embourg
ifiable
playing
purpose
▁Allows
▁Better
▁Bozhko
▁Cement
▁Danish
▁Kentau
▁Notice
▁Oregon
▁Physic
▁Recent
▁Sergei
▁Venice
▁Yellow
▁accust
▁antiqu
▁banana
▁canned
▁essays
▁fences
▁fungus
▁glance
▁gossip
▁humane
▁impede
▁melons
▁merged
▁poorer
▁prince
▁revive
▁saline
▁spouse
▁styles
▁subdiv
▁subset
▁sunset
▁unseen
ceptions
lections
lyabinsk
physical
transmit
▁Ability
▁Correct
▁Ecuador
▁Lincoln
▁Persons
▁Regions
▁Sources
▁caution
▁cholera
▁compile
▁earning
▁ellipse
▁exciton
▁excuses
▁grazing
▁mammoth
▁octopus
▁overest
▁payload
▁playful
▁plotted
▁praying
▁resurre
▁roadway
▁secrecy
▁sterile
▁symptom
▁thyroid
▁tripled
▁whisper
Hungarian
iciencies
intuitive
producing
terrorist
▁Birtanov
▁Giussani
▁Hercules
▁Sargsyan
▁Studying
▁auspices
▁averages
▁clicking
▁diagonal
▁emergent
▁evenings
▁extremes
▁ignoring
▁improvis
▁inverter
▁latitude
▁launches
▁midnight
▁nonsense
▁november
▁overseas
▁packaged
▁peroxide
▁planners
▁prevails
▁promptly
▁reserved
▁rewarded
▁sensible
▁sometime
▁tortured
▁Holocaust
▁Mountains
▁Pakistani
▁Prospects
▁Treatment
▁Zhakupova
▁accessing
▁advocates
▁alternate
▁checklist
▁formulate
▁frontiers
▁illusions
▁modernity
▁pneumonia
▁privately
▁proposing
▁sergeants
represented
▁Compliance
▁Pittsburgh
▁anesthesia
▁assemblies
▁correlated
▁counseling
▁equestrian
▁kyrgyzstan
▁measurable
▁orthogonal
▁overweight
▁phosphates
▁refraction
▁respectful
▁transforms
▁unfinished
▁validation
▁afghanistan
▁battlefield
▁classifying
▁containment
▁distributor
▁forthcoming
▁incorporate
▁instructors
▁intuitively
▁masterpiece
▁preventable
▁prototyping
▁ethnographic
▁inscriptions
▁perpetrators
▁spectrometry
▁supermarkets
▁unimaginable
▁documentaries
▁replenishment
▁demonstrations
UM
Arm
CAD
Cor
Fin
Get
Hon
RNA
aic
hik
rev
▁Ho
▁JH
▁Ta
▁ay
answ
arys
asha
code
cule
data
days
eing
emin
etta
irls
ivia
lane
llor
main
nial
orde
pill
rost
uber
uick
yrov
▁(2-
▁025
▁22%
▁255
▁265
▁4%.
▁40,
▁540
▁720
▁97%
▁Bog
▁Gam
▁Glo
▁PAC
▁Tah
▁UCL
▁cit
▁coh
▁lig
▁luc
▁urg
▁vin
These
Women
airam
allas
erald
erend
ffiti
ilsky
legal
lical
opark
quest
there
ubark
waste
yrene
▁"...
▁(17)
▁ANAL
▁Anim
▁Buck
▁Bukh
▁Carl
▁Conn
▁Live
▁Name
▁Nano
▁Oleg
▁Save
▁Shol
▁bish
▁blad
▁blob
▁cafe
▁clog
▁fade
▁pant
▁skys
▁sums
▁swap
▁trol
▁void
Energy
Russia
ievich
istine
linked
ortune
threat
▁Alpys
▁Brain
▁Brief
▁Emily
▁Harry
▁Krasn
▁Metal
▁Patri
▁Paulo
▁Photo
▁Saint
▁Steel
▁arrog
▁atroc
▁calib
▁chunk
▁drums
▁dwarf
▁emits
▁hered
▁joins
▁kilow
▁leaks
▁lover
▁melts
▁monot
▁nails
▁overc
▁queer
▁reaff
▁renov
▁shade
▁slipp
▁sting
▁sunny
▁unden
casting
climate
compass
contact
ialogue
leading
osexual
oxidase
▁Bacter
▁ELICIT
▁Eighty
▁Guests
▁Kurgan
▁Kuwait
▁Length
▁Liquid
▁Parent
▁Rector
▁Sheikh
▁Travel
▁bounce
▁carbox
▁colder
▁embryo
▁facade
▁folder
▁invari
▁molten
▁plague
▁raster
▁spills
Shymkent
atameken
▁Alikhan
▁Bishkek
▁Channel
▁Latvian
▁Montana
▁Neumann
▁Proceed
▁Snowden
▁Tunisia
▁Vatican
▁absorbs
▁amnesty
▁calorie
▁crashed
▁eclipse
▁glowing
▁legends
▁miracul
▁mosques
▁notions
▁ophthal
▁polygon
▁refusal
▁strokes
▁suffers
▁ukraine
▁volcano
▁worries
Americans
consuming
oplankton
▁Monterey
▁Orenburg
▁Personal
▁Proposed
▁claiming
▁delivers
▁hydromet
▁journeys
▁platinum
▁polyacry
▁reusable
▁shepherd
▁smartest
▁taxpayer
▁urgently
▁videocon
mechanical
▁2015-2016
▁Automated
▁Framework
▁Insurance
▁Palestine
▁Starbucks
▁amendment
▁cartilage
▁celestial
▁conceived
▁cryptocur
▁directing
▁disparate
▁emanating
▁gardening
▁mythology
▁predatory
▁presently
▁receivers
▁spaceship
▁twentieth
▁undermine
▁unrelated
omechanical
▁Alexandria
▁Archimedes
▁Luxembourg
▁auditorium
▁diagnosing
▁excursions
▁fragmented
▁geosystems
▁impairment
▁insecurity
▁locomotion
▁methodical
▁minimizing
▁peacefully
▁peripheral
▁protesters
▁starvation
▁temptation
▁therapists
▁usefulness
Fundamentals
technologies
▁INFORMATION
▁Yermekbayev
▁breadwinner
▁bureaucracy
▁conjunction
▁devaluation
▁enhancement
▁extensively
▁extradition
▁inheritance
▁memorandums
▁mindfulness
▁motivations
▁mountainous
▁playgrounds
▁rationality
▁versatility
▁Akhmetzhanov
▁acknowledged
▁commercially
▁grandmothers
▁programmable
▁Disadvantages
▁Massachusetts
▁complementary
▁disadvantaged
▁normalization
▁socioeconomic
▁substantially
▁liberalization
1/
44
83
9)
?]
Bl
CR
FA
Na
mg
sn
-13
-14
Big
IAL
Mom
jar
myr
oam
obo
orp
rar
utt
▁0)
▁8-
▁ET
▁GM
▁GR
▁Ju
▁OR
▁UA
CADA
Good
West
acre
agos
anti
beks
cool
esov
etry
icus
ilon
itan
liqu
mbet
name
obos
phal
rove
ruit
uese
▁(50
▁177
▁236
▁237
▁288
▁430
▁440
▁6.3
▁Aqu
▁CAR
▁Fah
▁Hit
▁Kah
▁Nev
▁Num
▁PAK
▁RGP
▁SEC
▁Yak
▁avo
▁kok
▁ole
▁ppm
▁sid
armed
cover
genov
ittal
pture
roots
spect
ulses
ungar
▁0,95
▁100.
▁1700
▁Bear
▁Dead
▁Elon
▁Hond
▁Kark
▁Rick
▁SETI
▁Tien
▁Wire
▁dend
▁fanc
▁grip
▁oval
▁serm
abekov
actory
eroids
ervice
famous
flight
giving
omeres
ppling
robion
skirts
vector
▁1996,
▁Alpha
▁Cyber
▁Doesn
▁Fiber
▁Heavy
▁Irish
▁Julia
▁Karab
▁Kyoto
▁SCADA
▁Whole
▁aeros
▁baton
▁bless
▁chemo
▁conin
▁cured
▁curse
▁drank
▁handy
▁kings
▁lifts
▁melon
▁pearl
▁ropes
▁shuff
▁sonic
▁stagn
▁sucks
▁vigil
▁wreck
Belarus
Iranian
alkhash
ankulov
blowing
cellent
centric
conduct
fashion
gencies
llywood
ophilic
thening
writing
▁Amount
▁Author
▁Bosnia
▁Course
▁Define
▁Merkel
▁Planet
▁Reduce
▁Sylvia
▁Turgai
▁Weight
▁benign
▁celebr
▁decode
▁emblem
▁halved
▁hiking
▁hotter
▁levers
▁litter
▁mortal
▁nutrit
▁obsess
▁polite
▁radial
▁resign
▁ribbon
▁scalar
▁stakes
▁timber
andering
graduate
igraphic
▁Cameron
▁Cossack
▁Defines
▁INFORMA
▁Karasai
▁Ospanov
▁acetate
▁applaud
▁avoided
▁behaves
▁densely
▁droplet
▁ejected
▁invaded
▁nesting
▁nuanced
▁resumed
▁rotates
▁seafood
▁sellers
▁spotted
▁tokayev
generated
ictionary
izational
▁Buddhist
▁Columbus
▁Constant
▁Domestic
▁Property
▁Strength
▁adhesive
▁airborne
▁analysts
▁bloggers
▁depleted
▁epiphany
▁factions
▁humanism
▁insecure
▁isotopes
▁metering
▁oncology
▁roadside
▁sickness
▁sneakers
▁sweeping
▁toughest
▁upgraded
▁workflow
confidence
▁2011-2020
▁2017-2021
▁Additions
▁Essential
▁Marketing
▁Territory
▁affection
▁assurance
▁childcare
▁digitized
▁disrupted
▁editorial
▁mangistau
▁pulmonary
▁reconnect
▁simulator
▁Exhibition
▁Multimedia
▁assistants
▁conscience
▁disgusting
▁elaborated
▁fatherland
▁highlights
▁ironically
▁reasonably
▁rebuilding
▁refractory
▁revelation
▁sacrifices
▁stabilizer
▁Kaztransoil
▁Legislation
▁Specialists
▁competences
▁consecutive
▁credentials
▁incremental
▁manuscripts
▁microscopes
▁readmission
▁secretaries
▁substations
modernization
▁Agribusiness
▁Registration
▁adaptability
▁celebrations
▁facilitating
▁inaccessible
▁malnutrition
▁northeastern
omorphological
▁Participation
▁constructions
▁distinguishing
▁reconnaissance
▁reorganization
▁supercomputers
▁hydrogeological
/3
Ab
wa
2),
Rec
Sec
Sil
arg
asu
bec
due
fat
hum
kev
muh
ovy
owl
teb
tun
voc
▁4]
▁8.
▁FO
▁Mn
▁Nr
▁OH
▁PL
▁Ps
▁Ry
▁TT
▁ZH
▁wo
agus
akat
ayan
berd
coll
eval
fuel
idae
imen
mang
mart
orea
orse
oule
qual
▁133
▁141
▁142
▁16.
▁166
▁171
▁18.
▁2%.
▁27%
▁3%,
▁325
▁365
▁480
▁5%.
▁5.4
▁Akh
▁Ali
▁CES
▁Doc
▁Fat
▁Fra
▁IEE
▁INT
▁Lav
▁Nap
▁Rab
▁bru
▁pee
▁pic
▁sto
2050.
Afric
World
acles
avail
blood
cells
egrad
hetti
imore
oices
puted
ronts
uling
▁0,82
▁0,85
▁1993
▁Dave
▁Gaza
▁Hold
▁IEEE
▁Kush
▁Lady
▁Lect
▁Made
▁Past
▁Pavl
▁Rosa
▁Sent
▁Stef
▁Tree
▁Vent
▁[17]
▁alum
▁amyl
▁angi
▁bord
▁eras
▁gend
▁glyc
▁maze
▁monk
▁muff
▁remn
▁situ
▁symb
▁unth
Golden
agulov
akirov
enosis
icture
igrade
kaznex
lining
onomic
posing
skills
square
ungite
▁2005.
▁9,000
▁Audit
▁Beket
▁Delph
▁Motor
▁Roose
▁Susan
▁Vegas
▁condu
▁cubes
▁disgu
▁figur
▁greet
▁groom
▁heats
▁inlet
▁ladle
▁masks
▁nanom
▁neutr
▁overf
▁seams
▁toast
▁torch
▁uzbek
circuit
ethanol
grained
massive
naments
orgalzh
program
roshima
skilled
tending
ulously
without
▁Ankara
▁ArcGIS
▁Falcon
▁Kordai
▁Oliver
▁Stream
▁Wilson
▁allerg
▁assass
▁attent
▁backed
▁banker
▁bodily
▁clergy
▁coarse
▁convex
▁gastro
▁impart
▁judged
▁louder
▁poetic
▁predic
▁relent
▁ripped
▁scaled
▁shoots
▁sprint
▁strang
▁subbot
▁talgat
▁tantal
▁welded
communic
eveloped
irection
▁Akishev
▁Believe
▁Centers
▁Combust
▁Croatia
▁Heating
▁PROCESS
▁acrylic
▁audited
▁cabbage
▁cations
▁daytime
▁devised
▁endemic
▁entries
▁exagger
▁flipped
▁hashtag
▁lacking
▁marched
▁migrant
▁motives
▁penguin
▁postpon
▁readily
▁reimbur
▁renewed
▁rightly
▁secured
▁spouses
▁stacked
▁subrout
Chemistry
equipment
▁Graphics
▁Jonathan
▁Lagrange
▁Magazine
▁Official
▁Thinking
▁acquaint
▁appetite
▁climbers
▁conveyed
▁credible
▁destroys
▁detained
▁forwards
▁headache
▁impurity
▁knitting
▁leukemia
▁magician
▁magnetod
▁missiles
▁ontology
▁outlines
▁protagon
▁rhythmic
▁scissors
▁selenium
▁stripped
▁sturgeon
▁unifying
performing
▁Evolution
▁Geography
▁Hopefully
▁Providing
▁Roosevelt
▁Wednesday
▁allocates
▁antitrust
▁branching
▁butterfly
▁configure
▁conscient
▁contacted
▁craftsmen
▁diatomite
▁discontin
▁disparity
▁exquisite
▁immersion
▁insoluble
▁inversion
▁isolating
▁laureates
▁mesophile
▁mosquitos
▁motivates
▁outskirts
▁proactive
▁publisher
▁sequenced
▁stretches
▁testifies
▁uniformly
▁waterways
▁Biological
▁Conclusion
▁Geological
▁Kelimbetov
▁Millennium
▁astounding
▁beekeeping
▁committing
▁concussion
▁currencies
▁embodiment
▁peroxidase
▁relocation
▁responsive
▁successive
▁symbolizes
▁thermostat
▁Stepnogorsk
▁businessman
▁hardworking
▁objectively
▁positioning
▁prohibition
▁supplements
▁trustworthy
effectiveness
▁Metrological
▁communicated
▁dictatorship
▁humanization
▁hydrological
▁incorporated
▁interviewing
▁watercourses
▁Establishment
▁confrontation
▁disconnection
▁granulometric
▁inappropriate
▁mineralogical
▁neurotransmit
▁recombination
▁humidification
▁hydrogenerator
▁Characteristics
▁interconnection
▁plenipotentiary
DC
Uk
xy
1),
IST
bps
duk
eto
gab
iem
mia
oct
ori
phy
yev
▁Ax
▁Dz
▁GG
▁HR
▁HW
▁NT
▁NY
▁RF
▁Rh
▁Ru
▁SA
▁os
▁oy
Ital
YSIS
asso
heit
ican
inge
iral
itov
kets
mite
obyl
orov
ours
park
rett
when
ylon
▁11-
▁13-
▁149
▁159
▁176
▁205
▁238
▁245
▁290
▁5.3
▁5.8
▁Boz
▁Cas
▁GIS
▁LHC
▁Mit
▁Mrs
▁Nag
▁Oct
▁Pap
▁Pri
▁Tuy
▁gle
▁lam
▁lid
▁olf
▁rye
▁une
▁wob
▁yer
-2000
aused
break
brids
dykov
ectin
erved
ibles
idine
lykov
nacle
thals
utral
ymbek
▁0,87
▁1100
▁Bert
▁CALC
▁Duke
▁Duma
▁Edin
▁Fear
▁Maur
▁Pete
▁Pier
▁Rain
▁Shen
▁[18]
▁ally
▁apoc
▁aval
▁coch
▁coex
▁deer
▁fuse
▁gras
▁heck
▁knot
▁oecd
▁pity
▁sext
▁stap
▁succ
Center
Israel
ichlet
ilized
ippers
ocytes
owners
▁9/11,
▁Award
▁Bragg
▁Cuban
▁Denis
▁Diagn
▁Dylan
▁Kazne
▁Laden
▁Namib
▁Pause
▁Petro
▁Rural
▁Shard
▁Tests
▁antip
▁ashes
▁autot
▁baker
▁bloom
▁crawl
▁erase
▁erupt
▁exile
▁flaws
▁flick
▁fores
▁geese
▁grind
▁hatch
▁humus
▁poker
▁rearr
▁repur
▁scare
▁seize
▁swell
autiful
general
gically
ivating
lasting
osaurus
rection
renheit
selling
▁Accept
▁Circle
▁Moving
▁Nicole
▁Romans
▁Scheme
▁Sensor
▁Sophie
▁Stress
▁Vision
▁allied
▁angels
▁banner
▁cleans
▁consul
▁county
▁cybers
▁encode
▁explor
▁fueled
▁gently
▁header
▁leased
▁merger
▁orthop
▁primem
▁semant
▁stacks
▁stereo
▁vastly
agaliyev
carrying
cleaning
designed
periodic
pressure
▁Biology
▁Geology
▁Hawking
▁Madison
▁Russell
▁abusive
▁bananas
▁bullets
▁charism
▁cheeses
▁evasion
▁fascism
▁hurting
▁hybrids
▁lumines
▁mindful
▁patches
▁pollute
▁proudly
▁stimuli
▁surfact
▁thermoc
oroshenko
ysberbank
▁ANALYSIS
▁Kassymov
▁Opportun
▁amygdala
▁ancestry
▁destabil
▁disclose
▁efficacy
▁enhances
▁eternity
▁flooring
▁happiest
▁improper
▁pioneers
▁rigidity
▁subgroup
▁vanadium
▁watermel
▁weakened
▁Baltimore
▁Direction
▁Edinburgh
▁Provision
▁Solutions
▁activates
▁compacted
▁constants
▁consulate
▁densities
▁dissatisf
▁dominance
▁filmmaker
▁galleries
▁intercept
▁kokshetau
▁mentoring
▁metallurg
▁motorized
▁offensive
▁reprogram
▁swallowed
▁telomeres
▁testimony
▁undefined
▁unfolding
▁Assistance
▁Commercial
▁Confidence
▁Continuous
▁Developing
▁Kairbekova
▁Memorandum
▁Portuguese
▁Resistance
▁atrocities
▁autogenous
▁capitalist
▁comprehens
▁constructs
▁depositors
▁generalize
▁introverts
▁nutritious
▁positioned
▁reactivity
▁recovering
▁simulators
▁stimulants
▁symmetries
▁Lossertales
▁compartment
▁continually
▁credibility
▁determinant
▁dismantling
▁expositions
▁polynomials
▁resolutions
▁undeveloped
▁antagonistic
▁distributors
▁facilitation
▁incompatible
▁invisibility
▁mechanically
▁prostitution
▁Concentration
▁Investigation
▁distinguishes
▁embarrassment
▁misunderstood
▁primeminister
▁trilingualism
▁geoinformation
▁accomplishments
▁interdependence
0)
;"
Dr
Vs
hh
iu
tu
.),
Akt
Art
Bay
Cad
FIC
GAN
PON
Tal
iki
kyu
mil
mom
oba
olo
oos
uru
vae
www
yly
▁BP
▁RH
▁TS
▁Uz
▁mb
Cent
Free
ICEF
Life
SION
ansk
bish
elta
ente
help
inci
itty
nies
odka
ogic
omod
peer
uren
▁(0)
▁172
▁173
▁216
▁4.7
▁5.1
▁5.7
▁60,
▁640
▁Fib
▁Flu
▁Hop
▁Lok
▁Rud
▁Rys
▁SIM
▁Sho
▁Tig
▁USB
▁[12
▁dus
▁ktz
▁muk
▁sax
▁umb
▁von
Earth
First
acial
ambia
amond
ansky
basar
ested
focus
labor
lides
lived
lower
onics
othed
ravel
steps
ubaev
uitar
ulfur
women
▁(16)
▁(199
▁0,89
▁1,00
▁Bait
▁Bekt
▁Chak
▁Days
▁Dend
▁Grav
▁Hels
▁Lisa
▁Rule
▁Shim
▁Sold
▁UCLA
▁cans
▁eyeb
▁guts
▁heli
▁hull
▁kios
▁meta
▁nail
▁pest
▁plut
▁raft
▁rode
▁rude
▁womb
-2050:
amsung
hester
ilstro
mukhan
nesota
onance
ouched
ouncer
rophot
ucking
▁100%.
▁2021.
▁Adobe
▁Bruce
▁Clean
▁Cyrus
▁Forty
▁Kanat
▁Kelly
▁Nodes
▁Oscar
▁Robin
▁USING
▁Wales
▁bends
▁bleed
▁boils
▁boson
▁coerc
▁focal
▁invar
▁loyal
▁monks
▁postp
▁relic
▁ruins
▁scuba
▁serik
▁slabs
▁watts
▁wiped
▁witch
ametric
etworks
izhanov
izontal
machine
ymphony
▁Athens
▁Dallas
▁Easter
▁Malawi
▁Target
▁abbrev
▁artery
▁autobi
▁cancel
▁castle
▁chrome
▁derive
▁genres
▁innate
▁quotes
▁ridges
▁rushed
▁sloths
▁socket
▁stance
▁throws
CATIONAL
allation
altitude
ammatory
baiterek
centered
ivariate
ogenetic
olerance
▁Daniyar
▁Failure
▁Koreans
▁Storage
▁bankers
▁blanket
▁bureauc
▁costing
▁credits
▁detects
▁english
▁exhilar
▁exoplan
▁freeway
▁garment
▁heavier
▁illicit
▁legitim
▁madness
▁olympic
▁sparked
▁thorium
▁tougher
▁unaware
dependent
orgalzhyn
regulated
unciation
▁Drilling
▁Multiple
▁Parallel
▁Pressure
▁Reducing
▁bothered
▁carriage
▁compares
▁delegate
▁encoding
▁flushing
▁folklore
▁husbands
▁impulses
▁monomers
▁openings
▁peptides
▁quarries
▁recorder
▁resemble
▁stewards
▁theorems
▁uploaded
▁uprising
accharides
▁2014-2016
▁Antarctic
▁Minnesota
▁Secondary
▁assisting
▁brutality
▁comprised
▁concludes
▁directory
▁fisherman
▁horrified
▁metaphors
▁optimally
▁propagate
▁shortened
▁skeletons
operability
▁2015-2016,
▁2015-2019,
▁Algorithms
▁Corruption
▁Dictionary
▁JavaScript
▁Michelange
▁cardiology
▁convective
▁counteract
▁demolished
▁grassroots
▁librarians
▁minorities
▁orchestras
▁penicillin
▁privatized
▁quantified
▁specialize
▁unreliable
oluminescent
▁competently
▁designation
▁drastically
▁geolocation
▁grammatical
▁impractical
▁logarithmic
▁macroscopic
▁occupations
▁selectively
▁selectivity
▁storyteller
▁superficial
▁volunteered
international
▁Neanderthals
▁complication
▁enthusiastic
▁fluorescence
▁inefficiency
▁milliseconds
▁popularizing
▁psychiatrist
▁southeastern
▁structurally
▁trajectories
▁transmitters
▁conservatives
▁questionnaires
▁transplantation
56
?)
RS
6.5
ATE
Dad
EST
ROM
USA
akt
atl
aux
bad
cam
cat
dal
igs
sar
▁06
▁Ep
▁FL
▁NH
▁PU
▁Wa
▁eb
▁hi
▁lg
-600
Stud
arti
azan
egov
ench
epar
erox
eves
mult
ogle
pple
redu
reek
shev
uper
▁","
▁(16
▁(17
▁1).
▁143
▁169
▁2,0
▁208
▁254
▁3-5
▁43%
▁470
▁ALS
▁Beg
▁Der
▁Ger
▁Lif
▁Lot
▁McK
▁Pip
▁STR
▁Vel
▁arb
▁axi
▁hid
▁keg
▁ske
▁vet
▁zip
Japan
ccoli
eming
encer
ordon
otech
pharm
ribes
roman
seven
uming
▁25%,
▁ACTI
▁Arsh
▁Cher
▁Dean
▁Draw
▁Lego
▁Meth
▁NaCl
▁Oral
▁Rate
▁Shir
▁Sorb
▁Trip
▁WWII
▁[20]
▁cerv
▁clou
▁delt
▁derm
▁dood
▁fitt
▁foie
▁fork
▁pear
▁rods
▁stab
▁vain
▁yurt
French
ackson
anched
apagos
aranth
ceived
copper
letter
ounded
ouston
uminum
▁1,100
▁12:00
▁1980,
▁1989,
▁2021,
▁Alber
▁Crypt
▁Elena
▁Glory
▁Grace
▁Intel
▁Isaac
▁Keith
▁Kuryk
▁Lanka
▁Miami
▁Money
▁Sadly
▁Sandy
▁Shows
▁Speed
▁TEACH
▁afflu
▁antiv
▁bolat
▁bulbs
▁elbow
▁horns
▁kilos
▁nerdy
▁shook
▁squir
▁towel
▁veins
Healthy
aghetti
azhilis
defined
estones
estyles
graders
iferous
▁Degree
▁Hebrew
▁Joshua
▁Kosovo
▁Motion
▁Norden
▁Pascal
▁Speech
▁Talgar
▁airbus
▁arisen
▁badges
▁behold
▁bionic
▁cipher
▁clicks
▁deemed
▁delete
▁diodes
▁dosing
▁france
▁fronts
▁heater
▁honors
▁hydrom
▁hypert
▁improb
▁larvae
▁locals
▁manure
▁misery
▁nauryz
▁rebell
▁redisc
▁relied
▁schema
▁spikes
▁suspic
▁sympos
▁tailor
▁torque
▁wallet
▁zeroes
capacity
carboxyl
mathemat
omorphic
printing
sciously
▁Cabinet
▁Houston
▁Phoenix
▁Reading
▁Somehow
▁admired
▁bravery
▁camping
▁caspian
▁confess
▁confuse
▁console
▁dissert
▁drastic
▁fearful
▁gadgets
▁massifs
▁measles
▁microbi
▁milling
▁nursery
▁nurture
▁pilgrim
▁posting
▁prayers
▁regrets
▁rehabil
▁ringing
▁scandal
▁synergy
▁tallest
▁temples
▁thinker
▁utilize
according
aksylykov
financing
transport
▁2011-201
▁Defender
▁Dynamics
▁Elements
▁Estonian
▁Problems
▁alcohols
▁antidote
▁arguably
▁atameken
▁bailiffs
▁beverage
▁blessing
▁browsing
▁bubbling
▁daunting
▁daylight
▁deceased
▁fluoride
▁guessing
▁gulshara
▁handheld
▁idrissov
▁imposing
▁inadvert
▁inhibits
▁legalize
▁mismatch
▁paradise
▁postpone
▁reciproc
▁seamless
▁sulphate
▁verified
▁Calculate
▁Efficient
▁Functions
▁Galapagos
▁Jefferson
▁Macedonia
▁Operating
▁Passenger
▁Residents
▁Sagadiyev
▁addictive
▁arthritis
▁audacious
▁botanical
▁collapses
▁cosmology
▁depicting
▁digestion
▁duplicate
▁importing
▁ingenious
▁intensely
▁irrespons
▁lifetimes
▁merchants
▁paramount
▁powerless
▁reluctant
▁sentiment
▁statesman
▁subbotnik
▁templates
Informatics
▁Autonomous
▁Collection
▁Conversion
▁Fahrenheit
▁accustomed
▁adolescent
▁automating
▁brilliance
▁conspiracy
▁constitute
▁depressing
▁discharged
▁discharges
▁exhausting
▁forgetting
▁geologists
▁persuasion
▁potentials
▁pretending
▁randomness
▁refinement
▁skepticism
construction
▁CALCULATION
▁Chelyabinsk
▁INFORMATICS
▁Lianyungang
▁accumulator
▁compensated
▁disseminate
▁embankments
▁interpreter
▁operability
▁outsourcing
▁sustainably
▁synergistic
▁translators
▁Availability
▁Championship
▁Geographical
▁Michelangelo
▁acquaintance
▁communicates
▁counterparts
▁entertaining
▁firefighters
▁imprisonment
▁multiplicity
▁correspondent
▁capitalization
▁microstructure
▁multicomponent
▁neutralization
OO
Ra
Tw
VM
fu
vi
yu
-24
-35
-50
1.1
1.2
EAT
Imp
MRI
Mar
Sem
VII
abe
egu
ele
ema
eye
hir
mus
rie
sid
▁//
▁09
▁HV
▁RE
▁Vy
▁mW
▁ow
▁pa
▁vs
Give
Mart
Road
abar
abay
arev
asia
ayed
bear
heim
iere
into
isef
mala
ondo
only
osat
oyyn
poss
prov
rina
sein
sign
spir
thew
umor
ursy
zhen
▁05%
▁11%
▁167
▁17.
▁24%
▁244
▁6-8
▁6.2
▁7.2
▁9.5
▁99%
▁EEG
▁HAS
▁Ile
▁Kap
▁LCD
▁Las
▁McG
▁REM
▁Raw
▁Roc
▁SEM
▁Tan
▁Uly
▁fel
▁jum
▁sie
▁ups
Asian
UTION
alism
appro
awned
ayeva
cards
celer
ctory
ergen
flora
grown
idian
ipers
ipper
large
local
ropyl
years
▁0,30
▁0,32
▁0,35
▁Baid
▁Ball
▁CERN
▁Elim
▁Eucl
▁Kind
▁Marx
▁Nash
▁Perm
▁Pope
▁Shak
▁Shav
▁Spid
▁Taty
▁Verm
▁Zhub
▁amph
▁boot
▁cyan
▁dull
▁fond
▁ping
▁riot
▁ripe
▁vine
arious
assemb
celain
celled
covery
determ
forced
itches
lamide
length
liquid
modern
orable
oronto
romagn
urgery
utable
verbal
▁3,500
▁Arabs
▁Blood
▁Canal
▁Chrom
▁Close
▁Daily
▁Danny
▁Euler
▁Goods
▁Hotel
▁Indus
▁Jacob
▁Layer
▁Proof
▁Ratio
▁Stein
▁accru
▁accus
▁angel
▁askar
▁cocoa
▁defic
▁ducks
▁frogs
▁hairs
▁hooks
▁impat
▁infot
▁knots
▁merge
▁metam
▁ponds
▁rainy
▁recal
▁reply
▁retin
▁retro
▁scars
▁spear
▁spins
▁swear
▁vague
akorgan
autious
bitumen
element
feeding
ilinear
ococcus
quarium
washing
▁80,000
▁Across
▁Bakhyt
▁Copern
▁Ethics
▁Hitler
▁Johnny
▁Markov
▁Mostly
▁Origin
▁Period
▁Tasman
▁Tennes
▁Tokaev
▁affine
▁aliyev
▁balcon
▁boiled
▁bowels
▁broker
▁chiefs
▁cloudy
▁coping
▁creepy
▁cruise
▁daring
▁erotic
▁faulty
▁gamers
▁micron
▁novice
▁psyche
▁recycl
▁safegu
▁sparse
▁sprawl
▁sultan
▁uptake
achelors
analysis
atellite
ensitive
erennial
imentary
omonosov
shipment
stations
▁Crimean
▁Highway
▁Jackson
▁Matthew
▁Stories
▁Tatyana
▁abolish
▁advisor
▁builder
▁catches
▁centrif
▁chewing
▁concret
▁congreg
▁depicts
▁emailed
▁fabrics
▁grandma
▁greeted
▁guessed
▁judging
▁microns
▁milking
▁obscure
▁oversee
▁pledged
▁qualify
▁revital
▁stripes
▁submers
▁twisted
▁vulture
▁wording
▁yelling
President
budgetary
ederation
fashioned
ifference
onometric
▁Capacity
▁Contract
▁Johannes
▁Margaret
▁Networks
▁Patients
▁STUDENTS
▁Symphony
▁akhmetov
▁amaranth
▁behaving
▁broccoli
▁drowning
▁elliptic
▁faithful
▁fountain
▁gambling
▁graffiti
▁hardship
▁incentiv
▁involunt
▁killings
▁notebook
▁ornament
▁pathogen
▁pinnacle
▁scanners
▁settlers
▁sounding
▁trainers
Sagintayev
celeration
competence
scientific
▁2016-2017
▁2016-2018
▁Cartesian
▁Chernobyl
▁Detection
▁Dirichlet
▁Elemental
▁Pollution
▁Presidium
▁Raspberry
▁Reporting
▁anonymity
▁benefited
▁briquette
▁communist
▁diagnoses
▁drawbacks
▁flotation
▁heartbeat
▁hurricane
▁imitation
▁invariant
▁milestone
▁olfactory
▁partnered
▁plausible
▁pneumatic
▁sanctuary
▁spaghetti
▁splitting
▁startling
▁toponymic
▁uncovered
▁untreated
▁valuation
▁aesthetics
▁birthplace
▁casualties
▁combinator
▁correcting
▁demolition
▁eradicated
▁favourable
▁fingertips
▁floodplain
▁internally
▁lifestyles
▁motivating
▁nanometers
▁prevailing
▁procession
▁stimulated
▁supervisor
▁supposedly
▁synonymous
▁thresholds
registration
romechanical
▁Furthermore
▁Secretariat
▁atmospheres
▁commercials
▁discrepancy
▁disturbance
▁evaluations
▁manipulated
▁proportions
▁prosthetics
▁speculation
▁summarizing
▁superheroes
▁visualizing
▁Subsequently
▁TECHNOLOGIES
▁hospitalized
▁interpreting
▁intimidating
▁metalworking
▁segmentation
▁synthesizing
▁unsuccessful
▁illustrations
▁impossibility
▁interrogation
▁refrigeration
▁neuroscientist
▁hospitalization
▁philanthropists
▁psychologically
52
87
BG
CN
Cd
TV
mi
oT
-2-
-23
150
ACE
CoV
HEM
Lab
Mus
Pal
cho
del
fee
fte
nan
tax
▁KS
▁Ki
▁Ns
▁PG
▁TG
Aust
Comm
Plan
Sure
anne
azov
beit
eers
heid
hell
last
ozen
pson
riad
urdy
your
zier
▁1,6
▁14.
▁161
▁19%
▁226
▁275
▁283
▁315
▁4%,
▁7.1
▁802
▁960
▁Arn
▁Bil
▁CDC
▁ESP
▁Eld
▁KCl
▁KHA
▁LMS
▁Mob
▁Ont
▁Rid
▁Run
▁Tat
▁[5-
▁akk
▁gyn
▁nep
▁ooh
▁phd
▁sko
▁spo
▁tan
▁til
▁vow
achev
annah
culos
enite
fires
kbaev
odiac
oshop
paper
ppers
rouse
small
uartz
ucked
worms
▁0,28
▁0,90
▁200-
▁40%,
▁4000
▁Anne
▁Buff
▁Cass
▁Cast
▁Diet
▁Dust
▁GANs
▁Gene
▁HTTP
▁Kant
▁Kosh
▁Lack
▁Left
▁Navy
▁Node
▁Poor
▁Pred
▁Prof
▁Salt
▁Sino
▁Size
▁Stra
▁Troy
▁VIII
▁Zhen
▁[19]
▁[56]
▁bait
▁burd
▁byte
▁dess
▁dude
▁hips
▁hump
▁isop
▁lied
▁morb
▁nerd
▁peek
▁plag
▁ribs
▁stip
▁yarn
-2050,
Kazyna
Listen
ailing
angeld
blocks
chrome
cycles
erally
ivable
iyarov
iyoyev
keeper
lanbek
leting
losing
ractal
respon
▁100%,
▁Almat
▁Dougl
▁Final
▁Freud
▁Gengh
▁Iraqi
▁Judge
▁Kabul
▁Occup
▁Oprah
▁Princ
▁Uncle
▁beast
▁diets
▁dilap
▁heels
▁korea
▁lacks
▁mortg
▁nause
▁needy
▁preca
▁sloth
▁sniff
▁stalk
▁token
akasova
alinsky
ardless
complex
oplasms
sighted
▁2020).
▁Abayev
▁Chance
▁Noting
▁Observ
▁Rustem
▁Sample
▁Silver
▁Simply
▁Symbol
▁abuses
▁acetic
▁audits
▁avatar
▁bombed
▁causal
▁cyberc
▁edited
▁forage
▁greedy
▁hacked
▁kazsat
▁latent
▁lesser
▁locate
▁mantra
▁metast
▁onions
▁opaque
▁pledge
▁queens
▁ranged
▁saliva
▁sprink
▁sucked
▁turtle
▁unrest
▁wander
conflict
critical
ensation
iculture
▁Anthrop
▁Belgian
▁Disease
▁Namibia
▁Thirdly
▁Toronto
▁arousal
▁bladder
▁convene
▁decimal
▁deflect
▁drilled
▁harming
▁impress
▁integer
▁intertw
▁kazakhs
▁mustard
▁opioids
▁optimum
▁rebuilt
▁repeats
▁trainee
construct
criterion
prisingly
▁Complete
▁Document
▁Lebanese
▁Manufact
▁Montreal
▁Nicholas
▁Politics
▁Positive
▁abortion
▁academia
▁adequacy
▁amateurs
▁auditing
▁averaged
▁bouncing
▁cadastre
▁cardinal
▁charcoal
▁classics
▁dictator
▁downward
▁earnings
▁educator
▁exporter
▁feasible
▁migrated
▁nominate
▁ophthalm
▁outdoors
▁pinpoint
▁prompted
▁resonate
▁retrieve
▁rhetoric
▁slippery
▁thanking
▁vascular
▁Amendment
▁Certainly
▁Developed
▁Jordanian
▁Kapchagai
▁Landscape
▁Metrology
▁Princeton
▁Tennessee
▁borrowing
▁coincided
▁compelled
▁complaint
▁defensive
▁diameters
▁elevation
▁encompass
▁endlessly
▁fireflies
▁gardeners
▁immersive
▁intestine
▁marvelous
▁masculine
▁objection
▁paradigms
▁postponed
▁rewarding
▁scratches
▁separator
▁spectacle
▁spotlight
▁stainless
▁thesaurus
mukhambetov
▁Ashimbayev
▁Jaksybekov
▁Majilismen
▁Mathematic
▁Poroshenko
▁aspiration
▁checkpoint
▁contextual
▁cultivated
▁detergents
▁fruitfully
▁globalized
▁harvesters
▁illuminate
▁intestinal
▁mechanized
▁multiverse
▁repression
▁respecting
▁undercover
humanitarian
▁accumulates
▁coronavirus
▁descriptive
▁dragonflies
▁federations
▁graphically
▁hostilities
▁impregnated
▁interchange
▁restricting
▁spreadsheet
▁disagreement
▁incidentally
▁jurisdiction
▁nanoparticle
▁policymakers
▁supermassive
▁telemedicine
▁vaccinations
▁Enlightenment
▁perfectionism
▁polyelectroly
▁progressively
▁transshipment
▁accomplishment
▁chromatography
▁considerations
▁disappointment
▁underestimated
▁chromatographic
PD
VA
-16
-45
20,
ATO
ISA
bly
ean
enc
flo
has
hov
iax
isu
kub
lak
lov
mud
rod
roy
una
yss
▁8)
▁DD
▁JR
▁MK
▁SL
▁cn
▁ia
▁kv
▁kw
▁ll
-150
ENCE
abag
arms
asov
bury
clim
door
hend
infl
kina
mets
odon
pent
sett
turb
zhas
▁(25
▁1%.
▁1,3
▁1.0
▁181
▁235
▁24.
▁28%
▁410
▁5.6
▁6-7
▁6.6
▁7.7
▁80-
▁Ain
▁Arr
▁Box
▁Dig
▁Got
▁Lis
▁Ltd
▁Neu
▁Ple
▁RDF
▁SSR
▁Sed
▁Sty
▁Yah
▁aef
▁eut
▁huh
▁iOS
▁kdb
▁muh
▁osm
▁tig
▁vom
-1000
Green
alyst
andex
bilis
brain
color
darya
diagn
dream
eight
fight
ibati
ilate
ivism
izona
noise
orate
ospel
ottom
pable
rades
skoye
ucker
ugeot
urial
uvial
vedev
ygurt
▁15%.
▁2061
▁Bali
▁Bart
▁Beau
▁Bond
▁Dist
▁Easy
▁Grab
▁Greg
▁Milo
▁Mode
▁Reed
▁ahco
▁bald
▁cant
▁chew
▁cops
▁gosh
▁gren
▁grit
▁judo
▁logs
▁mama
▁pads
▁peel
▁pian
▁sine
▁skyl
▁smog
▁spit
▁uiid
▁whip
Crisis
Guitar
HEMATI
acking
actics
ampere
aneous
bridge
cation
ctoral
kovsky
ordial
plants
rolite
stanai
ternet
▁2004.
▁Aaron
▁Above
▁Allen
▁Brand
▁Buudb
▁Carlo
▁Delta
▁Drugs
▁Fifth
▁Ideas
▁Kurch
▁Print
▁Roger
▁Separ
▁Vinci
▁Volga
▁Wheat
▁beans
▁buddy
▁cries
▁dilig
▁downs
▁drown
▁exagg
▁gears
▁goose
▁hello
▁icing
▁idiot
▁mates
▁nests
▁obliv
▁parab
▁paran
▁piggy
▁shrub
▁skins
▁sneak
▁tents
▁titan
▁tyran
▁unsat
▁vents
▁woven
berries
billion
founded
iophene
parable
reading
renched
stanbek
village
welling
written
▁10-11,
▁11,000
▁Consul
▁Device
▁Dublin
▁Gender
▁Lorent
▁Mechan
▁Module
▁Mustaf
▁Points
▁Reagan
▁Volter
▁Wealth
▁Wonder
▁Zerend
▁chunks
▁clitor
▁clutch
▁crocod
▁cyclic
▁danced
▁dumped
▁fantas
▁flakes
▁givers
▁harmed
▁immeas
▁marshm
▁medioc
▁nephew
▁plaque
▁poland
▁reacts
▁regain
▁remitt
▁safest
▁seller
▁smoked
▁sorrow
▁sorted
▁thirst
▁tradit
▁unjust
inctions
irmation
ognitive
reatment
ritorial
▁Arizona
▁Balapan
▁Bangkok
▁Compare
▁Darkhan
▁Drawing
▁Erbolat
▁Katrina
▁Oakland
▁Peoples
▁Private
▁Spatial
▁Village
▁Weapons
▁acronym
▁bombing
▁carpets
▁decrees
▁enforce
▁enlight
▁ferrite
▁fighter
▁fishery
▁framing
▁geodesy
▁hydroly
▁ideally
▁lexical
▁longing
▁oxidant
▁pioneer
▁popping
▁quicker
▁scoring
▁superst
▁trolley
▁tropics
▁turtles
▁vibrate
▁visitor
ocumented
wandering
▁Helsinki
▁Jennifer
▁Kabibull
▁Karmaksh
▁Kiribati
▁Millions
▁Syrdarya
▁Treasury
▁centered
▁coloring
▁credited
▁diffract
▁digitize
▁discoura
▁formulae
▁infantry
▁kilowatt
▁kostanay
▁liberals
▁memorize
▁radicals
▁remnants
▁richness
▁scrutiny
▁sideways
▁silently
▁starving
▁wellness
investment
istributed
worthiness
▁2016-2019
▁Combating
▁Determine
▁Directors
▁Hiroshima
▁Olympiads
▁Photoshop
▁adaptable
▁bachelors
▁circuitry
▁commented
▁deposited
▁enriching
▁executing
▁flowering
▁gradients
▁liberated
▁malicious
▁partition
▁perimeter
▁pesticide
▁predictor
▁publicity
▁redundant
▁surrender
▁tightened
electronics
▁Accounting
▁Addressing
▁TECHNOLOGY
▁Thankfully
▁aggression
▁amplifying
▁archeology
▁censorship
▁clinically
▁companions
▁descending
▁disposable
▁disrupting
▁freshwater
▁incubation
▁intuitions
▁mobilizing
▁originated
▁outrageous
▁pilgrimage
▁privileges
▁researched
▁seamlessly
▁suppressed
▁undeniable
culoskeletal
intelligence
▁Enterprises
▁Essentially
▁Recognition
▁Underground
▁Zhumangarin
▁aggravation
▁aggregation
▁commonplace
▁complements
▁corrections
▁friendships
▁immortality
▁malfunction
▁ontological
▁persecution
▁reflections
▁reservation
▁responsibly
▁revelations
▁spectrophot
▁vacationers
technological
▁advantageous
▁collaborated
▁complexities
▁ecologically
▁electrolytes
▁exaggeration
▁highlighting
▁indefinitely
▁investigator
▁luminescence
▁sequentially
▁stratosphere
▁systemically
▁volunteering
▁Computational
▁Organizations
▁chromatograph
▁contradictory
▁heartbreaking
▁hydrodynamics
▁inadvertently
▁interpersonal
▁interruptions
▁knowledgeable
▁metallurgists
▁Rehabilitation
▁impoverishment
▁inconsistencies
Ca
Je
Li
MF
Ne
Sw
gr
hu
oS
"),
7.4
Aff
Car
Day
ERT
adi
dry
esy
fif
fus
giz
mem
uki
yny
▁6-
▁CP
▁DI
▁EP
▁HA
▁NK
▁Oz
▁VK
Educ
Made
Wait
abad
alya
amak
ayas
bird
dras
furt
icao
ilst
mash
obot
orer
ouri
pton
soon
ukov
▁0.6
▁17-
▁23.
▁234
▁32%
▁375
▁4-6
▁460
▁47%
▁Aim
▁Aul
▁DLP
▁Gay
▁Gog
▁Hud
▁Hyp
▁Jum
▁Kuz
▁MyS
▁Nar
▁Ori
▁Raf
▁Tek
▁Vic
▁WDM
▁ais
▁cue
▁ded
▁doc
▁ger
▁icy
▁lac
▁spy
apper
areto
auses
estag
filov
heses
illes
isine
isual
ketch
makov
omart
pulse
rosis
since
tiyar
track
uates
uddle
▁2100
▁8-10
▁Acid
▁Cosm
▁Damu
▁Foot
▁Hass
▁Pain
▁Pent
▁Priv
▁Rout
▁Sixt
▁Sony
▁Sput
▁Tian
▁Tole
▁Ulba
▁brom
▁clan
▁coag
▁doom
▁duct
▁eBay
▁envy
▁fare
▁flue
▁guer
▁myrz
▁oats
▁reed
▁spat
▁veil
agging
assion
atered
bilisi
iaxial
iduous
locked
ottest
powers
racist
wright
▁25-30
▁Chuck
▁Guate
▁Lingu
▁Pulse
▁Rover
▁STUDY
▁Terra
▁Zhark
▁agile
▁antic
▁atten
▁cafes
▁carve
▁flown
▁hepat
▁hurry
▁incap
▁india
▁indul
▁jails
▁latin
▁loser
▁monog
▁nanob
▁nanos
▁niece
▁packs
▁punct
▁renal
▁reset
▁scram
▁semic
▁snack
▁sonar
▁teddy
▁unfor
▁vodka
▁wagon
-2050,"
English
average
colored
dynamic
eliness
erglass
friends
genesis
ignment
inatory
ivalent
licking
neutral
overing
oyynkum
rically
technic
ussions
▁206110
▁35,000
▁Behind
▁Edison
▁Europa
▁Incred
▁Massim
▁Miguel
▁Mutual
▁Plants
▁Samuel
▁Series
▁Tables
▁Toyota
▁Turing
▁albeit
▁attain
▁blamed
▁bundle
▁dauren
▁elbasy
▁fishes
▁fooled
▁formid
▁funnel
▁gallon
▁german
▁hermit
▁invade
▁inward
▁lacked
▁naming
▁nanosc
▁phonon
▁pirate
▁pusher
▁ruined
▁runner
▁spells
▁tended
daughter
services
thousand
▁Extreme
▁Fortune
▁Karimov
▁Lorentz
▁Neither
▁Perfect
▁Picasso
▁Shalkar
▁Shortly
▁TEDTalk
▁Titanic
▁amylose
▁annoyed
▁apocaly
▁bathing
▁clearer
▁cuisine
▁dentist
▁dispose
▁embryos
▁empires
▁evolves
▁gelatin
▁heavens
▁humming
▁inherit
▁kazagro
▁lagging
▁legumes
▁lobster
▁locking
▁malware
▁molding
▁monovol
▁nozzles
▁outlook
▁pitches
▁plaster
▁propell
▁rocking
▁rupture
▁screwed
▁sexting
▁shrines
Ukrainian
erational
▁Activity
▁Franklin
▁Scottish
▁cleaners
▁compiler
▁deserved
▁drafting
▁dragging
▁dressing
▁drifting
▁genomics
▁greeting
▁ignorant
▁infamous
▁overdose
▁pancreas
▁poisoned
▁reptiles
▁snapshot
▁solitary
▁soloists
▁speeding
▁squirrel
▁swelling
▁troubles
▁unfolded
▁unwanted
Affordable
generating
▁2014-2015
▁2015-2017
▁2017-2019
▁Bundestag
▁Computers
▁Kapshagai
▁MATHEMATI
▁Terrorism
▁biodegrad
▁bioenergy
▁cathedral
▁charities
▁counselor
▁deciduous
▁descended
▁dismissal
▁federated
▁honeybees
▁magnetron
▁miniature
▁multiplex
▁obstetric
▁publishes
[...]
