<blank>
<s>
</s>
▁t
▁th
▁a
in
er
▁w
▁the
▁o
▁s
at
re
nd
ou
▁c
is
it
▁b
en
▁m
ing
on
▁h
▁to
▁p
es
▁f
an
or
▁d
al
▁of
ed
▁in
▁and
▁I
▁l
ar
om
▁that
▁y
ic
as
le
▁g
ve
▁n
ll
us
▁e
▁you
▁wh
ly
▁be
ion
ow
ut
▁is
▁we
▁A
▁it
ent
ot
et
▁re
ct
▁T
▁ha
▁on
ere
ld
ver
gh
id
ay
im
ur
se
▁Th
ro
st
▁st
▁And
ch
▁this
▁S
ke
ce
▁for
ter
ir
if
ra
▁was
ith
▁an
op
▁W
▁are
ol
th
am
▁with
▁do
ally
▁u
▁have
▁li
ri
▁ab
▁mo
▁se
▁as
ation
▁they
▁can
▁B
▁go
▁k
ad
ght
out
▁wor
▁com
▁he
▁ne
▁me
ould
▁sh
ill
ers
▁at
ge
use
il
ul
▁not
ant
▁what
very
▁So
▁-
▁so
▁--
▁ex
▁about
ust
▁ch
od
pp
est
▁j
▁de
▁all
▁or
▁The
▁my
▁pro
um
▁con
▁som
ess
▁pe
rom
ear
▁"
ck
ate
art
ople
ity
ig
▁like
▁our
ure
▁lo
ist
▁people
ause
▁from
ive
▁there
ies
ble
▁ma
▁one
▁al
qu
▁We
un
▁v
▁It
▁us
ect
▁but
ok
▁N
▁bec
all
rou
▁kn
em
▁But
▁(
ind
▁out
▁sp
▁M
▁just
▁C
os
ink
▁te
and
▁H
ide
▁them
her
ci
▁know
ort
▁who
el
▁pl
▁by
▁these
▁if
▁thing
▁your
▁more
ain
▁up
▁their
one
▁think
▁when
▁im
▁int
▁get
au
▁had
▁r
▁some
▁1
▁tim
ich
ment
▁because
▁su
og
▁act
ap
▁year
nt
▁would
ine
▁tr
▁were
▁very
ie
▁see
▁Y
▁work
▁how
ous
our
act
iv
ame
ast
ack
iz
▁comp
ard
are
▁en
▁O
▁Wh
augh
ose
▁going
ight
ence
res
▁sa
reat
ag
▁le
aughter
▁E
ans
ions
▁want
▁which
▁ev
▁way
."
▁time
ab
hing
▁really
▁oth
▁exp
▁look
ually
▁every
ong
▁world
ore
Laughter
▁fe
▁man
▁has
fer
▁qu
▁per
▁ta
▁could
▁P
ud
▁will
▁into
▁D
ace
ild
▁This
ach
▁F
nder
▁then
▁other
▁don
ical
age
▁L
▁In
▁ag
▁years
king
▁co
▁here
▁un
▁did
▁than
▁where
▁say
▁cl
pt
▁need
ice
▁ri
▁G
so
▁You
▁actually
▁dis
▁no
ff
▁somet
▁now
▁dif
▁things
▁been
▁make
itt
ome
▁any
▁over
▁imp
▁tw
▁part
▁2
▁Now
irst
▁They
00
▁po
orm
ry
ory
▁start
ree
lo
ac
▁right
ite
ep
▁happ
ign
round
ang
▁ar
ult
ount
ife
sel
▁those
own
ens
▁also
ia
▁call
olog
ves
end
▁R
ass
ber
ell
▁bu
▁new
▁ro
ound
▁two
▁first
▁inter
▁differ
ire
ving
▁ac
▁cont
ip
▁something
▁even
▁her
ru
▁back
ue
▁most
▁res
ater
ations
ated
▁bet
▁pre
▁ad
able
▁mu
▁she
way
cent
▁said
▁his
▁under
▁only
vel
▁much
▁hum
ple
▁ph
▁life
rain
▁comm
▁many
▁That
co
▁sy
▁day
▁tal
▁lot
▁pr
ody
rough
▁fo
▁des
▁am
du
▁got
▁kind
▁real
ress
▁different
ance
ittle
cess
other
▁J
▁little
ict
ick
ish
ents
ors
ase
▁take
int
▁spe
▁em
▁U
▁does
▁through
▁inc
▁bo
form
als
▁ra
ak
▁around
▁good
ange
▁ide
urn
▁being
igh
les
wn
ath
ile
ether
▁sc
ary
▁What
ower
ved
ph
ade
▁sm
▁same
ms
▁down
▁tell
▁There
▁may
▁use
ful
▁pers
ces
▁human
he
ark
ons
▁gen
lect
▁thou
stem
be
ne
▁dec
ting
vers
ord
▁count
▁tra
fter
ys
day
ible
▁wr
row
ars
▁proble
xt
▁hel
ject
per
▁show
ning
chn
▁He
▁sur
▁exper
ities
▁happen
▁put
▁fact
ric
▁off
ial
▁wom
▁bl
▁system
ppl
self
cial
fore
▁try
▁help
▁big
▁find
▁feel
▁stud
red
▁come
▁techn
▁rem
▁lear
▁If
▁child
▁own
▁col
▁inv
ib
▁called
▁three
▁quest
ious
ition
ren
▁ind
▁sim
thing
▁great
▁long
▁let
▁bel
▁again
ating
we
mer
ology
ically
▁percent
ual
▁talk
▁build
ics
▁doing
▁well
▁made
▁person
ates
▁end
ub
▁underst
▁after
ty
ily
▁pos
ew
av
▁Ch
illion
▁its
▁gu
▁should
▁why
▁import
▁rel
▁rep
▁change
▁K
te
▁ask
▁brain
olut
ize
▁ob
▁commun
ists
▁app
body
▁sci
▁br
ft
▁today
▁high
▁didn
ail
▁fam
cho
▁creat
▁fl
▁inst
ost
alth
▁turn
ise
▁might
pplause
▁ins
ull
ility
▁before
▁him
▁cons
▁better
▁understand
▁mean
ian
▁important
lic
atter
Applause
gan
▁pol
▁ke
▁exam
▁trans
▁Well
▁still
▁rec
ob
▁car
▁power
▁thought
ks
oth
?"
▁started
ough
chool
▁never
▁idea
▁produ
▁each
und
▁gra
ope
▁play
ven
▁belie
▁St
▁Be
▁plan
ave
▁bas
ness
▁last
ction
▁num
▁3
▁When
▁tog
▁design
▁att
▁together
ss
▁cour
▁story
▁ent
kes
▁found
▁20
arch
old
▁point
▁few
000
▁problem
ese
ular
▁another
con
▁med
▁learn
iss
ited
▁school
▁too
▁women
▁give
ert
,"
ized
ng
▁imag
▁mon
erg
▁able
ather
▁ext
ween
ward
atch
▁hand
gin
▁art
ience
▁interest
read
cond
ron
▁kid
▁dat
▁sl
,000
▁next
▁between
▁tri
▁place
ures
ific
▁ser
velop
▁cell
oc
ced
ative
ix
▁cr
▁went
ings
ways
▁comple
meric
▁di
▁question
▁used
ense
▁health
ood
▁mod
▁19
cept
ank
▁came
▁cre
▁water
▁ago
▁care
▁eff
▁small
▁bit
▁love
▁course
▁str
▁data
ds
ism
▁develop
uc
▁met
▁ter
▁hard
▁example
▁fin
ale
▁mom
▁read
▁technology
ram
pe
▁ear
▁How
pl
▁far
ger
▁Americ
▁grow
▁Af
az
▁cent
ments
▁op
riend
▁less
▁children
▁partic
▁doesn
ets
▁resp
▁light
▁old
▁poss
selves
cy
li
▁10
▁live
▁chang
▁always
ross
▁As
▁move
formation
pport
iness
cer
ident
hip
▁beh
▁wanted
aw
▁four
ote
▁gener
▁min
ational
▁V
ten
▁el
ands
ably
▁sk
▁second
▁uni
▁means
ories
▁inf
▁lead
▁ever
▁away
▁giv
▁ed
▁working
cause
▁compan
ork
ract
▁cap
▁comput
its
▁Un
ah
▁nat
▁home
▁friend
ural
gg
led
▁bi
▁lar
▁believe
▁sort
▁Because
▁expl
▁fut
ries
▁looking
olution
▁done
conom
▁country
nect
▁reas
▁acc
ues
▁Afric
▁million
▁cor
▁pub
oney
▁bus
wh
ruct
ps
▁using
▁reg
▁process
▁mus
tern
▁trying
ital
▁whole
▁enough
▁number
▁information
▁For
▁become
ention
▁create
air
▁vis
▁future
ond
▁sub
▁5
vern
▁sing
▁mind
▁sol
▁social
ines
▁econom
▁prog
▁thinking
▁everything
▁body
▁job
aces
aut
▁pres
ety
▁form
ied
▁space
▁My
▁These
ner
▁food
▁organ
▁without
▁best
▁elect
▁dep
▁grou
▁cou
▁spec
▁kids
▁money
sw
▁maybe
▁cur
▁set
imate
▁sign
▁left
▁times
ergy
imes
▁She
iting
▁five
▁cle
▁family
▁run
iron
▁add
iew
▁4
▁book
ices
▁rese
▁open
▁govern
▁young
▁making
▁def
▁wal
▁One
cus
irl
ake
ever
▁eng
▁glo
▁teach
ead
▁took
▁dem
bal
▁while
ember
uring
▁stu
▁hist
▁cho
▁phys
▁prob
▁lives
▁matter
▁connect
▁war
▁seem
▁pat
▁month
▁keep
alf
▁anim
▁research
der
▁energy
▁sound
▁answ
▁dist
▁head
ts
▁fun
ertain
▁such
▁eas
▁blo
▁pret
ying
▁getting
▁val
ouse
▁prot
▁mem
▁comes
▁dri
▁doll
▁project
▁pict
▁pop
▁pass
▁contro
▁share
▁scient
arent
▁wee
▁room
▁det
▁allow
▁experience
▁often
▁moment
▁makes
▁sense
rib
▁across
▁soci
▁conf
ince
most
▁stop
▁countries
less
▁told
▁cult
▁wo
▁else
▁men
▁community
▁beaut
ef
▁begin
▁aut
▁talking
ream
ences
ided
▁ty
▁effect
▁env
ird
▁polit
▁happened
ient
▁ways
▁stand
▁someone
allen
▁pretty
▁An
▁probably
▁business
orn
ants
ality
ases
▁side
▁science
▁anything
uge
▁asked
▁single
▁quite
▁Let
reen
▁pain
▁having
▁equ
▁mark
▁living
▁both
▁reason
▁building
▁ey
▁educ
▁girl
▁cells
▁public
▁dise
verse
▁environ
▁interesting
▁cam
▁remember
lf
▁list
▁later
▁half
▁hour
iter
▁prof
▁bad
▁ref
▁saw
llow
angu
idd
ready
▁dollars
▁challen
▁suc
gs
▁wa
ime
arth
▁seen
▁char
cover
▁air
▁contin
▁pie
▁Ind
▁days
▁coming
▁rob
ots
▁hope
▁fig
▁model
ization
▁possible
▁almost
ogra
▁planet
io
▁test
▁treat
▁simple
▁wonder
▁gr
▁bring
▁already
▁city
▁global
▁thous
man
▁sure
▁myself
▁top
▁New
▁loc
▁sit
▁case
▁unt
▁answer
▁Here
▁complete
▁langu
▁level
▁bre
▁happens
ivid
ash
outh
▁adv
▁ass
▁imm
▁Is
ters
▁mach
ute
▁rest
▁aff
itive
bers
ury
▁gl
▁history
▁No
aps
▁ris
where
bo
ages
▁watch
▁deep
ately
▁hear
osed
▁incre
▁Earth
▁heart
▁product
▁exact
ling
▁self
▁phot
▁words
▁inside
..
ideo
no
ier
▁once
ulation
▁lab
▁class
pr
ina
pect
▁black
ilt
▁certain
▁wrong
▁All
rem
▁whether
▁stories
side
▁says
▁stuff
▁dire
▁yet
▁age
▁Africa
▁particular
ee
▁problems
ape
undred
▁sw
▁result
▁Al
▁Or
▁fore
ront
Wh
▁amaz
ken
▁environment
ins
▁nothing
▁sec
▁music
▁exc
▁entire
▁iss
▁billion
▁200
cing
▁within
...
▁goes
▁par
▁cond
▁control
▁ideas
▁true
▁group
▁order
▁dev
▁face
▁months
▁hundred
▁pri
▁computer
▁wasn
▁imagine
lish
lud
ott
▁night
▁che
unch
ired
▁full
▁mar
▁individ
ider
▁until
▁friends
ined
▁six
omes
▁At
▁const
▁past
ograph
▁against
▁ret
▁parent
ivity
▁fund
▁became
▁cost
▁saying
uck
▁though
▁team
▁others
ional
ield
ely
▁must
▁isn
▁looked
▁pay
▁amazing
up
▁sex
ern
▁knew
get
acter
▁beautif
ior
to
▁vir
▁large
▁United
▁On
▁learned
ret
▁tool
▁government
etic
▁woman
▁picture
▁study
▁news
▁success
▁invest
ental
▁kill
▁object
▁everyone
cle
rop
▁law
▁figure
▁trad
▁heard
▁emp
▁z
▁walk
▁mil
line
▁mag
▁cancer
▁Thank
ogn
ision
ock
▁mater
▁incred
▁free
▁...
▁mor
▁language
▁100
ians
▁6
▁follow
▁state
atic
▁train
▁sometimes
▁works
▁cra
ex
▁name
▁collect
▁decided
▁prov
▁view
▁themselves
ware
▁jo
▁Why
▁questions
ush
▁15
▁meet
▁beautiful
▁OK
▁looks
iddle
▁support
▁30
▁net
br
iol
▁land
▁ourselves
▁exactly
vious
▁To
aking
▁diff
aster
▁instead
ared
ives
▁students
▁quick
▁company
▁focus
▁since
pportun
▁fil
▁discover
utes
▁society
▁protect
fort
▁built
▁opportun
▁relations
▁mass
▁ident
▁States
ients
icult
▁meas
▁Some
▁mic
▁education
elt
▁spend
▁vo
▁Do
wards
illions
▁learning
▁completely
▁dru
oss
▁es
▁species
▁word
▁mother
▁ca
▁supp
▁disease
▁along
▁house
▁9
ability
▁places
cc
▁av
▁abs
ones
▁guy
▁hold
▁experim
ules
▁front
▁indust
erv
ator
▁struct
▁pred
▁clear
▁taking
urs
▁colle
ological
orth
▁exist
bs
▁dig
ential
▁includ
▁difficult
▁huge
▁hours
▁emot
▁ones
omet
▁Every
ased
▁speak
versity
aper
gest
ption
▁engine
▁death
▁rad
fect
▁jour
▁mess
eah
▁America
ED
sy
▁line
▁appro
ats
▁50
▁fail
land
ither
▁everybody
▁close
ted
ane
▁dra
▁behav
▁thousands
▁expect
▁created
▁ant
▁gets
▁saf
▁universe
▁happening
▁relationship
▁pot
▁step
▁listen
▁complex
▁common
▁video
▁systems
ides
▁nature
▁felt
▁reach
▁itself
itting
▁couple
aring
▁viol
▁worked
▁super
ctor
▁needs
▁animals
dd
▁bro
▁piece
▁oce
▁miss
▁norm
ges
ination
ented
▁red
▁early
▁least
▁liter
▁access
▁basically
▁reality
▁companies
▁8
istic
▁program
▁Then
▁short
▁mot
ming
ature
itions
▁bab
▁record
▁market
app
▁cir
▁var
▁math
haps
▁humans
▁rather
face
▁somebody
▁ele
▁couldn
▁recent
▁parents
▁amount
▁typ
▁sens
▁surv
▁during
▁pract
▁turns
not
▁leg
▁began
ples
▁dream
▁impact
erm
ibly
▁easy
▁simp
▁blood
▁intern
nov
▁hy
work
▁deal
ames
▁'
▁lim
ster
▁micro
ially
▁neur
▁convers
▁Se
kay
ral
ully
▁Eur
▁coll
▁needed
itch
▁fre
▁yourself
▁kinds
▁fear
▁201
▁requ
▁perfect
▁Can
▁arch
▁game
▁impro
▁outside
▁famil
▁gave
▁takes
▁natural
ency
▁ve
▁known
▁American
osp
▁rev
▁Go
▁minutes
▁ge
▁stay
▁powerful
NA
▁CA
▁Pe
▁communic
▁York
▁near
▁aud
▁TED
▁ben
▁century
▁Our
▁culture
▁perform
ump
ison
▁enc
idence
▁white
els
ains
ilar
▁maj
▁Intern
▁longer
▁chem
▁mult
▁political
▁low
ove
▁Ar
▁won
cious
▁third
▁behind
▁strong
▁field
▁eyes
ged
▁break
olved
▁fight
▁changed
▁leave
▁Man
▁risk
▁cities
▁seeing
anger
▁personal
▁bir
▁caus
▁interact
ney
▁har
▁sent
▁given
uth
▁climate
rew
▁sym
▁extra
▁extrem
ution
▁realized
▁wind
▁event
▁press
▁Europe
▁taken
year
▁media
▁difference
oph
oms
▁local
▁machine
que
▁major
▁middle
▁simply
▁stre
▁population
cially
▁China
▁ill
▁experi
hood
astic
The
▁dr
▁moving
▁recogn
▁Sh
▁scientists
▁cut
attern
▁attention
▁turned
▁ability
▁finally
▁serv
▁bott
rent
sych
▁cannot
▁repres
inary
▁tot
▁oper
▁innov
▁hands
▁image
ering
leep
▁flo
▁fly
▁poor
▁occ
verage
▁travel
ror
▁pattern
▁bri
▁fall
▁respons
▁behavior
arr
ised
pped
fully
▁direct
ising
▁non
▁emb
▁grand
rodu
ively
pid
ellig
▁pick
▁Br
▁feeling
att
▁obs
▁tre
ibility
gen
▁tem
▁patients
ighb
▁God
▁week
vent
▁measure
acy
▁er
▁phone
▁father
▁approach
▁either
ther
▁dark
izing
▁area
▁color
iny
▁priv
▁situ
▁happy
▁Not
▁neighb
ledge
▁consider
ode
▁18
▁key
com
▁redu
ton
▁People
▁lost
ression
cks
avor
▁DNA
▁value
▁changes
▁perhaps
▁quickly
ook
▁ori
▁seven
▁send
▁India
loy
▁12
▁ess
ium
▁likely
▁based
▁parts
ators
▁With
▁robot
▁lots
▁spent
▁surpr
▁special
▁psych
▁Just
▁green
▁opportunity
▁dest
▁ocean
aught
▁born
ources
ax
▁medic
▁economic
▁arg
▁South
▁ground
▁physical
▁May
▁civ
eg
ards
ateg
ried
▁insp
▁numbers
▁prom
▁leaders
▁size
▁terms
oun
▁desc
▁Chr
▁Internet
▁Tw
▁sun
▁comb
▁guys
▁explain
ike
▁weeks
ified
▁tried
▁present
rought
▁Eng
▁beginning
port
▁girls
▁predict
▁win
▁path
▁feed
ills
ances
▁alone
▁fem
lec
▁obvious
ift
▁fac
▁similar
▁meaning
▁understanding
▁millions
▁challenge
▁ap
▁cal
▁truth
▁intellig
▁consum
lt
▁slow
▁profess
▁fast
▁opt
oh
ony
▁yes
▁rele
▁40
▁wall
▁eight
▁individual
▁conv
▁trust
▁democ
▁scale
▁vers
ored
▁affect
▁hundreds
par
itect
▁communities
ource
▁relig
ials
▁ple
▁sleep
▁write
▁medical
▁buy
▁cy
sc
ann
ales
▁circ
▁fish
▁hosp
▁pur
ler
ades
▁sil
▁shows
▁ur
▁current
▁polic
bon
aged
▁surface
▁bar
▁stru
Th
orld
bit
▁Fr
cl
▁eat
zy
▁growing
lu
▁seems
pecially
▁absolut
of
ouch
▁tools
▁paper
▁soon
▁wouldn
▁mov
▁molec
rand
▁opp
▁growth
▁Re
▁camp
▁sum
med
▁whatever
▁favor
▁aren
▁movement
ze
ging
▁anal
▁giving
▁images
▁spread
por
▁box
▁average
▁gone
ify
chie
▁dead
▁pull
▁knowledge
▁realize
▁compet
▁squ
▁voice
▁wrote
▁blue
▁architect
▁benef
▁brought
▁online
ration
usic
une
▁cool
▁deli
▁especially
ument
▁activ
▁sitting
▁die
asing
▁prin
ilities
▁telling
▁fundam
entially
ustain
▁By
amed
▁asking
▁literally
▁vol
▁structure
▁After
▁developed
What
ole
▁react
yond
▁est
▁ste
▁experiment
▁center
▁forward
sh
ires
▁stat
▁tiny
▁Right
▁origin
▁serious
oid
iant
ologies
▁la
▁hon
▁US
▁solve
▁material
▁anyone
▁chance
▁smart
▁soft
hor
▁draw
▁civil
▁industry
de
▁oil
▁areas
▁morning
▁bacter
You
ext
oes
▁depend
ule
▁creating
dden
▁breat
▁camer
▁instit
▁div
▁development
oy
ffer
▁post
▁attack
▁hor
▁lif
▁sudden
asc
▁25
▁deg
▁crit
▁interested
cient
light
▁sever
▁report
▁wonderful
▁Inst
▁achie
▁books
▁normal
▁economy
▁starting
▁violence
▁discovered
▁road
▁beyond
▁towards
itiz
yn
▁choice
ister
▁rece
eed
eng
odies
▁danger
▁issues
▁incredible
ug
ites
ggest
▁poll
▁prop
come
▁plant
▁carbon
▁modern
▁evolution
▁suggest
ai
▁worth
imin
itional
ung
▁African
▁changing
uals
ensive
▁fire
▁issue
▁sea
▁main
iod
▁fur
▁photograph
omen
▁lea
▁vac
urity
▁appl
like
ery
Music
let
▁Am
▁World
▁groups
▁sounds
ived
▁clos
iction
▁defin
▁proper
▁solution
▁potential
▁guess
▁several
oring
▁foot
▁concept
▁recently
Well
▁feet
▁becomes
▁evidence
▁text
▁theory
▁lay
▁tend
▁account
ressed
▁electric
ped
▁Sp
▁ball
▁digital
▁network
▁transform
▁conversation
▁First
▁gives
▁stage
▁produce
▁bottom
▁cars
room
▁earth
▁animal
▁generation
▁necess
▁ice
usion
▁type
▁save
▁situation
▁designed
▁arm
▁threat
▁including
▁nice
▁playing
arily
▁flow
▁solar
▁suffer
by
▁sell
▁period
enn
▁baby
isions
▁among
▁mathem
▁journey
▁Im
ffic
▁neg
▁offer
▁action
▁bigger
▁force
▁touch
▁choose
▁showed
▁sustain
▁technologies
for
onse
▁North
▁patient
▁Yeah
▁basic
▁skin
▁infect
▁running
▁resources
▁citiz
▁fr
▁dou
▁virus
apt
▁Tod
▁fu
racy
ishing
▁thank
▁return
chan
▁emerg
ma
▁cause
head
▁national
▁eye
▁rate
▁progress
ously
▁vill
▁function
▁aw
▁sn
ox
vert
▁shape
book
▁map
▁safe
▁subject
iet
▁Com
ulate
▁film
▁Maybe
▁lived
unately
▁search
▁strugg
▁improve
abor
ished
▁Even
▁jobs
ival
▁role
▁fair
▁ult
ctors
▁rules
antly
▁ast
▁dam
▁sat
▁syn
▁avail
▁miles
▁families
agn
▁higher
▁rights
▁continue
edi
▁Okay
▁dom
▁audience
▁clean
▁Today
▁response
pre
▁din
▁died
▁talked
▁Ph
▁De
ently
▁results
▁fill
▁bodies
lict
▁bed
▁hot
▁capt
▁cover
▁English
▁neighbor
▁cop
▁son
▁birth
uly
▁speed
▁accept
rage
▁fa
cuss
▁drugs
▁developing
▁reasons
▁healthy
▁writing
▁alg
▁represent
▁flu
▁incredibly
ero
▁forest
▁absolutely
▁conscious
erve
verty
ban
▁ce
▁memory
ners
▁cris
▁sold
▁schools
ene
▁drive
▁character
▁table
▁mechan
▁eventually
▁drug
onst
▁daughter
▁computers
▁rich
▁biggest
rast
▁mis
▁adm
▁detect
ued
▁princi
▁visual
▁available
▁adult
ude
▁capital
▁colleag
▁putting
▁chemical
oll
umb
▁fix
▁Goog
▁ready
▁favorite
▁revolution
▁intelligence
akes
▁push
▁tele
▁particip
ured
▁knows
▁vision
▁meth
▁starts
oon
view
ask
itten
▁poverty
▁strateg
pping
▁farm
▁cases
ground
ned
▁tar
▁except
▁involved
▁hit
▁multip
▁bacteria
▁decision
nal
▁further
▁led
▁street
▁haven
▁hospital
right
▁minds
▁bur
▁rock
▁assum
▁meant
▁separ
iar
▁Yes
▁device
cise
▁named
lear
▁mob
rible
▁goal
▁stra
▁60
▁Pro
▁influ
ray
▁apart
▁prison
▁complic
▁positive
▁worse
ims
olutions
▁perspect
▁everywhere
▁aware
▁employ
▁stress
▁pictures
▁moved
▁doctor
▁college
▁AI
▁Of
▁taught
▁scientific
▁police
▁message
▁decisions
ont
eter
▁prim
▁plants
▁security
▁boy
oming
▁Google
▁general
50
iding
▁finan
▁conditions
▁ine
▁Most
▁lose
▁da
▁imposs
soci
▁deb
▁door
▁check
▁connected
▁particularly
▁screen
▁respond
▁office
▁watching
▁Like
▁extraord
▁increase
aid
rate
sequ
▁labor
▁objects
amp
edom
▁mental
▁certainly
cape
▁nine
▁signific
▁199
▁Joh
▁wild
▁immedi
ley
ining
▁phil
▁prote
▁usually
▁fundamental
▁mist
▁crazy
▁detail
▁faster
▁specific
▁grew
idge
ought
▁quality
go
lex
▁luck
▁track
▁allowed
▁institut
▁standing
▁above
▁effic
▁humanity
▁loved
▁appear
▁totally
▁walking
rated
▁cross
▁offic
▁machines
▁treatment
▁innovation
ission
▁lower
▁mount
oud
▁concer
▁products
▁individuals
ik
imens
cr
orith
▁software
atory
iation
▁showing
the
▁Those
▁carry
ference
▁crisis
▁impossible
oke
▁code
▁onto
▁creative
▁examples
▁materials
▁conflict
▁sch
▁quant
▁reading
▁successful
xy
put
▁11
itary
phere
oot
emic
▁nuc
▁truly
izations
▁late
▁robots
▁provide
▁medicine
▁ec
▁coun
▁repl
▁spir
Oh
▁gas
lished
▁earli
▁training
ids
▁pan
enced
▁democracy
▁star
▁finding
▁algorith
▁supposed
agine
▁introdu
▁Le
▁Brit
▁decades
how
▁gal
▁brains
▁camera
▁female
▁contrib
bol
eth
aging
▁conc
▁determ
▁shared
▁student
▁race
▁movie
▁rain
▁games
▁context
▁older
▁disapp
▁bal
others
▁shown
▁tells
▁wants
▁skills
▁teachers
ows
▁fra
▁male
ruction
▁launch
▁Who
▁remind
rad
▁ign
▁virt
▁corre
▁nobody
▁studies
▁collabor
▁wife
▁notice
iversity
urt
▁trees
▁Christ
▁allows
▁pressure
▁purp
▁wish
▁reflect
▁recognize
▁magn
▁song
▁Where
▁waste
▁14
fact
▁desp
assion
▁effort
▁genetic
▁solutions
▁challenges
icle
▁dro
▁dangerous
▁increasing
▁kept
▁peace
▁manage
▁address
▁discuss
▁extremely
▁John
▁burn
▁term
▁tree
▁written
▁mathemat
eren
▁cat
▁block
▁helped
more
▁wait
▁refuge
▁secret
▁excited
▁massive
▁workers
rial
▁largest
▁War
▁vict
▁deliver
aur
▁Mars
▁univers
▁policy
▁diseases
▁practice
ered
▁activity
▁Somet
▁experiences
▁cry
ained
ended
imately
used
▁ang
▁jud
▁afford
▁doctors
▁citizens
▁Oh
oint
▁link
▁lands
▁stars
▁consequ
▁content
▁Cal
▁exciting
anks
▁sky
ounds
▁perspective
pan
▁hop
aries
▁Chin
▁arri
▁achieve
▁complicated
▁Americans
wor
ables
▁position
▁somewhere
zz
▁16
▁Imagine
ny
▁sequ
▁models
ologists
▁effects
amm
▁oppos
▁larger
▁method
▁unique
▁suddenly
▁thousand
ana
▁doc
▁Many
▁cold
▁print
▁respect
▁mir
▁stri
▁levels
cut
▁Ge
iced
▁heav
▁mine
▁pack
▁freedom
▁passion
inct
ping
▁Car
▁West
▁source
▁worry
▁author
▁80
cies
▁port
▁associ
▁Instead
uss
▁clin
though
▁genes
▁throughout
▁hair
▁weren
apan
▁ann
▁lines
▁types
▁Chinese
▁extraordinary
ips
▁pen
▁members
We
istan
atives
▁galax
▁engage
▁pieces
▁oxy
erman
itted
▁blind
▁neighborhood
▁fram
▁buildings
▁13
▁sal
▁Japan
▁patterns
fortunately
rum
▁fit
▁forms
▁sexual
▁anybody
▁emotional
ech
▁upon
▁distrib
▁obviously
sing
▁alive
▁anymore
lebr
▁nation
▁organization
▁career
▁gender
▁service
▁smaller
▁Are
▁card
▁nearly
▁teacher
▁Don
▁fine
▁trick
▁relationships
ring
▁diagn
▁ended
imb
▁temper
▁comfort
▁justice
▁prevent
ops
▁eth
▁log
val
▁prep
▁stick
▁celebr
▁governments
▁Bl
▁descri
▁projects
oles
sect
▁waiting
aced
isms
epend
▁becoming
▁critical
▁essentially
hold
rupt
▁swe
oking
order
▁Your
▁series
bb
▁autom
▁Mar
▁encou
▁occur
▁killed
▁willing
iety
time
▁hun
▁mal
▁fasc
▁match
▁destro
▁traditional
ios
▁honest
▁values
▁weight
▁himself
▁plastic
▁fant
estern
▁physics
▁enj
eless
▁strange
rams
▁feels
▁transl
▁electricity
▁points
▁remark
▁terror
▁bunch
▁store
men
▁loss
▁tiss
istics
▁apply
▁beauty
▁minute
▁wealth
▁However
▁listening
▁compassion
aling
▁whose
▁indeed
▁Cl
▁harm
▁lack
▁journal
▁dram
▁laws
▁graph
▁pu
▁sus
ologist
▁village
▁identity
ises
ball
▁drink
▁gradu
▁greatest
▁financial
▁institutions
mb
cul
▁Har
▁range
▁greater
▁straight
lled
▁exh
▁init
▁surve
▁beings
▁cust
▁income
▁region
▁services
▁colleagues
dom
▁TV
eral
wise
▁glass
▁famous
▁kil
▁cart
▁vacc
ey
term
▁fing
osphere
▁square
▁ancient
▁choices
▁earlier
aim
ama
▁Look
▁narr
▁rise
▁somehow
▁performance
▁urban
▁nut
▁town
▁email
▁enorm
▁biology
ube
▁effective
▁happiness
▁21
attle
ement
iring
▁philos
▁ep
▁spect
▁German
▁popular
▁expensive
▁sad
erson
▁rand
▁fuel
▁phen
▁meeting
▁connection
ceed
ashing
▁easier
▁describ
▁military
▁Any
▁costs
▁molecules
arm
ays
▁sick
▁ther
▁causes
▁mention
▁198
▁atm
▁ran
▁From
▁artist
▁random
▁survive
▁production
▁plat
▁trou
▁webs
▁catch
▁jump
atically
back
useum
▁zero
▁forget
▁directly
alk
acity
▁shap
▁nuclear
▁surround
aign
icians
▁avoid
▁politics
▁speaking
ran
▁optim
▁demand
▁target
▁familiar
ened
▁board
▁actual
▁spaces
▁purpose
elling
itation
▁Ad
▁dad
▁park
▁throw
▁painting
5,
▁af
▁clearly
▁terrible
▁international
airs
ches
rest
▁vul
▁Face
pro
olve
anced
▁final
▁decade
bes
uct
itude
covery
▁Which
▁decide
▁societ
▁private
▁version
▁University
aly
▁Ex
▁Over
▁techni
▁phenomen
eny
▁walked
▁particles
0,
▁Pr
▁Col
▁inj
▁broken
▁resist
▁direction
anc
rab
▁Act
▁Two
▁bra
▁understood
gth
omb
▁sam
itter
▁site
rength
▁motiv
▁belief
▁condition
orrow
ording
▁total
▁mostly
▁reduce
▁useful
▁driving
▁organizations
▁Mus
▁histor
▁immediately
aff
ening
works
▁repe
▁uses
met
▁East
▁base
inated
▁trade
▁matters
▁neurons
now
ufact
▁vast
▁architecture
itor
ifying
▁sorts
▁Another
▁instance
▁strength
▁interview
▁differently
▁rare
▁Think
▁platform
▁Pl
▁hous
▁worst
▁vulner
▁HI
▁rapid
▁slight
ancy
arian
▁broad
▁legal
▁select
▁transport
▁90
▁Ag
▁spirit
antic
iling
▁oxygen
rees
▁host
▁babies
▁easily
▁please
▁knowing
▁cultural
▁communicate
reg
prene
▁integ
reprene
▁campaign
▁biological
▁Sy
▁speech
empt
▁vot
▁agree
▁seconds
▁relative
▁magic
▁Facebook
uit
▁hus
▁Cent
▁brand
▁manufact
▁environmental
How
▁Sw
▁HIV
▁forth
▁shock
▁electr
▁highly
▁despite
band
▁Her
▁whe
▁City
▁boys
▁coff
▁paid
▁price
▁summer
▁following
iot
amic
▁cru
▁fat
▁doub
▁enjoy
▁closer
▁planets
af
▁Per
▁rid
▁hate
▁sand
▁laugh
▁answers
aining
▁custom
▁devices
udd
▁invent
▁floor
▁stopped
▁His
▁shot
▁expand
▁published
▁lad
rench
▁ahead
▁displ
▁habit
▁belong
▁helping
▁emotions
▁Aust
▁task
▁raise
▁responsibility
oty
cles
▁express
▁researchers
yle
▁dog
▁mix
▁veh
ondon
othes
▁streets
▁depression
▁mut
▁ends
▁hole
▁roll
▁mobile
▁myster
▁surger
ervation
▁sharing
▁multiple
▁opposite
▁entreprene
ils
▁crow
▁gene
▁page
▁states
▁noticed
▁original
▁standard
▁ir
▁mid
▁tax
▁tough
ception
▁London
▁altern
▁enormous
▁negative
▁religion
ipp
unk
▁hom
▁gold
▁gather
▁programs
▁ut
raid
▁held
▁explore
key
▁Dr
▁sou
▁wide
▁radio
inating
▁inspired
▁communication
▁opportunities
nds
▁heat
▁Western
▁brother
mp
ript
▁helps
▁forces
ulations
▁anywhere
icles
▁liber
▁scientist
▁surprising
athy
▁supply
▁invented
▁studying
tle
▁Bra
iving
▁bank
▁giant
▁afraid
ification
▁believed
▁significant
arter
based
▁yeah
▁switch
▁24
▁gun
▁terr
▁Chris
▁passed
▁creates
▁hearing
▁mission
▁Sc
▁reb
▁accom
▁smell
▁commer
▁profound
▁creativity
▁north
▁party
▁teaching
▁diversity
▁therefore
iles
▁joy
anging
▁moral
▁novel
▁flying
▁demonst
orry
atell
▁exer
▁trem
ructure
ees
▁cand
▁mouth
off
iger
iforn
▁spot
▁analy
▁applic
▁seemed
▁therap
▁correct
▁moments
▁traffic
▁various
▁engineering
▁Par
▁grav
▁coffee
▁contact
▁Californ
▁capacity
▁dyn
▁teen
▁birds
▁breath
▁leading
atures
▁below
▁frequ
▁artific
▁regular
anda
iers
load
ricult
▁societies
No
ulf
▁Ro
ille
▁reve
Why
▁beat
▁fully
▁adults
▁rout
▁importantly
ius
phone
▁okay
▁south
▁visit
▁saving
▁infrast
▁benefits
.,
▁web
itely
▁forg
▁mill
▁dance
▁aspect
▁insect
▁networks
▁California
▁experiments
hy
▁Will
▁shift
ography
▁events
▁CO
inal
▁possibly
mon
ears
vision
▁evolved
▁missing
▁produced
▁religious
▁unc
▁swim
▁weap
▁maint
▁satell
▁strategy
▁fantastic
▁remarkable
igr
cest
uing
▁none
▁emotion
▁although
gy
▁Tr
▁ens
▁sport
▁deeply
▁destroy
▁failure
▁focused
▁feelings
▁Isl
▁hyd
idden
uries
▁Russ
▁weak
▁partner
▁independ
▁background
2,
▁Ab
▁hero
▁join
▁mamm
▁twice
▁weird
▁president
ager
cked
ysis
▁500
▁sug
▁Afgh
▁tens
▁volun
▁safety
▁billions
▁Sometimes
▁conversations
fl
iber
▁Arab
▁cred
▁corner
▁played
▁symbol
▁efficient
▁atmosphere
edd
izes
▁ske
▁hall
▁dying
▁artists
▁attempt
▁require
▁partners
ores
▁website
vest
▁legs
▁adapt
▁faith
▁Second
▁extreme
▁philosoph
▁structures
▁responsible
▁consequences
▁i
aul
ica
▁accur
▁raised
▁fighting
uted
▁drop
itable
▁advant
▁ancest
▁attract
▁Ne
▁immune
▁counter
▁agricult
▁infrastructure
cra
▁196
▁egg
Video
▁gent
▁letter
▁degrees
▁signals
▁elements
▁suffering
ky
omy
▁bound
ae
hand
▁hyp
▁ver
▁invis
▁Afghan
▁dreams
▁eating
▁quantum
▁ultimately
▁Me
▁Su
▁tum
▁Once
▁homes
▁parad
▁rough
▁sustainable
▁mos
▁ord
▁rule
▁husband
▁tremend
lim
quit
resh
▁iron
▁shop
ashion
icon
oper
istry
▁wear
▁artificial
▁industrial
▁temperature
▁300
▁unf
▁seas
▁thri
▁sympt
mission
▁differences
▁necessarily
▁consciousness
0.
▁disc
▁daily
▁enter
▁tissue
▁Te
▁compon
▁central
▁bringing
rel
▁Dav
▁fol
iable
▁anti
▁basis
▁lucky
▁entirely
▁generations
▁En
ties
▁ing
▁tom
▁Each
▁indic
▁meters
8,
edic
ques
eness
▁Take
▁libr
▁scen
▁pleas
▁brings
▁slightly
▁cogn
▁tast
orders
▁antib
▁subst
▁walls
▁lights
▁possibility
▁due
cience
encing
▁trill
▁master
▁surgery
▁leadership
ulated
▁noise
▁farmers
▁influence
▁While
▁equal
▁prior
▁anyway
▁turning
▁describe
▁majority
▁constantly
It
roud
▁Great
▁embra
▁crimin
▁television
SA
oe
osy
set
▁tor
▁tun
▁core
▁begins
▁flight
▁sister
▁forever
▁definition
win
irt
nown
urch
▁isol
icking
▁French
▁active
▁astron
▁caused
▁investig
▁considered
reci
force
▁Cong
▁stuck
▁synth
▁physic
▁National
▁businesses
ait
mit
itness
▁photo
▁window
▁leaving
▁internet
▁necessary
urb
vant
▁ban
water
urally
▁cycle
▁corpor
▁1.
▁brill
▁waves
▁previous
wide
▁Fin
▁See
▁More
▁calls
▁damage
▁benefit
▁trouble
▁struggle
▁landscape
▁anx
ruption
▁empower
▁shouldn
aria
oman
▁ble
ellow
▁fort
▁faces
▁holding
▁collective
vere
▁funny
▁photos
gn
▁fle
osing
▁ship
▁climb
▁harder
▁capable
▁limited
▁everyday
▁requires
▁currently
▁engineers
▁imagination
rict
▁opin
▁proud
▁bridge
ns
zil
▁exe
ctions
osystem
▁voices
ibilities
1,
▁San
board
ength
▁gotten
▁identify
▁Res
celer
house
umber
▁disp
▁Brazil
▁inform
▁figured
▁associated
▁experienced
9,
▁Keny
▁gard
▁shoot
▁distance
▁received
▁failed
▁gentle
▁leader
ifically
▁note
▁claim
▁crime
▁10,000
▁bought
▁deeper
▁expert
▁filled
▁electron
▁investment
na
ume
▁amb
▁adop
▁wave
uments
▁phones
▁concent
▁accident
▁creatures
▁bag
▁river
▁genome
▁illness
▁Con
▁leads
▁commit
▁motion
▁ecosystem
▁Ob
here
▁Des
▁moon
▁mort
▁Their
▁desire
▁grandm
▁signal
▁British
▁European
▁mountain
▁spending
▁designers
oo
estic
▁agre
ending
▁colors
▁languages
bre
▁slowly
▁succeed
▁compared
▁otherwise
ushing
▁estab
▁fresh
▁limit
▁batter
▁museum
▁appreci
▁watched
▁invisible
yl
▁Ed
rogen
▁Geor
▁stem
▁steps
issions
▁letters
ij
gal
This
wood
▁rac
▁Asia
▁vote
▁wood
▁bright
▁leaves
cil
arks
gypt
▁epid
▁myth
▁grown
▁rates
▁forced
▁insight
▁wearing
▁professional
ests
▁1,000
▁Since
▁moves
▁risks
▁losing
rog
uman
▁doz
▁fold
▁dinner
▁Austral
▁Twitter
▁balance
▁married
▁construct
▁pollution
▁university
irm
▁Egypt
▁marri
▁stream
▁precise
RI
iff
exic
ingly
▁liqu
ruit
▁tit
ander
▁king
▁purs
▁caught
▁Sun
▁appe
▁arms
▁court
ometers
▁volunte
▁separate
ste
reet
▁Did
known
▁Gree
▁seed
idents
▁dimens
▁opened
▁acceler
ino
▁Gu
▁den
place
▁Char
▁bone
▁names
▁scene
▁degree
▁lesson
▁protein
▁refugees
▁survival
▁tremendous
ief
inist
▁frag
encies
▁refer
▁remote
▁foreign
▁typical
▁symptoms
▁Afghanistan
imp
raq
▁1,
cell
▁org
▁cook
▁coast
▁metap
▁childhood
osm
▁iP
bert
▁foss
acters
▁pregn
vention
▁double
▁studied
▁document
▁perfectly
ses
rete
▁pun
ublic
▁Kore
▁Mich
▁copy
▁ment
▁nerv
▁simpl
▁convin
▁algorithms
▁characters
▁phenomenon
bi
la
▁fal
▁lies
lement
▁Niger
▁categ
▁Middle
▁fashion
▁brilliant
alled
ratic
▁explor
▁prefer
▁argument
ada
▁et
enty
▁pet
▁wis
agers
inate
owers
▁curious
▁expected
▁narrative
lin
osis
▁gri
▁ten
apers
▁tons
ellect
▁Mexic
▁quiet
▁hidden
▁related
▁cognitive
▁Iraq
▁Paul
▁Actually
▁contract
▁exercise
▁trillion
▁increased
▁processes
mar
pes
uild
ulous
▁acad
▁grad
▁poet
▁remo
▁vide
▁folks
▁calling
▁privile
▁setting
▁worried
▁reaction
▁vulnerable
▁unfortunately
▁Gen
▁alt
▁bul
▁dinos
▁lifet
▁fellow
▁movies
▁muscle
▁unlike
▁managed
▁nervous
▁competition
▁era
▁exch
▁shel
▁David
▁cheap
▁keeping
▁gar
▁rot
▁King
▁soul
▁highest
▁trained
▁virtual
▁surprise
▁advantage
▁complexity
do
iors
▁puzz
parent
▁Indian
▁charge
▁factors
▁thoughts
▁intellect
▁Mo
lock
roph
▁Ste
▁fab
▁scan
▁stim
▁argue
▁calcul
▁discovery
6,
▁Mc
▁valu
▁colon
▁truck
▁cooper
▁invited
▁classroom
▁CE
▁bud
▁pig
▁dial
▁soil
▁facts
quality
▁actions
▁treated
▁described
▁mathematics
new
▁nan
▁rein
▁wheel
artment
comfort
▁option
▁markets
▁replace
▁according
▁connections
3,
gra
▁shr
▁jail
▁wire
ancing
▁inner
▁minim
▁round
▁circle
▁exists
▁conduct
▁El
▁Yet
essed
▁fell
ensity
▁desert
▁facing
▁existence
▁commercial
▁comfortable
4,
▁400
▁fed
▁mur
▁Does
▁blog
▁pros
angers
▁skill
▁illust
▁election
▁essential
care
craft
▁tour
▁abuse
▁serve
▁contain
son
edia
iver
▁bear
▁coal
▁layer
▁breast
▁reward
▁microsc
▁mothers
ashington
▁principle
my
iest
▁aid
▁nar
anted
▁airpl
▁infin
▁newsp
▁circum
▁encoun
▁restaur
▁addition
▁thr
▁Pres
▁shut
▁Again
▁atoms
udience
▁experts
▁conference
▁Fl
▁gap
asion
▁intu
▁magaz
▁sugar
▁closed
▁fields
▁witness
▁planning
▁electrical
▁und
akers
▁cosm
▁rural
▁stood
▁release
▁followed
▁sentence
▁Washington
ett
▁Mr
▁ali
throp
▁boat
▁cort
▁date
▁hurt
▁wake
▁motor
▁analysis
▁organisms
▁increasingly
▁hell
▁suic
▁chick
▁sorry
▁attach
▁battle
▁liquid
▁oceans
▁paying
▁remain
▁cultures
▁principles
unt
▁tow
lling
▁whom
▁paint
ressive
▁reject
▁continu
▁algorithm
▁seriously
▁universal
down
oses
▁Big
▁trip
▁videos
▁yellow
▁consist
▁courage
▁tradition
If
Hey
▁Dar
esome
itals
lying
▁empt
▁tall
iration
▁Germany
▁proteins
▁centuries
▁continent
DS
anes
rael
usive
▁recy
▁teles
▁unless
▁creation
▁messages
▁sequence
▁neighbors
▁kilometers
aled
odes
▁gay
▁shif
ildren
▁cloud
▁false
▁frust
▁goals
▁prost
▁slide
▁stock
▁traum
▁telesc
▁malaria
pet
acle
esth
▁App
▁Rem
▁Amaz
▁decl
▁horm
▁capture
▁include
ked
▁lie
rating
▁crowd
▁obser
▁solid
▁empathy
▁promise
▁radical
▁victims
▁launched
▁location
▁valuable
▁civilization
▁possibilities
▁Cam
▁cro
▁tox
▁bomb
▁brief
▁trial
▁Thanks
▁neuros
▁concerned
ugg
▁Rep
▁Val
▁que
▁poem
▁heavy
▁blocks
▁status
▁testing
▁marriage
▁wondering
cend
ocol
▁pair
▁options
▁rapidly
▁reprodu
▁engineer
▁emissions
mark
▁uns
▁ves
▁vib
▁lawy
▁plane
▁shoes
connect
▁galaxy
▁details
▁element
▁microbes
▁surprised
aker
▁ton
aters
olves
▁bare
▁bath
▁bird
▁Times
▁member
▁versus
▁equival
▁grandmother
ara
stein
▁chim
▁cure
▁tick
▁advice
▁debate
▁implic
▁interp
▁pounds
▁sector
▁compare
▁generate
▁mentioned
▁professor
▁activities
hes
▁flag
▁broke
▁regard
▁mosquit
▁finished
▁normally
▁encourage
▁fascinating
emy
▁NA
itute
▁edge
▁antibiot
▁statistics
▁Min
▁hack
▁Kenya
▁vessel
▁warming
▁required
ami
cket
otic
pper
▁inh
▁mel
▁sla
print
▁Park
▁Franc
▁click
▁prove
▁sight
▁signs
▁however
▁weapons
▁memories
bl
icy
▁agg
▁hur
▁pil
▁Bang
▁Iran
▁auth
▁band
▁pure
▁spoke
▁Israel
▁notion
▁shapes
▁wisdom
▁gravity
abilities
▁galaxies
inc
aked
▁Lat
▁gut
ipped
▁Good
▁hasn
▁Black
▁Would
▁heads
▁perce
▁variety
▁profession
▁techniques
▁saved
▁lifetime
▁importance
▁alternative
▁politicians
word
▁dry
▁etc
lands
▁fake
▁warm
ession
▁incent
▁picked
▁Francis
▁arrived
▁employees
▁interaction
▁entrepreneurs
ulpt
▁mer
▁hadn
▁eleph
▁fossil
▁causing
▁policies
▁definitely
ads
aving
iency
▁chain
▁ideal
▁inher
▁define
▁height
▁reached
▁soldiers
IT
▁lat
▁lunch
▁sides
▁dollar
▁former
▁diet
▁roof
pected
▁barri
▁chann
▁estim
▁flood
itarian
▁explan
▁sculpt
▁drawing
▁roughly
▁feedback
▁radiation
▁equivalent
xim
▁Em
That
cast
ogen
▁Mal
▁cow
▁pal
abled
ament
iosity
▁announ
▁escape
▁finish
▁accompl
▁regions
▁metaphor
▁President
▁situations
▁Ke
semb
tered
▁flat
▁zone
▁2,000
▁anger
▁shame
▁insects
▁opening
▁remains
▁advanced
▁designing
▁movements
▁meaningful
asks
▁150
ropri
▁Bill
friend
▁added
▁chose
▁coral
▁veget
▁Mexico
▁fourth
▁selling
▁property
▁released
▁challenging
▁intelligent
▁environments
▁specifically
DP
Yes
whel
▁Atl
▁Sim
▁Have
▁abst
▁hide
dimens
▁Other
▁equip
▁quote
▁organs
▁funding
▁ordinary
▁behaviors
▁construction
▁oh
▁spl
etics
▁pages
▁surge
▁fairly
▁island
▁dealing
▁receive
▁criminal
▁internal
▁ancestors
▁naturally
▁agriculture
ams
ria
ouds
▁tap
icing
▁Last
▁qual
olving
▁talks
ulating
▁existing
▁operating
▁worldwide
ym
▁Co
ford
ingu
▁Could
▁bread
▁grass
▁reform
▁article
▁falling
▁violent
▁producing
▁relatively
▁combination
zed
▁od
life
uses
▁Ant
owing
▁vent
▁Health
▁sources
▁overwhel
▁hopefully
▁potentially
resp
▁adj
▁phr
▁cast
▁flex
▁root
▁Three
▁manip
▁finger
▁killing
▁Australia
▁fundament
▁typically
▁nav
▁rub
▁Rich
▁seat
▁soph
▁angry
▁faced
▁assign
▁assist
▁sports
▁worlds
▁silence
▁resource
2.
▁II
ault
▁Dan
▁GDP
▁loud
▁meat
▁susp
osition
▁credit
▁attacks
▁encoura
▁younger
▁mistakes
▁effectively
▁manufacturing
omm
vard
▁wel
▁Women
▁empty
▁keeps
▁defined
▁factory
▁chemistry
▁Everything
aks
▁gain
▁thin
forest
stream
▁pitch
▁driver
▁replic
▁toward
▁organic
▁sending
▁weather
▁satellite
▁transformation
zing
▁Bar
▁exhib
▁holes
▁metal
▁users
▁recover
▁hospitals
▁confidence
ux
rian
▁bran
▁lens
▁thick
▁France
▁forgot
▁pulled
▁survey
▁thinks
▁covered
▁dynamic
▁prototy
dimensional
▁sees
▁spin
▁resil
▁tests
▁stupid
▁consumer
▁epidemic
▁pleasure
▁tomorrow
▁carefully
▁transition
rit
fish
gger
arant
neath
▁bits
▁seek
▁unit
▁fewer
▁stret
▁youth
▁Number
▁mistake
▁nations
▁circumst
▁concrete
▁features
▁instruct
cap
pir
▁rom
▁tumor
▁Before
▁desper
▁scenar
▁severe
▁cameras
▁depends
▁chemicals
▁convinced
edy
hol
▁Sm
▁san
ivers
▁bees
▁inev
▁shad
▁kitch
▁mouse
▁sites
▁autism
▁players
▁station
▁affected
▁constant
▁disappear
▁corruption
▁resistance
ago
▁auton
fficient
▁vehicle
▁organized
▁technical
▁management
Be
box
apse
irty
▁Mil
power
while
▁bias
inging
▁explo
▁globe
▁guide
▁honor
▁advert
▁breathe
▁visible
▁designer
▁domestic
▁entertain
▁equipment
▁collection
▁perception
me
▁ho
▁Phil
▁gift
▁concl
▁presc
▁satis
▁factor
▁mirror
▁player
▁fiction
▁library
▁represents
30
lom
uel
uff
▁Fe
aret
▁bill
▁unex
Americ
ipping
▁advoc
▁England
▁graduate
▁physically
▁zo
iate
▁Pat
being
oxide
▁ille
▁paral
▁staff
▁School
▁candid
▁garden
▁evolutionary
▁35
aust
onym
earch
▁Alex
▁Mart
▁incl
▁kick
▁beach
▁arrest
▁houses
▁thanks
▁cutting
▁engaged
▁theater
▁magazine
▁implement
▁underneath
▁independent
▁mathematical
add
pher
▁194
▁MIT
▁rat
stand
▁nurs
isters
making
ternal
▁toile
▁formed
▁murder
▁anxiety
▁muscles
▁vaccine
▁prepared
▁stronger
▁interpret
gent
lines
▁Very
▁outc
▁chair
▁grade
▁divide
ographic
▁intense
▁determine
ension
▁border
inations
▁Harvard
▁display
▁primary
▁clinical
▁exchange
▁spectrum
▁generally
▁traveling
▁Unfortunately
▁CEO
▁Pol
▁pray
▁chron
▁teams
▁conver
▁joined
▁symmet
▁awesome
▁disrupt
▁diverse
▁forests
▁privacy
▁Japanese
▁allowing
▁molecule
▁introduce
▁sophistic
▁fundamentally
hi
iat
abet
what
▁eld
▁lun
▁ride
▁scar
▁scary
▁perman
volution
▁centers
▁kitchen
▁lessons
▁outcome
▁Everybody
▁consumption
▁Nor
▁rhy
▁tag
▁Fort
▁tail
▁Paris
▁dedic
▁notes
▁renew
▁Amazon
▁budget
▁sample
▁clothes
▁fishing
▁herself
▁Congress
▁apparent
▁disorder
▁introduced
▁intellectual
▁psychological
orb
rig
aren
gets
▁Bas
▁las
isher
▁puts
▁reef
▁tack
porary
▁taste
instein
▁length
▁methods
▁records
▁viruses
▁whenever
▁economics
▁providing
▁uncertain
▁distribution
-1
rary
▁Sil
▁row
▁sem
cknow
point
lation
▁Green
▁compl
▁crash
▁horiz
▁schol
▁clouds
▁handle
▁script
▁Britain
▁Perhaps
▁amounts
▁conserv
▁continued
▁explained
ups
▁Je
cont
cred
prof
▁Dis
▁Four
▁decre
▁Darwin
▁advent
▁execut
▁secure
entional
▁100,000
▁trigger
▁overcome
▁processing
ov
uls
▁ax
cers
esis
roll
▁fro
▁reci
▁judge
▁topic
eration
▁elimin
▁recomm
▁review
▁refugee
▁therapy
▁expression
▁properties
▁technological
▁2.
▁cha
▁YouT
▁mere
▁sets
father
▁cards
▁doubt
▁insur
▁navig
▁framew
▁applied
▁equally
▁feature
▁Francisco
▁functions
bor
ris
▁45
▁Ber
▁Mon
iters
▁Swed
▁diss
▁eggs
▁resc
terday
▁chart
▁Street
▁acknow
▁button
▁compar
▁driven
▁burning
▁dioxide
▁opinion
▁protected
▁participate
cipl
▁wra
scale
▁sweet
▁George
▁Muslim
igration
▁YouTube
▁Einstein
▁curiosity
nic
mber
▁nor
▁scr
▁voc
organ
▁neut
▁march
▁plays
▁storm
▁church
▁rising
▁emerging
ael
ald
▁Tom
▁Also
▁arts
▁grid
ptions
▁Inter
▁maintain
▁recorded
▁awareness
▁protection
can
ogue
▁lock
▁unus
athers
▁films
▁scared
▁largely
▁quarter
▁absolute
▁rational
▁experiencing
▁Red
▁ath
▁Part
▁hung
▁prec
arrass
▁discr
▁contem
▁season
onscious
▁classes
▁contrast
▁infected
▁innovative
bel
lly
aurs
▁arr
lease
▁busy
▁evil
▁goods
▁reven
▁deaths
▁ingred
▁remove
▁winter
▁combined
▁equality
▁outcomes
▁privilege
▁uncomfort
▁inequality
▁applications
.'
▁Ap
icip
irds
▁acqu
▁runs
▁vari
▁Canada
▁buying
▁enable
▁immigr
▁narrow
▁Finally
▁convince
▁dramatic
▁collected
▁foundation
▁surrounded
▁Only
▁hang
▁milk
▁user
▁boxes
▁logic
▁smile
ogether
▁increases
GO
den
mas
▁Eth
▁Tur
acing
rooms
▁2000
▁NASA
▁coord
▁sensors
▁committed
▁embarrass
▁mountains
▁components
aj
bur
sec
▁Bro
▁Jew
gment
▁army
▁fert
▁poly
▁hyper
▁evolve
▁closely
▁pushing
▁suicide
▁unknown
▁abstract
▁disaster
▁infection
▁interests
▁restaurant
Don
igen
uary
▁Gal
▁sen
▁ants
▁atom
▁elev
▁alien
▁rooms
▁tasks
▁teeth
▁trend
inction
▁medium
▁writer
▁extract
▁relevant
▁molecular
▁statement
tes
edge
ifth
iled
rors
umps
▁Pal
▁Ange
▁surf
▁admit
▁weigh
▁assume
▁owners
▁carrying
▁breathing
▁emergency
▁sensitive
▁populations
▁collaboration
▁uncomfortable
ato
olph
cohol
▁impl
▁nose
▁James
▁clever
▁ensure
▁placed
▁proced
▁guarant
▁mystery
▁stretch
▁appropri
▁contains
▁productive
▁struggling
▁underwater
▁inspiration
Do
olf
▁twe
▁Life
▁orch
▁plus
▁rely
▁awful
▁label
▁liked
▁memor
▁negot
▁stable
aneously
▁musical
▁Research
▁framework
▁mortality
▁practices
▁discussion
▁healthcare
20
ha
heim
▁odd
rument
▁Frank
▁aging
▁drives
▁explos
▁affects
▁battery
▁provided
▁wondered
▁economies
▁dimensions
▁sophisticated
hips
▁Dep
bally
erves
osure
▁AIDS
▁dots
▁item
▁pill
▁rhyth
▁score
▁During
▁aspects
▁offered
▁painful
▁unusual
▁Remember
▁hydrogen
▁meetings
▁philosophy
▁circumstances
uk
vas
▁23
opes
▁Web
using
▁gall
▁dress
▁occup
▁stone
▁toxic
▁agreed
▁borders
▁housing
▁overall
▁customers
▁dinosaurs
▁technique
▁instrument
▁dramatically
gl
itan
▁Pri
icted
▁diam
▁dust
▁lady
▁obst
▁vert
asters
▁Latin
▁bones
▁maxim
▁views
▁Center
▁barely
▁hoping
▁trials
▁cartoon
▁chimpan
▁dropped
▁embrace
▁airplane
▁hypothes
▁constrain
▁passionate
▁productivity
uh
rat
berg
ctic
▁rit
acles
orest
▁cash
▁desk
▁snow
▁ridic
▁roads
▁acting
▁Nigeria
▁carried
▁efforts
▁illegal
▁install
▁marketing
▁mechanism
▁destruction
▁transportation
1.
alu
bble
oded
olds
▁Sat
▁Tal
vable
▁suit
mented
▁cortex
▁devast
▁solved
▁Richard
▁repeated
▁synthetic
▁democratic
In
rol
▁99
abol
▁del
▁gam
▁Bank
▁acts
▁cere
▁prem
lessly
▁clock
▁males
▁Valley
chnology
▁citizen
▁organism
▁pregnant
▁invention
▁strangers
▁appreciate
▁conservation
rich
entic
▁biom
▁cave
▁chap
▁dign
▁pool
▁brown
▁fruit
▁minor
respond
▁boring
▁ignore
▁rocket
▁stayed
▁worker
▁alcohol
▁Anderson
▁measured
▁transfer
▁destroyed
5.
ka
▁Rob
icago
inter
▁Cons
▁promot
▁puzzle
▁advance
▁brothers
▁confront
▁suggests
▁confident
▁household
St
ih
eal
igm
▁Ac
olly
over
▁Art
▁dogs
▁gang
▁brave
▁coach
▁fuels
▁grain
▁orbit
▁vital
▁linked
▁settle
▁surviv
▁tested
▁combine
▁evening
▁exposed
▁accurate
▁engaging
▁computing
▁personally
▁distributed
60
cal
ita
▁Dem
allow
orous
▁lect
▁Islam
▁grows
▁steel
▁tight
iveness
▁Chicago
▁instrum
▁solving
▁distinct
▁printing
▁reported
▁swimming
▁standards
▁literature
spe
▁Glo
▁bes
orter
uting
▁lapt
▁tech
▁fears
illance
rations
▁deploy
▁silent
▁struck
▁volume
▁existed
▁occurred
▁presence
▁interface
▁newspaper
▁correspond
▁recognized
▁interactions
vis
▁Ben
▁lic
▁dict
▁maps
▁ring
▁About
▁cyber
▁lungs
▁plate
▁tired
▁behave
▁fabric
▁senses
▁storyt
▁practical
▁controlled
▁efficiency
▁mathematic
▁photographs
My
ums
▁aim
▁bow
▁rig
▁sco
▁van
iders
itors
night
▁wars
▁persu
▁shell
▁recept
▁spring
▁stands
▁crucial
▁breaking
▁reaching
▁presented
▁yesterday
▁exploration
car
free
▁iPh
▁mak
▁depth
▁fixed
▁input
▁harvest
▁singing
imination
▁authority
▁colleague
▁explanation
500
mun
▁hits
▁mile
▁Korea
▁frank
▁songs
▁stack
▁marine
▁figures
▁infinite
ls
oked
▁mad
apping
▁champ
▁curve
▁frame
▁plans
▁units
▁Russia
▁bottle
▁inject
▁comment
▁academic
▁particle
▁precisely
▁spiritual
▁unexpected
▁ju
foot
▁club
▁diag
▁delic
▁polar
▁impacts
▁slavery
▁Everyone
▁sunlight
▁vehicles
▁gentlemen
east
erge
iday
▁birthday
▁isolated
▁Christian
▁celebrate
▁continues
▁percentage
▁psychology
ata
oons
▁Next
▁cord
▁Apple
▁multi
▁sheet
▁Nobody
▁adjust
▁hearts
▁lifest
▁margin
▁appears
▁vessels
▁traveled
▁Institute
▁historical
▁treatments
▁transformed
8.
anta
▁dism
▁firm
▁loop
▁crack
▁datab
▁error
▁fluid
▁lying
▁pharm
▁stere
akistan
▁neural
▁whales
▁Charles
▁chicken
▁removed
▁vaccines
▁accessible
▁surveillance
PS
aci
ari
min
och
▁ru
aint
iano
mers
▁Mont
▁Moon
igaret
▁dolph
▁stops
▁analog
▁genius
▁pushed
▁beliefs
▁electro
▁feeding
▁millenn
▁Audience
▁imagined
▁villages
▁wherever
▁depending
▁diagnosed
▁operation
▁contribute
▁greenhouse
▁personality
arp
dri
raw
▁BG
▁pin
▁pul
▁rul
▁Mary
▁blow
▁boss
▁lung
▁laser
▁recyc
▁fright
▁limits
▁repair
▁signed
▁victim
American
▁prosper
▁somewhat
▁conclusion
gon
nel
abil
▁Cor
▁Lad
▁Med
andon
opher
▁anat
rition
▁wound
raction
▁phrase
▁Michael
▁Through
▁distant
▁neither
▁Republic
▁equation
▁horrible
▁grandfather
Is
ala
gly
vey
▁22
▁PM
icks
▁unp
▁fulf
▁sacr
heimer
▁style
ishment
▁absorb
▁clinic
▁critic
▁crying
▁defend
▁poetry
▁repeat
▁conclud
▁operate
▁parking
▁Pakistan
▁captured
▁drinking
▁provides
▁authentic
▁identical
▁participants
osh
etch
uous
▁mat
rates
unate
▁Gold
▁acid
▁excl
▁joke
othing
▁House
▁Human
▁colum
▁initi
▁nutri
▁racism
▁traged
▁fingers
▁darkness
▁instinct
▁Something
▁consumers
▁generated
▁recording
▁spreading
▁determined
▁laboratory
▁hem
under
▁Five
▁State
▁knock
▁upper
▁walks
▁trauma
▁Project
▁achieved
▁institution
▁expectations
80
▁x
han
aded
kind
▁Los
▁dip
angle
▁Bost
▁Thom
▁debt
▁stro
▁3,000
▁Obama
▁dense
▁domin
▁flies
▁hunger
▁scream
▁decline
▁discipl
▁passing
▁wanting
▁director
▁includes
▁reducing
ologically
▁antibiotics
▁educational
▁neighborhoods
OK
adic
gged
▁Air
▁Pac
▁sne
▁Sept
▁leap
phones
profit
▁Space
▁blank
▁bubble
▁filter
▁cheaper
▁chronic
▁frankly
▁fulfill
▁accepted
▁external
▁magnetic
▁objective
▁terrorism
alt
bola
▁Alz
▁Mark
▁bicy
▁calc
▁pand
▁cents
itution
▁extend
▁papers
▁finance
▁mammals
▁metabol
▁football
▁occasion
▁Alzheimer
▁encounter
▁recognition
AR
aws
oice
oken
▁600
▁Tex
ested
▁clus
▁wash
icious
▁aside
▁chest
▁evalu
▁falls
▁rocks
related
▁assemb
▁missed
▁plenty
etically
▁robotic
▁globally
▁properly
▁subjects
▁depressed
▁additional
PR
emp
nam
ula
ooth
opia
▁Cur
▁Spe
▁pip
arity
▁Step
▁bind
▁cous
▁odds
▁ours
▁peak
▁cryst
▁title
▁legacy
▁transp
▁astronom
▁obsessed
▁official
▁stranger
▁commitment
▁connecting
6.
wr
▁'9
born
ener
rets
▁Acc
▁Sam
▁god
▁Talk
▁ears
▁pace
ateful
▁disag
▁holds
▁split
section
▁observ
▁magical
▁paradox
▁paralle
▁threats
▁visited
▁permanent
▁instructions
sp
che
ixt
lete
rant
▁Jim
itory
sters
▁Span
▁clip
▁dish
called
▁accum
▁outer
▁prime
▁fisher
▁latest
▁rarely
▁studio
▁reverse
cientists
connected
▁returned
▁elections
▁searching
▁engagement
▁strategies
▁represented
▁conventional
za
ham
van
elly
engu
▁fan
eters
▁High
▁ages
▁earn
▁plot
▁craft
▁dozen
▁recon
▁roots
▁toler
forward
▁Boston
▁extent
▁layers
▁pocket
▁reveal
▁sacred
▁string
▁afterno
▁flowers
▁samples
▁focusing
▁password
▁theories
▁exploring
▁application
▁appropriate
sem
▁Haw
▁Mic
▁enh
level
lings
▁mood
▁pump
▁zoom
arency
▁Ebola
▁Willi
▁flash
▁imper
▁invite
▁deserve
▁inspire
▁raising
▁rebuild
▁welcome
▁concepts
▁produces
▁romantic
▁apartment
▁immediate
▁International
▁Po
arsh
lymp
▁Jer
▁Wik
▁fib
▁orb
eding
gging
▁hook
▁Steve
▁blame
▁chrom
▁doors
▁horse
▁pilot
▁skept
▁iPhone
▁outbre
▁powers
▁sharks
▁Central
▁anticip
▁reconst
▁tonight
▁Africans
▁floating
▁lifestyle
▁microscope
▁permission
▁protecting
▁conservative
▁entrepreneur
▁implications
yal
case
uits
▁Come
▁rush
▁Olymp
▁Texas
▁ignor
▁seeds
onymous
▁ethnic
▁profit
▁concern
▁consult
▁dignity
▁scratch
▁confused
▁scenario
▁ultimate
▁backwards
▁corporate
▁telescope
▁instruments
▁automatically
des
hen
osc
bage
lets
ship
ught
well
▁Jan
eline
mates
secut
▁Back
▁June
▁bull
▁heal
▁wine
▁Count
▁Greek
▁adopt
▁digit
▁joint
▁served
▁classic
▁cooking
▁divided
▁drivers
▁routine
▁sisters
▁hardware
▁involves
▁component
▁boundaries
▁journalist
Let
zen
Yeah
rows
▁bom
▁dot
▁gig
▁ped
iform
think
▁Hait
▁Rome
▁Stud
▁defe
▁emph
▁flip
▁ugly
▁crops
▁drawn
▁glaci
▁liver
▁phase
▁sales
through
▁Global
▁abandon
▁transpl
▁creature
▁September
▁insurance
▁industries
▁resolution
asm
aud
rey
ague
▁Day
▁cub
▁hol
bling
going
iance
▁Turn
▁yours
▁Anyway
▁Martin
▁Robert
▁adding
▁chocol
▁hungry
▁shaped
▁toilet
ographer
▁Without
▁officer
▁accounts
▁dialogue
▁scholars
▁survived
▁dedicated
▁selection
▁Revolution
▁affordable
▁identified
▁assumptions
▁entertainment
mm
Look
atto
▁Bel
▁Int
▁Lou
▁bubb
▁cats
▁silk
▁burst
▁elder
▁smoke
▁dozens
▁embedd
▁fought
▁waters
▁disturb
▁nowhere
▁reports
▁winning
▁download
▁grateful
▁illusion
▁establish
▁positions
▁recommend
4.
gun
sey
ason
keys
lims
osen
▁Sch
agger
isted
▁Stan
▁bene
▁gest
▁icon
▁mice
▁prev
▁aster
▁aston
▁fifth
▁proof
▁Thomas
▁nearby
▁Pacific
▁autonom
▁density
▁attached
▁district
▁included
▁speakers
▁afternoon
▁apparently
▁controvers
▁medication
▁uncertainty
9.
urd
cean
▁Get
archy
erved
isons
▁1950
▁Mean
▁flew
▁neck
▁Antar
▁Found
▁abund
▁expon
century
▁geomet
▁patent
▁Spanish
▁chromos
▁helpful
▁initial
▁mindset
▁publish
▁collecting
▁performing
rill
▁10,
▁Che
▁Sen
▁raw
ading
▁Port
▁cute
▁lets
makers
▁Grand
▁Under
▁foods
▁pengu
▁dancing
▁failing
▁granted
▁letting
▁educated
▁delivered
▁investing
▁capitalism
▁directions
Ch
itz
nda
opy
▁Lib
▁cup
▁toy
elled
▁Both
▁Girl
▁alph
▁incar
▁suppl
▁tears
▁arrive
▁athlet
▁hardly
▁orange
▁relate
▁careful
▁habitat
▁arguments
▁daughters
▁measuring
▁architects
▁consequence
▁sustainability
omp
ello
▁Aug
▁Law
▁Mad
▁Nob
▁Oct
▁ate
0,000
pring
▁tort
▁safer
▁theme
▁wings
igenous
▁colony
▁expans
▁perpet
▁satisf
▁Angeles
▁exhaust
▁parties
▁reduced
▁Although
▁concerns
▁homeless
▁parallel
▁paintings
IS
ora
top
▁Gh
▁py
apor
ares
city
part
tail
udes
▁Gra
▁spr
▁bask
▁bike
▁grab
▁gray
▁subs
abetes
▁guard
▁mixed
▁whist
▁Things
▁borrow
▁heroes
▁ladies
▁enforce
▁section
▁disorders
▁inspiring
▁translate
▁interacting
But
gic
▁2,
hour
illy
rous
▁195
▁meg
▁furn
▁gras
▁meal
▁tube
acular
▁Nobel
▁drove
▁flower
▁poison
▁retire
▁simult
▁Muslims
▁entered
▁extinct
▁imaging
▁poorest
▁tragedy
▁hormones
▁shopping
▁sleeping
▁tracking
▁treating
▁Christmas
▁investors
▁responses
▁disappoint
▁integrated
▁supporting
▁universities
▁discrimination
3.
oma
▁Bab
▁Emp
▁aug
aming
anged
eared
igned
▁asks
▁brut
▁rice
▁dirty
▁enemy
▁route
▁shark
▁tatto
▁usual
anthrop
▁curren
▁injury
▁airport
▁channel
▁circles
▁earthqu
▁Atlantic
▁embedded
▁footprint
▁intention
▁remaining
▁satellites
▁threatened
▁underlying
▁underground
eds
ione
▁Miss
▁bold
▁crew
▁sink
▁Woman
▁finds
▁likes
▁nerve
▁purch
▁skull
▁tries
▁portra
▁prices
▁rhythm
▁sphere
▁thrown
▁transm
▁Science
▁Whether
▁chances
▁concert
▁federal
▁proport
▁administ
▁asteroid
▁collapse
▁estimate
▁organize
▁documents
▁department
▁mechanical
▁mysterious
▁overwhelming
▁transparency
asy
ola
ros
▁Pan
▁gro
▁rent
▁sett
▁chaos
▁dynam
▁farmer
▁nurses
▁stores
▁clients
▁command
▁defense
▁pulling
▁smarter
▁writers
▁appeared
▁southern
▁vertical
▁chocolate
▁teenagers
▁characteristics
ta
Che
ota
vin
rome
▁Fre
▁GPS
▁sed
▁Jack
▁glad
▁limb
▁stun
▁5,000
▁Union
▁conce
▁intim
▁legis
▁whale
▁Museum
▁Within
▁chosen
▁locked
▁racial
▁shrink
▁voting
ollywood
▁suppose
▁whereas
▁choosing
▁restrict
▁activists
▁supported
▁regardless
▁advertising
▁significantly
▁Gl
▁Op
▁UN
doll
▁NGO
▁bee
oding
▁1980
▁Wall
▁adap
▁chip
▁Wikip
▁opens
▁emerge
▁emphas
▁oldest
▁talent
▁thrive
▁collaps
▁opposed
▁painted
▁diabetes
▁distract
▁paradigm
▁suffered
▁established
war
fall
fast
ilty
uana
▁Sec
▁Tra
▁Was
▁mim
iment
reens
▁stom
imeter
▁Micro
▁Trump
▁manif
▁piano
▁agency
▁loving
▁shadow
▁cigaret
▁consume
▁elected
▁liberal
▁miracle
▁distingu
▁elephant
▁invested
▁announced
▁intuitive
▁fascinated
▁journalists
▁representation
equ
▁obl
▁sib
▁tea
▁Ever
employ
▁Being
▁Carol
▁apple
▁numer
▁spots
▁Indeed
▁buried
▁facial
▁injust
▁mainly
▁output
▁smooth
▁analyze
▁circuit
▁designs
▁monitor
▁monkeys
▁prepare
▁surgeon
▁listened
▁reminded
▁Wikipedia
▁diagnosis
▁frequency
▁reference
▁infections
▁optimistic
▁volunteers
▁ingredients
▁collectively
▁neuroscience
agon
osal
urse
▁Hen
▁wid
iated
nding
oster
worth
▁Tell
▁infl
▁humor
▁sharp
▁yield
unction
▁conven
▁balloon
▁deliber
▁orchest
▁picking
▁protest
▁pandemic
▁replaced
▁prisoners
▁reactions
▁indigenous
▁ridiculous
▁probability
▁presentation
gu
iac
▁Ty
▁UK
appy
▁pra
alian
class
▁gods
rowing
▁Mount
▁White
▁banks
▁fiber
▁ought
▁relax
▁weeke
▁August
▁Sweden
▁Russian
▁females
▁forming
▁happier
▁observe
▁pointed
▁savings
▁suspect
▁Basically
▁highlight
▁mechanics
▁nutrients
▁seemingly
▁mechanisms
▁professionals
ida
nes
ras
▁Ug
▁Up
▁pa
▁Net
▁nit
▁reh
itate
kward
▁cong
▁porn
▁quit
▁tape
utical
▁Haiti
▁monit
▁physi
▁reson
▁veter
▁Please
▁agenda
▁attend
▁diplom
▁laptop
▁needle
▁January
▁sensory
▁smoking
▁tissues
▁agencies
▁bathroom
▁psychiat
▁stations
▁wireless
▁forgotten
▁primarily
▁virtually
▁controlling
▁improvement
.)
tery
ynth
▁lon
▁sle
▁boom
▁fool
▁hire
▁migr
▁vacu
astern
licity
▁Democ
▁incor
▁marry
▁uncle
astroph
▁Arctic
▁attrib
▁lawyer
▁scales
▁stimul
children
▁beneath
▁ethical
aceutical
▁stereoty
▁disability
▁functional
▁interactive
▁successfully
▁Bo
oret
▁Ham
▁hat
leton
▁Adam
▁Arch
▁enth
▁mold
▁soap
dollar
▁hotel
▁prize
uration
▁actors
▁bother
▁ending
▁formal
▁native
▁widely
▁contrad
▁essence
▁fastest
▁manager
▁promote
▁trapped
▁clothing
▁database
▁delivery
▁exposure
▁flexible
▁honestly
▁strongly
▁textbook
▁alongside
▁predicted
▁economists
▁resilience
▁smartphone
▁disappeared
▁discoveries
▁predictions
▁transparent
iel
▁Rw
oted
tech
▁Lab
▁Ten
▁Wal
▁Way
▁tip
attan
▁lone
▁tent
arters
▁March
▁Organ
▁flour
▁pyram
▁unpre
▁Arabic
▁basket
▁breaks
▁caring
▁combat
▁monkey
▁occurs
▁racist
▁spider
▁spinal
▁tackle
▁Silicon
▁awkward
▁barrier
▁lawyers
▁speaker
▁arrested
▁figuring
▁fraction
▁reliable
▁motivated
▁prototype
▁behavioral
▁capability
▁catastroph
▁consistent
▁governance
▁inevitable
▁communications
DA
usi
▁Sl
keep
▁Bob
There
ching
▁cock
▁guns
▁horr
▁peer
▁pink
▁Prize
▁pione
▁shall
▁sperm
▁upset
▁utter
▁deadly
▁eradic
▁excell
▁frozen
▁safely
▁senior
▁surely
▁emerged
▁serving
▁electronic
▁cooperation
ek
RIS
▁id
acco
ding
opic
pled
▁Jes
▁Ven
▁bat
▁der
▁unh
ashed
belie
esity
▁Manh
▁Sing
▁boun
▁whis
▁Ocean
▁armed
▁civic
▁farms
▁fertil
▁neuron
▁propag
▁arrange
▁compete
▁stomach
▁improved
▁proposed
▁Manhattan
▁elsewhere
▁officials
▁corporations
bed
era
▁Vir
▁via
▁wip
amine
ffect
state
▁Star
▁alle
▁cham
▁glam
▁laid
▁vary
▁Scott
▁Third
▁chief
▁funds
▁gases
▁patch
▁shout
▁viral
▁guilty
▁robust
▁amongst
▁hanging
▁harness
▁obesity
▁percept
▁regener
▁category
▁incarcer
▁precious
▁recovery
▁unemploy
▁exception
▁workplace
▁accomplish
▁ecosystems
▁frequently
▁researcher
▁photography
▁breakthrough
kin
▁Ah
amin
fold
olar
onic
▁Hel
▁bon
ctive
human
▁Desp
▁tear
iences
vation
▁balls
▁begun
▁grief
▁nurse
▁spark
otherap
▁assess
▁killer
▁subtle
▁trends
▁adopted
▁descend
▁immense
▁shelter
▁Stanford
▁lighting
▁estimated
▁suggested
▁Foundation
▁hypothesis
ye
mod
rus
▁Di
▁Hi
▁aer
▁gor
▁ink
anned
asses
cript
sized
▁dive
▁trop
source
▁aspir
▁flows
▁honey
▁ultra
▁Uganda
▁burden
▁hiding
▁merely
▁rescue
▁spoken
▁Nothing
▁damaged
▁hardest
▁license
▁Children
▁navigate
▁astronaut
▁expanding
▁reduction
▁separated
▁competitive
▁philanthrop
▁spectacular
bra
tra
▁Bu
agen
anny
aves
lers
▁Bur
▁Jul
▁Mod
▁Unt
▁sav
flies
▁corn
▁tank
gender
▁River
▁fract
▁nucle
▁polio
▁roles
liament
▁Should
▁infant
▁lovely
▁stages
▁vacuum
▁founded
▁instant
▁controls
▁gathered
▁measures
▁preserve
▁abilities
▁bacterial
▁Department
▁categories
▁terrifying
Who
play
▁191
▁Hom
▁lux
▁ven
ckets
ifice
rones
▁Sure
▁ampl
▁bell
▁calm
▁nest
▁sits
▁Asian
▁Syria
▁overl
▁trash
▁butter
▁intrig
▁unable
▁convert
▁farming
▁fragile
▁staying
▁warning
▁answered
▁opinions
▁versions
▁Hollywood
▁locations
▁afterwards
▁incentives
▁simultaneously
So
ali
▁gh
uity
umes
umin
zees
▁Ros
▁Sur
▁hip
field
icial
orage
▁brid
▁knee
▁pour
▁salt
nocent
▁Italy
▁Peter
▁femin
▁legit
▁loves
▁naked
▁queen
▁valid
▁partly
▁Despite
▁targets
▁Southern
▁laughing
▁According
▁explosion
▁gradually
▁performed
▁relatives
▁religions
▁terrorist
▁immigrants
▁demonstrate
▁surprisingly
esh
agos
enly
uine
▁lin
▁ric
▁unw
apped
cence
ester
inity
izoph
▁Bron
▁lift
▁tong
urable
▁Roman
▁angle
▁elite
▁exped
▁pairs
▁shake
▁ships
▁tempt
▁tooth
▁dating
▁landed
▁panels
▁rivers
▁strand
▁weapon
▁charity
▁delight
▁enthusi
▁glasses
▁periods
▁windows
▁barriers
▁comments
▁northern
▁conflicts
▁dependent
▁physician
▁challenged
▁operations
neys
real
ston
▁Bon
▁cla
▁tro
Where
front
iture
otion
▁Jeff
▁Love
▁Pole
▁bars
▁cert
▁file
▁hill
▁pile
▁rail
▁tied
▁wise
itudes
▁Smith
▁hopes
parents
▁Jewish
▁burned
▁decent
▁volcan
▁anthrop
▁currency
▁decrease
▁extended
▁remained
▁socially
▁Meanwhile
▁expertise
▁survivors
▁autonomous
▁originally
▁agricultural
▁pharmaceutical
amb
cel
hop
▁Hy
▁LG
etro
ober
ulum
▁Its
▁Ter
▁aqu
ensus
▁beer
▁east
▁epis
▁hier
▁irre
income
▁bombs
▁panel
▁punch
▁tower
itement
ounding
▁Really
▁golden
▁halluc
▁intent
▁pursue
▁regret
▁Nations
▁bubbles
▁diction
▁harmful
▁horizon
▁involve
▁prescri
▁storage
▁activist
▁insights
▁offering
▁perceive
▁unlikely
▁addiction
▁breakfast
▁healthier
▁ignorance
▁improving
▁initially
▁physicist
▁suggesting
▁transplant
▁acknowledge
fe
gi
awn
ige
lyn
rid
airo
oral
▁Lar
▁cab
stage
▁1960
▁2050
▁Ethi
▁axis
▁bags
▁dies
▁enzy
▁exec
iously
ndrome
▁paras
▁reefs
▁therm
ustrial
▁compos
▁digest
▁tricks
izophren
▁October
▁bicycle
▁printed
▁profile
▁seeking
▁symbols
▁touched
▁artistic
▁innocent
▁shooting
▁smallest
▁symmetry
▁expansion
▁ownership
▁predators
▁sculpture
▁frustrated
▁rainforest
BI
anz
aze
azz
ena
▁26
▁65
arre
away
iece
ords
road
▁Bet
▁Civ
▁Hig
▁Ice
adays
ville
▁tang
rained
▁badly
▁edges
▁items
▁owner
▁sheep
▁50,000
▁annual
▁rating
▁scores
cedented
standing
▁Islamic
▁diagram
▁healing
▁imagery
▁persist
▁restore
▁uniform
▁attitude
▁counting
▁explains
▁mosquito
▁observed
▁transact
▁guarantee
▁musicians
▁approaches
▁extinction
▁participation
ec
ev
uke
▁rh
viol
▁Bre
▁Cop
▁Sar
▁inn
▁Cont
▁Mach
▁leaf
▁Brown
▁Until
▁bored
▁conqu
▁fault
▁realm
▁sched
▁trace
▁Nature
▁cosmic
▁harass
otherapy
▁chapter
▁comprom
▁enables
▁genuine
▁profits
▁shocked
▁wheelch
▁entering
▁judgment
▁shoulder
▁elephants
▁receiving
▁earthquake
▁encouraged
▁excitement
▁motivation
▁simulation
▁structural
▁unprecedented
mo
Can
ete
exp
▁Ok
When
ahar
eday
okes
olic
soft
wich
▁Del
▁Nat
▁ham
▁tub
aware
produ
▁Blue
▁Sund
▁mode
ortion
▁aesth
▁cruel
▁meter
▁stead
▁thres
▁threw
lishing
▁Design
▁foster
▁fusion
▁paraly
▁stored
▁trucks
▁endless
▁pretend
▁secrets
▁unbelie
▁believes
▁climbing
▁crossing
▁incident
▁conducted
▁medicines
▁nutrition
▁variation
▁telescopes
▁traditions
▁enforcement
▁3.
▁32
▁95
long
▁Dou
▁Six
▁cas
▁lit
▁mig
ician
inder
orted
▁butt
▁eleg
▁fate
active
cation
edding
ijuana
usions
▁Event
▁ambit
▁energ
▁thumb
▁Rwanda
▁adoles
▁editor
▁proved
▁richer
▁traits
▁counsel
▁garbage
▁graphic
▁lecture
▁readers
▁soldier
▁traject
▁actively
▁friendly
▁compounds
▁injustice
▁sentences
▁substance
▁volunteer
▁identities
▁profoundly
▁prosperity
▁reasonable
▁chimpanzees
▁reconstruct
▁contemporary
▁transmission
▁vulnerability
Sh
made
▁Hum
▁Mom
▁vag
athan
cking
ctica
emics
▁Move
▁caps
▁kiss
▁toys
▁Henry
▁warri
▁Almost
▁Palest
▁claims
▁dispar
▁lowest
▁General
▁elderly
▁revenue
▁theoret
▁applying
▁officers
▁peaceful
▁platforms
▁procedure
▁radically
▁telephone
▁threshold
▁remembered
▁astonishing
▁genetically
▁observation
▁programming
▁capabilities
ao
ua
rix
▁0.
aine
icop
ifer
utch
▁10-
▁Den
▁sau
RISPR
▁drew
▁lean
▁orph
coming
izarre
▁lions
▁pride
viously
▁Church
▁Island
▁Rather
▁Virgin
▁metric
▁proven
▁sensor
▁tracks
▁minimum
▁advocate
▁disabled
▁teenager
▁adventure
▁animation
▁calculate
▁completed
▁Antarctica
▁Eventually
▁difficulty
▁previously
▁Fortunately
▁schizophren
▁surrounding
▁experimental
Are
Wow
bow
gia
zes
▁EM
abit
outs
▁Far
▁Mac
▁Put
quare
riger
▁Budd
▁None
▁anno
▁mail
▁span
ulture
▁Bronx
▁Higgs
▁Power
▁Super
▁Using
▁crush
▁pause
▁repet
▁schem
▁stake
▁tweet
▁CRISPR
▁column
▁corals
▁interf
▁lonely
▁offers
▁pollen
▁poster
▁silver
▁tunnel
▁voters
▁anatomy
▁closest
▁ignored
▁conclude
▁homework
▁informed
▁laughter
▁mobility
▁ambitious
▁audiences
▁electrons
▁expecting
▁factories
▁graduated
▁intuition
▁precision
▁stability
▁workforce
▁facilities
▁vegetables
▁interviewed
▁unconscious
▁intervention
▁globalization
reh
uba
▁Cy
▁Mu
asty
cons
half
step
▁Mag
▁Sea
▁wet
arest
enger
inson
ribly
▁biod
▁recl
▁sons
▁till
mental
ometer
orters
▁Never
▁escap
▁hired
▁infer
▁parks
▁recru
▁screw
ictions
▁Columb
▁Friday
▁curric
▁excess
Audience
changing
▁besides
▁bizarre
▁hunting
▁spreads
▁articles
▁covering
▁manifest
▁prosecut
▁register
▁revealed
▁robotics
▁realizing
▁aggressive
▁compelling
▁constructed
▁desperately
▁photographer
ctu
dis
see
vol
▁Kh
▁na
bial
bits
char
onna
pres
yard
▁MRI
▁Som
▁upd
grade
▁Viet
▁batt
▁rose
▁tone
▁turb
▁Ghana
▁Turns
▁alter
▁silly
usiness
▁assets
▁capita
▁cultiv
▁upside
▁propose
▁reminds
▁tension
▁wealthy
▁Together
▁channels
▁momentum
▁stopping
▁Microsoft
▁eliminate
▁renewable
▁residents
▁attractive
▁influenced
▁grandchildren
PA
iti
ril
▁Cr
▁Jo
▁La
ilem
▁202
gener
licit
rover
world
▁1990
▁Flor
▁gaps
▁intr
▁thus
ospher
▁camps
▁dilem
▁drill
▁encry
▁owned
▁plain
▁reput
umented
▁commod
▁jumped
▁planes
▁ticket
▁tumors
▁Vietnam
▁educate
▁logical
▁branches
▁disagree
▁dominant
▁failures
▁refriger
▁throwing
▁believing
▁candidate
▁inclusive
▁instantly
▁isolation
▁candidates
▁comparison
▁prevention
▁simplicity
▁limitations
▁storytelling
ET
sm
▁DB
ache
pers
▁Sov
▁ash
▁nom
illed
inent
▁Answ
▁Fund
▁Narr
▁cake
▁hipp
▁mush
▁tact
cember
▁Liber
▁Still
▁gross
▁spons
▁Mother
▁emails
▁gravit
▁prosth
▁render
▁slower
▁speaks
▁Develop
▁screens
▁aircraft
▁facility
▁minister
▁sandwich
▁shifting
▁siblings
▁surfaces
▁Obviously
▁countless
▁gathering
▁obstacles
▁preparing
▁devastating
▁electronics
▁intersection
ati
elf
imal
▁250
▁Bay
▁Out
▁gif
▁sew
ghter
▁bond
▁clim
▁dump
▁gate
▁mate
▁neat
▁thro
▁2010,
▁Charl
▁array
▁divor
▁links
▁peers
▁agents
▁convey
▁fibers
▁slides
▁stroke
▁closing
▁enterpr
▁located
▁statist
▁December
▁calories
▁earliest
▁intended
▁syndrome
▁reporting
▁exhibition
▁perfection
▁physicists
▁description
▁translation
▁grandparents
11
mes
sun
ails
ardo
izer
▁Cap
▁Jud
▁vit
▁dear
▁labs
▁4,000
▁Louis
▁alarm
▁fancy
▁norms
▁stays
looking
▁degrad
▁domain
▁drones
▁errors
▁gained
▁ritual
▁tragic
▁tribes
▁upload
▁Similar
▁follows
▁helicop
▁someday
▁accuracy
▁optimism
▁detection
▁interrupt
▁nonprofit
▁explaining
▁physicians
▁measurements
▁institutional
CA
ya
lem
uty
▁nu
fess
▁Boy
▁Jon
▁Mel
▁pix
itage
ormal
ribed
▁Gulf
▁Prot
▁epic
▁melt
▁wing
▁woke
soever
▁Bible
▁chips
▁fires
▁hemis
▁miser
▁Turkey
▁grocer
▁scenes
▁thread
▁tongue
ventions
▁Eastern
▁Florida
▁William
▁corrupt
▁couples
▁diamond
▁dressed
▁enabled
▁hopeful
▁pyramid
▁dinosaur
▁purposes
▁vacation
▁worrying
▁perceived
▁witnessed
▁continuous
▁impression
▁punishment
▁whatsoever
▁beautifully
▁innovations
▁philosopher
▁concentration
oir
ette
gust
rans
vity
▁'60
▁Isn
▁zer
eller
▁Jose
▁Make
atever
thirds
▁Brook
▁trail
▁vocal
ressing
▁recipe
▁regime
andering
velength
▁assault
▁selfish
▁outbreak
▁broadcast
▁classical
▁pregnancy
▁regularly
▁mosquitoes
▁prediction
▁collaborative
oly
reme
▁Edu
▁Hol
▁Tor
▁pir
ifact
lades
ureau
▁Bush
▁Gand
▁apps
▁bend
▁dumb
▁golf
▁prey
aharan
▁2015,
▁Gates
▁Jesus
▁Voice
▁actor
▁altru
▁fired
▁immun
▁sends
▁spell
▁spray
▁squee
▁steal
▁anesth
▁client
▁crimes
▁inevit
▁nights
▁rubber
▁sticks
▁Italian
▁briefly
▁hitting
▁refused
▁rolling
▁Carolina
▁rejected
▁transmit
▁Banglades
▁accidents
▁agreement
▁Scientists
▁assumption
▁impressive
▁emotionally
SD
agh
bod
bru
▁SD
▁tu
eart
ownt
rint
▁bio
▁jew
▁lob
▁tob
aches
ostic
▁Eric
▁Mand
▁craw
▁duck
▁flaw
▁quad
▁sail
▁suff
ounded
▁Child
▁acids
▁drown
▁hated
▁lever
▁penal
▁slave
▁approx
▁branch
▁reader
▁relief
▁bridges
▁cancers
▁ceiling
▁charges
▁fathers
▁synthes
▁tobacco
▁artifact
▁dynamics
▁genetics
▁penguins
▁promised
▁anonymous
▁dimension
▁expressed
▁fortunate
▁responded
▁biologists
▁commission
▁monitoring
▁newspapers
▁wheelchair
▁achievement
▁specialized
▁contribution
▁observations
ool
▁BF
lied
west
▁Mor
▁ner
puter
▁Comp
▁Coun
▁Time
▁cott
▁grat
▁lege
▁nurt
▁unst
Cheers
▁2008,
▁Medic
▁cared
▁diver
▁entry
▁ingen
▁membr
▁redes
Saharan
▁Answer
▁binary
▁bullet
▁equity
▁linear
▁manner
▁strict
▁absence
▁demands
▁drought
▁hormone
▁neutral
▁session
▁staring
▁Northern
▁athletes
▁feminist
▁findings
▁publicly
▁striking
▁batteries
▁contribut
▁equations
▁headlines
▁primitive
▁sacrifice
▁narratives
▁humanitarian
▁psychologist
hot
isy
nat
nut
obs
▁Ox
emen
idal
imag
mind
▁Def
▁Rio
▁Tim
▁nic
▁obt
▁pit
▁sin
emies
icked
ifies
maker
opard
rical
▁Cour
▁July
▁bump
▁dawn
▁load
▁opio
▁outs
aneous
▁2009,
▁Detro
▁bears
▁bonds
▁boost
▁opera
▁proph
▁seats
▁spont
▁wider
▁behalf
▁habits
▁luxury
▁makers
▁revers
▁trains
▁assumed
▁default
▁princip
▁prisons
▁sadness
▁wedding
▁Narrator
▁advances
▁customer
▁empowered
▁estimates
▁marijuana
▁mutations
▁qualities
▁replicate
▁curriculum
▁proportion
▁wavelength
▁constraints
▁discovering
▁encouraging
ani
▁AM
alog
fire
ifty
igma
▁20-
▁800
▁Tes
▁tur
▁yog
anges
oples
▁dose
engine
semble
unting
▁Congo
▁Spain
▁defic
▁eaten
▁panic
▁redef
▁risky
▁tribe
▁Compan
▁cheese
▁depart
▁funded
▁headed
▁charged
▁handful
▁highway
▁ongoing
▁reaches
▁rethink
▁stepped
▁teenage
▁useless
▁venture
▁dolphins
▁incorpor
▁skeleton
▁receptors
▁sensation
forestation
▁approached
▁describing
▁mainstream
▁terrorists
▁translated
▁distinguish
▁biodiversity
▁personalized
Cl
Go
LA
py
And
aby
obi
rist
xual
▁Ear
▁Mat
▁Sir
▁Too
▁fru
obile
otted
press
▁clue
▁drag
▁mask
▁ster
▁subt
bridge
bruary
▁Civil
▁agent
▁audio
▁chess
▁insec
▁irony
▁kills
▁mayor
▁unint
▁zones
fulness
▁Sunday
▁chairs
▁heaven
▁livest
▁beating
▁bedroom
▁dismiss
▁methane
▁museums
▁package
▁printer
▁recruit
▁February
▁circuits
▁intimate
▁leverage
▁wildlife
▁magnitude
▁paralyzed
▁temporary
▁Technology
▁antibiotic
▁ecological
▁reflection
▁authorities
▁alternatives
▁mathematicians
"?
bul
ccer
omed
▁bug
ucose
▁chop
▁mand
▁rabb
▁trap
▁Titan
▁embry
▁jelly
▁shirt
▁tends
inarily
working
▁20,000
▁Econom
▁Rights
▁Though
▁confir
▁freely
▁pedest
▁pencil
▁refuse
▁temple
▁Alright
▁landing
▁offices
▁peoples
▁Consider
▁Ethiopia
▁activate
▁detailed
▁furniture
▁intensity
▁realities
▁recycling
▁expectancy
▁medications
▁Organization
▁temperatures
▁straightforward
CE
ID
lor
ona
uan
▁3,
anet
aped
grad
pass
▁Lin
▁Mer
▁asp
▁dil
▁seg
▁Jenn
▁cree
▁echo
▁flee
▁loan
▁thor
astics
ounder
person
▁2012,
▁Arist
▁Dutch
▁Hedge
▁gonna
▁harsh
▁messy
▁ratio
▁wrest
attered
opamine
▁Soviet
▁apolog
▁chains
▁packed
▁static
▁tempor
▁Someone
▁constit
▁hackers
▁connects
▁sexually
▁acknowled
▁competing
▁executive
▁incentive
▁reproduce
▁struggles
▁immigration
▁historically
▁occasionally
▁controversial
▁interpretation
gr
ado
col
▁CD
▁DH
▁IS
▁Ma
▁Vi
five
lesh
omic
▁Hey
▁PhD
▁Wow
▁awe
▁dys
▁hub
chron
lfare
▁Cath
▁Jane
▁Long
▁chat
▁damn
▁drum
▁fits
▁nets
▁quot
aching
fessor
market
▁Eight
▁fatal
▁teens
▁Argent
▁Social
▁archae
▁campus
▁likeli
▁mentor
▁skelet
▁soccer
▁stones
▁adapted
▁appoint
▁belongs
▁compreh
▁portion
▁pursuit
▁washing
▁attacked
▁baseball
▁drawings
▁literacy
▁randomly
▁stressed
▁correctly
▁desperate
▁terrified
▁assistance
▁classrooms
▁trajectory
▁independence
▁psychologists
MS
dy
su
enh
opl
▁36
▁SS
▁je
Okay
abul
anna
ihad
▁Age
▁mac
▁tab
gines
irect
storm
▁Hist
▁Norm
▁gram
▁mild
▁soup
bsolut
▁Trans
▁delay
▁downt
▁exerc
▁sweat
itating
itative
▁Newton
▁Square
▁Twenty
▁biases
▁comedy
▁fallen
▁immers
▁orders
▁posted
▁tattoo
▁unfair
▁unfold
▁bottles
▁colored
▁consent
▁despair
▁engines
▁harmony
▁outrage
▁teaches
▁whistle
▁Minister
▁managers
▁nitrogen
▁sciences
▁atmospher
▁screening
▁sexuality
▁strategic
▁succeeded
▁destroying
▁illustrate
▁infectious
▁protective
▁approaching
▁unbelievable
All
aza
neg
▁85
gers
oths
▁'90
▁Try
▁ads
▁gee
▁hal
▁les
▁pla
▁sho
enter
thers
▁Mike
▁Sand
▁Sudd
▁cuts
▁hors
▁jack
▁pigs
abling
iating
▁2011,
▁Chile
▁cable
▁comic
▁divid
▁lifes
▁paths
▁wires
faction
▁Except
▁shrimp
▁anxious
▁glucose
▁mapping
▁activism
▁managing
▁priority
▁spinning
▁airplanes
▁biologist
▁excellent
▁formation
▁passwords
▁realistic
▁signature
▁struggled
▁appearance
▁basketball
▁journalism
▁organizing
▁separation
▁sufficient
▁revolutionary
ema
ima
lla
pox
yon
▁33
aken
esia
iban
kins
mate
▁LED
▁oct
eling
idesp
stone
▁bite
▁deaf
▁indo
▁mall
▁rape
▁scra
arians
resist
▁Hawai
▁Water
▁caves
▁hoped
▁insul
▁oblig
▁recre
▁regul
essions
imeters
uilding
▁Govern
▁Korean
▁aggreg
▁argued
▁builds
▁orphan
▁passes
▁carries
▁kingdom
▁returns
▁travels
▁welfare
idespread
▁Suddenly
▁consumed
▁division
▁supplies
▁touching
▁abandoned
▁libraries
▁planetary
▁screaming
▁employment
▁inevitably
▁manipulate
▁regulation
▁reputation
▁exponential
▁pornography
▁transgender
▁connectivity
eem
jud
▁28
▁SW
alia
bled
iful
ocin
olen
stic
▁Kat
▁Old
▁Rom
▁Tel
▁ubi
atial
enses
eping
retty
thood
umble
uther
▁Beij
▁Lord
▁crop
▁deck
▁dirt
▁fans
▁hunt
▁tuna
▁west
alized
minute
racies
rolled
weight
▁Start
▁Video
▁algae
▁bills
▁coinc
▁facil
▁impul
▁sizes
▁Berlin
▁Commun
▁Empire
▁Greece
▁Little
▁addict
▁crowds
▁horror
▁marrow
▁retail
▁analogy
▁clarity
▁deepest
▁disgust
▁enemies
▁nearest
bsolutely
▁attempts
▁colonies
▁expanded
▁fabulous
▁generous
▁magnific
▁numerous
▁targeted
▁contained
▁extension
▁gentleman
▁migration
▁promising
▁resilient
▁territory
▁transcend
▁preventing
▁retirement
▁expressions
▁fortunately
▁remembering
▁understands
▁communicating
▁interestingly
ava
ela
▁Es
adel
ched
conf
irts
list
orph
rect
▁Mah
▁Ult
ierra
ilize
▁Bell
▁Half
▁Shan
▁coin
▁pron
▁suck
▁toss
▁triv
▁tsun
▁urge
orious
▁Hello
▁Sorry
▁lifel
▁shore
▁taxes
Singing
▁Disney
▁absurd
▁asleep
▁cracks
▁criter
▁hypoth
▁preval
▁shower
lessness
▁Detroit
▁fortune
▁islands
▁request
▁shifted
▁uncover
▁Secondly
▁evolving
▁heritage
▁historic
▁ideology
▁shocking
▁substant
▁affecting
▁Bangladesh
▁Industrial
▁spacecraft
▁widespread
▁discussions
▁investigate
▁recognizing
▁computational
▁mathematician
▁schizophrenia
ca
200
oli
ura
quis
▁193
▁30-
▁FBI
▁Had
▁Sal
▁Ser
▁amy
▁gre
▁mud
▁sel
Laugh
inery
ogens
rance
▁Camp
▁Mond
▁NGOs
▁Tony
▁blah
▁bust
▁cens
▁fier
▁keys
▁scal
▁wrap
minded
▁Court
▁Young
▁acute
▁genoc
▁jewel
▁phant
▁rings
▁shots
▁sixth
▁winds
ativity
itivity
▁30,000
▁canvas
▁copies
▁garage
▁purely
▁serves
▁corners
▁formula
▁origins
▁pockets
▁priorit
▁Whatever
▁colonial
▁defining
▁dopamine
▁dreaming
▁minority
▁morality
▁openness
▁protocol
▁selected
▁terribly
▁attitudes
▁criminals
▁astronauts
▁dictionary
▁manufactur
▁astronomers
▁backgrounds
▁continuously
▁demonstrated
▁transforming
▁compassionate
▁gravitational
cre
rof
zee
cost
oric
plus
raph
thur
▁120
▁Dra
adian
clock
tocin
▁Brun
▁Give
▁Hope
▁Play
▁hint
▁rect
health
umbled
▁ambig
▁artic
▁decor
▁grabb
▁jihad
▁lingu
▁poems
▁revel
▁trips
▁voted
▁withd
ascular
ructive
▁Saturn
▁barrel
▁config
▁correl
▁excuse
▁handed
▁marvel
▁nightm
▁purple
▁strike
▁topics
▁gardens
▁mankind
▁reclaim
▁rituals
▁simpler
▁weekend
▁breeding
▁endanger
▁explicit
▁geometry
▁glaciers
▁indicate
▁interven
▁landscap
▁pointing
▁redesign
▁tendency
▁augmented
▁consensus
▁displaced
▁distances
▁sequences
▁statistic
▁celebrated
▁engineered
▁frightening
▁microscopic
▁photographed
▁approximately
da
cip
eda
esc
hyd
rin
you
▁AG
ador
omin
rade
walk
▁20,
▁Add
▁Ext
asive
bably
iffer
izers
▁Comm
▁Deep
▁List
▁Nove
▁beet
▁buzz
▁clay
▁mixt
▁sake
▁sale
▁wins
▁wore
engers
erving
taking
vasive
▁alert
▁award
▁depos
▁flesh
▁grave
▁minus
eliness
perform
▁Having
▁Others
▁Oxford
▁Pretty
▁Sierra
▁allies
▁cheers
▁cotton
▁cousin
▁covers
▁magnet
▁recall
▁selves
▁stolen
▁subway
▁truths
▁virgin
▁arguing
▁chamber
▁doubled
▁grocery
▁cartoons
▁cellular
▁contrary
▁headline
▁prisoner
▁prospect
▁associate
▁delicious
▁imagining
▁livestock
▁reasoning
▁delivering
▁expedition
▁likelihood
▁practicing
▁repeatedly
▁investments
▁perspectives
▁philosophers
▁architectural
▁deforestation
▁demonstration
▁representative
BM
EM
bu
fin
law
rie
amil
ghai
rons
▁'80
▁190
▁Men
▁Wor
▁irr
gence
urday
▁Food
▁logo
▁rope
▁sulf
▁torn
screen
▁Apoll
▁April
▁align
▁blink
▁depri
▁dough
▁drone
▁grasp
▁incom
▁loyal
▁sauce
▁stair
▁texts
▁treas
▁tubes
cussion
ilation
▁Norway
▁Unlike
▁amazed
▁appeal
▁cycles
▁mining
▁raises
▁stabil
▁strain
▁sugars
▁viewed
quarters
▁Stephen
▁enhance
▁enjoyed
▁heavily
▁laughed
▁settled
▁shining
▁shorter
▁Egyptian
▁admitted
▁assigned
▁declared
▁explored
▁kindness
▁musician
▁portrait
▁shipping
▁triangle
▁weakness
▁Cambridge
▁cigarette
▁copyright
▁describes
▁microbial
▁overnight
▁accelerate
▁altogether
▁generating
▁Development
▁contributed
▁partnership
▁regulations
▁disabilities
▁presidential
▁administration
EC
tw
afe
bye
mal
sum
▁Bi
atar
roid
stru
▁Tre
peare
▁Leon
▁forb
▁offs
▁pige
▁plug
▁wage
illing
▁Const
▁Santa
▁fever
▁gorge
▁grace
▁plank
▁sheer
▁shine
▁wired
powered
ultures
▁Yorker
▁cattle
▁contam
▁denial
▁empath
▁riding
▁Beijing
▁Council
▁clinics
▁courses
▁footage
▁inhabit
▁insulin
▁maximum
▁penalty
akespeare
▁November
▁Saturday
▁criteria
▁employee
▁informal
▁reinvent
▁superher
▁synchron
▁converted
▁miserable
▁reflected
▁returning
▁continents
▁discipline
▁discussing
▁variations
▁yourselves
▁computation
▁restaurants
▁chemotherapy
▁authoritarian
▁transformative
He
fly
ini
▁NB
acks
indu
phia
teen
umph
▁15-
▁192
▁USA
▁alb
▁blu
▁rum
acent
ademy
avors
oning
ourse
▁Luck
▁bugs
▁pale
▁rats
driven
ealand
enance
ifting
▁2000,
▁Music
▁entit
▁humil
▁myths
▁newly
▁rigid
▁wrist
quitous
▁Around
▁Native
▁elabor
▁guards
▁kidney
▁shifts
▁slaves
▁urgent
▁waited
adelphia
▁Taliban
▁banking
▁cluster
▁dilemma
▁flowing
▁phantom
▁swallow
▁Business
▁Catholic
▁approved
▁backyard
▁complain
▁diameter
▁horizont
▁interrog
▁underest
▁visiting
▁blindness
▁immigrant
▁integrate
▁phenomena
▁worldview
▁discomfort
▁girlfriend
▁initiative
▁remarkably
▁sanitation
▁ubiquitous
▁accountable
▁collaborate
▁efficiently
▁Philadelphia
▁contributing
vy
yo
.'"
100
isa
▁42
▁PT
atts
gram
offs
ylum
▁Joe
▁Jup
▁Leg
▁RNA
▁Ray
▁cul
▁fet
anzan
burgh
erals
opath
osity
ubble
venth
▁News
▁Open
▁Soon
▁Vict
▁jung
▁pole
▁sexy
asting
ournal
▁belly
▁boats
▁cream
▁limbs
▁loose
▁meets
▁outdo
▁spite
▁Public
▁Recent
▁Singap
▁brands
▁counts
▁courts
▁insane
▁sketch
▁spends
▁steady
etheless
▁Aristot
▁applies
▁broader
▁crossed
▁intimid
▁neglect
conscious
▁Brooklyn
▁Shanghai
▁Somebody
▁Virginia
▁accompan
▁autonomy
▁famously
▁oxytocin
▁smallpox
▁websites
ifications
▁Similarly
▁champions
▁dictators
▁economist
▁hierarchy
▁occurring
▁parenting
▁visualize
▁assignment
▁chimpanzee
▁landscapes
▁legitimate
▁Shakespeare
▁democracies
▁legislation
▁magnificent
▁practically
▁realization
▁theoretical
.5
ki
aph
▁55
▁PC
▁SB
..."
hist
rine
udio
ueen
▁Dad
▁bin
▁bip
arrhe
▁bats
▁chef
▁dent
▁ende
▁fees
▁lion
▁orig
▁toll
▁tune
▁advis
▁knife
▁pulse
▁twist
roverts
uscript
▁Tanzan
▁equals
▁estate
▁legend
▁stigma
breaking
▁Seattle
▁careers
▁cousins
▁decides
▁elegant
▁nonviol
▁planned
▁skilled
▁misunder
▁nowadays
▁referred
▁resident
▁singular
▁Singapore
▁geography
▁machinery
▁passenger
▁principal
▁skeptical
▁accurately
▁convenient
▁electrodes
▁microphone
▁demographic
▁documentary
▁encountered
▁individually
▁interventions
▁extraordinarily
rot
▁DC
They
ambo
burg
rane
▁Amy
▁Kar
▁Nic
▁Sum
▁ain
▁ego
athon
ggers
inian
▁Dere
▁Mass
▁bang
▁fest
▁jeal
▁pupp
▁turt
acious
ieties
normal
romagn
▁Media
▁bless
▁dread
▁gains
▁penet
▁vivid
▁Apollo
▁Arthur
▁County
▁Daniel
▁humble
▁retina
▁throat
▁tribal
▁wasted
▁200,000
▁Georgia
▁Jupiter
▁artwork
▁dolphin
▁earning
▁exploit
▁heading
▁onstage
▁origami
▁pronoun
▁scanner
▁sectors
▁shortly
▁strings
▁triumph
▁trusted
▁Olympics
▁composed
▁predator
▁reflects
▁Professor
▁achieving
▁collision
▁installed
▁helicopter
▁privileged
▁prosthetic
▁publishing
▁functioning
▁overwhelmed
▁introduction
▁reproductive
▁satisfaction
▁accountability
BT
hib
ila
▁AB
▁Da
bean
ousy
rame
wind
▁Nin
▁Pre
▁lap
▁tie
aired
clear
gency
iolet
oured
plete
▁Cost
▁Homo
▁Nick
▁PTSD
▁Penn
▁duty
▁gear
▁lake
▁masc
▁nuts
▁ties
advant
ilized
▁Lagos
▁Leone
▁bench
▁cabin
▁deter
▁dimin
▁drops
▁flags
▁radar
▁raped
▁rever
▁uniqu
▁System
▁accent
▁atomic
▁grades
▁inches
▁marked
▁matrix
▁recess
ffective
▁Atlanta
▁coastal
▁congest
▁farther
▁jumping
▁locally
▁proceed
▁resolve
▁retreat
▁tsunami
▁whisper
▁annivers
▁commonly
▁contempl
▁downtown
▁fairness
▁genocide
▁gorgeous
▁graphics
▁minimize
▁tropical
ustainable
▁campaigns
▁collapsed
▁disadvant
▁disasters
▁intensive
▁resistant
▁scenarios
▁shoulders
▁therapies
▁universes
▁Absolutely
▁determines
▁elementary
▁endangered
▁inherently
▁interviews
▁propaganda
▁consciously
▁politically
▁technically
▁interconnected
dig
▁29
▁IM
▁MB
▁MT
▁TK
▁Us
itar
oids
ropy
▁350
▁Ath
▁FDA
▁Met
▁Mur
▁Naz
▁Roy
▁Sky
▁Sud
▁Tun
▁fir
▁voy
arded
impse
▁Bern
▁Ford
▁adul
▁blew
▁rank
▁wond
Laughs
▁2014,
▁Colle
▁Venus
▁bucks
▁buses
▁cliff
▁donor
▁drain
▁embod
▁feeds
▁inhib
▁meals
▁mimic
▁shops
▁subur
▁twins
▁Ladies
▁aliens
▁asylum
▁contra
▁dishes
▁mapped
▁orient
▁smells
▁subsid
▁Islands
▁authors
▁cooling
▁fitness
▁glimpse
▁greatly
▁injured
▁ordered
▁passive
▁Nigerian
▁checking
▁dropping
▁hopeless
▁injuries
▁pathways
▁protests
▁simplest
▁switched
▁youngest
▁attracted
▁automated
▁belonging
▁confusion
▁dominated
▁offspring
▁similarly
▁therapist
otechnology
▁acceptable
▁addressing
▁manuscript
▁politician
▁professors
▁subjective
▁composition
▁considering
▁electromagn
▁marketplace
▁improvements
jo
ika
uts
▁Bh
▁ST
▁UC
▁ov
iven
oven
rick
rust
▁1.5
▁Moz
▁Rad
▁Say
▁Ver
▁jam
▁lam
▁wre
atoes
itzer
omics
oting
ouses
▁1900
▁LGBT
▁cope
▁glue
▁mini
▁palm
▁unle
▁Yemen
▁anten
▁clues
▁lanes
▁maker
▁towns
▁wages
anderth
▁beaten
▁iconic
▁prejud
▁creator
▁destiny
▁monster
▁rewards
▁unhappy
▁utterly
▁wrapped
▁avoiding
▁deployed
▁humility
▁mentally
▁orbiting
▁pressing
▁proposal
▁recycled
▁Alexander
▁mysteries
▁stressful
▁Republican
▁chromosome
▁questioning
▁researching
▁concentrated
▁prescription
▁systematically
api
run
vir
▁Lo
▁Ra
▁gy
Here
mony
rong
roup
▁Ann
▁Cra
▁Ire
▁NSA
▁fer
▁tin
creat
gradu
▁Hosp
▁Rock
▁Saud
▁Scot
▁Snow
▁ange
▁bail
▁cath
▁cows
▁dare
▁solo
▁subm
awater
iances
inable
inding
ulsive
▁Coast
▁asset
▁awake
▁fails
▁fraud
▁pills
▁Anyone
▁Nether
▁analyt
▁brutal
▁carpet
▁evapor
▁fluctu
▁horses
▁insist
▁manual
▁mutual
▁restor
▁troops
▁unlock
▁waking
omething
▁crystal
▁filling
▁genomes
▁happily
▁joining
▁leather
▁planted
▁trading
▁trivial
resistant
▁abundant
▁cleaning
▁compound
▁enabling
▁multiply
▁noticing
▁aesthetic
▁cooperate
▁embracing
▁textbooks
▁harassment
▁Netherlands
▁anniversary
▁foundations
▁perceptions
▁calculations
▁embarrassing
▁civilizations
,'
HC
va
bar
dam
psy
▁AT
bear
oker
oton
▁203
▁Has
▁cyl
▁piz
▁tut
ansas
ieval
phony
▁ISIS
▁alar
▁cann
▁enjo
▁prol
▁rays
▁shoe
▁symp
▁ward
airobi
second
▁Derek
▁amino
▁brows
▁candy
▁knees
▁param
▁probe
▁pulls
▁shelf
▁steam
abulary
ometown
▁Albert
▁Andrew
▁abroad
▁comics
▁diving
▁earned
▁immort
▁mature
▁nerves
▁overlo
▁shield
▁tables
▁underp
▁vagina
▁worthy
function
ogenesis
▁Indones
▁Kingdom
▁Nairobi
▁council
▁diarrhe
▁digging
▁gesture
▁mirrors
▁reveals
▁victory
▁Probably
▁addicted
▁alphabet
▁catching
▁colorful
▁deciding
▁keyboard
▁supports
▁thrilled
▁variable
▁Neanderth
▁Parkinson
▁observing
▁pathogens
▁secondary
▁acceptance
▁anticipate
▁hemisphere
▁photosynth
▁chromosomes
▁distinction
▁financially
▁accomplished
▁combinations
▁unemployment
▁philosophical
Did
asi
rah
▁2:
▁Gr
▁dy
fare
rity
zone
▁10.
▁Ram
▁Van
aning
elson
▁Army
▁Hong
▁Jord
▁Kenn
▁Post
▁Read
▁cube
▁narc
▁pays
▁shit
angles
esters
itated
▁6,000
▁Bruno
▁Color
▁Creat
▁Milky
▁amate
▁arbit
▁attor
▁blend
▁comet
▁marks
▁Cambod
▁Howard
▁Luther
▁canopy
▁cataly
▁checks
▁cosmos
▁enrich
▁insert
▁noises
▁parach
▁prepar
▁racing
▁sheets
▁Academy
▁History
▁climbed
▁examine
▁implant
▁stagger
▁blocking
▁consists
▁interior
▁membrane
▁plastics
▁sacrific
▁talented
▁Aristotle
▁confirmed
▁elaborate
▁orchestra
▁resulting
▁confronted
▁disruption
▁procedures
▁supportive
▁vocabulary
▁embarrassed
▁identifying
▁predictable
▁trafficking
▁investigation
▁characteristic
RA
hal
olt
sex
▁4,
▁ES
▁Id
aire
eres
ieve
illa
isan
obia
▁Luc
▁jar
▁jet
Audio
loved
ocamp
owder
▁..."
▁Hans
▁Hill
▁Math
▁Same
▁Soci
▁airl
▁blur
▁chew
▁dece
▁inch
▁junk
▁obsc
ergart
etical
rators
▁Later
▁alpha
▁blown
▁cares
▁chase
▁couch
▁gifts
▁inexp
▁juven
▁lobby
▁nanop
▁nodes
▁posed
▁reass
▁royal
healthy
holders
issance
▁Humans
▁Inside
▁casual
▁divers
▁divine
▁format
▁insult
▁intric
▁masses
▁plates
▁preced
▁sought
▁underm
ifferent
▁Climate
▁College
▁Iceland
▁Ireland
▁Johnson
▁entropy
▁portray
▁reinfor
▁smiling
▁sounded
▁squares
▁texture
▁toilets
▁transit
▁Movement
▁accommod
▁ambition
▁analyzed
▁announce
▁champion
▁circular
▁clusters
▁deserves
▁maximize
▁modified
▁spelling
▁tangible
▁abundance
▁certainty
▁demanding
▁glamorous
▁processed
▁producers
▁respected
▁continuing
▁documented
▁enterprise
▁loneliness
▁profitable
▁representing
Ex
For
deg
erk
urp
▁31
▁Ir
oran
unks
▁15,
▁Nan
▁Sah
▁Sus
▁Vol
▁gym
▁quo
Every
month
rared
ugged
▁Eliz
▁Gore
▁Josh
▁Lear
▁Phot
▁Uber
▁Whit
▁glow
▁indu
▁lamp
▁surg
ements
umines
violet
▁2013,
▁Moore
▁Sarah
▁Saudi
▁Watch
▁codes
▁ensla
▁float
▁index
▁inequ
▁oppon
▁overd
▁slums
▁worms
theless
▁Joseph
▁Michel
▁Monday
▁calend
▁consol
▁contag
▁curves
▁denied
▁empire
▁exclud
▁judges
▁losses
▁makeup
▁summar
▁wheels
▁winner
▁Indians
▁Justice
▁blowing
▁buttons
▁divorce
▁emerges
▁fantasy
▁futures
▁labeled
▁luckily
▁passage
▁suscept
▁whoever
▁detector
▁elevator
▁friction
▁innovate
▁mattered
▁nanopart
▁reminder
▁seawater
▁stepping
▁convicted
▁hippocamp
▁involving
▁releasing
▁empowering
▁ingredient
▁intentions
▁unintended
▁destination
▁destructive
▁preferences
▁installation
▁incarceration
▁participating
def
hma
mia
pay
▁Gi
▁Py
cycl
page
ptic
utan
▁130
▁Ele
▁Tro
▁coc
▁ere
▁tex
acher
anium
ighth
inger
inton
piece
viron
▁1930
▁Book
▁Kong
▁Turk
▁acou
▁radi
▁shed
▁tale
▁unac
▁2005,
▁Leban
▁Light
▁Party
▁alike
▁drunk
▁illum
▁loads
▁patri
▁straw
▁tuber
▁wheat
natural
▁Gandhi
▁Greeks
▁Nelson
▁bureau
▁exceed
▁hatred
▁mammal
▁segreg
▁timing
interest
▁Israeli
▁Library
▁Luckily
▁Medical
▁Whereas
▁affairs
▁desires
▁enzymes
▁episode
▁folding
▁matched
▁mixture
▁nucleus
▁altitude
▁boundary
▁democrat
▁embraced
▁exploded
▁hometown
▁inventor
▁mutation
▁Argentina
▁Education
▁Therefore
▁illnesses
▁inclusion
▁jellyfish
▁advantages
▁calculated
▁convincing
▁disturbing
▁priorities
▁programmed
▁frequencies
▁instruction
▁maintenance
▁accidentally
ker
loc
▁48
▁DV
▁SP
▁Wo
Come
ican
inci
pack
rium
▁Ang
▁Gar
▁Jac
▁Nav
▁Reg
▁hey
▁shy
abeth
atric
eries
grand
rison
uctor
▁Carl
▁Mill
▁Wind
▁athe
▁belt
▁conj
▁holy
▁iPod
▁obso
▁seaf
ancers
culiar
izable
shaped
▁Delhi
▁cheat
▁deals
▁fence
▁grant
▁lists
▁naive
▁pizza
▁resur
▁spher
▁spill
lection
lighten
umbling
▁confer
▁digits
▁export
▁motors
▁sovere
▁towers
▁turbul
▁valley
ergarten
▁Mandela
▁cocaine
▁genital
▁lighter
▁reduces
▁streams
▁strikes
▁warrior
fortunate
▁Interest
▁Tanzania
▁coverage
▁creators
▁enjoying
▁infrared
▁peculiar
▁pursuing
▁survivor
▁systemic
▁visitors
▁Otherwise
▁amazingly
▁apologize
▁followers
▁millennia
▁pressures
▁replacing
▁critically
▁disconnect
▁responding
▁suspicious
▁celebrating
▁flexibility
▁frustrating
▁problematic
▁supermarket
▁disappointed
▁philanthropy
▁significance
ES
MA
Man
aky
een
iov
orr
sen
▁KB
▁MS
aste
bing
educ
hear
inda
just
mill
pple
rier
sens
size
wing
▁12-
▁Fed
▁Sup
▁Tok
▁los
▁nin
ipher
▁CEOs
▁Keep
▁Lead
▁Less
▁Phys
▁aunt
▁hood
▁jazz
▁kidn
▁rage
▁reck
▁reun
▁seiz
▁stam
▁summ
Please
boards
erness
handed
necess
ogenic
▁1,500
▁Brian
▁Carib
▁Kevin
▁Peace
▁adequ
▁blogs
▁brick
▁brush
▁drama
▁loses
▁slice
▁wives
atories
culosis
▁40,000
▁60,000
▁Associ
▁Jersey
▁Jordan
▁Portug
▁cowork
▁dragon
▁exotic
▁famine
▁fierce
▁grains
▁mascul
▁namely
▁openly
▁scarce
▁unimag
▁valued
▁wishes
friendly
▁Journal
▁contest
▁donated
▁exhibit
▁funeral
▁halfway
▁intrins
▁longest
▁matches
▁menstru
▁optical
▁powered
▁reactor
▁Canadian
▁acquired
▁assembly
▁helpless
▁impacted
▁lifelong
▁murdered
▁obsolete
▁pleasant
▁surgeons
▁Southeast
▁activated
▁analyzing
▁comparing
▁imperfect
▁practiced
▁strengths
▁tolerance
▁compromise
▁friendship
▁settlement
▁concentrate
▁correlation
▁empowerment
▁hippocampus
▁measurement
▁stereotypes
▁tuberculosis
As
bag
low
net
bles
ella
etti
flix
onal
onia
seen
sell
tent
▁Aut
▁Sol
▁cav
▁sir
amous
erate
ilton
ogram
raine
rator
▁Coll
▁Fred
▁Gard
▁Hall
▁Supp
▁adds
▁carp
▁cues
▁demo
▁gaze
▁hybr
▁seal
▁seam
▁slic
▁twin
▁vice
eprint
ocracy
▁Seven
▁Stand
▁Tesla
▁clubs
▁discl
▁ghost
▁greet
▁mines
▁proto
▁scaff
▁15,000
▁Telesc
▁Victor
▁helium
▁hiring
▁issued
▁rotate
▁stairs
▁storms
▁tricky
▁volunt
▁wooden
▁Netflix
▁ashamed
▁beloved
▁commons
▁confirm
▁counted
▁ecology
▁exagger
▁forgive
▁grammar
▁justify
▁masters
▁photons
▁recycle
▁spatial
▁texting
▁torture
▁Hospital
▁detected
▁entrance
▁goodness
▁modeling
▁promises
▁receptor
▁relation
▁removing
▁stunning
▁thriving
▁unnecess
▁withdraw
▁Caribbean
▁Indonesia
▁answering
▁discussed
▁generates
▁surviving
▁suspended
▁unhealthy
▁variables
▁adolescent
▁Christopher
▁Researchers
▁fingerprint
▁ultraviolet
▁unfortunate
▁economically
▁collaborators
OL
IDS
bot
lar
roc
▁DM
▁Os
agan
amas
beat
cher
owed
pted
rays
uest
unes
▁Ari
▁Ell
▁SDG
▁mit
▁mum
▁sup
adium
atson
brush
ortex
proof
▁Brad
▁Conf
▁Kids
▁Rand
▁Such
▁Walk
▁brow
▁caut
▁coat
▁disk
▁edit
▁neoc
▁proc
▁sole
cyclop
degree
emical
ervice
places
uction
worthy
▁freed
▁gotta
▁guest
▁midst
▁pants
▁resid
▁steep
▁strip
▁telom
ethoven
ighters
▁Hawaii
▁Secret
▁Syrian
▁cement
▁decomp
▁eighth
▁ethics
▁floors
▁hammer
▁ideals
▁jungle
▁kicked
▁learns
▁lenses
▁rooted
▁shares
▁sooner
▁spiral
▁transf
▁viewer
orescent
▁Defense
▁acquire
▁impress
▁kidding
▁patents
▁pathway
▁phrases
▁richest
▁shaking
▁superst
▁visions
▁winners
mentation
▁Leonardo
▁chickens
▁freezing
▁patience
▁plankton
generation
▁blueprint
▁firsthand
▁histories
▁inherited
▁paralysis
▁strongest
▁sustained
▁traumatic
▁conceptual
▁parliament
▁passengers
▁sequencing
▁undergradu
▁aspirations
▁cooperative
▁nonetheless
▁transmitted
▁deliberately
▁hallucinations
gm
▁.
-19
ias
eddy
icky
ippi
risk
ucks
udge
▁11,
▁Nep
▁cin
▁pod
renal
rians
ymmet
▁biol
▁cher
▁epip
▁slip
▁ware
commun
school
ulsion
▁Elect
▁coron
▁guilt
▁nasty
▁offsh
▁sadly
▁stare
▁woods
▁zeros
usively
▁Cities
▁Nathan
▁bitter
▁cables
▁enters
▁flavor
▁frames
▁helmet
▁heroic
▁intact
▁marker
▁prayer
▁rolled
▁viable
▁Kennedy
▁Supreme
▁Switzer
▁browser
▁defines
▁glacier
▁hostile
▁legally
▁lottery
▁scholar
▁shadows
▁subsequ
▁surveys
▁utility
▁ceremony
▁distress
▁entities
▁marathon
▁obstacle
▁overhead
▁regulate
▁releases
▁scanning
▁thinkers
▁triggers
▁artifacts
▁assistant
▁attempted
▁discrimin
▁lightning
▁obsession
▁promoting
▁recovered
▁surgeries
▁varieties
▁viewpoint
▁Christians
▁Ultimately
▁exceptions
▁relativity
▁Switzerland
▁existential
▁expectation
▁frustration
▁implemented
▁preparation
▁proposition
▁accelerating
▁appreciation
▁kindergarten
▁experimenting
40
On
tt
Not
iva
org
▁ID
▁om
Beat
abwe
asma
aven
irth
live
mile
opol
stop
usal
zero
▁12,
▁Ass
▁Dru
▁Fur
▁IBM
▁Kir
▁Off
▁Oft
▁Pen
▁Pop
▁Sad
▁pee
amboo
berry
ected
icism
keley
meter
otine
ropol
uster
▁Coke
▁Data
▁Gene
▁Jews
▁Pitt
▁Show
▁Soph
▁Yale
▁beam
▁biof
▁cage
▁ease
▁exit
▁lawn
▁unre
gevity
orient
people
ricane
▁Among
▁Death
▁Jones
▁Tokyo
▁backs
▁careg
▁crude
▁dates
▁eager
▁loans
▁morph
▁rebel
▁ruled
▁votes
driving
imbabwe
keepers
▁Cancer
▁Spring
▁angles
▁bamboo
▁firing
▁fruits
▁joints
▁legisl
▁pixels
▁speeds
▁summit
▁theirs
▁Clinton
▁Mississ
▁Olympic
▁Swedish
▁explode
▁generic
▁inmates
▁lasting
▁scaling
▁slowing
▁spiders
▁western
▁Berkeley
▁entitled
▁envision
▁forecast
▁interpre
▁persuade
▁purchase
▁responds
▁settings
▁societal
▁stealing
▁Beethoven
▁Telescope
▁accepting
▁fragments
▁intersect
▁successes
▁Geographic
▁Parliament
▁coordinate
▁distribute
▁guaranteed
▁staggering
▁celebration
▁millennials
▁transported
▁contributions
Ah
Re
po
leg
▁AD
▁Od
aeda
aver
stal
▁Blo
▁DVD
▁Hon
▁Mem
▁Pic
▁Tri
▁caf
▁eru
▁fog
▁hij
▁kit
▁lau
▁rab
ached
actic
asant
▁Dick
▁auto
▁carc
▁worn
atible
idance
ograms
uminum
▁2050,
▁acres
▁blast
▁cried
▁deple
▁fleet
▁hatch
▁holog
▁noisy
▁obese
▁remem
▁rises
▁vapor
▁affair
▁freeze
▁heroin
▁irrele
▁lasted
▁mouths
▁pestic
▁reflex
▁respir
▁salary
▁statue
▁warmer
▁writes
ediatric
▁Liberia
▁Philipp
▁blocked
▁chaotic
▁checked
▁claimed
▁grabbed
▁liberty
▁romance
▁sailing
▁strands
▁tightly
▁tipping
▁Recently
▁basement
▁cocktail
▁equipped
▁frequent
▁frontier
▁habitats
▁medieval
▁memorial
▁prostate
▁reporter
▁schedule
▁supernov
▁surgical
▁vultures
▁addressed
▁attending
▁boyfriend
▁execution
▁fisheries
▁humankind
▁impressed
lightenment
▁beneficial
▁congestion
▁developers
▁interfaces
▁opposition
▁suggestion
▁Mississippi
▁integration
▁statistical
▁threatening
▁coordination
▁hypothetical
▁reproduction
▁independently
▁visualization
isc
nia
▁Fa
▁LA
▁LT
▁RB
▁UV
four
know
rats
yles
▁50-
▁Dub
▁Pot
▁Tib
▁arc
▁laz
▁wow
apeut
heads
ittee
olith
rence
white
▁Alab
▁Beck
▁Know
▁beef
▁bulb
▁crap
▁dens
▁dorm
▁fled
▁pond
▁slog
▁tips
▁worm
▁yard
ailand
depend
estone
holder
inator
redict
▁Koran
▁Sudan
▁devil
▁erect
▁escal
▁files
▁marsh
▁memes
▁scans
▁subsc
▁suits
respect
unclear
▁Edward
▁Either
▁Watson
▁admire
▁betray
▁copied
▁depths
▁improv
▁ironic
▁ladder
▁mating
▁neurot
▁potent
▁powder
▁salmon
▁varied
▁virtue
ictional
osterone
▁Anybody
▁Freedom
▁athlete
▁cardiac
▁cleaner
▁columns
▁compens
▁dangers
▁disprop
▁editing
▁grounds
▁heating
▁quietly
▁retired
▁talents
▁Security
▁Thailand
▁abnormal
▁assuming
▁diamonds
▁intimacy
▁primates
▁protects
▁superior
▁suppress
▁uniquely
▁unstable
▁visually
ographical
▁Brazilian
▁Elizabeth
▁Greenland
▁asteroids
▁capturing
▁confusing
▁emergence
▁ethnicity
▁intervene
▁massively
▁adaptation
▁automobile
▁biolumines
▁diagnostic
▁encryption
▁generosity
▁meditation
▁regenerate
▁association
▁bloodstream
▁countryside
▁nationalism
▁sensitivity
▁susceptible
▁willingness
▁illustration
▁disproportion
▁electromagnetic
ER
NH
ARS
irs
sur
uce
uci
via
▁CP
alks
aron
aska
bris
elve
isol
itis
oned
ucky
zard
▁14,
▁Beh
▁Dig
▁Mid
▁Sub
ancer
apses
epler
icide
pling
shirt
speed
uming
▁Alan
▁Cape
▁Fire
▁Free
▁Lake
▁Much
▁Ohio
▁bowl
▁godd
▁merg
▁pose
ranean
▁2006,
▁Swiss
▁Tunis
▁album
▁ambul
▁armor
▁hurts
▁locom
▁occas
▁races
▁swing
iations
rospect
▁debris
▁donate
▁finite
▁firmly
▁modest
▁pollut
▁prohib
▁scheme
▁submit
▁taller
▁tomato
▁Charlie
▁Somalia
▁blockch
▁crushed
▁dreamed
▁easiest
▁gallery
▁hacking
▁holiday
▁honesty
▁melting
▁minimal
▁newborn
▁novelty
▁placing
▁sensing
▁shipped
▁terrain
▁vicious
▁viewing
▁applause
▁balloons
▁currents
▁diagnose
▁diarrhea
▁gestures
▁missions
▁sections
▁skeletal
iovascular
▁astronomy
▁automatic
▁exclusive
▁exercises
▁nightmare
▁parachute
▁portraits
▁qualified
▁satisfied
▁vegetable
▁wandering
▁brainstorm
▁containing
▁conviction
▁courageous
▁enthusiasm
▁inventions
▁sculptures
▁substances
▁Association
▁illustrates
▁replacement
▁explanations
▁exploitation
▁traditionally
Cs
eu
zo
Mom
hel
ols
rue
sis
▁JC
▁MR
▁Mi
▁Ms
▁TM
▁ox
bian
home
lvan
mass
pace
rise
▁30,
▁Ask
▁Eve
▁Ide
▁dug
▁hob
▁nap
▁pad
▁ski
ashes
atics
epher
icill
▁Cold
▁Doug
▁Emma
▁Nike
▁Wars
▁mant
▁moms
▁perm
▁plum
▁semi
▁yoga
enders
ighter
itical
lvania
ulates
▁Heart
▁alloc
▁arrow
▁beats
▁faint
▁folds
▁heter
▁jeans
▁moist
▁picks
▁pound
▁stiff
▁trait
▁twent
▁urine
▁yards
alities
frontal
iscover
osexual
ulative
▁Kepler
▁Senate
▁abused
▁banned
▁biased
▁boards
▁closet
▁defect
▁guitar
▁opioid
▁reserv
▁routes
▁themes
▁voyage
▁weighs
▁Current
▁Denmark
▁Society
▁Suppose
▁goodbye
▁inflamm
▁markers
▁warfare
▁adoption
▁attorney
▁certific
▁civilian
▁enslaved
▁guidance
▁imprison
▁insisted
▁operates
▁portable
▁simulate
▁sticking
▁transist
▁imaginary
▁magazines
▁pervasive
▁triggered
▁unpredict
▁antibodies
▁disruptive
▁distracted
▁frightened
▁irrational
▁phenomenal
▁presenting
▁prototypes
▁statements
▁structured
▁systematic
▁Palestinian
▁catastrophe
▁competitors
▁corresponds
▁disciplines
▁neighboring
▁smartphones
▁consistently
▁physiological
▁cardiovascular
aa
awi
emi
oen
oto
▁Hu
Just
olas
oren
orse
take
▁'50
▁nod
▁vig
Thank
ennis
oline
▁Lots
▁beds
▁cram
▁deny
▁mund
▁padd
▁slee
▁stew
atical
iments
iverse
ocaust
orship
rogram
velope
▁Ethic
▁Fifty
▁Force
▁Jason
▁Larry
▁Years
▁crust
▁epile
▁fungi
▁landf
▁remix
▁souls
▁spare
▁spine
▁strat
▁witch
amiliar
enhagen
icillin
▁Colomb
▁Golden
▁Pennsy
▁Prince
▁anonym
▁beside
▁bricks
▁fixing
▁lately
▁presum
▁punish
▁stocks
▁weekly
computer
▁Alabama
▁asymmet
▁battles
▁blessed
▁chasing
▁dancers
▁eastern
▁filters
▁founder
▁motions
▁pleased
istically
▁Columbia
▁ancestor
▁annoying
▁arranged
▁calculus
▁feathers
▁lectures
▁meantime
▁monsters
▁policing
▁remotely
▁stimulus
▁stumbled
▁symbolic
▁thorough
▁Architect
▁adulthood
▁assembled
▁breakdown
▁exhausted
▁fictional
▁inflation
▁integrity
▁intrigued
▁longevity
▁outbreaks
▁pediatric
▁staircase
▁accounting
▁apartments
▁cigarettes
▁millimeter
▁oppression
▁prioritize
▁psychopath
▁vibrations
▁atmospheric
▁circulation
▁departments
▁exceptional
▁initiatives
▁permanently
▁programmers
▁unnecessary
▁Pennsylvania
▁catastrophic
▁disappearing
?'
boy
ean
oft
▁34
▁52
▁Av
▁RS
▁TB
aman
aved
bone
eyed
iary
lier
lies
race
▁180
▁Bos
▁Ill
▁Rog
▁Ted
▁Tit
▁Win
▁dim
▁fee
▁jur
agram
raged
umbai
▁2008
▁Fast
▁Ross
▁casc
▁mang
▁mesh
▁quiz
▁rhet
▁skip
atient
boxing
tering
urches
▁Goals
▁Talks
▁fatig
▁hydro
▁maneu
▁slime
▁snaps
▁troll
▁usage
version
▁Donald
▁Hubble
▁Mumbai
▁anatom
▁apples
▁corrid
▁defeat
▁dement
▁exquis
▁lethal
▁metaph
▁novels
▁obsess
▁priest
▁server
▁tastes
▁viscer
▁wounds
cientist
ensively
▁Everest
▁Growing
▁accused
▁altered
▁compass
▁devoted
▁editors
▁expense
▁forcing
▁knocked
▁logging
▁migrate
▁motorcy
▁narciss
▁needing
▁nursing
▁reforms
▁shelves
▁spirits
▁Whenever
▁Williams
▁contents
▁gigantic
▁horrific
▁minerals
▁motivate
▁offshore
▁passport
▁planting
▁presents
▁speeches
▁synapses
▁cardboard
▁combining
▁consuming
▁directors
▁emphasize
▁habitable
▁ingenuity
▁launching
▁prevented
▁reinforce
▁Copenhagen
▁confession
▁horizontal
▁intriguing
▁nonviolent
▁quantities
▁registered
▁manufacture
▁progressive
▁scientifically
Ar
Me
gd
God
bly
nik
oul
pha
wid
yan
▁JF
▁Wi
bral
inch
intu
obic
oler
worm
▁1.2
▁14-
▁189
▁900
▁bot
▁hes
▁hug
▁jun
▁owe
▁zoo
atile
peror
ynman
▁Home
▁Peru
▁Stop
▁anch
▁apes
▁arth
▁reli
▁toes
▁velo
ellers
formed
ilated
uation
▁2003,
▁2004,
▁Costa
▁McDon
▁Short
▁Stone
▁amygd
▁arena
▁chunk
▁comed
▁cubic
▁doses
▁draws
▁gates
▁incon
▁jokes
▁juice
▁macro
▁merch
▁penis
▁piles
▁snake
▁tiles
▁tuned
▁wrink
anguage
conomic
onsense
ourcing
percent
ulously
writing
▁25,000
▁Mozart
▁Person
▁costly
▁dancer
▁drinks
▁facult
▁filmed
▁floods
▁lifted
▁loaded
▁occupy
▁poorly
▁superf
▁Feynman
▁anytime
▁jewelry
▁monthly
▁premise
▁ranging
▁rescued
▁reserve
▁secular
▁seventh
▁tickets
▁wonders
▁Scotland
▁balanced
▁cheating
▁confined
▁delicate
▁flourish
▁lifespan
▁lightbul
▁literary
▁migrants
▁optimize
▁parasite
▁prevents
▁ambulance
▁explorers
▁favorites
▁intricate
▁accumulate
▁culturally
▁households
▁invitation
▁irrelevant
▁metabolism
▁citizenship
▁fluorescent
▁simulations
▁constitution
▁difficulties
▁requirements
▁testosterone
▁tremendously
▁breakthroughs
▁contradiction
CO
eps
rac
▁4.
▁BC
▁SA
acon
enez
igan
inos
oter
type
▁Fil
▁Rec
▁cod
Would
child
essim
leans
oping
venue
▁Anna
▁Barb
▁Jean
▁Matt
▁Real
▁SARS
▁Side
▁Stat
▁TEDT
▁Year
▁budd
▁nano
▁odor
apiens
arious
asking
assemb
ateral
imated
rative
▁Exact
▁Girls
▁Nepal
▁Night
▁Prime
▁Stage
▁arise
▁arter
▁breed
▁chore
▁clich
▁incub
▁jumps
▁lakes
▁octop
▁paste
▁rains
▁spraw
▁steer
▁verte
centric
▁Canyon
▁affirm
▁crises
▁fights
▁guided
▁hooked
▁hugely
▁labels
▁mosque
▁overse
▁submar
▁superp
▁toxins
▁traces
attering
idepress
othermal
▁Connect
▁Orleans
▁Redwood
▁categor
▁conspir
▁crowded
▁desktop
▁epiphan
▁flights
▁illiter
▁microbi
▁mundane
▁partial
▁pouring
▁reviews
▁seroton
▁squeeze
▁tactics
▁tattoos
▁thereby
▁urgency
▁worship
▁absorbed
▁aluminum
▁arriving
▁autistic
▁endeavor
▁evaluate
▁executed
▁feminine
▁founders
▁highways
▁implicit
▁inherent
▁observer
▁unaccept
▁velocity
▁veterans
▁celebrity
▁criticism
▁deception
▁extremism
▁meanwhile
▁metabolic
▁providers
▁recession
▁routinely
▁supernova
▁conducting
▁contagious
▁enormously
▁infinitely
▁performers
▁unemployed
▁arrangement
▁dysfunction
▁orientation
▁respiratory
▁authenticity
▁neurological
▁surroundings
▁nanoparticles
Hi
ga
She
VID
aba
aya
blo
ira
ogs
oub
pos
wan
zzy
▁Aw
▁BM
▁Sk
avir
fund
gian
spec
▁16,
▁Ast
▁Imp
▁Ken
▁McC
▁PMS
▁Rel
▁Ron
▁cem
▁piv
▁rap
5,000
aurus
oenix
▁Cher
▁Down
▁Hung
▁buff
▁bush
▁clar
▁cycl
▁inqu
▁leak
▁lips
▁ramp
▁resh
▁taxi
▁verb
alling
anting
crimin
gments
stairs
ugging
urance
urning
▁2016,
▁Early
▁Hindu
▁Tibet
▁Venez
▁adhes
▁annoy
▁cloth
▁coher
▁inert
▁melan
▁moons
▁poets
▁queer
▁recur
▁rides
▁scope
▁skies
▁stunt
▁tails
▁tanks
▁unequ
▁Alaska
▁Ninety
▁Sahara
▁candle
▁feared
▁harbor
▁hybrid
▁indoor
▁laying
▁multit
▁nicely
▁pessim
▁pigeon
▁sticky
▁verbal
specific
▁Environ
▁Hundred
▁Iranian
▁Lebanon
▁Mediter
▁Special
▁condoms
▁eternal
▁fossils
▁impulse
▁inherit
▁posture
▁relying
▁sponsor
▁symptom
▁wasting
▁wounded
▁calendar
▁crashing
▁dementia
▁embodied
▁employed
▁nicotine
▁passions
▁peripher
▁redefine
▁requests
▁scarcity
▁shortcut
▁tortured
▁Secretary
▁academics
▁gratitude
▁indicates
▁partially
▁premature
▁preserved
▁projected
▁prominent
▁promotion
▁rejection
▁serotonin
▁signaling
▁stimulate
engineering
▁automation
▁convention
▁devastated
▁influences
▁objectives
▁physiology
▁prefrontal
▁prescribed
▁renewables
▁solidarity
▁specialist
▁Information
▁antidepress
▁counterpart
▁documenting
▁maintaining
▁psychiatric
▁publication
▁incarcerated
▁marginalized
▁Interestingly
▁Mediterranean
▁configuration
▁exponentially
▁entrepreneurial
▁neuroscientists
-2
New
One
cup
ecd
har
▁1:
▁43
▁44
▁46
▁54
▁CR
▁FG
▁JH
▁Ku
Your
alls
anas
bees
edes
egal
eman
good
iana
onio
umbs
velt
▁Dor
▁Equ
▁Han
▁Mot
▁Sex
▁kin
▁pel
jamin
ritis
▁Hard
▁Mind
▁Work
▁anom
▁cass
▁hats
▁lazy
▁numb
▁pear
▁penn
▁tags
▁wipe
actory
ection
istine
opardy
repres
sticks
▁Beach
▁COVID
▁Himal
▁Norwe
▁Stasi
▁Story
▁Treat
▁anecd
▁essay
▁merit
▁paran
▁poses
▁reads
▁relie
▁reper
▁rival
▁smugg
▁yeast
endment
growing
inators
ophobia
ousands
▁12,000
▁Arabia
▁Notice
▁Thirty
▁cartil
▁darker
▁discou
▁enzyme
▁expose
▁guests
▁miscon
▁mixing
▁precip
▁provoc
▁relies
▁resemb
▁tender
▁triple
▁typing
▁upward
▁washed
oriented
▁Alexand
▁archive
▁budgets
▁flooded
▁gaining
▁iceberg
▁laptops
▁margins
▁outward
▁painter
▁rhythms
▁shepher
▁stadium
▁tracked
▁vibrant
▁weighed
ationally
izational
▁adaptive
▁assemble
▁contexts
▁displace
▁encyclop
▁envelope
▁improves
▁invasive
▁matching
▁quantity
▁scaffold
▁scalable
▁shouting
▁weekends
▁Companies
▁Instagram
▁appealing
▁graduates
▁headaches
▁historian
▁negotiate
▁remembers
▁slaughter
▁synthesis
▁trillions
▁Australian
▁Democratic
▁attributes
▁disappears
▁incomplete
▁innovators
▁predicting
▁repetitive
▁supporters
▁thankfully
▁unfamiliar
▁exclusively
▁recommended
▁stimulation
▁transferred
▁disconnected
▁headquarters
▁manipulation
▁partnerships
▁collaborating
▁investigating
▁photographers
FO
tz
800
ETI
bet
gle
idi
jan
kel
lli
mic
ocy
una
▁Ba
▁MA
▁Sn
AIDS
emia
hops
ilib
inge
ique
▁Bit
▁Die
▁Fal
▁Jen
▁Kos
▁Oak
▁Pay
▁coh
▁spo
azine
backs
ellar
gress
width
▁2010
▁Capt
▁Chap
▁Expl
▁Gaza
▁Line
▁Mans
▁Pers
▁TEDx
▁abol
▁aver
▁deem
▁dual
▁hygi
▁meme
▁oven
▁pean
▁todd
esteem
▁Along
▁Clear
▁Emily
▁Guard
▁Harry
▁Large
▁Matth
▁Often
▁Parks
▁Plato
▁Simon
▁Truth
▁cheer
▁decay
▁favel
▁halls
▁hosts
▁perse
▁pipes
▁polls
▁pumps
▁rooft
▁seals
▁shiny
▁slept
▁stamp
▁sucks
▁taboo
▁union
▁Wright
▁asthma
▁bucket
▁burial
▁chimps
▁microw
▁poured
▁pushes
▁reluct
▁violin
intellig
restrial
▁Certain
▁Exactly
▁Machine
▁Senegal
▁broadly
▁chemist
▁coaches
▁divides
▁expands
▁glamour
▁goddess
▁literal
▁payment
▁penguin
▁placebo
▁protons
▁rehabil
▁silicon
▁volumes
▁Benjamin
▁Cambodia
▁Venezuel
▁approval
▁churches
▁commands
▁controll
▁cylinder
▁damaging
▁directed
▁displays
▁employer
▁obtained
▁recreate
▁sidewalk
▁threaten
▁arbitrary
▁genuinely
▁instances
▁prejudice
▁revealing
▁therapeut
▁vibrating
▁Commission
▁articulate
▁depressing
▁expressing
▁imperative
▁indicators
▁overlooked
▁restricted
▁wilderness
▁worthwhile
▁calculation
▁centimeters
▁inefficient
▁substantial
▁transaction
▁unacceptable
▁intentionally
▁manufacturers
▁unpredictable
EA
LS
▁0
11,
Now
gar
lan
▁64
▁AK
▁AS
▁Ev
▁JA
▁Uk
▁Ur
▁ic
arat
celi
held
hill
idel
inea
iner
otal
plex
veli
wear
▁40-
▁Kim
▁Ori
▁Str
▁cof
▁dye
▁hut
▁lou
▁thy
achel
cuses
digit
erend
ifted
osion
ouver
rying
sight
therm
▁Band
▁Find
▁Sher
▁Stew
▁Test
▁Wait
▁curt
▁emit
▁folk
▁germ
▁horn
▁nour
▁stub
▁trib
anship
energy
everal
igious
irable
ologic
oulder
umatic
▁8,000
▁Given
▁Small
▁appet
▁exams
▁flick
▁fuzzy
▁lined
▁noble
▁postc
▁rolls
▁scand
▁tread
▁uncom
▁uncon
acities
atively
ocratic
olester
sterdam
▁Kansas
▁Kenyan
▁Sounds
▁Steven
▁Wouldn
▁coined
▁donors
▁elders
▁embark
▁flawed
▁jacket
▁plasma
▁potato
▁rabbit
▁retrie
▁ruling
▁shells
▁unseen
ilibrium
▁Looking
▁aligned
▁disagre
▁escaped
▁focuses
▁frontal
▁hallway
▁notions
▁playful
▁sapiens
▁scripts
▁segment
▁thermal
Americans
intuitive
▁McDonald
▁Michigan
▁advertis
▁altruism
▁colleges
▁congress
▁develops
▁donation
▁glorious
▁juvenile
▁procrast
▁reacting
▁resulted
▁revenues
▁sessions
▁suicidal
▁terrific
Beatboxing
controlled
▁Egyptians
▁Europeans
▁affection
▁attacking
▁checklist
▁contracts
▁cultivate
▁eradicate
▁instincts
▁judgments
▁neocortex
▁preferred
▁reconnect
▁attraction
▁blockchain
▁eliminated
▁evaluation
▁fulfilling
▁neurotrans
▁questioned
▁reflecting
▁accompanied
▁adolescence
▁corporation
▁forgiveness
▁interdepend
▁meaningless
▁laboratories
▁standardized
▁personalities
▁spontaneously
Al
EG
TC
600
cur
ded
oln
▁86
▁Ha
▁Wr
▁ow
bery
egas
esty
heit
high
ighs
phor
ribe
rics
uite
▁Adm
▁Arm
▁Ash
▁Coh
▁Loc
▁Mas
▁Max
▁Moh
▁Nam
▁Tar
▁gru
▁lem
▁rip
▁sar
▁wig
ahren
arium
eland
elect
imony
olera
ollow
opian
rowth
wired
▁Beat
▁Cars
▁Mong
▁Mult
▁Neur
▁Nine
▁Nord
▁Oper
▁Vanc
▁clap
▁eats
▁grim
▁ruin
▁tilt
▁warn
celium
inates
ulator
▁Alice
▁Tower
▁amput
▁bikes
▁etern
▁freak
▁mitig
▁petri
▁spike
▁surre
▁swarm
▁theor
▁venom
▁wiped
▁League
▁cockro
▁depict
▁fluids
▁hollow
▁intest
▁liveli
▁melody
▁oftent
▁rushed
▁singer
▁snakes
▁tagged
▁thesis
▁titles
▁Clearly
▁Several
▁adrenal
▁copying
▁deficit
▁dragged
▁elastic
▁fingert
▁octopus
▁optimal
▁puzzles
▁rabbits
▁shaping
▁touches
▁upright
▁watches
▁worries
ahrenheit
▁adequate
▁duration
▁epilepsy
▁epiphany
▁flooding
▁invasion
▁inviting
▁journeys
▁marching
▁mushroom
▁mycelium
▁operator
▁producer
▁realizes
▁Holocaust
▁Hopefully
▁Vancouver
▁cartilage
▁civilians
▁coworkers
▁exclusion
▁extensive
▁injection
▁recruited
▁sequenced
▁visionary
▁adventures
▁anesthesia
▁compressed
▁explicitly
▁hypotheses
▁livelihood
▁oftentimes
▁prevalence
▁projection
▁repetition
▁superpower
▁accelerated
▁coincidence
▁controversy
▁descendants
▁projections
▁scholarship
▁settlements
▁Christianity
▁refrigerator
▁restrictions
▁undergraduate
▁transformations
sk
alo
coc
rep
▁5,
▁98
▁CS
▁DJ
▁JM
▁JS
▁Ky
▁ly
acre
asts
cium
coin
ells
feed
kers
vals
▁13.
▁140
▁18,
▁24-
▁Ara
▁Bor
▁Bot
▁Dom
▁Fox
▁Isa
▁Jam
▁Joy
▁Mos
▁Syl
▁YNH
▁ger
▁mun
▁olf
berty
cules
forms
pound
stood
▁Gall
▁Hold
▁Land
▁SDGs
▁Slow
▁Tues
▁blob
▁dash
▁encl
▁hamb
▁pipe
▁skys
▁smok
▁sque
▁tide
▁yawn
ostics
reated
▁Craig
▁Going
▁cough
▁fairy
▁flush
▁gangs
▁glory
▁hills
▁innoc
▁relev
▁roofs
▁sanct
▁tales
Because
product
▁Better
▁Bhutan
▁Bridge
▁Galile
▁Office
▁assure
▁awards
▁bypass
▁cinema
▁condem
▁cookie
▁crafts
▁elites
▁entity
▁hunter
▁orbits
▁pilots
▁resort
▁retain
▁slogan
▁slowed
▁treaty
▁tweets
▁visits
educated
thermore
▁300,000
▁Company
▁Snowden
▁Tuesday
▁Usually
▁airline
▁arrival
▁catalog
▁cholera
▁compact
▁complim
▁execute
▁faculty
▁honored
▁kidneys
▁lesbian
▁loyalty
▁praying
▁rockets
olesterol
▁Colorado
▁Hercules
▁Magazine
▁Mountain
▁Russians
▁adjacent
▁amygdala
▁arteries
▁cortisol
▁episodes
▁festival
▁jealousy
▁operated
▁quarters
▁receives
▁reserves
▁secretly
▁severely
▁shortage
▁steering
▁temporal
▁visceral
▁warriors
▁Amsterdam
▁adversity
▁audacious
▁commodity
▁concluded
▁declining
▁digitally
▁educators
▁indicator
▁inventors
▁kilograms
▁logistics
▁marriages
▁packaging
▁repeating
▁selective
▁triangles
▁Generation
▁Throughout
▁concussion
▁deliberate
▁fertilizer
▁references
▁translates
▁battlefield
▁eliminating
▁introducing
▁motivations
▁preventable
▁progression
▁regenerative
▁transactions
▁unimaginable
▁developmental
▁understandable
10
DI
FL
di
ja
Pro
arn
dle
iqu
ogy
uma
voc
▁6.
▁CH
▁Ec
▁LE
▁SM
Drum
atin
requ
riet
ylon
▁18-
▁188
▁2.5
▁Att
▁Cir
▁End
▁Ess
▁Mir
▁Sty
▁pne
▁rod
Point
allas
ammed
borne
cials
ffiti
iotic
orial
ppers
regon
style
sycho
▁1800
▁2009
▁Abra
▁Germ
▁Jama
▁Khan
▁Meet
▁Rena
▁SETI
▁argu
▁bent
▁boil
▁carn
▁cups
▁deci
▁dwar
▁iPad
▁nail
▁pine
▁rear
▁swam
▁uter
govern
ignant
irling
resses
ukemia
urated
usalem
▁2001,
▁2018,
▁Alpha
▁Broad
▁Cairo
▁Labor
▁Maria
▁Pitts
▁Radio
▁Siber
▁Solar
▁Starb
▁claws
▁crypt
▁cured
▁ethic
▁lasts
▁overt
▁ozone
▁posts
▁recip
▁shred
▁sword
▁trunk
▁unity
aterial
raising
▁Oregon
▁guides
▁listed
▁metals
▁poorer
▁stated
▁strang
▁thrust
▁ultras
communic
▁400,000
▁Station
▁Stewart
▁beaches
▁bipolar
▁calcium
▁charter
▁compute
▁crashes
▁deserts
▁excuses
▁heights
▁hurting
▁mastery
▁needles
▁persons
▁posters
▁primate
▁relates
▁replied
▁spheres
nutrition
▁Americas
▁Buddhist
▁Building
▁acoustic
▁catalyst
▁cerebral
▁communal
▁constell
▁crystall
▁crystals
▁degraded
▁governed
▁grounded
▁improvis
▁indirect
▁midnight
▁mobilize
▁overload
▁overseas
▁pancreat
▁regional
▁smartest
▁treasure
▁upstream
▁Jerusalem
▁Thousands
▁aggregate
▁decentral
▁diplomacy
▁employers
▁fertility
▁finishing
▁geometric
▁mosquitos
▁protocell
▁shrinking
▁spaceship
▁stretched
▁suspected
▁Alexandria
▁Fahrenheit
▁assessment
▁beginnings
▁conception
▁executives
▁introverts
▁penicillin
▁perceptual
▁playground
▁practition
▁recognizes
▁Renaissance
▁accommodate
▁complaining
▁contributes
▁revolutions
▁spontaneous
▁contaminated
▁establishment
▁statistically
▁photosynthesis
▁experimentation
SE
fi
pa
ems
hed
ioc
lay
pol
▁38
▁FO
▁GC
▁HA
▁IV
▁PV
▁Si
▁eg
▁hi
Star
agle
asso
ctar
dest
eron
etta
ixty
ndry
nels
uled
week
weet
▁13,
▁Cat
▁Coc
▁Dev
▁LHC
▁Lee
▁Pet
▁bod
▁cad
▁gel
▁ion
▁luc
▁rib
bands
exist
geria
ishes
lical
negie
owned
urger
▁Cels
▁Dave
▁Elon
▁Iron
▁Jobs
▁Nazi
▁Wolf
▁bass
▁bion
▁extr
▁fade
▁feat
▁fung
▁jury
▁lane
▁node
▁outf
▁pops
▁void
▁weed
incoln
orable
ussani
veling
▁Cyrus
▁Dream
▁Exper
▁Laden
▁Marie
▁Roose
▁autop
▁bands
▁empir
▁fatty
▁flame
▁peaks
▁shuff
▁squid
▁tenth
▁verge
agement
istance
million
rection
▁Barack
▁Change
▁Listen
▁Modern
▁Sylvia
▁antenn
▁bounce
▁brainw
▁cooked
▁copper
▁flames
▁graphs
▁heated
▁hotter
▁joyful
▁lining
▁nectar
▁repurp
▁ripped
▁smiles
▁update
▁wolves
secution
▁150,000
▁Celsius
▁Doctors
▁Galileo
▁Getting
▁Montana
▁Working
▁amplify
▁boiling
▁captain
▁compost
▁encoded
▁fatigue
▁inspect
▁marched
▁rainbow
▁ratings
▁revenge
▁scanned
▁skyscra
▁strains
▁upwards
▁veteran
astically
ographics
ropolitan
▁Carnegie
▁Giussani
▁Ministry
▁alarming
▁auditory
▁backpack
▁chambers
▁collagen
▁contacts
▁doubling
▁elevated
▁infinity
▁leukemia
▁maneuver
▁notebook
▁payments
▁predicts
▁rotating
▁tackling
▁Roosevelt
▁Starbucks
▁ambiguity
▁arthritis
▁developer
▁distorted
▁inability
▁listeners
▁mushrooms
▁mythology
▁orphanage
▁preschool
▁submitted
▁targeting
▁PowerPoint
▁conspiracy
▁ironically
▁locomotion
▁motorcycle
▁pancreatic
▁programmer
▁satisfying
▁sensations
▁separating
▁temptation
▁certificate
▁cholesterol
▁commodities
▁distinctive
▁equilibrium
▁biologically
▁conditioning
▁developments
▁similarities
▁urbanization
▁complications
▁underestimate
▁mathematically
19
Af
Am
To
Get
abs
bee
bro
cod
erb
fts
ili
uns
▁DR
▁LP
▁SK
▁du
asis
atis
avia
erey
eton
itia
loid
nals
otes
rose
sels
uten
wall
ylan
▁1.3
▁Bru
▁EEG
▁Fer
▁Heb
▁Hun
▁Run
▁Tah
▁Tam
▁Top
▁cum
▁lex
▁obe
▁ooh
▁pup
▁wiz
adder
conds
great
inked
stick
▁Fair
▁Head
▁Laur
▁Mall
▁Marg
▁Near
▁Pete
▁Simp
▁Tele
▁Town
▁Wild
▁buck
▁chee
▁fuse
▁lump
▁monk
▁pier
▁ping
▁rust
▁tire
▁writ
angelo
atable
charge
ivated
puters
social
▁Diego
▁Doesn
▁Kosov
▁Libya
▁Psych
▁Stock
▁Vegas
▁absor
▁bioch
▁blows
▁bonus
▁bribe
▁fills
▁indef
▁irrig
▁lover
▁mirac
▁onset
▁plaus
▁poker
▁pools
▁rally
▁reign
▁sells
▁sonic
▁spawn
▁toast
▁unple
▁width
itorium
sharing
utional
▁Dallas
▁Eighty
▁Falcon
▁Forest
▁Malawi
▁Marine
▁Mathem
▁Police
▁Viking
▁banana
▁benign
▁charts
▁decode
▁deemed
▁relent
▁scroll
▁spouse
▁stakes
▁stitch
▁unexpl
▁Abraham
▁Believe
▁Hawking
▁Lincoln
▁Mexican
▁Patrick
▁abusive
▁amateur
▁capsule
▁cracked
▁equator
▁extends
▁hunters
▁hygiene
▁influen
▁linking
▁magnets
▁mentors
▁mineral
▁nuanced
▁polymer
▁puberty
▁shuttle
▁singers
effective
▁Columbus
▁Monterey
▁Students
▁belonged
▁bleeding
▁borrowed
▁captures
▁commerce
▁disposal
▁ensuring
▁exposing
▁extremes
▁gasoline
▁intermed
▁princess
▁rewarded
▁rotation
▁sometime
▁timeline
▁Norwegian
▁bandwidth
▁container
▁continuum
▁detecting
▁dismissed
▁excessive
▁fishermen
▁illusions
▁interfere
▁mentality
▁nurturing
▁opponents
▁prescribe
▁processor
▁referring
▁streaming
▁summarize
▁superhero
▁telomeres
▁warehouse
▁Depression
▁attempting
▁centimeter
▁comparable
▁dependence
▁measurable
▁parameters
▁simplified
▁starvation
▁transforms
▁unpleasant
▁constrained
▁inexpensive
▁influential
▁instability
▁intentional
▁operational
▁requirement
▁suggestions
▁symmetrical
▁Constitution
▁achievements
▁inflammation
▁malnutrition
▁nevertheless
▁conservatives
▁corresponding
▁presentations
▁neuroscientist
▁representatives
BC
Fi
300
cca
fig
lah
▁3-
▁CN
▁GS
▁Ly
▁NI
▁RH
addy
anol
core
ders
leys
prot
rost
stan
with
zona
▁Est
▁Kle
▁Les
▁Non
▁PET
▁Sel
▁cel
▁ecl
▁lip
▁rav
Great
These
adequ
break
ensed
fting
ights
▁2005
▁2015
▁Fear
▁LEGO
▁Live
▁Plus
▁Rick
▁angi
▁bund
▁curs
▁dood
▁jugg
▁myst
▁nick
▁owns
▁piss
▁rept
▁stir
▁tink
abytes
achers
ankton
atized
change
irming
▁Beaut
▁Dylan
▁Fried
▁Group
▁Miami
▁Sadly
▁admin
▁arrog
▁atroc
▁chalk
▁clips
▁dried
▁drift
▁erase
▁fines
▁icons
▁monks
▁prest
▁scare
▁sting
▁tense
▁versa
▁waist
aghetti
blowing
gically
itories
pically
ultural
▁Friend
▁Invest
▁Planet
▁Yellow
▁beetle
▁behold
▁coding
▁cooler
▁doomed
▁gently
▁litter
▁louder
▁refers
▁scaled
▁serial
▁sloths
▁sprawl
▁thirds
▁verify
▁wander
appiness
building
ceptions
▁Arizona
▁Germans
▁Madison
▁Natural
▁Program
▁behaves
▁biomass
▁coupled
▁epidemi
▁feather
▁fleeing
▁glowing
▁inadequ
▁manages
▁millise
▁pressed
▁pricing
▁refined
▁relaxed
▁satisfy
▁thunder
▁vitamin
efficient
inational
▁attended
▁bothered
▁consolid
▁declined
▁journals
▁periodic
▁persever
▁planners
▁rainfall
▁rhetoric
▁sensible
▁sickness
▁sneakers
▁troubled
▁underway
▁Currently
▁attribute
▁bacterium
▁certified
▁cognition
▁olfactory
▁parasites
▁reporters
▁requiring
▁volcanoes
▁voluntary
▁withstand
▁wrestling
▁astounding
▁atrocities
▁classified
▁collisions
▁committing
▁networking
▁officially
▁pollutants
▁preserving
▁pretending
▁rebuilding
▁reflective
▁responsive
▁substitute
▁translator
▁Philippines
▁anticipated
▁conclusions
▁deprivation
▁manipulated
▁masterpiece
▁storyteller
▁Neanderthals
▁acknowledged
▁commissioned
▁dictatorship
▁prostitution
▁psychiatrist
▁consideration
▁embarrassment
bn
ht
fty
imm
▁SO
Good
arts
cord
hall
hole
ikes
irls
math
obos
scar
yota
▁12.
▁186
▁Bat
▁Hit
▁Maj
▁Muh
▁SMS
▁Syd
▁Tai
▁eco
▁tyr
▁wax
▁zip
arial
bbing
bound
cture
ennes
eterm
gebra
riage
roots
third
▁2014
▁Balt
▁Dark
▁Lady
▁cops
▁fame
▁feas
▁foll
▁goat
▁grie
▁hydr
▁scor
▁swap
▁vend
agging
ailing
apagos
giving
igrade
istrib
ppling
retion
strong
ucking
▁Model
▁Royal
▁Scand
▁Whole
▁antid
▁boots
▁dealt
▁fetus
▁firms
▁goats
▁handy
▁hunch
▁saves
▁scars
▁setup
▁templ
▁tiger
balance
fashion
idelity
lasting
massive
▁Garden
▁Johann
▁Living
▁Sophie
▁absent
▁arrows
▁cathed
▁colder
▁fungus
▁glance
▁innate
▁redund
▁warned
▁welcom
appropri
▁Captain
▁Control
▁Country
▁Oakland
▁Somehow
▁Studies
▁bananas
▁beetles
▁charism
▁cleaned
▁collide
▁derived
▁dismant
▁exhilar
▁flipped
▁invaded
▁nurture
▁opioids
▁outdoor
▁possess
▁shallow
▁signing
▁sparked
▁untouch
▁uranium
▁Colombia
▁Computer
▁Hundreds
▁airports
▁animated
▁backward
▁baseline
▁demanded
▁deterior
▁foremost
▁impaired
▁inferior
▁inspires
▁miracles
▁nonsense
▁petition
▁protagon
▁searched
▁secondly
▁stripped
▁stubborn
▁suburban
▁sweeping
▁sympathy
▁terminal
resolution
▁Galapagos
▁Jefferson
▁Venezuela
▁appearing
▁detectors
▁educating
▁lifetimes
▁metaphors
▁resonance
▁schooling
▁spaghetti
▁stabilize
▁thickness
▁capitalist
▁classmates
▁contradict
▁disgusting
▁encounters
▁maintained
▁obligation
▁outrageous
▁pedestrian
▁revelation
▁stretching
▁supposedly
▁symmetries
▁butterflies
▁conferences
▁convenience
▁distraction
▁incremental
▁intuitively
▁negotiating
▁prosecutors
▁specialists
▁acceleration
▁manufactured
▁preservation
▁comprehensive
▁functionality
▁multinational
▁environmentally
")
Un
dem
fol
nie
opa
tha
ths
two
whe
yes
▁5.
▁Er
▁GK
▁Ju
▁WH
▁oy
abel
ante
aser
cile
cuse
gage
ipse
mart
ocks
rina
tion
uate
▁125
▁185
▁50,
▁ALS
▁Dal
▁Dec
▁Inc
▁Row
▁Vis
▁bay
▁gir
▁onc
▁pap
▁ram
▁rud
▁wob
achus
amily
ammad
ccoli
iants
imore
integ
liver
ority
otent
pable
ribes
uitar
▁Bali
▁Case
▁Corn
▁Edin
▁Self
▁Trad
▁UCLA
▁Wood
▁aged
▁eyeb
▁frog
▁guts
▁heck
▁hect
▁inad
▁lend
▁lied
▁lith
▁orth
▁pave
▁rows
▁sums
▁symb
▁util
▁whip
celled
incere
mother
nesota
saving
▁2010.
▁Check
▁Irish
▁Kelly
▁Linux
▁Point
▁Polit
▁Princ
▁Susan
▁arous
▁bleed
▁crawl
▁enact
▁hairs
▁hobby
▁loops
▁petro
▁plots
▁pragm
▁prone
▁rainy
▁reply
▁reuse
▁scrut
▁swear
▁towel
ensions
▁Corpor
▁Sydney
▁Tennes
▁assass
▁autobi
▁backed
▁ballet
▁clicks
▁creepy
▁embryo
▁folded
▁forens
▁intend
▁modify
▁praise
▁replen
▁roller
▁strive
▁taxpay
▁twenty
▁uterus
▁vastly
▁wiring
▁wished
▁Android
▁Digital
▁Himalay
▁Scandin
▁augment
▁binding
▁crosses
▁devised
▁imposed
▁laundry
▁pillars
▁seasons
▁unaware
▁unified
▁vulture
cientific
ventional
▁Language
▁Learning
▁Margaret
▁chapters
▁conceive
▁credible
▁daunting
▁depended
▁dividing
▁emergent
▁emphasis
▁featured
▁flashing
▁guessing
▁headache
▁immersed
▁opposing
▁programm
▁tolerate
▁volcanic
▁welcomed
▁Edinburgh
▁Minnesota
▁Princeton
▁balancing
▁brutality
▁competent
▁epidemics
▁heartbeat
▁inventing
▁populated
▁powerless
▁undermine
▁workshops
▁Pittsburgh
▁analytical
▁filmmakers
▁guidelines
▁historians
▁insecurity
▁linguistic
▁persistent
▁reasonably
▁recordings
▁rediscover
▁regulatory
▁adolescents
▁appreciated
▁determining
▁diagnostics
▁mindfulness
▁pedestrians
▁restorative
▁wavelengths
▁enthusiastic
▁polarization
▁quantitative
▁subconscious
▁decentralized
▁determination
▁industrialized
▁reconstruction
--
CT
IN
Mr
PP
RN
ju
May
but
dep
pen
ppy
rup
ugs
umn
▁'8
▁Az
▁DP
▁DS
▁GG
▁IP
▁IT
▁RO
▁eB
▁eu
arms
chin
drop
etra
etts
iege
imps
mble
nity
odox
onto
ours
star
them
▁16-
▁Ent
▁Inf
▁ank
▁avo
▁bos
▁eur
▁hay
aders
found
idays
ieces
isure
ivate
ogues
otive
phing
rovir
unted
watch
write
▁"...
▁Buff
▁CERN
▁Kath
▁Vill
▁apoc
▁barg
▁clam
▁coco
▁curb
▁dude
▁dull
▁exos
▁goss
▁gran
▁hips
▁keen
▁menu
▁plun
▁rode
▁sang
▁sync
▁womb
aments
ancial
coccus
headed
ifteen
lahoma
locked
threat
▁Build
▁Forty
▁Hyper
▁Keith
▁Namib
▁Oprah
▁Saint
▁afflu
▁allev
▁beams
▁blade
▁burns
▁centr
▁curse
▁drums
▁dwarf
▁exert
▁exile
▁frogs
▁heels
▁irrit
▁nails
▁overf
▁pixel
▁rearr
▁tones
aration
hearted
solving
▁Engine
▁abuses
▁ambass
▁ballot
▁basics
▁bodily
▁county
▁crunch
▁erotic
▁forbid
▁fueled
▁glands
▁hacked
▁hotels
▁impose
▁incons
▁intang
▁mantra
▁polite
▁pulses
▁subset
▁tablet
▁throws
▁weaker
aterials
lication
▁Matthew
▁Windows
▁avoided
▁blanket
▁cabinet
▁dispers
▁distort
▁fearful
▁freeway
▁guessed
▁incomes
▁leisure
▁madness
▁mammoth
▁mindful
▁obscure
▁readily
▁seafood
▁seizure
▁spotted
▁suffers
▁textile
▁tunnels
▁varying
achusetts
traumatic
▁Brothers
▁Hamilton
▁Intellig
▁Medicine
▁Nowadays
▁Universe
▁ancestry
▁bicycles
▁brighter
▁composer
▁dominate
▁drowning
▁fighters
▁founding
▁graffiti
▁husbands
▁inadvert
▁injected
▁magician
▁reactors
▁shepherd
▁tourists
▁uploaded
▁Antarctic
▁Baltimore
▁Tennessee
▁addictive
▁addresses
▁collapses
▁coronavir
▁databases
▁defending
▁discourse
▁disparity
▁donations
▁endlessly
▁energetic
▁fireflies
▁ingenious
▁institute
▁intrinsic
▁messaging
▁predatory
▁prevalent
▁rectangle
▁simulated
▁sovereign
▁surrender
▁waterfall
▁Especially
▁appliances
▁complained
▁facilitate
▁fingertips
▁grassroots
▁liberation
▁microorgan
▁pesticides
▁positively
▁preference
▁skepticism
▁ultrasound
▁Essentially
▁calculating
▁definitions
▁incorporate
▁rainforests
▁residential
▁temporarily
▁trustworthy
▁ventilation
▁volunteered
▁wonderfully
▁Michelangelo
▁arrangements
▁astronomical
▁fluctuations
▁interviewing
▁characterized
▁effectiveness
▁accomplishments
pm
Our
atl
dad
eid
eno
gue
odd
sea
uru
▁8,
▁96
▁AR
▁CM
▁HW
▁Ut
Cola
assy
bury
ilia
name
pora
uper
ymph
▁Cru
▁Emb
▁Hot
▁Kah
▁Lew
▁Pur
▁Rap
▁Rus
▁Wel
▁ape
▁cyc
▁gad
▁gle
▁jan
▁jaw
▁lid
▁ray
birth
black
fires
iguel
illes
ilson
isive
named
onics
▁2016
▁Ages
▁Anne
▁Coca
▁Dead
▁Full
▁Pass
▁Rica
▁Stay
▁Whoa
▁actu
▁buys
▁corp
▁doct
▁eBay
▁foie
▁hind
▁mast
▁mock
▁nerd
▁pity
▁puff
action
aspora
obiles
ourced
rophys
uclear
▁1998,
▁2,500
▁2000.
▁Bruce
▁Dougl
▁Indus
▁Innov
▁Mayor
▁Pause
▁Uncle
▁bulbs
▁choir
▁crank
▁deleg
▁drank
▁firef
▁flock
▁gamma
▁kilos
▁kings
▁lemon
▁mates
▁riots
▁ruins
▁scuba
▁secre
▁seize
▁stole
ersonal
initely
uestion
▁Fourth
▁Hitler
▁Norden
▁Poland
▁Romans
▁bionic
▁bloody
▁cellul
▁expend
▁gossip
▁hazard
▁hyster
▁improb
▁insign
▁invade
▁lasers
▁liters
▁mortal
▁nostal
▁plural
▁radius
▁rebell
▁sealed
▁suprem
▁turtle
▁whites
▁yields
positive
▁500,000
▁Bitcoin
▁Ukraine
▁alleged
▁applaud
▁casting
▁cleared
▁confess
▁conform
▁confuse
▁costume
▁curator
▁debates
▁enlight
▁heavier
▁hosting
▁mandate
▁prayers
▁quicker
▁ranking
▁smokers
▁squared
▁strokes
▁trailer
▁unequal
awareness
fashioned
fficiency
ocumented
▁Economic
▁Franklin
▁Johannes
▁Jonathan
▁Millions
▁Muhammad
▁Oklahoma
▁Portugal
▁advocacy
▁athletic
▁behaving
▁bouncing
▁constitu
▁daylight
▁defeated
▁holistic
▁immunity
▁implants
▁insecure
▁liberals
▁moisture
▁pinpoint
▁printers
▁speeding
▁switches
▁toughest
▁Different
▁Evolution
▁Palestine
▁brightest
▁counselor
▁detention
▁equitable
▁filmmaker
▁horrified
▁implanted
▁offensive
▁reprogram
▁scattered
▁startling
▁troubling
▁witnesses
▁Conference
▁auditorium
▁harvesting
▁indication
▁multiverse
▁synthesize
▁vertically
▁withdrawal
▁Governments
▁commitments
▁radioactive
▁superheroes
▁associations
▁circumstance
▁encyclopedia
▁grandmothers
▁modification
▁negotiations
▁Massachusetts
▁perfectionism
▁concentrations
▁demonstrations
):
Bl
ba
hh
ECD
aka
any
bin
ikh
opt
pot
uda
vet
▁CB
▁CT
▁NY
▁Ow
▁ze
ader
bell
burn
ifle
ilot
inas
insp
itty
otto
quer
rove
soon
▁25,
▁Bad
▁Bah
▁Bal
▁Gab
▁Gam
▁Hur
▁Kam
▁Kay
▁Lev
▁Neg
▁Ric
▁Tas
▁bol
▁cue
▁umb
▁upl
▁vom
Afric
annah
asure
azing
brain
eming
frame
ibles
lined
lived
opoly
scape
story
three
ucked
▁1940
▁Bert
▁Cass
▁Club
▁Cuba
▁Help
▁Hond
▁Joel
▁Lisa
▁Marx
▁OECD
▁Pict
▁Rosa
▁Thus
▁asph
▁bron
▁dome
▁fork
▁grip
▁herd
▁hust
▁larv
▁outd
▁phos
▁stab
▁stap
flight
houses
rising
terior
▁1994,
▁2050.
▁Chuck
▁Danny
▁Field
▁Isaac
▁Skype
▁Sound
▁Techn
▁Trade
▁Trust
▁acted
▁antip
▁cardi
▁crows
▁demol
▁demon
▁disgu
▁elbow
▁hears
▁leaks
▁misle
▁nerdy
▁parag
▁pneum
▁poles
▁sniff
▁spear
▁swamp
▁tract
▁unite
▁veins
artheid
ritious
rolling
versely
▁Cooper
▁Joshua
▁Kosovo
▁Norman
▁Oliver
▁Origin
▁Taiwan
▁Wonder
▁angels
▁backup
▁brakes
▁carved
▁cleans
▁dining
▁drople
▁gallon
▁gamers
▁gloves
▁hacker
▁impair
▁judged
▁metast
▁misery
▁prompt
▁proves
▁queens
▁quotes
▁rubble
▁stance
▁starch
▁treats
▁zeroes
esthesia
riptions
ynthetic
▁Already
▁Austria
▁Between
▁Federal
▁Phoenix
▁Service
▁Stories
▁apparat
▁arrives
▁bankers
▁bladder
▁compose
▁congrat
▁congreg
▁cookies
▁crashed
▁erosion
▁grandma
▁heavens
▁infants
▁leopard
▁morally
▁patches
▁precurs
▁premium
▁proving
▁recipes
▁regrets
▁resting
▁ringing
▁scandal
▁sincere
▁submers
▁surplus
▁tallest
▁temples
▁thirdly
▁tourism
▁turtles
▁yelling
condition
generated
sensitive
▁Jennifer
▁adapting
▁antidote
▁appetite
▁arguably
▁charging
▁dictator
▁examined
▁explorer
▁harmless
▁impulses
▁incentiv
▁inconven
▁maternal
▁meanings
▁paradise
▁pioneers
▁promoted
▁reserved
▁resonate
▁rigorous
▁searches
▁simplify
▁symphony
▁walkable
▁workshop
▁Typically
▁advocates
▁cellphone
▁charities
▁conceived
▁conductor
▁displayed
▁incidents
▁incorrect
▁intensely
▁legendary
▁ministers
▁relevance
▁reservoir
▁rewarding
▁submarine
information
▁accidental
▁administer
▁attachment
▁censorship
▁correlated
▁counseling
▁exhausting
▁explosions
▁geographic
▁limitation
▁membership
▁nutritious
▁predictive
▁prosperous
▁recruiting
▁reinforced
▁subsequent
▁thoughtful
▁toothbrush
▁Republicans
▁accumulated
▁credibility
▁immortality
▁inhabitants
▁lightweight
▁nationality
▁negotiation
▁availability
▁demographics
▁imaginations
▁incidentally
▁intimidating
▁invisibility
▁manufacturer
▁multitasking
▁perpetrators
▁Enlightenment
▁differentiate
▁misunderstood
▁identification
▁organizational
At
IA
400
acc
aic
aus
iry
isp
saw
six
ulg
ulu
▁Ep
▁JR
▁SU
▁TS
List
agne
arin
asha
axis
bons
bour
cils
geon
▁13-
▁204
▁99.
▁Aud
▁Bow
▁CAR
▁Cas
▁Exp
▁Occ
▁Tem
▁bid
▁cyn
▁hid
▁mol
▁por
▁soy
▁une
▁xen
abric
annel
green
ibati
mount
onies
otech
ucker
walks
wheel
▁100,
▁200-
▁Bear
▁Duke
▁Ivan
▁Pear
▁Pope
▁Pyth
▁Type
▁boot
▁bulk
▁bunk
▁coch
▁inex
▁lobe
▁mour
▁neph
▁slum
▁spar
▁unch
▁vest
▁yell
Guitar
astery
edical
icides
ousing
rovert
states
uctive
ursday
▁2015.
▁Allan
▁Based
▁Index
▁Liter
▁Robin
▁Roger
▁Wales
▁aimed
▁binds
▁bites
▁boson
▁buddy
▁cater
▁flown
▁hover
▁idiot
▁jails
▁masks
▁mercy
▁niece
▁reset
▁scent
▁shade
▁shook
▁slope
▁sunny
▁wreck
imagine
inative
limited
▁Agency
▁Guinea
▁Hebrew
▁Johnny
▁Reagan
▁Tasman
▁Turing
▁armies
▁artery
▁bombed
▁crocod
▁fishes
▁giants
▁givers
▁inputs
▁junior
▁larvae
▁marshm
▁mayors
▁optics
▁pirate
▁portal
▁remitt
▁rented
▁shores
▁sulfur
▁sunset
▁uncont
▁unions
▁united
▁wallet
▁warmth
activity
itations
▁Ancient
▁Fortune
▁Katrina
▁Knowing
▁Koreans
▁Siberia
▁Titanic
▁annoyed
▁bravery
▁coating
▁commute
▁customs
▁dispens
▁durable
▁emailed
▁ethanol
▁evident
▁evolves
▁gradual
▁guiding
▁humming
▁invites
▁lacking
▁lifting
▁metrics
▁modular
▁payload
▁pharmac
▁pigment
▁popping
▁servers
▁stimuli
▁summary
▁tropics
▁volcano
wandering
▁Independ
▁Kiribati
▁Normally
▁Thursday
▁bankrupt
▁broccoli
▁browsing
▁claiming
▁climbers
▁coherent
▁concerts
▁crushing
▁discount
▁governor
▁happiest
▁ignoring
▁marginal
▁memorize
▁moderate
▁outdoors
▁pipeline
▁predomin
▁sediment
▁solitary
▁stewards
▁surveyed
▁tolerant
▁tomatoes
ysomething
▁Democracy
▁Financial
▁advancing
▁alignment
▁apparatus
▁astrophys
▁companion
▁conquered
▁decreases
▁disparate
▁dominance
▁exquisite
▁extending
▁kilometer
▁marvelous
▁necessity
▁regulated
▁stretches
▁swallowed
▁testimony
▁unfolding
▁aesthetics
▁biomedical
▁brilliance
▁casualties
▁conscience
▁continuity
▁eradicated
▁expressive
▁geological
▁internship
▁overcoming
▁overweight
▁randomness
▁strengthen
▁weaknesses
▁abstraction
▁atmospheres
▁centralized
▁collections
▁commercials
▁disparities
▁flourishing
▁millimeters
▁recruitment
▁superpowers
▁therapeutic
▁universally
▁constructive
▁descriptions
▁stratosphere
▁heartbreaking
▁inadvertently
▁accomplishment
▁investigations
▁nanotechnology
▁rehabilitation
An
CD
fu
ko
aug
bec
dog
egu
iro
oam
obo
ois
sky
▁6,
▁Ek
▁GM
▁HP
▁Pu
▁SR
help
isen
mann
orrh
weed
your
▁450
▁Ach
▁CPU
▁DAR
▁Ker
▁Lyn
▁McK
▁Mes
▁Nar
▁Use
▁Wil
▁nud
▁spy
▁vet
Women
check
edged
gling
graph
matic
ogene
ogged
pical
steps
uture
venty
▁100-
▁100.
▁Farm
▁Form
▁Greg
▁Milo
▁Mosc
▁Trek
▁Troy
▁axes
▁bald
▁derm
▁eman
▁gosh
▁hump
▁lamb
▁maze
▁nutr
▁perf
▁pits
▁sket
▁unra
▁veil
▁wand
Listen
contin
cribed
elines
ership
odynam
ordial
uccess
▁1990,
▁1995,
▁Allen
▁Board
▁Cross
▁Freud
▁Glass
▁antim
▁beans
▁boils
▁brink
▁bumps
▁chemo
▁cries
▁cubes
▁downs
▁draft
▁dwell
▁enfor
▁excav
▁greed
▁hence
▁illeg
▁neutr
▁ninth
▁olive
▁optic
▁ridge
▁semic
▁spong
▁stagn
▁teddy
▁traff
▁voter
▁watts
▁weave
mitters
▁Across
▁Athens
▁Avenue
▁Copern
▁Doctor
▁Incred
▁Making
▁Matter
▁Mongol
▁Nicole
▁Simply
▁Warren
▁Wilson
▁aiming
▁arises
▁balcon
▁blamed
▁bursts
▁castle
▁condom
▁daring
▁fooled
▁nephew
▁orgasm
▁prince
▁prover
▁psycho
▁ruined
▁safegu
▁stacks
▁syring
▁tennis
▁timber
▁yogurt
cussions
ilateral
▁Cameron
▁Challen
▁Namibia
▁Neither
▁Perfect
▁Tunisia
▁barbers
▁cascade
▁catches
▁caution
▁costing
▁dissect
▁gallons
▁guesses
▁harming
▁implies
▁isolate
▁legitim
▁lowered
▁monarch
▁outlets
▁overlap
▁pension
▁regimes
▁rehears
▁rightly
▁screwed
▁sneaker
▁suburbs
▁thinner
▁vibrate
ciliation
▁Standard
▁archives
▁destined
▁drilling
▁enhanced
▁escaping
▁eternity
▁integral
▁killings
▁mistaken
▁nutrient
▁packaged
▁puzzling
▁quantify
▁receiver
▁rendered
▁silently
▁sketches
▁suitable
▁tempting
▁unwanted
▁virtuous
▁Amendment
▁Certainly
▁Mountains
▁adaptable
▁byproduct
▁contacted
▁delighted
▁descended
▁generator
▁intercept
▁masculine
▁monitored
▁partnered
▁penetrate
▁protocols
▁shattered
▁surprises
represented
▁Thankfully
▁caregivers
▁cartoonist
▁complement
▁criticized
▁excellence
▁fragmented
▁graduation
▁intangible
▁multiplied
▁nationwide
▁persuasion
▁presidents
▁prosecutor
▁segregated
▁thoroughly
▁undercover
▁workplaces
▁friendships
▁humiliation
▁integrating
▁persecution
▁prototyping
▁sustainably
▁broadcasting
▁commercially
▁counterparts
▁entertaining
▁interconnect
▁investigated
▁participated
▁storytellers
▁supermassive
▁supercomputer
▁superintellig
".
Je
Le
NC
-20
MRI
amy
awa
eye
fus
ipe
pop
riv
xit
▁41
▁58
▁68
▁88
▁91
▁93
▁FI
▁MO
▁MP
▁PI
▁RG
▁RM
▁Uh
▁WG
abin
airy
arry
bish
cury
eros
isha
lemn
lene
look
mond
pill
rock
umen
▁--"
▁15.
▁40,
▁Arn
▁Bes
▁Gay
▁Hor
▁Kan
▁Nap
▁Pap
▁Rub
▁Tay
▁agn
▁dum
▁dup
▁fax
▁omn
armed
icorn
idity
metic
occup
otics
rophy
theon
trans
utnik
▁Best
▁Cook
▁Dean
▁Kent
▁LEDs
▁Lama
▁Mald
▁Nich
▁Pier
▁Pink
▁culm
▁guer
▁gymn
▁hers
▁obit
▁peel
▁plut
▁riot
▁tect
awatts
belief
course
istent
itutes
▁2008.
▁Aaron
▁Brain
▁Jerry
▁Paulo
▁Rover
▁Vinci
▁accus
▁acron
▁alleg
▁arose
▁batch
▁brake
▁cargo
▁crabs
▁crane
▁crown
▁diets
▁emits
▁excer
▁geeks
▁grabs
▁hello
▁loser
▁maths
▁obliv
▁posit
▁sciss
▁sloth
▁sneak
▁wears
athetic
billion
keeping
olithic
prising
ulatory
veloped
▁Behind
▁Bosnia
▁Edison
▁Energy
▁Harlem
▁Latino
▁Miguel
▁Moscow
▁Prison
▁Toyota
▁advers
▁assert
▁banker
▁capill
▁clitor
▁compli
▁dental
▁devote
▁embody
▁humane
▁laughs
▁locate
▁nuclei
▁poetic
▁prophe
▁recycl
▁regist
▁socioe
▁solely
▁traded
antastic
centered
irection
▁Babylon
▁Jackson
▁Millenn
▁Shortly
▁Univers
▁advised
▁advisor
▁algebra
▁assumes
▁barrels
▁bearing
▁biotech
▁bullets
▁craving
▁cruelty
▁darkest
▁furious
▁geology
▁ideally
▁longing
▁municip
▁offline
▁rushing
▁stacked
▁sterile
▁storing
▁sulfide
▁threads
▁tougher
▁unthink
▁Moreover
▁Speaking
▁campfire
▁efficacy
▁enduring
▁energies
▁excluded
▁finances
▁freaking
▁freedoms
▁ignorant
▁infamous
▁interfer
▁mastered
▁migrated
▁narrator
▁potatoes
▁provider
▁punished
▁relieved
▁republic
▁resemble
▁salaries
▁seasonal
▁snapshot
▁strictly
▁subtract
▁suitcase
performing
▁afterward
▁circuitry
▁corridors
▁extremist
▁immersive
▁kidnapped
▁limestone
▁limitless
▁microwave
▁paperwork
▁pioneered
▁pneumonia
▁poisoning
▁redistrib
▁sanctuary
▁sentenced
▁skeletons
▁supercond
▁unrelated
▁vibration
appropriate
threatening
▁astronomer
▁automotive
▁companions
▁connectome
▁contracept
▁downloaded
▁driverless
▁extremists
▁freshwater
▁globalized
▁inadequate
▁irrigation
▁minorities
▁occupation
▁simplistic
▁suspension
▁tragically
▁turbulence
ographically
▁appointment
▁campaigning
▁continually
▁coordinated
▁dragonflies
▁implication
▁methodology
▁reinventing
▁constructing
▁installations
▁socioeconomic
▁substantially
▁unsustainable
▁representations
-3
HA
Of
Pe
Sm
rd
Con
RNA
isk
yss
▁56
▁66
▁84
▁DI
▁Ig
▁KA
Dear
Give
Life
anti
coal
door
elta
iler
iley
ilst
riad
text
ults
uned
wave
▁19,
▁21,
▁30.
▁Ark
▁Fem
▁III
▁McG
▁Mrs
▁Ott
▁Pra
▁Rod
▁cer
▁cri
▁ded
▁icy
▁lur
▁lyn
▁mes
▁swo
▁tid
aires
choma
cular
image
ipper
marks
ounce
pples
ronts
uddin
uddle
years
▁2006
▁Anim
▁Buck
▁Dise
▁Kind
▁Maur
▁Nash
▁Shir
▁Tree
▁Verm
▁Virt
▁Were
▁Wide
▁bark
▁bury
▁cans
▁clut
▁coer
▁doom
▁envy
▁fMRI
▁gait
▁geek
▁hott
▁jets
▁mete
▁mism
▁pads
▁rude
▁succ
▁tops
▁unin
Really
ancies
arring
atomic
rorism
▁2030.
▁Airbn
▁Andre
▁Barry
▁Buddh
▁Delta
▁Enter
▁Grace
▁Guess
▁Helen
▁Intel
▁Judge
▁Lewis
▁Sixty
▁ashes
▁beast
▁bloss
▁caric
▁cease
▁chord
▁fonio
▁gramm
▁juris
▁merge
▁pasta
▁perme
▁rabbi
▁ropes
▁ruler
▁scram
▁swept
▁vague
▁vents
amation
blowers
chester
discipl
ifiable
igation
▁80,000
▁Archim
▁Europa
▁Ground
▁Justin
▁Orwell
▁Report
▁Simple
▁Venice
▁agrees
▁append
▁avatar
▁blacks
▁camels
▁cereal
▁chunks
▁closes
▁disson
▁dyslex
▁encode
▁framed
▁gifted
▁giraff
▁handic
▁harmed
▁inspir
▁inward
▁levers
▁medioc
▁microm
▁mighty
▁plague
▁popped
▁primal
▁refine
▁scares
▁sewage
▁slices
▁spikes
▁sprint
▁stereo
▁sucked
▁summon
▁teamed
▁twelve
▁unreal
Cheering
▁Picasso
▁Russell
▁Sputnik
▁TEDTalk
▁adverse
▁amyloid
▁analyst
▁aquatic
▁aspirin
▁basking
▁bounded
▁coexist
▁conquer
▁dehuman
▁dialect
▁eclipse
▁emitted
▁excerpt
▁filming
▁indoors
▁marking
▁packets
▁pirates
▁qualify
▁quarant
▁quieter
▁statues
▁sticker
▁thinker
▁undergo
▁upgrade
organized
▁Patients
▁Portland
▁audition
▁blessing
▁bureaucr
▁cheering
▁doughnut
▁dragging
▁enrolled
▁forwards
▁immortal
▁investor
▁landfill
▁monument
▁outdated
▁reactive
▁regarded
▁sideways
▁silenced
▁survives
▁suspects
▁alternate
▁appointed
▁biosphere
▁committee
▁crucially
▁disrupted
▁dissolved
▁encrypted
▁forbidden
▁galleries
▁immensely
▁inventory
▁memorable
▁motivates
▁performer
▁perpetual
▁proposing
▁reception
▁reimagine
▁spreadshe
▁threatens
▁violently
▁welcoming
▁anatomical
▁compatible
▁containers
▁converting
▁extraction
▁humanities
▁internally
▁intuitions
▁organizers
▁primordial
▁protesters
▁relational
▁replicated
▁respectful
▁sacrifices
▁standpoint
▁supplement
▁vegetation
▁Sustainable
▁adaptations
▁automobiles
▁commonplace
▁cybercrimin
▁eradication
▁manuscripts
▁nutritional
▁persistence
▁protections
▁revelations
▁seriousness
▁angiogenesis
▁collaborator
▁complexities
▁dictionaries
▁milliseconds
▁performances
▁policymakers
▁programmable
communications
▁acidification
▁instinctively
▁investigative
▁manifestation
▁technologists
▁contradictions
▁internationally
0-
99
BO
hr
wa
:00
Spe
aga
aho
avi
izz
lad
lit
osa
sim
▁82
▁Du
▁Gw
▁PA
▁RP
▁Rh
▁UA
Stop
Sure
bird
eard
edal
htag
icus
icut
ieth
imba
lend
peer
phal
phem
rosc
rypt
tage
uson
▁1.4
▁18.
▁360
▁60-
▁Cle
▁Dri
▁Dun
▁Got
▁Hou
▁NFL
▁Ple
▁Sym
▁TKM
▁Von
▁bru
▁cuc
▁gum
▁hoc
▁huh
▁lag
ahili
akota
ambia
chond
count
ettes
grown
iates
ifier
thest
uling
▁1920
▁2020
▁Cart
▁Cast
▁Fore
▁Gogh
▁Holy
▁Jess
▁Kant
▁MoMA
▁Need
▁Plan
▁Poll
▁Prin
▁Rule
▁Upon
▁agon
▁aids
▁awak
▁fang
▁halt
▁lure
▁mash
▁snee
▁soda
▁wets
▁zomb
achine
alking
entine
erting
estial
gather
iative
ivable
oliath
racist
usters
▁1,200
▁2002,
▁2030,
▁Block
▁Dalai
▁Johns
▁Kyoto
▁Magic
▁Moses
▁Samar
▁Serge
▁Vicky
▁agile
▁burgl
▁carve
▁compr
▁exopl
▁filed
▁flaws
▁goose
▁grind
▁groom
▁lymph
▁melts
▁monet
▁nause
▁noted
▁outwe
▁peril
▁pilgr
▁procl
▁revis
▁seeks
▁sober
▁sonar
▁spins
▁steak
▁stems
▁titan
▁wield
cigaret
ensible
imental
oration
ountain
tension
▁Brexit
▁Buddha
▁Desert
▁Effect
▁Follow
▁Marcus
▁Morgan
▁Murray
▁Parker
▁Philip
▁Samuel
▁Stella
▁Surely
▁acquis
▁allerg
▁anchor
▁attent
▁births
▁buffer
▁clocks
▁dispos
▁echoes
▁encomp
▁graves
▁lacked
▁lastly
▁liking
▁losers
▁phases
▁pillar
▁precon
▁prints
▁regain
▁solemn
▁spines
▁suspic
▁tasted
▁thirst
▁thumbs
▁unders
▁valves
▁wildly
aculture
conflict
speaking
▁Besides
▁Command
▁Toronto
▁apocaly
▁blaming
▁blindly
▁camping
▁clicked
▁degrade
▁elusive
▁flatten
▁flavors
▁foolish
▁framing
▁hashtag
▁hottest
▁impover
▁learner
▁lengths
▁lithium
▁mounted
▁plummet
▁pumping
▁ripples
▁sexting
▁springs
▁surreal
▁thorium
▁tiniest
▁tourist
▁viewers
▁warrant
icultural
odynamics
▁Maldives
▁TEDsters
▁adopting
▁approxim
▁aviation
▁builders
▁charcoal
▁clicking
▁clitoris
▁coaching
▁crawling
▁deadline
▁dedicate
▁destroys
▁donating
▁embarked
▁feminism
▁genomics
▁handling
▁imposing
▁learners
▁limiting
▁listener
▁mitigate
▁occupied
▁optimist
▁pathogen
▁pristine
▁resolved
▁restrain
▁reviewed
▁roommate
▁scissors
▁uprising
▁Himalayas
▁Interview
▁ambiguous
▁apartheid
▁benefited
▁butterfly
▁coalition
▁communist
▁compelled
▁desirable
▁digestive
▁disturbed
▁empathize
▁exploding
▁genitalia
▁hamburger
▁hardwired
▁hurricane
▁imbalance
▁indicated
▁influenza
▁iteration
▁magically
▁objection
▁passively
▁persuaded
▁reconcile
▁reversing
▁strangely
▁subatomic
▁subjected
▁switching
▁transfers
▁uncovered
▁villagers
▁Archimedes
▁Government
▁Innovation
▁aggression
▁altruistic
▁attracting
▁commentary
▁compliment
▁consulting
▁counteract
▁forgetting
▁horrifying
▁illiterate
▁indicating
▁liberating
▁popularity
▁recovering
▁seamlessly
▁Connecticut
▁desperation
▁fulfillment
▁hardworking
▁ideological
▁imaginative
▁overlapping
▁restoration
▁transistors
▁adaptability
▁announcement
▁communicates
▁biotechnology
▁demonstrating
▁disadvantaged
▁improvisation
▁revolutionize
▁theoretically
▁professionally
▁bioluminescence
ND
RE
Tw
tr
tu
Pal
abe
ben
cam
eer
esy
fat
iza
kit
nty
uis
uri
why
▁53
▁62
▁DD
▁Ka
▁MW
▁Ni
▁PR
▁TT
▁Wa
Wait
adus
aque
atma
atum
cker
cott
flow
hire
ingo
inid
orie
othy
ouri
pson
seud
shot
that
umer
▁110
▁16.
▁Ali
▁Aur
▁BMW
▁Bol
▁Bud
▁CDC
▁CMU
▁Div
▁Fle
▁Hud
▁Las
▁Len
▁MBA
▁Map
▁NBA
▁Scr
▁Wis
▁gau
▁paj
▁pic
Maybe
adata
alism
avers
ednes
eight
inges
olunt
ptune
store
visor
▁2012
▁Arts
▁Beau
▁Bond
▁Fact
▁Game
▁Kick
▁Milk
▁Nice
▁Odys
▁Orch
▁Rose
▁True
▁Word
▁amph
▁beta
▁coma
▁coup
▁deer
▁flap
▁fond
▁fury
▁grey
▁impe
▁isot
▁iter
▁kite
▁mama
▁midw
▁muff
▁oral
▁ribs
▁rung
▁slim
▁slot
▁spit
▁undo
00,000
filled
funded
growth
keeper
number
oscope
urface
▁1980,
▁1989,
▁Blood
▁Encel
▁Laure
▁Milan
▁Oscar
▁baker
▁bends
▁biode
▁brute
▁camel
▁chlor
▁consp
▁datas
▁forum
▁indul
▁lacks
▁lobes
▁pains
▁reloc
▁salad
▁slipp
▁theft
▁traps
edience
eteries
markets
renched
written
▁Beyond
▁Father
▁Monkey
▁Multip
▁Online
▁Regard
▁Taylor
▁aerial
▁cannib
▁courty
▁curved
▁dances
▁denser
▁doubts
▁dumped
▁edited
▁erased
▁intake
▁median
▁misses
▁multim
▁peanut
▁petals
▁prizes
▁propos
▁psyche
▁raging
▁rebels
▁runner
▁seated
▁tailor
▁tether
▁unpack
▁varies
▁waving
assembly
cellular
daughter
distance
ednesday
ilingual
ithmetic
itiative
national
requency
▁600,000
▁Brother
▁Collect
▁Finland
▁Houston
▁Jessica
▁Mahatma
▁Mission
▁Neptune
▁Turkish
▁apprent
▁bombing
▁breasts
▁candles
▁ceremon
▁combust
▁curtain
▁dissent
▁dresses
▁favelas
▁furnace
▁lawsuit
▁measles
▁messing
▁migrant
▁monsoon
▁offense
▁ovarian
▁pigeons
▁pioneer
▁prolong
▁reacted
▁recipro
▁schemes
▁secrecy
▁sibling
▁tearing
▁vertebr
▁virtues
antically
ographing
prisingly
protected
▁Anything
▁Missouri
▁Montreal
▁Scottish
▁abortion
▁battling
▁believer
▁blogging
▁boarding
▁cheapest
▁determin
▁diagrams
▁diaspora
▁discrete
▁drifting
▁emission
▁forensic
▁freshman
▁guerrill
▁involunt
▁mismatch
▁mistrust
▁overdose
▁profiles
▁reliably
▁reptiles
▁reunited
▁sanitary
▁semester
▁textiles
confidence
industrial
▁Darwinian
▁Enceladus
▁condemned
▁creations
▁defensive
▁districts
▁divisions
▁electoral
▁enjoyable
▁examining
▁extracted
▁footsteps
▁frontiers
▁honeybees
▁impatient
▁innocence
▁interacts
▁monuments
▁occasions
▁postcards
▁purchased
▁sidewalks
▁specialty
▁suppliers
▁surrounds
▁turbulent
▁unlimited
▁violation
▁animations
▁consultant
▁controller
▁disrespect
▁gatherings
▁imprisoned
▁improbable
▁leveraging
▁miraculous
▁originated
▁pioneering
▁presumably
▁signatures
▁stereotype
▁therapists
▁undergoing
▁vegetarian
▁visibility
▁Corporation
▁Neanderthal
▁accordingly
▁fascination
▁ineffective
▁interrupted
▁involvement
▁masculinity
▁overfishing
▁provocative
▁qualitative
▁stimulating
▁translating
▁variability
▁accumulation
▁anthropology
▁artificially
▁communicated
▁differential
▁displacement
▁establishing
▁passionately
▁recognizable
▁stakeholders
▁appropriately
▁disappointing
▁interrogation
▁intersections
▁progressively
▁disappointment
▁misinformation
▁reconciliation
▁anthropologists
▁recommendations
▁twentysomething
Ph
Vs
uz
vo
Cor
Mar
ahu
aro
asa
cor
enz
ggy
lig
mat
ogo
pit
tic
was
zer
▁8.
▁KS
adow
apes
arty
aton
chet
dies
enna
feld
gate
inia
love
omon
shah
sper
topl
town
uras
urdy
vens
▁CNN
▁Cou
▁Haz
▁Kur
▁Teh
▁Yah
▁ais
▁esc
▁geo
▁ost
▁phy
▁vow
agons
alore
assic
blown
dream
encer
herom
iller
oices
ophys
ottom
party
shine
ships
start
toire
ucius
women
▁2001
▁2030
▁Afro
▁Ardu
▁Base
▁Card
▁Didn
▁Ferg
▁Hell
▁Joan
▁STEM
▁Sank
▁Save
▁cone
▁fats
▁gast
▁grit
▁hive
▁mega
▁noun
▁pets
▁poop
▁snap
▁tomb
▁vase
avored
carbon
etchup
ilight
itched
letter
lights
linear
loying
manuel
▁1,100
▁Brand
▁Cohen
▁Dubai
▁Guate
▁Iraqi
▁Local
▁Nolly
▁Spock
▁Wired
▁arsen
▁bliss
▁clown
▁coins
▁fifty
▁geese
▁germs
▁gloss
▁hurry
▁incap
▁inver
▁laure
▁lifts
▁monog
▁orang
▁packs
▁paink
▁pseud
▁resin
▁risen
▁rocky
▁siege
▁snack
▁swell
▁vigil
▁wakes
▁wells
▁woven
emption
iblical
ococcus
respons
▁Airbnb
▁Batman
▁Carson
▁Parent
▁Potter
▁Unless
▁aspire
▁attain
▁carcin
▁carers
▁cloudy
▁cruise
▁delete
▁demons
▁dissem
▁endure
▁facade
▁fantas
▁formid
▁fridge
▁hijack
▁jurisd
▁melted
▁multid
▁overly
▁patron
▁ponder
▁punctu
▁ranges
▁ranked
▁sexism
▁sexist
▁shocks
▁sleeve
▁starve
▁swarms
▁usable
Jeopardy
ractable
▁Babbage
▁Channel
▁Emperor
▁Meaning
▁Rosetta
▁Witness
▁anomaly
▁asphalt
▁awarded
▁begging
▁bending
▁builder
▁carving
▁clarify
▁conting
▁coolest
▁critics
▁decimal
▁declare
▁deflect
▁delayed
▁drowned
▁embryos
▁fitting
▁garment
▁gateway
▁inquiry
▁intoler
▁jealous
▁missile
▁modules
▁overest
▁paleont
▁posting
▁priests
▁rampant
▁reframe
▁repeats
▁servant
▁slipped
▁surpass
▁teeming
▁updated
▁vividly
iferation
▁Administ
▁Lawrence
▁Progress
▁agnostic
▁annually
▁centered
▁clearing
▁comedian
▁deceased
▁decipher
▁defenses
▁divorced
▁forehead
▁fragment
▁genealog
▁handsome
▁hierarch
▁humbling
▁inclined
▁monitors
▁mutually
▁neutrons
▁province
▁reversed
▁settlers
▁starving
▁striving
▁thanking
▁trusting
▁wearable
▁Bangalore
▁Hurricane
▁Nollywood
▁Victorian
▁Wednesday
▁admission
▁aftermath
▁ancestral
▁celestial
▁champagne
▁composite
▁counterfe
▁courtroom
▁empirical
▁fulfilled
▁harvested
▁impacting
▁improvise
▁oppressed
▁plausible
▁pleasures
▁propelled
▁rebellion
▁rendering
▁saturated
▁subsidies
▁treadmill
▁worthless
▁adrenaline
▁agreements
▁aspiration
▁capacities
▁clinically
▁competence
▁completing
▁compulsive
▁diplomatic
▁downstairs
▁graduating
▁headphones
▁insignific
▁introspect
▁lightbulbs
▁navigation
▁powerfully
▁projecting
▁repertoire
▁separately
▁subsurface
▁telephones
▁vaccinated
▁viewpoints
▁Interviewer
▁colonialism
▁comparisons
▁convergence
▁expeditions
▁mammography
▁pessimistic
▁pollinators
▁selectively
▁unthinkable
▁accumulating
▁competitions
▁discriminate
▁impoverished
▁interference
▁manipulating
▁menstruation
▁practitioners
▁Administration
▁microorganisms
▁overwhelmingly
▁recommendation
▁underestimated
12
Dad
abi
aft
aha
alm
aso
cro
del
hir
nob
rug
wed
▁("
▁39
▁EU
▁IC
▁LI
▁MG
▁PD
Mart
abad
abai
alam
bags
dule
fing
fran
ihil
izzy
mala
oard
ogad
olis
otry
pret
uese
wild
wire
zler
▁11.
▁160
▁20.
▁Abu
▁Aqu
▁Cut
▁DIY
▁Dur
▁Hal
▁Hmm
▁Hop
▁Mob
▁Ref
▁Slo
▁Sor
▁Tob
▁Voy
▁Yor
▁dod
▁dub
▁hex
▁sac
▁sip
▁ups
Hello
agasc
aunch
death
ggles
lobal
nacle
roves
swana
uador
umann
▁Andy
▁Bulg
▁Doaa
▁Hand
▁Hind
▁Left
▁Lego
▁Mali
▁Neil
▁Pand
▁Safe
▁Tech
▁View
▁cerv
▁crab
▁dodo
▁eyew
▁foam
▁ions
▁obey
▁outp
▁pall
▁peek
▁pest
▁plag
▁remn
▁unve
People
bodied
licted
rofoam
seless
verbal
▁1999,
▁Arabs
▁Brill
▁Citiz
▁Corps
▁Flick
▁Giant
▁Incre
▁Khmer
▁Loren
▁Lower
▁Maine
▁Pearl
▁Terra
▁angel
▁ankle
▁booth
▁carbo
▁crest
▁daddy
▁dared
▁dated
▁ducks
▁eject
▁euros
▁gears
▁gland
▁grape
▁havoc
▁hooks
▁irreg
▁kicks
▁overc
▁popul
▁quart
▁recap
▁rhino
▁scorp
▁scout
▁slows
▁snipp
▁socks
▁soils
▁spans
▁stain
▁stark
▁tires
▁tutor
▁waits
agascar
eastern
emistry
ication
iceless
inished
profits
urities
ustomed
verning
▁Amanda
▁Bureau
▁Carter
▁Easter
▁Forget
▁Hadron
▁Hamlet
▁Hudson
▁Mostly
▁Moving
▁Orange
▁Walter
▁barren
▁collar
▁cooled
▁crater
▁entang
▁exoske
▁grapes
▁locals
▁locker
▁messed
▁meteor
▁mimics
▁misuse
▁module
▁newest
▁opaque
▁pherom
▁quoted
▁ration
▁reimag
▁relied
▁rulers
▁saliva
▁scored
▁shaman
▁shoots
▁smiled
▁stunts
▁thrill
▁titled
▁traced
▁unlear
chanical
chemical
▁Compare
▁Firstly
▁Harriet
▁Martian
▁Teszler
▁Village
▁Walmart
▁Welcome
▁bedrock
▁biomark
▁bonding
▁centrif
▁cheated
▁chewing
▁drifted
▁empires
▁eyeball
▁fellows
▁fertile
▁genomic
▁haunted
▁inertia
▁judging
▁leaking
▁locking
▁mustard
▁neutron
▁packing
▁removal
▁renewed
▁risking
▁rooftop
▁rotates
▁sensual
▁surfing
▁synapse
▁toddler
▁toolkit
▁unicorn
▁utilize
eneration
ographers
▁Collider
▁Ferguson
▁Guardian
▁Kentucky
▁Marshall
▁Maryland
▁Nicholas
▁adventur
▁amateurs
▁bullying
▁delivers
▁depleted
▁dissolve
▁downhill
▁earnings
▁educator
▁hormonal
▁metadata
▁monarchy
▁notation
▁playbook
▁pyramids
▁residual
▁reverber
▁scrutiny
▁sounding
▁sovereig
▁steroids
▁trachoma
▁uncommon
▁writings
toplankton
▁Brilliant
▁cathedral
▁comprised
▁decreased
▁discarded
▁exploited
▁financing
▁fragility
▁hemispher
▁membranes
▁neglected
▁polluting
▁portrayed
▁precursor
▁probation
▁recipient
▁regarding
▁splitting
▁virginity
▁Convention
▁Initiative
▁Madagascar
▁Millennium
▁accustomed
▁activation
▁announcing
▁antimatter
▁astonished
▁attendance
▁calculator
▁cemeteries
▁childbirth
▁combustion
▁dedication
▁definitive
▁delightful
▁dependency
▁formidable
▁heartbreak
▁homosexual
▁indirectly
▁intimately
▁misleading
▁motivating
▁navigating
▁occasional
▁orchestras
▁persuasive
▁publishers
▁regulating
▁retrospect
▁similarity
▁specialize
▁witnessing
▁assignments
▁charismatic
▁earthquakes
▁enlightened
▁enterprises
▁exhibitions
▁fundraising
▁impressions
▁segregation
▁shareholder
▁superficial
▁technicians
▁territories
▁Architecture
▁championship
▁compensation
▁demonstrates
▁exhilarating
▁hypertension
▁mechanically
▁metropolitan
▁neurogenesis
▁shareholders
▁transmitting
▁intellectuals
▁anthropologist
▁unconventional
▁antidepressants
AT
Ms
yd
Aid
Hmm
Rec
bad
cas
civ
ega
iki
ipt
mel
non
ods
oko
oso
pat
ref
rio
rir
▁3:
▁Ol
▁ah
▁ib
▁um
▁vi
acet
ahed
anim
aths
code
comp
cted
cuff
dles
eous
etto
iard
icit
imen
itic
ixon
loqu
olec
otte
uilt
ulas
xtap
▁1.6
▁25-
▁Adv
▁Ban
▁Cub
▁Eli
▁Fat
▁IMF
▁Nev
▁Pix
▁Sci
▁Tol
▁WHO
▁apt
▁dut
▁osc
▁rou
▁rug
▁sto
▁toe
▁tul
acies
after
built
cracy
engue
fight
icket
ivals
odiac
overs
prove
rists
roads
seven
▁Anth
▁Bono
▁Crow
▁Gary
▁Gord
▁Hipp
▁Jill
▁Lang
▁Mend
▁Navy
▁Pent
▁Poor
▁Road
▁Sold
▁baff
▁bore
▁cafe
▁cray
▁crem
▁dung
▁herb
▁hull
▁inks
▁insu
▁jams
▁lent
▁nuns
▁pant
▁plur
▁raft
▁rang
▁ripe
▁ruth
▁tore
▁tran
▁unqu
▁wool
ainted
anners
etched
icular
ogical
osures
ouring
planet
stonia
uddled
wright
▁2020,
▁2020.
▁Bobby
▁Clark
▁Davis
▁Geoff
▁Homer
▁Honor
▁Idaho
▁Istan
▁Lives
▁Major
▁Nancy
▁Norse
▁Produ
▁Raise
▁Sleep
▁Teddy
▁bleak
▁blunt
▁cance
▁conve
▁cores
▁cures
▁debil
▁desks
▁dilig
▁disin
▁flute
▁grams
▁hedge
▁hymen
▁insan
▁joins
▁leapf
▁maize
▁milit
▁modes
▁stigm
▁stink
▁tides
▁torch
▁tweak
charged
induced
ologues
osaurus
ription
▁11,000
▁Common
▁Danish
▁Evergl
▁Flickr
▁Julian
▁Nation
▁Nearly
▁Spider
▁Tehran
▁Vision
▁advise
▁astrol
▁bosses
▁crappy
▁dealer
▁diseng
▁enroll
▁finest
▁gaming
▁geopol
▁invari
▁lyrics
▁nanosc
▁obtain
▁oscill
▁parked
▁paused
▁photoc
▁quarks
▁resume
▁rounds
▁skinny
▁solves
▁sorrow
▁stockp
▁styles
▁whilst
designed
invasive
▁250,000
▁Arduino
▁Awesome
▁Disease
▁Domitia
▁Ecuador
▁Patient
▁Sankara
▁Seventy
▁Swahili
▁Theater
▁Whitney
▁absorbs
▁assured
▁atheist
▁bedtime
▁bluefin
▁bullied
▁buzzing
▁cafeter
▁chooses
▁deposit
▁dictate
▁emulate
▁erectus
▁facilit
▁fascism
▁formats
▁fractal
▁goggles
▁intertw
▁janitor
▁leaning
▁plugged
▁portfol
▁railway
▁rocking
▁sighted
▁startup
▁toaster
▁tripled
▁unleash
identally
itionally
something
▁Achilles
▁Campaign
▁Istanbul
▁Medicaid
▁academia
▁chemists
▁compress
▁dilemmas
▁droughts
▁emitting
▁expenses
▁feasible
▁homicide
▁incoming
▁judicial
▁juggling
▁launches
▁lockdown
▁murderer
▁polluted
▁preoccup
▁prosthes
▁railroad
▁restored
▁retrieve
▁seizures
▁sentient
▁smoothly
▁template
▁tensions
▁traveler
▁treaties
▁violated
▁volatile
▁wellness
▁yearning
organizing
▁Armstrong
▁Guatemala
▁Louisiana
▁Styrofoam
▁anonymity
▁bombsight
▁carbonate
▁carpenter
▁childcare
▁cockroach
▁diffusion
▁disbelief
▁irregular
▁liberated
▁mentoring
▁miniature
▁paragraph
▁unleashed
▁unnatural
▁untouched
▁wealthier
▁Everywhere
▁Incredible
▁Portuguese
▁Regardless
▁advocating
▁ambassador
▁arithmetic
▁centigrade
▁contractor
▁creatively
▁disrupting
▁exploiting
▁extracting
▁mentioning
▁negatively
▁nightmares
▁positioned
▁possession
▁sustaining
▁synonymous
▁unfinished
▁violations
▁accelerator
▁acquisition
▁adjustments
▁algorithmic
▁bureaucracy
▁businessman
▁celebrities
▁cognitively
▁convictions
▁coronavirus
▁dangerously
▁degradation
▁devastation
▁extensively
▁highlighted
▁marshmallow
▁prosthetics
▁skyscrapers
▁speculation
▁synesthesia
▁synthesized
▁Conservation
▁Intelligence
▁disagreement
▁experimenter
▁hopelessness
▁hydrothermal
▁instrumental
▁marketplaces
▁metaphorical
▁regeneration
▁resurrection
▁Environmental
▁Understanding
▁intrinsically
▁multicultural
▁participatory
▁phytoplankton
▁prescriptions
▁bioluminescent
▁desertification
▁pharmaceuticals
",
1:
De
Gu
HD
LL
OS
TO
eb
ji
ti
Car
Ind
bie
ebe
foc
hou
icc
jah
mom
nan
▁49
▁4:
▁BL
▁FB
▁Li
▁MM
▁NO
▁VR
▁uh
Have
Take
amel
anch
ayed
boat
borg
card
coll
enny
enth
erto
imic
itra
luid
only
oufl
owan
rait
rase
rawn
stri
uant
uish
unky
ushi
▁184
▁80-
▁90-
▁BCE
▁Dip
▁EDI
▁FGM
▁Fib
▁Kal
▁Low
▁Mau
▁Nik
▁Poe
▁Ras
▁Set
▁Sri
▁UNI
▁aun
▁fox
▁fri
▁lev
▁mas
▁vic
acial
amics
chlor
immer
inois
irika
ivism
layer
medic
merce
oshop
otomy
reach
table
ueens
value
▁2004
▁ADHD
▁Baby
▁Bach
▁Boys
▁Cham
▁Code
▁Deaf
▁Diet
▁Ella
▁Fall
▁Juan
▁Karl
▁Lind
▁Mama
▁Musk
▁Nile
▁Rain
▁Roll
▁Rush
▁Sony
▁biop
▁bree
▁curv
▁delt
▁dice
▁epit
▁imam
▁itch
▁knot
▁maid
▁nozz
▁omin
▁pots
▁publ
▁quir
▁rend
acting
azeera
eating
erally
idding
irting
ivores
nament
ocrats
ospace
ribing
utable
▁1960,
▁1985,
▁Birds
▁DARPA
▁Drugs
▁Galax
▁Jamie
▁Julia
▁Moroc
▁Ushah
▁bases
▁bells
▁blobs
▁caste
▁clams
▁coded
▁cords
▁culpr
▁dairy
▁dehyd
▁deval
▁diary
▁embro
▁focal
▁inhab
▁liars
▁malls
▁medal
▁mites
▁monot
▁mucus
▁ranks
▁rehab
▁rover
▁stalk
▁sweep
▁swift
▁synag
▁theat
▁token
▁umbre
▁unrel
▁valve
African
control
feeding
ipotent
istical
onsider
▁35,000
▁Arnold
▁Hispan
▁Latina
▁Lester
▁Malays
▁Panama
▁Survey
▁Venter
▁bronze
▁cohort
▁comets
▁danced
▁dengue
▁devoid
▁discer
▁favors
▁fluent
▁forage
▁league
▁leaned
▁loudly
▁metron
▁palace
▁phages
▁risked
▁softly
▁spades
▁strips
▁suited
▁summed
▁tapirs
▁tended
▁throne
▁Douglas
▁Hillary
▁Jamaica
▁Natasha
▁Pandora
▁Picture
▁Reading
▁Senator
▁addicts
▁antenna
▁arousal
▁auction
▁bedside
▁boomers
▁calorie
▁cassava
▁clearer
▁descent
▁dinners
▁drastic
▁funders
▁grasses
▁greeted
▁hostage
▁hurdles
▁immoral
▁ketchup
▁lineage
▁marches
▁microbe
▁mosques
▁neurobi
▁pitches
▁precaut
▁rebuilt
▁removes
▁rewrite
▁savanna
▁stamped
▁stuffed
▁stunned
▁tribute
▁valleys
▁veterin
▁visuals
ompatible
▁Botswana
▁Creative
▁Friedman
▁Princess
▁affluent
▁biomolec
▁blinking
▁bubbling
▁carbohyd
▁charming
▁circling
▁consumes
▁converts
▁farmland
▁fearless
▁fiercely
▁formerly
▁handheld
▁muscular
▁mustache
▁mystical
▁opponent
▁outwards
▁richness
▁shelters
▁sporting
▁steadily
▁sweating
▁tweeting
▁twilight
▁underpin
▁wrinkles
cigarettes
▁Curiosity
▁Somewhere
▁Tasmanian
▁activates
▁assaulted
▁branching
▁commander
▁detective
▁digestion
▁digitized
▁embryonic
▁exchanged
▁fisherman
▁governing
▁incubator
▁injecting
▁malignant
▁mammalian
▁medicinal
▁northeast
▁nostalgia
▁operators
▁pathology
▁periphery
▁privately
▁psychotic
▁publisher
▁rejecting
▁reluctant
▁replenish
▁resisting
▁separates
▁simulator
▁specimens
▁spotlight
▁suspicion
▁taxpayers
▁teammates
▁underlies
▁versatile
▁attributed
▁clinicians
▁concerning
▁constraint
▁cultivated
▁customized
▁dissonance
▁empathetic
▁encourages
▁exchanging
▁foreground
▁highlights
▁instructor
▁neutrality
▁palliative
▁reclaiming
▁responders
▁stimulated
▁suppressed
▁tenderness
▁transistor
▁anonymously
▁aquaculture
▁brilliantly
▁compromised
▁conflicting
▁extinctions
▁helicopters
▁interpreted
▁intractable
▁livelihoods
▁microphones
▁microscopes
▁prestigious
▁professions
▁protagonist
▁reflections
▁remittances
▁scaffolding
▁sovereignty
▁submersible
▁Nevertheless
▁anticipation
▁debilitating
▁disadvantage
▁exaggeration
▁heterosexual
▁horizontally
▁implementing
▁inequalities
▁perseverance
▁photographic
▁subsequently
▁sufficiently
▁undocumented
▁unexpectedly
▁concentrating
▁contemplating
▁distinguished
▁proliferation
▁refrigeration
▁archaeological
▁constitutional
▁cybercriminals
▁evolutionarily
▁multiplication
▁interdependence
AA
Ad
EP
NG
fa
kn
zi
zs
Eur
Gen
agu
cat
ffe
imi
kee
oia
oni
thy
▁83
▁89
▁AO
▁Ay
▁BR
▁JD
▁Jr
▁RL
▁Tu
Love
Tell
asia
avil
cart
chat
elle
enos
epsi
iflu
iser
loyd
moil
ndan
neut
note
prom
rett
ryan
spel
▁182
▁22,
▁24,
▁ACE
▁Aff
▁Alt
▁BBC
▁Cay
▁Cre
▁Cup
▁Dam
▁Fuk
▁Jay
▁LOL
▁McL
▁Son
▁aph
▁bun
▁lan
▁neo
Could
Earth
Whist
acerb
ailed
aping
arted
aying
becca
birds
catch
iatur
icken
igers
ports
rofen
track
umper
ureka
zards
▁2013
▁Auth
▁Born
▁Chad
▁Chop
▁Darf
▁Dire
▁Drey
▁Drug
▁Easy
▁Fest
▁Fold
▁Harr
▁Lank
▁Mine
▁Must
▁Page
▁Pain
▁Rift
▁Ryan
▁Sara
▁Song
▁Spec
▁Sufi
▁Text
▁akin
▁ally
▁amid
▁aura
▁begs
▁clot
▁craz
▁cush
▁eyel
▁fist
▁kits
▁lava
▁neon
▁pend
▁pert
▁pist
▁rall
▁sank
▁smog
▁suns
▁syll
▁traw
▁unsc
▁vant
▁wast
ceived
ensing
iaries
icated
import
monary
moving
omorph
orence
ousand
rified
shirts
▁1,800
▁1900,
▁1996,
▁2004.
▁9,000
▁Asper
▁Close
▁Foods
▁Forum
▁Gabri
▁Games
▁Laura
▁Lucas
▁Pepsi
▁Pixar
▁Spart
▁Stein
▁aisle
▁altar
▁arist
▁banjo
▁beard
▁catap
▁cocon
▁conco
▁cones
▁fores
▁heats
▁mania
▁moder
▁motto
▁oxide
▁palms
▁pedal
▁proxy
▁rigor
▁scrap
▁seism
▁skate
▁smack
▁sushi
ameless
animate
astrous
bearing
berries
cellent
entials
erendum
iencies
isexual
neutral
rillion
selling
species
trained
uprofen
▁Astron
▁Circle
▁Coming
▁Gender
▁Hallow
▁Nevada
▁Pythag
▁Rachel
▁Summer
▁Taking
▁Vienna
▁abrupt
▁ascend
▁blurry
▁bulldo
▁chores
▁dermat
▁edible
▁fitted
▁forged
▁funnel
▁gospel
▁greedy
▁harmon
▁hunted
▁infilt
▁inland
▁jargon
▁latter
▁lovers
▁neatly
▁outlet
▁packet
▁plaque
▁preach
▁remedy
▁renown
▁resign
▁revive
▁sights
▁spores
▁stared
▁submer
▁suffoc
▁tapest
▁termin
▁thirty
▁toothp
▁upgrad
▁venues
▁zodiac
▁zoning
emically
liminary
roverted
ructures
urations
▁Anthony
▁Beatles
▁Capital
▁Cassini
▁Finance
▁Friends
▁Goliath
▁Grandma
▁Indiana
▁Jazeera
▁Justine
▁Tamiflu
▁Wolfram
▁actress
▁admired
▁archety
▁behaved
▁breakup
▁coaster
▁compuls
▁cubicle
▁cycling
▁debated
▁dispute
▁domains
▁dormant
▁dumping
▁emperor
▁exacerb
▁fishery
▁flashes
▁handing
▁imitate
▁looting
▁motives
▁plaster
▁plotted
▁predisp
▁proudly
▁puzzled
▁rotting
▁rubbish
▁scatter
▁secured
▁sleeves
▁tapping
▁ticking
▁turmoil
▁twisted
▁unheard
▁vantage
intensive
naissance
uckerberg
▁Florence
▁Honduras
▁Illinois
▁Iranians
▁Israelis
▁Sciences
▁Ushahidi
▁backbone
▁blankets
▁casually
▁clapping
▁contempt
▁costumes
▁cracking
▁daydream
▁debating
▁detained
▁digitize
▁disinteg
▁doorstep
▁downward
▁dressing
▁extrapol
▁extrater
▁foraging
▁geniuses
▁grabbing
▁handcuff
▁homeland
▁imperial
▁imported
▁initiate
▁knocking
▁monopoly
▁neurosur
▁nickname
▁pinnacle
▁probable
▁racially
▁respects
▁strapped
▁stresses
▁traction
▁turbines
▁umbrella
▁weighing
▁Anonymous
▁Committee
▁Literally
▁Photoshop
▁Seriously
▁accessing
▁alleviate
▁amplified
▁autopilot
▁biodegrad
▁broadband
▁cellulose
▁cosmology
▁deposited
▁editorial
▁elevation
▁holograph
▁hostility
▁lightbulb
▁memorized
▁menstrual
▁merchants
▁occupying
▁optimized
▁painfully
▁restoring
▁scheduled
▁secretary
▁seductive
▁sentiment
▁shortcuts
▁slightest
▁someplace
▁tragedies
▁tunneling
▁Everglades
▁Laboratory
▁Westerners
▁activating
▁admittedly
▁beekeepers
▁brightness
▁coalitions
▁collectors
▁conversion
▁correction
▁cumulative
▁discretion
▁disposable
▁extroverts
▁harnessing
▁identifies
▁ideologies
▁imaginable
▁installing
▁interacted
▁librarians
▁millennium
▁motherhood
▁purchasing
▁referendum
▁relentless
▁succeeding
▁tendencies
▁unexplored
▁contemplate
▁fertilizers
▁furthermore
▁neurologist
▁obligations
▁proportions
▁rationality
▁suppression
▁terrestrial
▁unrealistic
▁visualizing
▁Specifically
▁advancements
▁distractions
▁incorporated
▁indefinitely
▁supermarkets
▁acknowledging
▁constellation
▁inappropriate
▁incorporating
▁inspirational
▁interpersonal
▁misconception
▁photographing
▁predominantly
▁strengthening
▁thermodynamics
▁psychologically
▁vulnerabilities
":
-'
-4
25
sl
uy
?'"
Art
CEF
Day
Ham
Mus
PTC
adi
chi
cir
gel
inf
lie
lux
nea
ohn
ozo
tub
ucl
umu
usp
▁51
▁AF
▁Ce
▁EP
▁ER
▁JL
▁Kn
▁Mt
▁NR
▁PH
▁RW
▁iv
Will
acci
aism
athe
auts
cats
emis
empl
etry
food
gery
grid
hard
hift
iave
iked
iper
lett
omer
onge
ongo
oots
orks
pert
pong
ruci
than
wash
▁'30
▁Bai
▁Bri
▁DDT
▁ELA
▁Leo
▁Lok
▁OCD
▁PDF
▁Saf
▁Seb
▁Vin
▁ems
▁jig
▁von
Which
agina
akery
alone
ardon
atisf
cible
estra
etric
fifth
heart
ibera
idian
insky
juven
lance
liers
omers
racle
ritic
shell
unity
urned
woman
▁Area
▁Balk
▁Bart
▁Bolt
▁Call
▁Eden
▁Evan
▁Feel
▁Finn
▁Lapt
▁Lucy
▁Luke
▁Noah
▁Prop
▁Rail
▁Rais
▁Reed
▁Team
▁Thor
▁Utah
▁alch
▁amen
▁bait
▁bean
▁bolt
▁bred
▁cada
▁calf
▁cran
▁curl
▁defy
▁egos
▁ethn
▁funn
▁glor
▁heel
▁hots
▁lary
▁malf
▁mite
▁nood
▁nugg
▁plea
▁rupe
▁saus
▁scum
▁slam
▁slap
▁spur
▁sued
▁vine
▁watt
Europe
assium
buster
covers
design
dinger
diving
earing
ermaid
esting
ickers
igible
legged
nation
ochond
opping
replic
rocess
▁1945,
▁Ahmed
▁Award
▁Books
▁Hotel
▁Mitch
▁Seren
▁Veron
▁amuse
▁blues
▁chefs
▁cited
▁crave
▁dunes
▁dwind
▁embed
▁enlar
▁evoke
▁fixes
▁graft
▁hangs
▁hives
▁metro
▁monum
▁nests
▁noses
▁nudge
▁pores
▁postp
▁query
▁repos
▁salam
▁shack
▁skins
▁suite
▁swims
▁widow
▁wiser
acteria
angular
erendip
lements
ogenous
organic
retched
riction
uminous
visible
▁Aurora
▁Austin
▁Babies
▁Butler
▁Darfur
▁Depend
▁Dublin
▁Fisher
▁Impact
▁Ronald
▁Tahrir
▁Trojan
▁UNICEF
▁Walker
▁accord
▁chiefs
▁curing
▁epigen
▁evange
▁exempl
▁fences
▁hairst
▁impost
▁intens
▁juxtap
▁leaked
▁manure
▁marble
▁memoir
▁outlaw
▁parrot
▁payoff
▁plight
▁provin
▁recomb
▁sailed
▁shirts
▁spills
▁sprink
▁staple
▁surrog
▁swings
▁tenure
▁timesc
▁trolls
▁trunks
▁unbear
▁uncles
▁unrest
▁vacant
▁vendor
▁wholes
isanship
▁Amazing
▁Boulder
▁Brendan
▁Dreyfus
▁Judaism
▁Neumann
▁Parents
▁Scratch
▁acronym
▁apology
▁artisan
▁bonobos
▁boredom
▁buckets
▁carrier
▁crammed
▁craters
▁crochet
▁dentist
▁elevate
▁excruci
▁grapple
▁hateful
▁hospice
▁iPhones
▁isirika
▁modeled
▁murders
▁ominous
▁planner
▁polling
▁prehist
▁prophet
▁rejuven
▁reshape
▁runaway
▁shaming
▁smashed
▁stellar
▁syringe
▁tablets
▁thyroid
▁trickle
▁tuition
▁tyranny
▁utopian
▁wildebe
Recording
frequency
▁Arkansas
▁Asperger
▁Cultural
▁Likewise
▁Pantheon
▁Politics
▁adhesive
▁alliance
▁antennae
▁atheists
▁bisexual
▁cautious
▁cochlear
▁competed
▁deserved
▁financed
▁grieving
▁holidays
▁hologram
▁inequity
▁inserted
▁liberate
▁lifeless
▁misinter
▁mortgage
▁outweigh
▁partisan
▁patented
▁performs
▁prophecy
▁puncture
▁reconfig
▁settling
▁severity
▁shortest
▁spraying
▁swelling
▁trending
worthiness
▁Charlotte
▁Migration
▁actuators
▁alliances
▁captivity
▁cofounded
▁consisted
▁crocodile
▁defenders
▁electrode
▁endeavors
▁festivals
▁forefront
▁fractions
▁ibuprofen
▁illegally
▁isolating
▁liability
▁migrating
▁nanoscale
▁obsessive
▁offenders
▁persisted
▁policeman
▁potassium
▁precedent
▁predictor
▁projector
▁pronounce
▁psychosis
▁pulmonary
▁rehearsal
▁requested
▁safeguard
▁selecting
▁shootings
▁shoreline
▁testament
▁victories
▁benefiting
▁chemically
▁chopsticks
▁collapsing
▁complaints
▁comprehend
▁currencies
▁disastrous
▁eyewitness
▁fellowship
▁flashlight
▁footprints
▁geothermal
▁heightened
▁injustices
▁monumental
▁nanometers
▁nonprofits
▁outperform
▁peripheral
▁pilgrimage
▁questionna
▁technician
▁tournament
generational
▁advancement
▁circulatory
▁compartment
▁consistency
▁contracting
▁diminishing
▁drastically
▁emergencies
▁handwriting
▁influencing
▁multiplying
▁nonviolence
▁pollination
▁preliminary
▁reliability
▁replicating
▁vaccination
▁autonomously
▁breathtaking
▁confirmation
▁considerable
▁contractions
▁excruciating
▁geographical
▁homelessness
▁insufficient
▁spirituality
▁supernatural
▁brainstorming
▁contraception
▁documentation
▁illustrations
▁insignificant
▁introspection
▁psychiatrists
▁reconstructed
▁antidepressant
▁archaeologists
▁geographically
▁implementation
▁intellectually
"'
90
AC
Rs
US
Uh
ui
11.
ISD
adp
afi
aku
azi
bos
cha
ele
lov
nec
oxy
uki
▁59
▁63
▁AP
▁AV
▁BJ
▁Il
▁KK
▁TR
▁VI
▁Ve
▁WK
▁YR
▁pH
afka
atom
beit
cier
cogn
eled
ends
etah
expl
holm
itri
lest
link
mail
mets
odka
quez
rene
ride
seat
tale
uhan
user
zzly
▁Amb
▁Der
▁Due
▁Dyn
▁ESG
▁Eld
▁Geh
▁Gib
▁HAL
▁Hay
▁Ign
▁Kid
▁NYU
▁Sin
▁Sit
▁UFO
▁amp
▁dar
▁dos
▁fis
▁tan
Corps
Sorry
abyte
amins
andan
antor
books
brand
creas
group
ineph
iosis
isyph
itism
lapse
orate
osoph
owatt
ppled
prise
rades
roust
touch
uated
uckle
ulars
ulent
▁2100
▁AIMS
▁Aren
▁Bagh
▁Ball
▁Decl
▁Fish
▁Gate
▁Hugh
▁Init
▁Magn
▁Past
▁Plut
▁RISD
▁Rice
▁Sort
▁abdu
▁aims
▁barn
▁claw
▁cruc
▁dess
▁detr
▁diab
▁ecst
▁fins
▁flop
▁ling
▁lust
▁meta
▁myel
▁pref
▁pund
▁sabb
▁tadp
▁trek
▁vein
▁wolf
alamus
bourne
broken
consin
determ
edalus
guided
ilocks
imicry
imming
intend
itters
mostat
ocytes
ogging
onacci
resent
seller
writer
ximity
▁1,600
▁1950,
▁2009.
▁2012.
▁2013.
▁Agnes
▁Andes
▁Bever
▁Canal
▁Chief
▁Dante
▁Doing
▁Fifth
▁Jesse
▁Krist
▁Place
▁Sally
▁Study
▁Urban
▁Words
▁abyss
▁basin
▁bitch
▁bloom
▁booms
▁brace
▁calib
▁clash
▁cohes
▁eagle
▁eloqu
▁endoc
▁fecal
▁frost
▁gauge
▁genre
▁herbs
▁hitch
▁latch
▁lousy
▁nerds
▁pearl
▁pests
▁plent
▁rated
▁reinv
▁rifle
▁shaky
▁silos
▁skirt
▁skyro
▁slate
▁snail
▁spoon
▁squir
▁taped
▁taper
▁teeny
▁trump
▁unaff
▁verse
achment
inement
largest
ractive
raining
ricanes
welling
▁Action
▁Barbie
▁Bernie
▁Choice
▁Dragon
▁Family
▁Genome
▁Harbor
▁Juliet
▁Kibera
▁Linked
▁Matrix
▁PayPal
▁Proust
▁Sisyph
▁Temple
▁Twelve
▁acoust
▁albeit
▁apathy
▁barbec
▁busted
▁carrot
▁causal
▁coping
▁corpus
▁cylind
▁derive
▁deterg
▁diesel
▁donkey
▁dreamt
▁evenly
▁farmed
▁fungal
▁galvan
▁hiking
▁hockey
▁kindly
▁knives
▁lander
▁lesion
▁lesser
▁microp
▁naming
▁naught
▁paints
▁parale
▁paraph
▁porous
▁probes
▁recurs
▁reside
▁ripple
▁rivals
▁rotten
▁safest
▁seized
▁shines
▁shrunk
▁snatch
▁sorted
▁sparse
▁stamps
▁superv
▁tinker
▁tucked
▁unknow
▁unsafe
▁vector
security
▁Airport
▁Barbara
▁Lesters
▁Prosper
▁Silence
▁Virtual
▁alright
▁bargain
▁bathing
▁betting
▁bigotry
▁cheaply
▁cherish
▁clogged
▁crafted
▁dataset
▁deconst
▁desired
▁dessert
▁doubles
▁endured
▁exceeds
▁fueling
▁genders
▁haircut
▁induced
▁mailbox
▁malware
▁microns
▁midwife
▁nomadic
▁onboard
▁oneself
▁orphans
▁pajamas
▁palette
▁pennies
▁pitched
▁pivotal
▁plaques
▁podcast
▁punched
▁pursued
▁seminal
▁shatter
▁sinking
▁stumble
▁sunrise
▁tempted
▁violate
▁wetsuit
▁wizards
assionate
atization
inephrine
▁Daedalus
▁Democrat
▁Hawaiian
▁Machiave
▁Mohammed
▁Needless
▁Veronica
▁adjusted
▁arrogant
▁aspiring
▁brutally
▁censored
▁chatting
▁coronary
▁cortical
▁depicted
▁doodling
▁enhances
▁flirting
▁formulas
▁fracture
▁hovering
▁humidity
▁intersex
▁invading
▁kilogram
▁leftover
▁licensed
▁lowering
▁mediocre
▁miniatur
▁mythical
▁offended
▁outliers
▁outraged
▁outsider
▁overlook
▁packages
▁pancreas
▁pounding
▁preacher
▁proclaim
▁prophets
▁reckless
▁recruits
▁renowned
▁restless
▁ridicule
▁sampling
▁segments
▁skeptics
▁slippery
▁squeezed
▁suicides
▁tectonic
▁theaters
▁timeless
▁titanium
▁whistles
generative
▁Computers
▁Democrats
▁Economist
▁Fibonacci
▁Initially
▁Listening
▁Universal
▁Wisconsin
▁adhesives
▁agonizing
▁ambitions
▁analytics
▁bathrooms
▁bilingual
▁billboard
▁bookstore
▁cafeteria
▁caregiver
▁considers
▁decorated
▁evaporate
▁exchanges
▁filtering
▁grappling
▁intestine
▁liberties
▁mangroves
▁oblivious
▁patriarch
▁plentiful
▁pragmatic
▁proactive
▁purchases
▁rainwater
▁redundant
▁specially
▁spectacle
▁speculate
▁sponsored
▁superstar
▁temperate
▁thrusters
▁unwilling
▁waterways
▁whichever
▁Architects
▁Increasing
▁StoryCorps
▁Vietnamese
▁asymmetric
▁decreasing
▁deployment
▁disclosure
▁entrenched
▁generalize
▁idealistic
▁illuminate
▁insulation
▁invariably
▁legitimacy
▁litigation
▁manageable
▁observable
▁oppressive
▁peacefully
▁perceiving
▁pronounced
▁regulators
▁researched
▁scratching
▁simulating
▁successive
▁triggering
▁constitutes
▁contributor
▁fashionable
▁frantically
▁hemispheres
▁intertwined
▁involuntary
▁meritocracy
▁objectivity
▁plantations
▁redesigning
▁reservation
▁responsibly
▁transitions
▁utilitarian
▁distributing
▁imprisonment
▁narcissistic
▁pediatrician
▁registration
▁volunteering
▁circumference
▁dysfunctional
▁granddaughter
▁administrators
▁businesspeople
▁classification
▁conversational
▁manifestations
▁sophistication
▁technologically
).
16
84
Aw
EO
En
Ke
La
Up
ez
fo
aki
dro
eat
esa
kil
owa
pse
yer
▁"'
▁AA
▁Ca
▁EC
▁IK
▁JP
▁Na
▁Ru
▁Ts
▁VV
▁gn
High
Oumu
Whoa
aley
ambi
amua
angi
aras
atal
coma
doms
ench
fits
heav
hero
hyth
kids
lace
mons
ocke
odyn
oglo
ogly
oped
orer
oria
phil
rone
sett
some
uels
umed
ungi
unte
will
xter
yses
▁11-
▁14.
▁2.3
▁3.5
▁50.
▁ASL
▁Abo
▁Ald
▁Bil
▁Bog
▁CIA
▁Doc
▁EPA
▁Eun
▁Few
▁Gri
▁Hul
▁Hus
▁Kin
▁Lon
▁Mun
▁NIH
▁Obs
▁Pam
▁Pes
▁REM
▁Wiz
▁ara
▁haw
▁kar
▁sap
▁unm
agged
anked
asted
athom
avior
awatt
block
blood
cibly
culus
erald
geons
icist
iffel
olate
onial
onomy
otism
ourge
range
rices
rines
spect
truth
vably
worms
▁1000
▁1600
▁Bald
▁Berg
▁Bion
▁Comb
▁Cond
▁Diam
▁Gret
▁Grey
▁Hiro
▁Iowa
▁Jere
▁Klan
▁Lock
▁Loki
▁Made
▁Marc
▁Mell
▁Meth
▁NATO
▁Sign
▁Vent
▁anew
▁anth
▁beep
▁carr
▁chin
▁chir
▁cler
▁coil
▁dads
▁dele
▁egal
▁goof
▁hike
▁hubs
▁inoc
▁jars
▁jaws
▁lays
▁nich
▁pins
▁reus
▁scru
▁spam
▁sped
▁subl
▁sway
▁unav
▁unto
▁wasp
Before
Should
access
akable
astian
ennial
franch
idious
inians
living
ogenes
umbles
utions
▁1999.
▁2011.
▁Belle
▁Betty
▁Burma
▁Curie
▁Domin
▁Eleph
▁Hence
▁Ideas
▁Karen
▁Legos
▁Mario
▁Monro
▁Nanop
▁Nazis
▁Prote
▁Ready
▁Sandy
▁Stars
▁Table
▁Teach
▁avian
▁baked
▁botan
▁burnt
▁canoe
▁cooks
▁crews
▁disem
▁erupt
▁gentr
▁gyrus
▁hates
▁hides
▁hints
▁iPods
▁inaug
▁inbox
▁laryn
▁lipid
▁locks
▁mobil
▁notor
▁oddly
▁opium
▁outsk
▁paved
▁pavil
▁piled
▁puppy
▁purse
▁queue
▁relay
▁sands
▁scarf
▁smash
▁stove
▁swall
▁swine
▁tours
▁venue
▁verbs
Nothing
achelor
ahedron
alizing
aternal
between
defense
ethical
fetched
fiction
forming
graders
meaning
nothing
oglobin
ossible
reating
stellar
support
ulators
washing
winning
▁Bonica
▁Carbon
▁Eiffel
▁Future
▁Galaxy
▁Geneva
▁Gordon
▁Graham
▁Hannah
▁Market
▁Seeing
▁Simone
▁anomal
▁baking
▁begged
▁behead
▁booksh
▁bumble
▁cancel
▁cavity
▁chased
▁cheeks
▁clumps
▁coated
▁decept
▁dexter
▁dishon
▁duties
▁essays
▁exhale
▁faiths
▁folder
▁frugal
▁futile
▁grants
▁healed
▁parade
▁pasted
▁posing
▁puppet
▁riddle
▁rigged
▁scaven
▁sewing
▁sliced
▁spokes
▁suburb
▁tapped
▁trance
▁untold
▁uphold
▁zombie
Oumuamua
assemble
ensitive
entioned
galactic
odynamic
ractical
▁Baghdad
▁Buffalo
▁Burning
▁Conserv
▁Earlier
▁Further
▁Hopkins
▁Melinda
▁Network
▁Rebecca
▁Reserve
▁academy
▁aggress
▁agility
▁camoufl
▁choking
▁crooked
▁cynical
▁damages
▁dealers
▁denying
▁depress
▁detects
▁dislike
▁droplet
▁engages
▁firefly
▁gadgets
▁greener
▁imprint
▁kicking
▁killers
▁lantern
▁lexicon
▁lurking
▁outlook
▁pellets
▁realism
▁revisit
▁runners
▁sailors
▁seismic
▁shrinks
▁spouses
▁stripes
▁supreme
▁tagging
▁teaming
▁vending
▁visibly
▁weirdly
▁whiskey
asionally
consuming
mountable
regulated
▁Agricult
▁Alliance
▁Austrian
▁Festival
▁Geoffrey
▁Humanity
▁Mandarin
▁Partners
▁Whitopia
▁adorable
▁antibody
▁attacker
▁audacity
▁automate
▁biofuels
▁bottlene
▁collects
▁conserve
▁corridor
▁critique
▁delicacy
▁deposits
▁deprived
▁dyslexia
▁estrogen
▁explores
▁filtered
▁fleeting
▁foragers
▁funerals
▁gambling
▁genitals
▁harassed
▁haunting
▁hectares
▁horribly
▁imminent
▁invaders
▁knitting
▁lawsuits
▁migraine
▁mounting
▁overhear
▁paranoid
▁pathetic
▁persists
▁phosphor
▁pictured
▁relating
▁rooftops
▁routines
▁screamed
▁serendip
▁smelling
▁solvable
▁stacking
▁stomachs
▁textures
▁troubles
▁unfolded
▁unlocked
▁upstairs
▁variants
▁vascular
▁vitality
▁vitamins
▁vomiting
▁wasteful
▁wondrous
▁wrapping
▁Beautiful
▁Community
▁Excellent
▁Icelandic
▁Nathaniel
▁Pakistani
▁Raisuddin
▁Stockholm
▁Valentine
▁alienated
▁analogies
▁appalling
▁benchmark
▁blindfold
▁caterpill
▁confessed
▁dashboard
▁defendant
▁dignified
▁dismantle
▁enjoyment
▁expresses
▁imitation
▁incapable
▁increment
▁inorganic
▁insisting
▁interplay
▁irrespons
▁justified
▁juveniles
▁landfills
▁logically
▁mandatory
▁marketers
▁notorious
▁organizer
▁pesticide
▁pointless
▁poisonous
▁portfolio
▁proposals
▁provision
▁proximity
▁recurring
▁skyrocket
▁surrogate
▁tentacles
▁treasures
▁treatable
▁validated
▁whistling
intentioned
▁Copernicus
▁Mathematic
▁assembling
▁assistants
▁billboards
▁comforting
▁compensate
▁deliveries
▁diagnosing
▁diminished
▁embodiment
▁femininity
▁generators
▁grasslands
▁innovating
▁microbiome
▁millennial
▁mutilation
▁paintbrush
▁propulsion
▁reconsider
▁redemption
▁sentencing
▁superhuman
▁supervisor
▁whispering
disciplinary
governmental
▁Scandinavia
▁affirmative
▁billionaire
▁capitalists
▁comfortably
▁comparative
▁conjunction
▁continental
▁conventions
▁egalitarian
▁elimination
▁grammatical
▁interpreter
▁replication
▁speculative
▁spreadsheet
▁voluntarily
▁Occasionally
▁accelerators
▁encountering
▁foundational
▁fundamentals
▁investigator
▁recreational
▁ridiculously
▁scholarships
▁sociologists
▁trajectories
▁carbohydrates
▁confrontation
▁gratification
▁hallucination
▁refrigerators
▁transnational
▁unconsciously
▁configurations
▁groundbreaking
▁specialization
▁interpretations
15
Co
ML
RS
ho
ni
vi
:30
ART
Act
Eng
abb
aco
ais
dec
fed
iko
irv
log
mot
nor
obe
ori
oux
uix
urg
utt
▁9,
▁Ak
▁BP
▁DG
▁HR
▁LB
▁OP
▁PS
▁ul
Arab
Does
Mich
achs
amis
andy
anor
answ
apot
auth
bels
blem
bugs
cion
corn
esar
gone
have
hots
inic
iral
iret
ista
ivia
kens
leum
mite
nine
olor
onte
oose
orig
prov
robe
stud
tuce
yonc
▁60,
▁ABC
▁Bin
▁Jar
▁Lam
▁Ooh
▁RNG
▁Rot
▁Rou
▁Sed
▁THC
▁Vel
▁Yus
▁asc
▁clo
▁enl
▁lig
▁oun
▁tug
2,000
Sighs
acist
anets
ascal
atism
avian
berto
chief
doing
eshet
esian
esium
illas
ipcar
itius
plant
ragon
riers
rings
ronic
still
▁1850
▁Cool
▁Cura
▁Film
▁Hass
▁Hood
▁Huge
▁IKEA
▁Insp
▁Java
▁Kurd
▁Labs
▁Male
▁Maps
▁Mess
▁Musu
▁Pack
▁Path
▁Pick
▁Race
▁Ravi
▁Rest
▁Schr
▁Snap
▁Spot
▁Vest
▁Viol
▁Vlad
▁arom
▁bake
▁bast
▁burd
▁feud
▁fuck
▁gour
▁hoop
▁jerk
▁knit
▁knob
▁lobb
▁memo
▁mole
▁pens
▁phon
▁porr
▁shru
▁sins
▁sore
▁spun
▁tant
▁tile
▁unap
▁vamp
alians
aptist
artial
author
corded
icists
illers
immune
irvana
orical
oubted
pshire
stones
uantum
uaries
uixote
umbing
▁1969,
▁2001.
▁Appro
▁Athen
▁Baker
▁Daddy
▁Denis
▁Donna
▁Extra
▁Front
▁Galen
▁Hands
▁Happy
▁Inuit
▁Jimmy
▁Leave
▁Linda
▁Looks
▁Money
▁Nixon
▁Offic
▁Press
▁Title
▁Tracy
▁Veter
▁Wells
▁Youth
▁adher
▁adore
▁agony
▁babys
▁bacon
▁caffe
▁choke
▁deriv
▁desal
▁dials
▁eaves
▁fetch
▁flips
▁fluff
▁forge
▁fries
▁grids
▁hypoc
▁manic
▁matri
▁paren
▁plaza
▁reapp
▁repay
▁scalp
▁scrib
▁sling
▁stats
▁tapir
▁toxin
▁typed
▁unfor
arently
banisha
cutting
ificial
introdu
iterate
licking
ometric
reading
renches
ularity
umption
versive
violent
▁Beauty
▁Beyonc
▁Harold
▁Harris
▁Hirosh
▁Laptop
▁Maslow
▁Mellon
▁Sergey
▁Theory
▁antiqu
▁blinds
▁boiled
▁bonded
▁browse
▁bundle
▁coloss
▁connot
▁cyborg
▁deport
▁disreg
▁domino
▁duplic
▁finely
▁floats
▁hippie
▁homage
▁hosted
▁housed
▁hubris
▁libert
▁merits
▁mesmer
▁microb
▁micron
▁mildly
▁miners
▁mutant
▁nausea
▁noting
▁overth
▁paired
▁pepper
▁pickle
▁pissed
▁plumes
▁quadru
▁rupees
▁seller
▁softer
▁sophom
▁sponge
▁sprout
▁thrift
▁tossed
▁twists
▁unanim
▁unjust
▁unload
▁unpaid
▁waiter
▁wicked
▁yelled
aternity
economic
rophobic
thousand
▁Against
▁Caltech
▁Fifteen
▁Finding
▁Individ
▁Jacques
▁Midwest
▁Nuclear
▁Ottoman
▁Patagon
▁Sending
▁Solomon
▁Spencer
▁Strange
▁acutely
▁angular
▁animate
▁antiret
▁blended
▁blinded
▁bothers
▁branded
▁curated
▁diffuse
▁discern
▁dropout
▁endemic
▁excites
▁exclude
▁fission
▁gorilla
▁grazing
▁grizzly
▁handled
▁inflate
▁inwards
▁kissing
▁legends
▁marital
▁orchids
▁panhand
▁perplex
▁provoke
▁retinal
▁sampled
▁seekers
▁sermons
▁shorten
▁skyline
▁smelled
▁sorting
▁stealth
▁swiftly
▁tweeted
▁unarmed
▁unravel
▁villain
▁voltage
▁weights
▁wildest
planetary
roductive
▁Broadway
▁Malaysia
▁Mitchell
▁Peseshet
▁Prochlor
▁Protocol
▁Sisyphus
▁TEDTalks
▁Warcraft
▁allocate
▁anecdote
▁antennas
▁biblical
▁bloggers
▁branding
▁breathed
▁campuses
▁classify
▁colonize
▁converge
▁diagonal
▁diplomat
▁discoura
▁disputes
▁dividend
▁doctrine
▁empowers
▁enforced
▁exterior
▁eyebrows
▁eyesight
▁flipping
▁forcibly
▁fountain
▁hallways
▁impostor
▁kilowatt
▁laborers
▁landmark
▁lifelike
▁literate
▁marketed
▁meditate
▁melodies
▁monarchs
▁ordering
▁panicked
▁pavement
▁porridge
▁portions
▁progeria
▁prolific
▁promotes
▁rhythmic
▁scanners
▁sinister
▁squirrel
▁sunshine
▁supercom
▁toxicity
▁unapolog
▁verified
▁wildfire
sufficient
▁Halloween
▁Nanopatch
▁Northwest
▁abolition
▁absorbing
▁advertise
▁aerospace
▁asymmetry
▁avoidance
▁boardroom
▁bombarded
▁boundless
▁civilized
▁composers
▁courtship
▁criticize
▁curvature
▁degrading
▁diagnoses
▁directing
▁embroider
▁explosive
▁gardening
▁greatness
▁hazardous
▁mainframe
▁mimicking
▁momentous
▁municipal
▁mutilated
▁northwest
▁outsiders
▁outskirts
▁oversight
▁pandemics
▁partition
▁patchwork
▁personnel
▁petroleum
▁polarized
▁positives
▁possessed
▁propagate
▁prospects
▁protested
▁publicity
▁redefined
▁resurrect
▁southwest
▁squeezing
▁sunscreen
▁synchrony
▁terabytes
▁thrilling
▁travelers
▁unchanged
▁whispered
▁Apparently
▁Management
▁Panbanisha
▁caricature
▁conquering
▁domination
▁evaluating
▁exercising
▁extensions
▁geologists
▁hemoglobin
▁humiliated
▁hurricanes
▁illiteracy
▁memorizing
▁nationally
▁percussion
▁prejudices
▁proverbial
▁quarantine
▁randomized
▁rectangles
▁recyclable
▁reductions
▁repurposed
▁sabbatical
▁soundscape
▁Environment
▁Furthermore
▁Independent
▁aerodynamic
▁calculators
▁cockroaches
▁consultants
▁coordinates
▁disturbance
▁examination
▁hospitality
▁inheritance
▁intercourse
▁metabolites
▁multiplayer
▁objectively
▁participant
▁pluripotent
▁positioning
▁progressing
▁renaissance
▁antiretrovir
▁collaborated
▁considerably
▁experimented
▁fermentation
▁frustrations
▁geopolitical
▁incompatible
▁inconsistent
▁intermediate
▁microprocess
▁motivational
▁partisanship
▁proportional
▁simultaneous
▁transporting
▁unbelievably
▁biodegradable
▁extracellular
▁homosexuality
▁knowledgeable
▁philanthropic
▁constellations
▁contraceptives
▁insurmountable
▁philanthropists
24
Cr
NS
xo
Any
Big
akh
eas
ede
fem
him
iah
igo
joy
lon
mad
ofi
pty
sol
usk
▁5:
▁CL
▁Eh
▁GP
▁HG
▁Ho
▁Oz
▁RA
▁SJ
▁TH
▁WA
▁ft
Card
John
Make
acus
alle
azar
bots
bows
chip
comb
cool
eded
erry
haul
igms
ihar
inen
inis
issa
liqu
loor
moud
onom
opot
pent
pool
rals
site
this
ubes
uble
uick
umor
uran
uter
vish
voir
▁'40
▁0.1
▁2.0
▁401
▁Alg
▁BMI
▁Bio
▁Buy
▁CDs
▁Cro
▁Cry
▁Fra
▁HPV
▁Huh
▁Kas
▁Lil
▁Lim
▁Lot
▁Mut
▁Oil
▁Pav
▁Sac
▁Sav
▁Sla
▁Sue
▁UPS
▁WPR
▁abd
▁cig
▁goo
▁hym
▁myc
▁owl
▁sod
▁til
▁tru
▁unl
▁urg
Small
White
World
agell
arosc
bolic
cends
eresa
eroon
etery
fired
first
merse
nered
ockef
oeing
ollen
pared
putin
risis
riter
toler
uanah
ucive
urren
volta
xious
yards
▁2002
▁2011
▁Beth
▁Buzz
▁Coal
▁Dist
▁Eucl
▁Gods
▁Gott
▁Heav
▁Holl
▁Maya
▁Noor
▁PISA
▁Prov
▁Rust
▁Sans
▁Siri
▁Thai
▁Twin
▁crux
▁dazz
▁deed
▁evac
▁heir
▁idle
▁mans
▁moss
▁pian
▁poke
▁pork
▁puls
▁punk
▁sham
▁subd
▁tard
▁thee
▁upbr
50,000
Excuse
acency
anding
assing
blower
enzhen
leness
master
omatic
opathy
opedic
opotam
otally
oteric
riters
uating
ussels
volent
▁1980.
▁2005.
▁2006.
▁2014.
▁2016.
▁Adams
▁Allow
▁Billy
▁CAPTC
▁Champ
▁Choir
▁Clean
▁Coach
▁Drake
▁Faith
▁Flint
▁Honey
▁Ident
▁Jonas
▁Julie
▁Kabul
▁Kamen
▁Monet
▁Pluto
▁Roots
▁Rosie
▁Sachs
▁Shack
▁Shame
▁Titus
▁Ultra
▁Yahoo
▁alley
▁biome
▁birch
▁broth
▁bully
▁buyer
▁cache
▁cocoa
▁crisp
▁delta
▁disli
▁dives
▁ethos
▁faded
▁feats
▁glove
▁glued
▁harms
▁helix
▁hijab
▁horns
▁inhal
▁insom
▁intra
▁keros
▁knots
▁lamps
▁landm
▁leaps
▁mason
▁metam
▁nanot
▁neuro
▁parap
▁penny
▁pivot
▁ports
▁prose
▁rogue
▁squad
▁stall
▁tidal
▁tunas
▁undes
▁unsur
▁venge
▁wasps
▁weeds
covered
enabled
focused
inition
machine
ocation
playing
ranking
ronting
starter
teacher
western
▁Bertha
▁Carlos
▁Diplom
▁Enough
▁Excuse
▁Farmer
▁Fuller
▁Honest
▁Lucius
▁Montag
▁Object
▁Pascal
▁Rockef
▁Search
▁Yoruba
▁acidic
▁banner
▁biking
▁biopsy
▁breeze
▁bribes
▁census
▁cherry
▁cloned
▁commem
▁cowboy
▁cursor
▁dawned
▁devise
▁dismal
▁drying
▁eldest
▁fading
▁favela
▁franch
▁frivol
▁fronts
▁gamble
▁hustle
▁joking
▁knight
▁orchid
▁owning
▁oyster
▁parity
▁parole
▁pastor
▁patrol
▁pickup
▁pillow
▁poised
▁polygl
▁proton
▁purity
▁regrow
▁remake
▁robbed
▁sequel
▁sermon
▁sliver
▁sparks
▁splend
▁subord
▁sweats
▁sweaty
▁tigers
▁unsett
▁wizard
Actually
European
asonable
imentary
oubtedly
▁Eleanor
▁Empathy
▁Farmers
▁Hungary
▁Morocco
▁Sitting
▁Stevens
▁Theresa
▁ambient
▁anguish
▁autopsy
▁backing
▁balcony
▁bathtub
▁blogger
▁blossom
▁booming
▁bounces
▁bumping
▁circled
▁coconut
▁denomin
▁diapers
▁distill
▁edition
▁entries
▁expects
▁eyebrow
▁fascist
▁fighter
▁freaked
▁giraffe
▁glacial
▁headset
▁inhibit
▁insides
▁lettuce
▁lightly
▁listing
▁merging
▁nonstop
▁outputs
▁oysters
▁peanuts
▁pledged
▁presses
▁presume
▁psychic
▁ravaged
▁roaring
▁robbery
▁rounded
▁seniors
▁spelled
▁summers
▁sweater
▁swollen
▁tactile
▁thanked
▁toolbox
▁variant
▁weaving
▁whereby
▁zooming
Whistling
inspiring
portation
▁Cameroon
▁Changing
▁Electric
▁Italians
▁LinkedIn
▁Rasputin
▁Shenzhen
▁Starting
▁Superman
▁Thinking
▁Tomorrow
▁afforded
▁analyses
▁aquarium
▁artworks
▁aversion
▁barefoot
▁betrayal
▁bombings
▁bursting
▁caffeine
▁catapult
▁cavities
▁cleverly
▁combines
▁conquest
▁defender
▁dictated
▁downside
▁dreadful
▁emailing
▁enriched
▁explodes
▁farthest
▁grinding
▁irrevers
▁likewise
▁manually
▁microRNA
▁ministry
▁missiles
▁monetary
▁newfound
▁nutshell
▁parental
▁pendulum
▁pharmacy
▁politely
▁polymers
▁prolifer
▁refusing
▁reinvest
▁remnants
▁repaired
▁resigned
▁resisted
▁servants
▁shameful
▁stickers
▁striatum
▁tailored
▁takeaway
▁teamwork
▁thankful
▁theorist
▁toddlers
▁tutoring
▁uniforms
▁untapped
▁urgently
▁waitress
▁watering
▁weakened
▁wetlands
engineered
▁Cambodian
▁Depending
▁Fantastic
▁Following
▁Hungarian
▁Sebastian
▁accounted
▁analogous
▁antipsych
▁arrogance
▁borrowing
▁cancerous
▁capillary
▁carcasses
▁circulate
▁collector
▁conducive
▁consulted
▁courtyard
▁curiously
▁densities
▁departure
▁directive
▁dispersed
▁enclosure
▁fireworks
▁foresight
▁fostering
▁harnessed
▁housework
▁impending
▁incidence
▁initiated
▁insidious
▁lucrative
▁mammogram
▁metronome
▁milestone
▁multitude
▁nominated
▁outnumber
▁pacemaker
▁paradigms
▁pollinate
▁proceeded
▁rearrange
▁recreated
▁reintrodu
▁relocated
▁reminding
▁repairing
▁revolving
▁scratched
▁stumbling
▁underwear
▁unethical
▁untreated
▁vacations
▁wholesale
performance
▁Goldilocks
▁Personally
▁Protection
▁amplifying
▁amputation
▁applicable
▁bankruptcy
▁beforehand
▁cellphones
▁constitute
▁contextual
▁emphasized
▁estimation
▁filmmaking
▁homophobia
▁implicated
▁inequities
▁inflection
▁narcissism
▁paraphrase
▁phosphorus
▁plasticity
▁playwright
▁positivity
▁progressed
▁protesting
▁replicator
▁sandwiches
▁speculated
▁toothpaste
▁trafficked
▁underworld
▁unfairness
▁unreliable
▁upbringing
▁vocational
▁wildebeest
▁wirelessly
organization
▁Rockefeller
▁Yellowstone
▁archaeology
▁chronically
▁commonality
▁compression
▁containment
▁contentious
▁correctness
▁declaration
▁democratize
▁disruptions
▁exquisitely
▁generalized
▁holographic
▁illustrated
▁invitations
▁malfunction
▁mountaintop
▁occupations
▁outstanding
▁penetration
▁psychopaths
▁respectable
▁administered
▁aspirational
▁billionaires
▁coordinating
▁domesticated
▁hierarchical
▁illuminating
▁inconvenient
▁preconceived
▁reservations
▁synchronized
▁approximation
▁archaeologist
▁architectures
▁autobiography
▁breastfeeding
▁crowdsourcing
▁encouragement
▁modifications
▁probabilities
▁transcendence
▁administrative
▁revolutionized
',
5-
Bs
IM
Ne
Po
Pr
Se
hu
Cal
Per
Rem
Sil
aca
alg
ano
bus
chw
cko
die
esi
eto
fit
iba
ieu
jac
jev
lee
mir
rap
rip
rod
sub
var
▁61
▁AC
▁BA
▁EB
▁ED
▁Et
▁Ga
▁HT
▁LN
▁SG
▁SH
alan
alin
ango
aris
circ
cock
colm
erie
eses
gals
gium
gles
iazz
iets
iffs
imee
imir
inoc
into
ishu
lave
mies
mort
ocus
odge
ogyn
orem
quet
reek
regn
shit
then
tops
uber
uded
vous
went
zers
▁1.8
▁183
▁AED
▁Alb
▁Bie
▁Blu
▁Det
▁Fac
▁Fel
▁Gla
▁Ivy
▁Kaz
▁Kel
▁Kra
▁Mao
▁Mou
▁VCs
▁beg
▁erg
▁hed
▁pac
▁ply
▁rer
▁sue
Cause
First
Piano
Sound
adors
ancet
asket
atons
burst
cloth
ecess
entry
estab
etine
guard
ishly
istas
itans
ocean
oodoo
opter
pless
rinos
roups
there
▁Belt
▁Brah
▁Coch
▁Cort
▁Dear
▁Educ
▁Euro
▁Grab
▁Gwen
▁Jake
▁Jung
▁Kahn
▁Kofi
▁Kush
▁LIGO
▁Lion
▁Mola
▁Mold
▁Oslo
▁Pale
▁Palm
▁Palo
▁Prad
▁Priv
▁Resp
▁Shah
▁Stra
▁TEDG
▁Term
▁Tour
▁Wang
▁Week
▁atop
▁bets
▁cane
▁chor
▁clan
▁clen
▁coli
▁dere
▁dock
▁drip
▁duct
▁flux
▁fren
▁gren
▁hail
▁hicc
▁loaf
▁logs
▁pies
▁quar
▁raid
▁ratt
▁sane
▁sofa
▁soot
▁styl
▁synt
▁tram
▁unpl
▁vain
▁vuma
acking
alysis
apolis
cartes
ickets
idency
igator
ilbert
ippers
itized
liness
modern
opsies
otypes
ouncer
owness
reedom
ribers
ridden
sembly
shield
square
tailed
uctors
umbers
weeney
▁3,500
▁Above
▁Aires
▁Allah
▁Bloom
▁Bring
▁Civic
▁Class
▁Claus
▁Diana
▁Gehry
▁Glenn
▁Immed
▁Jacob
▁Jenny
▁Juana
▁Lanka
▁McKin
▁Mogad
▁Osama
▁Papua
▁Polar
▁Rouge
▁arche
▁bathe
▁bount
▁carbs
▁carts
▁feast
▁fried
▁frown
▁goofy
▁highs
▁hilar
▁ivory
▁liken
▁malle
▁mixes
▁monst
▁moods
▁mound
▁newer
▁nicer
▁oiled
▁onion
▁progn
▁ranch
▁recal
▁revol
▁sails
▁silks
▁spicy
▁stool
▁tapes
▁tasty
▁tempo
▁unden
▁vigor
▁vodka
▁wagon
▁worsh
cession
colored
ervices
etheart
filling
minster
orthand
pattern
process
seeking
uristic
▁Adding
▁Archie
▁Ashley
▁Austen
▁Bassem
▁Buenos
▁Chapel
▁Crisis
▁Denver
▁Elvish
▁Fields
▁Forbes
▁Freder
▁Jennie
▁Julius
▁Lakota
▁Marian
▁Master
▁Miller
▁Princi
▁Refuge
▁Rivers
▁Stress
▁Towers
▁amphib
▁argues
▁autumn
▁bakery
▁bathed
▁beacon
▁bipart
▁blades
▁blooms
▁cannon
▁carniv
▁chicks
▁clergy
▁cradle
▁cursed
▁demise
▁dissip
▁divert
▁doable
▁filing
▁hypnot
▁ignite
▁intrud
▁kisses
▁latent
▁limbic
▁majors
▁microf
▁myriad
▁napkin
▁nuance
▁outfit
▁outset
▁overst
▁paddle
▁palind
▁photon
▁plains
▁pumped
▁quartz
▁radios
▁ratios
▁resent
▁rhinos
▁rovers
▁rugged
▁runway
▁shrine
▁sickle
▁skiing
▁smoked
▁socket
▁spices
▁strife
▁subtit
▁timely
▁tokens
▁transc
▁undert
▁unites
▁unstop
▁ventil
▁wholly
▁wisely
Everyone
learning
▁Animals
▁Bahamas
▁Baldwin
▁Estonia
▁Gabriel
▁Gallery
▁Goldman
▁Mahmoud
▁Malcolm
▁Outside
▁Rosling
▁Shirley
▁Student
▁Syrians
▁Traffic
▁Volunte
▁abalone
▁abusing
▁bribery
▁captive
▁coldest
▁culprit
▁daytime
▁densely
▁discard
▁endorse
▁escapes
▁fifteen
▁foresee
▁fucking
▁governs
▁heroism
▁ignores
▁immerse
▁infects
▁inflict
▁infused
▁issuing
▁lateral
▁layered
▁loosely
▁misogyn
▁notable
▁nourish
▁nursery
▁parable
▁plunged
▁premier
▁pundits
▁raining
▁receipt
▁relieve
▁reminis
▁retract
▁ripping
▁rubbing
▁seaweed
▁secrete
▁shuffle
▁studios
▁succumb
▁unfolds
▁wishing
activated
ifference
important
terrorism
▁Athenian
▁Bacteria
▁Beauvoir
▁Brussels
▁Citizens
▁Director
▁Movember
▁Stirling
▁Symphony
▁TEDWomen
▁Treating
▁Vladimir
▁assisted
▁balances
▁betrayed
▁ceramics
▁cleaners
▁climates
▁clinging
▁colonosc
▁cosmetic
▁coworker
▁cucumber
▁declines
▁defiance
▁descript
▁detached
▁eruption
▁esoteric
▁exhibits
▁exported
▁flapping
▁forestry
▁formally
▁grandson
▁grueling
▁humpback
▁idealism
▁inhibits
▁kerosene
▁mindless
▁mornings
▁optional
▁outreach
▁plotting
▁plugging
▁reassure
▁recharge
▁redirect
▁reusable
▁semantic
▁setbacks
▁spanning
▁specimen
▁sponsors
▁suspense
▁twisting
▁updating
▁wandered
▁workings
angiogenic
expression
▁Descartes
▁Discovery
▁Hampshire
▁Melbourne
▁Mogadishu
▁Synthetic
▁TEDGlobal
▁adjusting
▁amputated
▁awakening
▁biofabric
▁biography
▁communism
▁constrict
▁correlate
▁discharge
▁discontin
▁downsides
▁elevators
▁evaluated
▁exporting
▁exposures
▁fertilize
▁grandkids
▁grassland
▁inanimate
▁informant
▁leveraged
▁makeshift
▁messenger
▁modernity
▁monastery
▁mouthpart
▁networked
▁neutrinos
▁policemen
▁preaching
▁predecess
▁prolonged
▁resonated
▁retention
▁saltwater
▁sociology
▁sophomore
▁superbugs
▁symmetric
▁Lesterland
▁admiration
▁autoimmune
▁barbershop
▁brainwaves
▁celebrates
▁ceremonies
▁compliance
▁distortion
▁downstream
▁exhaustion
▁exoplanets
▁formations
▁guarantees
▁lifestyles
▁magnifying
▁negativity
▁negotiated
▁orthopedic
▁plantation
▁prevailing
▁prosecuted
▁protocells
▁recreating
▁redefining
▁redundancy
▁sacrificed
▁sentiments
▁shockingly
▁thermostat
▁transcript
▁witchcraft
▁worldviews
▁Declaration
▁Traditional
▁Underground
▁accountants
▁anesthetics
▁biochemical
▁cartoonists
▁confronting
▁contraction
▁crowdsource
▁crystalline
▁discouraged
▁dynamically
▁exceedingly
▁impractical
▁intimidated
▁legislative
▁perpetrator
▁possessions
▁prematurely
▁preoccupied
▁rudimentary
▁sociologist
▁stewardship
▁transplants
▁undermining
▁undertaking
▁vertebrates
▁Commandments
▁Johannesburg
▁Palestinians
▁Thanksgiving
▁appointments
▁assassinated
▁colonization
▁fingerprints
▁insecticides
▁insecurities
▁interpreting
▁optimization
▁transferring
▁Worldchanging
▁anthropomorph
▁consolidation
▁contradictory
▁disadvantages
▁enlightenment
▁intergalactic
▁interruptions
▁repercussions
▁acknowledgment
▁collaborations
▁correspondence
▁fundamentalism
▁misconceptions
▁Prochlorococcus
▁personalization
▁trustworthiness
'.
2-
2:
CK
OM
PD
Sc
zh
App
Bre
SEL
Sem
aux
bas
chu
eur
loe
rik
rob
tun
umi
vag
vie
von
xic
yll
zel
▁9.
▁92
▁DK
▁Dh
▁IW
▁JB
▁Ja
▁KT
▁OS
▁Pa
▁RF
▁Um
▁WW
▁Yu
▁oo
,500
Char
ESCO
Jaws
Some
Sook
alph
anth
anty
asms
atra
cert
chen
deal
elic
fuel
game
gill
illo
itha
itol
jevo
kina
laws
left
loop
mong
moor
nest
nour
obot
olan
oras
orch
orge
oubt
oves
poll
priv
uart
uler
ummy
unal
verb
wait
yrin
▁"19
▁40.
▁Ale
▁Alf
▁Bed
▁Boh
▁Box
▁Dim
▁Dum
▁Exx
▁Eye
▁Fol
▁Ins
▁Lif
▁Lux
▁Nad
▁Ner
▁Ord
▁Raj
▁Ret
▁Sid
▁Squ
▁TVs
▁USB
▁Uru
▁Yep
▁awa
▁bor
▁cac
▁doo
▁esp
▁gin
▁gly
▁lav
▁ore
▁raz
▁rim
▁ted
▁unb
▁woo
3,000
4,000
Black
Those
acted
antha
aptic
aract
arith
artha
artic
chnya
click
const
diagn
entin
glass
idges
ishop
liest
opies
ouble
oughs
rosis
roved
sided
simpl
ucing
ummer
unken
uters
utter
vatar
▁1984
▁1999
▁2003
▁99.9
▁Alto
▁Bora
▁Bowl
▁Cait
▁Cell
▁Chak
▁Chau
▁Chim
▁Cole
▁DVDs
▁Days
▁Draw
▁Faso
▁Fell
▁Ferm
▁Fern
▁Fine
▁Gill
▁Goth
▁Hein
▁Kash
▁Kate
▁Limb
▁Main
▁Musa
▁Name
▁Omar
▁Orth
▁Poly
▁Said
▁Sant
▁Saul
▁Seth
▁Tina
▁USDA
▁Uran
▁beeh
▁cite
▁crut
▁dove
▁dune
▁ench
▁hype
▁idol
▁liar
▁lush
▁mars
▁mint
▁murm
▁nude
▁plac
▁pony
▁rebo
▁sarc
▁shar
▁sour
▁spat
▁taps
▁tofu
▁trol
Arabic
Nature
Speech
Thanks
akenly
anning
arilyn
around
athons
brahim
buquer
comers
credit
estion
estyle
lucent
motion
ophony
opular
orting
pieces
rarian
review
sonian
system
uitary
ulence
urpose
▁1988,
▁1993,
▁1998.
▁2002.
▁Amund
▁Benki
▁Break
▁Casey
▁Cloud
▁Devil
▁Diver
▁Edgar
▁Kafka
▁Katie
▁Motor
▁Putin
▁Ralph
▁Sioux
▁Tyler
▁Volta
▁Woods
▁Wrong
▁affil
▁ample
▁assim
▁beers
▁broch
▁cheek
▁clerk
▁cling
▁debts
▁decou
▁demos
▁deton
▁disen
▁dogma
▁dolls
▁engra
▁feces
▁figur
▁fluor
▁forty
▁glide
▁lawns
▁lofty
▁menus
▁metic
▁prair
▁prere
▁quint
▁renov
▁robes
▁rumor
▁salty
▁shave
▁shove
▁sings
▁splin
▁squat
▁stent
▁swirl
▁tease
▁thorn
▁typew
▁unass
▁undet
▁usher
▁virtu
English
ambique
atility
checked
itching
ndering
staking
stander
thought
▁18,000
▁90,000
▁Always
▁Bertie
▁Couldn
▁Elliot
▁Extrem
▁Geiger
▁Growth
▁Herman
▁Lorenz
▁Mental
▁Napole
▁Neuros
▁Review
▁Rogers
▁Sheila
▁Shoots
▁Silver
▁Somali
▁Spread
▁Terror
▁Trying
▁UNESCO
▁barber
▁bomber
▁bounds
▁breeds
▁bushes
▁buyers
▁circus
▁cliche
▁climax
▁clunky
▁coales
▁curate
▁curled
▁dilute
▁eleven
▁encaps
▁engulf
▁excite
▁exting
▁filthy
▁floppy
▁haptic
▁honors
▁hurdle
▁jailed
▁lowers
▁meadow
▁metall
▁millig
▁mosaic
▁motive
▁nieces
▁offset
▁oracle
▁peaked
▁pelvis
▁picnic
▁pupils
▁ribbon
▁rocked
▁rubies
▁sanity
▁screws
▁shoved
▁shovel
▁skewed
▁skulls
▁spells
▁sturdy
▁teapot
▁tickle
▁tuning
▁uneasy
▁vanish
▁vanity
Clapping
atherine
berspace
dropping
engineer
illusion
medicine
original
sounding
▁Affairs
▁Antonio
▁Belgium
▁Bernard
▁Biology
▁Bonobos
▁Chicken
▁Commons
▁Correct
▁Fleming
▁Holland
▁Liberty
▁Persian
▁Plastic
▁Reality
▁Sweeney
▁Vermeer
▁Writing
▁Yorkers
▁alarmed
▁aquifer
▁benefic
▁blurred
▁bombard
▁bruises
▁buffalo
▁caption
▁carrots
▁closure
▁custody
▁defects
▁dispose
▁drained
▁earthly
▁embassy
▁envelop
▁fingern
▁freeing
▁humbled
▁kinetic
▁leveled
▁liquids
▁mercury
▁mocking
▁mussels
▁nesting
▁nuances
▁orbital
▁pageant
▁peasant
▁plunder
▁plywood
▁pointer
▁pottery
▁psyched
▁quoting
▁rallies
▁refuses
▁regards
▁reunion
▁revised
▁sausage
▁shooter
▁shouted
▁skeptic
▁slammed
▁sublime
▁sucking
▁suspend
▁tangled
▁tedious
▁tending
▁thrived
▁touring
▁tracing
▁valuing
▁whaling
▁witches
▁workout
▁wrestle
buquerque
developed
producing
▁Assembly
▁Chechnya
▁Diogenes
▁Hispanic
▁Islamist
▁Jamaican
▁Memorial
▁Samantha
▁Sarajevo
▁Services
▁abruptly
▁agreeing
▁averages
▁bachelor
▁backdrop
▁barbecue
▁breathes
▁canceled
▁carriage
▁carriers
▁cataract
▁cervical
▁checkers
▁clearest
▁colossal
▁councils
▁counties
▁credited
▁crutches
▁curtains
▁decoding
▁deficits
▁desolate
▁destabil
▁disclose
▁disguise
▁elegance
▁enclosed
▁hardship
▁horizons
▁hysteria
▁inflated
▁kingdoms
▁latitude
▁leapfrog
▁majestic
▁mediated
▁mindsets
▁monogamy
▁mourning
▁needless
▁obituary
▁poisoned
▁postcard
▁propriet
▁recorder
▁relaunch
▁ruthless
▁sameness
▁seamless
▁showcase
▁solitude
▁termites
▁trenches
▁upcoming
▁vanished
▁vicinity
▁warnings
▁windmill
▁wrestled
▁Announcer
▁Buildings
▁Ethiopian
▁Mauritius
▁Mesopotam
▁Newtonian
▁Political
▁alcoholic
▁attendant
▁bothering
▁calendars
▁colliding
▁complaint
▁contempor
▁depletion
▁dexterity
▁diplomats
▁divergent
▁ecologist
▁endurance
▁energized
▁enhancing
▁expansive
▁fantasies
▁flowering
▁follicles
▁foreigner
▁franchise
▁frivolous
▁highlands
▁ingrained
▁localized
▁malicious
▁matriarch
▁miserably
▁misguided
▁obedience
▁outsource
▁paradoxes
▁pipelines
▁plummeted
▁propeller
▁remission
▁resembles
▁righteous
▁shorthand
▁smugglers
▁southeast
▁spectrosc
▁spherical
▁summaries
▁tinkering
▁underwent
▁watershed
▁wildfires
ratulations
replicating
▁Conversely
▁Leadership
▁Manchester
▁Mechanical
▁Mozambique
▁Scientific
▁Understand
▁alienation
▁byproducts
▁charitable
▁composting
▁conductive
▁correcting
▁decorative
▁deficiency
▁delegation
▁descending
▁divergence
▁dominating
▁explosives
▁foreigners
▁infidelity
▁inflatable
▁kidnapping
▁maximizing
▁megacities
▁minimizing
▁mistakenly
▁occurrence
▁oncologist
▁orphanages
▁paralegals
▁plutocrats
▁psychiatry
▁recipients
▁recreation
▁skyscraper
▁stabilized
▁stationary
▁submission
▁subversive
▁summarized
▁sweetheart
▁thereafter
▁tirelessly
▁topography
▁unbearable
▁uniqueness
▁validation
▁waterfront
▁wealthiest
▁windshield
▁xenophobia
conditioning
▁Kickstarter
▁accusations
▁conceivable
▁conditioned
▁consumerism
▁deconstruct
▁denominator
▁disenfranch
▁exoskeleton
▁expenditure
▁indifferent
▁microbiomes
▁microsecond
▁noninvasive
▁painkillers
▁painstaking
▁paradoxical
▁patriarchal
▁personalize
▁prehistoric
▁prohibition
▁reimagining
▁resourceful
▁sympathetic
▁translucent
▁traumatized
▁undoubtedly
▁unstoppable
▁Increasingly
▁appreciating
▁biomaterials
▁biomolecules
▁compositions
▁democratized
▁disturbances
▁firefighters
▁generational
▁interstellar
▁overestimate
▁questionable
▁transcendent
▁transplanted
▁Psychologists
▁advertisement
▁astonishingly
▁connectedness
▁imperfections
▁individuality
▁irresponsible
▁misunderstand
▁schizophrenic
▁statisticians
▁superposition
▁uncertainties
▁antiangiogenic
▁differentiated
▁gentrification
▁interdependent
▁supercomputers
▁superconductor
▁criminalization
)"
Ac
Os
SF
Sp
Yo
-18
Doh
FCs
Gas
Two
War
ady
agg
bao
cia
cot
don
ept
hum
inn
iox
iso
las
los
nee
nex
oda
oro
oup
oys
ppe
sac
she
shr
upp
zwe
▁Ax
▁GH
▁HC
▁PJ
▁SL
▁VC
▁km
▁ot
Ball
Beep
From
With
agra
amer
anzi
atri
bies
cake
coun
gend
girl
haus
inee
inqu
iose
iots
isse
ivan
knit
krit
lash
loys
male
olon
open
rice
rude
scen
sein
seus
shed
sole
stit
uktu
ungu
untu
wage
▁1.1
▁21.
▁240
▁4.5
▁911
▁AGF
▁AIs
▁Arr
▁Aus
▁Bou
▁Bye
▁Dys
▁Eis
▁Flo
▁Fun
▁ICU
▁Ian
▁Jet
▁Lic
▁NPR
▁Nok
▁PCR
▁RSW
▁Rat
▁Ren
▁Sem
▁Taj
▁Tip
▁Tub
▁Tus
▁UNA
▁Vit
▁Wag
▁Wid
▁Woo
▁Yan
▁Yaz
▁ail
▁axe
▁cos
▁fry
▁hoo
▁imb
▁sph
▁sty
▁tet
about
abuki
achie
acock
actor
anson
asons
atars
athed
ector
ender
grace
happy
idget
ivian
lider
metry
nesty
nobyl
olese
rived
robot
stock
tenth
umers
umped
zweil
▁1500
▁1998
▁401(
▁Agre
▁Aviv
▁Bage
▁Bios
▁Bull
▁Curt
▁Dana
▁Deah
▁Doha
▁Dome
▁Dust
▁ELAM
▁Emot
▁Gert
▁IDEO
▁Iris
▁Khal
▁Lost
▁OPEC
▁Prom
▁Romo
▁Sadd
▁Shep
▁Ther
▁Tric
▁Want
▁aven
▁cove
▁cozy
▁dang
▁dich
▁ejac
▁fare
▁fiss
▁fitt
▁fuss
▁geys
▁joys
▁latt
▁loom
▁lows
▁maim
▁mobs
▁mute
▁oils
▁pals
▁pore
▁poth
▁pups
▁rais
▁rash
▁ridd
▁sage
▁siph
▁suey
▁vern
▁vint
▁visa
atelyn
cephal
collar
etooth
ewater
fected
iately
iators
ilever
incter
inidad
isible
onents
orrhiz
ounced
takers
ushima
▁"1984
▁1960.
▁1992,
▁2003.
▁Aimee
▁Angel
▁Armed
▁Atlas
▁Bihar
▁Calls
▁Coman
▁Creek
▁Crime
▁Cuban
▁Dance
▁Erica
▁Exxon
▁Gando
▁Henri
▁Horiz
▁Image
▁Integ
▁Kanzi
▁Makes
▁Match
▁Molas
▁Mouaz
▁Opera
▁Paula
▁Pract
▁Robot
▁Seoul
▁Tiger
▁Tumor
▁Twice
▁adage
▁adept
▁ammon
▁angst
▁avert
▁badge
▁banal
▁baton
▁binge
▁brass
▁brood
▁cello
▁charm
▁churn
▁coats
▁creed
▁discs
▁disob
▁endow
▁ephem
▁eugen
▁exits
▁fetal
▁fluke
▁frees
▁gecko
▁homem
▁joked
▁lapse
▁luxur
▁macho
▁mined
▁overe
▁petty
▁phage
▁porch
▁razor
▁retal
▁savvy
▁scold
▁semen
▁spoil
▁strum
▁telev
▁tents
▁tulip
▁tying
▁unatt
▁unear
▁vault
▁vitro
▁whack
▁whirl
▁widen
Marimba
beknown
chanics
conduct
estones
fathers
imbuktu
ingitis
ivering
onomous
ophobic
parency
pecting
rescent
ropolis
roponte
sustain
uminati
▁14,000
▁16,000
▁45,000
▁Advent
▁Alfred
▁Anders
▁Archae
▁Bilbao
▁Bonobo
▁Bright
▁Centre
▁Clevel
▁Employ
▁Gallup
▁Galois
▁Giving
▁Hansen
▁Harvey
▁Holmes
▁Hunter
▁Kanner
▁Martha
▁Period
▁Puerto
▁Sandra
▁Sharon
▁Sports
▁Studio
▁Target
▁Uranus
▁Visual
▁Voices
▁Voting
▁Warner
▁aboard
▁ampute
▁biting
▁blight
▁boldly
▁burger
▁callig
▁calves
▁chords
▁cornea
▁corros
▁coward
▁deform
▁delays
▁denies
▁devout
▁dialed
▁exiled
▁faulty
▁fished
▁flowed
▁flutes
▁gadget
▁glimps
▁gluten
▁handsh
▁hugged
▁humbly
▁interm
▁merged
▁molten
▁mystic
▁neurop
▁nitric
▁operas
▁overre
▁pearls
▁piracy
▁pledge
▁propel
▁reacts
▁redeem
▁rehear
▁riches
▁rumors
▁savage
▁savior
▁selfie
▁shades
▁solace
▁spongy
▁sprung
▁staged
▁stares
▁subtly
▁superb
▁supers
▁towels
▁trades
▁trophy
▁turkey
▁tyrant
▁unison
▁uptake
▁warmed
▁washes
▁webcam
▁wiggle
▁woolly
actively
atisfied
cipation
civility
creation
negative
organize
presence
rophages
ructured
tolerant
ublished
▁120,000
▁Algeria
▁AlphaGo
▁Birming
▁Burkina
▁Capitol
▁Century
▁Complex
▁Foreign
▁Frankly
▁Gravity
▁Haitian
▁Hussein
▁Ibrahim
▁Kenyans
▁Marilyn
▁Martine
▁McGowan
▁Mercury
▁Monster
▁Morning
▁Passage
▁Poverty
▁Protest
▁Simpson
▁Species
▁Stanley
▁Stephan
▁Voyager
▁Winston
▁abolish
▁appeals
▁approve
▁arsenal
▁baggage
▁banging
▁banning
▁broaden
▁burglar
▁contend
▁credits
▁cricket
▁crumble
▁demoral
▁discred
▁doorway
▁drawers
▁dubious
▁encrypt
▁enslave
▁erasing
▁exports
▁fabrics
▁favored
▁fixated
▁flushed
▁footing
▁fraught
▁gharial
▁grading
▁gripped
▁holders
▁huddled
▁hugging
▁illicit
▁infancy
▁jungles
▁labyrin
▁loading
▁lucifer
▁massage
▁nagging
▁oranges
▁ovaries
▁parabol
▁peacock
▁pollute
▁prevail
▁remorse
▁renamed
▁replica
▁resides
▁residue
▁retouch
▁scooter
▁serpent
▁sizable
▁sponges
▁sprayed
▁swimmer
▁testify
▁thicker
▁thrives
▁tornado
▁traders
▁turbine
▁updates
▁visitor
▁weeping
▁whatnot
▁yielded
beknownst
emisphere
iltration
iscovered
kilometer
knowledge
nourished
▁Amundsen
▁Assuming
▁Cochrane
▁Division
▁Kurzweil
▁Lebanese
▁Mongolia
▁Prosecut
▁Snapchat
▁Trinidad
▁Wherever
▁allergic
▁anesthet
▁attracts
▁battered
▁bridging
▁brightly
▁brushing
▁captains
▁cemetery
▁childish
▁civility
▁coercion
▁coloring
▁compares
▁consecut
▁cosmopol
▁crackers
▁delusion
▁devotion
▁diminish
▁distrust
▁embraces
▁entirety
▁evenings
▁extravag
▁faithful
▁greeting
▁gridlock
▁hesitate
▁humanoid
▁impunity
▁inaction
▁inscript
▁irresist
▁isotopes
▁laparosc
▁laureate
▁leaflets
▁lemonade
▁licenses
▁logarith
▁melanoma
▁moreover
▁mouthful
▁numbered
▁outright
▁overview
▁pavilion
▁paycheck
▁piloting
▁provoked
▁quitting
▁reasoned
▁registry
▁semicond
▁slipping
▁smashing
▁smuggled
▁squatter
▁starfish
▁startups
▁succeeds
▁swirling
▁utilized
Everything
definition
government
▁Biosphere
▁Challenge
▁Chernobyl
▁Churchill
▁Cleveland
▁Communist
▁Conscious
▁Countries
▁Dickinson
▁Frederick
▁Hiroshima
▁HyperCard
▁Nigerians
▁Orchestra
▁Patagonia
▁Principle
▁Represent
▁Samaritan
▁Yesterday
▁admitting
▁afterlife
▁allegedly
▁amusement
▁anomalies
▁attentive
▁cohousing
▁colonized
▁constants
▁contagion
▁creatives
▁depiction
▁dialogues
▁dichotomy
▁diversify
▁fermented
▁fractures
▁frontline
▁gradients
▁hilarious
▁imitating
▁importing
▁infecting
▁introvert
▁inventive
▁irritable
▁manifests
▁maternity
▁medically
▁mobilized
▁nanotubes
▁negatives
▁overwhelm
▁perfected
▁pessimism
▁pituitary
▁provinces
▁regulates
▁residence
▁roommates
▁salvation
▁sediments
▁seduction
▁specified
▁starlight
▁submerged
▁subscribe
▁surpassed
▁symbiotic
▁symbolism
▁synagogue
▁teachings
▁toughness
▁twentieth
▁uploading
▁willingly
conditional
consumption
grandfather
▁Birmingham
▁FreeSpeech
▁Ironically
▁Lorenzetti
▁Louisville
▁Negroponte
▁accountant
▁achievable
▁adequately
▁believable
▁biomarkers
▁biomimicry
▁bipartisan
▁birthplace
▁bottleneck
▁categorize
▁competitor
▁complacent
▁contracted
▁crossroads
▁cyberspace
▁detectable
▁discharged
▁dissidents
▁fertilized
▁frameworks
▁guerrillas
▁humanistic
▁hyperbolic
▁impairment
▁increments
▁initiation
▁lifesaving
▁logistical
▁meningitis
▁modulation
▁naturalist
▁neurologic
▁pheromones
▁photovolta
▁presidency
▁processors
▁reinforces
▁respecting
▁salamander
▁scriptures
▁soundtrack
▁stimulates
▁submarines
▁ventilated
▁wastewater
▁Agriculture
▁Albuquerque
▁Buckminster
▁Immediately
▁Nonetheless
▁Smithsonian
▁adventurous
▁advertisers
▁appearances
▁circulating
▁concussions
▁confinement
▁contaminate
▁culmination
▁cultivating
▁deteriorate
▁exploratory
▁extrapolate
▁hummingbird
▁internalize
▁interrogate
▁legislators
▁libertarian
▁nothingness
▁peacemaking
▁prostitutes
▁punctuation
▁reinforcing
▁reminiscent
▁restriction
▁sacrificing
▁strangeness
▁subscribers
▁synchronize
▁transmitter
▁Transparency
▁anticipating
▁characterize
▁computations
▁congregation
▁consultation
▁degeneration
▁desalination
▁effortlessly
▁gamification
▁helplessness
▁hypothalamus
▁internalized
▁irreversible
▁masterpieces
▁misinterpret
▁nanoparticle
▁practitioner
▁relentlessly
▁synthesizing
▁unproductive
▁Communication
▁affordability
▁complementary
▁fertilization
▁petrochemical
▁psychotherapy
▁stereotypical
▁considerations
▁distinguishing
▁radicalization
▁undergraduates
▁understandably
▁democratization
▁instantaneously
.?
:3
;"
NT
SS
Te
UC
VA
mi
Ban
Boy
Lab
atz
bud
doc
edo
egl
elp
emo
eus
hat
iji
lif
maf
oom
orc
osl
shh
sil
tec
upy
utu
vao
vit
wey
▁94
▁DE
▁Gs
▁Iv
▁JO
▁KH
▁LM
▁Om
▁ba
▁ga
▁pi
▁yo
Cont
Mary
Over
TART
abis
agus
alis
ando
anne
assa
avan
ayor
azed
bule
cice
cule
edar
enet
eval
gard
gham
gina
harm
hedu
imet
iota
ipes
irit
ithe
itos
lang
last
late
ldom
mand
moon
oder
odic
oise
oute
pans
ruly
sApp
thin
ubby
uced
ucyd
uddy
udic
ugar
umpy
unci
urry
zech
▁2.6
▁23,
▁23.
▁26,
▁3.3
▁380
▁AGI
▁Ans
▁DBC
▁Daw
▁Deb
▁Dir
▁ECT
▁Flu
▁Fly
▁Gap
▁Git
▁Hoo
▁Iss
▁JPL
▁Job
▁Led
▁Naj
▁Oxy
▁Pee
▁Rab
▁Rah
▁Rev
▁Sco
▁Spr
▁TRA
▁Tab
▁Ton
▁USC
▁Vas
▁Wol
▁Won
▁Yug
▁cit
▁cym
▁daf
▁dun
▁ech
▁eel
▁fus
▁mah
▁orn
▁poo
▁sor
▁ure
Sings
Voice
alach
alyst
anmar
antes
araoh
atops
cases
falls
hertz
iscus
luded
mouth
ocene
otype
paper
qchin
quiat
raphy
rious
sects
sharp
space
thank
tooth
ucian
uddly
ultan
urich
ushed
utans
▁1918
▁1996
▁Amel
▁Bans
▁Barn
▁Bent
▁Care
▁Cerv
▁Core
▁Cust
▁DMCA
▁Foot
▁Glad
▁Gram
▁Hend
▁Indo
▁Judy
▁Kumb
▁Lois
▁Mull
▁Pool
▁Poss
▁Pray
▁Redd
▁Salv
▁Scra
▁Sean
▁Socr
▁Stre
▁Stux
▁Teen
▁Vacc
▁Walt
▁Yose
▁Yves
▁acre
▁afar
▁apex
▁barb
▁brew
▁brig
▁cape
▁chuh
▁cork
▁crib
▁darn
▁font
▁harp
▁haul
▁hone
▁hose
▁kang
▁kilo
▁lord
▁merc
▁oily
▁oste
▁peas
▁pent
▁perv
▁rejo
▁robe
▁seab
▁sect
▁sine
▁vets
▁vibr
▁wedd
▁weld
▁whol
▁zinc
10,000
Prince
arting
asions
bottom
chwitz
demand
earten
efully
elcome
ennett
inence
ington
inking
isting
ittens
ochial
okines
ortium
ptical
rances
randed
ronics
stakes
versus
vetica
▁1991,
▁Actor
▁Amira
▁Begin
▁Bella
▁Blair
▁Chair
▁Czech
▁Damas
▁Ellen
▁Equal
▁Essex
▁Fight
▁Grove
▁Lungi
▁Mayan
▁Might
▁Parad
▁Phone
▁Pyram
▁Rican
▁Solly
▁Strom
▁Susie
▁Toraj
▁Treas
▁Twain
▁Yuval
▁antic
▁attic
▁beads
▁belts
▁binoc
▁blond
▁bluff
▁calam
▁caval
▁chant
▁chimp
▁cigar
▁cobra
▁cools
▁corps
▁creep
▁dereg
▁diner
▁enshr
▁etiqu
▁fakes
▁fates
▁flora
▁foxes
▁franc
▁froze
▁glows
▁hacks
▁hairy
▁herds
▁hered
▁indis
▁inund
▁juicy
▁landl
▁logos
▁lunar
▁mills
▁mommy
▁mortg
▁mourn
▁necks
▁oasis
▁panor
▁polyg
▁ponds
▁pouch
▁rider
▁robog
▁scler
▁seren
▁shaft
▁sinks
▁strap
▁sungl
▁tresp
▁unman
▁unsus
atizing
atorium
carbons
coaster
country
iential
issible
ivating
mafrost
passion
pitched
rollers
surface
▁Alexis
▁Angela
▁Angola
▁Boeing
▁Border
▁Browne
▁Comedy
▁Enhedu
▁Galvao
▁Gothic
▁Jeremy
▁Kuwait
▁Lesson
▁Macint
▁McCain
▁Mister
▁Motors
▁Myster
▁Neruda
▁Poetry
▁Polish
▁Purple
▁Recogn
▁Remark
▁Robots
▁Schwar
▁Serena
▁Sobule
▁Stalin
▁Stuart
▁Wealth
▁Yugosl
▁adject
▁allied
▁amidst
▁arable
▁avenue
▁bitten
▁bounty
▁buffet
▁canals
▁cliffs
▁conson
▁covert
▁detain
▁drains
▁elicit
▁exuber
▁fairer
▁fiscal
▁freaks
▁ginger
▁gravel
▁gravey
▁grieve
▁hoodie
▁hydrop
▁induce
▁inhale
▁inquis
▁knocks
▁layout
▁longed
▁lumber
▁misper
▁nickel
▁nocice
▁oppose
▁papaya
▁phosph
▁plunge
▁profic
▁puddle
▁quarry
▁ranged
▁realms
▁reboot
▁refres
▁refuel
▁retrof
▁rodent
▁shaved
▁shorts
▁sitcom
▁sleepy
▁smelly
▁solids
▁spears
▁squish
▁subdiv
▁swords
▁synest
▁tactic
▁takers
▁tasked
▁trails
▁tyrann
▁unansw
▁unsure
▁upheav
▁urging
▁videot
▁weaken
Children
approved
colonial
cultural
gatherer
informed
pressure
reatment
reviewed
smanship
thinking
ucydides
utilized
yourself
▁Amazons
▁Anthrop
▁Banshir
▁Cornell
▁Culture
▁Denisov
▁Dimitri
▁Eduardo
▁Fathers
▁Fridays
▁Langley
▁Myanmar
▁Odyssey
▁Product
▁Rwandan
▁Systems
▁TEDster
▁UPSTART
▁Vikings
▁abdomen
▁accents
▁accepts
▁arrests
▁attuned
▁avatars
▁blazing
▁bonuses
▁booking
▁boulder
▁bounced
▁boycott
▁bundles
▁changer
▁chatter
▁cloning
▁crawled
▁cryptic
▁deceive
▁dieting
▁drilled
▁dynasty
▁ensured
▁factual
▁fallout
▁fireman
▁fringes
▁genesis
▁glitter
▁grandpa
▁hemorrh
▁hideous
▁hydrant
▁lending
▁listens
▁livable
▁lunches
▁marbles
▁melanin
▁notably
▁oppress
▁overdue
▁parting
▁peeling
▁perfume
▁pianist
▁pineapp
▁puppets
▁relinqu
▁revital
▁rodents
▁sarcoma
▁scraped
▁tasting
▁theolog
▁theorem
▁tracker
▁tradies
▁trainer
▁transdu
▁tricked
▁turnout
▁unclear
▁unlearn
▁vaginas
▁vampire
▁weakest
▁whipped
▁willful
▁wrinkle
Professor
confident
enhancing
essential
etermined
itiveness
represent
▁Advanced
▁Appalach
▁Basquiat
▁Buddhism
▁Constant
▁Contrary
▁Emmanuel
▁Gertrude
▁Heritage
▁Machines
▁Multiple
▁Odysseus
▁Orthodox
▁Pentagon
▁Philippe
▁Romantic
▁Teachers
▁Timbuktu
▁Victoria
▁Violence
▁WhatsApp
▁Yosemite
▁accusing
▁acquaint
▁advising
▁analysts
▁analyzes
▁blending
▁compiled
▁confirms
▁contamin
▁courtesy
▁creeping
▁curators
▁cyberatt
▁decisive
▁dialects
▁disliked
▁disprove
▁droplets
▁encoding
▁excavate
▁fibrosis
▁fidelity
▁finishes
▁fostered
▁galactic
▁garments
▁gruesome
▁hallmark
▁handouts
▁hillside
▁humanism
▁insanely
▁insomnia
▁jeopardy
▁labeling
▁lifeline
▁mainland
▁markings
▁marrying
▁massacre
▁maturity
▁merchant
▁necklace
▁numeracy
▁observes
▁openings
▁oriented
▁overcame
▁paranoia
▁poaching
▁populate
▁postpone
▁powering
▁prestige
▁prompted
▁pronouns
▁railways
▁replaces
▁resettle
▁restroom
▁retailer
▁rhinovir
▁scorpion
▁sculptor
▁seafloor
▁shredded
▁situated
▁snippets
▁snowball
▁summoned
▁tabletop
▁towering
▁turnover
▁typeface
▁unrecogn
▁urbanism
▁vastness
▁verbally
▁vertebra
▁whispers
▁youthful
fulfilling
productive
respective
▁Agreement
▁Auschwitz
▁Bluetooth
▁Boraqchin
▁Christine
▁Colombian
▁Engineers
▁Fukushima
▁Helvetica
▁Lovecraft
▁Nashville
▁Naturally
▁Southwest
▁Volunteer
▁acquiring
▁advocated
▁amendment
▁artisanal
▁balconies
▁billionth
▁botanical
▁bystander
▁cofounder
▁comedians
▁commuting
▁compliant
▁contested
▁cremation
▁cylinders
▁deceptive
▁deepening
▁defeating
▁deterrent
▁disregard
▁employing
▁ephemeral
▁epicenter
▁etiquette
▁extrovert
▁formulate
▁governors
▁guardians
▁impactful
▁innocuous
▁inserting
▁keyboards
▁labyrinth
▁magnesium
▁magnetism
▁malleable
▁megawatts
▁minimally
▁monstrous
▁mycorrhiz
▁newcomers
▁nonverbal
▁observers
▁obtaining
▁orangutan
▁originals
▁overboard
▁overheard
▁oversimpl
▁passports
▁pigmented
▁polyglots
▁preceding
▁prognosis
▁recurrent
▁roughness
▁schedules
▁shortages
▁sincerely
▁skydiving
▁socialism
▁sphincter
▁stupidity
▁substrate
▁timescale
▁transmits
▁unwitting
▁uplifting
▁utilities
▁voiceless
▁wholeness
▁Artificial
▁Compassion
▁Corruption
▁Creativity
▁Enheduanna
▁Hemisphere
▁Illuminati
▁Operations
▁Transition
▁aggregates
▁alcoholism
▁apocalypse
▁blueprints
▁centrifuge
▁checkpoint
▁collateral
▁commanders
▁commenting
▁consisting
▁decoration
▁defendants
▁demolished
▁detectives
▁dishearten
▁eloquently
▁embroidery
▁emphasizes
▁epigenetic
▁fossilized
▁generative
▁gracefully
▁incivility
▁iterations
▁messengers
▁metastases
▁monolithic
▁multimedia
▁nourishing
▁permafrost
▁precaution
▁preventive
▁prohibited
▁propensity
▁rationally
▁reassuring
▁repository
▁reservoirs
▁rethinking
▁sunglasses
▁thousandth
▁typography
▁vernacular
▁warehouses
▁Australians
▁Engineering
▁Grandmother
▁Mathematics
▁approximate
▁articulated
▁commandment
▁consolation
▁cornerstone
▁credentials
▁criticizing
▁dimensional
▁disillusion
▁distracting
▁entitlement
▁exaggerated
▁facilitated
▁familiarity
▁groundwater
▁incentivize
▁insecticide
▁macrophages
▁notoriously
▁observatory
▁outsourcing
▁particulate
▁pregnancies
▁resemblance
▁sensational
▁serendipity
▁singularity
▁slaughtered
▁supervision
▁suppressing
▁traffickers
▁unregulated
▁wheelchairs
▁augmentation
▁bureaucratic
▁complication
▁conveniently
▁ecologically
▁highlighting
▁hydrocarbons
▁illumination
▁indifference
▁inscriptions
▁irresistible
▁irrespective
▁jurisdiction
▁microseconds
▁multilateral
▁northeastern
▁productively
▁protagonists
▁strengthened
▁technologist
▁telemedicine
▁undiscovered
▁Traditionally
▁abnormalities
▁accessibility
▁choreographer
▁congressional
▁consequential
▁customization
▁decomposition
▁disconnection
▁documentaries
▁electromagnet
▁reinforcement
▁spectacularly
▁unconditional
▁veterinarians
▁antiretroviral
▁discriminatory
▁metaphorically
▁reconstructing
▁visualizations
▁epidemiological
-,
.-
By
CC
PO
ea
kk
rr
▁?
Col
IPP
IST
Min
Sir
ags
amn
bid
bog
eka
far
gas
gie
hab
hem
jet
jin
odi
oos
rag
rax
rez
tat
wau
zra
▁'5
▁8-
▁81
▁FS
▁Gy
▁HS
▁NP
▁Ny
▁Ot
▁TD
▁Ti
▁Wy
▁kh
Baby
Know
NCRA
Time
achi
ahum
aned
anic
arak
arez
ayer
best
boro
boys
conv
dain
dale
data
date
erox
essa
idas
inky
inth
iren
itas
itud
kill
leen
loom
narr
nery
orum
osex
oxic
phth
post
pots
preh
qual
rann
rano
rell
risy
safe
stra
tebr
took
trap
urer
usks
▁105
▁19-
▁2.1
▁22-
▁25.
▁365
▁45-
▁650
▁80,
▁Cel
▁Cod
▁Fig
▁Ger
▁Lai
▁Lem
▁Lis
▁MBI
▁Mub
▁Nak
▁Opp
▁Raw
▁Rik
▁Roe
▁Sax
▁Tax
▁Tea
▁Tso
▁Vac
▁ace
▁aka
▁bif
▁bog
▁boo
▁chk
▁jer
▁ker
▁ket
▁mop
▁mul
▁pes
▁rag
▁tam
▁viv
Happy
Three
abaab
acons
aghma
aints
apest
apper
awing
beats
belts
bumps
buntu
carus
citiz
drive
eenth
every
gated
geist
iator
ibari
igali
itant
itney
ivist
natal
peace
prosy
pture
repan
ridge
shelf
tuned
utive
▁1994
▁1995
▁Abby
▁Alps
▁Bare
▁Bene
▁Bess
▁Bina
▁Bird
▁Boko
▁Bomb
▁Brig
▁CFCs
▁Cage
▁Cave
▁Clay
▁Cohh
▁Dian
▁Guys
▁Hart
▁Herm
▁Hulk
▁Liqu
▁Moss
▁Nico
▁Okav
▁Phel
▁Poem
▁Reef
▁SOPA
▁Sale
▁Salt
▁Sift
▁Silk
▁Skin
▁Soft
▁Temp
▁Vera
▁avid
▁beak
▁bios
▁buds
▁cess
▁dams
▁dizz
▁duel
▁dyst
▁eras
▁fero
▁kios
▁lact
▁lame
▁loos
▁madd
▁matt
▁nipp
▁prud
▁rods
▁sixt
▁sled
▁smir
▁snob
▁soar
▁sock
▁sust
▁ting
▁tray
▁trim
▁trio
▁visc
▁yach
30,000
Avatar
Clicks
ForShe
Israel
adores
arking
atican
better
compet
cratic
create
ensils
erator
finite
inical
insula
length
liquid
nought
oluted
onsequ
oudspe
philis
ppings
public
sexual
unning
washer
waukee
▁1982,
▁2019,
▁2025,
▁Alvin
▁Anger
▁Annan
▁Blake
▁Blind
▁Bryan
▁Cayla
▁Comic
▁Fermi
▁Final
▁Flash
▁Folks
▁Fresh
▁Gould
▁Grant
▁Habit
▁Haram
▁Hills
▁Hindi
▁Horse
▁INCRA
▁Imper
▁Jacqu
▁Kahlo
▁Leads
▁Linus
▁Lovel
▁Lynch
▁Mansa
▁Mecca
▁Minne
▁Negro
▁Octav
▁Patri
▁Pruss
▁Relig
▁Rosal
▁Sagan
▁Share
▁Touch
▁Tweet
▁Whale
▁Worse
▁aeros
▁amber
▁antiv
▁audit
▁bulky
▁cafes
▁catac
▁chill
▁curls
▁deeds
▁deity
▁demag
▁dusty
▁earns
▁elves
▁epoch
▁fades
▁floss
▁frail
▁fused
▁gamer
▁geeky
▁graze
▁grips
▁hayst
▁immob
▁lease
▁ludic
▁masse
▁megaf
▁monoc
▁ninja
▁nonex
▁odors
▁ounce
▁pedag
▁pries
▁puffs
▁pupil
▁rails
▁raind
▁remod
▁sabot
▁semis
▁sewer
▁skier
▁slash
▁slick
▁snuck
▁swore
▁telec
▁unspe
▁urges
▁volts
▁vouch
▁wrath
Justine
acetime
ahumara
ainable
amilies
astical
brainer
comings
ensibly
environ
eratops
finance
istence
ocurren
opening
ophanes
ordered
ructose
sensing
service
stopian
urassic
weaving
▁13,000
▁24,000
▁Access
▁Acumen
▁Adults
▁Bieber
▁Billie
▁Bonnet
▁Bottom
▁Budrus
▁Cantor
▁Cheryl
▁Chopin
▁Clinic
▁Dennis
▁Entrop
▁Esther
▁Euclid
▁Female
▁Granny
▁Hidden
▁Hoover
▁Icarus
▁Indust
▁Instit
▁Iraqis
▁Isabel
▁Knight
▁Lauren
▁Leader
▁Louise
▁Malala
▁Mobile
▁Motion
▁Myriad
▁Naghma
▁Observ
▁Occupy
▁Pavlov
▁Slowly
▁Swedes
▁Treaty
▁Tubman
▁UNAIDS
▁Velcro
▁Viagra
▁Wagner
▁amazes
▁arenas
▁barbar
▁barbed
▁battal
▁beasts
▁beaver
▁begets
▁bunker
▁canary
▁censor
▁dearly
▁dosage
▁dramas
▁drawer
▁embell
▁enlist
▁eureka
▁extern
▁facets
▁fluffy
▁forums
▁fringe
▁gastro
▁genres
▁ghetto
▁ghosts
▁gloomy
▁glossy
▁halved
▁halves
▁herbal
▁imaged
▁jigsaw
▁kissed
▁larynx
▁liquor
▁logged
▁massac
▁merger
▁midair
▁mortar
▁multif
▁nugget
▁onions
▁permit
▁pitted
▁poking
▁polish
▁reckon
▁revolt
▁riders
▁rowing
▁satire
▁seldom
▁shaken
▁shanty
▁sleeps
▁slings
▁smiley
▁snails
▁snowfl
▁spying
▁stormy
▁syntax
▁termed
▁texted
▁tilted
▁tosses
▁tranqu
▁transg
▁triang
▁uplift
▁urchin
▁verses
▁vested
▁vortex
▁vowels
▁walker
▁wiping
▁wobble
balanced
business
carrying
cleaning
[...]
