<blank>
<s>
</s>
ар
▁b
ar
▁б
ын
ал
▁ж
ан
ер
er
▁қ
in
an
ды
ін
ен
▁т
да
ir
en
ст
▁м
▁d
▁к
ді
▁k
ық
ат
il
ет
ыл
▁с
▁o
де
ın
lar
▁y
▁s
ас
▁,
▁g
▁.
ma
▁о
ақ
▁t
or
ek
▁v
ай
▁bir
ол
ел
ың
▁a
ек
la
▁i
un
el
da
im
іл
▁h
не
ау
▁ө
ия
ak
iz
ғы
ам
et
ес
ік
гі
▁ve
ыр
ір
de
yor
ler
on
al
ыс
ім
▁ç
аз
ым
▁B
▁"
ik
ған
ey
ün
es
▁ol
at
ында
▁жә
ор
▁және
ға
тт
ұр
он
▁п
ем
em
▁bu
di
алық
dı
дар
▁ш
▁ya
ге
▁ә
ің
ин
▁m
ya
lı
ик
▁кө
st
▁ş
▁а
du
▁de
ыз
▁ү
▁-
ады
ының
ız
дың
le
із
етт
▁da
▁де
▁p
ап
▁бол
▁ал
інде
ra
▁n
ım
▁f
стан
лық
ып
дер
ay
ce
лар
ok
▁н
▁ö
▁e
ең
▁2
ағ
тар
as
аб
▁р
um
▁1
ur
▁in
it
tı
ген
▁ар
▁ор
den
ту
▁iç
аст
ом
bil
▁қаз
ış
аң
iş
ların
▁мен
ұл
ша
дан
▁ka
ты
▁gö
▁A
ыст
uz
▁э
інің
дық
li
ына
▁için
ект
ür
▁да
дің
еу
▁жыл
▁th
ıl
ция
▁жү
▁ba
іс
am
алар
▁құр
▁(
üz
▁ай
iy
▁жо
is
iyor
▁д
іп
▁ке
ой
▁an
▁yap
▁бір
dan
ақстан
ları
ında
ti
▁Bu
lan
тер
ini
ol
ның
ур
▁қар
ha
мен
әс
гіз
▁the
▁sa
▁қазақстан
ұм
атын
▁z
▁бас
еді
ır
mak
▁il
▁х
ей
▁ұ
▁з
▁бар
ынша
▁тү
ük
сы
ul
шыл
ık
▁c
▁жұм
дай
▁ar
▁үш
▁өз
▁20
unu
üş
ki
икалық
san
дік
▁oldu
алы
ері
▁S
▁ат
лі
▁бой
асы
ог
▁қол
▁şey
ден
▁бер
▁bil
▁қат
ақт
▁gör
ta
eler
▁ger
üm
ті
▁değ
▁үшін
▁сал
ec
іне
ine
▁бойынша
▁кел
▁көр
▁не
▁çok
bilir
▁et
ca
te
▁ел
ары
▁ин
ықт
ro
▁ау
▁var
▁өн
az
лер
▁daha
ыру
лан
лік
▁қо
▁baş
ру
▁кез
▁V
▁қал
▁өт
▁ф
▁от
лек
▁пр
▁of
ығ
бл
ıyor
▁gel
▁gi
▁ne
атт
iler
ымен
▁D
қа
▁мем
ест
bi
▁on
етін
imiz
▁эк
▁r
▁сон
iniz
▁дам
▁insan
▁olduğ
ını
▁en
▁мү
▁K
▁кү
oğ
uş
▁мемлек
пар
кен
асында
алған
ül
sı
иялық
та
▁H
▁қыз
есе
▁жұмыс
▁son
▁ас
diğ
uy
leri
▁al
▁Ve
mek
іш
ех
ka
öy
inde
іст
▁ver
▁kar
ed
ағы
▁ön
қы
лам
стр
▁to
ов
ация
өл
еттік
▁бағ
uk
cak
ev
гін
им
олог
▁біл
▁ақ
▁ben
▁T
▁201
▁тұр
йін
▁Y
▁3
ut
ада
▁kad
ке
кер
▁жас
из
▁her
▁отыр
▁olma
▁әр
us
larak
▁көрс
aman
▁Б
ит
üy
▁бай
▁ком
елер
▁İ
▁düş
▁gibi
кін
ğı
▁ет
▁ist
▁ек
▁құ
▁бұл
▁түр
▁olarak
▁E
tir
eç
▁жүй
inin
▁пай
ехн
імді
қыл
▁мә
▁w
ылған
▁ki
ip
ығы
ımız
lik
▁негіз
дау
▁kon
▁г
ші
▁тур
▁M
▁жаң
▁zaman
▁қызм
cı
▁көрсет
лем
se
▁таб
me
eye
▁ha
00
▁iş
▁ay
▁қор
▁G
dir
ев
eş
есі
▁жет
ару
дал
eki
▁рес
▁O
сын
dır
▁değil
▁olan
ark
▁ola
lık
▁тар
ğer
ылады
laş
дағы
▁мүм
қан
ілік
тын
дір
om
▁тең
▁баст
▁мүмкін
ти
▁жоб
ic
ına
ысты
деу
▁іс
▁yer
lem
оном
ез
aş
▁yar
▁техн
çek
ön
▁çal
▁тал
ылым
esi
▁ан
гер
▁біз
▁or
ілген
ысы
▁мәс
алды
▁тә
▁ти
▁düşün
▁қолдан
дам
пт
уы
аж
▁жол
▁тө
▁у
▁болып
▁жағ
üç
▁çalış
▁и
асының
еттер
аны
▁kadar
пу
ah
▁bun
▁yaş
▁ken
ece
ак
ақты
▁А
▁5
▁мәсел
▁%
▁қам
▁болады
▁biz
еге
▁P
аттар
ep
men
sa
ерек
сп
▁есе
▁büy
▁С
▁pro
man
шылар
▁yıl
maya
яс
▁Bir
▁қаб
▁халық
кіз
▁sor
ten
▁бағдар
еш
дел
dım
▁4
yı
▁hay
▁жоғ
▁байлан
өз
тан
▁жаңа
dığ
ecek
▁anla
ілі
▁олар
▁оның
әсіп
ақс
ara
▁туралы
ег
▁ma
▁Қ
етті
▁tek
ро
леу
▁ол
▁ұл
▁N
▁yüz
▁gerçek
ини
▁жүр
mış
ab
▁қатар
öyle
▁эконом
йым
асын
▁аз
lara
der
▁iy
▁Т
kü
ru
▁то
oc
уға
ren
▁қызмет
▁кең
üyor
▁бағдарлам
▁kul
ion
tır
▁жағдай
▁оқ
лы
▁жал
▁мл
▁бел
▁М
▁деп
ap
ұн
yan
ınız
шы
▁қос
сіз
тті
ерг
▁F
▁kullan
▁үл
▁ғ
ği
енді
▁деді
▁ama
ыстар
ünkü
▁білім
ғын
eni
инистр
▁атап
▁осы
ертт
▁kal
лау
▁О
ist
▁дамы
▁шар
▁bak
uyor
▁в
▁орын
▁қаж
▁орт
ология
dece
unda
аралық
ил
▁бағы
▁fark
▁as
rada
ing
▁со
аның
аты
індегі
▁бөл
▁обл
▁Ç
ттық
▁şek
ez
▁су
tan
▁gerek
ындағы
lerin
unuz
ünya
▁әді
▁çık
▁сә
ба
len
ед
▁C
larını
ken
yon
▁орн
▁өң
там
кім
▁іш
▁мемлекеттік
miş
▁bul
анды
су
▁doğ
ana
oy
ör
▁sür
▁арн
ше
▁жүз
ter
▁geç
tr
▁el
▁анықт
▁ile
▁комп
публ
20
далан
▁жылы
▁ұйым
dü
ика
▁olduğunu
ылды
asıl
▁кон
ци
▁büyük
▁беру
▁әс
ілді
ілер
▁пайдалан
▁--
▁шығ
op
аған
өн
iç
▁aç
▁Ş
▁ең
▁iyi
ili
ақы
ama
▁ди
▁маң
аш
▁л
▁про
ни
▁u
▁сондай
▁дә
▁yan
қылы
▁sonra
ından
астыр
▁par
lama
▁siz
▁sağ
▁жүргіз
▁мақс
▁ақпар
асындағы
▁қатыс
▁дамыту
▁шеш
▁К
▁кезде
▁кәсіп
іміз
ot
ıs
▁and
▁дейін
андар
айды
▁dur
▁har
▁жат
▁nasıl
▁Ama
▁жоғары
▁gün
▁құрыл
імен
ысында
▁öğ
▁хаб
iye
ers
тиж
▁оқу
▁арқылы
баев
▁республ
▁барлық
▁зертт
dim
еп
орм
▁нә
▁ен
▁değiş
азар
ызды
▁ev
дері
▁сөз
лект
▁ilg
▁сонымен
тың
▁хабар
ika
▁даму
ны
▁мүмкіндік
▁şekil
▁–
▁екі
▁hak
нерг
▁пар
▁жүзеге
▁6
▁Ж
sel
▁kur
re
▁сап
▁den
ези
алдар
ікт
▁top
leş
▁адам
▁üz
уге
üc
lu
ул
si
eceğ
ster
üt
інші
ынан
▁sah
▁министр
deki
▁is
▁нәтиж
▁bunu
azla
tık
езиден
▁)
▁әлеу
▁мо
▁технология
▁kaz
siniz
▁бү
▁басқ
tığ
▁fazla
▁uz
спар
▁күн
ынт
дегі
▁yok
▁рет
▁ем
вт
▁yol
os
есін
▁di
şı
▁0
▁қр
пы
daki
▁gen
ңге
ının
cağ
▁ұсын
▁dön
olo
imdi
▁халықаралық
асыз
▁жоспар
▁деңге
▁sadece
nı
▁dev
ра
▁энерг
▁заң
▁президен
tur
▁7
▁üzer
▁мың
▁бағытт
▁ынт
▁жөн
ça
ası
▁қау
▁өндір
▁өнім
ания
▁бұ
▁dünya
▁жар
еб
▁yeni
▁tan
▁басш
▁ak
iyorum
diyor
meler
▁тұ
▁би
алау
isi
ологиялық
▁қамтам
інен
▁тол
▁өтті
пен
▁zor
▁10
ede
ation
▁çünkü
▁уақы
▁yak
▁kay
▁мемлекет
▁сай
▁uy
▁başla
кт
▁негізгі
▁қамтамасыз
akat
▁іст
lıyor
ans
▁жалпы
ci
▁şekilde
тү
▁[
▁табылады
ашыл
атты
bir
▁мұн
▁göster
dık
аттық
▁си
▁түс
▁өткіз
ынды
▁байланысты
даст
ттер
▁үй
стер
бек
елері
tiğ
▁асыру
▁маңызды
ун
▁мат
иция
▁ынтым
лектр
▁çoc
қыту
▁ұлттық
▁жер
▁инв
dik
▁öl
alı
▁пен
дей
▁қой
inden
▁Бұл
arı
gi
▁ынтымақт
▁бал
lerini
eyi
ebilir
ыш
иб
пер
▁барысында
ani
▁айт
▁қай
▁söy
▁сан
lında
▁Bun
▁инвест
рд
▁көм
▁тап
▁öz
тты
▁önce
▁енгіз
ықты
imi
▁қарастыр
▁зерттеу
▁ынтымақтаст
▁bağ
егі
▁астан
іргі
meye
▁өткен
▁деңгей
йк
нің
ара
▁ішінде
▁Ben
▁назар
est
▁8
yla
етр
▁hakk
еж
▁hayat
ент
▁bel
▁тиімді
▁емес
▁алу
▁önem
▁алм
▁республик
▁veya
zı
▁са
oloj
▁сақт
▁şu
ос
eri
tik
▁айм
лігі
▁ok
▁duy
алады
▁теңге
if
▁экономикалық
▁дай
дары
▁aynı
▁mil
▁іске
▁керек
▁konuş
ақтар
eb
▁млрд
▁9
▁R
stan
▁сәйк
▁әлем
öz
▁iki
▁көлем
▁insanlar
▁мам
▁kiş
▁öğren
▁қазақстанның
меттік
▁жылдың
tion
▁қабыл
▁келіс
▁diğer
tü
▁L
▁оқыту
dum
▁say
▁айн
▁hiç
сының
▁ek
▁таң
▁нем
▁tüm
дыр
▁karşı
▁тер
орлар
иц
▁farklı
▁ed
▁нұр
raf
▁benim
кіл
▁19
▁az
▁kendi
▁жел
▁төмен
ум
ley
ырм
▁ретінде
▁арналған
▁көп
▁kö
▁әлеуметтік
ve
▁электр
аларды
▁компания
▁ету
еген
▁«
▁аяс
▁эксп
▁hakkında
ектер
eh
тін
▁құрам
▁for
."
ması
аға
кі
▁сау
▁ara
lü
▁An
▁etk
▁neden
▁san
sunuz
ран
си
бір
▁su
▁yön
▁ko
алары
▁қалып
-20
ork
▁ес
тай
▁сер
▁артт
▁çocuk
еті
ылатын
erk
▁немесе
..
tu
▁oluş
▁yet
düğ
arak
ист
▁0,
ери
▁қауіп
▁gerçekten
▁болатын
▁tara
екті
▁kat
eli
▁ғылым
▁қатысу
▁олардың
▁орта
▁yapa
▁ст
▁қарж
▁ilk
▁sahip
▁басқа
▁der
▁қажет
id
би
кіш
▁do
ттар
iyle
▁саяс
от
▁басшысы
▁көз
mem
▁hal
▁кет
ғам
▁тапс
▁sev
▁ür
▁тан
іт
іледі
▁Yani
▁olduğu
▁өңір
lere
eg
елік
▁sı
ef
▁ih
▁önemli
▁taraf
▁е
▁olur
ларды
▁ra
▁аясында
лім
ғал
▁Ö
ent
lardan
▁отырып
дықтар
▁инвестиция
ісі
▁мәселелер
▁жек
▁жұмыстар
let
ıp
▁durum
▁проц
mas
▁Қаз
asında
iyoruz
▁төр
інд
▁ерек
ilen
▁at
▁ауыл
ebil
ülüş
қар
gu
▁белг
▁'
▁тәж
▁асыр
mız
▁oy
▁küç
...
▁дер
дардың
▁ер
▁жеткіз
eğ
бас
▁өс
▁tar
▁қоғам
▁қоры
larda
уда
▁есепт
▁yarat
▁айту
аптар
ациялық
▁біздің
айтын
▁оң
▁ad
▁басқару
▁авт
▁бө
астыру
▁тем
▁bunun
▁orta
іриб
▁мінд
ылау
▁орг
▁mu
▁жасау
▁береді
асына
istem
▁соң
una
діру
▁бақ
lk
▁İn
ri
▁қазіргі
▁görün
ығын
▁әкім
▁тау
▁энергия
▁тек
▁hat
▁boy
Gülüş
▁млн
▁git
▁қалыпт
аруашыл
пор
▁сөздер
ок
▁сип
▁сәйкес
▁inan
тері
▁his
▁fik
▁kend
▁кезең
▁аст
▁doğru
emek
елі
акт
ис
есінің
▁Şimdi
duğ
▁göz
umuz
▁қан
▁елдер
шілік
▁облыс
▁ihti
rı
астар
уі
▁şeyler
▁кездесу
▁içinde
▁alan
ran
etir
ад
▁başka
▁bas
▁ilgili
▁я
▁geliş
▁пайдалану
maz
фр
▁kap
▁кезінде
дени
▁сен
▁еліміз
аг
▁жан
enin
▁орталық
▁küçük
изне
Gülüşmeler
▁bilg
▁ден
▁аудан
▁ту
лері
▁арасындағы
ид
larımız
▁olduk
larının
▁bey
▁тәу
арт
▁талқыл
сіздік
▁ediyor
▁қатысты
▁bö
ess
алдық
▁ede
сі
гінің
▁bile
их
▁mi
▁бірі
▁iz
▁tür
орын
▁ко
▁мақсат
mer
▁бастап
▁yaz
▁15
▁тәжіриб
ықтар
▁күш
▁sistem
▁hep
▁үкім
▁tekn
лары
▁200
akh
қт
▁ұйымдаст
▁тұрғын
зір
gün
▁модел
▁он
форм
tür
▁мәлім
▁ise
▁бизне
ih
ğa
ыстыр
арм
▁mo
ütün
ret
imizi
▁қолдау
▁tak
▁ik
▁böyle
хан
larına
▁kazakh
▁yük
▁өзара
ad
▁жатқан
▁kim
перат
av
tim
▁өкіл
▁бей
▁ada
изм
▁Е
▁getir
кция
▁On
▁kı
дерін
▁шаруашыл
фер
тік
тық
▁eğ
▁қолдану
▁100
sek
diği
▁biri
▁J
diğim
сия
▁Son
▁құру
▁өзгер
▁burada
rn
▁aş
ақыр
▁aslında
андық
дыру
тқы
андыру
▁жи
алардың
са
▁жақ
elim
есінде
үй
▁көрсеткіш
▁bazı
▁қазақстандық
тің
▁президенті
раф
▁әсер
сті
▁tem
▁Fakat
лардың
▁арттыру
dığı
▁шешім
▁bana
керлер
▁es
істік
▁ül
ber
▁мән
▁кеш
▁назарбаев
сыз
▁өнер
бер
tım
lay
muş
üst
▁әрі
▁өл
▁құрылым
▁жеке
амыз
▁бүгін
▁..
▁çek
ымыз
▁болған
▁бірінші
ven
▁кл
▁аш
ch
▁üç
▁Ал
іру
кел
▁үлкен
▁im
larla
set
ts
▁Ne
ақал
айы
нан
▁жылғы
▁еу
▁матери
▁...
ектор
▁азам
▁келісім
▁сипатт
▁hast
-201
▁gir
▁Сон
▁әзір
dur
eket
▁hik
esin
kaha
▁дел
eleri
▁түрлі
инг
▁olabilir
ауы
інген
▁болды
ир
▁I
iv
▁айтуынша
▁co
ımı
▁topl
ram
ғым
▁нақты
▁tas
onom
аларын
▁мект
▁:
ұлтан
fa
лығы
▁çoğ
ағын
ıcı
▁açık
likle
▁kadın
▁сақтау
▁хабарл
мір
▁мәдени
рлі
ge
▁ой
ынған
▁eder
▁түрде
▁стан
▁ihtiya
иғ
▁топ
▁ақпараттық
▁seç
▁tut
ив
tar
тынды
han
▁ре
ileri
дықтан
mesi
ілікті
ені
▁bizim
ама
дарды
▁сауда
▁ір
Kah
▁бірл
▁деген
▁ныс
▁мұнай
▁yardım
▁астана
▁İş
▁U
иль
▁alt
ig
об
yal
▁30
▁құрылыс
▁қорғ
▁özel
▁өңдеу
сау
▁ce
▁келт
▁кейін
▁Д
▁айнал
Kahkaha
▁olmak
sanız
▁olacak
▁con
▁ülk
ри
laya
▁insanların
▁böl
▁be
▁тіл
ымды
▁көрм
esini
gan
alık
▁gü
▁сыр
шілер
▁ған
▁Тү
вер
lo
▁есеп
▁орнал
▁güç
▁hem
▁dış
üzel
▁tama
▁жау
аман
ate
▁kazakhstan
por
▁сар
▁жин
mayı
өлш
▁бұр
стар
▁yüzden
▁2015
▁белс
▁кір
ындау
▁değiştir
▁түсін
▁size
up
▁hareket
▁жөніндегі
▁бақылау
daş
▁төрағ
liğ
▁кәсіпорын
▁тәр
▁Eğer
сұлтан
▁eğer
▁teknoloj
unun
▁geri
▁өлш
rar
қын
▁edil
ıyoruz
ттік
естік
▁көш
vet
▁res
естер
duk
bileceğ
▁anlam
алм
иту
elik
kaç
уде
50
▁анықтау
▁күр
ду
oz
▁biraz
lığ
▁келеді
дж
larında
lak
▁çıkar
ындай
дігі
ілігі
эк
оз
▁тәуел
▁sonu
dığını
еттің
▁құж
▁қу
ылып
edi
▁бю
siy
dür
▁байқ
істі
▁те
терін
▁өндіру
ıyorum
айту
▁ғана
diğimiz
iyorlar
▁la
ici
ая
дерінің
leştir
▁алады
▁қорытынды
▁As
▁талдау
▁мед
000
▁nok
▁tam
▁жаб
▁дайын
siz
cu
▁дәр
аль
üs
▁сын
шылардың
▁arasında
гінде
vaş
ılan
ize
▁arka
▁bütün
▁çev
▁өте
▁хабарлам
lerde
▁diye
▁hız
ly
▁alı
▁ретт
ümüz
▁қыс
uv
дем
▁нұрсұлтан
luk
▁жең
▁сат
стік
sız
ылу
▁белсенді
әр
ere
▁фун
қс
▁қайта
▁çöz
▁таңда
ілетін
▁әскер
▁li
çok
▁етеді
unca
ғаш
▁қас
▁etmek
лігін
▁mes
▁vardı
ill
sal
▁ескер
manın
▁12
▁ие
бъ
ститу
▁астам
▁енгізу
ilik
▁Bunu
▁üret
anı
▁sen
▁ғылыми
▁екен
▁органдар
▁ос
ment
na
ünü
▁tasar
ғанда
lkış
esinde
sınız
▁Amer
▁bah
деді
▁газ
нов
▁айта
ейді
▁Түйін
▁W
керлік
▁Çünkü
▁жоспарлан
üp
▁ая
▁жұмыст
▁eş
▁zamanda
Alkış
vi
▁сұр
biliriz
th
▁деректер
▁құқ
ылар
ымал
ав
▁Н
▁bilim
ydı
▁экономик
▁қажетті
әсі
▁сол
▁шет
дет
▁пайыз
▁уақыт
▁арасында
▁тұрақты
▁өмір
▁қорғау
▁düz
▁bulun
қат
▁mü
▁тапсырм
▁benz
▁Р
nın
▁yapmak
▁mı
▁ser
eniz
амм
ayı
▁мет
▁алд
esine
▁мөлш
дердің
ицин
▁пол
делі
ünüz
ақалада
▁te
▁бюдж
▁модель
▁oluyor
▁we
алығ
▁қосым
гіне
ba
▁tarafından
▁ұз
erek
▁болуы
▁11
▁жаз
ылық
▁bin
ғни
▁onu
lığı
▁üzerinde
▁заман
▁П
тта
▁өнерк
▁göre
tern
▁қоз
дерді
▁болаш
есіне
,5
▁мұ
▁оны
iya
енттер
ıyorlar
ket
▁kor
▁25
▁стр
▁güven
атег
▁тір
▁milyon
▁örn
сер
uğ
▁сү
▁басты
▁Her
▁одан
▁саласындағы
▁iste
ператур
▁көпт
▁мер
▁бағалау
▁табиғ
▁денсау
▁тас
▁karar
▁әскери
ий
▁2016
yız
▁көлік
▁бағытталған
dığımız
ыстық
▁Biz
▁Ay
▁ner
▁негізінде
gı
▁fikir
van
басы
rup
▁kaç
▁тауар
▁yaklaş
lerine
мыз
▁ынтымақтастық
lamak
▁2014
роп
▁білдір
▁жүйесі
▁ex
▁sorun
▁konu
▁araş
▁еңбек
▁ак
▁ağ
tem
ver
▁аум
ağ
▁медицин
▁fakat
sun
mel
дарын
aret
▁kız
етінің
▁taş
▁дәл
▁қауіпсіздік
▁dok
▁теңдеу
▁келтір
▁ге
diğini
▁araştır
▁хабарламада
▁температур
▁жай
▁po
tor
▁belir
▁yaptığ
уден
▁uzun
iyi
ac
layı
▁bit
▁değer
▁şeyi
ұрылым
▁birkaç
▁Қазақстан
▁ulaş
ысының
ларын
sin
▁50
терді
▁güzel
ск
▁oluştur
▁жоғар
▁қон
▁onun
▁boyunca
▁üst
▁em
▁Ancak
▁себ
бъект
▁мек
▁инду
tak
liği
▁бан
▁pr
▁oldukça
▁арнайы
▁мақсатында
жақты
▁көрсетілген
шылық
ith
қты
ықтың
▁ortaya
▁istiyorum
▁кор
▁бизнес
ity
▁Peki
▁herk
▁deney
▁devam
ırak
▁қаси
▁mak
аттың
▁bize
▁gelen
▁бүгінгі
▁әдіст
▁yay
бай
▁өр
▁kıs
▁konus
дарының
▁olması
▁мектеп
ди
▁ac
▁құралдар
▁пә
▁екінші
▁республикасының
▁adam
▁стратег
▁шығар
▁ұйымдастыру
▁tekrar
ферен
?"
ted
sak
▁алматы
делген
▁18
▁саны
▁пайда
ықтық
▁отырған
-1
ғыз
ату
▁ener
ye
▁com
▁көрсету
likte
▁ресей
министр
▁айтты
▁келесі
нивер
▁şimdi
▁bırak
▁тарих
▁яғни
ünde
▁мыс
▁ерекш
▁мәселелері
▁ашыл
ılı
▁көптеген
ейт
elen
ондық
bet
yle
▁спор
▁Bunun
▁soru
▁st
malı
▁2017
nin
gram
▁жүйелер
eme
▁хал
bilirsiniz
ide
▁жылу
▁onları
oş
▁oda
mamız
▁тон
адағы
rak
▁бөлін
дығы
▁kork
eyen
алып
▁сыртқы
▁inc
▁жоба
▁делінген
▁парлам
▁seb
▁елдің
түстік
asyon
▁көлемі
del
▁ресур
ью
▁hayal
ейік
▁белгілі
▁şeh
▁zorunda
тердің
▁beni
▁koy
▁birçok
▁İşte
▁президент
ekler
▁eğit
▁proj
▁уақытта
▁бірлес
Kahkahalar
дігін
mal
▁Осы
mez
lendir
▁сайлау
▁өндіріс
▁kab
иссия
▁kötü
▁қабіл
▁dönüş
▁форм
цион
yanın
ғай
асу
▁сарап
▁hüc
жан
▁инт
kin
▁алғаш
▁ro
ылай
▁ter
▁hikay
iyet
▁ail
дарға
▁söyle
inizi
▁İnsan
▁arkadaş
▁Dünya
▁толық
irket
▁тонн
▁универ
▁байланыс
ime
▁yani
▁tel
▁бағдарламасы
алмыш
▁sık
▁экспо
▁Af
▁Da
▁екенін
▁will
▁hiçbir
▁студен
▁düşünüyor
нам
▁kit
ова
▁нығ
др
▁er
▁ses
▁din
ель
va
оп
▁with
▁бек
▁қада
▁индустр
art
min
▁yaşam
▁құрады
гері
аметр
ne
асқан
▁l
фф
▁энергет
▁ц
▁14
▁haf
▁жауап
lam
ылм
▁are
▁dik
lerinin
▁хим
gel
ғыш
▁аталмыш
▁онда
▁görüyor
▁man
▁қатын
▁техникалық
▁hâ
▁Bil
iyordu
сит
▁жағдайда
▁ış
▁келген
blem
▁қарай
▁тиіс
▁geçir
aba
▁жүйесін
▁met
ейтін
▁болм
▁yüksek
түрлі
inç
▁ірі
▁anda
▁өткізу
▁ерекше
▁жүргізу
▁қаржы
фрақ
-2017
lemek
емат
izi
лен
▁yaşa
▁sal
▁функция
▁жі
▁Г
қатын
▁13
▁шам
▁Burada
ғыр
▁әдіс
▁жылға
ли
▁Ü
▁erk
▁қазақстанда
ергілікті
ırım
▁nokta
▁кер
▁алынған
атор
▁денсаулық
düm
шылары
imizin
▁шетел
▁есептеу
▁автом
▁иннов
циялық
▁өткендей
for
▁инфрақ
▁has
▁birbir
▁әрек
▁әдістер
kı
▁түз
abi
▁әлемдік
▁it
▁қарым
ünyanın
▁өсім
айда
▁toplum
▁орынбас
▁ақпарат
▁еліміздің
▁can
▁жақс
isay
lerden
▁enerj
▁gördüğ
▁içer
diler
эконом
▁қарсы
▁plan
▁бірге
▁өкілдері
▁стандар
ear
енің
▁''
alan
▁элем
str
▁қазақ
▁жергілікті
▁Э
▁баз
▁шаруашылығы
▁кен
trol
tığı
тарлық
▁жастар
орт
▁қабылдау
▁pay
▁problem
тен
іліп
▁bek
▁мамандар
мет
▁инфрақұрылым
қатар
▁қыр
ındaki
▁savaş
▁çalışma
uluk
▁мүш
▁birlikte
▁ішкі
ост
▁биыл
▁кетейік
▁muh
▁тран
▁yerine
▁ық
▁қозғал
▁Ш
''
▁тәс
ilerin
▁şirket
▁dem
▁жылдам
▁Ә
▁қалыптастыру
▁mik
▁И
▁республикасы
▁yat
ейту
▁j
▁program
▁шығы
▁шешу
▁материалдар
anın
▁қарастырылған
▁бірқатар
işim
▁kişi
▁азаматтар
bilecek
▁салыстыр
ısı
яр
лердің
▁бөлім
▁төрағасы
esel
ьер
▁mut
▁ағым
рді
çe
орум
meyi
▁үз
ılmış
▁Z
▁Aslında
ендіру
▁алып
экономикалық
▁gez
▁16
▁сия
▁Ar
▁un
larından
▁Çok
раз
▁dil
▁физ
▁kazan
▁organ
▁институ
ekk
▁sin
osyal
▁болса
▁Daha
аларының
▁мақсаты
▁есеб
▁талаптар
▁университ
▁yüzde
▁аталған
▁медициналық
ыстың
▁Böyle
▁pek
▁cev
▁ететін
▁öğret
▁keş
еттері
▁tamamen
▁алды
▁үкімет
амен
▁әртүрлі
иясы
▁En
ерлік
лерді
▁сияқты
▁беретін
og
▁дол
▁болу
▁fil
▁тарап
▁күні
▁зауы
▁nerede
▁нәтижесінде
▁Ken
▁сыз
cek
▁бәс
▁parça
▁gereken
фик
▁teş
арту
рация
алу
▁hisset
▁құрайды
пут
▁Sa
онды
▁ап
▁demek
▁қызметтер
▁көтер
iydi
üne
▁қи
▁қосымша
▁бет
ақтың
▁etkil
rıca
ылуы
▁orada
▁технологиялар
▁re
eşit
▁төл
рамм
▁dav
ытай
nız
сақ
▁17
▁kan
▁берілген
ört
етте
▁мерз
ula
ікті
ограф
met
▁инвестициялық
isayar
▁söyl
▁орынбасары
▁сы
▁қоғамдық
▁sıra
▁basit
▁мәліметтер
▁берді
kat
▁қараған
▁тақыр
▁форум
▁қабылдан
▁genel
ехан
çı
▁тіз
▁uygu
▁саласында
▁соңғы
alnız
cağım
▁belki
▁[1
mı
şa
▁sonuç
▁оларды
елен
▁ақш
tiğini
▁sat
▁coun
▁geliştir
дек
▁para
imde
lerinde
▁Afr
▁eden
▁теңген
uyu
нды
ılmaz
ілігін
--
▁атқар
▁жу
oğraf
▁карт
▁iliş
▁интер
▁söz
алл
▁sağlık
▁бүгінде
▁үрді
▁шақыр
▁сп
алатын
imin
▁шағын
ландыру
▁экономика
▁pol
▁temel
▁айтқан
▁kır
▁мон
pr
ауға
▁fot
▁geliyor
▁экологиялық
▁that
те
▁мин
lerle
eğin
ияның
мун
▁сур
dığım
▁kontrol
▁параметр
▁табиғи
▁соның
▁buna
▁бастам
lük
▁бәсек
▁комит
▁шект
гор
аларға
жыр
bo
▁uç
▁saat
▁айтып
▁белгіл
пал
дығын
▁şöyle
алығы
▁parç
▁дейінгі
ль
▁dol
▁із
дақ
▁дир
dılar
ies
▁um
лерін
▁теор
▁kolay
▁ekonom
▁өзгері
істер
▁yapı
▁Сонымен
▁tah
hi
▁bugün
емьер
▁саяси
▁mer
▁çeşit
▁аудар
▁қала
▁konusunda
▁oyun
▁40
▁bunlar
suz
tiği
неше
▁hatır
▁факт
▁ala
▁intern
▁;
лығын
▁önc
▁gelir
▁тұрақт
elerin
ығының
ьютер
▁paylaş
▁қаң
▁математ
ттің
иг
қару
▁тасымал
▁yür
▁dedi
▁reg
▁бая
▁кем
▁тапсыр
од
▁onlar
іпт
▁конц
landır
kan
larım
▁жобасы
manız
▁dünyanın
▁комиссия
▁бұдан
▁нығайту
▁мемлекеттер
▁спорт
▁2013
ow
▁мар
uma
▁genç
егінде
▁Sonra
▁sizin
▁өнеркәсіп
▁haz
ekkür
▁қытай
ayan
lantı
▁қамту
usu
ікір
▁artık
elop
▁жоқ
▁кәсі
▁сайын
▁аяқт
▁салалар
ıt
шісі
▁бат
sında
орлық
▁алаң
ary
▁кешен
▁Ө
итм
▁шығын
▁бірнеше
▁harika
od
▁тарту
▁1,
еде
▁жақсы
diğiniz
dük
▁өзге
▁üzerine
aç
▁kelim
екторы
atı
liyor
▁dair
▁пән
▁тұл
▁шығару
▁develop
▁Hay
гіш
ivers
▁өзгерістер
▁this
yar
▁işe
андыр
▁Al
▁ықпал
▁ағымдағы
▁öyle
▁sosyal
▁bölg
▁тәсіл
▁басым
▁тексер
nak
edik
▁қаңтар
▁araştırma
ақта
▁пікір
yse
нем
уль
▁hücr
▁депут
▁gön
▁дамытуға
▁нәтижелер
ub
cağını
▁еураз
еміз
▁uzak
▁істеу
▁өлшем
▁davran
▁толықт
ілдіру
▁темір
lat
сына
layan
luğ
анд
▁дү
lerinden
▁елбасы
miyor
▁көб
▁ресурстар
▁hızlı
▁мөлшер
горитм
▁yakın
▁kr
▁әрбір
▁кей
▁çoğu
▁серікт
masını
▁countr
▁нысандар
▁жетілдіру
▁(1
▁жа
▁технологиялық
ейн
▁bizi
▁le
alım
şey
▁fır
▁өту
▁çiz
▁year
▁объект
▁үдер
▁bilgisayar
▁республикалық
▁жатыр
тау
ығу
ob
▁ölç
▁ihtiyac
▁аг
тив
sik
асты
▁еуроп
▁әріпт
ауи
inci
gın
шар
▁жұмыстары
▁оған
▁премьер
▁müz
▁нар
▁sp
▁әл
▁заттар
▁алғашқы
▁басқарм
say
▁бұрын
▁okul
▁шең
0'
▁мәж
ици
▁çevr
▁biliyor
▁тоқт
▁көмір
lerce
еда
▁sayı
▁қамт
▁жасалған
▁шаралар
acak
▁көмек
ғының
▁yeniden
▁sek
▁tarih
▁кәсіби
▁жеңіл
▁өзінің
▁өсу
▁хабарлады
үкт
▁шек
▁ancak
det
▁vardır
hangi
▁gelecek
▁olmayan
ина
▁тік
mi
gil
▁Gün
пл
▁ann
indeki
ах
▁басп
▁қатысушылар
▁З
▁herkes
іңіз
▁механ
▁yaptık
▁қадам
▁insanları
▁мекем
▁şehir
▁kes
▁жылдан
▁yapma
▁yalnız
▁San
▁құб
erkez
▁болашақ
▁hayvan
▁onların
▁шеңбер
▁министрі
▁саясат
qu
▁ona
▁мас
▁hâl
▁қажетт
▁тараптар
▁Evet
▁keşf
hat
ınır
duc
стү
▁fotoğraf
▁орындал
▁бағыт
ларының
▁жиын
лықтар
▁ұш
▁güc
▁салыстырғанда
есс
▁тағ
hil
▁салу
▁кәсіпкерлік
▁банк
▁жетек
▁үздік
▁Мұн
егімен
imize
▁kaynak
гог
▁Ger
▁жем
▁арт
ov
ağı
▁дағ
▁келе
▁polit
▁Baz
leme
▁өзекті
▁жеткізу
есті
▁бұұ
lardı
eceği
▁düzen
sını
ant
едагог
▁grup
▁тұрғы
ültür
raya
▁başarı
▁міндеттер
▁ам
▁dört
лігінің
ати
▁баян
▁им
блем
азм
▁тағы
ilmiş
▁Amerika
▁сала
▁кеңес
isini
▁dest
▁алгоритм
▁артық
истік
ференция
ekli
lış
▁кур
▁Мақалада
алығында
нен
терінің
▁заңнам
ланған
▁hazır
▁тонна
▁sanat
▁қызметі
eci
▁ұйымдастыр
▁өзін
ограмм
▁жүйесінің
йт
ceğ
йді
▁маман
▁саб
▁Afrika
▁заманауи
▁құрылысы
ift
ебі
▁жш
▁терм
▁хабарлаған
то
ou
▁str
▁алдын
ational
▁студенттер
ыңғай
▁yönet
▁дәреж
tış
▁орналасқан
af
▁Ф
ard
▁anlat
ациялау
▁жария
▁onlara
▁sonunda
▁метр
▁кр
▁ауқ
▁жшс
▁güçlü
шаған
▁ғал
далған
іліс
▁Baş
сында
ғылар
▁шетелдік
▁vüc
▁сатып
анда
▁iler
gin
şık
▁кәсіпкерлер
▁интег
kün
▁үлгі
ғына
siyon
ығына
ілері
▁пайдалануға
▁сом
▁нүкт
▁тұтын
▁сапар
▁реформ
▁бірлескен
енті
▁Böylece
▁siya
▁хабарлағандай
ince
▁маш
▁дем
larınız
larca
▁kut
▁teh
▁21
▁компьютер
ымы
ыста
▁инновациялық
ib
ми
▁басшысының
▁істер
▁konuşma
▁пер
▁örnek
уз
уір
seniz
▁екіжақты
елген
▁Sadece
▁көмегімен
▁пл
inc
ысқа
▁өнімді
▁op
▁нау
▁yerde
▁kol
▁have
▁тарт
▁алуға
▁tr
илли
▁терең
ығыз
▁келтірілген
,6
▁ku
▁our
menin
▁ах
▁проблем
сур
▁қосп
▁қызығу
▁жағдайлар
▁бағыттар
▁ilet
▁Şu
▁мик
▁ölüm
▁karşılaş
▁көрсетеді
Alkışlar
▁yaklaşık
efon
▁erkek
müş
▁yen
▁geldi
▁çalışan
эфф
▁асс
ілуде
▁kabul
ektr
олық
▁жаңғыр
▁негізделген
се
▁ынтымақтастықты
▁ot
▁hatta
▁әзірлеу
uvar
,2
teş
tiv
▁eğitim
,3
-2
tör
▁ағын
ding
▁değişik
▁otur
▁орнат
▁istem
▁milyar
▁199
▁Bel
ebilirsiniz
▁теңгені
едел
ciler
▁сипаттам
▁қару
▁жұмыспен
ивті
ысын
▁азия
▁destek
шысы
▁inşa
umu
▁başar
▁by
▁қаржыл
▁әдісі
▁kültür
▁yapıyor
▁шын
▁сондықтан
▁қорытындысы
ga
yım
abil
▁зор
▁орган
,4
▁жаһ
po
matik
tions
▁реттеу
▁nes
ету
▁күрделі
▁жолдау
▁жоғарғы
▁herhangi
▁comp
▁дүни
ыстыру
▁beş
▁kom
▁сапасын
▁görev
▁işte
орда
▁cevap
▁dikkat
▁туризм
▁қағ
▁орташа
▁қолданылады
▁одақ
rim
iyiz
▁әкімі
▁жүйе
▁gezeg
▁dak
edim
▁парт
▁teda
▁тоб
▁ауру
▁облысының
▁ақт
▁altında
▁милли
▁olmaya
сін
▁химиялық
▁тығыз
▁olduğumuz
▁өндірістік
▁elde
▁қараж
▁екенді
▁bilgi
ея
▁жүкт
abilir
▁құжаттар
ерт
▁талап
▁tep
▁сұ
қим
ттың
leyen
▁бес
▁алған
▁орындау
▁сіз
▁geniş
тқ
abii
▁бұз
tığımız
▁derece
▁нәтижелері
ерттеу
▁şeyleri
ore
▁аса
▁2020
▁қауіпсіз
▁Бір
esinin
eden
▁ері
▁ilginç
▁мерзім
▁дәстү
▁Қазіргі
▁топыр
ыб
▁dal
▁pat
memiz
▁сем
▁şunu
ümkün
▁kendim
▁ber
▁biy
▁Benim
▁кезегінде
▁айтқанда
▁мәдениет
usal
▁kez
▁там
▁sınır
▁шик
▁etti
▁даяр
▁жақсарту
▁Amerik
▁алдағы
▁hey
▁Bunlar
▁арқ
▁Gerçek
▁дайындау
ıldı
,8
▁tanım
▁merkez
,7
оль
▁dolar
▁yetiş
▁еуразиялық
▁министрлігі
▁wh
елей
▁сәул
жырым
лікті
▁araç
▁kesin
▁болж
ғыс
▁all
▁model
оры
инам
▁ort
▁норм
ылайша
▁коэфф
▁kam
▁алатын
gun
▁24
▁kür
▁мүмкіндігі
ımda
tif
▁гид
▁сапалы
▁uğ
▁реж
izik
асымен
▁барлығы
▁hemen
▁жалға
гілер
▁үнем
ағында
▁haber
▁қазір
▁dünyada
▁gönder
▁конференция
▁bar
▁yanlış
тур
▁etraf
aj
▁тел
▁неси
едж
▁biç
▁mümkün
lic
▁жабдық
,1
ala
undan
▁hafta
▁қоса
▁karma
uluğ
ометр
▁durumda
ғалім
▁edin
▁дамуына
▁жетістік
▁директоры
▁ру
▁telefon
eti
тал
▁өңірлік
etik
▁ядр
▁Av
▁жаһандық
▁жоспарланған
ina
▁халқ
▁тұжырым
ілу
cağız
▁дейді
▁yazı
▁ister
▁istiyor
sın
▁olmalı
ünün
▁çift
▁70
▁тұтыну
▁60
▁eski
▁inanılmaz
▁yeter
▁кейбір
▁отандық
▁дұр
isinde
▁yapar
▁tab
▁Bugün
▁жібер
▁қалдықтар
▁kil
rom
▁тр
▁çar
▁қорған
▁ilişk
▁region
▁böylece
liy
▁am
▁әк
azar
▁sebep
▁қоршаған
▁ün
▁mah
▁граф
mesini
▁ap
▁azal
▁kısa
▁görüş
▁аймақтар
▁атқару
нд
▁El
iversit
амбл
▁dir
▁hikâ
▁білдірді
▁үст
▁tane
▁сенімді
ылы
ман
▁бу
муник
ital
▁imp
▁жуық
▁söylem
▁мақалада
▁бөлігі
▁başladı
.000
техн
▁зия
ilerini
▁жөнінде
▁тәуелді
uh
ұс
▁enerji
емен
▁ren
▁çözüm
isk
▁микро
▁күй
▁bağlı
▁tasarım
▁han
ациясы
▁дамуы
▁бастапқы
▁әдістем
▁benzer
▁baz
fer
рат
mıştı
▁olay
▁hasta
мер
iyat
▁oran
ади
едом
▁engel
▁ерекшелік
▁әу
▁ayr
▁асп
▁хат
▁оңтай
ылығы
▁izin
▁work
▁отан
▁талқыланды
ств
▁neredeyse
арлық
▁ведом
▁ec
▁per
▁қызметкерлер
▁педагог
▁мак
▁салық
çi
інше
▁kav
ларға
▁мәселелерін
▁so
▁опер
▁beyin
ela
▁көң
▁ihtiyaç
▁parçası
tiğimiz
▁теңгеге
▁маңыз
▁тікелей
истикалық
итор
▁gider
▁қондыр
▁rahat
▁коэффици
▁insanlara
ақтық
dığınız
лерінің
арыш
▁cin
▁шығарм
▁жылдары
айлы
▁İlk
▁бағдарлама
▁шеңберінде
икасы
▁көрін
▁hastalık
▁қыш
▁сот
▁teknoloji
▁қаш
▁құнды
▁elektr
yi
ünden
ğın
▁Di
міз
▁sizi
▁арттыр
ladı
▁тұрады
meden
▁bahset
акция
▁yaşında
▁оңтүстік
madan
қынды
▁сандық
day
▁he
▁zar
▁математикалық
есу
▁әй
▁қаласында
▁аралығында
▁Рес
▁evren
▁бекіт
▁осындай
▁технологияларды
▁pe
diş
▁астанада
▁development
▁кар
▁пал
азмұн
▁өтетін
ице
▁23
▁ders
▁hava
▁вице
▁орталығы
temelen
тіб
amam
аус
▁аб
lerimiz
▁таныстыр
▁tra
▁халықтың
▁2018
▁алын
▁ведомств
▁yolu
▁Or
маты
▁tes
▁көңіл
tıyor
▁kitap
▁тасымалдау
▁ала
bot
▁ци
▁мүд
▁yine
ıma
▁Gör
larıyla
▁organiz
▁кеңейту
▁жаңғырту
▁электрондық
ме
hen
▁нысан
ıla
▁ışık
▁әкел
▁стратегиялық
▁жобаларды
▁мең
▁құны
ашылық
▁ядролық
▁зерттеулер
астан
▁В
makta
▁сенім
sına
втік
▁шикіз
ich
ілім
,9
иясының
рт
▁үйл
▁мазмұн
бе
uyla
▁boş
ımızı
▁тәртіб
▁ассамбл
▁alıyor
мд
деп
▁özg
▁шығыс
▁Hep
▁иде
▁қарап
oğu
▁тиісті
ғыл
▁sab
▁şaş
▁yapmaya
▁атындағы
▁арал
ham
▁New
▁sını
ип
▁бюджет
күй
▁mek
▁hiz
ıyordu
шылығы
▁мәселесі
кір
шының
атының
▁анықталды
▁құрамы
▁мұғалім
▁karmaşık
▁ilaç
терге
▁өтін
ormal
▁игер
▁rağ
▁айтарлық
▁İs
lion
mekte
▁орай
▁değildir
▁derin
▁себеп
▁olsa
port
▁орны
edef
ideo
▁өтеді
tal
▁istediğim
ттықт
▁деңгейде
▁арқасында
лай
▁inv
▁go
▁hük
lanmış
▁yapan
▁мемор
▁ч
▁меңгер
▁айтарлықтай
lim
дады
▁пав
▁bağlantı
lis
▁tec
▁таңдау
▁mem
▁режим
▁жылдар
▁жобалар
▁келетін
▁программ
▁AB
▁Ara
tiler
▁асыруға
iliğ
▁маг
▁rağmen
▁эт
▁sey
▁қойм
▁экспор
▁деңгейі
▁құттықт
sam
жет
▁gaz
ünc
▁Çin
▁Tüm
▁econom
▁облысы
тінді
▁заңды
ıntı
▁mus
▁қасиеттер
▁сө
▁қаласының
▁шектеу
▁индустрия
lım
tıcı
▁sil
diğinde
▁yardımcı
▁кан
▁hale
üf
▁fizik
▁себебі
fes
emez
үз
атта
▁бола
сөз
▁кіт
▁olduğuna
▁kayb
▁deneyim
dip
yıl
стің
▁мол
▁ayak
▁araba
▁ortak
▁gezegen
қимыл
▁Size
▁Ayrıca
кур
▁robot
▁state
▁көрсетті
▁22
▁sol
аттары
biliyor
▁кест
▁şeyin
▁дұрыс
aber
тары
▁art
▁жөндеу
▁мәжіліс
▁қарағанда
дерге
▁kans
▁қиын
спект
▁нары
▁қауым
sediyor
aya
анған
▁doktor
▁bunları
▁düşünün
аттандыру
амб
▁gerekiyor
▁was
▁özellikle
дету
▁бірікт
▁талқылады
▁металл
hn
екте
әсім
▁araya
▁деңгейін
▁olmadığını
жол
uya
isel
▁birşey
▁Алматы
▁giz
▁hala
leye
▁koş
▁кол
▁лог
ылуда
▁yalnızca
tic
әрек
raki
▁tük
▁бөлш
▁karış
▁элементтер
ттері
▁қаржыландыру
гн
arken
зыр
келген
▁концент
▁мөлшері
▁өлшеу
maları
пи
ілуі
▁аймақ
▁hizmet
уына
olojik
▁парламент
▁deniz
▁мал
▁söylüyor
lüğ
▁sh
iddet
плом
lamaya
ализ
▁ойын
▁tahmin
▁айында
▁биылғы
sta
▁değildi
ерм
▁ul
▁süre
▁мәселе
▁тәуелсіз
ud
asına
meyen
▁Bazı
▁akıl
▁mey
▁байқау
тп
азарбаев
▁dayan
▁doğal
▁тигіз
▁ülkeler
▁Tek
▁sınıf
▁кеден
▁davranış
▁тың
▁götür
▁aşağı
▁dedim
▁қызметін
▁fir
кеу
▁sok
asını
▁практ
▁диплом
▁кешенді
oun
▁ұн
▁үлесі
▁boz
▁olmuş
▁resim
▁üzere
▁düşündüğ
taki
аусым
▁odak
▁нұрлы
▁компон
дин
▁ради
▁suç
ement
▁жұмыстарын
▁назарбаевтың
▁av
eyin
▁делег
▁internet
30
ала
▁ресми
▁arasındaki
▁қандай
кені
▁bec
▁sak
иф
▁таз
▁neler
▁ақпаратты
duğu
▁gerekir
▁дін
▁hepsi
▁рөл
▁мемлекеттің
айым
▁орында
шілігі
▁Bence
▁dolayı
▁тарихи
▁бірақ
▁кедер
ecan
emiz
▁risk
eceğim
rat
sat
▁fin
▁ürün
▁тәрби
▁пайызға
тең
▁mad
▁тақырып
▁қорғаныс
iğ
▁80
▁adım
▁мәселелерді
▁x
біт
▁dönem
▁ettik
дандыру
▁ag
isinin
министрі
iha
▁жалғаст
▁=
▁film
▁ашық
дырылған
▁Сондықтан
аэ
оң
esinden
▁ауқымды
▁есебінен
▁acı
▁yere
masına
▁yöntem
▁үшінші
▁İngil
▁палат
ви
имар
▁жап
▁осыған
▁beyn
▁қойылған
▁new
etr
▁test
▁ettim
▁егер
▁başladım
pan
▁қара
▁bence
▁yeten
▁әкімді
▁орындар
▁düşünc
▁облыстық
▁қарқынды
▁энергетика
ura
▁жұ
ayet
▁келіп
elerini
▁tamam
▁Siz
▁аген
▁gösteriyor
▁/
тқыш
▁Dev
▁ген
▁boyut
▁olsun
▁жағынан
ban
елеу
▁ұлт
▁dakika
▁тарапынан
▁мұндай
жым
тыр
▁sun
▁айқын
шылықтар
▁not
▁төрт
▁балалар
sed
▁Hin
▁жақын
▁Aynı
▁yaptı
ED
▁жедел
▁факторлар
▁Ön
▁çağ
▁küresel
oğun
▁acc
▁ұст
▁ұзақ
▁тәжірибе
▁28
▁Ch
ayda
▁500
▁инвесторлар
▁yoktu
▁бейбіт
ebiliriz
▁зерттел
tuğ
ану
▁hes
▁Belki
dığında
▁gerçekleş
▁ban
▁мұр
▁син
▁кеңесінің
▁1-
▁Büy
▁ten
адр
sıyla
▁бәсекеге
▁diz
▁ереж
▁bilin
▁heyecan
▁өсімдік
cağı
▁сөй
▁тұлғ
▁öldür
bu
▁diy
▁үйр
▁келіссөз
▁num
▁uğra
▁hedef
▁ғалым
▁Ол
▁етті
▁станция
андум
▁yapılan
▁26
▁emin
▁ifa
▁taşı
laştır
▁açı
▁стат
▁меморандум
▁байланыстар
мент
▁спект
▁biliyoruz
аев
ırı
▁күт
▁жасыл
▁туристік
▁Kon
тардың
▁жүк
▁сый
▁шарттар
ari
▁шы
асыр
▁ə
▁No
iyim
▁kah
▁тиімділігін
▁түрі
▁geçen
▁part
▁şiddet
▁әдістері
teki
▁ABD
▁ihtiyacımız
▁country
▁құрылған
▁қазақстандағы
▁мерек
атқа
асөз
▁нұс
▁әйел
▁бүкіл
eği
sul
▁дау
▁ifade
▁makin
▁желілер
so
▁mal
▁tartış
▁gidiyor
▁процестер
ло
▁cid
▁içine
▁жұмысын
дап
▁сүй
ысына
▁yüzyıl
ucu
әсіб
▁Gen
▁ғимар
▁баспасөз
dis
▁құзыр
▁görebil
▁тұратын
▁нан
қу
▁ғарыш
▁bilm
▁lider
▁ретте
▁ұйымдар
зия
▁дәстүрлі
алуы
▁цифр
едер
▁дәлел
аттандыр
▁peop
ографиялық
uç
ілм
▁fak
ург
▁eşit
▁şaşır
▁модельдеу
ыны
▁0,4
deş
▁27
▁Кө
▁mikro
▁sorum
▁көшбас
ocuk
▁bazen
▁yüksel
үл
dent
ileş
memiş
uyorum
▁çocuğ
bor
kın
тивті
▁дамытудың
▁Ha
ilere
▁ескере
▁жобаны
▁маусым
ekkürler
ton
▁сұран
eyn
ілде
▁қою
▁sene
▁beraber
▁Yap
▁қылм
▁merak
▁görmek
▁қолжет
ati
ңгі
▁рәсім
▁деректерді
▁қарастырылады
ко
бен
▁oyn
▁кап
▁өнеркәсіб
шік
▁қысқар
lilik
ңг
ded
енген
▁мыңнан
▁gördüğünüz
▁sonraki
▁kullanarak
▁Örn
deceğ
▁Diğer
▁hikây
las
▁май
▁сұй
▁alır
деріне
▁yemek
▁дамыған
▁арттыруға
▁физикалық
▁Har
▁құрал
▁0,5
▁yavaş
назарбаев
▁бірыңғай
тр
ұлы
▁ұсынылған
▁2012
▁қалп
▁қызметінің
епт
омп
▁ic
▁тексеру
▁оқушылар
▁түй
▁etmeye
▁жобасын
lin
нді
сек
▁атты
▁anlaş
igh
▁mev
▁güneş
▁yaptığı
olog
▁kas
ілеу
▁ikinci
▁insanın
▁Neden
▁incel
▁министрлік
ігер
▁серп
▁ilgilen
қаз
▁ağa
▁тұжырымдам
▁қолданылатын
nun
▁Республ
ruc
▁me
üncü
▁şans
ындығы
▁жерде
қо
▁from
▁kanı
▁қабілетт
▁ey
▁Ин
▁kalan
are
▁сағ
mıyor
▁tanı
▁Tamam
▁ортақ
▁bundan
▁tehlik
sini
ісін
▁bölüm
▁geçmiş
▁anlamına
emmel
▁электронды
рыз
егей
еттен
ттары
▁аппар
▁қатысады
▁muhtemelen
ff
итал
▁бос
▁olup
▁қышқыл
he
▁veri
▁енді
üle
▁no
▁çö
▁keşfet
▁шамамен
▁компаниялар
▁жолы
Bu
егіз
ром
▁сек
қорлық
▁zih
tiğim
▁транс
▁rep
▁фаз
істің
bilmek
▁халқы
▁жасауға
▁басшылары
NA
▁vak
lerdi
▁қолайлы
▁іл
алог
▁парламен
ect
қсан
▁bab
▁people
▁çalışıyor
dy
▁сигн
leriyle
басының
▁тұрған
▁айналыс
▁қауымдаст
▁еңб
▁çarp
▁bakar
▁салын
▁алмасу
▁бағдарламалық
dern
адем
нет
▁жүргізілді
mam
▁фот
▁этн
ежүз
лерге
▁мысалы
▁Ос
irsiniz
▁ластан
larımızı
▁sağlaya
▁beb
ükemmel
▁түрінде
▁қолжетімді
▁ana
▁canlı
▁seçim
▁yaşayan
bon
ани
▁баға
▁облысында
▁yaptığımız
▁kaf
▁мәні
▁порт
▁verici
▁сектор
▁берілді
▁бағдарламасын
sem
▁300
▁bula
▁бері
▁минер
керлері
▁жылына
хим
▁кеп
▁кри
▁бөлу
▁жұмысы
to
▁ни
▁болсақ
▁қалған
▁конститу
▁министрлігінің
▁дост
▁идея
ınızda
▁теңіз
еди
ildi
dıkları
▁кездес
▁altı
▁bunların
▁қосу
▁mesaj
▁sistemi
▁mis
▁beyaz
▁trans
▁операт
оғ
son
▁нақт
іміздің
▁анықталады
mızı
▁ғасыр
инар
▁ayrı
▁olası
▁динам
▁devlet
▁ұр
▁bakış
duğumuz
▁Л
▁салм
▁қалпына
▁еаэ
▁құбыр
▁түсіндір
▁құрайтын
лап
елерін
іңізге
▁almak
▁қызыл
▁düşünüyorum
▁35
▁kuş
▁соңында
▁әлемнің
▁Ya
lığın
▁құқық
▁dışarı
▁сор
elere
▁hâlâ
▁normal
▁кәсіпорындар
▁уч
▁жинақт
▁dönüştür
malıyız
▁жылдық
ign
ımın
ян
өбе
▁olurdu
▁концентрация
meleri
ималды
▁vermek
▁hoş
▁еаэо
аушы
▁başlıyor
▁құқықтық
▁ұсыныстар
▁бейн
▁sav
25
▁арда
▁білікт
▁iletişim
▁сұрақтар
▁қатынастар
cık
mişti
▁endiş
▁çevir
▁кеңінен
ля
ukarı
▁York
▁alın
lek
▁кв
▁tav
eyecek
▁жатады
▁görüntü
▁CA
▁bes
▁zen
cılar
▁renk
▁29
осфер
▁жетк
▁görül
▁бағал
техникалық
сид
▁miktar
▁алынды
▁картасы
ous
▁ör
▁yoğun
▁ерітінді
▁gerektiğini
ılır
▁balık
▁академ
▁бірлесіп
▁TED
▁yiy
асынан
▁takip
ыстағы
▁тыс
ативтік
ессия
▁sürekli
▁қазақстанға
▁mar
▁Buna
▁инвестициялар
aten
emin
▁жалғ
▁Büyük
▁düşünür
▁атқарушы
▁табылатын
▁экономиканың
mat
сен
▁Kar
▁ele
▁Bana
▁değişim
üb
▁hap
▁механизм
▁zek
дейді
bilirim
▁ait
▁естер
▁başına
▁İnsanlar
3]
▁tıp
▁көк
далды
▁etme
▁yaratıcı
inize
▁Örneğin
▁жобалау
▁жауапкер
рек
ференци
▁birisi
▁kendini
▁азаматтық
uzey
▁жәр
ınızı
▁отын
▁етуге
▁pla
▁asla
▁азық
елерді
▁беріледі
▁құрамында
обиль
▁uygulama
su
сурет
▁тест
▁қана
▁ciddi
▁қосымш
▁dünyayı
▁дүниежүз
eyim
▁sar
2]
▁invest
▁kaybet
▁материал
▁kaldır
▁компьютерлік
оген
кцион
лігіне
ola
▁sürü
аск
тып
lardır
▁Avrup
▁müzik
▁görünüyor
▁nedir
құ
ical
▁wor
▁özgür
▁fırsat
▁тақырыб
▁айтылған
▁міндетті
▁kesinlikle
ite
▁жою
иканың
теріне
▁fayda
▁yılda
▁kural
▁мақсаттар
▁alış
▁бөлек
▁перспект
▁бойы
озиция
▁bakın
▁bal
▁зауыт
▁наурыз
▁қарама
▁жұмысқа
▁birey
dikleri
аторлар
▁gar
▁стандарттар
iti
▁км
eral
▁Зерттеу
▁nüf
▁шара
▁çıktı
▁маңызы
атур
стру
▁verir
▁zarar
▁әб
▁Doğ
▁муз
іресе
▁мүше
йткені
▁түсті
▁duyg
▁yor
▁topluluk
уын
▁id
arım
▁sec
ısını
▁alıp
▁nokt
▁şeye
▁прин
▁kurul
▁tedavi
▁алғанда
▁başarılı
▁çocuklar
▁тізім
▁кеңейт
▁жылдарға
▁екендігін
ұқс
▁Hat
ысалы
distan
▁presi
▁орталығ
▁yıldı
cut
▁dışında
▁айналды
▁қалалық
▁қазақстандықтар
рон
lanan
тифик
▁büyüm
▁энергетикалық
неу
▁Ақ
duğum
▁алтын
▁oku
lıkla
▁елдердің
▁hav
еледі
▁өтіп
▁ayrıca
ust
lanma
▁binlerce
оф
her
▁öde
▁uzman
▁федер
▁саласы
▁yatırım
▁өнімдерін
оқ
aliz
▁düşük
▁kimse
▁даярлау
iyorsunuz
▁дайындық
▁педагогикалық
imli
▁ашу
uyoruz
▁olmadan
▁Çocuk
ымыздың
▁см
▁мына
▁өтініш
▁елімізде
▁ayır
▁нұсқ
▁ұлы
struc
▁қатты
▁шығармашылық
▁үм
ated
rası
▁yağ
▁mate
▁nedenle
▁gece
▁okyan
▁tanış
▁yayın
▁produc
▁қаласы
▁düşündüm
▁стратегия
▁етіп
▁асырылады
▁президентінің
айын
ities
▁Pro
▁көл
tığım
▁субъект
▁құрамына
▁ы
▁ок
▁Teş
▁adı
▁кадр
▁uygun
▁көмект
▁konuda
▁қолдануға
10
▁бо
▁ciha
▁anlama
ılma
▁зерт
▁?
▁сүт
аймыз
▁seviy
▁жобаның
ebi
▁laz
▁beri
▁kanser
▁yılında
▁қатысуымен
▁инж
▁жүйенің
imizde
▁Onlar
▁video
uydu
▁мұнда
қыш
▁сез
▁кіріс
▁көрме
▁машин
▁азайту
▁өзгерту
▁бағдарламасының
uc
▁2-
▁ды
▁ref
▁масс
▁bağım
▁harit
ris
сынан
▁ekonomik
▁оқушылардың
ısız
▁Pek
▁диаг
▁мекен
шара
▁görür
▁кітап
▁ederim
ут
▁ки
▁келтіру
emi
осф
▁желто
▁теңдеулер
▁құрылғылар
gh
▁cen
▁kir
▁duygu
▁барынша
▁Hindistan
go
▁tabii
▁hastalı
ld
мын
▁ег
есте
▁істейді
▁жағдайында
түлік
▁kurt
▁İkin
▁işaret
▁birinin
▁mükemmel
▁ob
▁қх
▁алдында
▁dünyadaki
▁диф
▁dolu
▁әңгі
mesine
▁Birleş
▁түрлері
▁жемқорлық
sil
газ
ılması
bar
удың
oloji
▁hastan
▁comm
▁еркін
yken
▁don
▁хол
▁hangi
▁modern
▁rek
аттау
спары
▁hesap
▁sayesinde
▁exp
▁рұқс
▁hayatta
жыл
▁edecek
fen
▁кіш
inizin
▁90
▁Hiç
▁тмд
▁veren
▁кезеңде
▁biliyorum
yın
ус
▁ұқс
cadel
▁zengin
шілердің
▁компаниясы
ард
▁Tan
▁yolc
dem
tığını
▁dahil
▁жылда
▁төлем
▁yukarı
▁арту
▁ауыр
▁қолдана
ker
қым
▁Ok
▁жоспары
fi
▁ıs
luğu
medi
landı
▁нәтижесі
▁ces
▁vir
▁қашықт
oci
ырау
▁gro
▁проф
asının
▁қызығушылық
▁DNA
▁labor
▁kişisel
▁öğretmen
▁перспектив
▁жоспарлануда
ка
gen
лас
▁кес
▁ağır
елерінің
▁тәуелсіздік
▁vur
▁агро
▁отырмыз
▁іскерлік
▁қарапайым
▁pop
▁аламыз
рі
▁imk
▁елбасының
▁0,6
▁uzay
▁біріктір
ган
▁med
▁тұз
4]
ıyla
уіне
овтың
▁елді
lıyorum
▁ардагер
▁жағдайы
▁осылайша
sen
reas
▁unu
мол
▁бен
▁şekl
▁бірт
мосфер
▁işlem
▁meydan
▁olduğum
▁dö
тады
▁суб
▁кері
▁класт
▁интеграция
▁бағдарламалар
▁жұмс
▁ortam
▁аймақтық
▁өнімдері
▁анықталған
▁ast
ыстырм
ациялар
▁миллион
▁үлгілер
▁жоспарлау
▁ışı
туалды
bileceğini
▁дүниежүзілік
▁(2
alet
diniz
isine
ations
формат
▁қырғыз
▁естеріңізге
▁işi
▁дағдар
▁қыркүй
ида
▁таны
ылығын
▁anlaya
▁бөлінген
▁içerisinde
▁öt
лерде
▁моделі
üğ
▁tal
▁sır
ublic
▁құжат
ылыстар
▁president
olek
▁yıldır
▁söyleye
▁қалалар
▁аумағында
▁көлемін
din
тация
▁Негіз
üler
▁салтан
▁mücadel
▁yık
▁karş
▁teor
▁Егер
▁шешуге
кәсіп
▁bo
▁аэ
ғыст
▁термин
▁uc
eydi
bette
▁істейтін
▁қатарына
pa
▁Go
▁giy
▁әзірл
uyorlar
▁құруға
▁жасалды
▁Gerçekten
ғу
▁Geç
▁tat
lerim
▁arada
бел
tive
▁elektrik
▁құрылымы
enüz
▁ark
▁tüket
▁mevcut
▁жиынты
▁45
даған
▁sinir
▁әкімшілік
ма
▁еш
▁kısm
▁үлес
unuyor
▁varsa
▁еуропалық
таб
▁dis
зімді
▁алайда
▁zamanlar
▁görüyorsunuz
ылыс
өнер
▁süreç
▁іздеу
▁үрдіс
▁принци
▁семинар
▁әріптестік
▁Avrupa
▁қарастыру
jen
▁İki
▁ediyorum
▁verdi
▁бағыты
▁бірлік
▁сапасы
▁дипломат
dam
▁tu
ісінің
▁соңына
▁оқытудың
▁buz
▁опт
teşem
▁kardeş
▁қарағанды
▁ю
ланд
▁gru
▁өзен
ümüzde
▁hüküm
haf
бет
▁kanıt
▁тарат
▁yaptım
лығына
ыстары
▁жаңарт
▁корпор
▁fikr
▁алғыс
▁görüyoruz
бат
▁дан
▁есеге
▁yıldız
▁сомасы
▁söyledi
▁монитор
иев
▁çap
▁Bütün
▁geçer
▁kısmı
larımızın
▁olduğunuz
▁tip
sının
elikle
▁жасақт
▁kadınlar
▁келісімге
ілт
▁ұк
іктеу
ленген
▁менің
▁зейн
▁ұғым
▁батыс
▁gerekli
▁өк
тарды
▁mini
orm
ron
абақ
▁öğrenc
▁дайында
▁өзіндік
тіп
тағы
тылған
▁temiz
▁жоспарланып
лым
istan
▁ters
талған
▁yarar
▁орнату
▁түрк
eceğini
▁anlamak
▁төменгі
▁дифференци
▁бл
▁silah
▁алдымен
асс
атри
▁tur
тор
▁тізб
▁kurum
▁sürdür
▁жетекші
▁olmadığı
▁кедендік
▁коммуник
▁görebilirsiniz
▁rol
▁дағды
▁шаршы
▁bulmak
▁bulunan
▁толықтыр
▁деңгейдегі
▁ис
▁cre
▁sef
▁еді
▁топт
▁mutlu
▁І
▁ır
ықтыру
▁sıcak
▁fiziksel
dın
▁defa
▁evet
▁жарт
▁зейнет
▁herkesin
.''
▁150
ırken
▁takım
▁Mar
▁акт
malar
▁әсері
▁ақтөбе
▁болжам
дандырылған
itu
▁öd
▁химия
етикалық
ste
▁etkileş
▁жүргізілген
akter
ısından
▁интегр
üsü
адан
▁ауыс
▁Kendi
елердің
▁musunuz
атр
ник
▁ион
▁yapabil
▁атом
▁шарт
▁қойылды
ale
bol
meniz
▁tenge
▁қалай
▁өндірісі
партам
▁aşırı
▁жеткізді
▁шо
ерлер
ılıyor
▁сурет
▁зертхан
ыстырмалы
▁саналады
▁делегация
▁бейім
▁қаржылық
▁кезіндегі
ilir
▁dağı
▁koru
▁солтүстік
ЕР
мә
tıl
arkı
▁iyileş
▁sebebi
▁İngiliz
▁жұмыста
);
▁ур
▁учаск
▁заңнамалық
ia
pek
хани
▁мод
ladık
аушылар
▁31
▁karbon
▁үйлест
▁politik
▁Ev
▁alg
luluk
▁бәсекел
▁бизнестің
▁еске
аттардың
▁департам
▁yerleştir
▁impor
тарының
co
▁kala
▁таныс
eration
▁başlar
▁hepimiz
00-
▁Do
▁терр
▁принцип
▁countries
sine
hendis
▁өйткені
▁ұзындығы
sk
ete
-2020
▁asıl
▁акция
▁söyley
аса
▁Mes
▁saç
▁басқарма
ric
▁айырм
▁мамыр
▁әсіресе
▁мүшелері
▁бейбітшілік
жай
лодар
ğan
▁Üç
▁ку
▁Gel
▁gide
▁жауын
▁nedeni
▁sağlıyor
ült
▁Біз
▁Жоғ
дыңғы
maktan
▁there
йр
edeki
▁Bizim
▁world
▁birini
▁әсерін
▁мүмкіндігін
tand
▁kimya
▁economic
ansız
▁елдерінің
▁шаруашылық
▁Jo
▁soy
▁қарау
atan
▁başlan
▁өнеркәсіптік
80
tra
ulu
▁Güney
▁demok
▁шекар
ese
▁автомобиль
▁қабылданған
ser
stik
▁моб
▁form
▁accor
▁molek
▁gördük
▁әкімдік
ach
▁табысты
▁üniversit
▁комитетінің
▁менедж
ықта
▁harca
▁ileri
40
іктің
▁kurtar
▁функцион
▁ch
дану
▁farkında
▁amaç
▁өсті
▁келді
▁yeterli
▁адамдар
▁бастады
üper
▁ауа
▁first
▁кодек
▁айналым
▁талқылау
▁төмендеу
all
таның
siness
▁гидро
▁saldır
▁Yeni
▁çoğun
▁ведомство
▁серіктестік
60
еф
▁қамти
▁kişinin
ace
lob
▁In
iliği
▁fikri
▁which
▁қысым
▁haline
бин
▁aldı
▁сапа
▁kitab
▁okyanus
▁қарамастан
ort
taj
ogle
▁psik
▁ойлау
mayacak
▁importan
кө
fak
▁тор
▁eğlen
▁orman
▁аху
▁тип
▁zaten
▁инжен
▁özellik
▁мүмкіндіктері
далы
▁Жұм
amız
▁sup
anlık
▁matematik
▁технологиясы
▁ruh
▁aile
▁gidip
▁жүктем
▁критер
▁жұмысына
елек
▁Қар
müyor
▁unut
▁білу
▁Devlet
▁сөзінде
▁ассамблея
▁объектілер
шын
▁endü
▁olsay
ku
ence
elerde
▁sayıda
▁veriyor
▁өнімнің
▁Amerikan
▁Әр
lığa
итын
▁жүргізіледі
▁32
edir
▁çat
enc
ücü
eşil
▁[1]
▁ерекшелі
▁жабдықтар
▁агр
▁тез
▁cihaz
▁белгі
▁оларға
▁әрекетт
▁әлеуетін
▁сарапшылар
пр
ыққан
▁тұрм
▁бұған
▁бөлік
дерімен
▁кернеу
▁рухани
▁сапары
▁Негізгі
▁білімді
інді
▁ton
▁өзі
▁kalp
▁Түйінді
emeye
▁бөлі
▁табыс
▁транз
▁söylemek
бол
▁3-
аққа
rafik
▁қойды
▁Kim
альды
ативті
▁lazım
▁uğraş
▁полим
lığını
▁başladık
▁жүргізілуде
alar
▁түсу
▁фран
▁diyor
▁элект
▁bakter
▁hikaye
▁прокур
▁laborat
▁ah
дарына
▁oluşan
▁негізі
▁мектепт
▁öğrenciler
▁салыстырмалы
ell
ong
истр
izyon
jital
ағының
▁Hayat
▁maliy
▁medya
ınca
ұрлым
▁pazar
▁seçen
üzik
ғында
▁кету
▁ұстан
▁gördüm
▁бірдей
▁рұқсат
▁берген
▁қасиеттері
▁were
▁сынып
▁экстр
▁қанағ
икасының
▁Birleşik
▁business
▁muhteşem
▁дамуының
▁қабілетті
▁us
▁Öz
▁0,7
▁bet
▁сүру
▁ұжым
▁ақмол
▁бастау
▁атмосфер
▁mim
▁nüfus
▁орнын
▁қолға
▁алдыңғы
▁ortalama
▁облыстар
▁Ak
▁abo
▁айқ
дайды
▁тапсырды
▁olacağını
▁hissediyor
▁gerçekleştir
tro
▁yum
▁берм
bileceğimiz
ds
▁more
▁oyna
▁kayna
▁мобиль
▁increas
ast
рит
қыз
eyle
▁kop
▁ұрп
liğin
▁күкір
arlar
▁2011
▁қуатт
▁etkili
▁қайрат
ант
▁Onun
▁than
леріне
▁түзету
▁конт
атынын
▁iklim
▁çıkan
▁адамның
▁маңыздылығын
5]
sü
amaz
▁bağış
▁еуропа
▁спектр
▁аударды
▁yapabilir
▁жұмысының
▁өздерінің
▁төрағасының
▁öy
▁тұт
irler
беков
истер
▁been
▁umut
▁inter
▁kendimi
▁кейінгі
анитарлық
▁politika
▁органдардың
dit
mur
▁қазан
▁beklen
▁көзқар
▁құрылды
▁algı
▁kıya
▁ықт
ırlar
▁ülke
▁желі
▁коммер
▁karakter
▁ұлғ
ағына
дығына
▁Artık
▁Hatta
▁genellikle
аф
ымдық
ebilecek
▁бірегей
▁цифрлық
▁sağlıklı
▁құқықтар
▁kok
▁içeri
ындайды
▁белару
▁Amerikalı
▁кат
иканы
▁тазар
meliyiz
uld
▁Мұндай
▁жасайды
▁қамтиды
▁қосылған
▁бағыттары
▁і
yüz
▁ırk
▁раст
▁жасап
▁verdim
▁анықтауға
▁энергиясы
сты
▁тұң
ersiz
▁Herk
▁yerel
▁astana
▁gözlem
▁rahatsız
▁белгіленген
хем
▁des
▁det
▁emp
▁mark
▁bitir
▁temsil
▁формул
▁орындары
▁келіссөздер
ij
we
▁лау
▁қысқа
▁кедергі
мат
▁tic
▁doğr
▁бөлінді
▁national
▁birleştir
тегі
ыңыз
▁yapacak
▁балабақ
амбыл
ықтан
▁aracı
▁ihtimal
radan
ларына
▁бұйым
ure
ығымен
▁шілде
▁толқын
▁тиімділігі
үр
gar
ibi
atif
▁ard
▁mon
▁тұңғыш
▁kişiler
▁işle
▁mekan
▁olmaz
ермания
▁implem
▁физика
▁көрсеткіші
ож
пай
▁eb
eyse
üstü
▁Orta
▁alak
▁кепіл
vern
▁kem
▁ağaç
енттері
▁аралық
▁dünyaya
ates
ects
▁әуе
▁жану
▁yoksa
аларына
▁тоқталды
▁шеб
▁келеш
параттық
химиялық
▁экспери
bay
ger
ydım
▁day
dular
▁Google
▁диалог
▁тәртіп
▁biçimde
▁international
▁kara
▁макс
iliyor
аттарды
▁сараптам
лю
▁иран
▁Başka
▁yaban
▁сәуір
▁billion
▁әлемдегі
▁теориялық
▁çocukların
stri
arası
▁бала
алыс
ultur
▁жәрдем
▁құрастыру
anız
▁алға
▁belli
▁өзбек
▁mantık
▁gücü
герлік
▁olursa
аландыру
▁мм
▁sim
▁мей
ition
ülebilir
▁орталығының
▁rak
▁мақ
dınız
аттам
▁Kuzey
▁today
ография
▁olabil
формация
▁istedik
▁қаражат
сымен
ақтағы
▁отбас
▁қосқан
ges
▁шақ
tılar
▁indu
▁about
▁henüz
▁stand
▁интел
лендіру
▁görsel
▁құрылымдық
ош
асп
әуір
▁sem
▁гек
▁ақмола
lerimizi
▁insanlarla
▁практикалық
сор
▁Kal
▁жын
▁роб
sinin
▁Sonuç
▁жүйелі
▁Uz
кент
▁min
▁mühendis
▁университеті
ond
▁fi
▁coop
▁sefer
▁өнімдерінің
на
уды
алын
▁ateş
▁tarz
▁evrim
▁ортаға
▁плат
▁aldım
▁тіркеу
▁дәрігер
▁миллиард
▁отырысында
қай
▁Bak
тігін
▁sess
▁гран
есімен
▁yıllık
▁Жоғары
▁қарқын
▁noktada
гр
ülü
икл
▁head
▁Мысалы
▁мүшесі
▁түседі
▁облыстың
▁көлемінде
▁энергиясын
АЛ
▁жайлы
▁odaklan
▁derecede
▁hücreler
▁толықтыру
form
▁нығайтуға
▁жылдамдығы
ile
сих
stry
▁büyü
ектері
шілері
▁madde
▁есепке
▁ұсынды
▁бағытта
▁мәселесін
таев
▁diş
▁импор
▁yüzünden
▁көрмесіне
▁тын
▁2019
▁дамып
ентінің
▁yaptığım
▁yetiştir
сь
▁диз
▁кам
▁оқы
eveyn
▁years
▁Birkaç
▁bazıları
▁жүйесіне
▁төмендет
▁желтоқсан
▁көрсеткен
▁ауданы
▁ұсынылады
▁жеткілікті
▁milyonlarca
,0
ком
▁2010
▁клим
▁реакция
▁ihtiyacı
▁бизнесті
▁göstermek
▁га
ışma
▁бәр
▁yiyecek
▁мұндағы
өнеркәсіп
▁басшылар
▁индустри
▁şeylerden
лор
риц
▁ыл
▁әділ
▁üy
▁cez
▁ави
естің
▁istedim
▁бөлінеді
▁халқының
▁according
▁байқалады
▁ме
▁оз
▁ск
meli
▁фил
▁құн
▁malz
▁сумен
ірілген
▁жүргізіліп
▁рез
▁terci
biy
▁yansı
▁матриц
▁информат
▁bor
▁таза
▁жарық
қатынас
▁azından
▁міндеті
қатынастар
▁әдістерін
sas
tansiy
▁mesel
▁кіреді
▁güvenli
▁kullana
▁салынған
▁шектеулі
▁болашақта
▁арх
▁ulus
истика
▁söylen
▁sağlayan
уыл
▁sy
▁edi
▁eriş
▁soci
▁күшейту
▁тұрғыдан
our
тез
ектен
▁колл
▁адамды
▁кешені
▁азаматтардың
▁рейт
▁таст
get
unç
▁arab
▁несие
▁тудыр
▁экспорт
▁саласының
деген
ілігінің
▁пайдалы
ıyorsunuz
▁енгізілген
ens
кон
окө
рық
айық
ғады
▁girişim
asa
çiler
асады
▁harc
mıştım
▁партия
▁ilham
▁түскен
▁заманғы
▁павлодар
▁қонақтар
gıç
мел
аттағы
▁hayır
▁yanında
▁жасаған
▁мүмкіндіктерін
еяс
кра
▁one
▁gelip
▁değişiklik
▁қырғызстан
âr
паз
iyer
lobal
▁қағида
айл
▁buy
▁kendisi
▁көрсететін
▁қабылданды
▁температура
▁дифференциалдық
▁mot
▁біт
▁kamer
▁жолдары
▁бөлшектер
▁Ар
▁әд
▁net
▁zorluk
▁елдері
▁жатқанын
▁мемлекеттердің
pt
еуі
▁ta
▁spor
атынан
▁becer
▁vücud
▁оңтайлы
▁негізінен
ıb
▁lo
liğe
▁виз
kiler
елендіру
▁керекті
▁кеңісті
▁мерзімді
ометриялық
inizde
▁oraya
▁yapay
▁берудің
▁констру
üman
▁serv
ғыстау
▁ислам
▁buraya
▁елшісі
ism
▁uyan
▁sabah
▁бізге
▁істеп
▁ауылдық
▁баяндам
▁ұйымдардың
ност
▁Tabii
▁aktiv
▁ediyoruz
▁yapıyoruz
ry
tez
▁ұя
хана
▁insanı
▁орайда
▁tedav
▁қойған
▁olduğunda
▁Yak
шыларға
▁жоғарыл
▁металдар
▁шаралары
▁başarısız
▁мәлімдеді
▁Sor
▁күрес
▁фр
▁also
▁garip
▁teşekkür
▁çalışmak
▁айналымы
▁olduklarını
▁ед
▁тобы
▁жинау
▁тамыз
▁үкіметі
dar
▁Br
▁gül
▁main
▁сөйл
▁өнімдер
▁пайдалана
▁қызметкерлері
les
tum
▁36
▁edebil
▁sahibi
▁германия
be
▁75
▁до
▁alma
▁бақы
▁amacı
▁артты
▁tercih
▁субсид
ebileceğ
▁беларусь
izm
ене
▁ұм
▁Kad
▁кіші
▁ашылды
▁sağlamak
▁жалғастыру
оли
▁33
▁cam
▁göç
▁küt
етіне
метов
▁duvar
▁edilen
▁govern
▁olağan
▁процесс
▁кезеңінде
▁қалыптастыр
).
of
ья
нек
тқа
▁Ma
▁fe
тқыр
▁Сол
▁бау
▁фер
ондар
▁Yine
▁beden
▁sahib
▁ыңғай
активті
екторлар
▁тіркелген
▁студенттердің
ni
бес
cess
▁Yaş
▁dep
▁азай
▁işler
▁süper
▁саласын
▁саладағы
▁olacaktır
▁механикалық
cil
▁атау
▁kalma
▁мақұл
еттілік
▁сертифик
bileceğiniz
▁болғандықтан
▁оңтайландыру
▁gittim
▁kavram
▁шикізат
▁edebilir
лу
per
енци
ония
ғыру
▁soğ
▁әлі
▁шараға
▁gelenek
▁капитал
▁Teşekkürler
▁эм
utan
ткіш
▁mas
ladım
▁dalga
▁dijital
▁adlandır
▁bilmiyor
▁potansiy
▁субсидия
▁important
▁inanıyorum
▁қажеттілігі
АР
▁Эк
asit
tıra
▁сеп
отехн
▁uyum
ımızın
▁şaşırtıcı
lum
іні
▁Sağ
▁[2]
▁yüzey
elerden
▁бөлімш
▁шешімі
▁жаңғыру
▁үнемдеу
ck
▁гүл
ақтан
▁yaşlı
▁электро
▁gerektir
▁тәжірибелік
ла
fet
сан
ould
деби
▁tecr
▁ettiğ
▁fakir
▁қабыр
▁туында
▁жұмысты
▁қаланың
▁жабдықтау
▁құралдары
ғысы
▁kök
istik
▁akıllı
▁kırmızı
қаш
avaş
land
üyle
▁ziy
siyet
▁yedi
laması
▁бұрыш
▁түйін
▁ілгер
▁ұқсас
еттерді
▁yaygın
▁тарату
▁çeşitli
▁кезекте
▁магистр
▁процесі
▁топырақ
▁cooperation
▁37
▁мыр
▁елеу
▁кеткен
▁қарулы
▁қатысушы
▁oğ
сінің
▁схем
▁өсіп
▁birden
▁тен
uştur
▁kalk
дігіне
▁бейне
▁төлеу
▁başlaya
▁мониторинг
▁тапсырмалар
▁Ro
▁Ün
stem
астық
▁фосф
▁санын
▁қамтылған
vik
▁соз
▁öner
▁генер
eksiyon
▁ауданында
res
vel
▁Mo
▁bina
шаралар
▁yerlerde
▁şeylerin
int
уля
▁mağ
▁театр
▁қызылорда
▁қолданыстағы
kel
спен
▁eve
есінше
▁жамбыл
▁kendine
▁жүзінде
▁танымал
▁көмектес
▁өткізгіш
▁Оқу
ентті
▁yasa
▁sanırım
▁erkekler
▁жоспарын
▁из
▁алқ
insel
▁aşama
▁sırada
▁беруді
▁бекітілген
▁қарастырылды
▁Top
▁мамин
▁yaratmak
▁өзбекстан
▁kadınların
▁компоненттер
ıda
▁dağ
▁sit
imden
▁elec
▁thou
▁dolaş
▁мақал
▁zamanı
▁машина
▁мүмкіндіктер
ble
▁ga
▁ir
reat
тарын
▁2050
ısında
▁достық
iği
▁дө
▁қа
Müzik
алдың
ediler
▁sinyal
▁açısından
▁құндылықтар
▁ip
▁дар
▁шаб
▁укра
▁артып
▁қалыптасқан
▁bur
▁şüp
атына
▁siyah
▁korkunç
▁gösteren
▁жоспарлап
▁құралдарын
ydi
▁Öğ
▁yaşan
▁Осылайша
▁заттардың
▁қылмыстық
▁жұмыстарды
21
gy
▁app
▁мез
▁асты
▁павиль
▁процес
▁интернет
▁қатысуға
▁Par
▁yem
▁келу
▁индек
▁пәтер
lanıyor
▁мәселені
уманитарлық
▁өндірушілер
▁Ek
,000
ınıza
ектің
▁техника
▁платформ
sh
СТ
ümü
ışı
жар
амын
оттық
liğini
▁Mesela
▁басқар
▁ортаны
▁отбасы
▁belirli
▁түрлерін
▁тәжірибесі
6]
eld
eliğ
onik
асуы
▁gec
muyor
▁мәрт
▁eylem
▁resmi
▁tıpkı
▁gittik
▁İkinci
▁değilim
ациясының
▁pan
▁құл
▁yeşil
▁etkisi
▁tecrüb
▁институт
▁değerlendir
мб
▁poz
▁сәтті
▁сессия
▁ассамблеяс
%-
orn
айн
▁nef
ıştır
▁Fran
▁kapat
▁vücut
▁geleceğ
▁көрсеткіштері
▁34
▁ауы
▁вал
▁günlük
▁меңгеру
▁өңірлер
кет
шағы
▁баса
▁псих
▁yoksul
▁пайызы
▁ұсынылды
▁istiyoruz
▁компаниясының
оны
шіл
▁ham
▁ата
▁қим
liliğ
▁sesi
▁табу
ылықты
▁cevab
▁cinsel
ann
▁İç
▁400
layıcı
▁sokak
▁vatan
итикалық
▁Sanırım
▁bakalım
▁орындарының
▁ұң
ator
▁fon
▁köy
uvvet
cağımız
▁үлесін
▁әрекет
▁yenilik
▁bilimsel
syon
▁tabi
▁katıl
▁şarkı
▁сынды
▁сызықты
▁міндеттерді
▁та
ther
▁rast
▁sahn
▁giden
▁thousan
▁қондырғылар
▁жауапкершілік
▁қауіпсіздікті
екул
▁başk
▁işin
▁Оның
▁бөліп
▁әлемде
tuk
▁list
sizlik
▁bebek
ilerine
▁teşvik
▁yapıla
▁болмақ
▁шыққан
▁танысты
▁konuşmak
▁қажеттілік
▁va
▁fel
▁alet
▁devr
▁kims
▁metre
▁халыққа
▁olduğundan
▁said
▁savun
▁durumu
▁edeceğ
▁sağlar
▁bununla
anda
▁gök
▁жән
▁піш
▁мәтін
зерттеу
▁ортаның
▁zamanlarda
ang
gör
қаев
enler
▁nesil
▁senin
▁жағдайды
▁üzerinden
▁ерекшеліктері
ivil
екел
▁şef
ғалау
▁çeki
▁gizli
▁беріп
▁теория
▁karanlık
▁қоғамның
▁жүйесінде
▁көрсетуге
forman
▁saniye
▁söyler
▁ebeveyn
▁құрылысын
15
bat
mür
мін
etrol
▁дене
▁түркі
ілігіне
▁adında
▁беруге
iyorlardı
уб
стық
▁bat
▁şehr
▁мүге
▁Hayır
▁бізде
▁мүдде
▁mesela
▁саясаты
▁әкімдігі
▁бюджеттік
▁білдіреді
▁laboratuvar
▁дек
isyon
▁бекі
істікт
▁erken
▁halde
duğunuz
▁yapabiliriz
▁статистикалық
үн
mini
▁вир
ceğim
▁halk
▁virüs
▁адамға
▁мәртеб
▁серпін
▁таралу
▁endüstr
▁секілді
▁орындарын
▁bakarsanız
ков
дида
▁nör
▁gitmek
▁төзімді
▁көрсетіп
▁мекемелер
▁орналастыру
▁Yüz
ілдір
▁gözük
▁бәсекелестік
▁ikna
▁thousand
▁мобильді
gü
иттік
▁дақыл
▁консу
еттерін
▁sonsuz
▁жүйелері
пе
har
▁сим
ордин
▁katı
lemeye
▁ölçek
▁ziyaret
▁örneğin
▁коэффициенті
▁артықшылықтар
▁!
дас
пан
өзі
▁fa
urken
ардың
▁nesn
▁Kadın
▁babam
▁жарты
▁тариф
▁verdik
▁Осыған
▁теңгеден
новациялық
▁жанындағы
▁yapıyorlar
wo
▁isim
▁өсуі
▁Nasıl
▁sessiz
▁teknik
▁едәуір
melerini
▁критерий
-3
▁qu
▁üc
▁[3]
▁тет
bayev
lenmiş
▁sürec
▁орынды
▁бюджеттен
▁hücre
▁саласына
▁kendilerini
▁ши
▁anne
▁ufak
▁үміт
станай
▁Orada
▁günde
▁üçüncü
юм
циясы
▁dışı
▁kağı
▁талш
▁доллар
▁жұмыстың
▁өнеркәсібі
лих
▁198
▁Kur
▁ток
▁meydana
▁тағайын
▁Üniversit
▁органдарының
▁университетінің
kz
ағым
ттау
▁Жал
▁Batı
ымызды
▁kayıt
▁partic
▁кластер
▁бірлестік
▁dam
tırma
▁ыдыр
▁бидай
▁yaşama
▁елеулі
▁жасады
▁olmasını
▁септігін
▁әдістемелік
▁du
▁İl
▁көшу
▁балық
▁adalet
▁меншік
▁ұсынады
▁шараларды
ре
geç
емді
ірек
дейтін
▁автокө
▁нақтыл
▁қараша
▁аясындағы
▁4-
atej
orit
▁айыр
▁бұзу
алығын
▁sonucu
▁yoktur
eceksiniz
ehir
▁medi
аларда
▁болат
▁belirt
▁Алайда
▁ұсынған
▁теміржол
▁oldukları
ahat
leyse
▁Tanrı
▁yürüy
дарынан
▁Birçok
▁жылмен
▁зиянды
▁орынға
▁салада
▁кандида
олю
балы
▁жиі
sünüz
▁mahk
▁асқар
▁қағаз
▁hükümet
▁olanlar
▁болуына
▁мектепке
▁implement
▁қалыптасу
▁үйлестіру
▁üzerindeki
▁ерекшелігі
tura
▁mez
▁adlı
duğunu
▁baskı
▁satın
▁әдеби
asından
▁baktığ
▁көтеру
▁genetik
▁міндетт
▁облыста
▁түсіндіру
ЫҚ
жей
▁Өн
ilim
▁out
▁шай
▁hata
▁анық
esiyle
▁хатшысы
▁yetişkin
nde
tin
▁Ор
▁far
▁pri
▁ilgi
▁kapı
ымкент
▁doğum
▁nefes
ттардың
▁ұлғайту
▁kimyasal
▁берілетін
▁bilirsiniz
amp
ний
▁сің
▁оқиғ
▁yapılmış
▁үдерістер
▁У
ali
еке
▁bay
▁кин
▁mavi
ternet
▁davet
▁сағат
▁kuvvet
▁жүйені
▁туынды
▁particip
11
ъез
ісіне
▁depr
▁Олар
▁жайт
lıklar
электр
▁koşul
▁önceki
▁агентті
▁duygusal
▁жағдайын
▁yeterince
▁инновация
▁көзделген
▁197
▁зар
▁нас
▁sekiz
▁өркен
▁demokra
▁çıkıyor
▁актілер
▁кәсіпор
▁buradaki
▁düşünmek
▁экология
▁маңғыстау
▁ынталандыру
емін
дерде
▁zekâ
▁блок
manızı
дайтын
▁сабақтар
▁İnsanların
▁жұмыстарының
▁шө
▁шол
lukla
▁zeki
▁alakalı
▁molekül
▁кеңейтілген
ттен
▁dek
lardaki
▁анықтайды
▁басшылығы
▁депутаттар
▁жолаушылар
ks
dek
des
ire
ayıf
импи
ымалы
▁aray
▁елорда
▁құралы
lararası
▁kendimizi
▁өткізілді
▁адамдардың
▁субъектілер
▁çıl
▁сұл
▁нарық
▁tehdit
▁Сондай
▁барысы
▁performan
▁tehlikeli
▁деңгейіне
▁толығымен
әж
▁Mil
▁ila
дерінде
▁координ
sion
▁cep
▁түркия
▁isters
▁sorunu
▁genelde
▁yönlendir
▁енгізілді
▁Er
▁Su
▁ағ
▁инд
▁қап
▁авто
▁ұшыр
▁gazet
▁oldum
▁Бірақ
▁edilmiş
▁халқына
▁birbirine
ost
▁ад
eceğiz
▁duyar
▁motor
▁игеру
▁қалың
▁bilinç
▁Алынған
▁қадағалау
аныш
▁ары
▁оқи
▁1000
етінде
▁alanı
▁Білім
▁үйрен
▁мүдделі
әй
рам
apon
ative
▁düzey
▁крист
▁шешімін
▁yüzlerce
▁басталды
▁sırasında
▁экономиканы
ym
▁eg
▁зер
▁сам
▁сім
luluğ
▁съез
▁марап
▁сыбай
▁шоғыр
▁açıdan
▁birine
▁profes
▁бағасы
▁өзінде
▁теңгенің
▁kullanmak
▁ide
ıklık
▁күнде
▁yerinde
▁арттырады
▁салтанатты
▁көрсеткіштер
▁1.
eter
eyiz
▁[4]
▁Güneş
layarak
▁kelime
▁колледж
кл
ульт
икасын
▁sektör
▁başlama
▁өлшемді
larındaki
▁yapmamız
▁атқарады
▁металлург
▁жемқорлыққа
аттандырылған
▁ani
▁ауытқ
▁Dolayı
▁жеткен
▁кеңесі
▁stratej
▁bahsediyor
▁қасиеттерін
▁бағдарламаның
▁ассамблеясының
▁компаниялардың
▁se
▁sıf
▁мұх
▁теп
raman
▁high
жылдық
▁Bazen
▁yabancı
▁getirmek
▁сыбайлас
лайн
ikalı
▁дөңг
▁конв
▁ücret
ымдылық
▁maliyet
▁жақында
▁кәсіпкер
▁кәсіптік
▁айырмашыл
▁қызметіне
azz
ely
rek
енд
▁adına
▁indir
ılabilir
▁olduğumu
▁arkadaşım
▁gördüğümüz
şam
▁дс
▁sta
▁көзі
▁уран
acağım
▁korku
▁olmasına
▁диагност
қыр
▁42
егін
ledik
елену
тенше
diğimi
▁düzel
▁etmiş
▁nefret
▁tanesi
▁önünde
▁уақыты
▁жауапты
▁көрмесі
▁мақсатты
▁biliyorsunuz
тч
dak
net
▁over
▁құрм
▁miyiz
▁partn
▁атырау
▁million
▁mücadele
▁önemlisi
ise
▁ep
▁бр
▁Düş
▁olum
▁işlet
▁желісі
▁жолдарын
▁динамикалық
ılım
▁құм
изация
▁kaldı
▁сәйкесінше
▁Соң
anlar
▁sign
▁çaba
▁есім
▁жетті
▁bulduk
▁дербес
▁миссия
▁қаралды
struction
▁anlamaya
▁медицина
▁автоматты
▁салаларында
uth
сон
▁Oy
ükle
ырақ
erler
энерг
▁Fark
атында
еттегі
▁айрық
▁лауаз
▁қорының
ree
орф
duce
▁600
▁idi
eyici
▁buluş
▁sanki
▁бақыт
▁düşünce
▁içindeki
▁тигізеді
▁қызметті
▁ауданының
нау
▁etm
аспий
▁issu
iciler
▁noted
▁prote
▁полиг
▁туғыз
▁террор
▁шақырды
▁жылдамдық
▁органикалық
düğü
▁aşı
▁dür
▁şiş
▁инф
▁yara
▁ödül
▁мысал
▁тегін
▁гектар
dıklarını
▁жүргізуге
emli
▁dan
▁Бер
▁код
▁пот
▁пун
ордың
шікті
incisi
▁yorum
▁үйлес
▁varsay
▁yaşıyor
▁қозғалыс
▁институцион
ori
таж
құр
▁АҚ
ayla
▁kod
імізді
▁polis
▁жасал
▁мүгедек
▁seviyorum
▁минералды
▁түрлендіру
ada
öyl
мек
ғаю
▁44
лады
▁red
амдық
▁филь
▁корпу
▁судың
дарында
▁ederek
ындайтын
▁etrafında
▁асырылуда
▁шаң
анады
таралық
▁ettiği
▁geriye
▁тауарлар
алитикалық
астырылған
▁автокөлік
▁таныстырды
▁жағдайларда
▁информатика
▁55
layıp
▁ucuz
▁Savaş
▁zayıf
▁сезім
ттердің
▁Onları
▁sanatçı
▁басынан
▁Dolayısıyla
▁нәтижелерін
▁дипломатиялық
▁шт
▁2009
▁hâle
▁самм
▁ettir
▁жақты
▁başlat
▁қоймай
▁айрықша
▁мынадай
▁cinsiyet
▁yaparken
▁қойылатын
▁температурасы
▁kum
▁сүз
▁park
ғылшын
ғұрлым
▁бағыттағы
▁жалғастыр
▁38
▁0,8
▁рек
аттан
стары
▁nazar
▁балам
▁синтез
▁kendime
▁төтенше
▁өткізді
▁ata
▁ölçü
ылуына
▁өкілі
▁soruyu
▁көрмен
▁нәтиже
▁harekete
▁öğrenmek
▁сақтандыру
▁тұрақтылық
▁материалдық
▁şah
▁арм
ланды
▁қуаты
▁anlata
maktadır
шаруашыл
▁себепті
▁халықты
▁үкіметтің
▁деңгейінде
▁кәсіпкерлікті
pen
шыға
▁000
▁қха
іккен
▁Қазақ
▁beynin
▁üstünde
▁дайындал
▁қостанай
▁кеңістікт
ІН
абы
қор
▁шұ
ізді
▁tıb
ғалды
▁dans
▁konusu
есіндегі
▁анықтам
▁үздіксіз
▁органдары
evi
▁жету
▁спик
▁музей
▁кезеңі
▁әлеуеті
▁кездесуде
▁конституциялық
▁сая
ımıza
ацион
▁yanı
▁biçim
ellikle
▁anlamı
ағынтаев
▁anlamda
▁шақырым
▁karşılık
▁функциясы
▁әріптестер
лн
▁Onu
▁İyi
▁еэк
▁anti
▁қарс
▁дауыс
▁аспект
▁мәслих
▁bağımlı
▁екендігі
▁инженерлік
▁ағаш
▁ауған
▁yaparak
▁тәуекел
▁sonrasında
▁биологиялық
▁қауіпсіздігі
pi
сив
▁aklı
▁бөлігін
▁ardından
▁bilmiyorum
естігі
▁proje
▁şekli
▁finans
▁үкіметінің
▁değiştirmek
▁мәліметтерді
▁басқармасының
3-
ұз
▁48
▁Aç
▁250
дарда
▁etik
данған
▁ikisi
▁birleş
▁buldum
▁market
▁fazlası
▁ұйымның
▁қысқарту
см
urt
▁Бү
udum
лану
üşter
імпаз
▁meet
▁bakım
▁астық
▁жұмыссыз
▁қамтитын
▁қызметтің
▁çalışıyoruz
ho
▁Et
▁Ul
▁ном
lanır
mıştır
▁міндет
▁көрмеге
▁аймақтың
▁шығаратын
АН
onu
tay
▁1,5
▁nur
▁долл
▁патри
layacak
фикация
elerinin
▁жеңілдет
▁düşünmeye
▁зейнетақы
ац
▁65
▁Kend
▁yapıl
дігінің
▁Электр
▁жиілік
▁тербел
▁қайтар
▁процесін
▁olmayacak
▁ерекшелен
▁төмендету
инновациялық
▁At
▁Ann
▁iti
▁çab
iklet
▁türlü
masının
суретте
▁toprak
▁отырыс
▁толтыр
▁санының
▁тазарту
▁demektir
▁projects
▁шешімдер
▁салыстыру
▁Kr
▁meş
▁öğrendim
▁ішіндегі
▁республика
ned
▁nit
▁pah
▁мой
▁құй
▁құс
астың
▁жүру
▁шығу
uyordu
▁etkin
▁okula
▁Жалпы
evizyon
▁system
▁toplantı
▁vatandaş
▁geldiğini
▁мектептер
▁оптикалық
▁қаласындағы
▁қарастырады
ыту
іпті
▁Man
▁Tam
▁vaz
▁жой
▁амер
▁серв
▁finan
▁түсір
▁petrol
▁зауыты
▁олимпи
▁меморандумға
динг
▁Beni
▁edici
▁құрап
▁үнемі
▁malzem
▁әдісін
▁моделін
лд
▁аль
▁piya
elerine
▁üretim
▁veriler
▁ағылшын
▁ыңғайлы
▁көлемінің
▁жолдауында
▁тұрғысынан
▁компанияның
▁ресурстарды
,"
▁Öy
▁obj
▁тая
▁pers
▁anlay
▁düşür
▁жүріп
▁ұсыну
▁olmanın
▁potansiyel
▁çalışıyorum
▁конституция
7]
madı
▁Кіл
▁Mars
▁kriz
larımı
▁hisse
▁provi
▁ашылу
▁барша
▁дамуын
ilebilir
еттердің
▁кеңістік
12
▁dec
▁каб
stitu
▁gıda
▁Çoğu
▁елде
▁мыңға
▁olsaydı
▁асырылып
▁автоматтандыру
ew
mos
ығыс
▁пак
kenin
▁uçak
▁цикл
lerdir
▁камер
▁күнге
▁altına
▁өзгеру
▁sesleri
▁күтілуде
ана
▁ав
имал
▁aya
▁John
▁yılı
▁katkı
▁techn
▁their
▁асады
▁біріккен
▁қатысқан
лак
тек
урн
қау
▁Es
▁af
анов
дест
нама
▁icat
▁oper
▁фото
▁tuhaf
▁bilgiyi
▁ettiler
▁sorular
▁ediyorlar
▁жобалардың
▁индустриалды
▁программалау
▁инфрақұрылымдық
",
ress
▁0,3
▁Biraz
▁mater
▁атынан
▁әйелдер
▁болашағы
▁болмайды
▁операция
▁тестілеу
▁hissettir
▁қызығушыл
▁geleneksel
▁қауіпсіздігін
low
▁2.
▁köş
▁çizg
▁ұйымы
▁nereye
▁топтар
▁жиынтығы
▁төмендегі
▁hakkındaki
one
▁47
tere
▁Muh
▁үлг
▁etki
▁görme
▁kısım
▁баған
▁ғалымдар
▁çalışmaya
▁organizasyon
цен
▁Ol
urur
әтиж
▁cer
mayan
ордан
▁azalt
▁dokun
▁rakam
▁tepki
▁toplu
▁рөлін
▁күкірт
▁сәйкест
▁түсетін
▁құрамын
▁өткізуге
sey
асып
дырм
▁ısı
erken
▁iddi
▁plat
▁tren
leyici
▁köpek
муналдық
▁algorit
▁баяндады
▁мөлшерін
alt
ғақ
▁fut
düler
ulmuş
шалық
▁educ
▁eksik
▁билік
▁пласт
▁ұлғай
▁yapmayı
▁ілгеріл
▁асырудың
▁жеңімпаз
▁еліміздегі
iir
rop
ices
▁ауд
▁рег
▁kere
▁utan
▁трлн
▁Geçen
▁çevre
▁телеф
▁туған
▁Bundan
▁farket
▁yaşaya
▁түрлен
▁etkilen
▁жеткізуге
▁деформация
▁көрсетілді
назарбаевтың
▁орындарында
▁өкілдерінің
дес
mada
▁you
▁түб
▁kalit
▁бетон
▁жүрген
▁bilinen
▁потенци
▁istediğimiz
!"
кр
ery
ween
скоп
тығу
▁müt
емлек
▁корея
▁онлайн
▁cesaret
▁аймақта
▁молекул
▁gerçekte
▁комитеті
led
▁Бұ
cisi
етер
alığı
▁grub
▁prot
▁датч
егінің
▁inclu
▁тетік
лығының
▁should
▁ülkede
▁şeyden
▁miktarda
▁yaklaşım
ces
▁46
▁5-
кест
▁ман
баева
▁asker
▁тарихы
ағындағы
▁мәселен
▁орнатылған
ıra
кінші
▁kafa
етінше
▁hızla
▁beslen
▁бекіту
▁support
▁жобаларын
▁ресурстарын
▁ынтымақтастығы
yap
▁43
ledi
▁Dav
▁Sen
▁ұнт
ғылау
байжан
▁bileş
▁işbir
▁çekici
▁базалық
▁есептер
▁көздері
▁өңірдің
▁bunlardan
▁teşekkürler
▁көрсетіледі
▁Қазақстанның
und
▁Ат
emen
▁тыр
ылуын
▁2000
▁кіру
іктігі
▁onunla
▁модуль
larımıza
▁ашылған
▁жобалық
▁topluluğ
▁vi
▁car
▁fac
▁sig
ecial
▁2008
▁detay
▁sayısı
▁yıllar
▁көздел
▁verilen
▁güvenlik
▁жетілдір
▁үрдістер
▁коммерциялық
45
елді
олия
▁dom
ағдар
ımızda
▁giriş
▁аталады
▁жобасының
cho
сар
azzam
ütfen
▁жалп
elerle
lığına
mektedir
▁elbette
▁ettiğimiz
▁басқарудың
құл
▁үн
otik
dition
▁Japon
ларында
▁eğlenc
bilirler
ümüzdeki
▁жаңарту
▁деңгейлі
▁biyolojik
▁шараларын
бақ
▁web
mayın
▁ажыр
▁білікті
▁дамудың
▁полимер
▁суретте
▁өзгеруі
▁ескерткіш
▁толықтырулар
▁байланыстарды
▁технологиясын
ph
taş
tel
▁Kö
▁esn
▁бак
▁ласт
▁қарыз
▁хаттам
▁isteyen
▁sahibiz
▁production
▁мамандарды
ЫН
ory
▁пан
▁global
▁between
▁economy
▁olmamız
▁ауыстыру
▁қолданылды
өлі
ақтары
▁diren
▁kabil
▁veril
▁Интер
lıkları
▁public
▁жасайтын
▁индустриялық
▁технологияны
and
зин
▁sap
▁рати
liliği
▁aldık
▁amoun
▁almaya
▁команд
▁франция
▁бастаған
▁ықпалдаст
▁құрамындағы
yen
ümde
üçük
етке
▁anı
▁rec
▁дыб
▁kura
lasyon
ündeki
diğimde
▁көмірсу
▁Ақпараттық
▁кездесулер
шау
ğını
▁Kız
▁rüz
▁kısı
▁Олардың
▁жобалары
▁интеллек
▁хабардар
▁iyileştir
▁бағдарламасына
ич
▁кә
book
▁ірг
естив
▁şart
▁екені
▁құрылғы
▁тапсырма
▁орталықтар
▁қалыптастыруға
▁cap
ısına
▁şüph
▁клин
▁budur
ритания
▁toplam
▁çılgın
▁рейтинг
▁көздерін
▁хабарлау
rov
ents
▁кеу
▁суды
ұлттық
▁ekran
▁негізін
▁жұмыстардың
bur
бұр
▁Yar
▁бор
-2050
▁kurtul
▁аймағы
▁тіркел
▁değerli
▁тұрғыда
▁негіздел
▁göstereceğim
abr
▁ода
▁pres
ңгілік
▁adını
▁roman
▁Нәтиж
▁Соңғы
▁банкт
▁hayatı
▁өңірде
malarını
▁onlarla
▁ұйымының
▁çocukları
▁жастардың
▁бағдарламаны
ғар
ining
▁рөлі
ereden
▁yazar
▁ұңғым
▁Herkes
▁bilmek
▁сақтап
▁тобының
▁қосылды
▁әкеледі
▁әңгімел
ladığımız
▁kullanım
▁президенттің
2-
4-
уд
sit
▁tır
▁ант
▁Құр
panya
▁Araş
▁akşam
cus
eğe
esiz
örün
ısır
▁del
▁тілі
▁банкі
▁бедел
▁сұйық
düğünüz
▁павильон
яд
Bir
ning
▁dar
▁enf
▁шыұ
▁uyar
ladığı
▁виртуалды
▁sağlayacak
tüğ
▁эл
line
▁arz
▁bis
mıyorum
▁fikirler
old
▁Si
▁if
▁vis
▁коо
▁тұқым
▁yerleş
▁kaynağı
▁ластану
▁kahraman
▁standart
▁hepimizin
▁геологиялық
90
çuk
▁km
▁аяқ
lamaz
▁rela
▁tril
▁yarı
menizi
▁bozuk
▁geçerli
▁kuruluş
▁тоннаға
▁Ner
▁озық
алдары
дармен
▁насих
▁arttır
▁pahalı
орлардың
▁асырылды
фикациялау
▁olduğumuzu
▁жауынгерлік
▁ұқ
▁sana
▁mimar
▁ilişki
▁жолында
▁холдинг
▁келісімді
▁kullanıyor
муникациялық
aka
▁time
▁kaçın
iyordum
▁benimle
▁başlangıç
▁olağanüstü
▁қажеттігін
▁қосылыстар
КТ
oyu
тас
шаф
dışı
стем
▁akl
▁yeri
▁жылж
ісінде
▁Bilim
▁bilir
▁taşın
▁yarış
▁бақыл
ткерлік
▁команда
▁мазмұны
▁Bunların
▁platform
▁мәңгілік
▁gerektiği
▁İngilizce
▁аймағында
▁үкіметтік
▁construction
▁мәселелеріне
osu
▁Kı
tarı
▁hip
▁pos
▁арз
▁тоз
▁komş
▁Öyle
▁журн
▁Alman
▁çizgi
▁айтуы
▁devrim
▁бірден
▁орнына
▁комитет
▁дәрежесі
▁nazarbayev
▁қалдықтарды
▁қызметшілер
▁өндірісінің
ғаны
▁fiyat
▁öngör
▁тілінде
▁әлеуетті
▁базасында
ors
▁na
стың
dunuz
▁yaka
▁шару
▁сервер
▁sıradan
▁бұрынғы
▁düşündük
▁bulunuyor
ğına
сіне
▁суд
қалық
▁мәжіл
▁тәжік
▁професс
▁жүйелерін
▁пайдаланып
ava
now
ole
olu
▁suy
▁жоо
татын
▁ayar
▁dahi
düğünü
▁gönül
▁kilom
▁under
ilerinin
▁Hepimiz
▁çalıştım
▁толықтай
▁басталады
bı
▁тән
ükleer
ақтығы
▁архит
▁содан
▁koruma
▁аталып
▁тұтқыр
▁фактор
larınızı
▁yazılım
▁іріктеу
▁қондырғы
▁талаптарына
IV
ata
hiş
ima
▁[5]
bilen
▁kamp
▁birik
▁kısıt
▁Onlara
дірілген
сыздандыру
▁қуаттылығы
▁құрылысына
▁қызметтерді
рк
▁İk
itik
пуль
▁mod
▁many
▁most
▁yana
▁гидр
▁крем
енттік
▁enter
▁sonuc
▁Екінші
▁ef
ашар
▁Жер
▁adet
▁atom
▁ekip
▁дисп
▁saygı
▁адамз
▁анализ
▁холдин
▁şeylere
▁алынады
▁қатысып
▁жүргізіп
▁сызықтық
▁министрінің
▁мәселелердің
ID
▁па
▁Жаң
▁kutu
▁діни
▁aktar
▁жеңіс
▁during
▁makine
▁meeting
▁жартылай
▁зерттелді
als
▁Ge
▁196
інесе
▁ünlü
етінін
▁maruz
▁durdur
▁ortadan
▁sağladı
liam
ский
▁grow
▁yakıt
ecektir
▁çıkara
▁үлгісі
▁önceden
▁bekliyor
▁қатарында
▁кедергілер
pe
ult
etre
▁гео
икада
▁музы
mation
▁great
▁yalan
meyecek
▁боламыз
Ben
zer
▁Değ
▁gem
▁өрт
йымды
▁terk
▁поль
▁stres
▁соғыс
▁alacak
▁parmak
▁құрмет
ақтардың
▁çapında
▁Бірінші
▁спорттық
▁болашаққа
▁терроризм
▁прокуратур
▁кәсіпорындардың
мұ
▁inf
▁tit
medik
дамыз
▁edip
▁esas
▁kalb
ығында
▁activ
▁delik
▁etmem
▁арада
▁hassas
▁ұстаным
▁Dünyanın
▁parçacık
▁міндеттем
▁зерттелген
▁саясатының
ân
gal
пол
▁лық
eştir
▁Комп
mamızı
▁müşter
▁tarihi
▁başında
▁muazzam
▁çalışır
▁өндіретін
▁кәсіпорынның
лды
едур
▁клас
айтқыш
▁актив
▁терез
▁қазаг
▁айнымал
▁кемшілік
▁hastalığı
▁кездеседі
▁televizyon
.,
-10
ics
umun
▁eki
▁set
▁Түй
▁тура
▁Мұнай
▁жекеш
tiğinde
▁olmayı
▁конкур
▁фестив
diğinizde
▁әдісімен
▁институты
▁зертханалық
▁сипатталады
▁қорытындылары
ene
▁41
umda
▁Mer
▁Mic
layın
теңге
▁besin
▁sayfa
▁латын
▁hissed
▁sordum
▁yandan
▁hayatın
diklerini
▁yaşındaki
▁байланыстыр
▁депутаттары
▁көрсетілетін
дұ
▁99
▁Mat
▁kör
юмини
▁anah
▁сорб
ықтары
▁көпір
▁нығай
▁түрік
▁social
▁protein
▁seyahat
ıyorlardı
▁әсерінен
▁негізіндегі
3)
ash
▁Fr
▁лай
▁sert
▁фили
aliyet
▁ışığı
▁емдеу
▁project
▁Öyleyse
▁yolculuk
▁тақырыбы
сай
терм
▁120
▁2,5
▁dey
▁эфф
▁ұмт
▁теріс
▁siyahi
bileceği
▁салалық
▁bağımsız
▁olmaları
▁қолдауға
▁әкімінің
▁есептерді
▁oluşturmak
▁есептеледі
▁конструкция
▁құралдарының
SA
тил
▁объ
lamayı
▁Demek
▁mesaf
▁реакт
огендік
▁bakmak
▁bizler
▁reklam
▁елдегі
▁жасанды
▁oluştura
▁кетерлік
▁government
▁ассамблеясы
çeği
▁Fil
▁evr
▁mec
▁бәй
тарап
▁еткен
diğimizi
▁çalıştık
▁сипаттамалары
▁Ona
▁Yer
laşma
жылды
▁araz
▁very
▁оңай
▁тепе
алының
▁büyüy
▁sıfır
▁нашар
▁Hiçbir
▁жаппай
▁басында
▁қабатты
▁дөңгелек
yl
pit
тте
▁Би
▁ду
▁чем
▁мағын
▁тұрғыз
▁етілген
lerimizin
▁жоғарыда
▁hücreleri
▁жұмыстарына
▁тәжірибесін
▁экономикасының
қон
lüğü
ибер
▁cur
irken
▁bank
▁атам
термен
ттарды
▁ақтау
▁семей
▁өзект
imizden
▁görünt
▁деклар
abiliriz
elerinde
▁ауылшаруашыл
wit
▁ға
▁sıv
▁фин
ments
▁ауыз
▁синг
isiniz
▁soğuk
▁чемпи
tığında
▁number
▁siyasi
▁merkezi
▁асыруда
▁mantıklı
▁басталған
▁зерттеуге
▁зияткерлік
▁эксперимен
fk
гу
▁шв
able
▁sez
▁кіл
▁Açık
▁başa
▁star
▁tepk
▁киім
▁шолу
ihayet
acebook
імділік
▁meslek
▁görünen
lanabilir
▁değiller
▁industri
▁тұрмыстық
▁қабылдады
▁çoğunlukla
▁парламенті
kar
▁Um
▁дж
ansı
atür
imes
▁but
▁Önc
▁сұх
▁suyu
▁aktif
▁sorgu
▁алаңы
▁бауыр
▁судья
▁есепті
▁korumak
▁çocuğun
▁әзірлен
▁anlatmak
▁жеңілдік
▁arkasında
▁ortasında
▁жүйелердің
▁gerekiyordu
льф
▁56
lish
▁Bab
▁Ste
▁Мат
терек
▁seni
▁zihn
▁Zaman
▁galak
▁tıbbi
▁тілін
▁Burası
▁аумағы
▁отырысы
▁қауіпті
▁Берілген
▁paylaşmak
▁шекаралық
▁тұрғындары
▁интерактивті
23
hip
ыла
▁85
▁Ver
▁its
▁kus
▁тану
▁хром
▁бірлесе
▁консуль
▁пайызды
▁математика
dah
окс
▁neye
▁диск
▁фарм
▁Şöyle
▁түрін
▁yapmış
▁üstüne
▁өзгеріс
▁неғұрлым
▁балабақша
▁тәжікстан
lır
лог
сап
hbet
trac
▁alk
▁atı
▁tık
▁Бас
▁қым
▁günü
▁inde
▁masa
▁seks
▁валю
ilmesi
әжіриб
▁hafif
▁okuma
▁тіпті
▁жылжым
▁gelişim
tığımızda
▁etkileşim
▁karşılaştır
▁arkadaşlarım
рес
тег
abet
atik
rist
қайс
▁gür
eğini
аймын
▁koya
▁mült
▁сілт
ысымен
▁atmos
▁kaçır
▁сіздің
esindeki
▁мерзімі
▁gösterdi
▁hayatını
▁баламалы
▁максималды
ле
рл
loy
ынд
▁95
ülen
▁vol
▁дсұ
chool
yalım
данды
ельді
лықты
▁uzan
▁әуеж
▁derec
▁hafız
▁өзіне
▁kaybol
▁нысаны
▁отырады
▁kullanılan
▁қашықтықтан
rip
teg
▁уә
atör
кері
▁қхр
▁tutk
▁oranı
▁жібек
аттарын
▁артады
▁farkına
▁kariyer
▁желілік
▁процедур
аби
яды
▁Bey
▁Den
ларда
ляция
▁сары
diğine
ection
ınızın
▁bahse
▁sabit
алармен
▁giderek
▁görünür
▁қатысуы
▁republic
▁көліктік
▁балалардың
?''
eks
üme
▁39
амды
▁қож
ақтау
▁итал
▁меди
▁сату
▁қуат
елеген
▁үстел
dığımda
▁ölçüde
▁график
▁noktası
▁ülkenin
▁жазылған
▁қолданып
▁ауғанстан
▁қолданудың
АТ
про
▁ib
ımcı
▁Kat
▁кал
ograf
ейміз
▁artış
▁neyin
▁curren
▁plastik
▁болдырм
▁geldiğinde
▁географиялық
evk
көл
▁ұт
▁лит
▁expo
▁pren
▁шлак
▁group
▁индик
leriniz
ıyordum
қаралық
▁жануар
▁öğrenme
▁архитек
▁İnternet
▁жетекшісі
▁жақсартуға
▁insanlardan
▁Республикасының
дб
dyo
▁up
▁ви
▁Doğu
▁конф
▁geçiş
▁herşey
▁артқан
▁мамандары
▁yaptıkları
▁агроөнеркәсіп
âl
şi
ome
абр
▁Yıl
▁pas
esyon
▁türü
▁arası
▁gitti
▁level
▁gelmiş
▁yağmur
▁örneği
▁halinde
▁yönelik
▁жаңалық
▁konuştuğ
▁hayvanlar
▁хабарлауынша
▁материалдарды
),
za
дм
ею
әб
süz
▁Ap
▁Dr
енко
▁ayn
▁боя
ықтыр
▁Tekn
▁olun
▁Sizin
▁demiş
▁kenar
▁kıyas
▁Öğren
▁медал
▁alanda
▁азамат
▁ticaret
▁меншікті
▁біріктіру
▁біліктілік
▁орналастыр
▁салдарынан
age
▁00
▁веб
▁пор
mekten
анатын
▁verin
▁yargı
▁болжау
▁noktaya
▁мәндері
▁деңгейге
▁саясатын
▁investment
▁тапсырмасы
▁сипатталған
ind
кем
▁Car
▁piş
▁вен
ократ
▁denk
▁dizi
▁duya
▁icin
ısının
▁arama
lıyoruz
шыларды
▁істері
▁boyutlu
▁bisiklet
▁болатынын
▁транзиттік
▁көмектеседі
▁қатысушылардың
hur
▁Оң
onun
▁Dok
▁шың
лаған
▁şiir
▁етуі
▁denen
▁inanç
▁şeker
▁өнімі
▁жалғыз
▁жетеді
ebiliyor
▁special
▁экстрем
▁қалыпты
▁problemi
▁sevdiğim
▁yapıyorum
▁қазақстанды
жә
cer
ugh
work
істе
▁neh
▁pil
▁amel
▁fabr
▁нейр
▁ұлыб
▁terör
▁қайыр
ultural
▁center
▁müthiş
▁жерлер
▁yetenek
▁yönetim
▁кешенін
инамикалық
▁сигналдар
▁стратегиясы
▁53
▁ca
▁аө
▁эн
оның
▁düğ
▁био
cının
▁city
▁елші
▁орыс
▁тиес
▁ауқым
lamanın
miyorum
▁analiz
ft
рс
Hay
фей
▁yı
▁по
▁ты
▁bom
▁gib
▁егі
▁sector
аларында
тациялық
▁dediler
▁seçenek
▁курстар
▁қазагро
▁құрылымын
▁bildiğimiz
▁дайындалған
yo
veriş
▁bitk
▁міне
▁тарм
dığına
▁gurur
▁өсіру
atistik
елеріне
▁parlak
▁барлау
▁түсіну
▁сарапшы
▁алгоритмі
▁орындауға
▁анықтайтын
▁нормативтік
alth
best
ihir
ттан
▁жіө
▁риз
▁bahç
▁bağır
▁мүлік
▁отыру
▁bildir
▁берікт
▁değiliz
▁түсінік
▁imkansız
▁olmaktan
▁şirketler
▁қарастырылып
▁иг
ener
▁Rus
▁өрн
sından
▁endişelen
▁İngiltere
▁топырақтың
▁әзірленген
▁параметрлері
".
▁nö
▁кәр
▁мезг
▁өлім
▁bulut
▁қабат
▁қатаң
▁дәстүр
▁қуаныш
▁yaşamak
изациялау
▁мөлшерде
▁құрметті
▁gelecekte
▁yaptığını
▁önemlidir
▁айналысатын
▁ұлыбритания
iforn
амбет
▁Adam
▁kamu
▁uydu
▁асып
▁поли
▁kalır
▁одақтың
▁тиесілі
▁кездесті
▁комиссияның
▁қажеттілігін
▁implementation
8]
ДІ
▁Ан
ture
▁cüm
▁ену
▁Bilg
▁gerç
▁oksi
▁бере
▁фабр
▁үнді
▁жолын
▁сабақ
▁қосып
▁yarısı
▁anlayış
▁кезекті
▁шымкент
▁ministry
▁sonuçlar
▁салаларындағы
өт
gul
орд
▁57
аген
ария
ингі
▁Tel
▁етп
usunu
жігер
▁teşh
▁yola
юминий
індеме
▁buydu
▁yanıt
▁қасым
▁kurmak
▁елінің
▁шабуыл
▁қалдық
▁Onların
▁көрмесін
▁астанадағы
▁hatırlıyorum
▁teknolojinin
ари
бул
▁кг
▁(1)
▁бри
▁гра
әдени
▁zinc
▁birer
▁есебі
lığıyla
▁hikâye
▁tespit
▁sizinle
▁жиналған
▁мақсатта
▁жекелеген
▁қолданбалы
▁olabilirsiniz
▁қабілеттілігін
▁Өз
▁lar
▁need
lerimi
▁annem
▁artır
▁kağıt
▁мәнін
▁piyasa
▁sohbet
▁ортада
▁құрғақ
ықтардың
▁позиция
▁Devletler
altı
imle
▁кли
▁пой
▁шқо
ciğer
onlar
▁араб
▁barın
▁müdah
▁ulusal
▁diyorum
▁tarafta
▁Facebook
▁kültürel
▁төртінші
АС
▁Тө
▁ән
iyan
▁Tıp
▁oto
▁ланд
▁Küçük
▁ашады
▁тағай
▁Sağlık
▁қайтал
▁doğrudan
▁materyal
▁çıkarmak
▁бұрғылау
▁сағынтаев
▁құжаттарды
▁өндірістің
▁операциялық
▁ақпараттандыру
кей
▁now
▁батыр
▁тілді
▁қонақ
▁қуатты
cağımızı
▁Elbette
▁лауазым
▁Buradaki
▁экспорттық
▁De
esif
sian
екен
▁ass
▁sam
▁бил
▁саз
▁eser
дерден
▁korun
▁parti
▁insana
▁датчик
▁шақыру
▁тәртібі
▁ресейлік
▁стандарт
▁отырғанын
▁стандартты
▁қолдауымен
bin
ісп
ific
адық
▁Sah
▁мұқ
▁evde
▁тұлға
▁өсімі
терімен
▁sorunları
▁енгізіледі
▁әрекеттесу
▁şekillendir
▁қабілеттілік
can
бұл
▁54
еуге
бұрыш
жанов
miştim
▁buçuk
▁телек
duğunda
▁Біздің
▁nükleer
▁координат
▁әзірленді
▁мамандықтар
дын
▁Tar
▁көріп
▁devasa
▁energy
▁шынайы
▁ландшаф
▁табиғат
▁көбінесе
▁depresyon
▁fazlasını
▁аяқталған
▁olabileceğini
▁концентрациясы
жи
бан
імі
ayım
▁lif
▁үмі
▁клуб
▁типт
cağınız
шалықты
▁теңдеуі
▁тыңайтқыш
▁uluslararası
com
▁ми
▁ағз
▁kart
▁күші
ерлігі
▁polic
▁verme
▁күшті
▁eyalet
▁мәскеу
▁қорытп
▁hatırla
▁алматыда
▁мақсатқа
▁шарттары
▁балаларға
ink
ateg
▁koc
üphan
▁буын
ымызға
▁Konuş
▁aydın
▁бірін
▁başara
▁compet
▁şeydir
▁дизайн
▁шартты
▁görmeye
▁kapasit
▁onlardan
▁директор
iev
шық
қаб
идті
▁tor
▁автоб
▁ақпан
leyerek
▁аудару
▁өнімін
▁karşıya
▁диаметр
▁kullanıl
▁инфрақұрылымды
nda
құқ
▁Ай
ұрық
▁Göz
▁aşk
▁tuv
ердің
▁дәрі
umuzun
лармен
огенді
▁Chris
гіндегі
▁Pekala
▁olanak
▁yerler
▁yolunu
▁жүреді
▁трансп
▁аудандық
▁күнделікті
аю
cel
ерв
▁аң
▁Sür
▁ете
liler
▁prof
▁жазу
▁oyunu
▁rapor
шілігін
▁zincir
▁зердел
▁benzeri
▁аграрлық
▁асырылуы
▁процесінің
▁басымдықтар
▁Le
▁Sı
▁Авт
▁imkan
▁kopya
▁mektu
▁пойыз
ilendir
▁istedi
▁vazgeç
▁кіретін
▁студент
dığımızda
▁энергияны
▁қолданады
▁olabilecek
▁деңгейінің
IS
мар
▁Eğ
▁Ber
▁nak
▁nec
атыны
▁buil
▁марк
▁цент
cağına
sultan
undaki
▁gayet
▁işlev
▁алмас
▁içeren
▁әрқайс
▁diyoruz
▁duruyor
▁sonrası
▁алмайды
▁жайында
▁Bazıları
▁кездесуге
▁отбасылар
▁başladılar
▁графикалық
▁коммуналдық
▁маңыздылығы
▁жабдықталған
▁шаруашылығын
▁құзыреттілік
▁инфрақұрылымын
70
Вт
ekt
udi
ффуз
▁куә
▁күз
unuzu
емент
енция
▁Bize
▁doğa
▁open
▁пунк
денген
ниттік
▁keşif
▁yürüt
▁оқушы
lanması
▁verdiği
▁жетімді
▁бейімдел
▁енгізуге
▁байланысы
▁бұқаралық
▁салаларда
▁Қазақстанда
▁Pa
▁bl
▁vah
▁Çal
араби
иннің
▁алғы
▁моди
▁қозғ
asyonu
▁сенат
▁қағид
▁korkut
▁күшейт
▁техник
▁misiniz
▁салынды
▁karıştır
▁орналасу
▁eğlenceli
▁Түйіндеме
▁парламентаралық
9]
lex
ruk
▁3.
tral
ulan
одты
▁saf
▁2005
▁hapis
▁olanı
▁edildi
▁görmüş
▁policy
▁түлект
imizdeki
▁елдерде
▁жаңадан
▁полиция
▁sonuçları
ине
▁bi
▁ez
ағыш
▁köt
▁Кей
masız
▁boya
орлары
▁армен
▁hayata
▁süreci
▁tamamı
▁бағалы
▁паралл
▁шығады
▁katılım
▁уақытқа
▁ылғалды
▁gelişmiş
▁сақтауға
▁қызметтердің
▁жекешелендіру
▁й
ауды
laşık
гінгі
текті
▁zevk
ülüyor
▁bacak
▁ondan
▁visit
▁yarım
▁берік
▁сынақ
▁itibar
▁necess
▁тәулік
▁kısmını
▁gerekirse
▁жандандыру
▁алушылардың
▁жүйелерінің
▁өкілдерімен
▁қатысушылары
▁sürdürülebilir
▁департаментінің
жо
илл
онд
▁ab
▁Ser
▁мүл
▁түп
▁komp
▁ұялы
▁қорын
▁dürüst
▁etmeyi
▁ұсыныс
▁бөлініп
▁самұрық
еттерінің
▁açıklama
▁tartışma
▁жасалады
▁қатынасы
▁басқарушы
▁логикалық
▁сипаттайтын
▁әкімдігінің
22
amı
tre
çak
▁эы
▁boğ
алиев
▁fore
дістем
▁kimin
▁these
▁şeydi
естігін
▁boşluk
▁grafik
▁kamera
▁аралығ
▁Осындай
▁increase
▁палатасының
▁қаржыландыр
any
ock
rit
şet
ибр
▁ик
▁оф
ияны
▁800
▁HIV
▁Hal
▁тұн
yonel
сінде
▁baba
▁dokuz
▁газды
▁мықты
▁оқиға
ization
діқалық
ілмеген
▁mekaniz
▁кездегі
elerinden
▁Afrikalı
▁yaptılar
▁білдіріп
▁танымдық
▁құрылады
▁өткізіледі
▁функционалдық
▁ті
Evet
içek
ұлды
▁цех
▁İnan
▁көкт
unuzun
▁kemik
▁trade
cıların
ülasyon
▁reform
▁seviye
▁сөйлеу
▁эффект
▁Sonunda
▁gerçeği
▁nereden
▁sorumlu
▁болмауы
▁басымдық
▁жағдайға
▁жыныстар
▁сапасына
▁görürsünüz
▁бағыттарын
▁сипаттамасы
▁тапсырмаларды
dal
elp
sur
▁two
▁екін
▁елге
▁хлор
▁nadir
▁класс
▁моноп
▁bahsed
▁форумы
құқықтық
▁foreign
▁general
▁hepsini
▁алынатын
▁белгілер
▁кітапхан
▁anlatıyor
▁zorundayız
▁çalıştığım
▁орталығында
▁пайдаланудың
tın
▁ба
gele
iğin
ожүй
▁sel
ledim
▁Lond
▁оқып
ission
▁banka
▁haklı
▁Мұнда
▁burası
▁тәрбие
▁фосфор
▁фракция
▁ettiğini
▁агенттік
▁anlamıyla
▁gerçeklik
▁nursultan
▁relations
▁қоғамдаст
abilirsiniz
▁керектігін
rah
ози
▁51
ting
штаб
шаның
▁егін
▁жаст
cekler
аланған
▁issues
▁popüler
▁есептің
▁сайынғы
▁салынып
▁таралған
▁жылдығына
▁толықтырды
▁партиясының
tab
▁civ
▁def
▁peş
▁köpr
▁such
▁vide
liğine
▁önüne
▁geldik
▁yerini
▁saldırı
▁ашылады
▁көрменің
▁кеңейтуге
▁сапасының
▁көрмесінің
▁қиындықтар
▁yapabilirsiniz
5-
par
âlâ
▁Gö
апур
септ
тігі
dence
imler
lenen
ымдар
ыстан
▁штаб
дермен
▁ayrıl
▁bulur
ахметов
дығының
▁harita
▁tutmak
▁белдеу
▁жіктеу
▁кремний
▁kimsenin
▁долларды
▁жағдайына
▁құттықтау
▁күштерінің
▁процесінде
▁бастамасымен
lit
▁Он
redi
▁был
ember
▁emek
▁otob
▁Şunu
▁тұру
▁ретті
▁шекті
▁evrenin
▁жылдығы
▁жұмылды
шілігінің
▁versiyon
▁yolculuğ
▁Жоғарыда
▁бюджетке
▁енгізуді
▁көздейді
▁экспортт
▁kullanıcı
▁нейрондық
▁төмендеуі
министрінің
▁мәжілісінің
▁нақтыланған
▁аналитикалық
▁ұйымдастырылды
ish
way
евт
▁97
▁ма
▁ұй
şeyi
шама
▁stu
ented
ультим
▁bölge
▁жерге
▁робот
▁şanslı
▁жіберу
▁үйрету
▁үрдісі
lerinizi
▁телефон
dığınızda
▁ötesinde
▁Birincisi
▁келесідей
▁орталығын
▁пікірінше
▁талаптарға
▁құбылыстар
▁құттықтады
▁салалардағы
cy
gth
ick
яси
▁49
▁Пр
тқан
▁göl
▁Кел
▁қис
алдау
▁anal
▁dost
▁sıkı
▁well
▁ısın
▁böcek
▁өскен
▁жандар
▁сандар
Қаз
▁Су
ally
▁ник
kadem
денең
тамыз
ұлдыз
▁doku
▁алты
▁talep
▁номин
▁қойып
▁altyap
▁within
▁көруге
тараптан
▁сыйымды
▁alanında
▁kullanma
▁интерфей
▁марапатт
▁getiriyor
▁жеткізілді
▁менеджмент
yim
қыұ
▁Am
▁Cev
▁lim
▁Күн
альді
ектік
▁akış
▁kula
мәдени
қандай
▁barış
▁sanal
▁sebeb
ebilmek
▁olamaz
▁комбин
▁anlamlı
▁bulmaya
▁current
▁kadının
▁орнының
▁benziyor
▁öğrendik
▁бәйтерек
▁теориясы
▁education
▁бағытында
▁бөлігінде
▁тұрғындар
▁есептеулер
▁бағдарламалау
esk
аку
ева
шет
▁98
▁dâ
атау
▁çöp
▁уағ
leşme
мейді
▁yayı
▁tarım
▁adamın
▁каспий
▁әдетте
▁verecek
▁ықтимал
аттарының
▁görüyorum
▁ülkelerde
▁қолданысқа
ДЕ
▁CO
▁iğ
тыру
▁194
▁Web
▁law
▁pen
▁Қыз
шілес
▁kıyı
қсанда
▁agric
▁denem
▁шықты
▁ұлғаю
▁çocuğu
▁өзгерт
▁кететін
▁тәрізді
▁dikkatli
▁kullanır
▁şeklinde
▁азиядағы
▁шығаруға
▁қатысатын
▁үкіметаралық
▁технологиялары
hib
üye
▁52
ияда
▁пеш
▁фир
▁диап
▁еқыұ
▁ойым
imizle
▁isten
▁yazık
▁сульф
▁уағдал
▁қарсаң
▁process
▁Бүгінгі
▁айтылды
▁жолымен
▁қабілеті
▁басшысына
▁ортасында
▁министрдің
▁түсіндірді
▁парламенттік
▁ерекшеліктерін
бі
eğen
▁700
▁Yok
▁fen
▁muc
▁сүр
жатты
▁hist
▁эыдұ
▁артуы
▁өңдел
lığında
▁ayakka
▁çözmek
▁өтінім
▁isterim
▁жататын
▁жағалау
▁оқытуды
▁салмағы
▁құрастыр
▁gelebilir
▁өндірісін
▁өнімдерді
▁göreceksiniz
▁пайдаланылады
▁материалдардың
ДА
-19
daly
ures
▁сей
▁шаш
ейтой
▁deng
▁Техн
▁deyiş
▁жерді
▁үлест
▁Yalnız
▁başkan
▁kişiye
masından
▁düşünme
▁hakları
▁herkese
▁trilyon
diğimizde
министрдің
▁қабылдауға
4)
▁30-
▁ince
▁sözc
▁аэро
далады
егейлі
зиялық
▁basın
▁yönel
▁тамақ
▁жатқыз
▁көрініс
▁yüzyılda
▁кешенінің
▁университет
▁параметрлерін
ily
мам
мең
тум
▁4.
▁эв
▁гип
▁нөл
ғаның
қында
▁Asya
▁Eski
▁Kısa
▁kral
орттық
▁kulak
▁order
▁tüken
dukları
▁açıkça
▁faktör
▁oyuncu
▁кепілдік
▁қыркүйек
▁біріншіден
▁институтының
▁қызметкерлердің
ruf
rım
ysa
üsl
еля
itim
дель
▁Tem
▁arı
▁cit
▁атс
▁зат
▁Қор
▁сани
▁Doğru
▁yasal
▁жасқа
▁үйлер
mıyoruz
▁жолмен
▁іздест
▁ұтымды
▁анықтап
▁бірлігі
layabilir
lerindeki
▁mutluluk
▁болмаған
▁мерейтой
▁өкілетті
▁nedeniyle
▁yaşıyoruz
▁istatistik
▁басқармасы
▁әдістемесі
ag
алай
▁Hak
linik
▁kilo
▁geçti
▁ірікт
isinden
дігінен
▁Nerede
▁göçmen
▁keşfed
▁takdir
ternatif
▁serbest
▁Кілттік
▁депутат
▁үндістан
діқалықова
▁деректері
▁тәрбиелеу
▁teknolojiyi
▁басшыларының
oni
лей
▁58
ader
inal
manı
анып
гілі
▁öfk
▁Бол
antum
diğin
lıktan
енттің
▁adamı
▁other
▁жағым
▁хатшы
mesinin
дерінен
▁aksine
▁doldur
▁düzelt
▁күрдел
▁есептел
▁жасалып
▁сингапур
▁konuşmaya
▁астананың
▁жүйелерді
▁серіктестер
▁энергиясының
wn
cal
tüm
örd
май
▁Uy
▁пат
▁2007
▁Genç
▁Neyse
▁bilme
▁yıldan
▁болсын
▁тұтаст
аларымен
▁yapıldı
▁банктің
▁бақытжан
▁салалары
▁асырылатын
1-
lif
▁Tr
iter
сорб
▁dip
▁kla
▁пил
▁Kral
▁бәрі
омәдени
▁gökyüz
▁Барлық
▁болуға
▁импуль
▁фармац
▁dönüşüm
▁уақытын
▁істеуге
▁болғанда
▁оператор
▁таныстыру
▁түбегейлі
▁түріндегі
▁қабілетін
▁архитектур
▁элементтері
▁ерекшеленеді
▁edebilirsiniz
ane
ақп
ekte
▁Ail
landa
renin
▁only
▁tuta
▁kusur
▁көшір
▁макро
▁іскер
tıkları
▁etmesi
▁индексі
▁kullanan
▁verileri
▁өңірдегі
▁edebiliriz
▁Üniversitesi
▁20-
▁zir
▁аэа
▁файл
memizi
▁Afgan
▁teker
▁işleri
▁olmadı
▁етілді
▁жұлдыз
естіктің
▁ulaşmak
▁yakalan
▁yoluyla
▁асырады
▁қатынас
öylelikle
▁ameliyat
▁байқауға
▁söylediği
▁туындайды
▁төрағалығы
▁экономикаға
▁аралығындағы
17
dıra
▁Yan
абына
▁good
▁докт
▁зиян
▁пери
caktır
▁atten
▁dakik
▁durdu
▁şuydu
▁қосты
ықтарды
ағдарлам
▁denilen
▁sorunun
▁strateg
▁аурухан
▁қызықты
қатынасты
▁универси
▁ilişkiler
▁қозғалысы
▁кездесетін
▁тәуелділігі
mo
СО
йд
tma
▁Ең
uyum
▁дал
▁күл
▁boyu
▁depo
▁австр
▁әрине
▁Londra
▁zamana
▁уақытша
▁аяқталды
▁демократ
▁балаларды
▁Gördüğünüz
▁бағдарламаларды
16
air
бит
дәр
жел
▁ны
lear
аулы
▁Hol
mamış
▁әліп
▁aptal
▁kanun
▁neyse
еленген
▁cevabı
▁person
▁саммит
▁indepen
▁бастысы
▁bilgiler
▁кетерлігі
▁тәсілдері
кез
siye
▁[6]
▁дос
▁hous
імізге
▁dönüp
▁görem
▁sihir
ацияның
▁yerden
▁нұрлан
▁gönüllü
▁sağlığı
▁тазалау
▁алюминий
▁орындалады
▁өнімділігі
ope
быр
▁66
▁Kür
▁mor
▁Бал
▁мұз
-2016
▁мырз
▁çiçek
▁içerik
▁алудың
▁aktivit
▁zamanla
▁басымды
▁құраған
▁тығыздығы
▁өндірісті
▁тәуелділік
▁хабарлайды
км
▁İz
ever
дакт
олар
▁Kan
▁cis
▁şif
▁ваг
▁каз
▁күм
iyeti
ratik
гінді
қашан
▁kent
▁алуы
▁кесте
ersiniz
▁журнал
▁жылыту
▁күшіне
▁сауатт
▁ederken
▁маманды
▁оқытуда
emezsiniz
шыларының
▁туристер
▁necessary
▁олимпиада
▁төмендеді
▁karşısında
▁olduğunuzu
▁ақпараттың
bileceğimizi
▁kendilerine
▁металлургия
▁бағдарламалары
2)
güt
uan
тығы
▁900
▁eff
ерлеу
▁know
▁азот
▁ақша
▁теңг
▁konum
▁sivil
▁süren
▁total
▁сынау
ларымен
▁birlik
▁gittiğ
▁kapalı
▁алынып
▁жатырм
▁өсуіне
▁Bununla
▁ettiğim
▁білімін
▁етіледі
▁тартуға
▁шешудің
▁zihinsel
▁белгілеу
▁пайыздық
▁бастамасы
▁performans
▁этномәдени
▁Co
▁Sh
▁Ел
itif
tial
▁ker
▁öne
▁dist
▁көші
▁түзу
dığımı
▁tutar
▁bağlan
▁айтуға
▁диапаз
▁anladım
▁sıkıntı
▁vermeye
▁sahiptir
▁Оңтүстік
▁қарсаңында
▁жаңартылатын
сел
▁78
maty
ısal
▁dök
▁пыс
rough
бірек
орган
cağımı
ентген
ықтағы
▁Оқыту
▁өтуде
üslüman
▁hâline
▁memnun
▁контур
▁oksijen
▁olursak
▁асыруды
▁қатарлы
▁faaliyet
▁toplumun
▁fikirleri
▁kendinizi
▁çocuklara
▁облысындағы
%)
1)
24
ue
kil
veç
aket
iste
uman
anada
▁onay
▁bölün
▁кабин
▁қалды
лерімен
▁диффуз
▁науқан
ектердің
▁uzaklaş
▁жаттығу
▁объекті
▁құқығын
▁evrensel
▁regional
▁tasarruf
▁айналады
▁дегеніміз
▁жүргізуде
▁институттар
▁температурада
udu
кар
▁Kam
▁şim
▁сир
▁last
шараға
▁genom
▁кибер
▁әлсіз
▁school
▁tırman
▁пысықт
▁қойнау
▁eleştir
▁сұраныс
▁істеуде
▁geleceği
▁ешқандай
▁мамандық
▁olmasının
▁фармацевт
▁жүйесіндегі
ord
çev
▁Ау
десу
▁0,9
▁huk
стері
▁agre
▁harf
▁held
▁özgü
▁еуро
▁komşu
▁seyir
▁Есепт
▁көктем
▁мекеме
▁табыст
▁тіледі
▁geldiği
▁көбірек
▁көлемде
▁көлемді
▁сөзінше
▁gösterir
▁programı
▁кеңестің
▁міндеттері
▁қолданылуы
▁құқықтарын
▁әртараптан
▁гуманитарлық
▁технологияларын
бон
гей
лад
шам
sans
çası
ıklı
▁Der
▁bud
▁лиц
-2018
dukça
▁rest
isiyle
▁artan
▁bakıp
▁çıkıp
▁етуде
▁көбей
▁түйір
▁ұстап
tablish
ектерді
▁білімі
▁тәсілі
▁sandaly
▁түйінде
▁атамекен
▁güçlendir
▁бөлінетін
▁өткізілген
▁міндеттерін
▁компаниялары
18
Si
ысов
▁cor
▁döv
▁ölü
leyin
▁2030
▁birç
▁sarı
▁қант
▁құқы
альдық
▁altın
▁сирек
▁тараз
▁discus
▁kalmış
▁ortada
▁болуын
▁olmuştu
▁жапония
▁контейн
▁масштаб
▁оқушының
▁establish
▁edilebilir
▁материалдарын
▁технологияның
ец
үш
пия
inda
iyel
▁lan
▁Таб
▁dalg
▁sevg
▁sıvı
▁uçuş
птеген
▁benden
▁konfer
алдардың
▁фазалық
▁диаграмм
▁көлденең
▁biliyordum
▁kullandığımız
br
га
лет
оци
aydı
daşı
мелі
▁Mon
▁ask
ality
▁indi
▁penc
▁sent
witter
▁ахмет
▁дәліз
lerdeki
leyecek
▁almaty
▁украин
▁ekonomi
▁автожол
▁материалдары
▁ұйымдастырылған
ДЫ
ры
эм
▁mıs
ediye
medim
егіне
шалар
▁bitki
▁tarif
larımın
▁budget
▁erişim
▁sayede
▁жобаға
▁жерлерде
▁тартымды
▁тіршілік
▁Araştırma
▁geliştirmek
▁ihtiyacınız
▁kullanıyoruz
▁геометриялық
out
жын
зер
▁59
▁Un
▁Öl
ater
палы
▁stat
▁dedik
▁Harika
▁sembol
▁uyuştur
▁verimli
▁ауыстыр
bileceğim
шылығының
▁finansal
▁дамытуды
▁тапсырыс
▁тоқталып
▁toplumsal
▁есептелген
▁заңдылықтар
yn
әл
omo
vur
жаб
▁бе
ceği
uldu
оңыр
▁сым
▁halka
▁ırkçı
▁қатер
▁berbat
▁gücünü
▁сұлтан
▁полигон
▁украина
▁İkincisi
▁асыратын
▁форумның
▁ihtimalle
▁profesyonel
▁мамандардың
▁экономикасы
▁çalıştığımız
▁жетістіктері
гіп
нде
cial
vice
алту
ірім
▁180
▁Bul
▁[7]
▁çer
▁ней
▁chan
▁dili
▁uyku
▁жікт
ediyor
▁bulaş
▁cesur
▁iddia
▁komik
▁büyüme
▁қабырғ
▁etkiler
▁kanseri
▁vücudum
▁öğrenci
▁қышқылы
▁kampanya
▁дағдарыс
▁отырыста
▁kendisini
▁мектептің
▁әдістерді
▁bağlantılı
▁азаматтарға
▁тұлғалардың
шұ
▁қк
urta
▁Kap
екция
▁sayf
ümüzün
▁misin
▁saçma
▁kaydet
▁күніне
▁қалада
▁әуежай
▁getirdi
▁rekabet
▁еуразия
▁кестеде
▁қателік
▁тұлғалар
▁құттықтап
▁реформалар
▁қозғалтқыш
▁бағыттарының
▁біліктілігін
▁тұжырымдамасы
IT
ЛІ
ady
ейц
еме
▁Мо
alya
amik
менті
▁Arka
▁Hadi
▁avuk
▁epey
кістан
▁радио
ылмаған
▁eğilim
▁сәулет
▁таңдап
▁атсалыс
▁bulunduğu
▁бағалауға
▁бақылауға
▁қызметкер
▁талаптарды
▁жетілдіруге
▁қолданылған
▁қанағаттандыр
ЕМ
кең
gesi
hild
▁göm
▁исп
кемен
▁Sizi
▁acil
▁bast
▁dura
▁yürü
▁таяу
rength
ulture
▁Mısır
▁verim
▁фильм
ditions
▁alarak
▁lütfen
▁базасы
▁ескеру
▁тапқан
▁тұрақс
▁орындық
▁başlamak
▁айнымалы
▁dediğimiz
▁heyecanlı
▁мәселесіне
▁değişikliği
▁düşünüyoruz
▁жеткізілген
▁республиканың
▁қызығушылығын
▁пайдаланылатын
▁ратификациялау
▁ео
mali
unan
▁визу
▁ісін
▁Görün
▁dâhil
▁radyo
▁қабық
ulation
▁growth
▁numara
▁алдына
▁шешуде
▁армения
▁бойында
▁күндері
▁тапсыру
▁ұжымдық
актикалық
▁strength
▁жатырмыз
▁нарықтар
▁canlandır
▁Özellikle
▁стратегиясын
▁сәйкестендіру
oli
илин
ресс
фаль
▁(1-
▁(2)
▁bol
deler
umuzu
лауға
▁Arap
▁yada
▁ақау
▁паци
ington
гіштік
▁salon
▁Kendim
▁etiket
▁sağlam
▁yüzleş
▁түріне
abilecek
▁anahtar
▁бастама
▁жемісті
▁addition
▁арттырып
▁аталатын
▁işbirliği
▁araştırmacı
ье
бей
ұрт
▁Erk
▁Kit
▁büt
▁kuy
▁uça
▁тот
ürken
менов
▁maym
ықтығы
ілуіне
▁musun
▁numar
▁мырыш
liğinin
uyordum
▁dediği
▁modeli
▁беттік
▁birinde
▁geçiyor
▁institu
▁nihayet
▁yapması
▁дәрежеде
▁міндетін
▁tasarımcı
▁аймақтағы
▁commission
▁эксперимент
эн
yiz
üyü
▁мг
dede
gini
шарт
▁Bar
▁göğ
▁гру
▁ның
madım
ронды
▁ерте
üyoruz
▁evlen
▁sordu
▁Farklı
▁bizden
▁klinik
▁италия
▁karışık
▁бөлісті
▁катализ
▁негізде
▁көзқарас
▁табылған
▁мерекелік
▁Muhtemelen
▁өнімдердің
▁артықшылықтары
▁73
▁Rob
▁Tah
▁жүл
▁ұшу
iydim
makla
бетов
▁amac
▁робо
▁kayıp
▁mobil
▁Мақал
▁алуды
▁салды
▁dayalı
▁ibaret
▁kapsam
▁şehrin
▁сүйене
▁әңгіме
▁sizlere
▁стацион
uyorsunuz
▁өндіруші
▁hikayeler
▁Öncelikle
▁асырылған
▁елдерінде
▁istiyorlar
▁ақпараттар
bel
▁Li
üydü
▁Dem
balık
иясын
сынды
▁Uzun
▁yeme
▁бюро
▁шлам
ements
▁Hepsi
▁danış
▁арзан
▁çerçev
diğinizi
eceğiniz
▁Fransız
▁лайықты
▁bireysel
larımızdan
▁монополия
19
ыт
бал
вол
мақ
▁68
▁Em
ezil
ешев
▁Bur
▁loc
▁çök
▁Топ
▁зал
өткіз
▁алек
әрекет
▁citiz
▁жасай
▁салып
üyorlar
▁sürede
▁құруды
▁Аталған
▁gittikçe
▁industry
▁söyleyen
▁сіздердің
▁alternatif
▁çalışırken
eder
laki
▁Қоры
▁vakit
▁сүйен
▁тағам
дарымен
▁mikrop
▁yollar
▁bakarak
▁compani
▁ilerlem
▁zamanlı
▁мәлімет
▁элемент
▁өскемен
▁депутаты
▁жеткілік
▁transport
▁дағдарысқа
▁нысандарды
гуманитарлық
▁тұрақтылықты
nov
рин
метр
одақ
олиз
dikal
lamış
аторы
сивті
▁itir
▁тақт
▁шифр
imleri
▁оқшау
ындығын
▁döndür
▁Bunları
▁мультим
▁gerektiğ
▁hareketi
▁rastgele
▁companies
сс
▁нө
ülük
окси
▁Dur
▁men
▁sur
uyucu
ğının
алуда
▁влад
▁sevgi
▁етуді
▁оқуға
arsanız
▁health
▁olumlu
▁ауытқу
ebilirim
▁sınırlı
▁жасауда
▁келісімнің
▁құралдарды
xt
АҚ
ood
sip
лин
▁Ah
▁шу
▁ұс
ance
▁And
▁yav
▁мег
өндір
алуына
▁mezun
▁шебер
атордың
▁employ
▁türden
▁табуға
▁şimdiye
▁реформа
▁өңдеуге
▁büyüklüğ
▁insanlık
▁өңдеудің
▁агенттігі
▁жеңілдету
▁yaşadığımız
öl
▁64
,...
имир
огаз
пелі
▁Қол
▁ұкп
-2015
еймін
▁sever
▁tanrı
▁сіңір
▁rüzgar
▁жетісп
▁осының
▁айқында
▁асырылу
formation
▁istediği
▁қорғасын
▁қосылады
дістемелік
▁hissettim
▁саналатын
▁орталықтары
14
ынш
баст
тест
▁Sol
▁fun
▁аөк
▁ест
шінің
▁2025
▁ziya
▁Адам
▁David
▁Kesin
▁buldu
▁bulma
▁suyun
▁yürüm
▁çeken
▁ürünü
▁ахуал
lığının
▁hayran
▁çoğunu
▁жалғас
▁жәрмең
▁тоқсан
▁olmanız
▁tuvalet
▁yürüyüş
▁Жұмыста
▁алмасты
▁базасын
▁шығатын
▁increased
▁bağışıklık
▁enfeksiyon
▁ресурстары
▁функциялар
▁istiyorsanız
▁көрсеткіштерін
5'
ase
уст
▁67
mede
ydık
тран
урет
▁350
▁Dar
▁балл
▁кепт
▁окру
▁сайт
asıyla
ымызда
▁imkân
амбетов
▁әліпби
елерімен
▁Twitter
▁Yaklaşık
▁verdiler
▁жастарды
▁alışveriş
▁kullanımı
▁тиімділік
▁цифрландыру
işi
lor
ova
▁Kor
▁add
▁cal
▁doc
▁ağrı
▁derg
▁peki
▁Жаңа
▁арен
аттану
▁every
▁taban
▁көкөн
▁музык
▁мінез
▁kazana
▁вектор
▁жарқын
▁салуға
▁тамақт
▁тоқаев
▁olacağı
▁біршама
▁dolarlık
▁ресейдің
▁ұзақтығы
▁güvenilir
▁екіншіден
▁Республикасы
▁логистикалық
▁функционалды
▁72
esef
тивт
ырын
▁Hik
▁key
▁şok
▁into
ландыр
▁Düşün
▁sakin
▁аудит
▁енген
▁kişiyi
▁мектеб
▁резерв
▁шекара
▁өтілді
гершілік
▁kıyafet
▁yerlere
▁сапалық
▁шараның
larımızda
▁sıklıkla
▁нәтижелі
▁орындалу
▁үдерісін
▁edersiniz
▁oluşturur
▁өткізіліп
▁üniversite
▁шешімдерді
▁ілгерілету
▁istediğiniz
▁жаңартылған
▁кәсіпкерлердің
Ne
eya
ажай
▁195
▁Lab
▁той
ımdan
▁child
▁kilit
▁ерлан
▁сауал
▁шарты
labilir
▁sürece
▁медаль
▁içinden
▁әдіспен
енттердің
▁yapmanın
▁özgürlük
▁долларын
▁электрон
▁алдындағы
▁жобаларға
▁құқықтары
▁қарастырып
▁жүргізілетін
па
ful
pon
▁Өл
▁130
▁köp
▁rus
▁Üst
▁Сыр
▁шал
ision
▁сулы
▁serma
▁suçlu
▁zehir
▁келер
▁уәкіл
құрылым
▁eminim
▁жүйеге
▁шамасы
▁products
▁бастайды
▁дамытуда
▁мазмұнын
▁сипаттау
▁bahsetmek
▁oluşturuyor
▁пайдалануды
▁интеграциялық
ağa
ele
▁10-
▁Bah
▁off
▁sci
▁tez
▁рей
▁kaya
▁they
дандыр
▁nöron
▁жалақ
▁тырыс
layabil
osistem
шысының
▁Sosyal
▁alalım
▁kitabı
▁varlık
▁bizimle
▁deyişle
▁faydalı
▁pozitif
▁süredir
malısınız
▁minister
▁алаңында
▁қызметке
емлекеттік
▁including
▁оқулықтар
рав
▁Mc
▁Сә
ight
uzur
▁Dış
▁tuz
▁Бел
▁дет
▁хан
▁Қал
sider
▁ordu
▁makal
▁неміс
▁ұстаз
ladılar
▁görevi
▁ондағы
melerine
▁gibiydi
alization
▁değişimi
▁yıllarda
▁Көптеген
▁саясатты
▁ғарыштық
▁статистика
▁тәжірибені
▁ihtiyaçları
▁коэффициент
▁құрылысының
1]
нит
▁63
▁ge
▁Hem
▁cok
▁egz
▁fos
▁hid
dünüz
алуын
тарға
▁dava
қазына
▁çekil
▁орман
▁үйдің
▁değeri
▁oranda
▁ticari
атикалық
▁авиация
▁көбейту
▁ediliyor
▁кездесуі
▁oluşturan
▁жеткізген
▁нәтижесін
▁секторлар
▁түзетулер
▁орталықтың
▁aracılığıyla
▁düşündüğümüz
ian
акс
▁Fe
▁jo
ежел
імов
▁Kut
▁equ
▁sub
▁nevi
miştir
vantaj
ланады
мысалы
▁okuya
▁yapıp
▁дерек
▁ыстық
тталған
▁taklit
▁ішінен
▁жақсарт
▁жүйелік
▁жұмысшы
▁саланың
▁басшылық
▁түрлендір
▁durumlarda
▁sorumluluk
▁түсіністік
▁энергияның
▁өсімдіктер
▁Нәтижесінде
▁процестерді
▁қатынастарды
▁психологиялық
зал
онт
▁ҚР
▁жам
press
дайым
▁басс
▁дала
ceğini
елерге
лықтың
▁exhib
▁барып
▁дәуір
▁ылғал
▁kutsal
▁айының
▁ашылуы
▁көркем
▁сигнал
▁bunlara
▁yumurta
▁жүретін
▁үрдісін
▁орнатуға
▁değiştirdi
▁erkeklerin
▁өнімділігін
ps
ЕН
бр
мұн
▁74
▁Құ
amın
▁Pat
▁gra
армай
шетау
▁апта
▁güney
▁vahşi
▁yörün
▁бөліс
▁kimlik
▁konuyu
▁uzakta
▁диспер
▁kişilik
▁planned
▁құрудың
▁atmosfer
▁мектепте
▁өнімінің
▁bilgileri
▁söylüyorum
▁насихаттау
▁төрағалығымен
ığ
til
рад
bert
ustr
ияға
▁içi
▁por
▁Жел
▁Тур
▁бап
leyic
балар
▁titr
▁асыл
▁фирм
ksiyon
естері
▁intro
▁одағы
▁саланы
▁қосылу
▁address
▁söylemiş
▁zamandan
▁айналған
▁көпшілік
▁суреттер
▁қатысуда
▁günümüzde
▁конвенция
▁үйлесімді
▁strengthen
▁клиникалық
▁санитарлық
▁қолданатын
27
тк
log
мұх
▁6-
▁Со
soft
▁Bin
▁fav
▁gay
▁kıl
▁yas
▁сел
лыққа
▁meas
▁poli
▁план
▁өсір
mamıza
▁hissi
▁yılın
▁қысқы
▁құпия
ыстарды
▁Ulusal
▁diğeri
▁senary
▁акцион
▁етудің
▁өлшемі
изикалық
▁service
▁pozisyon
▁палатасы
▁тигізетін
▁bilmiyoruz
▁жоспарының
▁экстремизм
▁milyarlarca
▁yaşındayken
▁тұрғындардың
ТТ
рг
adi
хат
▁Te
▁ur
▁ги
ular
yalı
денс
▁140
▁Nij
▁who
▁суы
▁чех
-2019
ccess
▁döng
▁neyi
▁umur
▁науқ
▁оқыт
▁шыны
bility
етінен
тоқаев
ттарын
▁hakkı
▁kırık
▁yasak
▁ізден
▁Merkez
▁teklif
▁польша
▁шаққан
▁avantaj
▁capital
▁kalıyor
▁демалыс
▁әрдайым
▁kütüphan
▁астанаға
▁есебінің
▁еңбектер
▁kendileri
▁басқаруды
▁сараптама
▁қалыңдығы
▁деректердің
▁teknolojiler
▁басшылығымен
▁тапсырмаларын
аңыз
▁sız
қанды
▁Tabi
▁since
▁union
▁çağır
▁ойлай
▁серік
▁Әрбір
еменшік
стардың
▁commun
▁repres
▁интерв
lıyorlar
▁чемпион
▁Teşekkür
▁yakından
▁аумақтық
▁сынақтар
▁холдингі
▁шығарады
▁meslektaş
▁басқаруға
▁бөлімінің
▁жұмысымен
▁көпшілігі
▁негіздері
▁қолдануды
▁артықшылығы
▁байланысқан
▁бағдарламаға
▁әртараптандыру
раг
▁iP
шығыс
▁belg
▁üçte
▁плен
▁қауп
▁әлде
терлік
▁Okyan
▁civar
▁deste
▁sıkış
▁zorlu
▁шығып
▁düşman
▁endişe
▁бөлшек
▁қордың
▁владимир
▁орындалуы
▁düşünmüyor
▁gelişmekte
▁sistemleri
▁birbirlerine
▁қатысушыларға
xi
ох
uar
ives
meme
ırda
мбеб
▁Yük
етнам
індеп
үйсен
▁atık
▁deli
▁eura
eciler
ysanız
▁niyet
▁olmam
▁isimli
▁импорт
▁бағытын
▁есеппен
▁hapishan
▁баяндама
▁olduğunun
▁parçaları
▁çalışması
▁дәрежесін
▁аспектілер
▁тәртібіндегі
baş
lah
var
лов
ско
▁76
▁Eş
haba
▁Tas
▁küm
▁Еур
dıkça
імдік
▁Okul
▁kaps
▁anlar
▁felak
▁алуда
▁тотық
▁швейц
▁buluna
▁future
▁regions
▁өмірлік
еханикалық
▁ihtiyacım
▁önümüzdeki
логистикалық
▁istemiyorum
ğin
ebek
асан
▁50-
▁Bro
▁Kaç
▁süt
▁тай
cılık
▁borç
▁серб
rosoft
діктен
▁Sanat
▁beyni
▁біртұ
баевтың
▁заңына
▁қалады
▁құқығы
▁değişti
▁eğitimi
▁yaratık
▁рентген
▁пилоттық
▁ғасырдың
▁өзгереді
▁kendimize
▁жолындағы
▁нысандары
▁тартылған
▁іздестіру
▁қабылдаған
5)
ИК
быз
emem
itan
stit
▁Ada
▁air
▁гор
▁соқ
ected
раиль
ылуға
▁Park
▁Жылу
▁азаю
мбебап
▁başta
▁kuzey
▁айтар
▁алдық
▁жабын
▁жиынт
▁типті
алмаған
дастыру
дендіру
▁attrac
▁leader
▁çoktan
▁асфаль
▁аяқтау
▁шығыны
▁yenilen
▁başlayan
▁tarafında
▁жүргізген
▁düşünceler
▁білімдерін
▁hayvanların
▁академиялық
▁жағдайларды
▁жеткіліксіз
▁қалаларында
▁ұйымдарының
2'
io
кс
иен
тон
isin
▁Nor
▁beg
ебебі
ілуін
▁Geor
▁kaba
▁kast
▁maaş
▁соғы
▁açısı
▁ашуға
▁беруде
▁Japonya
▁diyelim
▁ederler
▁Математ
▁беріліп
▁consider
▁үкіметке
▁федерациясы
▁комиссиясының
ank
cül
cın
gis
ice
los
ций
▁NA
▁So
▁АҚШ
▁Дер
▁Жүй
атады
▁2006
▁Irak
▁виде
dıktan
ағынан
▁beğen
▁келуі
▁минут
▁yaptır
▁ауаның
▁шеттік
▁Küresel
▁bilgiye
▁kurtara
▁қойылым
керлердің
▁otomatik
▁тәртібін
▁аяқталады
▁орындалды
▁ықтималды
▁шаралардың
▁hissediyorum
коммуникациялық
13
пау
алқы
имум
▁нәр
urity
ülmüş
▁manz
▁қайт
ebilen
ration
ттерді
▁Yunan
▁yayıl
▁қамты
ırsınız
▁ahlaki
▁duruma
▁katman
▁çıkarı
▁балқыту
▁бірігіп
▁өткізіп
▁sistemin
▁микроскоп
▁Afganistan
▁Bilirsiniz
▁шығындарды
▁бағдарламаларын
PS
йс
ırız
▁dos
▁вел
▁отт
larsa
tiniz
▁каль
▁нейт
▁diplo
▁event
▁felse
▁sahte
▁topra
masında
орданың
сындағы
▁Tekrar
▁bilimi
▁бөліну
▁спикер
▁radikal
▁басылым
▁таралуы
▁gördüğüm
▁olmaması
▁yetersiz
▁örnekler
▁Интернет
▁fonksiyon
▁бюджеттің
▁заңнаманы
▁өзгеруіне
▁exhibition
▁түрлерінің
▁шығарылатын
▁факторлардың
ji
ки
dig
tip
рий
шақ
▁Ağ
батт
▁550
▁col
▁лок
ganda
атуға
кесте
маған
▁Siya
ezilya
▁Güzel
▁balon
▁кетті
▁икемді
▁цемент
▁барысын
▁бетінің
▁adamları
▁ayakkabı
▁азайтуға
▁ekosistem
▁сәулелену
▁нысандарын
▁қызметтерін
▁тұрақтылығын
ОЛ
гал
▁Мұ
panz
▁Bay
▁ima
Video
dents
leyip
дағыш
▁алыс
▁ашып
▁кеңс
▁оқыл
amıyor
larken
імізде
▁innov
deceğim
▁Doktor
▁akadem
▁askeri
▁gözden
▁kalmak
▁restor
▁аралас
▁тізімі
▁қолбас
▁Oldukça
▁қасиеті
▁тудырады
▁туризмді
▁hesaplama
▁kilometre
▁жоғарылау
▁isterseniz
▁kullanmaya
▁белгіленді
▁зерттеудің
▁белсенділігін
▁söyleyebilirim
▁федерациясының
cis
fik
tek
▁ли
алым
апқы
игур
▁aca
▁tok
isyen
lacak
меген
▁mana
▁абай
▁арақ
▁осын
alesef
yasyon
ингтік
▁Deniz
▁yolda
▁күшін
▁başvur
▁mektup
▁sıkıcı
▁Себебі
▁patlama
▁орнықты
▁genişlet
▁биіктігі
▁көрінісі
▁birşeyler
▁developed
▁diğerleri
▁орталықтан
▁қаншалықты
hal
пақ
▁1)
▁Be
omen
usun
есіз
▁Ses
▁deh
▁köl
▁Кон
posta
матул
ылмақ
▁ceza
▁Кілт
▁ұсақ
empanz
енетін
▁tetik
▁сұрып
▁тыйым
▁contin
▁mesele
▁birinci
▁duyarlı
▁gibidir
▁şirketi
▁бағасын
▁пайызын
▁yüzyılın
▁барлығын
▁партиясы
▁Bunlardan
▁durumunda
▁саясаттың
▁трансформ
▁uyuşturucu
едагогикалық
▁yapabilecek
▁тұрақтылығы
▁kullanılıyor
Al
erv
дро
▁86
isiz
ағай
ырлы
▁Beş
▁Ter
▁aim
uluğa
атрий
дікті
иялар
▁Paul
▁öldü
▁кесу
ьетнам
▁huzur
▁place
▁uyarı
▁күміс
▁плазм
liğinde
▁iletiş
▁parayı
▁yazdım
▁көлігі
▁сөзсіз
▁getiren
▁hayatım
▁жарамды
▁форумға
леуметтік
▁Brezilya
▁organize
▁seviyede
▁zamandır
▁бағалады
қатынастың
▁жүргізеді
▁Bilgisayar
▁өткізілетін
▁қазақстанмен
▁ынтымақтастығын
MS
ty
ңір
▁işç
▁kıv
▁pur
▁гер
▁мом
▁шат
emini
itler
▁Mart
▁moda
▁sına
suzluk
ектегі
▁Tıpkı
▁terap
▁конгр
▁мәнге
tikleri
алдарды
кестеде
▁balina
▁düzgün
▁okulda
▁salgın
▁Üçüncü
▁антроп
▁атаулы
▁fikrini
▁айналып
▁толтыру
▁үстінде
▁services
▁тереңдет
▁ғаламдық
▁altındaki
▁тәсілдерін
▁çalıştığını
▁әдістерінің
▁қауымдастығы
aza
med
▁69
▁Ad
▁ST
▁ев
▁20.
▁сах
▁экз
▁құт
плиту
▁10-1
▁ахқо
acağız
лемдік
▁Cevap
▁Genel
▁ideal
▁kalın
▁metal
▁üstün
▁ағыны
▁опера
лігінде
▁avukat
▁duymuş
▁kalıcı
▁бөлімі
▁портал
▁kuantum
▁көкшетау
▁farklılık
▁ülkelerin
▁адамдарды
▁біртіндеп
▁жиынтығын
▁орынбасар
▁уақытында
▁процесстер
▁белсенділік
▁düşündüğünüz
ony
оти
▁87
üven
иялы
▁ана
▁төс
лайды
ылыми
▁Oyun
▁astr
▁atıl
▁Önce
▁марш
▁прог
мейтін
▁grubu
▁initi
▁Төмен
▁егжей
▁комис
▁лицен
▁ханды
лығымен
▁bağlam
▁dolara
▁çekmek
▁жалпыл
▁Gelecek
▁deniyor
▁dönemde
▁hissede
▁hızlıca
▁partner
▁Тәжіриб
▁alanları
▁hikayesi
▁kazandır
▁келешегі
▁кеңестер
▁шеберлік
▁қоспалар
▁kaynakları
▁айырмашылығы
▁таныстырылды
▁кәсіпкерлерге
▁қорытындысында
▁83
▁[2
▁Ес
▁Han
▁Pol
▁maj
▁Екі
▁рол
Neden
ology
▁hang
▁peri
▁öykü
▁үйін
▁ұқшұ
герлер
▁tatlı
айтынын
менстан
▁tarafı
▁enterpr
▁karınca
▁көрсете
▁телеком
▁ұзақмер
▁görünmez
▁measures
▁telefonu
▁нысанның
▁салынады
иологиялық
▁conditions
▁sorumluluğ
▁мақсаттары
▁қалыптасуы
▁программалық
-4
zon
▁77
▁Ko
etin
жеке
ырма
▁Bağ
▁Wil
▁эст
tanın
креди
▁eğil
▁eşya
▁ofis
▁биік
▁көру
ісінше
▁Kenya
▁almış
▁paket
▁tümör
▁Ресей
▁жолға
▁малай
liyoruz
▁maymun
▁states
▁бетіне
dığından
▁üretmek
▁зауыттың
▁мәліметі
▁geliyordu
▁алмастыру
▁толыққанды
▁параметрлер
28
tük
ames
осым
қара
▁Дем
▁ісі
bilim
туден
▁road
▁Баст
▁mahal
▁miyim
▁басып
▁жұмыр
шілерге
▁ederiz
▁символ
▁düzenli
▁kolayca
▁нарығын
▁қосынды
▁Kaliforn
▁Müslüman
▁alabilir
▁olmuştur
▁бекітілді
▁модельдер
▁пайдаланады
▁президенттік
1'
nik
ube
üya
▁др
ards
лянд
▁pir
ермен
жейлі
терде
▁Char
▁дана
елетін
▁gördü
▁iskel
▁odada
▁şeyle
biyotik
ecekler
ақтарын
▁sormak
▁ойымша
▁нарықта
▁отырғыз
▁тоннаны
▁çalıştır
▁талаптары
▁Kesinlikle
▁düşündüğüm
▁тауарларды
▁қаңтарынан
▁бағытындағы
▁коммуникация
▁сертификаттау
ght
ino
rac
ақш
жұм
таң
▁Po
▁sö
▁рф
tesi
атом
комп
▁Biy
▁Сын
▁шан
Hayır
lemiş
▁cong
▁dini
▁ақыл
▁морф
▁үйді
істері
▁müdür
▁Жұмыс
▁Табиғ
▁істей
▁құбыл
alandır
▁olmasa
▁ziyade
▁беруші
▁орнықт
▁aileler
▁success
▁орнында
ashington
▁ауылында
▁бақылауды
▁өздігінен
▁өзгертулер
▁айтылғандай
▁аумағындағы
▁baktığımızda
AR
hum
▁96
lari
ішке
▁Про
günkü
анның
▁100-
▁sona
▁итер
▁тегі
▁farkı
▁kapan
▁tutuk
▁карта
▁шұғыл
▁ғалам
▁Avustr
▁baştan
▁байыту
▁күннен
▁нұсқау
▁реглам
▁бетінде
▁екеніне
▁жылулық
▁қысқаша
▁çevresel
▁шығындар
▁ұйымдары
▁konuşmayı
▁тәулігіне
▁başlayalım
▁жалпыұлттық
▁субсидиялау
▁тұтынушылар
▁атмосфералық
▁коммуникациялық
до
sia
игі
лып
мон
мыр
▁3,5
▁İst
ғарыш
▁büyüt
▁düşüş
▁tablo
▁Өндір
▁өзені
▁bölümü
▁kritik
▁sizden
▁асатын
▁araçlar
▁görünüş
▁sağlama
▁артуына
▁бассейн
▁қосалқы
▁diyorlar
▁geçirdim
▁hatırlat
▁özelliği
▁кооперат
▁тұрақсыз
▁өңделген
▁айналдыру
▁сауықтыру
▁проблемалар
▁қайырымдылық
▁экономикасына
әу
its
yum
▁му
ülme
ласт
▁ach
▁nan
▁som
ating
імнің
▁adil
▁ekib
▁inti
▁бриф
▁пәні
▁ұзын
ession
ılacak
арстан
▁günün
▁tutul
▁çıkış
▁заңға
▁нидер
ытылған
▁improv
▁oluşur
▁sonuna
▁біріне
▁жақсар
▁заңсыз
▁идеясы
▁кескін
▁siyaset
▁вьетнам
▁жолының
▁dışarıda
▁ediyordu
▁etkileri
▁sorunlar
▁yaşadığı
▁алмастыр
▁Компьютер
▁процесіне
▁құрамының
▁композиция
▁төмендейді
▁әзірбайжан
▁birbirinden
▁dolayısıyla
▁қарастырайық
▁кәсіпорындары
ЫЛ
100
bab
арн
▁II
▁St
rene
▁Map
▁gor
▁mir
▁reh
oksit
stein
иметр
▁Veya
▁entr
▁жеті
▁ailem
▁yatak
▁Çalış
▁басын
▁өтуге
▁achiev
▁aniden
▁күннің
▁сипаты
▁қосады
▁үйрену
іміздегі
▁through
▁üretken
▁израиль
larınızın
▁нарығына
▁нарығында
▁тереңдету
▁teknolojik
▁айнымалылар
▁жылдамдығын
▁назарбаевқа
▁көрсеткендей
ва
ade
кес
için
▁Yol
▁oil
▁horm
▁prep
▁trav
atives
терден
▁gören
▁демек
▁тұрып
▁geçtik
▁sözcük
▁аттест
▁olmuyor
▁алғысын
▁массасы
▁ilerleme
▁организм
▁yapacağım
▁üstesinden
▁материалды
▁шығарылған
▁проблемалық
тж
vir
рын
▁05
▁жж
ined
▁Mak
▁hac
▁kâr
▁tac
▁ығы
ілмек
▁artı
▁парк
▁шама
eliyim
ктивті
▁duran
▁muhaf
▁Toplum
▁görmez
▁kırsal
▁бактер
▁мүддел
▁әлемге
mazsınız
▁istemez
▁sunuyor
▁yolunda
қазақстан
▁eurasian
▁partners
▁жылдығын
▁принципі
▁Microsoft
▁болдырмау
▁қолданған
▁қозғалысын
▁information
▁төмендегідей
ner
итр
сал
▁Aş
арлы
▁Dan
▁kuz
▁ара
lılar
lıyız
қатер
▁sens
▁әбіш
memize
▁kalıp
▁жамыл
▁нөмір
tığınız
▁былтыр
▁құрама
▁әділет
▁buradan
▁tersine
▁уақытты
▁әмбебап
▁заттарды
▁маусымда
▁Neredeyse
▁sonucunda
▁Washington
▁патриоттық
▁ұйымдастыруға
ğe
гид
▁%9
▁pa
▁но
iriz
олит
▁Gez
▁siv
▁апт
liydi
ендір
імсіз
▁haft
▁them
ildiği
олюция
▁esnek
▁eşsiz
▁hukuk
▁istek
▁kavra
▁kredi
▁soyut
▁zihin
▁önemi
▁şansı
▁барды
ördüncü
▁baktım
▁konuya
▁reddet
▁Студен
▁біркел
▁еңбегі
▁düzeyde
▁yaşamın
▁söyledim
▁мұнайдың
▁серпімді
▁тұлғаның
▁oluyorlar
▁атқаратын
▁фестиваль
▁dünyasında
▁verdiğimiz
▁сараптамалық
▁температуралық
АЖ
піш
eğim
бағы
▁eur
▁hab
▁Çev
▁вок
▁дом
rojen
інеді
▁blok
▁dile
▁lise
▁жұрт
▁курс
спірім
▁köken
▁satış
▁асқан
▁заряд
▁тілге
miyoruz
ақтарды
терінде
▁басына
▁Almanya
▁created
▁fabrika
▁амплиту
▁назарын
ıldığında
▁диапазон
▁моделдеу
▁тартылды
▁қолдаудың
▁аймақтарда
▁Kaliforniya
▁birbirimize
▁тұрақтандыру
EO
Ал
ami
iki
▁GS
▁ЖЭ
lars
rail
▁193
▁dük
▁rit
сандр
▁youn
▁блог
атегор
өндіру
▁doldu
▁kahve
▁yanıl
істерді
▁Kanada
▁pratik
▁zordur
▁айтсақ
▁аралап
▁bakıyor
▁basitçe
▁gelince
▁қазанда
melisiniz
ülüşmeler
ықтандыру
▁children
▁oluşuyor
▁kadınları
▁kelimeler
▁yapılması
▁жүргізуді
▁коммерция
▁туындаған
▁пайдаланатын
▁қарастырамыз
▁жетістіктерін
▁ауылшаруашылық
▁бағдарламасында
au
kır
muz
win
yet
-200
▁Din
▁Kah
ceğiz
emizi
lendi
▁күту
▁Sorun
▁Tarih
▁burda
▁domuz
▁жинақ
▁geldim
▁tanıma
▁telesk
▁şefkat
▁класси
▁нарығы
▁artıyor
▁bulundu
▁büyüyen
▁etmenin
▁желісін
▁қыздыру
▁citizens
▁долларға
▁көшбасшысы
▁шығармашыл
▁independence
▁ұзақмерзімді
▁зерттеулердің
▁сипаттамаларын
.5
ple
авк
йық
мей
▁Na
▁об
▁тж
etro
eyif
▁70-
diven
▁ismi
▁onur
даймыз
▁docum
▁duyma
▁kılan
▁Деген
▁түзет
▁heykel
▁профил
езиденті
ыстардың
іпсіздік
▁келісті
▁bilgisay
▁құрамдас
▁ұсынылып
▁kişilerin
▁мәдениеті
әдістемелік
▁çalışıyorlar
бу
инді
итті
▁ağı
▁пре
▁тим
eğine
luğun
ханов
▁Tama
▁reak
▁азая
▁теті
иядағы
▁büyül
▁tabak
▁İslam
▁шаруа
▁fikrim
▁mercan
▁teşhis
▁ағынды
dığımızı
▁mikrosk
▁tavsiye
▁дәрілік
▁нарыққа
biliyoruz
▁bilinçli
▁байқалды
▁адамдарға
▁ауданындағы
▁ғалымдардың
▁yaptıklarını
▁элементтерін
dun
авт
▁93
ants
ford
▁қтж
▁best
▁экск
▁ailen
▁çatış
▁балан
▁станс
▁қараш
амыздың
▁Yüksek
▁aldığı
▁bakıma
▁бөлуге
▁жалақы
▁univers
▁ауданда
▁ахметов
▁бермейді
▁дегенмен
▁мерзімін
▁dayanıklı
▁represent
▁азаматтары
▁қабылдауды
▁bahsettiğim
▁мәліметінше
▁нәтижелерді
▁ынтымақтастыққа
sp
ume
лав
ышы
▁Mü
▁TV
roid
▁ris
▁без
▁Өлш
lıkta
▁Proj
▁aday
▁uçur
▁сауд
ғылары
▁direnç
▁elinde
▁isteye
▁yakala
▁yanına
▁yazılı
▁Şirket
▁қорғал
▁үдеріс
▁bakteri
▁sonsuza
▁испания
▁коллект
▁мәнінде
▁varsayım
▁желілері
▁территор
▁қабаттар
▁Республик
▁таңдалған
▁etkileyici
▁population
▁söylediler
▁сипаттайды
▁жарияланған
▁baktığınızda
▁температураның
▁тәуелсіздіктің
ows
іле
tory
▁Lat
▁Per
▁Sur
▁Vüc
▁sıç
▁сақ
▁тат
▁шөл
temel
талық
▁rece
▁қалу
уляция
▁Annem
▁kolon
▁three
▁çekim
▁метал
жаттығу
ғындағы
▁balığı
▁ортасы
▁палата
mesinden
▁alanlar
▁tecrübe
▁бастығы
▁кездейс
▁мүлікті
▁үдерісі
▁olacaktı
▁авторлар
▁банкінің
▁елімізге
▁серіктес
▁қабылдап
▁elektronik
▁olabiliriz
▁органдарға
▁қызметтері
▁қызметінде
▁нысандардың
▁ақпараттарды
pos
арх
пір
▁ұб
▁Dik
▁Haz
▁Sev
▁fam
▁дың
▁дән
▁мәм
лануы
құлов
▁ауди
бекова
▁fosil
▁kanat
▁krizi
▁çiftç
▁ödeme
▁емхан
▁кезек
▁соған
▁қанат
▁edemez
▁experi
▁көшіру
▁ниетті
▁өркени
▁company
▁yolları
▁şehirde
▁жетісті
▁комплек
▁шөгінді
▁Herhangi
▁annivers
▁yapmanız
▁жобасына
▁нарықтық
▁құзыретт
▁sistemini
▁zamanında
▁түркістан
▁дайындалды
▁тапсырмасын
▁маңыздылығына
▁перспективалары
но
▁q
ety
faf
цин
▁si
uşak
ттеу
ымда
▁1,3
▁Mik
▁Кез
▁пош
▁sırt
▁uzat
▁айда
lerken
▁Basit
▁Times
▁falan
▁елбас
▁капит
▁Bizler
▁atıyor
▁duydum
▁klasik
▁trafik
▁есімов
▁мейрам
▁etmemiz
▁ilişkin
▁брифинг
▁елдерге
▁ескерту
▁жолдауы
üyorsunuz
▁hikayeyi
▁security
▁soruları
▁елдеріне
▁жасақтау
▁жастарға
▁political
▁çalışarak
▁бағалаудың
▁байланыстың
▁материалдың
▁төмендетуге
▁нысандарының
ko
yu
ну
bek
ual
rame
оним
рдың
-2014
saydı
абаев
енинг
қалып
▁İşin
▁анағ
старды
қышқыл
▁gülüm
▁jener
▁maden
▁refah
▁yavru
▁yenil
▁босат
өспірім
▁electr
▁geçmek
▁қуатын
ladığını
елерінде
птикалық
▁working
▁zamanın
▁çalıştı
▁öncelik
▁арнаулы
▁мұнайды
шараларды
▁değişken
▁біртекті
▁қаласына
▁attention
▁olmasıdır
▁беретінін
▁термиялық
▁үрдісінде
▁industrial
▁өндірілген
йл
IDS
ayn
lec
бар
ста
ысу
▁62
▁рН
mama
oter
▁[10
▁hır
▁kıt
▁Тем
▁мын
▁açtı
▁арта
▁жұқа
üyordu
астары
ғалиев
▁жылды
▁кесін
▁креди
туалдық
▁Savaşı
▁карбон
▁aşağıya
▁dönüştü
▁аккреди
▁түрдегі
▁қоғамда
ebilirler
антикалық
▁elimizde
▁Дегенмен
▁белгісіз
▁demokrasi
▁жұмысында
▁мөлшерлем
▁çeşitlilik
▁ұсынылатын
ио
yer
ико
▁Re
anta
etim
даны
▁Kır
▁fur
▁боз
▁шоб
ektro
орған
▁your
ikatür
▁ayrıc
▁bozul
▁girdi
▁kanal
▁şudur
▁барыс
▁құнын
матулин
▁Birbir
mıyorlar
▁altyapı
▁alışkan
▁getirir
▁herşeyi
▁қарқыны
▁наурызда
▁өткізеді
▁kadınlara
▁жасалатын
▁сапарбаев
▁yaptığınız
▁çalışmalar
▁бастамасын
▁төмендеген
▁қарастыруға
▁интеллектуалды
▁инвестицияларды
▁қауымдастығының
лғ
ech
rik
ved
беу
▁Қо
kate
ғалы
▁bot
▁ted
▁қоң
ürler
ürlük
▁Kork
▁рель
cıları
istler
илиндр
▁Bakın
▁Güven
▁aylık
▁bekle
▁вагон
▁пішін
▁тұтас
▁edelim
▁oradan
▁беттер
▁тыңдау
▁distric
▁dollars
▁gelişme
▁herkesi
▁категор
▁танысып
▁топтары
▁әрқашан
▁sahipler
▁анағұрлым
▁кезеңімен
▁профессор
▁сұранысқа
▁айналысады
▁талаптарын
▁tasarlanmış
bly
қал
▁kl
▁ye
rove
гіні
әстү
▁Yaz
▁елі
▁каф
ирург
▁hali
▁İran
▁açığa
▁utanç
▁жуықт
▁крипт
▁түсім
бірімен
▁yapama
▁yaşamı
▁мереке
▁eskiden
▁yapalım
▁yaratan
▁ölümcül
▁есептік
▁финлянд
ebileceği
▁amacıyla
▁liderlik
▁tanıştım
▁fotoğrafı
▁yapacağız
▁отбасылық
▁өлшемдері
▁Sonrasında
▁орындалған
▁туындайтын
▁құрылымдар
▁anniversary
▁азаматтарды
▁мәліметтері
▁универсиада
▁kullanıyorlar
-9
3'
iri
uğa
шек
▁(6
рсет
▁val
▁афр
▁тра
▁Biri
▁cons
▁anket
▁forum
▁Болаш
▁бітім
ologlar
өлшемді
▁ayakta
▁online
▁sigara
▁Келесі
▁маркет
diğinden
dığınızı
lerimize
▁ilaçlar
▁iyisini
▁yapamaz
▁barındır
▁kararlar
▁басқалар
▁белгілен
▁yapılıyor
▁әрекеттер
▁жоғарылату
одинамикалық
▁тұтынушылардың
▁шаруашылығының
dat
ань
оза
рін
фон
▁ро
▁іі
бран
▁mel
▁шағ
tıkça
кезең
▁ежел
▁саты
▁ядро
eksika
larıma
ғыштар
▁hâlde
▁yönde
▁дискр
▁қоспа
rastruc
▁become
▁oturup
▁vizyon
▁жолдар
▁сергей
тегжейлі
▁bilimin
▁dinamik
▁oldular
▁yararlı
▁жасауды
leyebilir
▁сомасына
▁korkutucu
▁кездейсоқ
▁bildiğiniz
▁дағдыларын
▁шығарылады
▁қыркүйекте
▁жетістіктер
▁классикалық
▁функциялары
▁проблемаларды
был
сей
▁Ku
умын
▁21.
▁dün
▁gid
▁toz
▁Ülk
cular
кімен
ттағы
▁iyim
▁vaka
imdeki
▁poten
▁saniy
▁алуан
▁сынам
▁тірек
leniyor
қимылды
▁anında
▁mahkum
▁renkli
▁veriyi
▁yörüng
▁жүйеде
▁рәсімі
▁шараны
▁kişiden
▁жерасты
жабдықтар
▁olacağız
▁Бастапқы
▁дәрежелі
▁сұлтанов
▁александр
▁тамақтану
▁құндылығы
▁kaçınılmaz
▁жылдардағы
▁кооператив
▁робототехн
▁hayatlarını
▁желтоқсанда
▁корпорациясы
мм
шк
адм
цуз
ірт
▁IT
▁Kom
▁Жол
▁зон
▁реп
muştu
▁Bizi
▁Uzay
▁özet
▁İlki
▁bomba
▁keyif
▁айдау
▁беткі
▁дүние
▁жеміс
▁тапты
▁depart
▁geride
▁сөздік
▁теорем
▁қымбат
▁үстіне
caksınız
▁Arkadaş
▁şempanz
▁ақшалай
▁жылыжай
▁мамырда
▁схемасы
▁arkadaşı
▁oranında
▁signific
▁ағынының
▁білімнің
▁жинақтау
▁одағының
▁салаларын
▁теңдеудің
▁мұғалімнің
▁орталығына
▁орындарына
▁зерттелетін
▁агенттігінің
-5
8'
oya
yıp
cası
ауын
имер
▁110
▁160
▁ağz
▁lez
▁uyk
▁İlg
ульти
▁Harv
▁аним
iyatro
Фараби
лардан
оратор
▁dosya
▁month
▁salın
inizden
▁masraf
▁yemeği
▁бастар
▁газбен
▁зардап
ımızdaki
▁akciğer
▁ayrımcı
▁күштері
▁шешімді
▁шығынын
mayacağım
▁bırakmak
▁болғанын
▁салқында
▁Dünyadaki
▁Günümüzde
▁жағдайдың
▁başlıyoruz
▁demokratik
▁келісімшарт
▁жетістіктерге
ai
gn
зи
гір
кал
▁Se
▁ЖО
ling
апол
▁Var
▁Yah
▁tap
▁Бат
▁Мет
▁еті
umhur
ümüzü
езқаз
игиен
▁2004
▁алге
ілерді
▁alana
▁olayı
▁айлық
▁битум
▁модер
▁тамыр
▁beklem
▁create
▁itiraf
▁sergil
▁yarama
▁діндер
▁қалдыр
▁bölgede
▁uyandır
▁баспана
▁alıyoruz
▁günlerde
▁training
▁Çocuklar
▁болатыны
▁кезектен
▁қойылады
▁өзенінің
▁kendinize
▁елдерімен
▁Avustralya
▁болашақтың
▁жағдайдағы
▁әңгімелесу
=0
▁Ге
ылса
▁mür
▁neg
гінен
▁kıta
▁situ
▁traj
portun
▁Değil
▁Nijer
▁ahlak
▁filmi
▁sürük
▁tutan
▁yapış
▁жүгін
ометрия
▁kaldım
▁mantar
▁period
▁Sonuçta
▁quality
▁yerleri
▁çatışma
▁белгісі
▁жиілігі
leyiciler
▁araçları
▁bakarsak
▁belirsiz
▁benzeyen
▁şeylerle
▁пікіртал
▁туғызады
▁қорғауға
▁әскерлер
▁vücudumuz
▁желісінің
▁орналасуы
▁sisteminin
▁декларация
▁жағдайлары
▁мүмкіндігіне
▁тағайындалды
▁сарапшылардың
▁тұрғындарының
▁элементтердің
▁мемлекетаралық
▁технологиясының
9'
EM
му
iğe
ney
▁rö
ises
ized
tain
малы
▁1,0
▁1,6
▁Duy
▁ayı
▁kış
ğında
даның
ғанын
▁iken
▁suya
▁term
▁күрт
▁assem
▁bayan
▁kömür
▁köprü
▁çabuk
▁örgüt
▁көрді
▁alıntı
▁концеп
▁үзіліс
▁өздері
larımdan
▁Meksika
▁bulunur
▁felaket
▁құрылуы
▁ахметжан
▁биология
▁konferans
▁olursanız
▁Бағдарлам
▁бағасының
▁ретіндегі
▁ediyorsunuz
▁экономикасын
▁birbirleriyle
DA
лг
wer
ияр
орв
риб
▁84
▁Ob
bers
ency
ried
▁Mah
▁eng
▁lik
▁Мыс
▁Түр
▁мвт
▁өзг
▁izle
▁işim
▁kitl
▁okuy
▁şark
▁large
▁агрег
▁Başkan
▁Ekonom
▁amount
▁баспан
▁бостан
▁бөледі
▁есебін
▁kıyasla
▁yükselt
▁çiftlik
▁қамтуды
▁құжатқа
▁ұйымына
▁amounted
▁düşünmüş
▁ақпараты
▁көмірсут
▁қарашада
▁ұсынатын
▁etkileyen
▁география
▁партияның
▁istiyordum
▁olabilirdi
▁psikolojik
▁байланысын
▁енгізілетін
▁стандарттау
▁қауымдастық
▁парламенттің
▁метрологиялық
ica
raft
ılıp
▁20'
▁Kol
▁Ven
▁[8]
▁sığ
манов
▁Rich
▁Енді
▁Орта
masyon
sinden
▁damar
▁demir
▁işini
▁kutup
▁pişir
▁ölçüm
▁мұның
▁құзір
▁anlatı
▁gelmek
▁insani
▁isteme
▁iyidir
▁kurban
▁öncesi
▁биогаз
▁жердің
▁король
▁Hareket
▁central
▁further
▁кезеңге
▁оқытушы
▁үшбұрыш
▁Yalnızca
▁bitkiler
▁жоспарлы
▁бөлігінің
▁жүйесімен
▁электрлік
▁merkezinde
▁öğrendiğim
▁ардагерлер
▁мақсаттағы
▁әйелдердің
▁белсенділігі
▁құттықтаймын
▁өзгерістерді
▁жауапкершілігі
ML
жек
ный
▁88
amin
illa
ited
lana
сері
▁cad
▁rad
▁ste
▁маж
▁тоқ
iştir
лттық
іктік
▁bütç
▁басу
caklar
▁tersi
▁tutun
▁болар
▁сұрақ
▁kamyon
▁lisans
▁makale
▁umarım
▁Модель
▁бензин
▁қамқор
▁durumun
▁iyimser
▁konuşan
▁mülteci
▁болмаса
▁дегенде
▁сұлбасы
▁düzenlem
▁opportun
▁ластаушы
▁талшықты
▁қойнауын
mayacağını
▁сыйлықтар
▁уәкілетті
▁өзіміздің
rastructure
▁internette
БЖ
тпа
уыз
хай
▁Az
▁Sc
▁br
dies
hone
ties
рлеу
уляр
шыны
▁Con
▁use
▁öte
дыққа
мұнай
онның
▁requ
▁şifr
laşmış
mediği
▁yolla
▁yığın
▁жүрек
▁тамаш
▁үйрет
▁өздер
liament
mesiyle
▁Fransa
▁dışına
▁meşgul
▁sensör
▁çıkmak
▁ұлттар
▁әдісті
▁bildiği
▁katkıda
▁prensip
▁Есептеу
▁тілінің
▁şehirler
▁байқоңыр
▁бизнеске
▁диаметрі
▁лицензия
▁облысына
▁қазірдің
▁қытайлық
▁karikatür
▁моделінің
▁режимінде
▁құрылымды
▁тағайындау
▁қабылдайды
▁акционерлік
▁мақсаттарға
-6
7)
75
CA
бо
кг
сіп
қол
▁Тұ
imer
алас
енов
▁Bit
▁Kay
▁tüy
▁пир
▁рах
▁рух
▁саң
sızın
басын
деуге
қайда
▁area
▁bura
▁yöne
▁тату
dından
ахстан
дастар
▁china
▁donan
▁exper
▁meden
▁sahne
▁жүлде
▁көбею
▁тыныс
▁құрып
▁үлгер
düğünde
ылықтың
▁merham
▁servis
▁айтады
▁маршру
▁салаға
▁denklem
▁gidecek
▁hizmeti
▁taşıyan
▁кальций
▁оқытуға
▁profesör
▁çözümler
▁кадрларды
▁жасөспірім
▁көздерінің
▁сенімдімін
▁спортшылар
▁талқылауға
▁экспорттау
▁қосымшалар
▁жинақталған
▁нәтижелерге
▁қабылданады
▁қалдықтарын
▁президентіне
▁корпоративтік
▁министрліктің
SO
ke
ата
▁La
esto
eten
unus
▁1,2
▁125
▁[9]
▁сіл
сапар
тарда
▁hemş
▁нано
ective
enleri
▁döndü
▁nehir
▁yazdı
▁мұрағ
▁топқа
лерінде
▁Amazon
▁Umarım
▁натрий
▁biriyle
▁olumsuz
▁кесінді
▁формула
▁құрамды
естігінің
▁dünyamız
▁edilmesi
▁karbondi
▁ürünleri
▁таратпау
▁қатысуын
▁veriyoruz
▁yaratıyor
▁операторы
▁шынықтыру
▁қолдайтын
▁değiştiren
▁bilmiyordum
▁мүмкіншілік
▁құрылымының
▁директорының
▁қалыптасуына
▁стандарттарға
sc
ғд
ump
тұр
▁94
▁Sp
▁ша
usuz
yeni
ültü
лкен
трол
▁2,4
▁bed
▁Орт
▁аға
itive
risin
дарлы
▁omur
▁орал
eprene
▁young
▁çekir
▁парад
▁ұрпақ
landıra
ланатын
▁aklıma
▁taşıma
▁мезгіл
▁сервис
epreneur
делінген
▁zararlı
▁кадрлық
▁сөйледі
▁қарусыз
▁құрылып
▁әдістің
▁diğerine
▁елдермен
▁көшбасшы
▁уақытылы
▁қаражаты
▁civarında
▁тәжірибелер
кш
ged
рах
уін
▁my
satı
türü
омер
рист
▁Bal
▁The
▁ful
▁muz
▁қоя
yarak
ектеп
▁Hint
▁madd
▁rüya
▁sunu
▁tour
дардан
▁ayağa
▁bende
▁buzul
▁efsan
▁prior
▁батар
▁енеді
▁cerrah
▁galaks
▁ақылды
▁санына
▁істеуі
▁gelişen
▁бетінше
▁болғаны
▁өзгеріп
▁interest
▁кітаптар
▁сайлауға
▁2017-2018
▁potential
▁қажеттігі
▁duyduğumuz
▁görebiliriz
▁прокуратура
▁бөлшектердің
▁түсіндіріледі
▁düşünüyorsunuz
oo
ys
ңғ
viç
пир
абай
удің
▁cil
▁evi
▁gas
▁сег
▁қоқ
cilik
enizi
▁seri
▁zeka
▁Онда
▁аман
esiydi
kinden
üyorum
адалық
демелі
▁Babam
▁Sanki
▁Yakın
▁daima
▁yuvar
▁этнос
instein
ırsanız
▁empati
▁saatte
▁yapmam
▁айналу
ақталған
езқазған
▁kocaman
▁oradaki
▁sebeple
▁еншілес
▁жүктеме
▁açıklaya
▁kontrolü
▁olanları
▁алушылар
▁makineler
▁çalışmayı
▁çalıştığı
▁айтқандай
▁жылжымалы
▁шығарылды
▁experience
▁мақұлданды
▁әдістердің
▁entrepreneur
▁kullanabilir
▁бұзушылықтар
▁компанияларының
ons
rin
мыс
орн
▁Mu
▁Fik
▁Res
▁Sal
Gülme
▁mutl
▁база
▁өтуі
егенде
теңдік
▁Angel
▁Kimse
▁macer
▁Бұдан
▁жөнел
▁салым
▁өседі
▁ayında
▁kenara
▁kulağa
▁prepar
▁sesini
▁volume
▁бұрышы
▁кодекс
▁тағдыр
▁қосуға
▁dünyası
▁izliyor
▁konuşur
▁yöntemi
▁конденс
▁нүктесі
▁үміткер
ақтарының
▁güzellik
▁muhtemel
▁қаңтарда
▁ettikleri
▁yıllardır
▁аймағының
▁жалғасады
▁керісінше
▁денсаулығы
▁комиссиясы
▁anlatacağım
▁операциялар
▁біріктірілген
▁қатысушыларды
▁kullanılabilir
ayi
pat
ğım
▁Ed
▁Ст
илик
оқал
▁(2-
▁doz
▁sos
▁tüp
▁çel
▁Жас
▁пет
Tamam
duced
▁öğle
lation
абының
данады
еленді
▁Hayal
▁hasar
▁ikiye
▁integ
▁kateg
▁ötürü
▁сызық
▁үстем
▁futbol
▁second
▁осыдан
▁Francis
▁атқарып
▁жылумен
▁үлгісін
▁assembly
▁жүргізді
▁algoritma
▁yoksulluk
▁İnsanları
▁көрсетуді
▁мәселенің
▁konuşurken
▁мөлшерінің
қатынастарды
▁problemleri
▁жатқандығын
▁мәселелерге
▁bahsediyorum
▁республикада
▁орталықтарының
▁тәуелсіздігінің
azi
ben
пек
шев
ігі
▁79
mart
▁170
▁Col
▁dra
▁end
▁раз
▁тит
ауына
ылары
▁blog
▁suna
▁ашты
▁жағы
▁қаул
eyerek
▁Temel
▁gelin
▁Демек
▁сүлей
▁тауып
▁sesler
▁yaprak
▁çevrim
▁көрнек
▁түсіру
▁Harvard
▁dediğim
▁organik
▁режимде
▁біртұтас
▁зерделеу
▁кірістер
▁электром
▁gezegenin
▁konuşuyor
▁olmalıyız
▁интеллект
▁әлдеқайда
▁хандығының
▁интегралдық
▁Biliyorsunuz
▁облыстарында
▁қайраткерлері
▁пайдаланушылар
▁субъектілерінің
LA
или
мин
▁iv
▁ир
amak
avüz
ists
tına
атып
▁Kul
▁Müz
▁Sar
▁yir
▁лин
usuna
üzyon
болат
▁Java
▁puan
▁әзер
emizin
ттарға
▁aşkın
▁Ақпар
▁ақуыз
▁дәнді
▁жетіп
▁масса
▁мерді
arsınız
▁hafıza
▁дәлдік
▁коопер
▁үйінді
▁Nijerya
▁council
▁engelli
▁ötesine
tığınızda
▁geçirmek
▁аспаптар
▁концертт
▁ластануы
▁сөйлеген
▁құралған
▁жобасында
▁мәдениетін
▁операторлар
▁теориясының
▁infrastructure
▁министрлігінде
▁ұйымдастырудың
▁ұйымдастырылады
.)
İn
che
gon
түр
▁жэ
etri
▁dah
▁gri
▁сти
білім
▁kare
▁ферм
▁әмір
cinsel
dikten
▁duyul
▁kurgu
▁local
▁tarzı
▁terim
▁кірді
elendir
lamamız
landığı
tığımda
▁асырып
▁экожүй
▁Kendisi
▁dikkate
▁izlemek
▁çıkardı
▁айтатын
▁шығарып
▁ücretsiz
▁şiddetli
▁жеткізіп
▁кездесіп
▁қолдайды
▁elections
▁ережелері
▁табиғатты
▁insanlığın
▁реформалау
▁сенімділік
ebileceğimiz
▁өндірілетін
▁инновациялар
▁өзгерістерге
▁инфрақұрылымы
өб
өр
has
mik
кин
cusu
lıca
tuğu
ults
▁Los
▁Көп
▁амм
▁бүл
▁сәт
ester
işsel
аспор
▁асим
▁дами
lesine
аттама
▁baktı
▁bulgu
▁şehri
▁арман
▁гипер
▁марат
▁сарай
ilerden
данатын
ханалық
▁kuyruk
▁çıkmış
▁İsrail
▁şeffaf
▁болжан
▁сұйықт
▁топтам
▁қоғамы
abiliyor
ramework
▁fırsatı
▁haftada
▁housing
▁yaşamış
▁бойымен
▁Einstein
▁мәндерін
▁сындарлы
▁тағамдық
▁өндіруге
▁берушілер
▁сақталған
▁түйіндеді
▁түрлеріне
▁түсінікті
ebileceğini
▁актілеріне
▁атқарылған
▁дайындауға
▁ережелерін
▁оқушыларға
▁жұмыссыздық
▁табылатынын
▁participants
▁болатындығын
▁тәуелсіздігі
▁көрсетілгендей
▁қаржыландыруға
):
мо
memi
reen
асса
элем
▁Hük
▁Tak
▁Tür
▁koz
▁çöl
▁жұп
danın
румен
▁Kore
▁baya
▁cana
▁okur
▁ниет
едицин
лермен
ысынан
▁alkış
▁antik
▁birim
▁degil
▁denir
▁gidiş
▁istik
▁marka
▁pilot
▁sürdü
▁sınav
▁білік
▁румын
ediğini
▁bekler
▁döndüm
▁mahall
▁olunca
▁rehber
▁Мақала
▁білуге
▁Tamamen
▁express
▁dakikada
▁maliyeti
▁müdahale
▁olasılık
▁sıradışı
▁бейнелеу
▁жерлерді
▁несиелік
▁салықтық
▁қаржылай
▁vereceğim
▁келтіруге
▁шарттарын
▁техниканың
▁ғимараттар
▁araştırmaya
▁olabilirler
▁çalışmaları
▁Экологиялық
▁бағытталады
▁органдармен
▁әріптестікті
50'
▁[3
ozor
ship
üldü
адам
ақым
▁Cam
▁Eyl
▁Sek
▁Zor
▁fig
itary
lenme
ırsak
саяси
▁Asıl
▁Dört
▁akra
▁turn
▁İtal
▁ışın
▁ескі
▁заңы
lanmak
ıldığı
▁kablo
▁kilis
▁unsur
▁гориз
▁күтіп
▁сонда
▁тыныш
▁экран
▁Normal
▁gelmez
▁koruya
▁yapısı
▁адсорб
▁деформ
▁заңның
▁терезе
▁теңдік
▁шектел
▁Dünyada
▁anlatır
▁doğanın
▁адамзат
▁danışman
▁duyduğum
▁бердібек
▁жеңістің
▁әдісінің
▁өткізуді
▁duyuyorum
▁орнатылды
▁реформаны
▁өзектілігі
▁istedikleri
▁жетекшілері
▁agricultural
▁пайдаланылды
▁коэффициенттер
end
жас
anne
ving
дайы
стен
әсіл
▁190
▁Mac
▁піс
tacak
омарт
▁akım
▁saha
▁slay
▁беті
▁кваз
есінен
▁Eylül
▁alıcı
▁etmez
▁hakim
▁сөзін
▁түсіп
▁arayüz
▁оңалту
▁әлеует
▁complet
▁ortamda
▁yönetic
▁çıkacak
▁француз
lenebilir
▁robotlar
▁yerinden
▁академия
▁біркелкі
▁söylemeye
▁арттыруды
▁параллель
▁сипаттағы
▁негіздерін
▁қызметінен
▁enterprises
▁şirketlerin
▁академиясының
▁институционалды
ГІ
mit
сте
▁He
eleb
luğa
wood
проц
▁Bas
▁elb
▁Жоб
▁мағ
▁құю
denin
дануы
озғал
▁NASA
▁made
▁zirv
▁спут
▁суға
emiyor
▁alloc
▁duyur
▁былай
▁дәнек
▁ұстау
lenmesi
аторлық
премьер
ылмайды
ықтарын
▁tatmin
▁vermiş
▁досаев
▁массив
▁пәндік
агниттік
ализация
▁biyoloj
▁intihar
▁temelde
▁vererek
▁факторы
▁формасы
▁қосылуы
▁görmüyor
▁болуымен
▁жолдауын
▁индукция
▁etkiliyor
▁hayatının
▁конфессия
▁логистика
▁сақталады
▁қабылданып
▁antibiyotik
▁nihayetinde
▁жылжымайтын
▁менеджменті
▁пайдаланушы
▁инвесторлардың
-8
DS
▁Ы
adü
aze
ses
yol
ушы
шім
diki
olik
uncu
алап
ілсе
▁Kiş
▁ИСО
▁онк
▁юне
ektif
лылық
▁sezg
▁Üzer
▁бөлм
▁шегі
mazlar
лайтын
▁Atlan
▁legal
▁tohum
▁şahit
▁венгр
▁дыбыс
▁жақып
▁кафед
▁макар
▁медиа
▁Қытай
cilerin
алардан
▁жолдың
▁ұсынып
▁biridir
▁improve
▁senaryo
▁ахуалды
▁бесінші
▁заңнама
▁bireyler
▁giderken
▁işlerini
▁кезеңіне
▁түлектер
▁қытайдың
▁білдірген
▁механизмі
▁техникасы
▁кандидатур
▁өндірісінде
▁байланыстыру
▁кедергілерді
ze
nel
une
жүй
ият
ізб
afor
asız
бург
ентт
ғыны
▁Cal
▁Kaf
▁MIT
▁Sey
▁öle
▁Каз
▁мөл
unuza
▁priv
▁тиек
▁қақп
▁өріс
emeyiz
radaki
▁equip
▁memur
▁testi
▁адами
▁жарат
▁жоқты
▁күріш
▁таным
▁ісіне
▁conduc
▁dizayn
▁taşıya
▁валюта
▁таныту
▁results
▁çarpıcı
▁ürünler
▁Мұндағы
▁дененің
▁концерт
▁birazcık
▁değildim
▁анықтама
▁табыстар
▁қамтылды
▁gözüküyor
▁беріктігі
▁өнімділік
▁fazlasıyla
▁parliament
▁söylediğim
▁yapmalıyız
▁тақырыптық
▁қолданылып
▁significant
▁төмендеуіне
▁istiyorsunuz
▁organization
▁міндеттердің
▁семантикалық
8)
ні
шт
cuk
use
ffer
ilis
ptom
пенд
ініп
▁(10
▁neş
▁vad
▁лаз
müştü
tınız
елігі
халық
▁Altı
▁Beyn
esidir
iliğin
ағанда
▁field
▁yapın
▁yatır
▁yerli
▁çözün
▁алушы
▁бізді
▁нүкте
▁тобын
▁felsef
▁signed
▁азаяды
▁дамуға
▁ресурс
▁gerekti
▁görülen
▁miktarı
▁çoğunun
▁беделді
▁жалпыға
▁кенорын
▁үдемелі
larımızla
▁bilginin
▁dinlemek
▁geleceğe
▁itibaren
▁бастауыш
▁көрінеді
▁тәсілдер
▁халықтық
▁agreement
▁değişiyor
▁hayatımın
▁organizma
▁өндірісте
▁kullandığı
▁жүргізудің
▁мәртебесін
▁құрылымында
▁matematiksel
▁қозғалысының
▁ң
00'
apa
аба
ели
тір
▁92
▁ph
▁sk
▁Ди
arda
lına
ағыз
▁1,7
▁Pas
▁Бай
▁вол
▁лаң
sible
химия
▁kızı
▁otor
▁айып
▁спир
▁қайн
maktır
umuzda
▁Hemen
▁Paris
▁округ
▁оксид
▁қосыл
▁George
▁babası
▁kurduk
▁дүйсен
▁заттың
▁шанхай
▁қаптам
▁biriydi
▁güvende
▁süreçte
▁yarıyor
▁еңбекке
▁нұсқасы
▁қадағал
▁жетіспеу
▁картасын
▁келгенде
▁көзделіп
▁тоннадан
▁траектор
▁қамтудың
▁өзгерісі
президенті
▁aldığımız
▁situation
▁есептерін
▁климаттық
▁сәйкестік
▁федерация
▁büyüleyici
▁olabileceği
▁başkalarının
▁инвесторларды
▁тұжырымдамасын
еұ
cin
idi
▁Мә
Eğer
arız
реля
▁Mut
▁Söy
▁hev
▁rok
▁ені
mekle
ирлеу
▁açan
▁salg
▁бояу
▁есте
▁исек
▁тект
anları
▁Erkek
▁riski
▁üzgün
▁ауысу
▁жоюға
▁смарт
▁құрау
▁kızlar
▁mağara
▁дидакт
▁канада
▁таңдал
ылмайтын
▁balıkçı
▁giriyor
▁ileriye
▁oyuncak
▁алдымыз
▁жиынтық
▁мембран
▁hepsinin
▁içeriyor
▁toplumda
▁yazılmış
▁үйлестір
▁düşünerek
▁kendisine
▁seferinde
▁sistemler
▁аударылды
▁сипаттама
▁шығарынды
▁корпорация
▁шығындарын
▁экспозиция
▁үдерісінде
әбдіқалықова
▁bahsedeceğim
▁düşünüyordum
▁температураға
▁қабілеттілігі
II
ТУ
sim
▁89
▁нм
▁хқ
trib
равл
тылу
▁esk
▁şer
▁Ден
▁Пай
▁Kans
▁пров
▁салт
ilerle
likten
▁areas
▁döngü
▁düştü
▁girip
▁бағам
▁керам
▁іргет
▁Қызыл
erseniz
▁otobüs
▁компью
▁мүлдем
▁сіздер
▁қордан
▁element
▁батарея
▁hayatımı
▁yapıştır
▁станциясы
▁экспортқа
қауіпсіздік
▁activities
▁қалдықтары
▁öğrencilerin
▁департаменті
▁мүмкіндіктерді
▁қалыптастырады
kah
mis
еор
▁рә
arap
dava
iden
алия
▁1,4
▁xxi
leydi
стыру
▁kaza
▁Абай
▁kuram
▁kırıl
▁İsveç
▁автор
▁пайым
▁europe
▁sorduk
▁yaşlan
▁жалған
▁сұхбат
▁тастау
cağınızı
▁aldığım
▁ayrıntı
▁etmiyor
▁gruplar
▁даярлық
▁порталы
▁айқындау
▁görmezden
▁hikâyeler
▁есептейді
▁жалғасуда
▁зерттеуде
отехнология
▁bazılarını
▁қарастырды
▁teknolojisi
▁студенттері
▁денсаулығына
▁кәсіпорындарды
73
yr
-25
мағ
▁ЖШ
ydim
инир
тінд
▁Diy
▁bez
▁caz
▁spe
▁дір
▁төн
▁фак
розия
▁200-
▁bayı
▁içgü
▁ерік
▁скан
dırlar
tuğunu
мандар
▁doğan
▁havuz
▁tipik
▁İklim
▁асыра
▁білуі
▁салау
▁термо
▁ферро
masıyla
ылығына
ықтығын
▁bulmuş
▁direkt
▁ilgisi
▁kazanç
▁koymak
▁millet
▁қолдап
emeyecek
сынылған
▁bugünkü
▁görürüz
▁hiçbiri
▁medical
▁negatif
▁nitelik
▁желінің
▁көкөніс
▁etkisini
▁ihtimali
▁мәселеге
▁талабына
▁gittiğini
▁айларында
▁зауытының
▁сұрақтары
▁әрекеттес
▁өңірлерде
▁istiyorsak
▁жұмыстарға
▁өндірістер
▁gerektiğine
▁тауарлардың
▁ресурстарының
▁эксперименттік
▁коммуникациялар
ET
рж
ain
ced
erm
uda
арц
▁еқ
ahür
alog
atom
▁hol
▁içe
▁len
▁сығ
▁уль
irkin
ologi
▁Geri
▁Hava
▁metr
▁role
▁take
▁тоты
portaj
unları
біріне
стерді
▁among
▁kurtu
▁tesis
▁паркі
▁dinlem
▁edilir
▁mimari
▁teslim
▁құрлық
sunuzdur
▁contrib
▁society
▁айналуы
▁доллары
▁дәлдігі
▁мектебі
▁әбішұлы
Қазақстан
▁Ardından
▁egzersiz
▁görüntül
▁ilişkili
▁inanıyor
▁kaynaklı
▁konuştuk
▁provided
▁ыдырысов
▁doktorlar
▁framework
▁жіберілді
▁bulduğumuz
▁yapabilmek
▁келісімдер
▁мерзімінен
▁студенттің
▁әзербайжан
▁тараптардың
▁энергетикасы
▁қабілеттерін
▁değişiklikler
An
mr
зд
мы
alk
düz
▁5.
ardı
azak
nden
серв
фоли
▁Gal
▁aff
▁duv
▁ran
▁Бақ
▁лек
veren
▁алда
▁қатт
▁Etraf
▁begin
▁civil
▁doğur
▁facil
▁форму
▁deneme
▁okumak
▁oynaya
▁pencer
▁çıkart
▁автобу
▁dönelim
▁çekiyor
▁кестесі
▁күнімен
▁танытып
▁көпжақты
▁модельді
▁қамтыған
▁kullandık
▁olursunuz
▁теңсіздік
▁қабатының
▁қорғаудың
▁fikirlerin
▁istediğini
▁диагностик
▁мақсатымен
▁mühendislik
▁özellikleri
▁мүшелерінің
▁негізделеді
▁терроризмге
▁аудандарында
▁консультация
▁демократиялық
▁шаруашылығында
МД
nex
ediy
here
ural
ымыр
▁104
▁60'
▁Пол
▁рев
▁рот
meyin
акуум
етика
сенді
▁архе
▁этно
ilecek
inizle
▁Gezeg
▁tanın
▁varol
▁vurgu
▁карди
▁самми
станция
шылығын
▁associ
▁matema
▁oluruz
▁oynama
▁ışığın
▁барады
▁орасан
▁сөйлем
▁юнеско
mediğini
▁bakacak
▁etrafta
▁evlilik
▁mekanik
▁olmakla
▁semptom
▁yarattı
▁генерал
▁мұражай
▁қоғамды
▁deneyimi
▁мерзімде
▁солардың
▁салынатын
▁шараларға
▁оқушыларды
▁болатындығы
▁талқыланады
▁ilişkilendir
▁ресурстардың
▁интеллектуалдық
▁мемлекеттерінің
рил
▁82
▁bı
Amer
illi
▁19.
▁2,2
▁4,5
▁göv
▁çür
▁Тұр
▁ағы
▁наг
▁ших
майды
рафик
▁офиц
▁өтеу
usunda
елерде
жомарт
роскоп
▁Ander
▁eklem
▁panel
▁sunum
▁амбул
▁геоде
▁жабық
▁Eğitim
▁Tahmin
▁hayret
▁дұрыст
▁көптеп
▁мақала
▁сақтай
▁қабаты
▁adamlar
▁başkanı
▁doktora
▁etmekte
▁kapital
▁yaralan
▁егістік
▁derinlik
▁kazanmak
▁tasarımı
▁инфляция
▁қазандық
технология
▁Teknoloji
▁alanlarda
▁buradayım
▁discussed
▁kullanıla
▁yenilikçi
▁öncelikle
▁машиналық
▁göstereyim
▁veriyorlar
▁şirketleri
▁кеңістіктік
▁қасиеттеріне
▁антропогендік
▁kullanabiliriz
35
инт
сем
тәр
▁je
▁kâ
okra
абар
абын
авиг
амер
сары
▁Fot
▁төб
▁Bill
▁each
▁frek
▁fund
▁must
▁ölen
▁басы
emeyen
деткіш
кетану
▁Beyaz
▁döner
▁idare
▁miydi
▁Батыс
▁айына
▁интен
abilmek
ladığım
ілмейді
▁minnet
▁кірпіш
▁модерн
▁салмақ
▁шексіз
қимылдың
▁gitmeye
▁ölçekte
▁инженер
▁мегапол
▁әдіснам
▁biyoloji
▁kızların
▁makinesi
▁saniyede
▁kuralları
▁çoğunluğu
▁оқушылары
▁тапсырылды
▁тағайындал
▁тақырыптар
▁жағдайларға
▁кәсіпорында
▁орындалатын
▁радиациялық
▁bilgisayarlar
▁экономикадағы
▁қанағаттандыру
жы
иж
жоб
кул
ойл
сіл
▁Th
▁гл
ингв
ойын
▁2,3
▁Güç
▁cha
▁çay
▁Кең
▁бүй
▁шах
araya
отерм
тилен
түсті
▁adop
▁batı
▁Yaşam
▁aimed
▁ilgil
▁метан
▁сегіз
▁қалау
икандық
ылыстан
▁ailesi
▁geçici
▁savaşı
▁tarafa
▁toplan
▁қыздыр
ығындағы
▁Angeles
▁Kendimi
▁aldılar
▁hepiniz
▁tecavüz
▁yumuşak
▁көтерме
▁реактор
▁қиындық
duğunuzda
▁edilemez
▁endüstri
▁evrimleş
▁hastalar
▁hastanın
▁жанармай
▁назарына
▁ойлаймын
▁тұтастай
▁қызықтыр
равликалық
▁sistemine
▁yollarını
▁жеткізуді
▁отырысына
layabiliriz
▁edebilecek
▁çalışmanın
▁жіберіледі
▁жағдайларын
▁индустриялды
CE
CO
ES
рм
enn
оне
тап
▁ит
arik
emde
rana
▁106
▁2,6
▁Тар
▁лиз
▁іім
lerse
стана
▁AIDS
▁cüml
▁graf
▁лаңк
▁мақт
luğunu
ımdaki
▁Rusya
▁bakan
▁bilen
▁eseri
▁girer
▁iyisi
▁yanlı
▁zorun
▁Энерг
▁телім
diğince
еттерде
▁Sistem
▁sonuca
▁yapmaz
▁yönden
▁одаққа
▁табады
▁istekli
▁kazandı
▁çözmeye
▁идеясын
▁негізге
▁қосатын
▁büyükann
▁сапармен
▁radyasyon
▁швейцария
▁қолданылу
▁olabileceğ
▁жасалынған
▁көрсетіліп
▁gelecekteki
▁ардагерлері
▁металдардың
PR
кси
▁CR
itte
деме
еңіз
▁Tom
▁гал
▁шер
индік
▁cour
▁kahv
▁life
▁әсет
▁Hikay
▁memel
▁proto
▁çekti
▁çeliş
▁грант
▁жапон
▁жарыс
▁жасам
▁көрші
▁нығаю
▁сәуле
▁alınan
▁inşaat
▁müziği
▁ассоци
▁қылмыс
▁әкеліп
▁өкілді
lamaları
дентифик
▁konular
▁uzaktan
▁автоном
▁ризашыл
▁dersiniz
▁taraftan
▁özgürlüğ
▁екіншісі
▁құжаттам
▁үлгілері
▁ilgilidir
▁öğrenmeye
▁серіктесі
▁edebiliyor
▁hastaların
▁органдарына
gs
ОР
azı
olf
ves
әул
▁01
▁Ör
amda
mall
unch
ğini
▁90'
▁Git
▁Kab
▁Mas
▁çub
▁экв
etrik
антты
▁Kong
▁Roma
▁Ulus
▁serg
▁sine
▁учас
▁қазб
ırtıcı
ттерін
▁Басқа
▁акуст
▁кедей
▁күйін
▁hormon
▁yaşına
▁мульти
▁персон
▁реаген
▁сапаны
отикалық
▁Richard
▁gürültü
▁provide
▁saatlik
▁жасалын
▁тамызда
▁belirgin
▁teleskop
▁yaparlar
▁yıllarca
▁жасаудың
▁исекешев
▁көрермен
▁рәсімдеу
▁қалалары
▁kabiliyet
▁елорданың
▁енгізудің
▁кезеңдері
▁облыстағы
▁шектелген
▁geçtiğimiz
▁çeşitliliğ
▁бақылаудың
▁мақсатымыз
▁тетіктерін
▁топтарының
▁құжаттарға
▁салаларының
▁çalışıyordum
▁Компьютерлік
▁конференцияға
▁қызметшілердің
ie
лдық
тура
қыма
▁GPS
▁Gar
▁nas
▁ret
▁yuv
▁Пар
▁дәй
▁шыр
генде
тылды
▁[10]
▁auth
▁hipo
▁жетп
▁пост
дерлік
ылмалы
▁allow
▁bariz
▁harik
▁özgün
▁Еуроп
▁жинал
▁кейде
▁текше
▁тұсау
meliyim
екторын
ырылған
▁alabil
▁uyumlu
▁Кейбір
▁ашылып
▁интерн
▁мұқтаж
▁сербия
malarına
▁ikisini
▁olurlar
▁sürüyor
▁taşıyor
▁жақсару
▁теңгесі
▁істеген
▁ұлғайды
▁bilişsel
▁жағымсыз
▁жолдауда
▁талдауға
▁тасымалы
▁қашықтық
▁үйлердің
▁düşünelim
▁farkettim
▁sınırları
▁жоспарына
▁тапшылығы
▁өндіріске
▁birbiriyle
▁дамытудағы
▁кездесудің
▁көрсетудің
▁Электрондық
▁айналымының
▁araştırmalar
▁шеңберіндегі
▁элементтерінің
.'
АМ
ack
oid
рен
роф
ряд
▁Bo
▁Ot
▁oc
▁лу
esan
абол
аста
ікте
▁Hav
dığın
атқыш
▁Hala
▁açar
▁biyo
▁tons
▁анти
▁бирж
▁жері
▁күйі
▁суда
▁тама
unuzda
сімдік
▁Beyin
▁Evren
▁basis
▁mıydı
▁taciz
▁Кәсіп
▁конди
▁күнді
▁эмуль
аттарға
шылықты
▁bulama
▁differ
▁tesadü
▁газдың
▁ежелгі
▁препар
организм
▁Merkezi
▁düşünen
▁eğlence
▁malzeme
▁türleri
▁şeklini
▁бетімен
▁моноқал
▁үміттен
▁gelmişti
▁geçmişte
▁бұйымдар
▁элементі
▁астаналық
▁болашағын
▁минималды
▁өкілеттік
▁авиациялық
▁hastalıkları
▁жалғастыруға
▁қызметтерінің
Па
ғм
аза
дос
cısı
priz
және
▁Seç
▁Vir
▁hit
▁sön
▁şik
▁фит
cımız
tific
▁Mark
▁[12]
▁deri
▁Одан
▁сцен
▁Yoksa
▁göğüs
▁istih
▁joint
▁reach
▁радиу
luğunda
lıyordu
атындай
етіндей
▁havada
▁kaznex
▁soruya
▁çocuğa
▁бұлтты
▁никель
▁Birinci
▁dönüyor
▁gazetec
▁günümüz
▁kalacak
▁kararlı
▁tiyatro
▁topluma
▁vereyim
▁Орталық
▁берікті
▁иеленді
▁istasyon
▁kurallar
▁military
▁mutluluğ
▁oluyordu
▁röportaj
▁öncesine
▁инвестор
▁нәтижеге
▁фестивал
▁құжаттың
▁kurtarmak
▁pazarlama
▁үрдісінің
▁әзірлеуге
▁profession
▁көміртекті
▁делегациясы
▁жеткізіледі
▁ұсыныстарды
▁реформаларды
▁organizations
▁Қазақстандағы
▁байланыстардың
▁yapabileceğimiz
▁фармацевтикалық
уш
The
zet
üğü
шаң
▁Cu
▁ii
▁гу
▁Stu
▁fer
▁jan
▁job
▁rev
▁ömr
▁Şeh
▁ими
iyatı
lıklı
баған
індей
▁Emin
▁diya
▁hadi
▁окси
▁тірі
ahürat
emizde
sızlık
хронды
▁James
▁düşen
▁enteg
▁kaybı
▁sabır
▁small
▁төңір
▁ұдайы
▁әбдір
аландыр
▁gücüne
▁russia
▁көздеп
▁өмірге
▁binanın
▁devamlı
▁değilse
▁gördüğü
▁olaylar
▁sisteme
▁белсене
▁дәрумен
▁кеуекті
▁нейтрон
▁растады
▁табылды
▁танытты
▁bebekler
▁creation
▁dördüncü
▁geldiler
▁merhamet
▁алқаптар
▁реттеуге
▁талқылап
▁трансфер
▁etmeliyiz
▁nüfusunun
▁лаңкестік
▁нарығының
▁Böylelikle
▁Genellikle
▁қашықтықта
▁yapabiliyor
▁келтіріледі
▁zorundasınız
▁жағдайлардың
▁нәтижелеріне
▁процестердің
▁қарастыратын
7'
do
жк
aha
att
uğu
рды
сқа
▁ді
ayıp
uyuz
АЛЫҚ
әкір
▁1,8
▁2,7
▁3,2
▁Com
▁Kas
▁May
▁lam
▁reç
▁гум
▁дей
▁лат
▁ұэм
.000'
eliği
▁1500
▁3000
▁arzu
▁ayna
▁rüzg
асатын
никтік
істегі
▁oğlum
▁Şehir
▁беруі
▁нұсқа
ologies
▁Geçmiş
▁kasaba
▁yangın
▁yazmak
▁астамы
▁ағынын
▁базаны
▁жөндел
▁мұқият
▁іргелі
eceğimiz
▁bakmaya
▁elektro
▁vücudun
▁yardımı
▁çoğumuz
▁жаңашыл
▁спикері
▁тиімсіз
lerimizde
▁beslenme
▁gelmiyor
▁merdiven
▁sayısını
▁sivrisin
▁дәлелден
▁мәслихат
▁оқиғалар
▁financial
▁genelinde
▁hissettiğ
▁keşfettik
▁белгілері
▁жұмылдыру
▁меңгерген
▁модельдері
▁әкімшілігі
▁анықталатын
▁мамандарының
▁karbondioksit
▁modernization
▁компанияларды
▁қатынастардың
PI
asi
ona
піз
▁2)
mail
ımla
▁80'
▁Mal
▁bür
▁fol
▁бғм
▁дис
▁үеұ
иалды
ропав
сімен
улері
▁Kötü
▁fizi
▁nota
▁prim
▁көне
▁түсп
indows
tılmış
▁aynen
▁bulan
▁durup
▁çoğal
▁Зертт
▁кеңей
lanacak
malıyım
ыстарын
▁havalı
▁Önemli
▁мәндер
▁типтік
▁турбин
▁аймағын
▁аудитор
▁банктер
▁етпейді
▁еңбекті
▁жастағы
▁практик
▁режимін
▁kapsamlı
▁oluyoruz
▁tedavisi
▁сайлауды
▁өндіруді
▁anlatmaya
▁esnasında
▁keresinde
▁çıkarıyor
▁ластанған
▁салауатты
▁қатарынан
▁үлгілерін
▁келісілген
▁кеңістікте
▁орындалуын
▁gerçekleşen
▁kolaylaştır
▁абаттандыру
▁тақырыбында
▁қалыптасады
▁елдеріміздің
▁транспорттық
▁қазақстаннан
▁мемлекетіміздің
гы
иш
ame
dev
идж
▁61
▁эф
azik
арий
ыдыр
▁had
▁tim
▁Жар
▁игі
ersek
детте
▁1995
▁felç
▁kıla
▁reli
▁task
▁болг
▁мәжб
▁шикі
▁Labor
▁değin
▁heves
▁işten
▁kalem
▁refer
▁баспа
▁тимур
▁қояды
▁Darwin
▁biçimi
▁harcan
▁yeryüz
▁İlginç
▁дамуда
▁жиында
▁топтық
гізілген
▁aklımız
▁büyüdüm
▁congrat
▁kültürü
▁sonuçta
▁Болашақ
▁ғимарат
▁әзірлем
▁Anderson
▁enerjiyi
▁numaralı
▁programs
▁экспорты
▁электрод
▁ғылымның
▁өткізген
▁alıyorlar
▁hızlandır
▁tamamıyla
▁İnanılmaz
▁араластыр
▁ақпаратқа
▁байқаудың
▁бағалауды
▁процестің
▁тереңдігі
▁шамасында
▁қалаларда
▁hastalığın
▁şekillerde
▁зерттеулерді
▁ерекшеліктеріне
oms
ван
оид
raph
stra
▁450
▁Ham
▁Sim
▁sep
▁zaf
▁Мәс
▁мкм
▁оск
▁рад
lunun
бегін
▁2021
▁asit
▁ayda
▁dişi
▁five
▁kana
▁örüm
▁Эксп
▁воль
сиялық
▁direc
▁Öğret
▁çağrı
▁жоғал
▁кеңею
▁мәнді
▁супер
▁центр
▁үндеу
memişti
ларынан
ылардың
қабатты
әлемдік
▁Millet
▁baktık
▁birçoğ
▁patent
▁yeteri
▁апатты
▁күштер
▁gençler
▁insanla
▁present
▁дамытып
▁нысанды
▁ойындар
▁суларды
▁kusursuz
▁normalde
▁уақыттың
▁yapmaları
▁kullanabil
▁құрылыстың
▁söylüyorlar
▁yaratıcılık
▁participation
▁жеңілдетілген
▁компаниясымен
▁өсімдіктердің
eff
▁Ex
baba
елеп
▁105
▁2,9
ready
адмий
▁Anne
▁ifad
▁kuru
▁prov
▁айға
madığı
▁kucak
▁motiv
▁tahta
▁times
▁where
▁біраз
▁жиыны
▁орден
▁әңгім
▁bedava
▁айынан
▁бұзылу
▁кепілі
▁контин
▁көбейт
▁karşıtı
▁metafor
▁started
▁yakında
▁yapılar
▁асфальт
▁бағаның
▁көрмені
▁kullanış
▁kısmında
▁ülkedeki
▁ережелер
▁рейтингі
▁шешімнің
▁kalabalık
▁keşfetmek
▁yapılacak
▁жетістігі
▁қоғамдағы
▁geliyorlar
▁jenerasyon
▁жекеменшік
▁айырмашылық
▁аймақтарында
▁кеңістігінде
▁студенттерге
▁ақпараттандыр
▁конференциясы
▁мәселелерінің
▁өнеркәсібінде
6'
AN
ss
за
нт
оч
örf
уді
ісу
▁(0
Peki
ilde
ings
ılda
аева
▁(3)
▁Don
▁ora
▁tad
▁Іле
▁Оны
▁мжә
▁паш
▁тұқ
madık
ruyor
ıplak
айсыз
некті
▁bire
▁conc
▁iniş
▁алқа
▁kızın
▁sömür
▁temin
▁water
▁Көмір
▁Содан
▁айдың
▁жарақ
▁жолды
lerimin
ministr
▁Buraya
▁hoşlan
▁oluşum
▁süreli
▁yaraya
▁кафедр
▁оқулық
▁тенден
▁қаруды
▁Laborat
▁carried
▁değişir
▁sihirli
▁берілуі
▁отынның
▁цилиндр
▁başlangı
▁contribu
▁kendimiz
▁verdiğim
▁ашылуына
▁етілетін
▁көтеруге
▁сезімтал
▁тиісінше
▁тілеймін
▁қазақтың
▁dayanıyor
▁görülüyor
▁yetenekli
▁барысымен
▁төрағалық
▁шикізатты
▁congratula
▁destekleyen
▁процестерін
▁сарапшылары
▁қалаларының
▁индикаторлар
▁диагностикалау
29
ex
ЕС
don
oks
tig
дім
▁Gi
▁yo
uary
нықт
▁40-
▁Hey
▁hek
▁lot
▁акк
▁жор
▁кос
ильді
мәсім
▁Bang
▁aşık
▁адал
▁бұйр
▁мүмк
▁саяб
▁сыни
▁хқко
ekleri
ымбаев
▁Latin
▁damla
▁invol
▁istis
▁legis
▁tutku
▁türde
▁құрды
▁ұшқыш
akistan
▁keskin
▁respon
▁vadede
▁varmış
▁алаңда
▁асимпт
▁балама
▁бермеу
ліметтер
ылығының
▁january
▁onlarca
▁Üstelik
▁çaresiz
▁адамнан
▁баланың
▁сөндіру
▁үйлерді
▁birinden
▁umuyorum
▁айтылады
▁алмасуға
▁зейнетақ
▁мысалдар
▁үрдісіне
▁Francisco
▁currently
▁бетіндегі
▁идентифик
▁келешекте
▁компонент
▁көміртегі
▁өткізудің
▁bakteriler
▁hücrelerin
▁university
▁келісімшар
▁функциясын
▁қалалардың
▁gösterdiğim
▁hareketleri
▁teknolojiye
▁көлеміндегі
▁басшыларымен
▁değiştirebilir
▁өндірушілердің
ER
кү
ифр
кеп
укл
▁aj
▁Әс
gıcı
okul
orta
ozom
арқа
сивт
▁Böl
▁CEO
▁çığ
▁АКТ
▁Мик
▁баә
▁оқо
unlar
çılar
актор
ярлық
▁2003
▁Doğr
▁hâli
▁kütl
▁same
▁Ölüm
▁şuna
▁Атап
▁амин
▁биом
▁моңғ
▁мұра
▁түрл
uclear
ығынан
▁Apple
▁alkol
▁nesne
▁oynat
▁tavuk
▁терге
▁қимыл
▁қолда
▁үйкел
▁aramız
▁gergin
▁аналог
▁курсын
▁сыйлық
▁тамаша
▁эксплу
шылықтың
ылыстану
▁dinozor
▁gizemli
▁hücresi
▁insanoğ
▁kategor
▁tüketim
▁секторы
▁қамтуға
▁büyüklük
▁şirketin
▁бұзылған
▁дақылдар
▁көктемгі
▁сараптау
өндірістік
▁Birleşmiş
▁verebilir
▁жануарлар
▁жасалынды
▁жөндеуден
▁климаттың
▁этникалық
▁қызметтік
▁gelişmeler
▁жаңғыртуға
▁иондарының
▁тапсырманы
▁барысындағы
▁ықпалдастық
▁объектілерді
▁министрлігіне
▁республикасында
эр
bak
red
гел
унд
қас
▁ТЕ
ason
emiş
süel
tılı
ward
▁may
▁рау
▁Қаб
▁ұос
memek
▁işit
uluyor
▁arttı
▁sürüc
▁vergi
▁önyar
▁видео
▁жанар
▁кәрім
▁мойын
▁түрге
▁шағым
tabilir
▁annesi
▁duymak
▁istism
▁yoldan
▁атайды
▁грузия
▁оларда
▁сезімт
▁Sonraki
▁already
▁anlatan
▁düşünül
▁düşüyor
▁members
▁sahnede
▁жанынан
▁Birlikte
▁building
▁derinden
▁protesto
▁yaşamaya
▁анықтады
▁атқарған
▁аудандар
▁өңірінде
▁döneminde
▁görebilir
▁iletişime
▁istediler
▁strategic
▁topluluğu
▁мажарстан
▁толтырғыш
▁uzaklaştır
▁анықтаймыз
▁бағыттарды
▁орналасады
▁тапсырамын
▁öğrencileri
▁жобаларының
▁бағдарланған
▁қалдықтардың
▁инвесторларға
ae
Hey
fac
омо
пин
уші
▁MR
▁tö
▁üm
ивал
▁103
▁log
▁nor
▁ust
▁мор
ordin
stani
zaman
zırda
изнес
көлік
лінше
транс
▁Hast
▁ardı
▁cust
▁prog
▁çatı
ederal
eliğin
▁duruş
▁hariç
▁konse
▁okulu
▁yerin
▁аясын
▁емдік
ектерін
ентация
мәсімов
шілерді
▁export
▁havaya
▁hayali
▁months
▁tavsiy
▁атақты
▁конвер
ологиясы
▁geçirdi
▁odadaki
▁savunma
▁videoyu
▁üretimi
▁патриот
▁тізімін
▁ғылымды
▁bekleyen
▁cultural
▁district
▁kabullen
▁resimler
▁söyledik
▁бауыржан
▁бюджетті
▁жұмылдыр
▁мейлінше
▁нүктелер
▁Biliyorum
▁açıklamak
▁biliyordu
▁medeniyet
▁noktaları
▁амплитуда
▁желілерді
▁кәсіподақ
▁өзгертуге
ализациялау
▁baktığımda
▁bölgesinde
▁академиясы
▁төзімділік
▁қызметімен
▁төмендетеді
▁қабылдайтын
▁функциясының
АУ
ПТ
200
Biz
nam
жақ
онс
қой
▁ОҚ
▁ош
asıt
ayip
ides
isti
tezi
ılış
амин
▁Sin
▁mül
▁raf
▁теж
▁том
estic
mayız
дария
еттеу
ломер
▁anki
▁atış
▁bant
▁kedi
▁öden
▁ömür
eliyiz
▁being
▁favor
▁human
▁kavga
▁minik
▁muciz
▁piyan
▁tarla
▁yolun
▁керем
▁пункт
▁Birisi
▁bilinc
▁derken
▁duyduk
▁nation
▁yansıt
▁yoksun
▁çirkin
▁Табиғи
▁пайдал
▁теңгер
▁түзілу
▁Tasarım
▁anlıyor
▁gelmeye
▁sınıfta
▁yaratır
▁атқарды
▁зерттеп
▁тұрғыны
▁қаржыны
▁bildiğim
▁domestic
▁projeler
▁басталып
▁ескерсек
▁жауаптар
▁командир
▁тіркелді
▁шешіледі
ақпараттық
▁заңнамаға
▁музыкалық
▁облыстары
▁қаражатты
▁үзіліссіз
▁әрқайсысы
▁kaybediyor
▁kendisinin
▁жылдарында
▁жәрдемдесу
▁аймағындағы
▁денсаулығын
▁үстіміздегі
▁değiştirmeye
▁марапатталды
▁мемлекеттері
▁азаматтарының
▁перспективалы
▁әкімшілігінің
▁диагностикалық
▁қызығушылықтар
мп
ila
ғат
aban
dıma
ndan
ound
атов
ағаш
▁ЖШС
▁Сап
▁ашы
▁дон
▁куб
дықты
ланып
▁ilac
▁uçan
▁омар
▁прот
старын
▁atmak
▁chair
▁izlem
▁şüphe
▁Сонда
▁Топыр
▁ашқан
▁демеу
▁мақта
▁нейро
▁штейн
▁қанша
ilmişti
▁kısaca
▁yıkıcı
▁üreten
▁картоп
▁танысу
▁ұйымға
▁değişen
▁işlerin
▁soruyor
▁yaparız
▁önemsiz
▁күйдіру
▁қосылып
stitution
▁akademik
▁parçalar
▁transfer
▁öylesine
▁балабақш
▁гидролиз
▁енгізген
▁мәжілісі
▁қабаттың
▁gidiyoruz
▁tarihinde
▁veriyorum
▁İnsanlara
▁атқарылып
▁бесжылдық
▁сапарының
▁değiştirir
▁байытылған
▁таныстырып
▁құрылымына
▁arkadaşları
▁департамент
педагогикалық
▁sağlayabilir
▁стратегиясының
▁representatives
7-
85
эф
abı
ena
▁Ga
▁өш
embe
gide
ways
елуі
▁cas
▁dua
▁kov
▁non
▁миг
etler
seler
ивтік
сінен
▁ilan
likler
▁ayırt
▁dağın
▁somut
▁would
▁кинем
▁майлы
ılmıştı
▁Pekâlâ
▁güncel
▁makina
▁sermay
▁бермек
▁тіліне
▁ұзынды
liğinden
▁babamın
▁projesi
▁schools
▁tanıdık
▁tedarik
▁tehlike
▁жатқаны
▁жеткізе
▁Өйткені
landığını
форматика
▁başlamış
▁бөлігіне
▁диалогты
▁жұмыртқа
▁пайыздан
▁шығаруды
▁өркендеу
▁allocated
▁dayanarak
▁барлығына
▁елдеріміз
▁көтерілді
▁программа
▁сенатының
▁туризмнің
▁уағдаласт
▁қоғамының
leştirilmiş
▁gerektirir
▁istediğimi
▁koleksiyon
▁жүргізетін
▁мүдделерін
▁мәжілістің
▁сүлейменов
▁тәжірибеде
▁тәртібінде
▁функцияның
▁competition
▁журналистер
технологиялық
▁değiştirecek
▁парламентінің
▁қызметкерлерді
by
ие
ira
йды
оса
▁Ac
▁ИҚ
berg
гнит
ымын
▁Adı
▁Haf
▁Söz
▁çak
▁Жыл
▁ыды
▁2001
▁asia
▁send
▁Арал
▁браз
▁сахн
▁өтем
dirler
ilikon
▁Fizik
▁acaba
▁kesim
▁yayım
▁çeker
▁дүкен
▁пәнін
▁суару
▁тілде
ималдық
ологтар
▁Christ
▁author
▁konser
▁requir
▁sphere
▁titreş
▁ölüyor
▁дизель
▁ендіру
▁кетеді
▁метрді
▁салуды
▁тарапы
▁трансф
▁ұқсаст
аборатор
ттерінің
▁Android
▁құжатты
игиеналық
▁Kadınlar
▁bulduğum
▁deneyler
▁enerjisi
▁бейімдеу
▁жалғасын
▁жаңғыруы
▁кеңесіне
▁мезгілде
▁отырысқа
▁қаладағы
▁ayrıcalık
▁dışındaki
▁geleceğin
▁амбулатор
▁жүктелген
▁кезеңдегі
▁көздейтін
экологиялық
▁Devletleri
▁hikayesini
▁kullanılır
▁басымдылық
▁дамуындағы
▁implemented
▁investments
▁kazakhstani
▁olmayabilir
▁айқындалған
▁трансұлттық
▁кемшіліктері
▁қамсыздандыру
▁araştırmacılar
4'
бие
мүш
пұл
▁(3
▁Ju
bağa
utin
алов
емел
▁due
▁Şim
▁даң
istin
иктер
ұндай
▁0,55
▁1992
▁rolü
▁çıka
▁özür
▁вари
▁сиыр
menize
ылыққа
▁Henüz
▁елдік
▁сипат
▁Cumhur
▁Dikkat
▁Enstit
▁arayış
▁bodies
▁kısmen
▁motive
▁кетсек
▁тоқтат
▁шалғай
▁шиелен
▁қатыса
▁құраса
шылығына
▁yazmaya
▁америка
▁әрекеті
алдарының
▁gerçekçi
▁sentetik
▁азайтады
▁ауданның
▁отыратын
▁тараптың
▁қайтадан
▁магистран
▁маңындағы
▁әзірленіп
▁hayvanları
▁olabiliyor
▁әкімдігінде
қатынастардың
▁бастамаларды
▁түрлендіргіш
▁тәуекелдерді
▁ұйымдастырды
▁teknolojileri
▁мекемелерінің
▁параметрлерінің
şır
гия
▁9-
▁Іш
▁лю
▁115
▁Can
▁Gir
▁Jon
▁bük
▁how
emesi
ганец
▁food
▁gemi
▁like
▁show
eğinde
üncüsü
этилен
▁adeta
▁odaya
▁дәріс
▁нағыз
ауқатын
▁açıyor
▁coğraf
▁imkanı
▁ülkeye
▁алгебр
▁оркест
▁режимі
▁салған
▁топтың
▁фильтр
ildiğini
isindeki
▁Charles
▁gelmesi
▁verildi
▁yapılır
▁бағытты
▁дүниеге
▁жағымды
▁талдауы
▁тараған
▁қарасты
▁құтқару
▁arabalar
▁biriktir
▁evrimsel
▁haberler
▁koruyucu
▁бесжылды
lerimizden
алықаралық
▁parçalara
▁дайындығы
▁есептеуге
▁желілерін
▁жәрдемақы
▁кітапхана
▁мобильдік
▁шешімінің
▁böylelikle
▁kullanmayı
▁olmasından
▁арттырудың
▁баяндалған
▁бағытталды
▁келтірілді
▁сенаторлар
▁шешімдерін
▁индустриясы
▁көрсеткішке
▁энергиясына
▁құжаттардың
▁өткізгіштік
▁қасиеттерінің
▁қолжетімділік
▁өнеркәсібінің
▁жауапкершілігін
го
ray
▁(9
▁7-
▁8-
hael
ücük
баға
йынш
ософ
▁Hız
▁Фур
▁мәр
▁үйі
▁just
▁mahr
▁nöro
▁yurt
▁грек
▁диаб
▁фраг
ateral
▁Anlaş
▁Hasta
▁Haydi
▁Hedef
▁izlen
▁kayda
▁kaygı
▁yirmi
▁белор
▁мұхам
▁тасым
▁таулы
▁түбір
lığımız
стердің
▁bayağı
▁bugüne
▁grubun
▁iPhone
▁kararı
▁mesajı
▁доктор
▁магнит
▁тізбек
▁Windows
▁bileşen
▁oynamak
▁yaramaz
▁тренинг
▁шетелде
▁edeceğim
▁planlama
▁çocukken
▁мазмұнды
▁практика
▁салмақты
▁тұлғалық
▁әкелетін
▁gerekecek
▁hayatımda
▁kelimenin
▁Солтүстік
▁бақылаушы
▁сақтаудың
▁қосылатын
▁hatırlıyor
▁нығматулин
▁отырысының
▁статикалық
▁қысқартуға
▁değiştiriyor
▁düşünürseniz
▁gerektiriyor
▁technologies
▁çocuklarının
Cl
пп
пә
ied
мал
▁ла
▁на
Bunu
edia
еліп
▁10'
▁Far
▁Pan
▁mit
▁Бұр
▁Гид
▁Тек
değer
малау
▁avcı
▁elle
▁göze
▁sera
▁üstü
▁инер
▁кеше
anlığı
қыркүй
▁Robot
▁aklım
▁celeb
▁dönen
▁dönüm
▁ekmek
▁elini
▁gizem
▁ilacı
▁kader
▁nazik
▁power
▁zemin
▁жазық
▁кварц
▁күнін
ациясын
еттерге
металық
ордалық
▁accoun
▁amaçlı
▁fabrik
▁koltuk
▁koyduk
▁result
▁мәжбүр
▁тілдік
▁тұрмыс
▁қатары
▁өрнект
ınızdaki
оникалық
струкция
▁Telefon
▁complex
▁dağıtım
▁history
▁mahalle
▁nuclear
▁sürpriz
▁çoğunuz
▁корреля
▁ұсынуға
▁өкілдік
▁Pakistan
▁kırılgan
▁болжамды
▁үлгідегі
▁bulabilir
▁equipment
▁moleküler
▁алматының
▁капиталға
▁реттейтін
▁электрмен
▁ұлтаралық
▁yetenekler
▁çevresinde
▁байланыста
▁мемлекетке
▁әдістеріне
▁бағыттардың
▁нарығындағы
▁ведомствоның
▁түрікменстан
▁пайдаланылған
▁конференциясына
avi
ern
irs
içi
que
tiy
екі
cını
едік
йкес
қалы
▁azı
▁ens
▁fes
▁kin
▁tax
▁çor
▁Сыз
▁алк
▁ойн
аудың
бетон
тынан
▁1998
▁Bank
▁Türk
▁alık
▁ağız
▁elem
▁güce
▁koku
▁prac
▁Doğal
▁Hangi
▁Video
▁after
▁aslan
▁koyun
▁slayt
▁üyesi
▁ısrar
▁Заман
▁біреу
▁ветер
▁сейсм
▁сулар
▁фотос
▁өсуін
masıdır
miyordu
ағалиев
тәжіриб
▁kayded
▁mürekk
▁propos
▁ulaşım
▁vadeli
▁жетуге
▁жұмсау
▁онымен
▁тудыру
▁құрылу
mayacağı
sinizdir
▁bıraktı
▁арттыра
▁олармен
▁қарауға
▁қоспасы
▁қуанышт
▁өңдеуші
▁bölgeler
▁sonradan
▁yeteneği
▁алушының
▁қашықтан
▁қоректік
▁қорғауды
▁өңдейтін
▁administr
▁olacaklar
▁енгізіліп
bilecekleri
механикалық
▁Yaptığımız
▁bölgelerde
▁жағдайының
▁нормативті
▁өкілдеріне
▁sınıflandır
▁yapabileceğ
▁модификация
энергетикалық
▁diğerlerinin
▁кеңістіктегі
▁heyecanlandır
lab
фун
▁BM
▁öv
▁İm
егіш
едит
инер
умен
цикл
▁70'
▁Keş
▁kaş
▁sum
▁yel
▁ЖОО
▁Сер
▁абс
▁дәм
aktif
anızı
efore
ustur
алмақ
жарақ
умуля
▁Mate
▁anım
▁evin
▁niye
▁енуі
▁açmak
▁dağıt
▁gücün
▁içten
▁kayde
▁neydi
▁torun
▁verip
▁yazma
▁отыра
▁сезін
▁шығуы
duction
likleri
кінішке
рленген
▁dönmek
▁dükkan
▁girdim
▁kötüsü
▁member
▁meşhur
▁okudum
▁бойына
▁құруда
ниверсит
ттарының
▁beklent
▁diyordu
▁işareti
ықтарының
электрлік
▁azaltmak
▁konuşmam
▁oyunları
▁projenin
▁seviyesi
▁yapısını
▁Пайдалан
▁несиелеу
▁эксплуат
▁ettiğiniz
▁minnettar
▁бұзушылық
▁bilinmeyen
▁hatırlayın
▁бағаланады
▁жұмсалатын
▁жұмысшылар
▁тәртібінің
▁өңіраралық
▁öğretmenler
▁акустикалық
▁директорлар
▁құралдардың
▁бірлестіктер
▁көшбасшылары
▁металлургиялық
▁бірлестіктердің
▁қалыптастырудың
cım
epi
tis
uty
ЕРІ
аяу
▁хх
йықт
▁Buz
▁eğr
▁эмо
lenir
қытай
▁kayn
▁kuma
▁long
▁sing
▁şaka
▁егіс
▁кәде
ilerde
manıza
ропавл
цияның
▁enstr
▁indic
▁paral
▁жеңіп
▁порты
▁рәміз
▁істен
▁қоюға
▁dehşet
▁kalanı
▁kalkın
▁türler
▁тасқын
▁тотығу
▁турист
▁қорына
▁өмірін
▁düşündü
▁holding
▁kaldıra
▁sahipti
▁vermesi
▁білдіру
▁жолаушы
▁ғасырда
▁kardeşim
▁kitaplar
▁prototip
▁тізіміне
▁noktasına
▁olasılığı
▁жұмсалған
▁орталықта
▁сервистік
▁суларының
▁қонақтары
▁өкілдерін
▁etkilerini
▁kelimeleri
▁араластыру
▁дәрігерлер
▁жолдауының
▁endüstriyel
▁yapabilirim
▁жоспарлауда
▁пластикалық
▁қажеттігіне
▁әдістемесін
▁мәліметтерге
▁gerçekleşiyor
▁бітімгершілік
▁бәсекелестікті
▁коэффициенттері
MA
эг
ose
ОСТ
idor
ozof
диев
егия
идмб
окол
▁Bat
▁Gaz
▁Min
▁amp
▁pap
тәсіл
▁Phil
▁Soru
▁başı
▁mask
▁next
▁orij
▁ödey
▁суық
dayken
lywood
тивтік
▁examp
▁rengi
▁scien
▁sığın
▁uydur
▁yapım
▁бітір
▁квадр
▁тренд
▁түйді
▁тұғыр
kahalar
шараның
▁aramak
▁benzet
▁halkın
▁launch
▁sürücü
▁пропор
▁қорғас
▁culture
▁mısınız
▁yaşımda
▁şimdiki
▁Басқару
▁кадрлар
▁сипатын
▁спектрі
▁acımasız
▁birileri
▁değerler
▁governor
▁istikrar
▁органның
▁ilerliyor
▁yarattığı
▁картасына
▁алгоритмін
▁дайындығын
▁сұрақтарға
▁yapılabilir
▁бастамалары
▁Amerikalılar
▁ведомстволар
▁дидактикалық
▁жұмыстарымен
layabilirsiniz
ЕТ
aki
aly
pte
▁Ki
bola
eyip
üntü
ашев
дату
қыға
▁(4)
▁2-3
▁Net
▁Tal
▁You
▁ақп
▁ван
▁нью
▁эко
matic
шағай
▁Hâlâ
▁land
▁post
▁асуы
▁през
cileri
lediği
pektif
армалы
бейтін
▁Obama
▁diyen
▁hakik
▁niçin
▁teori
▁çizim
▁önlem
▁ақтөб
▁навиг
▁пошта
▁Өлшеу
lamalar
larımla
sındaki
едиялық
сіндегі
▁alması
▁deneye
▁oturan
▁resour
▁Астана
▁жарақт
▁күресу
▁реттік
▁қабықш
▁өсімді
emeyeceğ
memiştim
▁sormaya
▁şikayet
▁автобус
▁ескеріп
▁buldular
▁etmesini
▁eşcinsel
▁kaybetti
▁parçalan
▁students
▁ететінін
▁конфигур
▁көлеміне
▁мыңдаған
▁қағаздар
▁birisinin
▁getirecek
▁айналымын
▁топырақты
▁шешімдері
▁eşitsizlik
▁деректерін
▁динамикасы
▁есептейміз
▁жолдарының
▁қалыптасты
▁arkasındaki
▁Оқушылардың
▁жеңілдіктер
▁сыйымдылығы
▁холдингінің
▁қоспалардың
▁birbirlerini
▁функцияларын
▁гидравликалық
▁кәсіпкерлерді
▁серіктестікті
▁құндылықтарды
▁құрастырылған
▁кәсіпкерліктің
▁хабарламасында
▁қолжетімділігін
ox
py
тм
bus
osh
лон
пон
▁ка
leks
sive
tiya
üyük
şağı
▁60-
▁pom
▁Çoğ
▁şap
▁лим
▁меж
biler
шықты
ылымы
▁açıp
▁manu
▁past
▁ұлан
leşmiş
mezler
ыңызға
▁Frank
▁derdi
▁firma
▁think
▁çözül
▁önems
▁кеніш
▁рекре
▁тарта
eliğine
бақылау
▁Dışarı
▁Hayvan
▁common
▁ensure
▁odaklı
▁uzmanı
▁азайды
▁аяғына
▁бразил
▁жиынға
▁кішкен
▁көбіне
▁ыдырау
▁birliği
▁bırakıp
▁control
▁eşitlik
▁hastane
▁işletme
▁kurmaya
▁nüfusun
▁аударма
▁дарынды
▁көрініп
▁сенатор
▁өтілген
▁gördünüz
▁sıkıştır
▁tanesini
▁бірлікті
▁бұрыштық
▁малайзия
▁шаққанда
▁hikayenin
▁olduğudur
▁operasyon
▁анықталып
▁бөлімінде
▁жатқызуға
▁мақсатына
▁науқастар
▁орындайды
▁сатысында
▁тарихында
▁қаражатын
▁insanlarda
▁аппараттық
▁жаңалықтар
▁салаларына
▁үдерісінің
▁potansiyeli
▁Uluslararası
▁басқарылатын
▁стационарлық
▁университетінде
▁қажеттіліктерін
SS
йн
500
elt
mes
құм
▁Ер
bire
iyon
kanı
vers
берт
тану
тізб
▁102
▁25-
▁Alz
▁Lis
▁Wal
▁kli
▁way
▁Жүр
▁кил
▁ұшт
arsak
essed
umuza
оқыту
▁özen
▁моду
panyol
міздің
▁Kitap
▁bilem
▁doğuş
▁etken
▁issue
▁miras
▁plant
▁yatan
▁yaşta
▁Сурет
▁геоса
▁ертең
қалыпты
▁Birden
▁aralık
▁kombin
▁mağdur
▁varken
▁активт
▁жазуға
▁пәндер
▁қиылыс
larınıza
істердің
▁bölgesi
▁gideceğ
▁yaratma
▁yeteneğ
▁öğretti
▁Şimdiye
▁strategy
▁аумақтар
▁берудегі
▁күкіртті
▁мақсатын
▁теңдеуін
▁тұсаукес
▁халықтар
▁қасиетті
▁қосқанда
мағамбетов
▁different
▁investors
▁бойындағы
▁мәртебесі
▁ұлғайтуға
▁karşılıklı
▁çocuklarla
▁жоспарлары
▁заңдастыру
▁үлгілердің
▁өңірлердің
▁hastalıklar
▁халқымыздың
▁ұсыныстарын
▁söylemeliyim
▁жарықтандыру
▁Математикалық
▁микроорганизм
▁қарастырылатын
▁қауіпсіздіктің
=1
Ah
alo
him
tey
▁71
▁cr
▁vs
▁Бр
arya
sünü
▁2,1
▁Dil
▁Haw
▁Met
▁çip
▁Ақт
▁Роб
▁баб
▁ось
sanın
атура
келең
таған
ымсыз
▁0,48
▁5000
▁Alex
▁diff
▁gölg
▁sözü
▁ақыр
▁латв
▁қуан
gement
аданың
шыбаев
▁arazi
▁gözle
▁halkı
▁mezar
▁ақылы
▁старт
▁тоғыз
▁karşıt
▁nüfusu
▁regist
▁вакуум
▁жарнам
▁жоғарл
▁сымсыз
▁талдық
акциялық
мұнайгаз
▁Araştır
▁annemin
▁evrende
▁manzara
▁savaşın
▁toplama
▁tutuyor
▁yavaşça
▁жасырын
▁идеялар
▁симметр
▁сұхбатт
▁тарихын
▁adındaki
▁sıcaklık
▁аурухана
▁елордада
▁сіңірген
▁қарауына
▁ediyordum
▁gezegende
▁kadarıyla
▁жоспардың
▁шарттарды
▁importance
▁söyleyeyim
▁жетістікке
▁кластерлік
▁мөлшерінде
▁құжаттарын
▁agriculture
▁geliştirdik
▁konuşacağım
▁бейімделген
▁дәлелденген
▁шараларының
▁біріктіретін
▁мақсаттарына
▁құрылғыларды
▁әбдіқалықова
▁міндеттерінің
Ин
тө
Sen
ota
▁MA
opar
ırdı
▁50'
▁Ros
beral
ights
losuz
seydi
сарап
шінші
▁0,49
▁krom
▁теле
▁үйге
heimer
ydılar
едиция
ковник
ованың
саулық
▁buhar
▁dersi
▁ergen
▁funds
▁gözet
▁koyul
▁lazer
▁topar
▁çoklu
▁бөлді
▁модул
▁сопол
▁техно
▁girmek
▁kızgın
▁ахуалы
▁дерлік
▁жерден
▁жұтылу
▁музыка
▁период
▁сомаға
▁Әдетте
miyorlar
ological
▁birçoğu
▁istisna
▁toplumu
▁zamanki
▁беделін
▁бұзылуы
▁кемінде
▁көрмеде
▁маңызға
▁нарықты
▁сенемін
▁қарапай
▁Fotoğraf
▁dünyadan
▁imkânsız
▁manyetik
▁problems
▁yukarıda
▁аумағына
▁гектарға
▁жиілікті
▁жоспарда
▁сұйықтық
▁сәулелен
▁тотықсыз
▁эмульсия
▁Hepimizin
▁community
▁hastaneye
▁hayatları
▁yapmaktan
▁бақылауда
▁бизнесмен
▁техниканы
▁қатынасын
▁үнемдеуге
▁өңірлерді
▁hikayeleri
▁istersiniz
▁partnership
▁çalışıyordu
▁аспектілері
▁бейнеленген
▁факторларды
▁constitution
ua
уч
lev
пын
сір
▁Pr
▁Öd
sten
ақов
гені
▁1,9
▁Mus
▁get
▁see
▁ört
▁İşe
▁МПа
▁баж
▁идм
▁маз
▁три
деміз
ылысы
▁Akıl
▁Mary
▁cost
▁fare
▁lead
▁obez
▁yüzü
▁абон
▁сырт
▁толы
usunun
veness
спектр
▁alçak
▁ayrım
▁calis
▁halen
▁kabuk
▁seven
▁tamir
▁атриб
▁мерей
▁туады
▁тұзды
дықтары
▁pişman
▁yaradı
▁çember
▁ауқымы
▁дамушы
▁оксиді
▁осынау
▁қысымы
▁құбыры
edikleri
lığından
▁Birliği
▁doğrusu
▁entegre
▁eşitsiz
▁instruc
▁meraklı
▁olmasın
▁назарға
▁ректоры
▁әзірлеп
▁document
▁hidrojen
▁insandan
▁mutasyon
▁oranları
▁кешеннің
▁сайлауын
▁bakıyoruz
▁görüntüsü
▁milyondan
▁матрицасы
▁нарықтағы
▁объектісі
▁тіліндегі
▁финляндия
▁Geçtiğimiz
▁gerektiren
▁hizmetleri
▁kelimesini
▁аймақтардың
▁динамикасын
▁принциптері
▁yapıyorsunuz
▁бүкіләлемдік
▁студенттерді
▁тәжірибесіне
▁функцияларды
▁объектілердің
▁қарастырылуда
rof
ues
ивт
міш
▁SD
▁Vi
lisi
ojen
pose
орлы
▁Dep
▁Kaz
▁Med
▁dib
▁бур
▁ойл
▁қом
ander
leyiş
umdan
▁500-
▁Dedi
▁Vadi
▁alda
▁böyl
▁inov
▁topu
▁брит
▁сенс
▁фаза
elerce
istics
▁Geliş
▁Hrist
▁evine
▁gezin
▁metab
▁mısır
▁pengu
▁sıtma
▁титан
▁қоныс
▁başıma
▁hayati
▁patron
▁sunmak
▁temeli
▁çıktık
▁торлар
▁турбул
▁шешуші
anabilir
аларынан
шылармен
▁Merhaba
▁anlaşma
▁ciddiye
▁etmeden
▁private
▁sayısız
▁yardıma
▁yaşadım
▁акциясы
▁бағалап
▁ерболат
▁стипенд
▁құбылыс
▁Hollanda
▁committe
▁etkileye
▁yollarla
▁Öğretmen
▁üretilen
▁концентр
▁нарықтың
▁сақтауды
dıklarında
ebiliyoruz
gülüşmeler
▁arasından
▁пәнаралық
▁қамқорлық
▁başlangıcı
▁elektrikli
▁problemler
▁Öğrenciler
▁деректерге
▁desteklemek
▁ратификация
▁düşünmüyorum
▁düşünüyorlar
▁қорытындылай
▁операцияларды
▁министрлігімен
3/
isp
ita
біз
кан
нұс
оди
▁Ас
obel
айыл
троп
▁Fin
▁Pla
▁fit
▁gev
▁tün
▁zıt
▁жад
▁мах
ektör
sever
▁0,47
▁1991
▁Mari
▁hayv
▁ihla
▁otel
▁жете
▁мыңы
▁орда
ografi
▁ilkel
▁mısın
▁promo
▁çapta
▁емдел
▁зақым
▁зымыр
▁deneyi
▁katına
▁riskli
▁çıplak
▁Сандық
▁егемен
▁мағына
▁Қорыта
▁қасиет
ıldığını
циясының
▁Michael
▁boyutta
▁buluyor
▁cinayet
▁erişimi
▁білетін
▁бөлінуі
▁жәрмеңк
▁күйінде
▁макарон
▁философ
▁bitirmek
▁düşündür
▁seçimler
▁çılgınca
▁есептері
▁жасалуда
▁пәкістан
▁таңдауға
▁қаралады
▁қышқылды
▁okyanusun
▁varlığını
▁yaşadığım
▁öğrencisi
▁şekilleri
▁дискретті
▁көрсетуде
▁магниттік
▁мақұлдады
▁ризашылық
▁себептері
ландырылған
▁kullanışlı
▁yaparsınız
▁yaşlarında
▁çalışanları
▁çocuklarını
▁біріктіреді
▁кинетикалық
▁жағдайындағы
▁қосымшаларды
▁entrepreneurs
▁республикасына
▁материалдарының
2.
мк
bah
етк
жал
нер
сағ
▁Lo
▁gu
▁жқ
▁св
anet
anti
chan
ипаж
порт
▁2,8
▁Sab
▁Yet
▁any
батыс
қылау
▁1997
▁balı
▁işçi
▁бара
▁кван
gether
▁Aşağı
▁Karşı
▁Steve
▁dilim
▁geçip
▁hitap
▁kapak
▁riske
▁tören
▁Алғаш
▁есірт
▁париж
▁тозаң
▁қалаш
tıracak
авлодар
атынына
орталық
▁bastır
▁events
▁hemşir
▁içgüdü
▁sports
▁карьер
▁модулі
▁талабы
▁теңест
▁тобына
▁шартқа
▁әйгілі
оқұрылым
▁bahsede
▁customs
▁detaylı
▁edersek
▁içeriği
▁kentsel
▁müdahal
▁teorisi
▁üyeleri
▁агломер
▁айыппұл
▁атомдық
▁еріткіш
▁жамылғы
▁келеміз
▁тоқтату
▁эквивал
▁үлгінің
▁demokras
▁together
▁жасақтам
▁көрнекті
▁спорттың
▁қарқынын
▁қолайсыз
▁yaratacak
▁жатқанына
▁контейнер
leyebiliriz
▁particular
▁perspektif
▁yaşıyorlar
▁мекемелері
▁қолданамыз
▁gezegendeki
▁пайдаланған
▁üniversiteye
▁субъектілері
▁қызметшілері
▁келіссөздердің
▁қаржыландырудың
)-
ТҚ
ird
ünç
қыт
▁81
▁БА
doğu
hnic
ived
stal
атив
күйі
раға
ұлов
▁big
▁fat
▁him
▁vic
▁çim
▁Газ
▁Жап
▁Кор
▁ткш
emize
берек
▁Bost
▁koca
▁mülk
▁yaya
mektir
ақтылы
▁dinle
▁kitle
▁oldug
▁resif
▁sahil
▁tanık
▁борыш
▁жазғы
▁магни
▁нанок
▁қорға
lanarak
laşıyor
имиялық
▁Kültür
▁Martin
▁almayı
▁oyunun
▁sizler
▁takımı
▁umursa
▁yapımı
▁yılına
▁çözümü
▁абсолю
▁алуына
▁барған
▁рацион
▁таужын
▁экспон
▁қолтаң
▁құрған
▁ұлғаюы
▁өмірде
діктерін
▁anlattı
▁bilinir
▁bulabil
▁önyargı
▁гүлшара
▁заңының
▁керемет
▁тексері
▁шығынды
▁ықпалын
▁құжатта
iliğinden
▁sebepten
▁Жұмыстың
▁бағыттау
▁жолдарды
▁жоспарға
▁көмектің
▁процесті
▁сценарий
▁таңдалды
▁eksikliği
▁yapmasını
▁азаматтың
▁аэроғарыш
▁баяндалды
▁olmadığına
▁sanmıyorum
▁yapılandır
▁желілердің
▁орнатылады
▁семинарлар
ференциалдық
▁генетикалық
▁талдықорған
▁мемлекетінің
▁проблемалары
▁тапсырмалары
▁тұрғындарына
▁Республикасында
ee
İş
ОГ
тұ
пін
ртт
▁Ph
▁Әл
Tube
alim
ause
fice
tika
ymış
алин
еран
итін
ьект
▁Sok
▁Tes
▁Yas
▁Yat
▁akt
▁enj
▁est
▁mul
▁pre
▁yoz
▁Кер
▁Шын
cinin
mamak
tikçe
оскел
пидем
▁pros
▁örtü
▁Ішкі
▁абыр
▁астр
▁жады
▁өлше
amanın
ograph
yseniz
▁Bayan
▁Senin
▁defen
▁dönük
▁ispat
▁koydu
▁parma
▁salgı
▁sinek
▁yazan
▁youth
▁бағын
▁жазба
▁мысыр
▁akraba
▁günler
▁office
▁африка
▁желіні
▁сабақт
▁сутегі
Gülüşler
▁Gezegen
▁Krallık
▁Sürekli
▁William
▁demişti
▁devreye
▁duygusu
▁fırtına
▁kalmayı
▁majilis
▁paranın
▁аппарат
▁жанында
▁инжинир
▁кеңеске
▁күшінің
▁мысалға
▁Әсіресе
шілерінің
▁değerini
▁engeller
▁getirdim
▁terörist
▁игерілді
▁массалық
▁тексеріс
▁anlıyorum
▁getirdiği
▁modelleri
▁parçasını
▁стандарты
▁талдаудың
▁facilities
▁беретініне
▁есептердің
▁көрмесінде
▁мемлекетті
▁нидерланды
▁объективті
▁farkındalık
▁integration
▁біліктілігі
▁тұрғындарды
▁büyüklüğünde
ЕЛ
рн
vuz
ион
коп
лұм
омб
теп
▁Дж
▁үи
ikip
itir
rama
фосф
▁Jim
▁Sil
▁Str
▁güt
▁hec
▁rej
▁Кен
▁бөг
▁флю
ested
çilik
данып
датпа
▁Alan
▁Kalp
▁duyu
▁esin
▁müte
▁Çift
▁şair
▁Азия
▁зонд
▁моль
▁үсті
oterap
мемлек
рессия
▁Trump
▁apart
▁devre
▁draft
▁isyan
▁Фурье
▁армия
▁атады
▁орбит
▁қаупі
layalım
математ
шімбаев
ілердің
▁Robert
▁basınç
▁ekstra
▁günden
▁sanatı
▁дәреже
▁көрген
▁қаланы
▁өсімін
▁Buradan
▁bizlere
▁ekipman
▁yazıyor
▁yönünde
▁Экспери
▁аурулар
▁беріліс
▁білеміз
▁игілігі
▁кезеңін
▁кеңесте
▁форумда
▁Herkesin
▁alıyorum
▁grupları
▁hisseder
▁olacağım
▁orijinal
▁strateji
▁геология
▁anlatayım
▁değerleri
▁duyguları
▁kitapları
▁reaksiyon
▁versiyonu
▁маркетинг
▁меңгеруге
▁арттыратын
▁etrafındaki
▁мақсаттарын
▁өңірлерінде
▁institutions
▁контейнерлік
▁несиелендіру
▁облыстарының
▁стандарттары
▁olabildiğince
▁температурасын
▁университеттің
6-
tz
РУ
оқу
▁Pi
▁[4
▁İh
tüel
ümün
дама
зинь
шалы
▁101
▁Tay
▁Tho
▁Tur
▁war
▁yal
▁çeş
▁Маң
▁қыл
▁өтк
iğini
ünüzü
остық
форум
▁0,53
▁1200
▁care
▁free
▁usta
▁ГОСТ
▁аном
▁жазб
▁жағу
▁сфер
▁Әлем
осымша
▁Gelen
▁Yarat
▁Yüzde
▁cümle
▁gruba
▁iyice
▁kafat
▁kaçak
▁kütle
▁roket
▁бірде
▁бүйір
▁елден
▁желіс
▁жылқы
▁түсуі
▁шатыр
▁қисық
duğumda
mamızın
mesinde
олардың
▁Thomas
▁anatom
▁diffic
▁düştüğ
▁gözler
▁işleme
▁üretir
▁балқым
▁ерікті
▁клиент
▁саналы
▁сегмен
▁қамтып
рафиялық
өткізгіш
▁YouTube
▁ailenin
▁basamak
▁because
▁example
▁filozof
▁galaksi
▁kısmına
▁аударып
▁жаңғырт
▁меніңше
▁сызбасы
▁arabanın
▁kendiniz
▁kromozom
▁noktalar
▁sayıları
▁айналдыр
▁беріктік
▁насихатт
▁шығарған
▁әріптесі
▁Alzheimer
▁düşüncesi
▁yaratmaya
▁жариялады
▁классифик
▁петропавл
▁biliyorlar
▁motivasyon
▁successful
▁дайындауда
▁мектебінің
▁минералдық
▁патриотизм
▁салалардың
▁секторының
▁тақырыбына
▁тәжірибеге
▁қызметкері
▁ұйымдармен
▁әкімдіктің
▁gerçekleşti
▁мектептерде
▁презентация
▁станциялары
▁теңдеулерді
▁мекемелердің
▁strengthening
▁жаратылыстану
▁мәліметтердің
▁edebileceğiniz
▁ұйымдастырылып
8-
ЭС
ald
baz
con
enk
obi
ots
иал
леп
уар
▁Ti
▁ww
▁ыр
araj
irli
ануы
▁220
▁Sam
▁fri
▁ism
▁mom
▁pik
▁егу
▁өнд
allen
ndeki
дауға
▁Unut
▁make
▁vari
▁инсп
▁кент
▁тірк
global
ilerim
дролық
лылығы
▁Dedim
▁Değiş
▁aktör
▁filtr
▁hapse
▁işgal
▁işken
▁langu
▁repor
▁tatil
▁zafer
▁кәріз
▁қарақ
▁қорық
ileştir
алдарын
▁cidden
▁kimliğ
▁sindir
▁контек
▁метрге
▁провин
▁сендір
▁табысы
▁тетігі
енттерді
▁etmeniz
▁sahneye
▁аймаққа
▁аумағын
▁графика
▁жағында
▁көрнекі
▁маңызын
▁сүйемел
▁сәуірде
▁таңдағы
сағынтаев
▁Gerçekte
▁decision
▁dolardan
▁oturuyor
▁piyasaya
▁İspanyol
▁елімізді
▁жәрмеңке
▁нақтылау
▁негізіне
▁төлемдер
▁қызметте
▁başladığı
▁başlarına
▁istiyordu
▁maliyetli
▁çalışacak
▁келтіреді
▁комиссары
▁күштердің
▁кәсіпорны
▁мамандығы
▁теңізінің
▁үшіншіден
▁Bildiğiniz
▁gösterdiği
▁ödüllendir
▁анықтаудың
▁жариялаған
▁территория
▁экспедиция
▁экстракция
▁ғимараттың
▁қарусыздану
▁қызметтерге
▁bahsediyoruz
▁kullanıyorum
▁söyleyebilir
▁söyleyeceğim
▁инвестицияның
▁тағайындалған
Ar
bas
ecu
hay
uel
апс
гүл
еев
пот
▁Ca
▁ғы
ikan
iran
ипед
озит
▁30'
▁Sık
▁Şey
▁вак
▁дің
ерарх
мізді
▁Film
▁burn
▁geom
▁imza
▁inek
▁uyuş
▁ақын
▁бриг
▁гибр
▁Müzik
▁denge
▁kulüb
▁tasks
▁villa
▁çekip
▁çubuk
▁ұғымы
lamıyor
атылған
омпания
ттарына
▁Eminim
▁Yanlış
▁derler
▁kadına
▁oluştu
▁vardım
▁ülkeyi
▁аралау
▁артуда
▁ендігі
▁майдан
▁планет
▁төраға
▁қабырш
▁үнемді
lığımızı
алардағы
▁işliyor
▁işçiler
▁manufac
▁seviyor
▁yürüyor
▁ölçekli
▁бейнесі
▁бұлттық
▁игеруге
▁кепілді
▁көреміз
▁тізбегі
▁тұлғаны
▁қолдауы
▁aileleri
▁bozukluk
▁böcekler
▁elektron
▁ilaçları
▁yarattık
▁жауынгер
▁максимум
▁қасиетін
▁ұрпақтың
▁olacağına
▁Казахстан
▁автономды
▁анықтауда
▁жоспарлар
▁кезеңінің
▁өзгеріске
▁өндірудің
▁düşünmemiz
▁etkileşime
▁ақпаратпен
▁кеңістігін
▁көтерілген
▁министрлер
▁объектінің
▁үміткерлер
▁görünüyordu
▁konusundaki
▁көрсеткішті
▁бастамаларын
▁тапсырмасына
▁қызметтеріне
▁yenilenebilir
▁желтоқсанында
EC
ЕКТ
лын
тем
уан
▁BG
▁Cr
▁FB
▁Ir
▁Ru
▁бі
lini
unku
терн
імін
▁(3-
▁Cen
▁Yen
▁uyu
▁Кар
▁Тал
▁вит
▁пут
▁ұяш
earch
дәстү
ланыс
оксид
▁Ener
▁Math
▁Para
▁want
▁Жеке
▁андр
▁жарн
▁норв
formed
onment
ацияны
осының
▁Fikir
▁Oraya
▁gitme
▁posta
▁sesli
▁start
▁works
▁çelik
▁şebek
▁діріл
▁сусын
▁өмірі
leyebil
елігіне
▁Hastan
▁Yıllar
▁cihazı
▁kandır
▁virüsü
▁баптау
▁жанама
▁салады
▁талғат
▁шектік
дықтарын
▁binalar
▁finanse
▁ülkeden
▁Бақылау
▁білімге
▁кездері
▁маркалы
▁ондаған
▁төменде
▁факульт
▁қомақты
▁қорлары
▁ұрпаққа
▁nedenini
▁stressed
▁бірлігін
▁дайындам
▁консульт
▁сақталып
▁түсінуге
▁тәртіпті
▁internete
▁olmalıdır
▁verdiğini
▁çiftçiler
▁доллардан
▁кредиттік
▁күшейтуге
▁модельдің
▁облысынан
▁полимерлі
▁соғысының
▁уақыттағы
▁ілгерілет
▁әзірлеуді
▁geleceğini
▁inanıyoruz
▁noktasında
▁sistemimiz
▁uygulamaya
▁адамзаттың
▁материалын
▁мұғалімдер
▁талқылайды
▁тәжірибелі
▁диффузиялық
▁жалпыланған
▁модельдерін
▁факторларға
▁ulaşılabilir
▁фармацевтика
▁қызығушылығы
▁компоненттері
▁bulabilirsiniz
▁кәсіпорындарда
▁gerçekleştirmek
▁конфессияаралық
▁көрсеткіштердің
бұ
oth
зат
іші
▁Ni
gain
mamı
meni
дәрм
есек
ином
рине
▁230
▁Dah
▁Hen
▁Nan
▁Nat
▁Pen
▁imz
▁rez
▁çik
▁Сур
▁ату
▁гол
▁юни
düğüm
inler
quare
▁1999
▁help
▁rate
▁real
▁resi
▁баяу
▁жасы
▁кино
▁слов
iciydi
амызда
зияның
немесе
ттарда
ілімді
▁Seyir
▁disip
▁peace
▁uzaya
▁Шығыс
▁алмат
▁еңсер
▁курсы
▁оптим
▁чехия
▁Britan
▁kaybed
▁kötüye
▁teşkil
▁Каспий
▁Кілтті
▁бөлуді
▁келуге
▁фабрик
▁қимасы
▁әкелді
▁өтпелі
онсондық
▁Problem
▁robotik
▁şiddeti
▁азаматы
▁араласу
▁ақпанда
▁ерітінд
▁жылжыту
▁Әртүрлі
▁Internet
▁alanlara
▁aynısını
▁açıkçası
▁biraraya
▁chairman
▁election
▁haritası
▁kelimeyi
▁toplamak
▁yarısını
▁şimdiden
▁Программ
▁диффузия
▁көршілес
▁теңдеуді
▁түзіледі
▁қабылдай
▁қаралған
▁өмірінің
▁getirmeye
▁keşfettim
▁mikroskop
▁Түркістан
▁бөліктері
▁дисперсия
▁достастық
▁зерттеліп
▁керектігі
▁құрылатын
▁düşünürken
▁konuşmalar
▁банктердің
▁тұлғаларға
▁ынталандыр
▁әдістермен
▁bilgisayara
▁fotoğraflar
▁көзқарастар
▁мемлекеттен
▁қоғамдастық
▁мақсатындағы
▁хатшылығының
▁мұғалімдердің
▁физиологиялық
74
95
DM
Bak
küt
mar
ott
sis
жаң
ног
роб
тел
▁%8
▁IP
▁MS
▁Кү
▁МО
▁тг
gest
lash
mark
mert
ЕРІН
вест
лиев
ғали
▁15-
▁3,3
▁Dal
▁stü
▁çam
▁şük
▁ақы
▁тыл
▁улы
dilik
liyet
tiğin
ömert
ılmak
сауық
▁prev
▁çama
▁еқдб
▁маңы
▁қисы
ayarak
бизнес
деудің
егінен
▁Hüküm
▁bulup
▁entel
▁kaplı
▁limit
▁trend
▁Автом
▁иелен
▁ықшам
ınızdan
▁Boston
▁active
▁gitmiş
▁hamile
▁regard
▁zorlan
▁мыстың
▁разряд
▁салтын
▁шеккен
егіндегі
▁büyüdük
▁durdura
▁görünce
▁inanmak
▁without
▁yetecek
▁азияның
▁зауытта
▁кластар
▁орындай
▁типтегі
ilerinden
▁etmeleri
▁kilometr
▁kurumsal
▁yanından
▁yapmıyor
▁оқылымда
▁қызметші
▁қысқарды
▁өндіреді
едициналық
▁bilateral
▁enerjinin
▁göreceğiz
▁көлемдегі
▁мөлшеріне
▁партиялық
▁өздеріңіз
▁bireylerin
▁konuşmanın
▁olmalarını
▁бастамалар
▁мәдениетті
▁элементтік
▁қышқылының
▁seviyesinde
▁желілерінің
▁мектептердің
▁пайдаланылуы
▁alabilirsiniz
▁субъектілерін
▁коэффициентінің
нь
Tan
bai
mon
tıp
люз
нес
шін
һаз
▁ха
ends
ters
ктер
ович
түрл
қызы
▁280
▁Lin
▁süp
▁süz
▁Бет
▁МВт
▁инк
▁мұс
▁рус
▁шым
iliğe
larız
risis
ıldım
ıldız
ламен
мекен
шашын
іктен
▁0,46
▁0,51
▁[11]
▁atan
▁omuz
▁ümit
▁қола
epyeni
esince
sinler
ербаев
лаудың
▁Süper
▁denet
▁iğren
▁meyve
▁olgun
▁zordu
▁Нақты
▁Соның
▁ақаба
▁сұрау
▁ультр
ference
ispeten
▁10.000
▁Aslına
▁Elektr
▁Suriye
▁Tanrım
▁baskın
▁gürült
▁kurulu
▁meters
▁sorusu
▁territ
▁yorgun
▁çıktım
▁айтулы
▁беткей
▁кадмий
▁күндік
▁соғады
андардың
▁aptalca
▁bilgisi
▁duyuyor
▁fikrine
▁istemiş
▁izleyen
▁nadiren
▁визалық
▁маңында
▁әріптес
lerimizle
tiğimizde
▁bağlıdır
▁başardık
▁kelimesi
▁tüketici
▁дайынбыз
▁дыбыстық
▁кейіннен
▁маминнің
▁проблема
▁alırsınız
▁animasyon
▁committee
▁düzenleme
▁fırsatlar
▁merkezine
▁yaptığımı
▁öncesinde
▁көзделуде
▁топтардың
▁хабарлама
▁görüntüler
▁işletmeler
▁savunmasız
▁yaparsanız
▁şehirlerde
▁бірқалыпты
▁дәрігерлік
▁жарияланды
▁талқыланып
▁мақұлданған
▁объектілері
▁техногендік
▁başladığımda
▁қажеттілігіне
▁стандарттарына
▁қауымдастықтың
65
OH
Bil
hit
ora
pro
жен
һар
▁СО
▁ын
opya
ндық
цент
▁5,5
▁Boy
▁ked
▁айл
▁Işık
▁desi
▁kade
▁oğlu
▁some
▁supp
▁verg
▁Özel
▁önde
▁şamp
▁демп
▁емти
▁жайы
▁құра
елеком
▁Araba
▁Hatır
▁doğdu
▁kızım
▁planı
▁rakip
▁soğut
▁stage
▁çıkma
▁üreme
▁ауаны
▁жиһаз
▁маниф
ifornia
ғылықты
▁Modern
▁alanın
▁always
▁durmak
▁festiv
▁histor
▁kadını
▁karşın
▁mikrof
▁santim
▁tanıya
▁öylece
▁ısınma
▁арақаш
▁газдар
▁дамыта
▁жүктеу
▁мұхтар
▁отынды
▁тартып
leştirme
▁diyalog
▁donanım
▁kalıntı
▁kısıtlı
▁resmini
▁yazdığı
▁yaşanan
▁белорус
▁көтерді
▁ортасын
▁талқыға
▁etmekten
▁konuştum
▁mürekkep
▁received
▁ulaşabil
▁çocukluk
▁ülkeleri
▁Атмосфер
▁дамуында
▁кезеңмен
▁кәсіпорн
▁рәсіміне
▁dakikalık
▁değişimin
▁incelemek
▁olmalıydı
▁басымдығы
▁елдерінен
▁елордалық
▁тақырыбын
▁үдерісіне
▁başkasının
▁cezalandır
▁popülasyon
▁verdikleri
▁кеңістікті
▁комитеттің
▁нығайтудың
▁шаққандағы
▁қаражаттың
▁sonuçlarını
▁геодезиялық
▁диаграммасы
▁меңгерушісі
▁тұжырымдама
▁adlandırılan
▁басқарушылық
▁тыңайтқыштар
▁робототехника
▁шаруашылығына
ky
нг
өп
ado
kür
lus
uto
жіт
over
trop
ауда
ңқыр
▁00-
▁Sch
▁doy
▁maç
▁miy
▁şar
▁Сал
▁ұбт
ganiz
lanıp
қазан
▁0,43
▁Birç
▁azın
▁data
▁muha
▁read
▁solu
▁traf
▁yönü
▁yüze
▁жаяу
▁ықыл
eğinin
▁monit
▁olana
▁redde
▁uygar
▁vakti
▁veter
▁жарам
▁мынан
▁санап
▁шашыр
іліктің
▁Vadisi
▁doğası
▁gereği
▁hesaba
▁iyilik
▁tabaka
▁tanımı
▁атанды
▁болуда
▁елінен
▁жаңаша
▁көлбеу
▁көшірм
▁мағлұм
▁сатылы
▁толған
▁тотығы
▁шешуді
▁ұзақты
lerimden
▁aşağıda
▁experts
▁frekans
▁gidelim
▁konsept
▁kullanı
▁mineral
▁активті
▁аралады
▁арзанда
▁бағытқа
▁енгізіп
▁орнаған
▁профиль
▁сауатты
▁тұқымды
▁қолдады
tiklerini
vironment
▁Açıkçası
▁devletin
▁gereksiz
▁ikisinin
▁kablosuz
▁müzisyen
▁аралықта
▁болуының
▁интервал
▁курсының
▁танытқан
▁қолданыс
▁қолдауды
▁Matematik
▁bırakıyor
▁effective
▁kaybetmiş
▁konularda
▁technical
▁Денсаулық
▁машиналар
▁номинация
▁қатынасты
▁gittiğimde
▁tanımlamak
▁мамандарын
▁механизмін
▁миллионнан
▁тоқсанында
▁қанағаттан
▁молекулалық
▁қарапайымды
▁қатынастары
▁başladığında
▁аяқталғаннан
▁қарқындылығы
▁өнеркәсіптің
▁бейбітшілікті
▁проблемаларын
▁кандидатурасын
▁қалыптастыруда
31
fı
Ақ
ән
gim
gue
isy
obe
шығ
▁3)
▁AS
▁Gr
▁üs
▁се
ills
tors
тасы
іріп
▁ADS
▁güv
▁meg
▁miz
▁own
▁paz
▁çey
▁Сар
▁жыр
▁тін
▁хор
аммед
ертик
▁0,52
▁2002
▁alay
▁ikil
▁sırf
▁tali
▁öfke
▁öncü
▁лонд
eksüel
едиұлы
▁Allah
▁alına
▁pasif
▁proce
▁third
▁şarap
▁алғыш
▁бетін
▁жарым
▁жинап
▁сайты
▁турни
▁қарас
Gülüşme
лардағы
▁approv
▁cömert
▁koydum
▁mültec
▁olalım
▁балаға
▁күндіз
әрекетін
▁Diyelim
▁ileride
▁kazanan
▁müziğin
▁reforms
▁science
▁sermaye
▁söyleme
▁yatıyor
▁zehirli
▁жабынды
▁көтеріп
▁шілдеде
▁өздерін
▁activity
▁continue
▁durumlar
▁edeceğiz
▁hikâyesi
▁kullandı
▁kuvvetli
▁liderler
▁maalesef
▁provides
▁yoğunlaş
▁Деректер
▁секторын
▁ұсынамыз
▁Bakanlığı
▁direction
▁gençlerin
▁kullandım
▁süresince
▁tekrardan
▁зерттеуді
▁нүктелері
▁платформа
▁қаласынан
▁қолданушы
▁malzemeler
▁technology
▁жартыжылды
▁кодексінің
▁көпқабатты
▁ұсыныстары
▁өнімдеріне
▁beklenmedik
▁beraberinde
▁Мемлекеттік
▁атмосфераға
▁мерейтойлық
▁біліктілікті
▁онкологиялық
▁görebiliyoruz
▁davranışlarını
▁инновацияларды
▁параметрлердің
97
arş
bür
dio
lie
oru
оло
тип
▁Ür
▁ДҚ
▁Ре
▁ЭҚ
avan
imar
many
mith
ucak
unum
çısı
ürüz
илен
кпір
стыр
▁3,1
▁Bla
▁Bob
▁Dis
▁Düz
▁Say
▁bam
▁ear
▁hus
▁lük
▁mat
▁yed
▁түл
иктор
кулез
сынып
шілде
▁Stan
▁bomb
▁when
▁ödev
▁жүгі
edecek
ыңызды
▁Nobel
▁Yapay
▁adama
▁again
▁geril
▁umudu
▁yatağ
▁ерлік
▁залал
▁иммун
▁керне
▁лингв
▁оңайл
▁себеб
▁цзинь
▁қазба
diyorum
liğiyle
mediler
meyeceğ
імбетов
▁follow
▁kuşlar
▁mutsuz
▁Матери
▁агентт
▁гидрог
▁гүлден
▁жаңару
▁жөнелт
lamasını
▁aramaya
▁konuyla
▁kılavuz
▁paralel
▁yapılma
▁yapımcı
▁yaşadık
▁çıkarıp
▁көбейді
▁сатылар
▁уақтылы
eceğimizi
▁beyninin
▁dalgalan
▁eğitimli
▁мерзімге
▁төмендеп
▁қортынды
▁2015-2019
▁Milletler
▁güvenliği
▁haklarını
▁problemin
▁resimleri
▁анықтадық
▁аудандары
▁есептеуіш
▁мемлекетт
▁ресурстық
▁салаларды
▁сауалнама
▁тудыратын
өткізгіштік
▁department
▁değilsiniz
▁employment
▁initiative
▁oluşturduk
▁tasarlamak
▁болатынына
▁екендігіне
▁Жүргізілген
▁тереңдетуге
▁шоғырланған
▁Görüyorsunuz
▁жұмыстарында
▁институттары
▁кәсіпкерлері
▁коэффициентін
▁делегациясының
▁конференцияның
▁орналастырылды
.3
RA
ux
ИМ
РО
бө
эт
aca
lon
own
вен
елу
жер
иді
рақ
ille
ines
uyan
арғы
йтіп
▁(20
▁7,5
▁Bra
▁Ola
▁[1-
▁süs
▁Özg
▁Бей
▁ГАЖ
▁Мар
▁Тер
▁аты
delik
lekli
meyiz
niyet
беген
фолио
іруге
қаржы
▁1994
▁Kara
▁Star
▁agen
▁yetk
▁грам
▁орам
▁ілес
▁әкеп
дықтың
лектро
▁Ebola
▁Haiti
▁Yerel
▁düşer
▁figür
▁hediy
▁kibar
▁kurma
▁misaf
▁nasil
▁resme
▁whole
▁ölümü
▁şeyde
▁бренд
▁қоңыр
дағыдай
орларды
ыстарға
▁hediye
▁ismini
▁kurdum
▁çarpış
▁иелері
▁кәдеге
▁көпмүш
▁мөлдір
▁нейрон
▁осында
▁отырды
▁соғысы
▁тартты
▁экскур
madığını
ılmasını
беркулез
инхронды
▁büyüyor
▁geçmişe
▁kalırsa
▁kitabın
▁network
▁peşinde
▁sürecin
▁talimat
▁taşımak
▁varoluş
▁yapmalı
▁жабдықт
▁спортшы
▁қаралып
▁қоймасы
▁қоғамға
▁қысымды
▁әсеріне
lıklarını
▁aktivist
▁astronom
▁bağırsak
▁değişime
▁kişilere
▁modeller
▁yükseliş
▁прокурор
▁сенаттың
▁сүйенсек
▁қазтранс
▁өзгеруін
▁balıkları
▁beginning
▁olmasıydı
▁resources
▁sebebiyle
▁örnekleri
▁бейімделу
▁кодексіне
▁мазмұнына
▁революция
▁сектордың
▁формалары
▁қаңтардан
▁başlarında
▁gösterecek
▁gösterilen
▁simülasyon
▁yapacağını
▁yardımıyla
▁білдіретін
▁оқытушылар
▁теңдеуінің
▁bilgilendir
▁diğerlerine
▁görünebilir
▁olmalısınız
▁американдық
▁диагностика
▁жабдықтарды
▁ықтималдығы
▁өзектілігін
атомөнеркәсіп
▁geliştirmeye
▁алгоритмдері
▁жыныстарының
▁diyebilirsiniz
▁компаниялармен
▁yapabileceğiniz
▁ауылшаруашылығы
▁орналастырылған
99
era
kaz
айт
ыма
ғая
▁1:
▁HT
▁Ka
▁zh
▁Жо
▁Сө
▁гр
▁эр
isan
omuz
ondu
АРДЫ
еция
илев
имия
ярлы
▁3-4
▁Alt
▁Fak
▁GSY
▁Yön
▁çiğ
▁анс
ators
ayıcı
icial
jinal
иттің
▁Oysa
▁bask
▁hold
▁kurş
▁olgu
▁what
▁çala
▁егем
▁залы
▁илем
▁роль
▁1980'
▁Söyle
▁buyuk
▁diyet
▁effor
▁etnik
▁goods
▁hayli
▁içsel
▁karın
▁maddi
▁silin
▁tanıt
▁worth
▁zorla
▁атауы
▁гетер
▁жолда
▁корей
▁кәсіб
▁лауре
▁маған
▁Uganda
▁doğada
▁kastet
▁mesafe
▁recent
▁savunu
▁vücudu
▁батырм
▁сіңіру
▁фермер
▁Қолдан
▁үлгіні
larsanız
дықтарды
▁Dünyayı
▁aşamada
▁canavar
▁duyduğu
▁enfekte
▁götürdü
▁çevreye
▁көмекті
▁матрица
▁тағылым
▁шегінде
▁қойылып
▁үйкеліс
▁әмірлік
▁өскелең
biliyorum
▁bulunmak
▁enerjiye
▁getirdik
▁positive
▁söyleyin
▁жасаймыз
▁мағынасы
▁мынандай
▁мұнайгаз
▁периодты
▁түйіршік
▁ғаламтор
ландырудың
▁kaynaklar
▁muhafazak
▁seslerini
▁Назарбаев
▁параметрі
▁ғалымдары
▁өнімдерге
дендірілген
▁geliştirme
▁görünmüyor
▁manufactur
▁söyleyecek
▁аудандарда
▁дайындалып
▁деңгейінен
▁ерітіндісі
▁пікірталас
▁салыстырып
▁тәрбиелену
▁тәсілдерді
▁established
▁алгоритмдер
▁модельдерді
▁этносаралық
▁элементтерді
▁көрсеткіштерді
.6
EG
ЕУ
гл
нш
фа
izy
rew
азы
тик
▁%-
▁91
▁CD
▁[5
▁sc
▁Аң
ilar
ions
lata
onot
▁Sat
▁foc
▁pav
▁vit
▁www
▁Ком
▁тес
▁цел
▁Қаш
lenin
opter
tadır
пайды
ғымыз
▁Seni
▁Stre
▁code
▁müsa
▁terc
▁çağr
▁күмә
▁попу
▁синт
▁тері
artesi
азалық
ілікке
▁colle
▁dalış
▁duyan
▁evden
▁küçüm
▁speak
▁жатақ
▁күйде
▁көзін
▁лидер
▁ойлап
▁силик
▁фракт
▁қаулы
▁әсерл
▁өлшен
düğümüz
ilmemiş
▁Kanser
▁Profes
▁applic
▁mechan
▁ажырат
▁панель
▁тілдер
▁түрлер
▁шығуға
mışlardı
sibility
▁Program
▁dayanan
▁dağılım
▁denemek
▁emisyon
▁iskelet
▁koyuyor
▁resimde
▁tarihte
▁yayılan
▁önemini
▁önlemek
▁байқауы
▁бағынды
▁есірткі
▁кристал
▁пәнінің
▁тәсілін
▁ұғымдар
▁Teknoloj
▁dışarıya
▁geceleri
▁takdirde
▁verilere
▁Заманауи
▁жоспарды
▁коррозия
▁мердігер
▁түзілген
▁қаржының
▁әдістеме
отермиялық
▁anlamamız
▁dünyasına
▁özgürlüğü
▁дүйсенова
▁елдердегі
▁жерлердің
▁кернеудің
▁командасы
▁тапсырған
▁театрының
▁engellemek
▁ilişkileri
▁kolaylıkla
▁sinyalleri
▁америкалық
▁аударылған
▁дәнекерлеу
▁пропорцион
▁түсіндіріп
▁dönüştürmek
▁topluluklar
▁bulunduğumuz
▁оқушыларының
▁станциясының
▁laboratuvarda
▁археологиялық
▁құрылғылардың
▁ақпараттандырды
.4
ıv
эс
ung
АСС
көз
осп
▁şö
▁үр
amış
омен
▁(5)
▁240
▁Bek
▁Big
▁Cez
▁mum
▁pis
▁rem
▁tuş
▁үгі
ineer
астер
ауқат
дустр
оголь
сейіт
ылғыш
індік
▁Mich
▁ress
▁suda
▁таңб
▁үйір
omobil
мыздың
▁Devam
▁Ondan
▁Yeşil
▁added
▁iyiye
▁sesin
▁вирту
▁жазып
▁нөлге
▁санау
çilerin
ымалдау
▁gözlük
▁inanan
▁kronik
▁moment
▁yatkın
▁çekimi
▁бастан
▁корпус
▁сенсор
▁сілкін
▁шарасы
▁құлдыр
▁әлемді
ilmiştir
▁adopted
▁alanına
▁birimiz
▁görmeyi
▁kavramı
▁umutsuz
▁uygulan
▁yepyeni
▁графигі
▁пікірін
▁туындап
▁филиалы
istematik
оптикалық
▁Mükemmel
▁gezegeni
▁hücrenin
▁kaybeden
▁yönetimi
▁çalıştığ
▁бактерия
▁бағытына
▁геосаяси
▁елдерден
▁жариялау
▁жеделдет
▁жүректен
▁көтерген
▁моңғолия
▁орнатқан
▁сайтында
▁форматта
▁өзгерген
андырылған
▁defalarca
▁dikkatini
▁edebilmek
▁girişimci
▁konuşması
▁yakalamak
▁yolculuğa
▁аймақтары
▁ортасының
▁Қорытынды
▁bakımından
▁başlayacak
▁düşünürsek
▁айқындайды
▁айқындалды
▁жақсыбеков
▁таратылған
▁трансфертт
▁қондырғысы
ebileceğiniz
▁сәйкестігін
▁қазмұнайгаз
▁бағдарламада
▁серіктестігі
▁құрылымдардың
▁катализаторлар
.7
mm
МЖ
шу
ӘН
ıza
авр
бау
көр
▁Is
▁uf
▁АР
▁қм
▁ұж
kest
ness
озой
▁4,1
▁Cid
▁Hap
▁Van
▁Zih
▁yos
▁доз
▁шен
essiz
incip
мұхам
паған
ымның
▁date
▁esna
▁fact
▁kort
▁mali
▁sağa
▁sola
▁turk
▁çağı
▁ариф
▁көше
▁реда
▁этал
▁қызу
▁1970'
▁adımı
▁bedel
▁durur
▁impar
▁inten
▁ultra
▁women
▁yarın
▁азаюы
▁терап
bilmesi
lamadan
larımda
ықтарға
▁Norveç
▁fikrin
▁mutfak
▁poster
▁protez
▁uzayda
▁yetkil
▁атрибу
▁ақшаны
▁бейнел
▁мәніне
▁соғыст
▁қарады
ондардың
▁Silikon
▁bizleri
▁princip
▁çıkmaya
▁Мұғалім
▁бүгінге
▁далалық
▁жайылым
▁заманда
▁мойында
▁electric
▁geçmeden
▁istismar
▁жазылады
▁кезеңнен
▁мәлімдем
▁ортадағы
▁сарыарқа
▁таралуын
▁тереңдік
▁тораптар
▁өкінішке
▁өлкетану
▁Enstitüsü
▁ederseniz
▁gelmesini
▁geçiriyor
▁hastalığa
▁hayatında
▁ilaçların
▁olmasaydı
▁бағалайды
▁йонсондық
▁саясатына
▁сомасында
▁тартылады
▁тәртібіне
▁өткізетін
коммуналдық
органикалық
▁Техникалық
▁аймақтарды
▁еуропадағы
▁институтын
▁мамандарға
▁тұрғысында
▁шикізаттың
▁құрылымның
▁diyebiliriz
▁fikirlerini
▁programları
▁жаңғыртудың
▁индукциялық
▁талқыланған
▁хабарланған
▁шешімдердің
▁karşılığında
▁стандарттарды
▁көрсеткіштерге
шо
ыұ
қп
uru
zan
зол
▁Ab
▁Ta
▁Wi
▁Аз
▁қы
aval
days
esem
iğer
kırı
ston
tist
ynam
азия
деуі
ирек
стеу
▁3,6
▁sip
▁фон
deniz
ndaki
vanın
изика
іргіш
▁King
▁Konu
▁Noel
▁besi
▁grip
▁güne
▁hızı
▁коды
▁менш
larlar
mışlar
▁built
▁eksen
▁focus
▁obser
▁otizm
▁paraz
▁sağla
▁деуге
▁имидж
▁мотив
▁сирия
▁соқты
▁қарам
▁әлеум
eceğine
естерін
сынылып
▁Benzer
▁beceri
▁mutlak
▁хромат
▁шарада
▁қадамы
атталған
қатынасы
▁Biliyor
▁contrac
▁diyecek
▁gibiler
▁gücünün
▁hastası
▁koridor
▁küçücük
▁olmazdı
▁çamaşır
▁аймақты
▁арадағы
▁береміз
▁жерінде
▁пішінді
▁саңылау
▁түрінің
▁қарудан
▁қақпасы
▁құраушы
ыстарының
▁Britanya
▁dramatik
▁gereksin
▁geçirmiş
▁gütmeyen
▁hepimizi
▁kurumlar
▁аймағына
▁ардагері
▁аяқталуы
▁еуроодақ
▁сақталуы
▁сынақтан
▁Қоршаған
▁құндылық
▁әдеттегі
онференция
▁dönüşüyor
▁formation
▁göndermek
▁olanların
▁standards
▁аренадағы
▁индикатор
▁кеңістігі
▁көздеріне
▁лаборатор
▁оптималды
▁пленарлық
▁California
▁protection
▁Температур
▁алгебралық
▁басқаратын
▁деңгейлері
▁марапаттау
▁өндіріледі
▁düşünüyordu
▁oluyorsunuz
▁жеңілдетеді
▁реформалардың
▁тапсырмасымен
▁қорытындылады
▁Amerikalıların
▁университеттер
▁қатысушыларына
▁görebileceğiniz
▁көрсеткіштеріне
39
sy
box
lıp
zat
жағ
▁fo
ardo
иров
▁108
▁Ana
▁Dir
▁Dön
▁ISO
▁gal
▁mid
▁tey
▁yut
▁Дәл
▁айы
▁жәй
▁нег
▁осц
▁рын
etnam
istal
yınca
ğımız
дімгі
▁boyn
▁holi
▁jobs
▁kimi
▁kolu
▁сәтт
▁қаза
ımları
лерден
маусым
▁Yemek
▁Yeter
▁gibiy
▁gövde
▁teach
▁калий
▁съезі
▁сүріп
▁түтік
eminist
▁aynısı
▁evinde
▁fırlat
▁kabaca
▁macera
▁rights
▁yaşadı
▁жиырма
▁иерарх
▁климат
▁саяхат
▁теңізі
▁қауіпт
bilirsin
▁devrimi
▁gözleri
▁inandır
▁tanıyor
▁çekildi
▁öyleyse
▁астында
▁диаспор
▁достаст
▁жылдағы
▁компози
▁минимум
▁мәсімов
▁табамыз
▁қабылда
▁қытайға
leştirmek
▁anahtarı
▁başından
▁bulaşıcı
▁bulundur
▁kişileri
▁olayları
▁yapmadan
▁дайындап
▁жылдарда
▁марганец
▁протокол
▁түсінігі
▁қарайтын
▁әкімдері
аларындағы
▁hissetmek
▁imparator
▁karaciğer
▁yanındaki
▁бастаманы
▁спектрлік
▁тексеруге
▁aralarında
▁bilimciler
▁аурулардың
▁болатындай
▁дағдыларды
▁интегралды
▁мультимеди
▁beklentiler
▁environment
▁hücrelerini
▁molekülleri
▁opportunity
▁yaşındaydım
▁bilgisayarın
▁деңгейіндегі
▁тасымалдауға
▁diğerlerinden
▁istediklerini
▁министрліктер
▁орталықтарында
▁жауапкершілікті
▁концентрациясын
Fe
Her
iyo
lör
mad
ral
Çok
ЛЫҚ
ихи
йор
оши
▁Eb
▁SO
▁ça
▁СТ
cesi
idge
lüğe
ower
ümüş
масы
қоры
▁Hüc
▁lit
▁Çar
▁Şaş
▁абд
▁зай
▁нит
▁реф
▁шық
▁әкк
okrat
sinde
потек
ілімі
▁Asla
▁Kula
▁saya
▁мину
lerime
tasyon
менедж
оксиді
▁almaz
▁based
▁benef
▁dilin
▁heads
▁kartı
▁kavuş
▁mıyız
▁sapta
▁temas
▁yitir
▁Кесте
▁антен
▁гради
▁мейір
▁табан
ruption
verengi
ахманов
▁baylar
▁döngüs
▁emekli
▁inanın
▁işlemi
▁medium
▁proper
▁yapıyı
▁yumurt
▁беттің
▁иордан
▁органы
▁редакт
▁смайыл
▁суының
▁сыйақы
larsınız
▁bırakır
▁denedim
▁geçecek
▁geçiren
▁hipotez
▁liberal
▁Шымкент
▁елшілік
▁естелік
▁минерал
▁орындап
▁ресейге
▁әкімшіл
метикалық
муникация
▁deneysel
▁duygular
▁gelişimi
▁nispeten
▁yaparsak
▁çevirmek
▁ırkçılık
▁алмайтын
▁егеменді
▁жандарға
▁тұтынушы
▁шекарасы
▁қасымбек
▁2015-2016
▁hastaları
▁miktarını
▁çıktığını
▁жеткіздік
▁күтілетін
▁тауарлары
▁тенденция
▁құрылғысы
динамикалық
▁internetin
▁kullanıldı
▁çıktığında
▁жартысында
▁жоспарында
▁жіберілген
▁келтіретін
▁туберкулез
▁құрылғының
▁destekliyor
▁rahatsızlık
▁yaratabilir
▁экономикада
▁анықталмаған
▁көрсеткіштен
▁орталықтарын
▁кәсіпорындарға
▁қаржыландыруды
▁модернизациялау
.1
yz
ОМ
зг
ха
doğ
dün
fat
osk
бид
гон
эгг
құж
siyi
weet
адий
алса
гісі
омат
ұйық
▁360
▁çuk
▁ЖЭО
▁аша
▁кВт
▁ххі
битум
интез
орфты
▁0,56
▁1990
▁Sana
▁köle
▁site
▁қазп
hattan
lemesi
mıştık
ағанды
берген
▁artar
▁capac
▁fikre
▁görüp
▁inana
▁işine
▁kurdu
▁Кейін
▁Микро
▁жетім
▁күшей
elenmiş
tiğiniz
▁bayrak
▁bilmem
▁izleme
▁seçmen
▁yapıcı
▁Осыдан
▁алаңын
▁жазықт
▁ипотек
▁өзгеше
▁görünüm
▁içeride
▁kalmaya
▁okumaya
▁okuyucu
▁silahlı
▁vermeyi
▁аспайды
▁дәленов
▁көреген
▁салдары
▁сатылды
▁толеран
▁топоним
▁шифрлау
▁қарайды
▁өңдеуді
▁Maalesef
▁bildirim
▁etkinlik
▁priority
▁seviyeye
▁öğretmek
▁былтырғы
▁жақсылық
▁маманның
▁редакция
▁сіздерге
▁тәсілмен
▁қағидасы
biliyorlar
▁farklıdır
▁oluşturdu
▁біріншісі
▁деңгейден
▁жобасымен
▁жолдардың
▁категория
▁лауазымды
▁стационар
▁шешімімен
▁arkadaşlar
▁başlamadan
▁biliyorduk
▁management
▁Önümüzdeki
▁депутаттық
▁лауазымына
▁толықтырып
▁қайраткері
▁başkalarına
▁belirsizlik
▁oluşturmaya
▁çeşitliliği
▁имитациялық
▁ризашылығын
▁қарастырған
▁үдерістерді
▁fotoğrafları
▁girişimciler
▁стандарттарын
▁өзгерістердің
▁көшбасшыларының
▁тапсырмаларының
▁технологияларға
org
ЫТУ
иак
люк
мды
ылғ
▁PM
▁АЖ
▁Ти
cing
lori
usta
ЫНДА
елес
хрон
▁175
▁4,4
▁Küt
▁SiO
▁ant
▁zıp
▁Фун
▁лиг
▁мир
salar
siyle
▁abar
▁gazı
▁nano
▁есіл
▁етін
▁көре
▁лады
▁ішін
ılmaya
▁1960'
▁Merak
▁Pasif
▁Peter
▁açlık
▁bunda
▁doing
▁durak
▁execu
▁giyin
▁izole
▁koyup
▁kuşak
▁plans
▁rutin
▁unity
▁демал
▁жүкті
▁көкей
▁мәрте
▁ұтқыр
▁Әрине
malıdır
▁adapte
▁atalım
▁deputy
▁doğmuş
▁esasen
▁favori
▁gercek
▁kanıtı
▁oranla
▁prensi
▁ruhsal
▁satıcı
▁travma
▁üretic
▁азайып
▁бойынш
▁дәлелі
▁жеделх
▁жүгері
▁калибр
▁көмірт
▁локомо
▁тамара
▁тастар
▁учаске
▁физико
▁Bankası
▁Kişisel
▁Nihayet
▁başkası
▁eğitime
▁sevdiği
▁çıkarak
▁жақыпов
▁жердегі
▁жеңіске
▁кезеңді
▁критери
▁сауданы
▁статист
▁шығарды
▁қабырға
▁өміріне
▁өсімнің
lediğimiz
сапарбаев
қатынасын
▁Binlerce
▁aldığını
▁belediye
▁fazladan
▁hikâyeyi
▁kalmıyor
▁olanlara
▁yerleşim
▁арасынан
▁дамуымен
▁жәрдемақ
▁нашарлау
▁сыныптар
▁танылған
▁тізбекті
▁қадамдар
▁қозғалды
▁әзірледі
▁katılımcı
▁stability
▁Университ
▁аккредитт
▁болмайтын
▁мысалында
▁сақталуын
▁сотталған
▁тағайында
▁формуласы
▁қолдаймыз
▁жоғарылауы
▁педагогика
▁процестері
▁сұрақтарды
▁шараларына
▁шақырылған
▁монополияға
▁тұрғындарға
▁congratulate
26
erg
oto
row
еле
осу
ото
▁пе
ehri
izde
абек
альт
инск
отез
шасы
эксп
▁4,7
▁Ant
▁Del
▁bod
▁lok
▁yil
▁Жан
▁Саб
▁бах
▁рам
▁шот
▁Қан
amızı
antol
diren
izmin
ledge
▁2022
▁Doğa
▁once
▁кеме
▁кілт
▁қате
alized
аллург
тылады
▁Model
▁ekibi
▁evsiz
▁güver
▁kirli
▁memor
▁pembe
▁борда
▁грави
▁жаһан
▁сотқа
▁текті
▁тұрды
▁шайыр
larıdır
▁Yahudi
▁atmosf
▁bencil
▁dolusu
▁kirlet
▁kraliç
▁olayın
▁savaşa
▁sentez
▁uzanan
▁кенорн
▁лондон
▁сержан
▁тоқыма
▁хирург
▁қолдай
шілігіне
ыдырысов
▁Okyanus
▁Sizlere
▁garanti
▁kişiyle
▁korkusu
▁oluşmuş
▁purpose
▁stresli
▁takıntı
▁çıktığı
▁örümcek
▁ағынның
▁жиналды
▁радиусы
▁қатерлі
шілігімен
▁hükümeti
▁korumaya
▁koşullar
▁алғаннан
▁жариялан
▁келмейді
▁келісімі
▁көміртек
▁көрмелер
▁ортасына
▁уақыттан
▁экзоскел
▁қағидаты
kahkahalar
▁enstrüman
▁saldırgan
▁yapıyordu
▁yaşıyorum
▁гендерлік
▁жұмсалады
▁критерийі
▁палатаның
▁реттеудің
▁синтездеу
▁шығындары
▁ілгерілеу
▁belirlemek
▁fotoğrafçı
▁gerekmiyor
▁болғанымен
▁бірлестігі
▁бөлшектері
▁мектептегі
▁практикада
▁қатысушысы
▁değiştiğini
▁наноқұрылым
▁параллельді
▁талаптардың
▁берушілердің
▁синтетикалық
▁үдерістердің
▁hastalıkların
▁тәжірибесімен
▁әкімшілендіру
▁компоненттердің
▁қызметкерлеріне
In
БТ
eth
üel
şiv
гіл
жаз
пей
▁şe
▁АТ
▁ыс
cies
orld
otek
ауыз
ейін
ицид
лген
онан
ізге
▁1,1
▁3,4
▁750
▁Ark
▁Lou
▁Mek
▁Nef
▁ceb
▁nat
▁yuz
▁мих
▁ныш
▁рец
▁ұмы
▁ұны
гілеу
естен
мызды
танов
▁300-
▁Mahk
▁Olay
▁Port
▁attı
▁disk
▁rica
▁spec
▁tela
▁соқт
▁типі
▁элли
▁әсем
latıcı
андары
▁10-15
▁atlet
▁daire
▁giren
▁kurak
▁makul
▁polen
▁sorar
▁terms
▁tünel
▁yunus
▁арнап
▁көшіп
▁литва
▁параф
▁тегіс
▁қоқыс
▁өткер
dilerde
lanmaya
mıyordu
öyleydi
жігерін
обильді
▁Başlan
▁Lütfen
▁Onunla
▁haberi
▁içerir
▁yazarı
▁yetmez
▁Мектеп
▁аласыз
▁вертик
▁желдің
▁жүруде
▁руслан
▁энерго
▁ұсыным
cağından
eleriyle
inizdeki
lanmamış
жылдықта
▁bölgeye
▁oynuyor
▁projeyi
▁sevimli
▁апаттық
▁векторы
▁венгрия
▁жолақты
▁кірісті
▁мәтінді
▁сатылым
▁шамасын
▁қожалық
шекаралық
▁possible
▁çekilmiş
▁арабиясы
▁арақатын
▁желісіне
▁моделіне
▁нормалар
▁пәндерді
▁спортпен
▁тербеліс
▁қысымның
▁өңірінің
офизикалық
▁Manhattan
▁bakıyorum
▁haberleri
▁mechanism
▁tradition
▁шақырылды
▁gerçekleri
▁haritasını
▁sistematik
▁Республика
▁маусымында
▁нәтижесіне
▁профессоры
biliyorsunuz
▁bazılarının
▁educational
▁görebiliyor
▁басшыларына
▁белгіленеді
▁кезеңіндегі
▁сондықтанда
▁түсіндіруге
▁өңірлердегі
▁биометриялық
▁мұғалімдерін
▁көмірсутектер
▁асимптотикалық
▁мүмкіндіктеріне
лм
ars
dok
жіп
икс
йын
әне
▁//
obik
аков
▁107
▁188
▁Ban
▁koç
▁küp
▁Обл
▁Тау
▁вас
▁жіп
▁так
amaya
arıma
mamın
taydı
ектес
ентке
іздес
▁0,45
▁Bron
▁Psik
▁nötr
▁onda
▁Çevr
▁çant
▁üste
▁мұны
▁осал
▁стер
▁қалм
anızda
change
esiniz
eğimiz
seydik
сервер
▁Pazar
▁alama
▁beton
▁bıçak
▁dusun
▁gradu
▁hamil
▁kaydı
▁mayor
▁mağaz
▁metin
▁space
▁uzağa
▁ürküt
▁бәрін
▁бәсең
▁класы
▁ресім
▁салам
▁өткір
▁өңірі
mesidir
▁Street
▁aykırı
▁hemfik
▁ortamı
▁Оларды
▁дөңгел
▁жарлық
▁кредит
▁мақтан
▁нөлдік
▁пакеті
▁талпын
▁түсуде
▁өнімге
▁bebeğin
▁besides
▁challen
▁federal
▁markets
▁savaşta
▁sigorta
▁азиялық
▁жарылды
▁жоқтығы
▁түйінді
▁тәсілді
▁қымбатт
ildiğinde
tırabilir
дықтардың
▁position
▁айқындап
▁атқаруда
▁серпінді
▁қозғаушы
енттерінің
▁başlattık
▁bittiğini
▁bölümünde
▁hastanede
▁inovasyon
▁асырудағы
▁базасының
▁басқалары
▁мерекелеу
▁модуляция
▁шектеулер
▁өндірілді
▁değiştirme
▁дайындауды
▁дәрежесіне
▁кедергісіз
▁командалық
▁сарапшының
▁саясаттану
▁формуламен
▁қоспасының
▁çalışmasını
▁қондырғының
▁әдістерімен
▁hatırlatıyor
▁аспектілерін
▁басымдықтары
▁тиімділігіне
▁депутаттардың
▁қалыптастырып
▁инфрақұрылымның
uf
фт
як
ive
mey
sol
▁EM
▁LG
atçı
ilip
irin
izof
omer
амас
атас
еуіш
▁12-
▁4,3
▁Chi
▁Hig
▁Sır
▁Tim
▁Vak
▁Zen
▁yon
▁Öte
▁Вир
▁Көл
▁иыұ
▁мін
▁нің
gesiz
ropik
tular
▁Jeff
▁Saat
▁alar
▁peyn
▁Коши
▁барр
▁жұмы
▁әрті
emiyet
алауға
тармен
туризм
▁anlık
▁dürtü
▁masum
▁metro
▁odası
▁билет
▁ерікт
▁жаңар
▁төсен
▁цемен
istance
leyelim
дердегі
теңгеге
▁compar
▁course
▁döndük
▁görüşü
▁ilgimi
▁süresi
▁tembel
▁Көрсет
▁абырой
▁ағынан
▁дамуды
▁трафик
▁шешеді
▁Genelde
▁Kırmızı
▁işleyen
▁seferde
▁tourism
▁yarayan
▁zorunlu
▁çoğunda
▁биіктік
▁жылында
▁сайлауы
▁өмірдің
▁ilişkisi
▁kalitesi
▁kolaydır
▁kültürün
▁peşinden
▁yoğunluk
▁yükselen
▁бауырлас
▁бұрыннан
▁интеграл
▁суармалы
▁başlangıc
▁istemiyor
▁yolculuğu
▁yıldızlar
▁çevrimiçi
▁Кәсіпорын
▁бозымбаев
▁материалы
▁сайланған
▁құжаттары
▁bağımlılık
▁gezegenler
▁işlediğini
▁republican
▁çözünürlük
▁деңгейімен
▁дәлелденді
▁есептеудің
▁орындайтын
▁оқытушының
▁филиалының
▁холдингтің
▁есептегенде
▁құрылғылары
▁жеңімпаздары
▁зерттеулерге
▁сауаттылығын
▁теңдеулердің
▁қайраткерлер
▁компанияларға
▁нәтижелерінің
▁тапсырмалардың
DF
NN
али
бор
иан
иды
иян
роц
сул
▁Oğ
cept
ikar
ülüğ
▁Dağ
▁Seb
▁dog
▁esp
▁энд
iller
luyor
piyat
tatör
▁0,57
▁Hikâ
▁Plan
▁STEM
▁resm
▁Терм
▁есік
▁жіті
▁пале
▁степ
▁сәби
lorida
жоспар
иналық
саттық
тәрбие
▁Kutbu
▁adapt
▁dolay
▁kaste
▁oyunc
▁smart
▁treat
▁until
▁çokça
▁ölüme
▁етуші
▁жобал
▁жуығы
лылығын
▁arıyor
▁believ
▁cities
▁kalmaz
▁seyret
▁thanks
▁ucunda
▁yüzünü
▁çevrel
▁şeytan
▁бағаны
▁даниал
▁емхана
▁жарату
▁заңдар
▁кабель
▁квазим
▁куәлік
▁наград
▁театры
▁ісінде
белсенді
▁Gelenek
▁bakınca
▁bekleme
▁beyinde
▁gitgide
▁kumanda
▁oynayan
▁tarihin
▁ulaştır
▁арнаған
▁бақылап
▁жететін
▁көбейіп
▁сенімін
▁Қаратау
▁қолөнер
▁құралын
ептикалық
істерінің
әрекеттер
▁Atlantik
▁Avrupalı
▁aydınlat
▁büyümeye
▁haftalık
▁maddenin
▁restoran
▁sizlerle
▁söylendi
▁sıradaki
▁yuvarlak
▁байқалып
▁кристалл
▁көліктің
▁көрсетуі
▁ландшафт
▁мақтаныш
▁сабақтың
▁таңдаған
▁түсінікт
▁düşündüğü
▁erkeklere
▁байқалған
▁британдық
▁қолдануда
▁қосымшасы
▁әзірлеген
▁aşamasında
▁kullanacak
▁scientific
▁sorunların
▁жүргізілуі
▁Laboratuvar
▁başladığını
▁kırıklığına
▁parçalarını
▁катализатор
▁кондитерлік
▁мәдениеттің
▁başladığımız
▁professional
▁келісімдерге
▁көмектесетін
▁сенімділігін
▁тәуелділігін
▁қабылданатын
▁қатынастарын
▁әскерлерінің
▁демографиялық
▁параметрлерді
▁процестерінің
▁трансформация
▁депутаттарының
▁тұжырымдамалық
▁институттарының
48
PA
aa
ny
İH
diy
örü
ette
irim
ulur
unya
далу
орес
пект
туға
ідір
▁-20
▁Ağa
▁Mor
▁arg
▁bon
▁bro
▁vii
▁şov
▁Таң
▁жүн
▁шап
lülük
идтер
одуль
ірмен
▁akla
▁eşim
▁farm
▁meme
▁mide
▁okum
▁porn
▁spir
▁Şans
▁бару
▁өкім
eceğin
ğından
дәрмек
ифрлық
ттылық
ыларды
▁advan
▁dynam
▁eşleş
▁resep
▁tutum
▁алмай
▁аспан
▁аспап
▁жолау
▁ығысу
düğümde
izofren
memizin
алуымен
дығынан
▁Yardım
▁bakıcı
▁bardak
▁kalkıp
▁kuralı
▁lezzet
▁resmin
▁taşıyı
▁united
▁ашатын
▁босату
▁жағына
▁кірген
▁күштік
▁пікірі
▁секунд
▁тұйықт
▁шұңқыр
▁экипаж
asındaki
алығының
ілмейтін
істіктің
▁Eskiden
▁arasına
▁başlıca
▁etmişti
▁eşdeğer
▁gelirli
▁hâlinde
▁leading
▁sayılar
▁sokakta
▁yapısal
▁çalışıp
▁çağında
▁çıkaran
▁çıkması
▁öldürül
▁Аңдатпа
▁австрия
▁анықтай
▁басқаша
▁дәйекті
▁енгізді
▁констан
▁полином
▁сабақты
▁саламыз
▁фрагмен
▁қақтығы
madığımız
▁approved
▁beklemek
▁durumunu
▁ekolojik
▁geçerken
▁işlevsel
▁жүктерді
▁чемпионы
жекеменшік
▁Hollywood
▁Kendimizi
▁anlamında
▁birbirini
▁bozukluğu
▁fazlasına
▁koşulları
▁tasarımın
▁бөлімдері
▁келушілер
▁көзделеді
▁шақырамын
▁başladığım
▁başlamıştı
▁conference
▁gördüğümde
▁hikâyeleri
▁kahverengi
▁politikacı
▁yerlerinde
▁атқарылуда
▁инжиниринг
▁нормаларын
▁қабылдануы
▁қалыптасып
▁қағидалары
▁үрдістерді
▁yetenekleri
▁yıldızların
▁назарбаевты
▁сигналдарды
▁құралдармен
▁үлгілерінің
▁адамгершілік
▁жылдамдықпен
▁зерттеушілер
▁kendiliğinden
▁жылдамдығының
my
бы
ку
emp
kon
діс
▁кс
kala
берн
етан
илля
кеев
олла
▁112
▁114
▁40'
▁Cin
▁Mad
▁Mot
▁Tor
▁Мон
▁лып
elphi
incil
masın
İnsan
▁Devr
▁Mavi
▁alev
▁atar
▁conf
▁four
▁kova
▁onar
▁orda
▁took
▁Есеп
▁Оған
▁Теор
▁арыс
▁барш
▁виру
▁гарм
▁көбі
▁сызб
▁тікұ
▁үйде
alıyor
lileri
ulması
çileri
емелер
понден
ғыштың
▁GSYİH
▁clear
▁donat
▁share
▁sürer
▁Örgüt
▁üzücü
▁жылжу
▁лагер
▁путин
▁өсуде
earning
ication
ициялық
контрол
ымыздан
▁corpor
▁korsan
▁olmama
▁pirinç
▁single
▁taşına
▁vermem
▁şaşkın
▁атауға
▁байбек
▁білген
▁гидроф
▁оқитын
▁түркіт
▁тұруға
▁Қозғал
▁әкелуі
▁өсетін
landırma
тентифик
▁account
▁deneyin
▁kalması
▁robotun
▁varlığı
▁айтамыз
▁айтылып
▁асырған
▁географ
▁күнтізб
▁түзілуі
▁anlamsız
▁cevaplar
▁dirençli
▁expected
▁konuları
▁language
▁paylaşım
▁tamamını
▁Алгоритм
▁аккумуля
▁аударған
▁диоксиді
▁толмаған
▁форумына
▁әрекетін
▁beceriler
▁davranışı
▁kirliliği
▁liderleri
▁sağladığı
▁sessizlik
▁жеткізеді
▁жүйелерде
▁көмектесу
▁қарқынмен
▁асинхронды
▁міндетіміз
▁теңдеулері
▁benzediğini
▁gerçekleşir
▁karşılaştım
▁uzunluğunda
▁агенттіктің
▁бөлімшелері
▁жүйелерінде
▁мониторингі
▁ресурстарға
▁сенімділігі
▁сессиясында
▁жағдайларына
▁рекреациялық
▁инвестициялау
▁технологиямен
▁қосылыстардың
▁мультимедиялық
.0
Гц
іі
sky
top
ugu
ДЕУ
мит
▁DB
▁Gu
▁vb
▁АК
ihai
iyse
izin
kent
tent
адыб
гізу
неси
ібек
▁109
▁Acı
▁Cha
▁Yür
▁ica
▁Нұр
▁Тол
▁аул
▁бүр
barat
dikçe
linda
saire
ресур
рының
ттегі
утбол
▁Esas
▁cham
▁here
▁iğne
▁koyu
▁thus
▁Ауыл
▁Тест
▁мәмс
▁сөзі
balığı
edikal
mişler
бастұз
береке
дасқан
жанова
ттерге
інетін
▁1950'
▁Belli
▁Ortak
▁Smith
▁ayıra
▁hükum
▁kumaş
▁liste
▁saati
▁saklı
▁yaşar
▁yönlü
▁ölmüş
▁şehre
▁Анықт
▁бөлме
▁корол
▁салыс
▁тәжір
▁өрнек
▁өткім
ариялық
инарлық
ымбетов
▁Dahası
▁Yukarı
▁aradım
▁deprem
▁direct
▁misyon
▁redded
▁ulaştı
▁yüzeye
▁yüzüne
▁Эконом
▁ақырлы
▁біреуі
▁зорлық
▁концер
▁максим
▁сатуға
▁тергеу
▁қайтыс
▁әзірге
elerimiz
ерлердің
▁ağaçlar
▁ağırlık
▁batarya
▁bugünün
▁emniyet
▁incelem
▁kalmadı
▁olduğun
▁olsalar
▁sendrom
▁session
▁severim
▁vesaire
▁дәлірек
▁санайды
▁әдісіне
бағдарлам
▁bakarken
▁durumdan
▁kaldılar
▁kompleks
▁tarayıcı
▁tarihsel
▁türlerin
▁yapmakta
▁ülkelere
▁есебінде
▁несиелер
▁отырғаны
▁танысуға
▁құрылтай
▁ұшыраған
▁hareketli
▁universit
▁zorlaştır
▁конструкт
▁нидерланд
▁орталыққа
▁тетіктері
▁шақырылым
▁шешілетін
▁directions
▁endüstrisi
▁seçenekler
▁қаңтарында
▁görüntüleri
▁hayatımızın
▁institution
▁legislation
▁аттестаттау
▁farklılıklar
▁байланыстары
▁қыркүйегінде
▁жұмысшылардың
▁морфологиялық
32
Fi
әк
VID
bre
eat
sün
uge
рос
үни
▁3'
▁Hy
▁ше
arat
cago
uver
клим
улет
▁6,5
▁enz
▁oğl
▁Жаз
▁ром
▁шип
▁эск
attle
қоғам
▁CRIS
▁Jack
▁[13]
▁bran
▁cilt
▁doğu
▁muay
▁play
▁sans
▁Граф
▁Олай
▁Стан
▁кати
▁сұлб
ılırsa
ИКАЛЫҚ
абында
бағдар
▁Zaten
▁cover
▁dikey
▁geçin
▁hızda
▁izler
▁milli
▁orası
▁soluc
▁çalar
▁ödülü
▁şerit
▁ашуды
▁бакал
▁ереже
▁иидмб
▁пленк
▁серви
▁ұйғар
▁ұнтақ
▁өрлеу
dığının
ografik
шісінің
▁artışı
▁benzin
▁boyutu
▁dizisi
▁hectar
▁iğrenç
▁materi
▁tahrip
▁zekice
▁İtalya
▁қажеті
▁ұлттың
аттармен
сұлтанов
▁Dijital
▁Doğrusu
▁Haziran
▁attract
▁başardı
▁bilerek
▁changes
▁dönüşür
▁güçleri
▁istemek
▁olsanız
▁paradig
▁russian
▁temelli
▁yayıldı
▁zinciri
▁çıkarır
▁алаңына
▁алғышар
▁ашықтық
▁визасыз
▁жоғалту
▁жүздесу
▁туылған
▁әдебиет
ектерінің
▁bıraktım
▁disiplin
▁durumuna
▁gelmeden
▁odasında
▁sürecini
▁yapıları
▁şehrinde
▁нысаналы
▁процессі
▁тарифтік
▁тотықтыр
▁өткізуде
энергетика
▁gerçekler
▁karşılaya
▁sanıyorum
▁анықтаған
▁жезқазған
▁интенсивт
▁biliyorsun
▁tekerlekli
▁жарлығымен
▁стандартқа
▁тауарларға
▁düşünmenizi
▁istemiyoruz
▁oluşturduğu
▁zorundaydım
▁біріктіруге
▁дайындаудың
▁жылдамдықты
▁спектроскоп
▁қозғалыстың
ebileceğimizi
▁değiştirerek
▁organizmalar
▁екендіктерін
▁мәліметтерін
▁ғылымдарының
▁ықпалдастықты
▁серіктестіктің
▁стратегиясында
▁қолжетімділігі
.8
BM
DE
VD
wa
ОН
ПУ
нк
уг
ІЛІ
АЛЫ
аяқ
гім
кор
шан
янь
▁og
▁Кр
endi
hane
laka
lass
дасу
омон
түст
фици
▁Tic
▁hom
▁kül
▁Шеш
▁лам
▁тым
▁Құм
Dünya
andum
dance
emedi
ikler
indan
right
tures
ümüze
асуға
байды
ектеу
жіриб
сәуір
▁Olim
▁fren
▁ikiz
▁tümü
▁Сары
▁иесі
▁нәрс
▁ораз
▁әріп
байбек
▁appro
▁eline
▁lanet
▁major
▁nesli
▁optik
▁Örnek
▁контр
▁мырза
▁құнар
▁үлдір
▁үштен
acağını
lediler
ımızdan
алдарға
▁alındı
▁bağdaş
▁ertesi
▁göreme
▁hedefi
▁seçimi
▁seçmek
▁tadını
▁taking
▁uzaylı
▁çiftçi
▁şurada
▁бүлдір
▁растау
▁халқын
▁Pasifik
▁Sizinle
▁desteği
▁etkisiz
▁işkence
▁odasına
▁tutkulu
▁verebil
▁баршаға
▁гипотез
▁жартысы
▁жарысқа
▁жинаған
▁ресейде
▁сипатқа
▁табысқа
▁транзит
▁қысқару
▁Ekonomik
▁açabilir
▁doğruluk
▁gördüler
▁hayvanın
▁informed
▁medyanın
▁olmuştum
▁romantik
▁алкоголь
▁болжауға
▁дәлелдеу
▁жалақысы
▁жүйедегі
▁заманның
▁теміртау
▁ұшырайды
▁Başlangıç
▁aldığınız
▁buluyorum
▁expressed
▁hareketin
▁ilgiliydi
▁tanımlama
▁unutmayın
▁жүктемені
▁сақтайтын
▁талданған
▁түзілетін
▁экскурсия
▁құзыретті
▁үлгілерді
▁ұзындығын
олептикалық
▁göstermeye
▁sivrisinek
▁zorundayım
▁şehirlerin
▁Топырақтың
▁алматыдағы
▁алушыларға
▁жұмыстарда
▁мүшелеріне
▁полимерлік
▁хатшысының
▁құндылығын
▁yapıldığını
▁германияның
▁başarısızlık
▁davranışları
▁hastalıklara
▁hayatlarının
▁kendilerinin
▁басшылығының
▁олимпиадалық
▁сәйкестендір
▁сәулелендіру
▁uygulanabilir
▁жасөспірімдер
▁заңдылықтарын
▁мүмкіндігінше
td
ӘК
▁â
ebe
işe
sül
бра
кат
▁İr
▁Іс
ased
dviç
mate
okol
rian
ақұр
отты
такт
ыншы
▁---
▁80-
▁Oda
▁clo
▁eşi
▁kıy
▁mav
▁İla
▁Бар
▁Мен
▁кім
▁пас
ental
irsek
meyle
оңғал
▁0,54
▁0,65
▁Baba
▁bira
▁golf
▁ölür
▁Және
▁Тапс
▁глоб
▁танк
▁туды
▁эфир
okrasi
апайым
ацияға
гиялық
дамалы
ғжанов
▁Carol
▁Kelim
▁Sınır
▁ağacı
▁beyne
▁biten
▁hiyer
▁ihlal
▁kızıl
▁велос
▁киелі
▁мұрат
▁өнері
▁өрісі
diğinin
luğunun
алмайды
ылуының
▁Başarı
▁CRISPR
▁akıntı
▁before
▁bilime
▁büyüdü
▁derine
▁duvara
▁forces
▁format
▁garant
▁güçsüz
▁otorit
▁square
▁tarama
▁üstlen
▁şaşırt
▁азияда
▁бітіру
▁кірікт
▁секция
▁сыртқа
lediğini
▁Chicago
▁elinden
▁erkeğin
▁harcama
▁kardeşi
▁santral
▁various
▁Çalışma
▁аумақта
▁кестеге
▁телеарн
▁тұндыру
▁құнының
▁Ortalama
▁actively
▁altından
▁canlılar
▁cevabını
▁faydalan
▁kirlilik
▁tarafına
▁yıldızın
▁Павлодар
▁аппараты
▁гранттар
▁жүздеген
▁миссиясы
▁судьялар
▁талдауды
▁тілдерді
▁ailesinin
▁ekonomist
▁geliyoruz
▁kaldırmak
▁olayların
▁presented
▁understan
▁yaklaşımı
▁ашықтығын
▁кемшілігі
▁отырыстың
▁сайлаудың
▁саламатты
▁түркияның
▁әскерлері
▁Cumhuriyet
▁eğiliminde
▁gidiyorlar
▁interested
▁uygulaması
▁агробизнес
▁анықтамасы
▁картасының
▁мүгедектер
▁мүшелігіне
▁проблемасы
▁сайлауалды
▁сақталатын
▁спутниктік
▁Әлеуметтік
▁әкімдіктер
▁өндірісіне
▁hissettiğim
▁olacaksınız
▁yaşadıkları
▁пайдалануда
▁сұрақтарына
▁тұрғындарын
▁құралдарына
▁өнеркәсіпте
▁yapabileceği
▁зерттеулерде
▁сипаттамалар
▁ұйымдастырып
▁өткізгіштігі
▁кинематикалық
▁қондырғыларды
▁ұйымдастыруды
▁консультативтік
36
On
ТА
зу
30'
fab
mun
nat
sah
ızı
АНУ
▁Je
▁Ак
ayın
ders
üloz
алға
лана
яция
▁185
▁320
▁For
▁Mev
▁Tut
▁ası
▁пыш
ahmet
aniel
chedu
ction
olata
айымы
альян
бұлақ
жіпов
отроп
ресей
істен
▁1993
▁City
▁boru
▁elma
▁диод
▁петр
▁поез
▁таба
аналар
стерін
▁Ailem
▁Balık
▁arşiv
▁aster
▁aylar
▁given
▁katil
▁manip
▁perde
▁ермек
▁күйге
▁радик
▁ретке
▁синус
▁урбан
▁фигур
▁қосар
anların
inasyon
lerimle
liliğin
лығында
▁emphas
▁gazete
▁havayı
▁iyiydi
▁mahkem
▁ressam
▁çıkmaz
▁özünde
▁авторы
▁грамот
▁енетін
▁рефлек
▁турнир
▁шартын
▁шығара
▁қазына
▁қолмен
ineering
імділігі
▁anlayan
▁kristal
▁kölelik
▁metabol
▁opening
▁projeye
▁ulaştık
▁öğrenim
▁аренада
▁ауқымын
▁дегенді
▁көмекші
▁пәтерлі
▁тартуды
▁шешілді
▁қайтару
▁қаласын
▁Güvenlik
▁Muhteşem
▁Okyanusu
▁aktivite
▁arkasına
▁bunlarla
▁bölümünü
▁götürmek
▁noktadan
▁referans
▁çıkardık
▁бекіткен
▁көлемдік
▁нығайтып
▁орындады
▁сіздерді
▁тараптан
▁тығыздық
▁учаскесі
▁ғылымдар
ацияланған
▁Hristiyan
▁anlıyoruz
▁following
▁ilerleyen
▁kazanıyor
▁sürecinde
▁tarihinin
▁yerlerden
▁ескеретін
▁жылдардың
▁мысалдары
▁популяция
▁тақырыпты
▁қамтылады
▁ұсынымдар
▁Geleneksel
▁göstergesi
▁kadınlarla
▁olasılıkla
▁Технология
▁жаттығулар
▁концерттік
▁қаңтардағы
▁Өндірістік
▁kelimelerin
▁participate
▁yaptığımızı
▁бөлігіндегі
▁дайындалады
▁елдеріндегі
▁көрсеткішін
▁төңірегінде
▁қасиеттерге
▁bölgelerinde
▁introduction
▁teknolojiyle
▁модельдеудің
▁интеграциялау
▁көрсеткішінің
▁құндылықтарын
▁başladığımızda
▁дифференциалды
▁кеңістігіндегі
▁бағдарламасымен
▁коммуникативтік
OS
PO
кб
gaz
АТТ
ета
жоғ
иск
күн
нев
нұр
ода
▁Zn
▁ız
burg
dola
tısı
çisi
ırsa
агин
имид
ожол
▁(6)
▁Mey
▁Маг
▁адб
▁ақи
▁рел
▁үлк
paign
tedir
teydi
uties
бейді
ченко
іспен
▁0,60
▁Aman
▁Gece
▁Ocak
▁Open
▁[14]
▁harm
▁hırs
▁taze
▁yıla
▁Амер
▁вокз
▁жабу
▁шкал
ically
Алматы
ағұлов
байтын
онезия
▁1990'
▁2008'
▁Antik
▁Durum
▁Siyah
▁andan
▁confi
▁expan
▁eşlik
▁fırla
▁metod
▁study
▁taken
▁tartı
▁those
▁zarif
▁асқын
▁балет
▁сізге
▁әбден
bilirdi
▁Kulağa
▁Kullan
▁cezası
▁groups
▁ilacın
▁iseniz
▁opened
▁suppor
▁İçinde
▁Ақтөбе
▁аммиак
▁баланы
▁болдық
▁капилл
▁латвия
▁сөзіне
▁фермен
▁өзгеде
acağımız
ihazırda
екциялық
▁ailemin
▁alakası
▁anladık
▁boşluğu
▁efforts
▁gittiği
▁tümüyle
▁yıldızı
▁öncülük
▁şiddete
▁аумақты
▁бюджеті
▁есептеп
▁коэффиц
▁олардан
▁пластин
▁спортты
abileceği
larınızla
▁Filistin
▁Stanford
▁anlamını
▁astronot
▁bağlılık
▁capacity
▁deputies
▁european
▁hayatına
▁hazırlan
▁ikincisi
▁isterdim
▁söylenen
▁çalışmam
▁ажырамас
▁алатынын
▁астананы
▁аяқталып
▁бағалауы
▁біліммен
▁елшілігі
▁жібереді
▁күндізгі
▁сауалнам
▁сендірді
▁энерготи
▁қаныққан
▁қоспаның
▁өндіруде
әлеуметтік
▁benzersiz
▁beyindeki
▁bütünüyle
▁completed
▁desteklem
▁improving
▁nesneleri
▁toplumlar
▁verilerin
▁векторлар
▁сополимер
▁төленетін
▁қабылдауы
▁үшөлшемді
▁alışkanlık
▁bağlantısı
▁developing
▁değillerdi
▁processing
▁söyleyerek
▁ауылындағы
▁компоненті
▁табиғаттың
▁әңгімеледі
▁bazılarınız
▁birbirimizi
▁davranışlar
▁getirebilir
▁mühendisler
▁ылғалдылығы
▁bakıyorsunuz
▁uygulamaları
▁ассамблеяның
▁балабақшалар
▁кезеңдерінде
▁сипатталатын
▁kullandıkları
▁özelliklerini
▁қырғызстанның
▁düşünüyorsanız
▁архитектуралық
As
IC
Re
Ama
göz
üşe
ато
дін
ред
син
топ
ӘНЕ
▁%7
▁gr
▁зо
caba
kton
ript
well
ğine
ışık
гент
исек
орта
ысыз
қызм
▁(7)
▁1-2
▁Cap
▁Mis
▁Nes
▁coş
▁dez
▁put
▁Күр
▁алш
▁аял
▁соғ
▁сән
ences
insan
адрат
ентін
кенов
ілдес
▁aygı
▁conn
▁ipuç
▁kılı
▁muam
▁Сәйк
▁цирк
▁шеше
abilen
ecilik
торлар
іңізді
▁Haber
▁Higgs
▁Trans
▁aşina
▁elbis
▁mizah
▁olsam
▁uğrat
▁üçgen
▁жайын
▁портф
елермен
кілікті
▁azalma
▁ağları
▁concer
▁crisis
▁dönemi
▁editör
▁evreni
▁famili
▁family
▁kaldık
▁kurşun
▁mucize
▁prices
▁report
▁sınıfa
▁tasvir
▁асырды
▁есепте
▁логист
▁монтаж
▁талдай
▁фазасы
▁ұзарту
emizdeki
сметалық
▁Görünen
▁arabayı
▁denedik
▁karışım
▁kılıyor
▁okullar
▁oranını
▁reached
▁tutarlı
▁yaşandı
▁çıkarma
▁Жоғарғы
▁аралығы
▁докторы
▁көшпелі
▁резиден
аттықтыру
шараларға
▁Erkekler
▁akıllıca
▁anlattım
▁başlayıp
▁dengesiz
▁electron
▁exchange
▁haberdar
▁includes
▁konusunu
▁trillion
▁yararlan
▁арналады
▁докторан
▁жұмыстан
▁кеңейтіп
▁конгресс
▁мекемесі
▁нақтырақ
▁салтанат
▁сыныптан
▁қарқында
▁durdurmak
▁ellerinde
▁götürüyor
▁hikâyenin
▁kenarında
▁laboratuv
▁mekanizma
▁zorluklar
▁аумағынан
▁генератор
▁санаттағы
▁сигналдың
▁табыстады
▁başlayarak
▁olsaydınız
▁söylüyordu
▁tanımlayan
▁tartışmaya
▁topluluğun
▁yapıyorsun
▁yaşındaydı
▁басшылыққа
▁даярлаудың
▁полиэтилен
▁техникасын
▁факторлары
▁ықтималдық
▁қоспаларды
▁fotoğrafını
▁çocuklarına
▁бақыланатын
▁судьялардың
▁қолданылуда
▁öğrendiğimiz
▁ерекшеліктер
▁жеткізілетін
▁тауарларының
▁орынбасарлары
▁температураны
▁ұйымдастыруда
▁duymuşsunuzdur
▁трансшекаралық
▁хабарланғандай
.]
En
20'
ath
bik
not
ror
ruğ
uşu
аун
жап
▁1'
▁AM
▁Sy
erra
onim
yolu
атам
урен
▁11-
▁3,7
▁Ali
▁Ted
▁sıt
▁çen
▁фен
ansal
икалы
лағыш
қылды
▁1996
▁4000
▁Etiy
▁arke
▁avuç
▁fizy
▁full
▁kola
▁lear
▁lüks
▁norm
▁resp
▁Стат
▁бель
▁бұру
▁дара
▁жәді
▁штам
▁ұғын
▁өрне
duğumu
tiğine
ерлері
жаттығ
тарына
▁Bronx
▁Değer
▁Gazet
▁bakma
▁bizde
▁halüs
▁siber
▁toler
▁çaplı
▁Алтай
▁аудио
▁блогы
▁пәнді
▁үнқат
естерді
икасына
▁ayıran
▁kurucu
▁orkest
▁paraya
▁Örgütü
▁çatlak
▁ürünün
▁алатау
▁біледі
▁вокзал
▁жинағы
▁осылай
▁оттегі
▁сәттен
▁Қызмет
▁құжаты
кеңестік
ляциялық
халықтық
▁Kontrol
▁against
▁ayırmak
▁faydası
▁interac
▁okuldan
▁sözleri
▁yanımda
▁yarışma
▁Белгілі
▁амандық
▁деректі
▁жарылыс
▁үдеткіш
▁ұлғайып
▁Өсімдік
▁өлшеуге
▁өңдеуде
▁edilecek
▁geçtikçe
▁ürkütücü
▁айындағы
▁аспайтын
▁астанасы
▁исламдық
▁негіздем
▁пысықтау
▁смайылов
▁сөздерді
▁қолдануы
▁үрдістің
▁ekonomisi
▁gözlerini
▁knowledge
▁sonlandır
▁Ақпаратты
▁айналмалы
▁бюросының
▁валюталық
▁газдардың
▁капиталды
▁локомотив
▁фабрикасы
▁фестивалі
▁өзгеретін
▁ekonominin
▁geldiğimde
▁yöntemleri
▁аутентифик
▁беріктігін
▁пациенттер
▁сезімталды
▁құраушылар
▁başlangıçta
▁bilgisayarı
▁görüntüleme
▁kombinasyon
▁olmadığımız
▁мырзахметов
▁орындарымен
▁түркітілдес
▁мәдениетінің
▁cesaretlendir
▁opportunities
▁алгоритмдерін
▁композициялық
▁координаталар
▁мемлекеттерге
▁ғимараттардың
▁өндірушілерді
▁перспективалық
.2
49
5%
чи
biz
cep
kâr
val
ЫНЫ
меу
уен
▁My
▁Oh
▁[6
▁cm
▁эп
аров
инов
мырз
ышты
▁3,8
▁Fre
▁hil
▁wel
▁Кір
▁бух
-2013
Benim
biyat
duino
eliğe
fairs
gusal
ğinin
авказ
гірім
далып
иямен
мамыр
түтік
әсіби
▁step
▁vaat
▁ЖӘНЕ
▁Зерт
▁Тран
▁арыз
▁дерб
▁драй
ebilme
олекул
▁Bende
▁Henry
▁Lider
▁Maple
▁akışı
▁dilde
▁direk
▁ezber
▁fedak
▁israf
▁media
▁piram
▁sakat
▁sanay
▁sesle
▁seçil
▁south
▁çanta
▁биікт
▁білді
▁бүтін
▁грамм
▁келсе
▁кіруі
▁мүлде
▁наноб
▁ондай
▁сақин
▁стенд
▁ұжымы
melidir
parator
шылыққа
▁Sizden
▁Teksas
▁agency
▁azalta
▁bizzat
▁egemen
▁motoru
▁satmak
▁soruna
▁spektr
▁sınırı
▁yoluna
▁İhtiya
▁аударм
▁курсан
▁істеді
▁қалаға
▁үйінің
mezsiniz
tığımızı
ектілігі
▁alırken
▁ardında
▁dizilim
▁gizlice
▁katıldı
▁tüketic
▁çabucak
▁çekirde
▁басқосу
▁баяндап
▁горизон
▁кәдімгі
▁металды
▁прогрес
▁санкция
▁тауарды
▁ішінара
▁қалыпқа
▁қорымен
▁үлесіне
elikopter
пирикалық
▁bağlamda
▁bağlayan
▁büyükbab
▁dinliyor
▁gazeteci
▁hectares
▁ilgisini
▁istihdam
▁kısmının
▁savaşmak
▁seçilmiş
▁Тәжірибе
▁биліктің
▁горизонт
▁динамика
▁етпейтін
▁комиссар
▁мәтіндік
▁отырысын
▁реттеуді
▁уақытына
▁қазбалар
▁қолдаған
▁қоныстан
▁difficult
▁gerçeğini
▁seviyoruz
▁soruyorum
▁territory
▁vücudunuz
▁çıkarmaya
▁болғандай
▁велосипед
▁дайындалу
▁ойдағыдай
▁отбасының
▁қазандағы
▁ұйымдарға
▁өтініштер
▁büyüklükte
▁dünyasının
▁verirseniz
▁дәрежедегі
▁жетілдіріп
▁сауаттылық
▁студенттік
▁туындылары
▁төлемдерді
▁қызметтегі
▁başlıyorlar
▁зерттеулері
▁hücrelerinin
▁бағытталатын
▁жануарлардың
▁критерийлері
leyebilirsiniz
▁Студенттердің
▁байланыстарын
▁математиканың
▁мүмкіндіктерге
▁пайдаланушының
▁температурасына
IM
ао
мл
ұу
▁ı
-17
Ses
ike
urn
yaş
бағ
сшк
сыр
ғау
▁Ba
▁ЭК
balı
irdi
ocuğ
olar
орти
▁206
▁4,8
▁Mel
▁asp
▁opt
▁sag
▁vat
▁алл
▁алп
▁сқо
▁цик
▁Қой
aliba
etiği
mates
tının
алуға
ингін
ымбек
қауым
▁aksi
▁bill
▁east
▁gran
▁rail
▁tabl
▁uzer
▁vakt
▁глюк
▁озон
▁істі
avallı
тардан
▁Stand
▁ampul
▁boyun
▁cazib
▁hiper
▁muhal
▁prime
▁sipar
▁sudan
▁yüklü
▁İster
▁Дайын
▁алтай
▁асуда
▁аөсшк
▁бекет
▁ниетт
▁рекон
irseniz
герлері
ективті
ектілік
есіздер
▁arayan
▁benims
▁birimi
▁geçtim
▁sanayi
▁sitesi
▁депози
▁жолына
▁жұмсақ
▁келісу
▁элемен
▁қарсыл
▁қиында
ebilmesi
lanmıştı
қатерлер
▁Ebeveyn
▁Türkiye
▁dersler
▁getirip
▁gösteri
▁izleyic
▁kızları
▁oyunlar
▁riskini
▁yöneten
▁İtalyan
▁Мәселен
▁жасадық
▁жастары
▁ортамен
▁парадиг
▁қаржысы
▁ұсақтау
экономика
▁açıkladı
▁başarmak
▁edildiği
▁etmenizi
▁festival
▁kurtarma
▁meselesi
▁oradaydı
▁seçeneği
▁ticareti
▁yaşından
▁Üzerinde
▁аударады
▁ашылатын
▁заңдылық
▁күштерін
▁сессиясы
▁тауарлық
▁тілдерін
▁төрайымы
▁aldıkları
▁açıklıyor
▁bölgeleri
▁cevapları
▁documents
▁duyuyoruz
▁konuşalım
▁olduğunca
▁yerindeki
▁атқарылды
▁аумағының
▁геометрия
▁жабдықтың
▁жүйесінен
▁игілігіне
▁кеткендей
▁кешендері
▁кішкентай
▁транспорт
▁федералды
▁экстраген
▁құрамымен
▁құрылысқа
▁araştırmak
▁gerçekliği
▁innovative
▁introduced
▁moleküller
▁odaklanmış
▁özellikler
▁демократия
▁жабдықтары
▁жақсартады
▁квадраттық
▁сипаттауға
▁сұраныстың
▁энергиямен
▁қолданумен
▁әлеуетінің
▁düşünceleri
▁improvement
▁yapacağımız
▁öğrencilere
▁бағыттарына
▁ерекшелігін
▁жетілдіруді
▁көшбасшылар
▁әрекеттерді
▁söyledikleri
▁universities
▁yapabilirler
▁құбылыстарды
▁bulunmaktadır
▁баяндамасында
▁бөлшектерінің
▁жетілдірілген
▁конструктивті
▁тартымдылығын
▁тәуелсіздігін
▁ұйымдастырған
▁değişiklikleri
▁teknolojilerin
▁компоненттерін
TP
zi
ins
mut
çya
ИКА
ауқ
мут
ота
▁2'
▁Mi
▁PC
▁uk
▁ИН
▁иж
Aman
aklı
ansa
hile
rağı
tımı
üsüz
акөл
апан
арын
ақыт
инат
роду
циум
▁155
▁3,0
▁Eve
▁Hed
▁Irk
▁Tra
▁izi
▁iğn
▁nam
▁rap
▁ucu
▁Айт
▁Жет
▁лан
▁нов
▁руд
▁таш
bilme
ediği
eydim
kinin
otekn
ovyet
ışlar
ануда
ақпар
карди
ритер
танол
▁0,58
▁idam
▁kost
▁öbür
▁İler
▁апар
▁еніп
▁қырт
▁COVID
▁Sahra
▁aradı
▁hesab
▁konut
▁koyar
▁party
▁satır
▁struc
▁tweet
▁yerdi
▁Брэгг
▁абзал
▁альян
▁ескір
▁идеяс
▁кинет
▁клубы
▁тарау
▁төтеп
гіштігі
рополит
ымыздай
▁Aralık
▁acayip
▁adıyla
▁benlik
▁filmin
▁konsan
▁mecbur
▁mutual
▁reduce
▁schedu
▁çektim
▁бейнек
▁гидром
▁губерн
▁жобада
▁обьект
▁тілдің
▁шымкен
▁қатысы
bilirsek
сараптам
старының
▁Hayatta
▁affairs
▁aletler
▁dağınık
▁filmler
▁geçmişi
▁görecek
▁hangisi
▁listesi
▁medyada
▁müşteri
▁sandviç
▁tersini
▁yerdeki
▁önceydi
▁İrlanda
▁Алғашқы
▁арыстан
▁бағалай
▁бекітті
▁дайынды
▁диірмен
▁зауытын
▁конкурс
▁роботты
▁тілдері
▁тұрғызу
▁қорынан
▁Kütüphan
▁alanının
▁bölgenin
▁campaign
▁diktatör
▁etkiledi
▁kurulmuş
▁launched
▁reported
▁sandalye
▁yürürken
▁örneğini
▁аптасына
▁жарамсыз
▁клубының
▁растайды
▁тауардың
diklerinde
▁2014-2015
▁edecekler
▁ettiğinde
▁evrendeki
▁gidiyorum
▁olduğuydu
▁Екіншіден
▁алдымызда
▁арттыруда
▁долларына
▁кешенінде
▁мегаполис
▁мекеменің
▁модульдік
▁үлгісінің
▁assistance
▁becerileri
▁hareketler
▁sisteminde
▁Электронды
▁білдіремін
▁жүйелеріне
▁мәндерінің
▁тауарларын
▁түрлерімен
▁форматында
▁өңіріндегі
▁öğreniyoruz
▁ülkelerdeki
▁аймақаралық
▁жоспарларын
▁платформасы
▁тиімділікті
▁тұрғызылған
▁төзімділігі
▁учаскесінде
▁әрекеттерін
▁gezegenlerin
▁тәжірибелері
▁Қазақстандық
▁құралдарымен
▁hissettiriyor
▁информатиканы
▁функциялардың
▁шаруашылықтар
▁başlayabiliriz
▁қалыптастыруды
▁қауіпсіздігіне
▁міндеттемелерді
-0
.9
3;
76
dp
şu
fre
дая
пеу
теу
▁%1
▁mr
▁pu
▁Өт
ikli
izmi
most
tual
дром
енаж
ібір
▁Bon
▁Soğ
▁Vay
▁şab
▁Веб
▁гон
▁кул
▁лян
▁тог
▁Қай
▁қдб
mişim
Сурет
динов
желто
негіз
ұлтты
▁0,41
▁Ever
▁[15]
▁dışa
▁give
▁kayd
▁meyv
▁tavş
▁литр
▁әбді
anızın
daydım
econom
ünüzde
досаев
▁Sekiz
▁alfab
▁desen
▁evcil
▁nihai
▁petro
▁rekor
▁sırrı
▁tavan
▁türün
▁İsviç
▁Бұған
▁Дәстү
▁баяул
▁заңда
▁нәрсе
▁сызба
▁сүтті
▁түтін
▁тұйық
▁эстаф
▁үмітт
▁access
▁denize
▁effici
▁enstit
▁etkiyi
▁pantol
▁soruml
▁yapıya
▁Сыртқы
▁демалу
▁көмегі
▁магний
▁мансап
▁ойынша
▁рекорд
▁сулары
▁футбол
▁өтейік
идтердің
▁Arduino
▁centers
▁koordin
▁monitor
▁solunum
▁жалғасы
▁заманға
▁контрол
▁метрден
▁синхрон
▁танылды
▁қадамды
▁ağaçları
▁bizlerin
▁büyürken
▁feminist
▁fikrimiz
▁gizlilik
▁kanserin
▁mutluyum
▁psikiyat
▁savaştan
▁yukarıya
▁çocukluğ
▁şekiller
▁şüphesiz
▁болгария
▁жөндеуге
▁өздеріне
▁өлшемдер
ендірілген
әрекетінің
▁başkaları
▁cihazları
▁conducted
▁iletişimi
▁inceledik
▁kurtulmak
▁çalışmada
▁дәлдікпен
▁енгізілуі
▁көрінетін
▁ұйымдарды
▁accordance
▁geliştirdi
▁tecrübeler
▁İnanıyorum
▁дұрыстығын
▁жалғастыра
▁проблеманы
▁рәсімдерін
▁федералдық
▁шикізаттық
abileceğimiz
географиялық
▁çalışacağım
▁болашақтағы
▁керамикалық
▁отбасыларға
▁өнімдерімен
▁ерекшелігіне
▁еңбектерінде
▁объектілерін
▁үлестірілген
▁düşünebiliriz
▁Педагогикалық
▁бірлестігінің
▁жетіспеушілігі
▁құзыреттілігін
▁әріптестерімен
6)
98
ук
Ger
bia
nek
oug
uki
yaz
АРЫ
еңк
ктр
лат
мбы
▁CF
▁Me
▁fl
▁АВ
ranç
арал
даль
иран
ланы
ңдеу
▁Sha
▁ago
▁dig
▁çır
▁İsa
▁Нан
▁дық
▁сут
▁экс
arter
halde
other
дамын
ибден
▁0,59
▁Jose
▁Yaşa
▁atıp
▁goal
▁insp
▁İste
▁затт
▁пара
▁шуыл
▁шыға
▁Қара
▁құйм
▁әдеп
▁Өнер
cement
muştum
ушылар
фараби
▁Bilgi
▁Derin
▁basıl
▁cisim
▁exist
▁gecek
▁inkar
▁oksit
▁patri
▁rahip
▁verit
▁біріг
▁бұұдб
▁кәмел
▁маңай
▁схема
▁тәлім
▁шәкір
бірінен
ерлерді
әрекеті
▁başlık
▁change
▁mekani
▁mining
▁okuyor
▁randev
▁servet
▁veriye
▁yazıcı
▁yüzeyi
▁Талдау
▁андрей
▁виктор
▁етілуі
▁консор
▁токтың
▁энтроп
▁эпидем
economic
атындағы
▁akışını
▁duyulan
▁düşünüp
▁ekranda
▁holiday
▁istemem
▁reaktör
▁riskler
▁tesadüf
▁ассорти
▁зымыран
▁салатын
▁шарттың
▁қабілет
▁үлгілеу
▁өндіріп
layacağım
▁azalıyor
▁baloncuk
▁bilmeden
▁eğitimin
▁gittiler
▁kahvaltı
▁katıldım
▁katılmak
▁metrelik
▁nesneler
▁olmamalı
▁otomobil
▁sordular
▁söylemem
▁üretiyor
▁бағыттың
▁зертхана
▁оқшаулау
▁сақтайды
▁сұрыптау
▁туындысы
▁ailelerin
▁düzeltmek
▁düşünmeyi
▁ilgilenen
▁kemoterap
▁sağlamaya
▁çıkabilir
▁айналысып
▁айырымдық
▁жүйелерге
▁кедергісі
▁нормалары
▁bilmiyordu
▁birdenbire
▁duyduğunuz
▁düşündüler
▁increasing
▁seviyesine
▁söylemişti
▁аймақтарын
▁байқалатын
▁барлығымыз
▁бордақылау
▁енгізілуде
▁өткізілуде
▁parçacıklar
▁алгоритмнің
▁анықтамалық
▁жіберілетін
▁тарихындағы
▁gördüğünüzde
▁жабдықтардың
▁компьютердің
▁микроконтрол
▁сипаттамасын
▁establishment
▁düşündüğünüzde
▁криптографиялық
▁меморандумдарға
▁қолжетімділікті
55
VI
tt
Дж
МА
СЕ
рш
сә
bın
odi
том
▁Bi
▁Ra
▁kg
anlı
pati
test
tlar
екке
ихан
▁5-6
▁Kop
▁rel
▁sop
▁sün
▁tiş
▁Şah
▁асу
▁баг
▁иль
▁под
▁тиг
adays
ather
fendi
imini
tical
uther
üşvet
даушы
ногор
онукл
такси
тылып
▁100'
▁Sing
▁aslı
▁elit
▁hile
▁Алды
▁жасу
▁жылд
▁иман
▁линз
▁майы
▁руда
▁свет
▁флор
▁қиып
▁әдем
isiydi
tıktan
ландия
мыстық
пайтын
циясын
▁Kongo
▁amaca
▁duman
▁ihmal
▁işimi
▁yolcu
▁çamur
▁çekin
▁Темір
▁жатты
▁метод
▁мұхит
▁сазды
▁тігін
▁түгел
▁Құрам
▁ұмытп
шілікті
▁canına
▁etmede
▁hızını
▁sınıfı
▁trajik
▁ауылда
▁ақорда
▁басқан
▁болмай
▁жастан
▁кодтау
▁конвей
▁сатысы
▁словак
▁соттың
▁түсуге
▁қорлар
▁өңірге
ileriyle
ılmıştır
▁anneler
▁bilimci
▁elinizi
▁genleri
▁kaldığı
▁leaders
▁niyetli
▁salınım
▁trajedi
▁çevrede
▁ансамбл
▁арналып
▁еңбегін
▁жиналып
▁оркестр
▁төсеніш
▁хаттама
▁Қосымша
duğumuzda
melerinin
компьютер
▁belirlem
▁inceleme
▁kanıtlar
▁nowadays
▁register
▁yapacağı
▁ışıkları
▁şekliyle
▁ауданына
▁ашықтығы
▁дәлдігін
▁жарыстар
▁кванттық
▁норматив
▁санаймыз
▁соғұрлым
▁халықпен
▁қытайдан
▁құбырлар
▁ұстанымы
ediklerini
▁dalgaları
▁katılıyor
▁Виртуалды
▁Физикалық
▁клиенттер
▁сарайында
▁уақытының
▁шекаралас
биологиялық
▁ebeveynler
▁hayatımızı
▁olduğumuza
▁oluştuğunu
▁sanatçılar
▁sorunlarla
▁çalıştılar
▁аударылады
▁ескеріледі
▁комитетіне
▁отандастар
▁сұрақтарын
▁тактикалық
▁түпкілікті
▁шарттарына
▁alanlarında
▁engineering
▁kullanırlar
▁yetişkinler
▁авторлардың
▁айқындайтын
▁облыстардың
▁орындалуына
▁потенциалды
▁салыстыруға
▁өнімділікті
▁bilmediğimiz
▁halüsinasyon
▁материалының
▁нәтижелердің
▁халықтарының
▁kaynaklanıyor
▁мақсаттарының
▁тұтынушыларға
▁байланыстырады
▁бәсекелестікке
▁компанияларымен
▁консультациялар
HR
ii
ІР
-12
Tez
car
eck
ego
nie
raz
vis
üce
ЕТТ
баб
елл
енс
мик
сәр
фил
▁Ep
▁SS
▁ЖҚ
▁еэ
azor
biya
eriz
opat
еден
тырм
филь
▁Cor
▁Dür
▁Rom
▁Tec
▁fıs
▁map
▁muk
▁üçü
▁дүр
▁ноб
▁тос
hendi
senin
жидек
истің
ғынан
▁Part
▁Step
▁Yedi
▁alım
▁amen
▁hani
▁mesl
▁port
▁şişe
▁азат
▁гипс
▁дмит
▁қарм
esifik
lamalı
siyete
шараны
▁Hazır
▁World
▁ağlar
▁başlı
▁candi
▁cerra
▁gecik
▁ikili
▁tehdi
▁аумақ
▁базар
▁дизай
▁дистр
▁ешбір
▁кетуі
▁көкжи
▁лянью
▁тенге
▁түпкі
▁эваку
ardınız
құрылыс
▁Antark
▁Bangla
▁Sovyet
▁dondur
▁elimde
▁fatura
▁gündüz
▁hacker
▁işimiz
▁kalori
▁kağıdı
▁kestir
▁regula
▁supply
▁yanıma
▁yerdir
▁ölçmek
▁Балқаш
▁Осының
▁дәурен
▁келелі
▁кескіш
▁пластм
▁қыздар
▁құқылы
етербург
▁Avustur
▁Vietnam
▁alınmış
▁bulunma
▁dilerim
▁döngüsü
▁güneşin
▁inceler
▁kadınla
▁largest
▁noktayı
▁İspanya
▁ауданын
▁ауытқуы
▁бейінді
▁емтихан
▁итальян
▁кодексі
▁көмекке
▁мыналар
▁нығайта
▁сөздері
▁тартқан
▁тиіспіз
▁қозғады
▁ұрпақты
▁Yaratıcı
▁belgesel
▁dersleri
▁isterler
▁kaliteli
▁karşılan
▁konusuna
▁kuyruklu
▁merkezli
▁olsaydım
▁renkleri
▁reseptör
▁vermeden
▁yaşamını
▁öldürmek
▁şiddetin
▁аурулары
▁визуалды
▁реттеуші
▁салынуда
▁сулардың
▁тәріздес
landığında
шаралардың
▁alanların
▁ağaçların
▁devletler
▁адсорбция
▁актілерге
▁дінаралық
▁жеделдету
▁жолдаудың
▁көзқарасы
▁орындауда
▁түлектері
▁ғылымының
▁ұғымдарды
▁bitkilerin
▁businesses
▁gördüğünde
▁istiyorsun
▁seyirciler
▁білетіндей
▁дәлелдейді
▁жетекшілік
▁салқындату
▁себептерін
▁соншалықты
▁элементтің
▁әрекетінің
▁alıyorsunuz
▁diyebilirim
▁ettiklerini
▁байқаушылар
▁ерітіндінің
▁жоғарылайды
▁оңтайландыр
▁demokrasinin
▁азаматтарына
▁делегацияның
▁посткеңестік
▁сәйкессіздік
▁düşündüğümüzde
▁құрылымдарының
▁karşılaştığımız
▁байланыстыратын
▁жауапкершілікке
▁республикасымен
//
дс
-18
-23
hoş
stı
uly
ânı
ЫЛЫ
баз
диф
ьян
▁DH
▁Eh
-100
alıp
ilin
opol
seyi
ınak
нның
таль
ызыл
▁Arj
▁Tab
▁ikl
▁lek
▁tay
▁квт
▁рен
larus
tayız
wards
иттер
мелеу
сызды
теңіз
тқару
▁0,66
▁Eric
▁Halk
▁boşa
▁eşiğ
▁izni
etroit
latmak
tayken
амызды
наурыз
сайлау
қараша
▁banyo
▁cunku
▁denli
▁evlat
▁ipucu
▁nerde
▁param
▁right
▁sebze
▁Çoğun
▁Ödülü
▁Орган
▁ОҚЫТУ
▁айдан
▁айдын
▁алқап
▁аңғар
▁балқы
▁менші
▁скрин
▁сутек
▁шешіп
▁Қазір
▁үштік
eğinden
▁Milyon
▁genler
▁kıskan
▁lideri
▁profil
▁rüzgâr
▁seçkin
▁strong
▁yönelt
▁yılını
▁Еуропа
▁Жамбыл
▁аптада
▁жазған
▁жасауы
▁жасына
▁желіге
▁көбеюі
▁лекция
▁лизинг
▁мұсылм
▁қоржын
▁ұнтағы
sınızdır
▁Başkanı
▁Florida
▁alanını
▁alırlar
▁another
▁açısını
▁believe
▁evrimin
▁getiril
▁gitmesi
▁hakkını
▁işleyiş
▁kamusal
▁kimseye
▁konunun
▁kurtarı
▁sayılır
▁sectors
▁yırtıcı
▁üstelik
▁баратын
▁мүшелік
▁сабақта
▁саудаға
meyeceğim
tıklarını
астырылып
▁aramızda
▁beynimiz
▁beyniniz
▁birisini
▁mesajlar
▁psikolog
▁sanatsal
▁sinirsel
▁sistemde
▁ауыспалы
▁жасампаз
▁көпұлтты
▁тарихына
▁қуатының
▁bağlanmış
▁böylesine
▁büyüklüğü
▁göründüğü
▁harikaydı
▁kararları
▁sorunlara
▁sorunumuz
▁yaşayacak
▁yolsuzluk
▁İmparator
▁басқарады
▁бүлдіршін
▁датчиктер
▁кездесуді
▁келешегін
▁кеңесшісі
▁реакциясы
▁семинарға
▁сканерлеу
▁сұранысты
▁форумының
▁өлшенетін
▁bulunmakta
▁hatırlamak
▁kalitesini
▁yapıyordum
▁çalışmamız
▁ülkelerden
▁газдандыру
▁жеделхатта
▁зерттеледі
▁ипотекалық
▁метрология
▁мүдделіміз
▁пікірлерін
▁секторында
▁тұрғызылды
▁францияның
▁düşündüğünü
▁etkileyecek
▁independent
▁Информатика
▁деректермен
▁компонентті
▁мақсаттарды
▁hayatlarında
▁insanlarının
▁yaptığımızda
▁мекемелерінде
78
ЕШ
қм
ңд
-30
pha
tün
зақ
▁03
▁BF
▁Cd
▁LA
▁LT
▁wa
▁Ля
batı
demi
goti
imum
tice
tüğü
vest
şeye
дыны
ксим
оцен
▁118
▁128
▁4,2
▁Giz
▁Kuş
▁Red
▁War
▁hon
▁huy
▁tru
▁win
▁yuk
▁çet
▁Şef
▁şak
▁Ней
▁Там
▁мун
▁нам
▁окқ
▁таи
▁Қау
ersem
yasal
çılık
çının
түрік
ықсыз
▁0,62
▁0,71
▁1980
▁400-
▁HTML
▁Teda
▁farz
▁kong
▁kore
▁paid
▁аясы
▁ақсу
▁гель
▁лақт
▁сана
memesi
ülmesi
иясына
қозғал
қызмет
▁Burda
▁Kolay
▁Scott
▁barda
▁esrar
▁moral
▁mütev
▁satan
▁solar
▁sperm
▁taşır
▁yürür
▁çukur
▁İncil
▁айдар
▁граду
▁жылын
▁жыныс
▁пирам
▁өріст
leşiyor
malılar
ılmamış
икадағы
тарында
▁10,000
▁Arapça
▁Enerji
▁Kendis
▁aklına
▁derdim
▁dilini
▁doğdum
▁durgun
▁geliri
▁gülüms
▁mahrum
▁negoti
▁robotu
▁sözlük
[...]
