<blank>
<s>
</s>
▁b
ar
er
in
an
ir
en
▁d
▁k
il
ın
lar
▁y
▁s
▁o
▁g
ma
ek
▁v
▁bir
or
la
ak
un
el
▁i
im
da
▁h
▁a
iz
▁t
▁ve
et
yor
ler
de
lı
▁ç
▁B
ik
ey
ün
▁ol
ya
dı
▁bu
▁ya
di
em
on
es
tı
▁ş
▁ka
ız
du
▁de
▁da
▁m
le
ra
st
ok
▁ö
▁ba
▁n
ce
ım
▁iç
um
den
bil
iş
ların
▁gö
▁f
uz
li
▁sa
▁e
▁için
ür
▁A
lan
▁p
ur
ha
ta
üz
sı
▁ha
iyor
ara
▁yap
dan
ları
iy
▁Bu
am
ini
▁in
▁z
mak
ında
▁il
is
ış
ük
it
unu
üş
▁oldu
ol
san
at
▁şey
ul
▁an
ır
▁gör
▁bil
eler
▁ger
üm
ık
ti
▁değ
ıl
▁S
ca
ine
▁çok
bilir
▁et
▁var
▁daha
▁baş
sa
▁V
▁gel
▁gi
te
iler
bi
imiz
sın
▁D
alı
iniz
▁insan
▁olduğ
ıyor
az
uş
oğ
▁ne
ka
▁K
ül
ay
▁son
diğ
uy
leri
mek
▁Ve
▁H
öy
inde
▁en
▁ön
▁ver
▁on
cak
uk
eye
▁ki
▁kar
▁"
▁ben
▁Y
▁kad
yı
aki
ğın
▁olma
▁ta
larak
▁T
▁her
üy
aman
▁İ
▁düş
▁gibi
ğı
▁ist
lık
tir
eç
▁olarak
ev
▁al
ki
dir
▁kon
se
me
lik
▁zaman
inin
cı
▁ara
▁(
▁iş
▁E
eki
ımız
eş
ec
▁ay
dır
▁olan
▁ola
▁değil
tır
ğer
▁G
ro
ut
laş
ark
▁O
▁M
▁yer
çek
ön
lem
▁düşün
daki
alış
ası
al
sun
üç
▁çalış
▁bun
▁kadar
▁yaş
▁ken
esi
▁r
▁1
ceğ
▁or
ip
▁biz
▁büy
op
maya
▁Bir
▁yıl
dım
▁sor
man
▁-
▁anla
▁tek
ci
▁yüz
mış
▁ar
▁gerçek
yan
öyle
lara
▁iy
kü
ten
▁kul
▁P
üyor
eni
▁kullan
▁ama
ünkü
uyor
▁bak
der
▁fark
ecek
ru
▁gerek
mam
şı
▁şek
▁Ç
▁ko
lerin
ez
ünya
▁çık
dim
ğr
ör
ken
larını
len
▁F
va
ep
yon
miş
▁bul
▁doğ
▁N
eceğ
▁geç
▁sür
▁ma
▁ile
ah
dü
▁yan
▁olduğunu
▁büyük
asıl
▁--
▁aç
tan
..
dece
▁Ş
▁iyi
ili
iç
▁sonra
tik
▁siz
▁sağ
▁haya
▁el
rada
tiğ
...
▁nasıl
deki
▁gün
▁Ama
arı
iye
▁har
ına
▁u
lama
dik
ist
▁değiş
oc
ana
siniz
▁ilg
▁dur
tık
▁şekil
▁hak
▁öğr
ğım
leş
▁bo
sel
üc
▁den
▁üz
lu
▁2
▁bunu
▁top
▁C
eyi
ça
üt
azla
▁sah
ını
▁c
▁fazla
▁uz
▁yok
▁yol
nı
unda
▁dön
ika
imdi
ster
ğını
lıyor
si
▁sadece
▁ev
▁üzer
▁pro
▁dünya
▁ak
om
ladı
iyorum
meler
▁tan
▁yeni
diyor
ede
isi
sl
▁çünkü
▁di
▁zor
▁uy
▁gen
▁kal
▁kı
▁yak
▁kur
akat
olo
▁şekilde
bir
00
us
enin
ğımız
▁göster
meye
ba
eğ
▁der
ter
▁çoc
▁öl
ebilir
inden
lerini
yla
▁yar
▁yara
zı
▁Bun
▁söy
imi
▁öz
▁önce
ından
slında
▁Ben
sunuz
gi
▁hakk
sında
ot
▁karşı
▁par
▁veya
▁aynı
▁önem
oloj
tur
▁şu
▁orta
▁kay
▁ok
▁bel
liğ
▁duy
▁konuş
öz
▁insanlar
tü
▁iki
ani
▁kiş
os
▁öğren
▁diğer
▁hiç
tım
▁tüm
dum
▁farklı
▁kendi
ması
▁ed
▁mu
▁yapa
▁kö
▁benim
▁az
eli
lk
tr
sını
eh
raf
yun
lü
▁etk
▁yön
."
▁tara
bileceğ
▁neden
eri
sal
▁ek
erk
arak
▁çocuk
▁oluş
▁kor
▁yet
düğ
▁bağ
sız
ap
▁mil
▁san
▁An
eb
▁gerçekten
▁sahip
▁ilk
▁dev
dık
▁ür
gu
▁Yani
mem
lere
▁sı
▁hakkında
▁olduğu
iyle
maz
▁ih
▁önemli
▁taraf
▁R
▁Ö
▁sev
▁olur
lardan
iyoruz
ülüş
▁durum
▁do
let
tu
▁ede
as
▁küç
larda
▁L
ran
▁başka
ilen
▁yaptı
▁konu
▁bunun
▁doğru
▁ra
istem
Gülüş
men
▁İn
▁hast
▁görün
▁git
▁kend
▁inan
▁fik
şa
▁tar
▁Şimdi
if
▁ihti
umuz
duğ
emek
▁göz
▁iste
▁şeyler
siz
▁alan
▁geliş
▁içinde
etir
laya
''
▁ilgili
Gülüşmeler
▁his
▁kap
ab
▁bilg
▁küçük
ef
▁bey
larımız
sek
▁bile
▁bö
larının
▁olduk
▁ediyor
▁iz
▁mi
lg
una
ğa
▁tekn
ının
tür
▁tür
▁sistem
gün
▁hayat
▁hep
ley
re
▁ise
▁kan
rı
imizi
▁yaz
uç
ıp
ütün
est
eti
▁yük
diği
▁kim
▁ik
larına
▁böyle
ızı
▁ada
▁getir
fa
mer
▁biri
▁On
tim
diğim
rn
▁Son
▁aslında
▁bazı
▁Fakat
▁tem
ydı
sına
üst
muş
elim
cek
▁bana
▁göre
▁ül
▁eğ
sit
▁üç
iya
esin
▁Ne
dur
larla
aş
▁çek
kaha
▁olabilir
▁gir
▁hik
▁yapı
set
eleri
lay
▁arka
▁topl
▁kadın
ed
▁...
▁J
▁açık
▁çoğ
▁ihtiya
▁seç
likle
▁eder
mayı
▁yardım
ih
▁bizim
mesi
ileri
ven
▁tut
▁ad
Kah
▁İş
▁3
▁po
na
▁burada
▁olacak
▁özel
▁alt
Kahkaha
unuz
esini
▁insanların
▁gü
▁olmak
▁ülk
sanız
üzel
▁ku
▁güç
▁ce
▁hem
tar
▁dış
eket
aha
▁tamam
sar
▁yüzden
▁es
dığı
▁değiştir
▁Eğer
ınız
▁geri
siy
▁eğer
▁teknoloj
▁size
duk
▁edil
daş
sınız
▁mı
elik
yal
dür
rar
kaç
▁anlam
larında
ştır
▁biraz
▁çıkar
vet
lım
leştir
▁tam
iyorlar
diğimiz
▁vardı
▁sen
▁nok
▁Sa
lığı
▁hareket
vaş
lerde
▁çev
▁bütün
ıyoruz
ümüz
▁diye
ıyorum
▁çöz
▁başladı
eniz
çok
▁nokta
manın
▁etmek
▁U
▁ner
▁Biz
▁bah
lak
▁Bunu
▁alı
cu
▁mo
gı
ram
▁hız
luk
ünü
ri
lkış
esinde
▁mü
ilik
▁hay
ber
▁sorun
▁tasar
▁mes
van
lamak
▁Amer
▁eş
biliriz
Alkış
▁zamanda
▁Çünkü
üp
▁benz
▁bilim
▁yapmak
▁kaz
esine
ünüz
nın
▁bulun
han
gan
▁düz
dığını
▁tarafından
▁oluyor
▁yaşa
▁onu
▁para
▁üret
0'
▁üzerinde
yız
▁ses
▁bin
▁Ha
▁te
▁Her
▁güven
▁örn
ulu
▁milyon
▁karar
ebil
erek
▁say
ic
▁ça
eden
▁ter
▁kat
▁Ay
layı
▁fikir
▁tak
▁sayı
ece
▁boyun
▁değer
▁kaç
▁yaklaş
id
sk
yle
▁uzun
lerine
▁dok
▁su
iyi
▁şeyi
ğınız
▁bit
▁oy
▁at
▁fakat
up
▁araştır
▁oluştur
fr
diğini
▁onun
▁güzel
▁belir
▁üst
▁20
▁Ancak
▁birkaç
ımı
malı
▁istiyorum
▁ulaş
ye
▁devam
irk
üs
liği
rup
▁boyunca
tem
▁li
▁oldukça
ırak
▁19
▁Peki
▁ortaya
ıyorlar
sak
▁gelen
▁tekrar
▁bize
ciler
▁olması
▁adam
▁deney
▁soru
▁herk
ize
likte
kan
?"
nin
ver
ans
diler
▁şimdi
▁seb
▁bırak
▁onları
elen
ünde
▁kız
eyen
▁Bunun
▁res
▁ail
eme
▁başla
bilirsiniz
▁şeh
unun
▁Bil
▁eğit
▁hal
▁beni
▁kork
ücr
lam
▁birçok
yanın
▁yay
▁dönüş
▁zorunda
▁İşte
▁kötü
Kahkahalar
lendir
aret
mez
leye
lerden
lerinin
del
▁kab
inizi
▁parça
▁İnsan
▁hikay
onom
▁din
▁yani
mamız
▁hiçbir
bet
▁sık
▁söyle
▁düşünüyor
▁Dünya
▁mak
sının
▁yaşam
▁arkadaş
▁haf
ita
▁5
▁I
erj
▁ser
▁bek
▁Ta
▁dik
uv
sin
▁hâ
iyordu
▁açı
gel
inç
▁er
▁geçir
işim
▁yüksek
mel
▁ci
▁görüyor
▁erk
▁evr
▁anda
▁ış
işk
edi
min
tıcı
▁W
▁kıs
lemek
▁tel
ide
▁koy
▁başarı
inci
▁Ü
imizin
▁çalışma
düm
izi
▁toplum
cağım
▁içer
mal
rıca
▁birbir
landır
▁gördüğ
isay
ındaki
ünyanın
ğında
▁''
▁hayal
vi
▁4
▁ağ
▁birlikte
▁enerj
eg
▁Daha
tış
▁yerine
çı
bilecek
▁aş
anın
▁em
▁şirk
▁sıra
ği
▁kişi
uluk
000
blem
▁kazan
▁mik
▁oyun
▁Böyle
ğu
▁Aslında
ekk
dığımız
esel
▁hastalı
meyi
ıt
larından
▁dil
▁pay
▁erkek
▁Ken
▁10
kat
▁gez
seniz
▁bölg
▁pek
▁yüzde
▁keş
og
▁arasında
▁Çok
osyal
▁teş
▁nerede
lerle
▁tamamen
trol
üne
usu
net
syon
ne
tor
lük
▁la
eşit
▁öğret
▁gereken
ört
▁ala
▁fil
sunda
▁ettiğ
▁En
▁demek
▁etkil
▁problem
nız
isayar
▁poli
▁muh
▁basit
iydi
oğraf
▁genel
▁sonuç
▁hisset
▁geliştir
ttı
▁belki
▁uygu
▁ceva
▁Afr
▁met
▁söz
▁katı
--
lığın
imde
uyu
▁fot
lerinde
▁kita
▁sağlık
▁dav
▁eden
▁temel
▁geliyor
▁saat
▁Burada
ılmaz
eğin
▁buna
▁kır
yım
▁kontrol
ılmış
▁oku
▁şirket
▁dem
ral
▁hücr
art
▁şöyle
met
suz
▁um
▁çeşit
▁uç
▁bunlar
▁hatır
▁bugün
sından
▁can
tıyor
▁paylaş
▁veri
oz
▁ekonom
▁Ar
▁mut
▁gelir
ayı
▁ro
ıcı
ekkür
larım
▁kolay
▁onlar
▁mer
dak
▁yür
▁olsa
▁man
elerin
▁sin
▁çevr
imin
▁önc
gram
▁savaş
lantı
çe
▁ila
▁dedi
tta
▁dünyanın
▁sizin
▁tah
▁haz
lış
▁ister
▁Sonra
▁artık
▁harika
yar
dük
▁orada
can
▁üzerine
▁genç
tak
▁im
▁is
▁aşa
diğiniz
liyor
yse
▁kelim
▁dair
miyor
▁konusunda
▁işe
▁Ka
▁araştırma
▁yal
▁bura
▁sosyal
▁hızlı
▁uzak
▁örnek
▁çoğu
nak
▁davran
▁gön
eği
layan
▁öyle
lerinden
▁ölç
cağını
sik
▁ihtiyac
yet
şey
▁hayvan
tmak
▁bilgisayar
ob
for
▁fır
▁bizi
lerce
▁çiz
▁boy
▁biliyor
▁müz
mi
masını
▁yaptık
ıldı
hangi
▁şehir
▁vardır
iyet
tiğini
tör
▁yeniden
lır
▁sek
▁yakın
▁dol
hi
▁fotoğraf
▁tarih
▁ancak
▁Gün
indeki
▁insanları
▁gelecek
▁yalnız
▁sal
▁olmayan
gil
▁hâl
▁herkes
▁keşf
erkez
kı
▁güc
▁oran
leme
▁Ger
▁ona
▁proj
▁onların
ınır
biliyor
det
dığım
lardı
▁Evet
ime
ilerin
▁organ
inc
▁Baz
imize
▁kaynak
▁Amerika
▁Al
estek
▁dört
▁dikkat
▁San
▁hazır
ilmiş
ültür
▁grup
▁Afrika
ve
ban
isini
▁onlara
sındaki
siyon
asyon
▁düzen
▁Böylece
▁hafta
larca
▁yeter
▁destek
kün
gin
▁Şu
▁güçlü
oy
çası
▁as
şık
▁çalışan
▁vüc
▁sonunda
▁çalıştı
ucu
▁kes
▁siya
▁program
▁okul
ekli
▁6
▁ilişk
▁iler
▁teh
ternet
menin
▁yapma
▁kısm
▁sanat
▁inşa
▁hatta
▁ölüm
▁eğitim
▁yen
▁yerde
▁kut
▁Ya
▁Sadece
lanmış
ebilirsiniz
ift
▁kol
▁geldi
efon
▁kabul
Alkışlar
▁Baş
▁otur
müş
ektr
▁değişik
gın
teş
ince
iyiz
▁milyar
▁yaklaşık
ni
ddi
▁herhangi
▁karşılaş
hat
ser
umu
▁ot
▁Bel
acak
uvar
matik
▁kültür
▁beş
▁taş
▁işte
▁olmaya
▁ilet
▁yapıyor
▁hisse
▁olduğumuz
▁görev
▁tep
▁cevap
lim
▁gezeg
▁altında
tiği
▁nes
memiz
lanma
▁yazı
▁böl
▁bilgi
▁haber
▁geniş
▁derece
▁teda
mp
bii
esinin
▁hava
▁konuşma
▁ilginç
▁sınır
leyen
▁elde
▁Gerçek
ısı
ğız
ümkün
▁kısa
▁biy
▁şeyleri
▁etti
▁Bunlar
▁Benim
▁hasta
▁tanım
▁oda
▁kez
▁şunu
▁yapar
▁dak
▁benzer
▁araç
▁kendim
ela
stan
▁merkez
oş
gun
▁kür
▁etraf
▁kesin
emez
▁biç
▁dolar
▁Amerik
▁ber
▁karma
▁süre
ren
izik
▁gönder
hil
▁mümkün
▁hemen
▁200
▁sebep
▁telefon
cağız
▁olmalı
▁edin
dın
▁ün
▁dünyada
▁politik
▁duygu
▁inanılmaz
▁istiyor
▁Bugün
manız
▁plan
cel
▁durumda
▁eski
▁yanlış
▁hikâ
mesini
be
▁kr
isinde
ünün
▁görüş
▁Av
▁böylece
▁tane
▁çift
▁koru
▁tasarım
▁çar
▁neredeyse
sam
▁çözüm
ayan
▁ann
▁baz
yi
▁izin
▁bağlı
ing
isk
rak
aj
▁çıktı
▁engel
▁model
▁beyin
▁söylem
▁parçası
▁cin
▁El
ğına
▁olay
▁ihtiyaç
▁insanlara
landı
▁yönet
ırım
▁hastalık
lerimiz
abilir
tma
▁İlk
▁enerji
▁kav
▁kil
çi
▁Ma
ilerini
▁Ba
▁han
▁elektr
ünden
▁Di
▁teknoloji
lo
▁kullanı
▁gider
▁bahset
meden
oğu
▁ayr
▁araba
▁bar
▁sizi
▁yolu
▁rahat
ig
▁uğ
▁Gör
ina
sıyla
versit
dikleri
▁7
▁taşı
▁varsa
uh
▁ren
▁Ara
larıyla
▁kitap
▁tes
lüyor
ork
▁yine
temelen
▁zar
▁Or
uyla
▁özg
▁yapmaya
▁yaşında
▁Hep
madan
▁rob
makta
undan
diş
▁karmaşık
▁tanı
pr
▁hiz
▁sını
▁rağ
ideo
mıştı
▁ışık
▁sahi
▁İk
▁mek
▁sab
▁New
▁ora
yıl
mekte
▁değildir
▁alıyor
ünc
oh
ormal
tiler
alım
mıyor
son
▁bağlantı
▁yapan
▁istediğim
edef
▁rağmen
▁derin
lamaya
▁Tamam
▁gaz
▁azal
tif
▁hük
▁ilaç
diğinde
af
▁ifa
▁yardımcı
▁Çin
▁hala
.000
iliğ
larınız
▁sey
▁olduğuna
fes
▁Tüm
bı
▁deneyim
▁gerekiyor
▁şeyin
▁Ayrıca
▁hale
▁çocu
▁fizik
ıntı
▁istem
▁ayak
labilir
▁birşey
▁koş
▁araya
etik
▁bunları
bilmek
▁ortak
▁özellikle
▁Size
▁şaş
sini
dip
tıl
▁düşünün
▁gezegen
▁AB
▁uğra
aber
▁doktor
üf
▁tük
▁pat
▁yalnızca
por
raki
isel
▁bahse
▁mey
▁aşağı
▁suç
▁akıl
arken
hen
dılar
▁karış
▁giz
maları
▁sil
▁olmadığını
lüğ
meyen
▁boş
taki
▁Bazı
olojik
▁neler
▁8
▁dedim
▁resim
▁15
▁dayan
▁deniz
▁Tek
▁kalan
▁değildi
▁sınıf
▁söylüyor
▁tahmin
▁9
eyin
▁olmuş
▁'
▁boz
▁götür
ola
duğu
▁davranış
▁ana
▁odak
eyecan
▁gerekir
▁ülkeler
▁100
▁sok
▁doğal
esinden
▁düşündüğ
▁adım
▁Bence
▁hepsi
he
▁acı
▁ürün
▁yarı
▁arasındaki
▁dolayı
▁çalışıyor
▁üzere
▁ettim
▁baktı
▁ettik
▁yöntem
▁av
emiz
▁per
▁küresel
▁Siz
▁dönem
▁yeten
▁sak
elerini
sta
sıl
▁Hin
ton
akip
▁yere
▁sene
▁boyut
▁İngil
isinin
▁Ön
▁bence
▁gösteriyor
▁risk
▁ayrıca
mız
cağı
lacak
▁olsun
▁başladım
▁dakika
▁du
▁İs
▁Büy
▁Aynı
▁diz
▁yoktu
▁heyecan
iğ
oğun
▁Dev
▁düşünc
▁hayatım
za
▁Kon
▁hes
▁film
ebiliriz
▁bilin
▁gerçekleş
etr
▁robot
str
▁kom
▁Belki
▁öldür
▁ihtiyacımız
lek
▁kah
▁ABD
bol
▁internet
iyim
▁şid
imizde
▁hedef
meli
tın
ayda
▁biliyoruz
bu
▁iletişim
ırı
teki
▁emin
yken
▁yaptığımız
▁geçen
▁Yap
▁mal
eceğim
ıyla
ge
▁vücu
▁etmeye
▁Bura
▁yatır
bileceği
▁ifade
okra
▁fak
▁gidiyor
laştır
▁bazen
▁eşit
ED
ocuk
▁yüzyıl
▁kullanarak
▁mikro
ekkürler
ileş
▁gördüğünüz
▁içine
▁çarp
uyorum
orm
sine
▁lider
▁tartış
▁yüksel
▁şaşır
▁Örn
▁hikây
leriyle
tal
▁test
▁Har
▁makin
memiş
▁sonraki
▁yaka
▁görmek
▁beraber
deş
lanan
▁etme
▁sorum
▁insanın
üle
lilik
▁geçmiş
▁Neden
▁incel
▁Gen
▁yı
▁yaptığı
▁Ch
▁ağa
▁güneş
jen
üncü
ılma
▁Diğer
bileceğini
▁alır
▁ikinci
▁merak
layacak
nun
▁mad
▁fikr
▁Mar
lerdi
▁keşfet
leyi
▁bölüm
▁yemek
▁anlamına
▁anlaş
▁tehlik
▁bundan
eyn
fer
dy
▁ey
▁bes
▁oyna
▁vak
▁hizmet
▁ilgilen
▁pla
tum
▁30
larımızı
▁söyleye
luğ
▁muhtemelen
▁olup
▁bakış
irsiniz
▁mev
malıyız
▁çö
▁mah
liyet
▁seçim
ch
▁sun
ebek
Bu
▁ic
▁zih
▁canlı
▁yavaş
▁dir
ham
arım
▁bunların
emmel
▁yaşayan
▁tu
ku
bon
▁dönüştür
▁alın
▁beyaz
duğumuz
av
cık
▁bilm
sat
▁düşünüyorum
▁201
▁dışarı
▁altı
▁olası
▁sistemi
▁kuş
▁takip
▁verici
▁geleceğ
▁vermek
▁hoş
elere
▁bakar
ilere
ükemmel
ydım
NA
azar
▁şiddet
cılar
▁gerektiğini
▁gide
▁sol
▁zen
▁York
ukarı
iştir
▁görül
ildi
mişti
▁almak
▁hâlâ
▁mesaj
▁devlet
dar
▁renk
▁ör
▁ele
emeye
▁normal
▁düşünür
▁balık
▁yoğun
▁kanser
meleri
▁Büyük
▁endiş
▁devr
▁değişim
ceğim
▁Buna
▁aldı
▁başlıyor
▁tıp
▁İnsanlar
aten
▁çevir
▁olurdu
▁Bana
▁Örneğin
lin
uzey
▁yiy
uc
imli
diniz
▁dalg
▁edecek
▁görüntü
▁sürekli
▁yaratıcı
ınca
▁TED
▁birisi
▁kendini
▁ciddi
▁kaldır
▁dünyayı
uluğ
bilirim
▁miktar
tra
▁özgür
lardır
ıyordu
▁başına
▁diy
▁evren
▁nedir
▁sürü
▁kaybet
▁Tan
▁alıp
▁CA
▁ban
▁birey
▁asla
uyoruz
madı
▁tab
▁Avrup
bileceğimiz
▁kural
▁görünüyor
▁zek
▁yapılan
▁başarılı
▁kesinlikle
▁Hay
cağımız
▁binlerce
▁uygulama
▁müzik
▁verir
▁yıldı
▁şeye
distan
▁fayda
▁ait
▁yor
▁uzman
eyim
ga
▁düşük
▁öde
▁uygun
lıkla
▁yılda
▁hayatta
cut
▁Doğ
duğum
▁Çocuk
ard
▁sav
▁tanış
▁dışında
▁adı
ladık
▁büyüm
▁okyan
▁Teş
▁yılında
▁kimse
▁yatırım
pek
▁nüf
▁düşündüm
▁yayın
▁tedavi
▁beyn
▁topluluk
▁çocuklar
sem
▁gece
dis
haz
▁ayır
▁olmadan
▁gar
▁konuda
mızı
lıyorum
▁ederim
▁bağım
▁zarar
▁Onlar
▁Kar
▁kurt
▁laz
▁başar
tuğ
▁mis
▁mate
▁video
▁öğrenciler
▁hap
▁algı
▁dolu
▁nedenle
▁sürec
▁ı
▁kullana
sil
▁yağ
▁Birleş
uydu
▁Pek
▁beri
▁Fran
yüz
oloji
▁18
inize
▁kayı
luğu
▁zengin
emin
▁görür
▁Hindistan
▁birinin
od
▁rek
mesine
▁anlama
▁hata
▁hesap
▁dünyadaki
isine
▁yukarı
orat
▁ağır
▁ekonomik
▁sayesinde
▁mar
▁kara
▁tabii
▁organiz
ital
cadel
inizin
▁kir
▁dahil
uma
▁alış
▁yolc
▁harita
▁kişisel
▁şekl
dıkları
▁dö
▁sar
▁ders
▁geçer
▁uzay
▁imkan
▁gerekli
▁biliyorum
▁anlaya
▁mükemmel
▁hangi
▁DNA
▁bab
▁veren
▁meydan
▁seviy
▁ces
▁ortam
▁ülke
▁harca
ere
▁defa
eydi
▁ışı
dam
▁Hiç
▁şans
▁takım
ğınızda
▁bakın
po
lerim
▁med
▁tav
iv
▁olduğum
▁mem
▁50
▁arada
uyorlar
▁işi
ete
▁bask
▁elektrik
üğ
sen
▁Gerçekten
▁vir
▁yıldır
bileceğiniz
▁içerisinde
▁vur
▁Kendi
▁sinir
▁mücadel
▁ayrı
▁işlem
bo
▁12
ebi
olek
▁öt
▁Geç
▁unu
▁yaptığım
▁Do
ılması
▁Pro
▁halk
▁yık
▁uc
▁zamanlar
bar
▁tat
▁görüyorsunuz
ydi
▁ca
hal
▁Avrupa
din
▁çap
langı
▁teor
unuyor
ck
enüz
lığa
teşem
▁kadınlar
▁giy
▁hüküm
▁yaptım
▁ediyorum
▁İki
▁kurul
▁silah
▁süreç
▁verdi
▁olmadığı
▁bina
haf
bette
▁anlamak
yat
stik
▁Bütün
▁bulunan
larımızın
üler
▁sürdür
emi
ğan
ümüzde
▁görebilirsiniz
▁olduğunuz
▁buz
▁temiz
elikle
▁söyledi
arkı
tiğimiz
▁mutlu
▁kardeş
▁mevcut
efer
▁tip
akter
kın
▁fırsat
▁eki
masına
imar
▁kısmı
medi
▁katıl
▁kurum
▁yarar
dül
▁gru
▁sıcak
▁veriyor
ıma
▁diyor
▁dağı
.''
lit
▁kafa
▁musunuz
▁l
▁kanıt
▁fiziksel
yın
▁ır
▁öğretmen
ımda
▁rol
▁yıldız
▁art
meniz
▁sebebi
▁görüyoruz
tiv
▁iyileş
ilir
▁doğa
▁aşırı
üsü
▁Mes
▁yem
▁asıl
▁oyn
incisi
▁birini
▁yerleştir
▁bulmak
▁etkileş
▁kimya
▁herkesin
lanır
su
luluk
mur
▁evet
▁başladık
▁ul
▁don
▁İngiliz
usun
▁başlar
▁bal
malar
▁Ev
▁hepimiz
▁karbon
anlık
hendis
▁yeterli
▁politika
▁va
▁Bizim
▁ileri
lığını
iversit
▁saldır
atta
ly
yış
▁haline
ayet
▁çocuğ
▁gördük
▁Üç
▁kamp
▁ask
▁orman
▁psik
▁Ro
▁hikaye
▁farkında
▁üniversit
▁Güney
▁dalga
▁çalışır
▁sağlıyor
▁bas
▁eğlen
▁nedeni
fak
▁Gel
▁lab
▁saç
▁Yeni
alık
▁fikri
▁molek
sul
▁özellik
ste
üper
dınız
▁aile
▁çoğun
▁sır
▁Devlet
▁işaret
taj
iyat
▁amaç
ret
eşil
ücü
▁zaten
iliği
per
▁demokra
▁kam
▁kurtar
▁kişinin
▁matematik
▁endü
dem
▁ruh
gor
▁lazım
müyor
▁söylemek
üzik
rafik
▁kalp
▁kayna
lerimizi
lana
▁Go
▁num
▁pazar
meliyiz
▁oluşan
▁Orta
elerde
▁Birleşik
atan
▁gidip
▁olacağını
of
▁Kim
▁yarat
▁Ok
▁medya
▁muhteşem
▁öy
izyon
▁seçen
mayacak
▁Amerikan
▁gerçekleştir
sü
▁bula
▁mekan
▁bec
▁bebek
▁karakter
fen
▁sayıda
▁bakter
▁başlangı
▁çocukların
ris
▁ah
▁yasa
maktan
cil
▁kop
▁iklim
lanıyor
dunuz
▁gördüm
5'
▁yum
▁Hatta
üb
▁Öz
▁umut
▁verdim
eyle
▁beklen
▁gerç
▁kapı
▁bağış
sizlik
▁bitir
▁hastan
▁fa
▁etkili
▁belli
▁ortalama
tiğim
ebilecek
▁kendimi
üstü
▁hissediyor
liğin
▁uğraş
gen
jital
▁cihaz
▁çıkan
▁birleştir
▁Br
iliyor
tığımız
▁genellikle
▁fin
▁Amerikalı
▁Herk
diklerini
arası
▁yapabilir
▁Ak
▁kem
etler
▁kıya
bev
irler
▁temsil
▁sağlıklı
sinin
▁Onun
ent
▁hav
▁ağaç
▁yerel
▁ihtimal
▁laborat
bilen
▁gözlem
▁dünyaya
▁ırk
▁Artık
▁içeri
eyse
▁aracı
▁rahatsız
▁işle
▁yoksa
ülebilir
▁yapacak
▁olmaz
▁yıllık
▁milyonlarca
olog
▁çeki
ust
▁tic
▁Kuzey
▁kişiler
▁ata
▁kok
▁yaban
dından
▁As
tıra
▁Bak
▁gücü
▁yetiştir
▁güvenli
▁büyü
▁Başka
▁mantık
▁biçimde
tığı
▁insanlarla
▁diş
dular
▁noktada
dern
▁aldım
▁olursa
ici
▁pan
▁evrim
pan
▁sefer
▁başlaya
▁Uz
üman
▁yansı
▁görsel
▁mühendis
▁henüz
▁ga
▁sağladı
▁tarz
▁madde
▁mesel
▁Birkaç
▁yiyecek
▁Sonuç
▁derecede
▁ateş
▁olmadı
▁gelenek
▁yüzünden
ladım
▁girişim
▁hücreler
▁bazıları
izm
▁üy
▁istedim
▁şeylerden
▁anlat
▁göstermek
var
▁ihtiyacı
▁sem
▁ilham
▁edi
▁malz
▁yaşan
▁uyan
ıza
▁kaf
işkin
▁söylen
▁azından
▁sağlayan
ile
yalı
▁hayır
beveyn
inizde
▁terci
âr
siyet
▁değişiklik
to
ala
▁kendisi
iyorsunuz
asit
mayan
tansiy
▁gelip
▁teşekkür
unç
çiler
▁kamer
mıştım
alet
yacak
▁yanında
ılan
▁sana
lum
liğe
▁Tabii
▁duvar
▁adlandır
▁yapabil
▁Yak
▁tec
▁amacı
▁mimar
▁akıllı
▁başarısız
▁gül
▁küt
▁ediyoruz
▁tedav
tez
laması
▁oraya
▁anlata
▁öğrenc
▁yaratmak
▁yapıyoruz
▁beden
▁olağan
▁yedi
▁olduğunda
▁olduklarını
biy
▁buraya
iyer
▁sahibi
▁aktiv
▁yapay
▁sabah
▁birden
▁işler
▁insanı
▁Teşekkürler
▁garip
▁süper
▁gerektir
▁sit
▁kendine
▁kadınların
üyle
▁kavram
▁zorluk
▁Sor
▁tehdi
▁zamanı
▁kırmızı
▁bilmiyor
▁oğ
onik
▁kök
▁Batı
▁sağlamak
eksiyon
▁çalışmak
utan
gar
iği
▁soy
▁fakir
layarak
▁Sağ
▁ulus
▁Top
▁uyum
▁becer
▁şarkı
▁sağlaya
▁tercih
▁olacaktır
ımın
▁yaşlı
▁bakalım
▁şaşırtıcı
▁buy
▁çal
▁şeylerin
layıp
▁tecr
elerden
▁gittim
ati
▁göç
▁ödül
▁yüzey
▁edebilir
vik
▁of
uştur
ow
▁çeşitli
ğının
▁eriş
▁kalı
▁sahib
pa
ger
atif
mada
▁des
▁has
▁Yine
▁dolaş
▁potansiy
▁yerlerde
▁25
Müzik
▁Mesela
▁edilen
tığım
▁inanıyorum
zer
▁yaygın
▁ziy
istik
▁kalk
▁söyley
ıda
insel
go
▁Ek
▁pen
▁öner
imden
▁siyah
▁yeşil
aka
▁mağ
▁yarata
▁dijital
▁soğ
▁bitk
eliğ
ogle
▁eylem
▁cinsel
▁gittik
ücre
▁gec
▁kayıt
otor
▁poz
▁resmi
▁tıpkı
▁yarış
▁etkisi
▁molekül
▁40
▁kaldı
▁günlük
▁bilimsel
▁İkinci
▁gösteren
lat
▁Mo
▁korkunç
▁babam
▁görme
▁Su
▁yoksul
niversit
▁değilim
▁karanlık
ij
▁açısından
▁sanırım
▁yenilik
ıb
▁Pa
▁şüp
muyor
▁tüket
▁belirli
dek
gör
sas
▁pop
▁sim
etrol
liliğ
▁vatan
▁değerlendir
▁kura
▁rast
▁işin
liğini
lıklar
ğından
▁senin
▁numara
▁teşvik
ümü
▁İç
▁giden
▁fon
▁Yüz
▁vücut
▁oluştu
▁eve
▁köy
▁tabi
▁istiyoruz
▁olduğundan
enler
▁sokak
▁ısı
ğınızı
tuk
▁bur
▁çağ
▁salg
▁gizli
mür
lemeye
▁saniye
▁gök
▁erken
duğunuz
▁endüstr
▁zamanlarda
▁aşı
▁sahn
▁adında
biliyoruz
▁üzerinden
ilerine
▁şef
▁Kadın
▁str
▁kims
▁şehr
▁Google
▁sağlar
▁konuşmak
▁isim
▁mesela
▁ip
▁mez
▁gözük
▁nesil
▁savun
▁gitmek
▁teknik
▁üçüncü
ima
arlar
▁durumu
gü
▁Mil
▁olun
▁Nasıl
▁bununla
▁11
ımızı
▁sesi
▁metre
▁Sanırım
▁örneğin
▁j
▁ufak
▁sonsuz
▁Tanrı
fi
geç
▁form
layıcı
▁Hayır
▁günde
▁halde
▁ölçek
▁sanatçı
▁olmasını
▁yapıyorlar
ad
▁kuv
▁dışı
tej
otik
▁ikna
lenmiş
▁koşul
▁söyler
iyorlardı
▁fel
▁yanı
▁adalet
ğren
▁bor
urken
nde
rek
▁det
erler
▁meydana
ıyorsunuz
▁bilirsiniz
▁laboratuvar
aya
▁mül
esiyle
▁bakarsanız
▁yapabiliriz
leyse
lukla
▁stra
▁sonucu
▁olanlar
▁yetişkin
▁Üniversit
▁genetik
▁yarattı
▁virüs
▁yoktur
▁oldukları
ore
▁alma
▁nesn
▁korku
▁Birçok
melerini
▁ziyaret
▁yeterince
▁siv
▁adlı
▁mavi
▁it
▁ebeveyn
▁kendilerini
ehir
esiz
▁mahk
▁kimyasal
▁alak
lararası
▁min
isyon
sünüz
▁başkan
▁kendimizi
▁nör
▁maliyet
▁dam
▁çıl
ıştır
▁yürüy
▁belirt
▁yüzlerce
▁üzerindeki
yo
fet
▁ilgi
▁kağı
▁hücre
çık
▁gazet
▁köpek
ayıf
▁far
▁ton
▁satın
lardaki
▁yapılmış
▁199
▁depr
▁masa
▁In
▁dek
uan
▁alanı
▁doğum
▁kelime
▁sekiz
▁alakalı
▁düşünmek
▁çaba
duğunu
mamızı
▁oldum
▁yönlendir
▁cep
▁edilmiş
▁şan
▁anne
▁olum
▁tehdit
▁okyanus
▁nefes
▁modern
▁genelde
▁duygusal
▁,
ekt
iha
kin
ron
▁sorunu
▁düzel
▁bilinç
▁profes
▁yerinde
▁buradaki
▁İnsanların
▁dan
▁eğil
manızı
▁dağ
▁açıdan
▁yetenek
eyiz
▁kas
ğımızda
diğimi
lığına
▁duyar
▁önceki
▁stratej
▁miyiz
▁mücadele
▁olmasına
bat
▁Er
▁zeki
▁zekâ
▁kullanmak
▁tehlikeli
ou
raman
▁birbirine
▁biliyorsunuz
▁hatırla
▁çıkıyor
▁gördüğümüz
ikalı
▁yabancı
yum
▁davet
şam
lıklı
uluğu
▁etmiş
▁Dolayı
▁önünde
▁ücr
forman
▁düzey
▁bulduk
▁verdik
▁bahsediyor
liy
▁kod
ıklık
▁Güneş
▁Herkes
▁sinyal
▁arkadaşım
▁Düş
eceğiz
▁birine
▁tanesi
▁sırasında
▁De
işki
larındaki
düğü
▁sektör
▁idi
▁baba
▁nefr
▁spor
▁işlet
▁sanki
ura
▁yorum
▁getirmek
▁önemlisi
sey
,000
▁dür
▁Bazen
▁buluş
▁stan
malarını
▁düşünce
▁yaşıyor
mat
▁Man
▁anal
▁içindeki
▁bl
öyl
emli
▁iti
lerdir
▁indir
▁ederek
▁ettiği
▁anlamaya
▁olduğumu
ohn
▁sıf
▁ucuz
▁proje
▁zayıf
azz
▁biçim
▁konusu
ükle
▁Par
▁kala
eceğini
cer
▁Fark
▁adına
▁baskı
▁prote
▁beynin
▁Mars
▁unut
▁harekete
akam
▁tıb
eyici
▁kısı
▁paha
▁ham
▁ettir
▁katkı
▁Onları
▁Dolayısıyla
ahat
▁Onu
▁ölçü
▁öğrenmek
har
▁14
▁list
▁motor
▁odaklan
dıklarını
eceksiniz
▁değiştirmek
▁ob
anya
larımı
▁bakım
▁şekli
▁yaparak
acağım
▁yargı
▁seviyorum
▁İyi
▁geriye
▁petrol
▁soruyu
▁yaparken
▁Tam
üşter
▁Orada
▁sırada
her
▁re
▁tr
▁bilmiyorum
▁Yaş
▁anı
▁Haya
▁kutu
▁birleş
▁kuvvet
ann
▁Et
▁red
▁kalma
tül
▁Kı
▁tra
▁şah
▁edici
▁buldum
▁düşünmeye
▁etrafında
▁çizg
▁sayfa
▁malzem
▁üretim
▁olmayacak
evizyon
▁bağımlı
▁kum
▁şiş
▁hâle
▁kendime
▁üstünde
tern
▁akl
▁köş
mıştır
uyordu
ellikle
▁hayatın
▁geldiğini
▁Mü
ydık
▁meş
▁piya
▁anlamı
▁nefret
▁ardından
▁performan
▁çalışmaya
▁çalışıyoruz
▁Ann
▁Kur
▁kamu
▁diren
▁ikisi
▁veriler
ysa
lamaz
▁Çoğu
▁etkin
ene
▁Fa
deli
▁vaz
ledik
▁yazılım
▁demektir
,"
▁tepk
▁toprak
▁ediyorlar
urur
▁sap
▁polis
elerine
▁anlamda
▁bilgiyi
▁sonrasında
▁16
▁fazlası
▁seçenek
dil
▁etik
▁çalışıyorum
iklet
kenin
elerinin
▁öğrendim
▁hayatı
▁cinsiyet
▁fe
▁Öy
▁tepki
▁tuhaf
▁olmanın
▁Biraz
▁kısım
lıyoruz
▁altına
▁nereye
▁ettiler
▁olsaydı
düler
▁Beni
▁John
▁uçak
▁toplantı
▁hakkındaki
ov
rat
▁tur
▁icat
▁kriz
▁böcek
▁kapa
lıkları
▁vatandaş
▁yapmamız
▁Af
▁Ner
▁iddi
▁tale
leyici
▁beslen
▁17
apon
ınıza
▁gıda
▁bilinen
▁hükümet
▁potansiyel
dart
▁alet
▁Geçen
▁okula
▁saygı
▁sesleri
▁geleneksel
ari
bin
ınızda
▁stres
▁kullanır
▁Da
▁erkekler
tere
istan
▁eksik
▁Bundan
larımıza
▁etkilen
les
▁13
▁nit
▁doğr
▁ücret
▁sorular
▁verilen
▁yapmayı
dun
iir
oli
▁ceza
▁düşür
▁edeceğ
gorit
▁veril
▁ülkede
▁hissettir
▁utan
▁rakam
▁sessiz
▁organizasyon
lasyon
maktadır
▁algorit
▁etki
▁kayb
▁bileş
▁hızla
▁türlü
▁net
▁edebil
mektedir
▁istediğimiz
▁teşekkürler
▁w
ond
▁Sen
▁farket
▁At
osfer
ütfen
mıyorum
▁olabil
▁toplam
▁olmamız
▁yaklaşım
▁biyolojik
▁aya
▁detay
▁toplu
▁yıllar
▁ref
▁güvenlik
▁Hem
▁müt
▁sig
▁kitab
!"
▁cam
▁onunla
▁iyileştir
ite
▁kere
düğünüz
▁kit
liliği
▁yazar
▁şeyden
ry
tüğ
azzam
esyon
ulmuş
elerle
▁çekici
abr
hur
onu
üçük
▁dans
▁aldık
▁işbir
▁elbette
▁isteyen
▁çocukları
pt
dyo
▁ep
abil
▁ulu
▁çab
▁sonu
▁budur
▁finan
▁ilişki
▁çılgın
▁gerçekte
▁bunlardan
eğe
▁Kö
▁na
ire
usunu
ğımda
▁ekran
tıkları
ali
ümde
▁Japon
ümüzdeki
ledi
tasyon
▁Ol
▁ap
▁rüz
cının
imler
▁kalır
dığınız
▁almaya
▁bilmek
▁sahibiz
▁miktarda
▁le
layın
▁yayı
▁Doğru
▁kabil
ilerinin
▁enf
▁grub
▁öngör
diğimde
▁meslek
▁çıkara
▁göstereceğim
rop
▁Alman
▁arttır
▁sayısı
▁geçerli
▁başlangıç
ant
fik
ota
yen
▁tır
menizi
▁akşam
▁mahal
▁anlayış
eci
▁öğ
ündeki
▁piyasa
▁kaynağı
▁düşündük
Ben
ang
▁Ulu
▁adını
meyecek
▁değerli
▁kahraman
▁bozuk
▁kuruluş
▁kullanım
▁arab
▁giriş
▁pahalı
▁fikirler
▁gerektiği
örün
▁şart
▁şüph
▁taşın
▁Hepimiz
yap
ılır
▁yalan
▁gittiğ
bilirler
lanabilir
▁anlatmak
▁olağanüstü
▁karşılaştır
dışı
▁Mer
▁akış
▁yerleş
oyu
anda
▁arz
▁Kend
miyorum
▁durdur
▁sağlayacak
tek
tarı
▁Kız
▁park
▁yeri
▁Bunların
▁çevre
▁onlarla
bur
▁Es
erra
▁roman
▁komş
▁eğlenc
▁hepimizin
▁eg
▁ıs
▁kamera
8'
fk
mamı
▁Öyle
▁çizgi
ilebilir
▁başında
▁standart
▁kullanıyor
ho
▁hip
▁etmem
▁kaçın
▁çatış
▁atı
▁ekip
▁esas
▁Bilim
▁delik
▁şeylere
▁bulunuyor
▁olduğumuzu
çuk
▁suy
▁part
▁birik
cağınız
▁Onlara
▁Araştır
▁çapında
Bir
düğünü
▁bilir
▁sıfır
cın
racak
▁uyar
▁ünlü
▁yakıt
▁kurtul
▁bağımsız
anı
osu
▁ir
▁deng
▁gönül
▁kopya
isiklet
lanması
▁müşter
▁benimle
▁İngilizce
pit
▁maruz
▁yandan
lıyorlar
▁televizyon
co
▁Değ
▁kör
▁anti
▁terk
▁olmayı
▁bekliyor
bileceğimizi
ama
hiş
▁Um
iden
mini
▁198
▁Yer
▁dahi
▁dokun
▁sonuc
eştir
▁parmak
▁öğrenme
▁Dünyanın
▁çalıştım
ost
▁makine
▁pa
vaşı
deler
ân
tüy
▁gem
▁adet
▁ortadan
▁sıradan
ızda
▁dal
▁dey
laşma
ükleer
▁cesaret
▁önceden
▁edip
▁siyahi
▁muazzam
lerimizin
▁ayar
diğinizde
▁fir
▁kısıt
larınızı
▁İnternet
▁gerekiyordu
▁Ona
▁verme
▁Öyleyse
▁olmaları
▁hastalığı
▁hücreleri
▁çoğunlukla
2'
ımcı
▁yana
▁hafif
▁alacak
▁reklam
▁sordum
▁protein
▁not
imizden
▁tarihi
ula
eğini
▁atom
alıyor
lamayı
▁yapmış
▁yaptıkları
▁21
▁Bey
▁başa
▁parçacık
▁yaşındaki
şi
▁bay
▁Açık
▁anah
▁banka
▁besin
mazsınız
taş
▁Kal
▁gür
▁Önc
▁büyüy
▁mülte
esindeki
▁korumak
▁değiller
imle
▁tıbbi
▁bizler
▁yolculuk
▁?
▁zihn
▁siyasi
▁Muh
▁Demek
▁ışığı
▁Sı
isiniz
▁Burası
diğimizi
▁merkezi
▁oluşturmak
irken
tılar
▁bilme
▁üstüne
▁farkına
lüğü
▁günü
▁yumur
▁bakmak
▁görünen
umda
▁araz
▁hali
▁sert
▁uzan
▁koruma
▁gelişim
▁çocuğun
▁mantıklı
▁geldiğinde
▁Der
▁aktif
üme
▁seks
▁mesaf
▁soğuk
▁verin
▁alanda
▁yağmur
▁saldırı
▁seyahat
▁kullanılan
iyan
▁Dav
lamanın
eter
etre
liler
diğine
ihayet
▁derec
ebiliyor
elerinde
süz
▁ameli
cilerin
▁kapasit
▁sorumlu
▁yapıldı
▁ülkenin
▁insanlardan
ori
▁nö
▁Doğu
▁fabr
▁müda
▁neyin
▁kaybol
▁tespit
▁gösterdi
âl
▁60
▁pren
▁aktar
▁fiyat
leriniz
▁katılım
▁problemi
▁arkadaşlarım
abet
mekten
▁Sizin
▁galak
▁devrim
kar
ğrı
▁sıv
▁tık
▁hayatını
▁Car
ograf
▁neye
miştim
▁gitti
▁gurur
▁plastik
lül
▁Kan
▁Yıl
▁geçiş
▁herşey
▁ölçüde
▁paylaşmak
▁bildiğimiz
▁atm
▁tit
dikal
tacak
ımıza
▁icin
▁artır
▁sabit
▁Şöyle
▁anlattı
▁tor
▁arası
▁olmasa
▁kariyer
▁sevdiğim
50
iber
umun
▁Ste
▁dizi
▁oksi
▁asker
▁kalit
▁alk
▁ayı
▁suyu
▁sorgu
▁Hiçbir
▁başlama
▁imkansız
▁çalıştığım
ib
lif
▁noktası
▁tarafta
▁hayvanlar
▁teknolojinin
book
ilyon
veriş
atistik
▁dediler
ciz
▁ide
▁denk
▁deva
▁şiir
▁artış
▁Öğren
▁noktaya
▁yaşamak
?''
evk
▁Ge
▁Tıp
▁piş
▁Tekn
▁bahç
▁seni
▁bağır
▁bölge
▁kilom
▁mater
▁şeker
▁halinde
▁yapıyorum
▁hatırlıyorum
▁Dr
best
▁Sah
▁cüm
▁neh
▁aklım
▁analiz
▁görünür
▁yönelik
▁karıştır
etic
form
land
ızın
▁inc
▁sez
▁doku
▁türü
▁başara
▁boyutlu
▁giderek
▁Den
▁tas
▁buydu
▁denen
▁nöron
▁bildir
▁örneği
▁görebil
▁istedik
IV
▁kus
▁Adam
▁yola
▁barış
▁birer
▁kenar
▁oranı
▁doldur
▁sizinle
▁yaptığını
▁önemlidir
7'
işti
▁Rus
▁Ver
▁soh
▁çöp
ciğer
▁Bilg
▁harc
▁uyku
▁kaçır
▁kıyas
▁parlak
▁Dok
▁düğ
▁Face
▁zinc
vasyon
▁hapis
▁inanç
▁Buradaki
evi
▁Le
▁gib
▁evde
▁teşh
ımızın
▁büyül
▁İngiltere
▁am
lerimi
▁Küçük
▁değiliz
▁kültürel
▁bulut
▁gelmiş
▁verecek
emezsiniz
▁bisiklet
▁Devletler
9'
ich
nda
inda
▁hikâye
▁itibar
▁seviye
▁ulusal
▁endişelen
▁duyg
▁uydu
lığıyla
▁müthiş
▁Onların
▁gelecekte
rist
▁korun
▁terör
▁yarısı
▁diyorum
▁ettiğimiz
▁uluslararası
▁olabileceğini
▁mutl
▁yılı
▁doğrudan
▁eğlenceli
▁ortasında
▁Bab
▁por
▁eser
▁yapıl
lığında
▁düşünme
▁olmaktan
▁şirketler
altı
ihir
▁Konuş
▁yaşaya
▁oto
▁kart
▁aydın
▁yürüt
cağımızı
▁Facebook
▁sp
anlar
▁plat
ilmesi
▁barın
▁gayet
dığında
iyordum
▁vazgeç
▁olabilirsiniz
3'
▁bom
▁Chris
▁devasa
▁yerler
▁yönetim
ıyorlardı
▁onlardan
1'
▁annem
▁duruyor
▁sonuçlar
▁tartışma
▁depresyon
▁La
mamış
▁koya
gul
mayın
▁buçuk
▁yanıt
leyecek
lığımız
▁tecrüb
▁görmeye
▁fazlasını
▁komp
ladığı
▁kurmak
▁zincir
▁çıkarmak
nek
rans
laşık
ırken
▁Bize
▁ondan
eder
illi
eceği
▁kaya
▁oyunu
▁edildi
▁şekillendir
rom
tre
▁aşk
▁karş
▁kağıt
▁olanı
ilendir
▁Pekala
▁insana
bileceğim
▁sürdürülebilir
çak
▁Göz
▁çök
ınızı
ırlar
vantaj
▁keşif
▁hassas
▁kısmını
",
▁km
atür
▁fen
üphan
▁kalb
▁şeydir
▁benzeri
▁diyoruz
▁karşıya
gele
▁Tel
▁serv
▁sıkı
duğunda
▁dürüst
▁hayata
▁Elbette
▁nükleer
".
ia
olu
ayla
omuz
▁içeren
▁yolunu
▁sorunları
ilm
lıp
onun
▁Kam
▁kemik
▁rapor
leyerek
ner
▁nak
eketi
▁sonrası
▁verdiği
▁yumurta
▁yaratıyor
▁başladılar
▁olabilecek
cağına
▁işlev
▁isteme
▁etkileşim
ise
▁ez
anta
▁vah
▁Lond
▁İnan
▁bacak
▁talep
▁olanak
▁süreci
▁Sonunda
▁sonuçları
▁HIV
▁Mat
▁hey
umuzun
▁etmeyi
▁grafik
▁korkut
▁oyuncu
▁misiniz
mas
tüm
▁Ber
▁Sür
▁mekaniz
seri
ukuk
▁boğ
▁men
▁öfk
▁yönel
▁görmüş
▁istedi
wit
leşme
▁boya
▁sebeb
▁şanslı
▁Afrikalı
▁öğrendik
▁gerekirse
mun
▁197
▁imk
▁zevk
▁ısın
▁basın
imizdeki
▁nereden
▁anlatıyor
yim
ceği
▁tutk
tılmış
▁iddia
▁nadir
▁gerçeği
▁yaptılar
ekler
yonel
▁mektu
ilerden
▁hepsini
▁Bazıları
▁karşılık
▁kullanıcı
▁İl
▁kayde
▁evrenin
▁ettiğini
▁anlamıyla
▁gerçeklik
▁zorundayız
tel
âlâ
içek
▁dar
▁saf
▁taban
tiğinde
▁sohbet
eda
▁tuv
▁bulur
▁denem
▁kimin
▁çocuğu
▁platform
▁versiyon
las
Evet
manı
▁del
ilerle
▁şeydi
▁kadının
▁şeklinde
ash
▁1.
▁Mu
▁mas
▁dokuz
▁Çalış
▁popüler
▁görürsünüz
▁dâ
iğin
ulan
▁Ses
▁arı
alnız
▁köpr
▁tren
▁geçti
▁yarım
▁önüne
▁burası
▁geldik
▁serbest
▁gelişmiş
ub
one
▁kıyı
ıyordum
▁boşluk
ladığımız
lerindeki
▁getiriyor
and
▁may
ledim
liğine
mamıza
▁hakları
▁yapabilirsiniz
▁Gö
▁dök
erken
lıkta
madım
▁dost
▁elem
▁Şunu
lıktan
▁sanda
cıların
▁ayakka
▁nüfusun
▁konuştuğ
▁ülkelerde
▁Hal
▁Tem
▁haklı
▁isten
▁sanal
▁tüken
mıyoruz
▁Birincisi
sör
örd
ülasyon
▁kişiye
▁bulmaya
▁ötesinde
▁görüyorum
▁istatistik
▁Eğ
▁Tar
▁Tim
▁emek
▁tutmak
lerinizi
▁bahsede
şet
şeyi
dukları
▁çözmek
▁kimsenin
▁kullanan
▁gelebilir
▁ib
eğen
▁web
lenen
▁otob
▁fırsa
▁yerini
▁Cev
masız
▁Asya
▁depo
▁Afgan
▁anlamlı
▁atmosfer
▁yüzyılda
▁500
▁Yan
▁Avust
▁kusur
▁Londra
▁adamın
▁benziyor
▁çalıştık
▁Kat
dumuz
▁Eski
▁ince
▁kula
▁onay
▁deyiş
▁yazık
ebilmek
▁açıkça
▁düzelt
▁faktör
▁yıldan
layabilir
▁alanında
▁oluştura
▁obj
▁sözc
▁tarım
▁erişim
ternatif
▁mutluluk
▁söylediği
▁teknolojiyi
▁göreceksiniz
▁196
▁Arka
imizle
▁Hayat
▁kapat
ruk
▁24
▁ye
▁peş
tığını
ülüyor
▁halka
▁yasal
isinden
▁aksine
▁gökyüz
▁açıklama
▁dikkatli
▁Üniversitesi
ruf
siye
▁Ail
▁Hak
▁şif
▁adamı
▁kulak
▁Yalnız
▁herkese
▁isterim
▁kalıyor
▁trilyon
▁ulaşmak
diğimizde
▁Yok
linik
▁istis
lığının
▁etmesi
▁denilen
▁oksijen
▁nedeniyle
▁Gördüğünüz
▁edebilirsiniz
oni
etim
▁altyap
elerinden
▁harf
▁altın
▁neyse
▁Nerede
▁uzaklaş
▁zamanla
öylelikle
▁konuşmaya
▁Kısa
▁duya
▁kent
▁krit
ceğini
ımızda
▁çıkıp
▁işleri
▁edebiliriz
▁olduğunuzu
ane
diğin
imleri
▁Neyse
▁eyalet
▁yerden
▁toplumun
iti
▁dönüp
▁içerik
▁memnun
▁yaşıyoruz
▁kendilerine
iste
suna
landa
▁takdir
▁zamana
▁sağlığı
▁verimli
▁yoluyla
▁sahiptir
ID
ick
yiz
uyum
▁teker
▁Bununla
▁dönüşüm
▁sıkıntı
esk
▁so
▁İz
itif
▁pil
▁zir
▁Genç
memizi
▁arttı
▁Sağlık
▁göçmen
▁hâline
▁uzakta
▁evrensel
▁kendinizi
rım
ekte
ıklı
▁etm
ceğiz
▁şuydu
▁Harika
biliyorsunuz
6'
veç
▁kla
ediye
▁özgü
▁bakıp
▁birlik
▁gönüllü
▁ticaret
ale
▁Kor
▁faa
▁komşu
▁anladım
▁ederken
▁verileri
▁performans
▁aptal
▁nüfus
▁benden
▁aktivit
▁materyal
▁kullandığımız
eya
uru
▁Jo
ikay
▁döv
▁dava
▁gürül
▁çiçek
▁cevabı
▁eleştir
▁geldiği
ayır
itim
▁boyu
▁kasa
▁uçuş
▁kanun
▁ırkçı
▁kapalı
▁vermeye
Ne
▁Ap
▁Mek
▁bitki
▁sihir
▁sivil
▁süren
larımın
▁olamaz
▁kampanya
▁zihinsel
▁güçlendir
▁çocuklara
▁Ora
▁şim
▁sıvı
▁vide
▁kaydet
▁gösterir
▁fikirleri
▁Am
ezil
▁300
▁uça
lamış
▁birç
▁muha
▁sunu
ınızın
▁bölün
▁genom
▁programı
▁Hol
cıları
eyecek
▁dedik
▁kullanma
▁olmasının
▁edilebilir
SA
amik
slüman
▁cesur
▁danış
▁hissi
▁musun
▁tutar
▁kalmış
▁tırman
ılabilir
▁kanseri
▁olursak
▁öğrenci
▁tasarruf
▁üniversite
lis
lerken
▁durdu
▁büyüme
▁konfer
▁ortada
▁fabrika
▁başlamak
kel
çev
cısı
▁beb
▁ker
▁öne
unuzu
▁okuma
▁seyir
▁rekabet
▁ihtiyacınız
▁çalıştığımız
▁ef
▁acil
▁sarı
▁sevg
▁aşama
▁olmam
▁arkada
▁buluna
▁ilişkiler
▁biliyordum
güt
ısır
▁emp
▁gücünü
▁sembol
▁olmuştu
▁geleceği
ood
mali
▁uza
areti
▁dâhil
ecektir
▁hayran
diğinizi
▁getirdi
▁uyuştur
▁finansal
▁toplumsal
▁kullanıyoruz
▁Ko
▁Öl
dukça
iyeti
▁Görün
▁misin
▁sever
▁topluluğ
▁bağlantılı
▁bol
leyin
ürken
▁Savaş
▁konum
▁alarak
▁yüzleş
▁sorunun
▁İkincisi
▁ihtimalle
dig
▁Kür
▁ank
▁yürü
▁artan
▁radyo
▁geliştirmek
sır
ülen
▁Mic
▁Hadi
▁Uzun
▁moti
isiyle
▁suçlu
▁ulaşa
▁dediği
▁modeli
▁sayede
▁ettiğim
▁kendisini
▁Öncelikle
▁profesyonel
4'
▁göm
▁kre
▁ölü
larken
ysanız
▁bulaş
▁kayıp
▁komik
▁salon
▁trans
▁berbat
▁rüzgar
▁heyecanlı
▁hikayeler
▁yapacağım
▁karşısında
kil
tıp
inal
▁çer
larsa
▁Arap
▁evlen
▁sizlere
▁yapması
▁bireysel
▁bulunduğu
▁canlandır
▁değişikliği
balık
▁Mısır
▁Farklı
▁Bunları
▁dediğimiz
▁Özellikle
alt
aket
▁Hepsi
▁şehrin
▁anahtar
▁birinde
▁geçiyor
▁söyleyen
▁düşünüyoruz
rum
▁Rob
etici
▁dili
ümüzün
▁cerra
uyordum
▁Başkan
▁karışık
▁Yaklaşık
▁işbirliği
▁alternatif
▁Bur
▁Kap
▁pra
uyucu
▁oper
▁yada
▁senar
▁çıkış
lerdeki
▁ibaret
▁kitabı
▁klinik
▁olumlu
▁faaliyet
gh
ell
unan
▁göğ
▁kanı
▁kıta
▁sordu
▁lütfen
▁istiyorlar
▁Dış
▁Erk
▁hid
▁Sizi
▁belg
▁itir
▁nevi
▁hukuk
▁dayalı
▁sağlam
▁içinden
▁gittikçe
io
anada
▁saha
▁vaka
▁kavra
▁tanrı
▁türden
▁hissede
▁ilerlem
▁zamanlı
uyorsunuz
▁dakik
masının
▁kapsam
ebilirim
▁sınırlı
▁rastgele
aza
işi
▁Twit
▁epey
▁idar
ılıyor
▁buldu
▁saçma
▁Kendim
▁Fransız
▁ameliyat
▁Araştırma
▁kullanımı
▁çalışırken
sip
▁2.
▁Ra
itap
mede
▁Dem
▁kuy
umuzu
miştir
▁mezun
▁mikrop
▁çerçev
▁çıkarı
▁bakarak
▁gerektiğ
larımızdan
▁hissettim
▁enfeksiyon
amı
▁un
laki
▁büt
▁vakit
liğinin
▁kazana
▁çoğunu
▁nihayet
▁büyüklüğ
▁alışveriş
▁bağışıklık
▁yaşadığımız
ağı
▁Bar
▁başv
▁tuta
▁suyun
▁kişiyi
▁soruml
▁sürece
▁dönüyor
▁olacağı
▁istediği
▁yapmanın
▁Muhtemelen
▁kate
▁yata
unuzun
▁sevgi
mesinin
▁şimdiye
▁hapishan
▁verdiler
esif
▁Tah
▁tez
▁ordu
▁kaybe
▁verim
▁döndür
▁ekonomi
▁özgürlük
▁Dur
oksit
▁dura
▁çıka
ington
▁Kesin
▁sıklıkla
tip
iydim
▁dene
▁sıkış
▁yürüm
▁karınca
▁yürüyüş
▁kullanıl
▁güvenilir
▁istiyorsanız
esef
iyel
▁yav
▁Üst
▁derg
▁imkân
▁lisan
▁bizden
▁sürede
▁yollar
▁pozitif
larımızda
▁hareketi
bel
▁Ah
▁ziya
▁serma
▁vahşi
▁alalım
malısınız
▁dolarlık
▁insanlık
▁Uy
▁Bah
▁cok
▁tuz
makla
▁güney
▁yörün
▁faydalı
▁hisseder
gre
,...
▁fos
▁içi
cılık
▁esna
▁peki
▁ters
▁ayrıl
▁zehir
osistem
▁Brezil
▁yenilen
▁oluşturur
▁parçaları
emem
▁koc
▁David
▁civar
▁felak
▁yılın
▁çeken
ladılar
▁deyişle
▁olmanız
▁milyarlarca
tesi
ukat
▁Mon
▁Yar
▁şok
tanın
▁kilo
▁titr
▁Düşün
▁kilit
▁sakin
▁mercan
▁taklit
▁avantaj
▁pozisyon
▁bahsetmek
▁oluşturan
▁ihtiyaçları
omo
▁sahte
▁diğeri
▁kimlik
▁yaptır
melerine
▁yerlere
▁istediğiniz
ort
ijer
▁Kut
onlar
▁umur
▁cevab
▁yasak
▁Teşekkür
▁oluşturuyor
lah
uldu
▁Ada
▁Bul
dünüz
▁çekil
▁Merkez
▁değeri
▁görevi
▁konuyu
▁kurtara
▁yıllarda
▁bilgileri
▁ihtiyacım
▁meslektaş
▁durumlarda
▁erkeklerin
▁aka
▁lim
medik
▁kırık
▁eminim
▁bunlara
▁süredir
▁kendileri
▁kendimize
bilecekleri
▁Dar
imini
▁üçte
▁hakkı
▁tarif
▁ürünü
▁isimli
▁mesele
▁Twitter
▁edersiniz
sh
ock
rip
▁gay
▁aklı
▁basa
ksiyon
▁yapıla
▁bizimle
▁çalışması
▁değiştirdi
▁gelişmekte
▁yaşındayken
▁80
▁prot
ebilen
ediler
▁bulma
▁etiket
▁diyelim
▁etkiler
▁gibiydi
▁kişilik
▁değişimi
▁yakından
▁Afganistan
▁sorumluluk
▁aracılığıyla
▁So
▁ten
▁niyet
▁endişe
▁ticari
▁bilmiyoruz
▁Ey
meme
stit
▁süt
▁Geor
▁Oyun
▁döng
▁marka
▁yetiş
▁Sosyal
▁kutsal
▁oranda
▁yaşama
▁bilgiler
▁ediliyor
▁günümüzde
▁düşünmüyor
amp
übe
haba
▁Sol
▁isk
▁yapıp
▁duruma
mayacağım
▁ayakkabı
▁olmaması
▁zamandan
▁düşündüğümüz
tük
▁sız
▁amac
▁açtı
▁kaba
▁Deniz
▁döner
▁teklif
▁kütüphan
azı
cül
▁Sh
line
▁Bro
▁Yük
Hayır
Video
▁atık
dıktan
▁Nijer
▁Tıpkı
▁deste
▁Ulusal
▁keşfed
▁söylüyorum
▁kl
meti
posta
▁başta
▁arkasında
▁düşünceler
▁çalıştığını
suzluk
undaki
▁anlar
▁topra
▁duymuş
▁kurban
▁sigara
▁radikal
ğin
▁Eş
▁hang
asyonu
dığımı
▁felse
▁uyarı
▁yavru
▁zorlu
▁çağır
▁bilimi
▁eğitimi
▁önümüzdeki
▁istemiyorum
▁birbirlerine
isin
▁Bay
▁ark
▁huz
▁balon
▁beğen
▁Tekrar
▁düşman
▁kalmak
▁söyleyebilirim
-1
▁Bin
▁küm
▁Irak
▁Kral
▁Tabi
▁manz
▁Güzel
▁kuzey
▁yolda
▁salgın
▁genişlet
▁sistemleri
tin
bert
tiniz
▁tetik
▁katman
▁Hayatım
▁başlayan
▁fonksiyon
▁kra
▁baka
▁uçur
▁beyni
▁tablo
▁hafıza
▁okulda
▁çekmek
▁getiren
▁şirketi
▁alabilir
▁görünmez
▁sistemin
▁düşündüğünüz
Ta
ole
yıp
isiz
▁Han
▁umu
dıkça
jener
▁Önce
▁Okyan
▁istek
▁ahlaki
▁bilgiye
▁ekosistem
▁olduğunun
▁üstesinden
▁hissediyorum
are
▁op
madığı
▁Babam
▁Yunan
▁üstün
arsanız
▁parayı
▁birşeyler
▁diğerleri
▁hayvanların
int
uluğa
▁Okul
▁Park
▁borç
alesef
▁Kenya
▁almış
▁arama
tikleri
▁çoktan
▁alanları
▁durumunda
▁uyuşturucu
▁Mc
gini
▁Beş
▁Kali
▁neyi
yasyon
▁müdaha
▁Japonya
▁dönemde
▁kolayca
ıldığında
▁gördüğüm
▁tarafında
▁kullanmaya
ele
lari
▁Ban
▁aca
▁köl
▁Sanat
▁grubu
▁tatlı
▁dolara
▁düzgün
▁Gelecek
▁değişti
▁otomatik
▁yüzyılın
▁çalıştır
▁Bunlardan
▁Bilgisayar
00'
estor
▁Siya
▁sona
▁Doktor
▁Küresel
▁üretmek
▁adamları
▁seviyede
▁isterseniz
▁şa
ülme
▁Kay
antum
▁ofis
▁parç
▁kalın
▁tutuk
▁balina
▁bağlam
▁gözden
▁fikrini
▁gibidir
leyiciler
▁farklılık
▁ülkelerin
▁Bilirsiniz
▁sö
panz
▁Tas
▁esnek
▁kanal
▁okuya
▁akadem
▁askeri
▁araçlar
▁kuantum
▁yaratır
▁zamandır
▁kıl
▁kıv
Neden
leyip
▁Veya
▁öykü
empanz
▁Oldukça
▁birinci
▁duyarlı
▁hızlıca
▁patlama
▁dışarıda
▁kazandır
▁kullanılıyor
disi
forn
▁işç
▁Hava
▁ağrı
▁puan
▁terap
▁tümör
▁yatak
▁ziyade
▁Üçüncü
▁şefkat
eticiler
▁olmuştur
rim
▁Dan
▁Per
▁Paul
▁moda
▁öldü
üyoruz
▁Genel
▁büyüt
▁farkı
▁miyim
liğinde
üyorlar
▁Toplum
▁mektup
▁oluşur
▁sıkıcı
▁ederler
▁olmuyor
▁tasarlanmış
üven
▁Sek
mayız
▁artı
▁inti
esidir
▁redde
▁şeyle
▁baştan
▁sizden
▁yazdım
▁deniyor
▁görünüş
▁aldığımız
▁altındaki
▁kilometre
▁düşündüğüm
▁iP
▁hat
ülmüş
▁Mart
▁eşya
▁Cevap
▁bomba
forniya
▁kalıcı
▁altyapı
▁kaynakları
▁verdiğimiz
▁Kaç
▁Ter
ralya
▁avukat
▁ederiz
▁Müslüman
▁ediyordu
▁geçirdim
▁telefonu
▁çevresel
▁Kesinlikle
▁baktığımızda
nen
ong
anız
dıra
eğim
üydü
lılar
▁Char
▁dile
▁dini
▁kapan
▁şansı
▁yolunda
▁konuşmayı
▁birbirinden
nik
üya
▁1,
▁Be
atör
▁Din
▁sta
▁kaza
emiyor
ördüncü
▁görmez
▁tarafı
▁Almanya
▁Brezilya
▁sorunlar
▁geliyordu
▁hesaplama
▁nan
günkü
▁duran
▁günün
biyotik
lanacak
▁bölümü
▁konuşa
▁makale
▁sormak
▁yörüng
▁etmenin
▁sunuyor
▁dolayısıyla
▁Co
▁Ser
▁mor
▁Poli
▁düşüş
ashington
▁yaşadığı
▁dayanıklı
▁başlayalım
cası
için
▁gor
▁mir
▁mon
bilim
stein
▁sent
▁sına
cileri
▁tutul
ladığım
▁aniden
▁sonuna
▁tersine
▁yaşamın
▁etkileri
ade
ben
▁70
▁CO
iriz
cilik
isyen
▁duyu
▁lise
▁odada
layabil
▁kritik
▁izliyor
▁diyorlar
▁Kaliforniya
yu
▁Na
▁pir
▁trav
lanmak
▁gören
▁müdür
landığı
▁Kanada
▁düzenli
▁üretken
▁dünyasında
▁çalışıyorlar
br
ğır
▁Nor
▁Wal
▁toz
▁Çev
ydınız
▁İslam
▁maymun
▁bakıyor
▁tavsiye
▁ilerleme
▁özelliği
IDS
▁Ja
kası
osya
▁kuz
▁pol
▁reh
rojen
▁etmemiz
▁sonucunda
▁yaptıklarını
yıcı
▁195
▁Kah
▁kâr
diven
▁ekib
▁gördü
▁baktım
▁geldim
▁geçtik
▁zordur
▁elimizde
▁görüntül
▁söyledim
▁yolculuğ
▁yapılması
ğe
yol
ırda
itler
ımdan
eliyim
▁Bakın
▁Tarih
▁ailem
▁domuz
▁kurgu
▁köken
▁muhaf
miyoruz
▁fikrim
▁teşhis
▁tecrübe
▁oluşuyor
▁yetersiz
▁Washington
etin
▁20.
▁Biy
▁Lat
▁rit
eğine
▁aday
▁ödeme
▁beklem
▁eğilim
▁isteye
▁restor
▁sözcük
▁aileler
▁büyüyen
▁Neredeyse
▁olabiliriz
▁Se
▁af
▁Pat
luğun
▁horm
▁İşin
▁şifr
ikatür
memize
▁Basit
▁fosil
▁iskel
▁kalıp
▁kolon
▁vücud
▁yazdı
▁heykel
▁telesk
▁mikrosk
▁değişken
▁kelimeler
▁kişilerin
▁birbirimize
cis
maş
muz
rail
▁400
▁Haz
▁astr
▁blok
liyeti
▁eşsiz
▁mobil
▁tahta
▁zihin
▁kırsal
▁gelince
▁yaratık
uğ
aba
res
yer
ford
tına
▁Dik
▁Yol
lendi
▁ismi
▁kızı
▁maaş
▁burda
▁huzur
▁jener
▁krizi
▁konuya
▁reddet
▁düzeyde
▁şehirde
larınızın
ülüşmeler
▁baktığınızda
bama
iski
▁adil
▁ideal
▁alanlar
▁buradan
▁sonsuza
▁oluyorlar
▁çalışarak
▁yaptığınız
▁çeşitlilik
baş
▁Bo
onal
▁Lab
temel
mazlar
▁Times
▁önemi
ırsınız
▁gidecek
▁bilinçli
▁fotoğrafı
▁kadınları
20
ülü
▁Bö
▁Gez
▁İlg
emizi
▁metr
▁Annem
▁gülüm
▁paket
▁soyut
▁elinde
▁yanına
▁gazetec
▁gelişme
▁yapacağız
▁teknolojik
pe
iki
ord
win
▁ağı
▁yur
▁zeka
▁İran
▁girdi
▁hâlde
▁kalem
▁Yüksek
▁duydum
mıyorlar
▁basitçe
▁yaratan
ebilirler
melisiniz
▁sistemini
▁etkileyici
mar
▁NA
eyif
uşak
▁gölg
▁reak
▁Sorun
▁donan
▁kılan
▁refah
▁balığı
▁pratik
▁alışkan
▁dönüştü
▁kalacak
▁varsayım
▁olmasıdır
▁çalışmalar
▁Ku
dını
▁Kır
▁Mak
▁deh
▁dip
▁dük
▁Şirk
▁aldığı
▁bakıma
▁renkli
landırma
▁Arkadaş
▁ayrımcı
▁dinamik
▁amacıyla
▁demokrasi
til
▁Em
▁TV
▁mec
▁som
▁Ülk
tıldı
yarak
▁Proj
▁dizay
▁falan
▁olayı
▁trafik
emeyecek
▁eskiden
▁bilgisay
▁kararlar
▁soruları
▁vücudunuz
▁yapılıyor
ph
faf
ona
ever
▁cez
muştu
utbol
▁aylık
▁bozul
▁yanıl
▁çiftç
▁İspan
▁klasik
▁artıyor
▁manzara
▁hikayesi
▁yapmanız
bileceğine
▁kadınlara
▁Mik
▁tüy
▁yenil
inizden
leniyor
tığında
▁Birbir
▁ayakta
▁başlat
▁çalışa
▁ilişkin
▁ölümcül
▁olacaktı
▁oranında
▁sahipler
RI
we
▁eğr
▁kış
▁sıç
yetik
▁Biri
▁deli
▁onur
enleri
▁bekle
▁yönde
▁atıyor
▁edelim
▁sensör
diğinden
▁oldular
▁zamanında
▁bahsettiğim
bab
▁Vüc
▁mark
sızlık
zersiz
▁açığa
▁Bizler
▁direnç
▁edemez
▁geride
▁oradan
▁getirir
▁sağlama
leyebilir
▁hikayeyi
▁etkileyen
▁korkutucu
ica
mik
zon
▁hır
▁toh
▁uyu
emeyiz
▁kanat
▁kötüy
▁maden
▁makal
▁Savaşı
▁Umarım
▁bakteri
▁bildiği
▁iyisini
▁zamanın
▁birbirleriyle
▁:
000'
▁Kol
ümüzü
▁Kork
▁batı
▁imza
▁metal
▁saniy
▁şudur
ecekler
▁vizyon
▁herşeyi
▁ilaçlar
▁kıyafet
▁oyuncak
▁siyaset
▁sürüyor
▁Herhangi
▁araçları
▁benzeyen
▁bildiğiniz
▁elektronik
inek
▁dün
imser
▁kast
dikten
sinden
▁işini
▁alıntı
▁geçmek
▁insani
▁olumsuz
▁sandaly
▁arkadaşı
▁barındır
▁bırakmak
▁organize
▁karikatür
▁olabilirdi
▁araştırmacı
▁hayatlarını
ud
ami
▁Sev
ürlük
▁Uzay
▁Güven
▁filmi
▁anında
▁gelmek
▁umarım
lerimize
▁aşağıya
▁bilimin
▁katkıda
▁uyandır
▁yararlı
▁tanıştım
▁Çocuklar
▁Günümüzde
▁öğrendiğim
▁çı
edar
ırız
▁Bal
▁yel
▁ciha
▁İlki
iyatro
lesine
▁alana
▁utanç
▁oturup
▁bulundu
▁öncelik
▁liderlik
▁profesör
▁Sonrasında
▁söylediler
lob
▁yat
mamın
▁Para
▁meta
▁suya
▁bayan
▁damar
▁demir
▁tutan
▁yolla
sunuzdur
▁biriyle
▁kişiden
▁müdahale
▁olacağız
▁kaçınılmaz
IT
dün
orta
sika
▁İst
lıyız
tıkça
▁Bizi
▁Değil
düğünde
▁kamyon
▁masraf
▁meşgul
▁yemeği
larımdan
▁bölgede
▁iyimser
▁konuşan
▁yapalım
▁yolları
▁psikolojik
▁kullanıyorlar
▁iğ
etro
▁cen
▁tali
▁traj
▁ahlak
▁kredi
▁pişir
▁yapış
ologlar
▁itiraf
▁mahkum
▁varlık
▁veriyi
▁Sonuçta
▁akciğer
▁herkesi
▁kategor
▁kocaman
▁prensip
▁vücudumuz
▁Avustralya
▁sisteminin
▁rö
unca
▁lez
tılan
▁Dört
▁adap
▁sayf
▁bende
▁kahve
▁kapsa
▁köprü
▁bulunur
▁durumun
▁civarında
dede
▁Kom
▁mel
hamet
sızın
▁arzu
▁hemş
eyerek
istler
tabilir
▁yerleri
▁çıkardı
▁şempanz
▁düzenlem
▁internette
▁istiyordum
kır
udi
mama
ürat
umhur
ürler
▁Harv
▁bütç
larıma
▁Yaşam
▁açısı
▁ölçüm
▁yaşamı
▁aldığım
▁mülteci
▁tuvalet
▁günlerde
▁şeylerle
▁başlıyoruz
▁değiştiren
▁teknolojiler
ke
unus
yağı
▁sel
▁tap
▁iken
▁izle
▁kral
▁okuy
esiydi
▁efsan
▁keyif
▁meden
elendir
▁Ekonom
▁tabaka
mesinden
▁konuşur
üyorsunuz
▁kendinize
stri
yeni
▁ağz
▁cis
▁köp
▁mür
▁rad
▁çel
Gülme
enizi
müştü
▁blog
▁girer
▁sahne
▁çekim
▁çekir
dioksit
▁cerrah
▁mantar
▁engelli
landığını
▁alıyoruz
▁açıklaya
▁yapabilecek
lor
tika
usuz
▁Duy
▁Sal
▁Yah
▁omur
ildiği
▁dosya
▁izlem
▁kömür
▁çabuk
landıra
▁pencer
▁sergil
▁kazandı
▁ürünleri
▁Dünyadaki
▁veriyoruz
▁görebiliriz
ney
ube
emen
▁20'
▁Var
▁çatı
arator
imdeki
▁kablo
▁sürük
▁kenara
▁lisans
▁sebeple
▁taşıyan
▁Yalnızca
▁bakarsak
▁edilmesi
▁şehirler
▁gözüküyor
iri
anne
cisi
▁öte
lenme
▁Hint
▁Kara
▁Sanki
▁demiş
▁döndü
▁yığın
▁örgüt
▁Fransa
▁unutma
▁senaryo
▁belirsiz
▁diğerine
▁egzersiz
▁kontrolü
▁gezegenin
▁duyduğumuz
zi
▁GS
▁Sp
▁bi
▁Kul
▁ard
▁dis
▁fav
danın
medim
▁suna
▁yöne
▁yayıl
▁ayında
▁çıkmış
▁kıyasla
▁yaratma
▁çiftlik
▁olursanız
▁yoksulluk
▁çalışmayı
▁demokratik
▁21.
▁cil
▁muz
üzyon
▁işim
▁özet
▁tersi
yabilir
▁dışına
▁kaldım
▁kasaba
▁tatmin
▁çarpış
▁Tamamen
▁oradaki
▁robotlar
▁çalıştığı
▁Biliyorsunuz
lıca
▁Müz
▁Sur
▁çöl
▁kuru
▁Kimse
▁buzul
▁daima
▁eklem
▁kafam
▁salın
▁kulağa
▁öncesi
▁Meksika
▁dikkate
▁felaket
▁fırsatı
▁ötesine
▁dünyamız
▁olanları
▁algoritma
▁ettikleri
30
cuk
pat
balı
▁150
▁194
▁Rich
▁Temel
▁hasar
▁aklıma
▁galaks
▁saatte
▁Nijerya
▁hizmeti
▁muhtemel
▁konuşuyor
▁insanlığın
▁bilmiyordum
dal
▁CE
▁Fik
▁sat
▁tok
▁uns
delim
▁rüya
▁Hayal
▁Yakın
▁alkış
▁nehir
▁çanta
▁arayış
▁iyidir
▁mağara
▁çıkmak
▁yöntemi
lenebilir
▁çözümler
▁makineler
▁merkezinde
▁olabilirler
İn
iğe
▁Va
▁kâ
Tamam
edeki
▁madd
▁nota
cinsel
laşmış
▁kutup
liyoruz
▁empati
▁yaprak
▁ortamda
▁yükselt
▁problemleri
▁çalışmaları
▁kullanabilir
▁90
esto
imer
▁The
▁akım
▁kare
▁öğle
▁bulgu
▁macer
▁satış
▁tutun
instein
▁futbol
▁incele
▁servis
▁İsrail
▁Francis
▁denklem
gal
▁No
tuğu
türü
▁ima
▁tüp
▁yir
▁Angel
▁ayağa
▁aşkın
▁babası
▁geçirmek
▁ücretsiz
▁yapmalıyız
▁kullanılabilir
etri
luğa
ptom
▁yas
cinin
ektif
ganda
▁2000
▁Stan
▁asit
▁sırt
emizin
mediği
▁sanay
▁yerli
▁yuvar
lenmesi
▁koymak
▁kuyruk
▁savaşı
▁dediğim
▁gelişen
▁izlemek
▁çatışma
mayacağını
▁yıllardır
▁istedikleri
▁düşünüyorsunuz
viç
▁Aş
▁yu
Eğer
ilim
▁antik
▁hapse
▁Normal
▁dizayn
▁çevrim
▁dünyası
▁zararlı
▁Einstein
▁olasılık
▁şiddetli
▁anlatacağım
▁bahsediyorum
adü
cav
los
tes
ozor
▁Pen
▁gri
▁kitl
▁İtal
▁Eylül
▁degil
▁tarzı
▁ötürü
▁felsef
▁Harvard
▁itibaren
▁söylemeye
aze
▁Az
▁Res
▁esk
▁şer
cavüz
sunun
▁alda
▁kahv
▁otor
▁Üzer
emeyen
▁Erkek
ediğini
▁sesini
▁şeffaf
▁biyoloj
▁etmiyor
▁haftada
▁duyduğum
▁yerinden
▁duyuyorum
lanıp
lerse
▁gelin
▁yanlı
▁şehri
▁arayüz
▁olunca
▁sesler
▁organik
▁güzellik
▁etkiliyor
▁İnsanları
▁Te
ames
madık
▁etmez
▁testi
▁döndüm
▁kızlar
▁rehber
▁vermiş
▁doğanın
▁geleceğe
▁sıradışı
▁tasarımı
▁konuşurken
▁antibiyotik
ith
cusu
▁neş
▁Kore
▁akra
▁açar
▁koca
▁denir
▁ikiye
▁biriydi
▁hayatının
▁olmalıyız
wa
▁Hük
▁MIT
ektro
gatif
▁ışın
iliğin
▁döngü
▁istik
▁sürdü
▁tutku
lıyordu
▁George
▁başvur
▁yapmam
▁anlatır
▁etrafta
▁giriyor
▁görülen
▁intihar
▁sınıfta
▁danışman
▁araştırmaya
▁başkalarının
▁matematiksel
rin
arda
eten
▁cad
▁öle
▁biyo
▁hakim
▁tipik
▁yapın
▁şahit
▁millet
dığımızı
▁Kendisi
▁yaşamış
▁çıkacak
▁giderken
▁görmüyor
▁yapıştır
▁görmezden
▁hayatımın
▁söylediğim
▁teknolojisi
▁35
uncu
wood
▁Tür
▁rok
işsel
lobal
▁Asıl
▁okur
▁duyul
▁kaybı
▁tohum
▁mahall
▁balıkçı
▁ileriye
▁vererek
▁vücudun
ebileceği
▁dakikada
▁dinlemek
▁etkisini
▁maliyeti
▁değişiyor
▁düşünerek
▁kullandık
▁karbondioksit
ıla
▁45
diki
esan
▁Kiş
▁Sey
▁Söy
▁doz
tınız
▁açan
tuğunu
▁Atlan
▁doğur
▁kaygı
masıyla
▁dinlem
▁gruplar
▁birazcık
▁düşünmüş
▁merhamet
▁toplumda
▁hikâyeler
▁kullandığı
▁ediyorsunuz
▁nihayetinde
▁düşünüyordum
▁istiyorsunuz
list
olik
▁koz
▁Sıra
▁Ander
▁Paris
▁koyun
▁sınav
▁minnet
▁okumak
▁semptom
▁süreçte
dığımızda
larımızla
▁bireyler
▁sistemler
▁vereceğim
memi
tılı
▁Col
▁Gar
emini
▁Altı
▁sora
▁zirv
▁tanın
lanmaya
▁bulmuş
▁kurduk
▁sorduk
▁teslim
▁gerekti
▁hiçbiri
▁temelde
▁ürünler
▁ilişkili
▁yazılmış
▁doktorlar
▁olursunuz
▁fazlasıyla
▁şirketlerin
▁bahsedeceğim
▁ac
üldü
▁Aşa
▁Los
▁AIDS
▁içgü
dırlar
▁Hemen
▁bakan
▁düştü
▁havuz
▁İsveç
▁ilgisi
▁tamamı
ladığını
▁Dünyada
▁doktora
▁miktarı
▁ihtimali
▁işlerini
▁istediğini
▁söyleyecek
▁gerektiğine
▁olabileceği
Ha
▁3.
iter
ydim
▁Cam
▁bed
denin
leydi
mekle
▁azalt
▁doğan
▁ilgil
▁riski
▁çözün
▁Amazon
▁gelmez
▁ölüyor
▁biridir
▁çoğunun
▁konuştuk
▁kuralları
▁özellikleri
▁kullanabiliriz
ple
sür
▁22
▁duv
▁hev
▁içe
▁Geri
▁cana
▁graf
inizle
▁koyar
▁üzgün
▁İklim
▁bulama
▁direkt
▁finans
▁otobüs
▁bakacak
▁dönelim
▁düşüyor
▁mekanik
▁nitelik
▁çarpıcı
▁Ardından
▁bilginin
▁Teknoloji
▁bazılarını
▁bilgisayarlar
ill
▁Ed
alan
veren
▁Yara
▁kali
▁sezg
▁slay
umuzda
▁girip
▁kilis
▁sivris
▁gösterg
▁gürültü
▁olmakla
▁değildim
▁hayatımı
▁hepsinin
▁organizma
▁seferinde
▁tasarımcı
▁bulduğumuz
▁büyüleyici
▁istiyorsak
▁yapabilmek
▁mühendislik
▁değişiklikler
sif
▁id
arap
meyin
▁Roma
▁Beyaz
▁birim
▁tesis
▁tarafa
▁ışığın
▁ayrıntı
▁bugünkü
▁güvende
▁negatif
▁sisteme
▁yarıyor
▁biyoloji
▁görülüyor
▁yenilikçi
amız
oter
▁Mut
ester
irkin
▁Bill
▁bayı
▁sava
portaj
▁eseri
▁kurtu
▁varol
luğunda
▁havada
▁kazanç
▁düşünen
▁yumuşak
▁içeriyor
▁kendisine
layabiliriz
▁hastaların
▁çalışıyordum
mı
emde
meni
▁Bit
▁Fil
▁imp
lığım
▁Hala
▁frek
▁kana
▁ölen
▁diyal
▁fırla
▁proto
▁zorun
▁çekti
▁edilir
▁geçici
▁oluruz
▁adamlar
▁ölçekte
▁dersiniz
▁inanıyor
▁bulabilir
▁hissettiğ
▁fikirlerin
ebileceğimiz
nut
▁Sc
eral
▁for
▁Şeh
▁bilen
▁idare
▁kuram
▁oğlum
▁çeker
▁alınan
▁yapısı
masından
▁başkanı
▁etmekte
▁görürüz
▁deneyimi
▁evrimleş
▁kullandı
▁taraftan
▁buradayım
▁gittiğini
no
▁Ju
▁Li
edava
slına
▁ayna
▁şaka
▁Etraf
mesiyle
▁makina
cağınızı
▁Richard
▁evlilik
▁istekli
▁istemez
▁türleri
▁çekiyor
▁büyükann
▁edilemez
▁kaynaklı
▁ilişkilendir
yn
idi
und
Amer
lımı
rana
▁Gal
▁bez
sıyor
▁koku
▁alıcı
▁iyisi
▁miydi
▁okulu
▁sunum
malıyım
▁Tahmin
▁mimari
▁müziği
▁sonuca
▁aldılar
▁olurlar
▁uzaktan
▁şeklini
▁bahseder
▁bitkiler
▁derinlik
▁geçmişte
▁saniyede
▁yaparlar
▁göstereyim
▁çalışmanın
▁şirketleri
▁araştırmalar
mr
anç
düz
ğret
▁muc
▁çür
etrik
▁Brit
ırtıcı
▁panel
▁online
▁tesadü
▁yaşına
mediğini
▁Kendimi
▁değilse
▁sonuçta
▁çözmeye
▁kazanmak
▁alanlarda
▁kabiliyet
▁radyasyon
▁yapılacak
▁Böylelikle
▁hastalıkları
▁öğrencilerin
.)
üğü
▁23
▁90'
▁lam
▁rah
▁hadi
▁sine
▁James
▁ailesi
▁Birinci
▁günümüz
▁tecavüz
▁yapılma
▁olacağım
▁genelinde
▁hızlandır
▁sınırları
▁yollarını
▁çoğunluğu
▁bı
akar
▁bür
▁Hast
▁NASA
▁Ulus
▁ilan
▁Gezeg
▁Hikay
▁sabır
▁Sistem
▁yapmaz
▁İlginç
malarına
▁gitmeye
duğunuzda
▁belirgin
▁beslenme
▁geldiler
▁makinesi
▁prototip
▁düşünelim
▁kullanıla
▁öncelikle
▁gelecekteki
don
nden
▁Güç
cımız
ümcek
▁Beyn
likten
unları
lanarak
meliyim
▁Eğitim
▁biçimi
▁matema
▁okyanu
lamaları
▁hepiniz
▁saatlik
▁tiyatro
▁endüstri
▁hastanın
▁numaralı
▁oluyordu
▁teleskop
▁öncesine
▁özgürlüğ
▁veriyorlar
▁yapabileceğimiz
.'
alk
▁Ot
▁60'
▁Fot
▁çat
ember
▁Emin
emizde
▁atmak
▁vurgu
▁özgün
lamamız
▁havalı
▁konser
▁aydınla
▁bakmaya
▁büyüdüm
▁elektro
▁ikisini
▁kararlı
▁sigorta
▁hastalar
▁kusursuz
▁kızların
▁merdiven
▁etmeliyiz
▁sistemine
▁öğrenmeye
,5
▁He
ediy
ilde
▁80'
▁serg
▁Rusya
▁duyma
▁kırıl
▁parti
▁sömür
diğince
ırsanız
▁inşaat
▁yangın
▁yazmak
▁yoldan
▁insanla
▁Anderson
▁kurallar
▁farkettim
▁kurtarmak
▁tamamıyla
▁.
ndan
▁Ale
▁Pla
▁Kötü
▁Beyin
▁memel
▁Şehir
lerimin
▁deneme
▁uyumlu
emiyorum
▁Angeles
▁Merkezi
▁bıraktı
▁gördüğü
▁konular
▁yardımı
▁çoğumuz
▁gelmiyor
▁gelmişti
▁kullanış
▁ilgilidir
▁keşfetmek
▁İnanılmaz
▁birbiriyle
▁çeşitliliğ
ug
oya
sim
▁Git
▁Tom
▁göv
▁kli
luğunu
▁duyur
▁işten
▁mıydı
memişti
▁soruya
▁yeteri
eceğiniz
▁Demokra
▁olaylar
▁vereyim
▁bildiğim
▁dördüncü
▁kapsamlı
▁normalde
▁oluyoruz
▁röportaj
▁yıllarca
▁örnekler
▁olabiliyor
▁gerçekleşen
▁zorundasınız
▁Ör
beri
stra
tımı
uyuz
▁Mah
▁Seç
▁reç
sinde
ıplak
▁diya
▁fizi
▁kütl
▁şark
▁doldu
▁tarla
▁tedar
▁terim
▁unsur
▁alabil
▁Tasarım
▁eğlence
▁tanıdık
▁taşıyor
▁topluma
▁bilişsel
▁istasyon
▁keresinde
▁yapmaları
gon
atom
bağa
cını
trop
▁Ven
▁Vir
▁elb
▁ömr
lunun
▁dişi
eliyiz
▁Latin
▁damla
▁Dikkat
▁Geçmiş
▁Millet
▁birçoğ
▁dükkan
▁yönden
▁çocuğa
bileceğimi
▁alıyorlar
▁keşfettik
▁pazarlama
▁başlayacak
com
örf
▁dua
▁lif
▁zaf
ilecek
▁düşen
▁istih
▁taciz
dığımda
▁baktık
▁harcan
▁üreten
▁devamlı
▁yapılar
lerimizde
▁Kadınlar
▁resimler
▁söylemiş
ebileceğini
▁hastalığın
▁Ça
azik
eton
priz
▁Diy
▁sos
delik
eliği
▁kedi
▁çağr
ahürat
kinden
▁Evren
▁sinek
▁yayım
▁Darwin
▁gücüne
▁taşıma
▁değişen
▁azaltmak
▁bekleyen
▁öylesine
▁şekillerde
▁0
olf
▁Ga
hone
ozom
▁sön
▁şik
ıldığı
▁heves
▁kucak
akistan
▁hayali
▁ulaşım
▁değişir
▁kültürü
▁birinden
▁enerjiyi
▁yaşamaya
▁anlatmaya
▁dayanıyor
▁görebilir
▁topluluğu
▁verebilir
▁çıkarıyor
▁bakteriler
▁destekleyen
▁teknolojiye
The
dok
kah
lav
nes
ros
uşu
Peki
isti
tlar
▁Kab
▁def
emesi
▁atar
▁ayda
▁aşık
▁bire
eliğin
▁anket
▁bariz
▁kesim
▁kızın
▁türde
▁gergin
▁savaşa
▁süreli
▁Laborat
▁anlıyor
▁yakında
▁protesto
▁sayısını
▁tedavisi
▁Birleşmiş
▁geleceğin
▁kalabalık
▁nüfusunun
▁jenerasyon
▁hareketleri
An
ie
cin
yip
Bunu
süel
▁19.
▁And
▁Tak
sanın
çılar
▁ente
amanın
▁Yoksa
▁göğüs
▁konse
▁çoğal
▁aramız
▁bedava
▁duyduk
▁vadede
▁binanın
▁gelmeye
▁insanoğ
▁oynamak
▁üretimi
▁büyüklük
▁konferan
▁Genellikle
▁sorumluluğ
▁söylüyorlar
▁üm
baba
embe
▁Adı
memek
▁felç
▁Ölüm
▁alkol
▁değin
▁durup
▁gidiş
▁yolun
▁önyar
sundaki
▁duymak
▁yaşadı
▁yeryüz
ımızdaki
▁dinozor
▁hücresi
▁karşıtı
▁odadaki
▁onlarca
▁çaresiz
▁Biliyorum
▁iletişime
▁gelişmeler
▁hücrelerin
▁gösterdiğim
▁yaratıcılık
Hey
üyü
▁Ham
▁Söz
▁evi
▁hek
▁uyk
unuza
▁Soru
▁ardı
▁hâli
▁aynen
▁kavga
▁minik
▁tavuk
ilmişti
▁birara
▁Önemli
▁element
▁sahnede
▁savunma
▁Üstelik
▁Birlikte
▁enerjisi
▁kısmında
▁mutasyon
▁parçalar
▁verdiğim
▁Francisco
▁döneminde
▁öğrencileri
▁aj
▁je
sünü
▁CEO
▁anım
▁iniş
▁kesi
▁ömür
▁Hasta
▁ekmek
▁mezar
▁neydi
▁olana
▁piyan
▁Birisi
▁Pekâlâ
▁sermay
▁umursa
▁anlatan
▁düşünül
▁gizemli
▁videoyu
▁haberler
▁umuyorum
▁istediler
▁koleksiyon
▁araştırmacılar
PS
Biz
ila
▁Th
▁be
otez
▁Anne
▁Mark
eğinde
▁bulan
▁dağın
▁hariç
▁küçül
▁derken
▁patent
▁görevli
▁metafor
▁başlattı
▁kendimiz
▁dışındaki
▁kelimenin
▁bölgesinde
▁geliyorlar
▁gerektirir
▁kolaylaştır
▁değiştirecek
▁değiştirebilir
do
30'
dev
uar
▁ab
rama
uman
▁Bağ
▁cid
▁İsk
▁Sara
▁şuna
dirler
üncüsü
▁vergi
▁yaşar
dakiler
▁imkanı
▁yıkıcı
▁Sonraki
▁tehlike
▁yaparız
▁önemsiz
▁edeceğim
▁yeteneği
▁açıklamak
▁yetenekli
▁Devletleri
▁olmayabilir
▁değiştirmeye
ts
▁me
okul
▁Sta
▁çak
salar
ydılar
▁adeta
▁ilacı
▁nesne
▁sürüc
▁uydur
▁yerin
▁aramak
▁coğraf
▁kısaca
▁oluşum
▁çirkin
liğinden
madığını
▁babamın
▁gençler
▁geçirdi
▁sihirli
▁derinden
▁seviyesi
▁ülkedeki
▁medeniyet
▁kaybediyor
ese
oid
vel
zet
değer
▁Bang
▁işit
likler
▁Henüz
▁diplo
▁Öğret
▁güncel
▁keskin
▁tavsiy
▁varmış
▁yaradı
▁bileşen
▁deneyler
▁etmesini
▁evrimsel
biliyorlar
▁biliyordu
▁esnasında
▁olacaklar
▁İnsanlara
▁istediğimi
▁olmasından
gr
▁Sch
▁bük
▁anki
▁gemi
▁uçan
▁öden
▁özür
▁ayırt
▁kader
▁rengi
▁şüphe
hazırda
▁Buraya
▁Christ
▁Enstit
▁anlatı
▁annesi
▁okudum
▁vadeli
▁işlerin
▁yapılır
▁arabalar
▁düşünürseniz
▁sağlayabilir
oo
ze
▁Si
▁se
doğu
gide
ikan
ğini
▁Can
▁Gaz
▁sam
lenir
tımız
▁1000
▁rüzg
ilikon
▁Haydi
▁açmak
▁dönen
▁somut
▁temin
▁havaya
▁kötüsü
▁yoksun
▁ülkeye
▁gelmesi
▁yönetic
▁koruyucu
▁gidiyoruz
▁okyanusun
▁değiştirir
▁geçtiğimiz
▁uzaklaştır
bileceğinizi
ora
ayım
▁azı
aktif
▁sera
anlığı
▁Obama
▁muciz
▁yirmi
▁zemin
▁Hayvan
▁bayağı
▁bilinc
▁kortek
▁kısmen
▁yazılı
lığından
▁Hareket
▁diyordu
▁mahalle
▁birileri
▁projeler
▁söyledik
▁çocukken
▁şirketin
▁hayatımda
▁minnettar
leştirilmiş
▁hayvanları
▁hikayesini
▁sivrisinek
▁yapabilirim
tiy
▁27
dıma
omen
opar
ymış
üyük
▁Kaf
▁çor
▁Şim
seler
seydi
tadır
▁bant
▁göze
▁güce
▁rolü
ilerde
▁Willi
▁aslan
▁dönüm
▁odaya
▁sıtma
▁üyesi
masıdır
miyordu
▁amaçlı
▁kararı
▁motive
▁tanıma
▁malzeme
▁yürüyor
▁başlamış
▁biriktir
▁bulduğum
▁bölgeler
lerimizden
▁tarihinde
▁veriyorum
▁endüstriyel
).
▁Ki
ojen
ozof
▁Buz
ikola
ırsak
▁avcı
▁deri
manıza
▁acaba
kahalar
▁açıyor
▁benzet
▁halkın
▁kalkın
▁koyduk
▁mesajı
▁sürücü
▁titreş
▁bırakıp
▁işletme
▁soruyor
▁tedarik
▁Pakistan
▁acımasız
▁akademik
▁noktaları
▁noktasına
▁baktığımda
▁bölgelerde
▁edebilecek
▁kullanmayı
▁teknolojileri
ua
bak
içi
▁ge
ezer
▁70'
▁Gir
▁Mac
▁raf
▁çip
▁Kans
▁alık
▁başı
▁niye
ımdaki
▁Fizik
▁Hedef
▁memur
▁nazik
rabilir
▁hormon
▁hipotez
▁çoğunuz
▁gerçekçi
▁dayanarak
▁yarattığı
▁karşılıklı
▁kendisinin
▁arkasındaki
▁hastalıklar
▁çocuklarının
mo
ity
ons
sül
▁St
▁Far
▁Fre
▁Haf
▁amp
▁fer
biler
▁doğu
▁orij
▁üstü
menize
▁Frank
▁ayrım
▁gücün
▁halen
▁içten
▁sığın
▁yapım
ceğiniz
larımla
▁mürekk
▁Charles
▁düşündü
▁kurmaya
▁tutuyor
▁eşcinsel
▁planlama
▁gerekecek
▁moleküler
▁parçalara
▁çevresinde
▁görebiliyor
▁değiştiriyor
▁gerektiriyor
AR
cım
▁Po
▁Re
spek
ücük
▁pom
▁yüzü
▁Anlaş
▁kayda
▁yatan
▁yaşta
tığınız
▁Cumhur
▁bugüne
▁meşhur
sinizdir
▁beklent
▁fırtına
▁projesi
▁vermesi
▁yazmaya
▁kabullen
▁çılgınca
▁böylelikle
▁hatırlıyor
▁hizmetleri
▁kullanılır
▁yapabiliyor
▁diğerlerinin
▁gerçekleşiyor
▁öv
hael
üntü
▁atıl
▁sözü
▁gizem
▁tamir
▁verip
▁ısrar
bilmesi
▁Başarı
▁Dışarı
▁dönmek
▁kombin
▁sunmak
isindeki
▁mısınız
▁verildi
▁istikrar
▁kardeşim
▁manyetik
▁sentetik
▁kadarıyla
▁Yaptığımız
▁edebiliyor
▁etkilerini
▁Uluslararası
Sa
azi
deti
olon
▁Bas
▁kaş
▁tör
vanın
▁inek
▁nöro
▁solu
elerce
▁Doğal
▁Hatır
▁Kitap
▁tabak
▁önlem
diyorum
eliğine
▁dehşet
▁hayati
▁mağdur
▁reform
▁türler
▁uzmanı
▁Telefon
▁istisna
▁savaşın
▁söyleme
▁sürpriz
▁öğretti
▁sıcaklık
▁ediyordum
▁fotoğrafçı
▁insanlarda
▁motivasyon
▁konuşacağım
lel
ony
▁BM
▁st
bire
ilin
tiya
▁Alz
▁Web
▁Bost
▁Hâlâ
▁Türk
▁açıp
▁elle
▁fiya
heimer
leşmiş
▁Hangi
▁Video
▁düşer
▁ergen
▁ilkel
▁resme
▁çözül
▁koltuk
▁varken
▁birliği
▁hastane
▁partner
▁yatıyor
▁buldular
▁kırılgan
▁arasından
▁operasyon
▁gerektiren
▁kelimeleri
Sen
gim
tey
bası
▁600
▁Fin
▁Hız
▁Jon
▁Keş
saydı
▁Sana
▁evin
▁kası
amıyor
mezler
▁Karşı
▁dinle
▁elini
▁niçin
▁salgı
▁sorar
▁bastır
larınıza
▁eşitlik
▁yaramaz
▁yeteneğ
▁önyargı
▁bitirmek
▁imkânsız
▁oyunları
▁projenin
▁sıkıştır
▁birisinin
▁olasılığı
▁hatırlayın
▁arkadaşları
oru
▁Jen
▁You
▁Akıl
▁Trum
▁kola
▁takı
lywood
▁Apple
▁etken
▁firma
▁izlen
▁pilot
▁teori
▁torun
lamalar
romozom
▁Birden
▁alması
▁bağlan
▁grubun
▁odaklı
▁oturan
▁eşitsiz
▁sormaya
▁sonradan
▁ilerliyor
▁kitapları
▁yaşadığım
▁eşitsizlik
▁çalışıyordu
▁düşünüyorlar
▁heyecanlandır
▁Gi
yali
▁dep
▁hac
▁kıt
▁set
umdan
zaman
▁ağız
▁böyl
▁hesab
▁pengu
▁topar
▁çapta
likleri
tıracak
▁başıma
▁kızgın
▁riskli
miyorlar
▁donanım
▁evrende
▁toplumu
▁yaşımda
▁şimdiki
▁adındaki
▁hidrojen
▁ettiğiniz
▁hikayeleri
▁Amerikalılar
▁birbirlerini
layabilirsiniz
),
ff
ue
bın
sis
tis
amin
ubuk
utin
▁Hen
▁Sab
çilik
▁Mate
▁işçi
▁satı
▁dersi
▁direk
spektif
▁çıplak
mayacağı
▁bölgesi
▁edersek
▁etmeden
biliyorum
▁kitaplar
▁yapısını
▁gezegende
▁görüntüsü
▁elektrikli
▁desteklemek
▁geliştirdik
▁öğretmenler
elt
▁Eb
▁PM
▁10'
▁Min
▁Sin
ikler
▁Mary
▁Yaşa
▁Ödül
▁Robot
▁anima
▁arazi
▁buhar
▁derdi
▁enstr
▁kabuk
▁yazma
▁çizim
▁çoklu
▁deneye
▁düştüğ
▁günler
memiştim
▁doğrusu
▁işareti
▁kalmayı
▁dünyadan
▁yukarıda
dıklarında
▁Hepimizin
▁anlıyorum
▁konferans
ira
isp
▁ho
▁fig
▁İşe
▁şap
ander
losuz
▁Dedi
▁Phil
▁esin
▁hack
▁usta
uluyor
yseniz
▁Aşağı
▁alçak
▁evine
▁gözle
▁kapak
tığımda
▁akraba
▁girdim
▁iPhone
▁katına
▁yapımı
▁birçoğu
▁buluyor
▁tüketim
▁Şimdiye
▁gördünüz
▁yollarla
gülüşmeler
landığında
▁hikayenin
▁Geçtiğimiz
▁kelimesini
▁olmadığına
▁sanmıyorum
▁potansiyeli
▁yenilenebilir
▁pr
itir
leks
tası
▁Con
▁Oku
▁caz
▁dra
▁mit
▁tün
.000'
▁mask
▁özen
▁Hrist
▁hafız
▁lazer
▁tanık
▁çekip
▁deneyi
▁oynaya
▁çözümü
▁çıktık
eceğimiz
lanmıştı
▁Merhaba
▁annemin
▁devreye
▁kentsel
▁sahipti
▁teorisi
▁yaşadım
▁zamanki
landırmak
▁Fotoğraf
▁etkileye
▁seçimler
▁hastaneye
▁olduğudur
▁varlığını
▁başlangıcı
▁bilinmeyen
▁gösterdiği
▁istersiniz
▁kullanıldı
▁yapılabilir
ble
old
ott
▁30'
▁50'
▁Tit
▁Çoğ
larız
umuza
▁Vücu
▁obez
▁topu
▁Steve
▁Trump
▁diyen
▁duruş
▁gözet
▁hakik
▁koydu
▁miras
▁oldug
▁yazan
▁önems
ceğimiz
▁Boston
▁Kültür
▁basınç
▁hayret
▁içgüdü
▁nüfusu
▁patron
▁sanatı
▁Birliği
▁detaylı
▁filozof
▁şikayet
▁demokras
▁getirdim
▁insandan
▁tanesini
▁bakıyoruz
▁milyondan
▁adlandırılan
▁yapıyorsunuz
fı
bah
nia
▁çim
düğüm
▁Alan
edecek
▁kitle
▁öncül
mamızın
ovasyon
▁göreme
▁günden
▁oyunun
▁pişman
▁temeli
▁ekipman
▁sahneye
▁üyeleri
▁Herkesin
▁değerler
▁düşündür
▁orijinal
▁Alzheimer
▁problemler
▁yaparsınız
▁yaşıyorlar
▁Öğrenciler
▁çocuklarla
▁çalışanları
att
tun
▁Ür
anet
▁Mal
▁uğr
▁çay
sever
▁Doğa
▁Kalp
▁mülk
▁ödey
ografi
▁Yüzde
▁cümle
▁geçip
▁ispat
▁mısın
▁riske
▁doğası
▁Michael
▁William
▁anlaşma
▁boyutta
▁sayısız
▁yavaşça
▁örümcek
▁kaybetti
▁getirecek
▁hayatları
▁öğrencisi
▁perspektif
▁etrafındaki
▁gezegendeki
▁çocuklarını
▁bahsediyoruz
▁düşünmüyorum
İş
drom
eyip
iran
obel
ultu
▁Tho
▁güv
lenin
leyiş
▁atış
▁ihla
▁vara
▁örtü
mektir
▁aktör
▁dönük
▁gezin
▁iyice
▁mısır
▁parma
▁10.000
▁Robert
▁Thomas
▁kandır
▁karşıt
▁kötüye
▁macera
▁üretir
larsanız
▁Sürekli
▁bizlere
▁erişimi
▁olmasın
▁alıyorum
▁terörist
▁Öğretmen
▁biliyorlar
▁kullanışlı
▁söylemeliyim
▁alabilirsiniz
▁edebileceğiniz
ji
enk
him
irli
▁Bra
▁Dep
▁Lis
▁Sık
▁gev
▁sef
▁yoz
işimi
▁kira
▁müte
▁uzat
lediği
oterap
▁Bayan
▁Müzik
▁isyan
▁kütle
▁resif
▁tuval
▁Yıllar
▁anatom
▁bekler
▁cidden
▁gözler
▁hediye
▁hemşir
▁işleme
▁kalite
▁vardım
▁çember
lığımızı
▁bilinir
▁ciddiye
▁toplama
▁yapamaz
▁yazıyor
▁yaşanan
▁şiddeti
ilerinden
iliğinden
▁Hollanda
▁bulundur
▁engeller
▁kromozom
▁üretilen
▁anlatayım
▁başlarına
▁yapmaktan
▁yapmasını
▁oluşturduk
▁farkındalık
▁konusundaki
▁büyüklüğünde
▁söyleyeceğim
PR
üye
▁yo
amın
kırı
mert
▁Gre
▁Hig
▁ani
▁ism
▁lan
▁sur
▁zıt
▁Şey
ndeki
ömert
▁fare
▁hızı
▁uyuş
▁yetk
▁gitme
▁uygar
ikolata
lamıyor
▁Martin
▁kalanı
▁sindir
▁sizler
▁takımı
▁yılına
ınızdaki
▁Buradan
▁ailenin
▁cinayet
▁meraklı
▁arabanın
▁bozukluk
▁oranları
▁sebepten
▁strateji
▁getirdiği
▁istiyordu
▁parçasını
▁sistemimiz
▁gerçekleşti
▁görünüyordu
wn
rid
▁vs
ümün
▁Jim
▁Kil
▁miy
▁stü
▁süz
bilme
tikçe
▁Cali
▁cüml
▁otel
epyeni
ilerim
unuzda
▁geril
▁hitap
▁işken
▁metab
▁posta
mıyordu
▁Eminim
▁almayı
▁girmek
▁teşkil
lerimden
▁Krallık
▁bulacak
▁demişti
▁duygusu
▁içeriği
▁yardıma
▁yetecek
▁değerini
▁haritası
▁noktalar
▁keşfettim
▁olacağına
▁yaptığımı
▁şekilleri
leyebiliriz
▁işletmeler
▁noktasında
▁söyleyeyim
▁uygulamaya
▁fotoğraflar
▁sonuçlarını
▁Ca
▁ST
▁İh
anti
ikip
▁Yet
dilik
unlar
ünüzü
ıldız
▁soka
▁önde
▁Allah
▁gruba
▁koyul
▁meyve
▁refer
▁sahil
▁çağrı
▁çubuk
duğumda
▁cihazı
▁kurulu
▁virüsü
▁canavar
▁entegre
▁biraraya
▁ilaçları
▁kuvvetli
▁yarattık
▁İspanyol
▁başladığı
▁değerleri
▁reaksiyon
▁versiyonu
▁yaratacak
▁yaratmaya
▁çalışacak
▁konuşmalar
▁ödüllendir
Ah
20'
50'
Bak
Tube
ansı
▁Kaz
▁Tur
▁bam
▁dib
▁len
▁pap
▁çam
▁çeş
emize
luyor
▁Unut
▁ümit
cağımı
▁figür
▁filtr
▁halkı
▁roket
▁zafer
▁çelik
▁çıkma
▁karşın
▁kimliğ
▁taşıya
▁kapital
▁paranın
▁yönünde
▁zehirli
▁ülkeden
▁piyasaya
▁sayıları
▁eksikliği
▁maliyetli
▁mikroskop
▁olmalıdır
▁Bildiğiniz
▁olabildiğince
pi
vir
ışı
▁BG
▁Pan
▁Tes
▁güt
▁vol
▁Anla
▁Film
▁öfke
▁şair
▁Araba
▁Gelen
▁işgal
▁kızım
▁planı
▁tatil
laşıyor
ılmıştı
▁gitmiş
▁mağaza
▁vücudu
ildiğini
▁YouTube
▁duyuyor
▁etmeniz
▁finanse
▁kısmına
▁sevdiği
lıklarını
▁aileleri
▁alanlara
▁kelimesi
▁kilometr
▁konuştum
▁restoran
▁toplamak
▁duyguları
▁düşüncesi
▁incelemek
▁merkezine
▁verdiğini
▁düşünmemiz
▁düşünürken
▁geleceğini
▁inanıyoruz
▁konuşmanın
▁kullanıyorum
▁üniversiteye
▁bulabilirsiniz
nu
th
biya
olar
sten
▁Bek
▁Dil
▁kov
▁ust
▁şar
meyiz
▁Konu
▁olgu
▁oğlu
▁Özel
▁Hüküm
▁Senin
▁iğren
▁kaçak
▁metin
▁sapta
▁şebek
ispeten
▁Modern
▁cömert
▁ekstra
▁kadını
▁çıktım
Gülüşler
▁Gezegen
▁inanmak
▁işliyor
▁muhafaz
▁robotik
▁aynısını
▁dolardan
▁grupları
▁kaybeder
▁getirmeye
▁modelleri
▁geliştirme
▁malzemeler
▁gerçekleştirmek
by
gs
baz
fil
vat
▁26
▁Yo
▁fi
opya
▁sığ
▁the
estra
iliğe
▁geom
▁koyu
▁seri
▁vası
▁yüze
▁Çift
eğinin
sinler
▁Fikir
▁dilim
▁disip
▁doğdu
▁kurma
▁olgun
▁sesli
▁üreme
▁İster
ikipedi
▁Elektr
▁Tanrım
▁santim
▁ısınma
▁basamak
▁büyüyor
▁kazanan
▁seviyor
tiklerini
▁aktivist
▁istismar
▁kelimeyi
▁yanından
▁yarısını
▁şimdiden
▁animasyon
▁internete
▁olmalıydı
▁savunmasız
▁yaşlarında
▁Görüyorsunuz
rk
yak
▁Por
▁Sim
▁Tay
beral
dilen
iyatr
▁disk
▁yuva
▁Oraya
▁Söyle
▁doğuş
▁soğut
▁zordu
▁derler
▁hesaba
▁kronik
▁mikrof
▁protez
▁aramaya
▁büyüdük
▁çalıyor
▁ölçekli
▁değişime
▁oturuyor
ebiliyoruz
▁değişimin
▁enerjinin
▁şehirlerde
▁başladığımda
▁söyleyebilir
lev
tlı
▁Sm
tüel
unku
uyan
▁GPS
▁Yen
▁maç
dikçe
iğini
lavuz
tiğin
▁alay
▁kayn
▁omuz
▁Geliş
▁Nobel
▁Peter
▁Seyir
▁bulup
▁çamaş
ileştir
▁Suriye
▁alanın
▁duyduğu
▁hastası
▁işçiler
▁koyuyor
bileceğiz
▁Gerçekte
▁yapmakta
▁Bakanlığı
▁göreceğiz
▁güvenliği
▁inovasyon
▁bireylerin
▁etkileşime
▁gittiğimde
▁verdikleri
▁başladığında
▁ulaşılabilir
ian
▁Ad
▁Me
▁if
▁şö
alim
asil
ılda
▁Ana
▁King
▁attı
▁Çevr
cilere
▁kaplı
▁Vadisi
▁adapte
▁baskın
▁doğada
▁durmak
▁gereği
▁ismini
▁kadına
▁savunu
▁tanımı
▁yaşlan
▁ülkeyi
lanmamış
▁anlatma
▁galaksi
▁görünce
▁izleyen
▁kalıntı
▁konsept
▁devletin
▁edeceğiz
▁elektron
▁etmekten
▁etmeleri
▁liderler
▁çocukluk
▁dakikalık
▁çiftçiler
▁öncesinde
▁seviyesinde
▁geliştirmeye
▁görebiliyoruz
küt
rof
▁Vi
berg
▁Yön
mamak
siyle
▁Işık
▁azın
▁verg
▁öncü
larlar
▁Haiti
▁adama
▁denge
▁devre
▁satır
larımda
▁Kanser
▁Profes
▁inanan
▁sentez
▁sorusu
▁Diyelim
▁Dünyayı
▁alanına
▁binalar
▁fikrine
▁müziğin
lerimizle
▁Britanya
▁bağırsak
▁bebekler
▁ikisinin
▁kurumsal
▁mürekkep
▁yapmıyor
▁balıkları
▁edebilmek
▁problemin
▁resimleri
▁beklenmedik
▁bilgisayara
▁olmalısınız
▁Amerikalıların
atı
ğıt
▁öb
emiş
ette
ucak
unum
▁Düz
▁Kas
▁kel
▁rej
▁çiğ
emedi
ilist
niyet
sifik
▁burn
▁kurş
fornia
▁1980'
▁Duygu
▁Yapay
▁maddi
▁otomo
▁uzaya
▁ölümü
Gülüşme
▁hamile
▁hoşlan
▁yorgun
leştirme
▁aşamada
▁bilgisi
▁dağıtım
▁diyalog
▁resmini
▁yapmalı
▁yazdığı
▁yepyeni
▁açıkçası
▁başardık
▁eğitimli
▁hikâyesi
▁kablosuz
▁maalesef
▁tüketici
▁yükseliş
▁Milletler
▁bırakıyor
▁karaciğer
▁seslerini
▁bakımından
▁olmalarını
▁popülasyon
▁bilgilendir
▁davranışlarını
▁görebileceğiniz
ikâ
▁Pr
ondu
▁şük
lekli
▁atan
▁kova
artman
▁Dedim
▁Ebola
▁Ondan
▁denet
▁dilin
▁etnik
▁hayli
▁liste
▁yaşın
▁şarap
▁Aslına
▁Yanlış
▁global
▁koydum
▁öylece
ilmiştir
▁Problem
▁denemek
▁gidelim
▁kalırsa
▁konuyla
▁kısıtlı
▁okumaya
▁paralel
▁resimde
▁sermaye
▁çıkarıp
▁önemini
▁gereksiz
▁kendiniz
▁nedenini
▁alırsınız
▁kaybetmiş
▁sebebiyle
▁gösterilen
▁diyebilirsiniz
ate
isy
araj
▁Bob
▁Met
▁miz
▁Özg
lanın
▁Birç
▁Seni
▁müsa
▁suda
▁Devam
▁Süper
▁inana
▁içsel
▁rakip
▁vakti
düğümüz
▁kuşlar
▁aşağıda
▁birimiz
▁emisyon
▁enfekte
▁inandır
▁sürecin
madığımız
▁astronom
▁modeller
▁müzisyen
▁söyleyin
▁yoğunlaş
▁dikkatini
▁haklarını
▁konularda
▁örnekleri
▁görüntüler
▁sinyalleri
▁beraberinde
60
80
arş
iyo
lie
lon
▁4.
lası
ürüz
▁Sam
▁Yaz
▁küp
ampiy
▁Baba
▁abar
▁ödev
▁Enerj
▁Yerel
▁dizil
▁entel
▁kibar
elenmiş
liğiyle
lamasını
larsınız
olojinin
▁kitabın
▁yapımcı
▁çevreye
▁Açıkçası
▁bağlıdır
▁beyninin
▁dramatik
▁verilere
▁ülkeleri
▁düzenleme
▁fırsatlar
▁hastalığa
▁kaynaklar
▁kullandım
▁olmasaydı
▁tekrardan
▁yakalamak
▁değilsiniz
▁yardımıyla
▁diyebiliriz
▁hücrelerini
izy
obi
cesi
laka
onot
▁Dal
▁Lin
▁alg
▁ked
▁Oysa
▁ikil
▁sırf
▁terc
▁çağı
artesi
esince
lemesi
▁diyet
▁kavuş
▁kulüb
▁limit
▁tanıt
▁veric
▁yitir
eminist
ınızdan
▁Norveç
▁doğmuş
▁gercek
▁inanın
▁iyilik
▁kastet
▁mutsuz
▁ileride
▁kılavuz
▁yavaşla
▁öyleyse
lediğimiz
▁başından
▁durumlar
▁hücrenin
▁yönetimi
▁Matematik
▁dönüşüyor
▁girişimci
▁ilişkileri
▁simülasyon
▁yapacağını
▁diğerlerine
▁bulunduğumuz
ny
ker
nam
osk
▁Ab
ille
tüyü
ğımı
▁GSY
▁Kra
▁Mor
▁enj
▁lük
▁süp
▁yed
deniz
izmin
lemiş
▁Star
▁yönü
maktır
▁Merak
▁duyan
▁eksen
▁evden
▁kaydı
▁kurdu
▁kısal
▁nasil
▁otizm
▁siber
▁şeyde
layalım
▁Lütfen
▁fikrin
▁mesafe
▁olalım
▁uzayda
▁yatkın
ıldığını
▁Program
▁bırakır
▁görmeyi
▁götürdü
▁kavramı
▁nadiren
▁talimat
▁umutsuz
▁çekildi
▁duygular
▁getirdik
▁gezegeni
▁kahveren
▁olayları
▁bittiğini
▁dünyasına
▁gençlerin
▁hayatında
▁olmasıydı
▁yolculuğa
▁başlarında
▁gösterecek
▁tanımlamak
▁dönüştürmek
▁yaşındaydım
▁diğerlerinden
ses
▁Fl
▁İr
siyi
▁Don
▁Jer
▁aça
▁doy
▁kül
iksel
▁kazı
▁kolu
mışlar
▁alına
▁buyuk
▁görem
▁hediy
▁korid
▁krist
▁pembe
▁silin
▁Benzer
▁Uganda
▁dokunu
▁gözlük
▁haberi
▁kurdum
▁mutfak
▁dağılım
▁kalmaya
▁liberal
▁olmazdı
▁sevimli
▁yaşadık
▁çıkmaya
istematik
leştirmek
▁dışarıya
▁hikâyeyi
▁ilişkisi
▁kurumlar
▁nispeten
▁olanlara
▁enstrüman
▁yanındaki
▁aralarında
▁fikirlerini
▁molekülleri
10
yl
Tan
▁Is
▁Oy
▁Wh
ikar
inip
isan
ümüş
▁Aka
▁Del
▁Hap
▁and
▁dah
jinal
▁mini
▁rica
▁sağa
▁Yeşil
▁batar
▁küçüm
▁misaf
▁mıyız
▁ultra
ilmemiş
lamadan
çilerin
▁aykırı
▁olayın
▁ressam
▁ulaştı
▁yetkil
▁Biliyor
▁Silikon
▁aptalca
▁iskelet
▁tarihte
▁taşımak
▁yayılan
▁yayıldı
▁çıkarak
eceğimizi
▁bulaşıcı
▁enerjiye
▁geceleri
▁gelişimi
▁geçmeden
▁kişileri
▁göndermek
▁süresince
▁özgürlüğü
▁başkasının
▁başlamadan
▁tasarlamak
▁yaparsanız
▁karşılığında
40
uf
öl
ray
uğu
bara
▁Lou
▁Siv
▁Van
hattan
▁adımı
▁dalış
▁iyiye
▁oyunc
▁umudu
larıdır
malıdır
tiğiniz
▁aynısı
▁esasen
▁mutlak
▁poster
▁ruhsal
▁çekimi
▁bizleri
▁diyecek
▁gibiler
▁gözleri
▁katıldı
▁ulaştır
▁önlemek
▁aldığını
▁etkinlik
▁yaparsak
▁defalarca
▁haberleri
▁olanların
▁değiştirme
▁düşünürsek
▁görünmüyor
▁kullanılma
▁beklentiler
▁topluluklar
▁yapabileceğiniz
gos
▁32
ayın
ehri
▁Dis
▁Mas
▁iğn
▁zıp
▁çey
mazdı
▁Noel
▁yaya
cılara
▁Yeter
▁bedel
▁durur
▁fikre
▁gövde
▁istes
▁polen
eceğine
▁kirlet
▁koruya
▁sandal
▁satıcı
▁ucunda
▁yazarı
▁bulabil
▁dayanan
▁geçmişe
▁çamaşır
▁Mükemmel
▁deneysel
▁fazladan
▁hepimizi
▁kalmıyor
▁kişilere
▁takdirde
▁gerekmiyor
▁kolaylıkla
▁görünebilir
▁oluyorsunuz
▁fotoğrafları
▁laboratuvarda
Ses
erg
fat
ino
lör
brek
irin
lüğe
▁Bla
▁Cid
▁Dön
▁Fak
▁Vak
▁kıy
▁ran
▁tey
▁yuz
anızı
ganiz
ndaki
opter
▁sola
ılacak
▁Mimar
▁dikey
▁durak
▁paraz
▁yunus
terneti
▁döngüs
inizdeki
mışlardı
▁Nihayet
▁geçecek
▁gücünün
▁kalmadı
▁tanıyor
▁çıktığı
▁hükümeti
▁koşullar
▁yapmadan
▁Enstitüsü
▁Hristiyan
▁geçiriyor
▁ilaçların
▁istemiyor
▁yapıyordu
▁yolculuğu
▁haritasını
ebileceğiniz
▁oluşturmaya
▁programları
▁uzunluğunda
▁bilgisayarın
▁hastalıkların
▁istediklerini
Bil
RIS
rik
▁üs
omer
otek
tral
varı
▁250
▁Cez
▁Cha
▁Chi
▁Küt
▁Nan
▁Sil
▁Sok
▁Tor
▁mum
▁paz
onald
osunu
▁Bron
▁Hikâ
▁Mahk
▁Stre
▁kimi
seydik
▁1970'
▁Değiş
▁atlet
▁calis
▁işine
▁kartı
▁kurak
▁pasif
▁sesin
▁tartı
▁tavan
▁atalım
▁beceri
▁emekli
▁izleye
▁prensi
▁yaratı
▁Sizlere
▁bölgeye
▁hâlinde
▁peşinde
▁varoluş
▁gütmeyen
▁kaybeden
▁çevirmek
▁çikolata
kahkahalar
▁Manhattan
▁anlamamız
▁ederseniz
▁farklıdır
▁gelmesini
▁hastaları
▁saldırgan
▁California
▁arkadaşlar
▁biliyorduk
▁engellemek
▁çıktığında
▁bazılarının
▁destekliyor
▁düşünüyordu
ac
ıra
▁75
▁ur
törü
▁koç
▁sip
▁tuş
▁yut
▁Çar
▁Devr
▁Olay
▁Saat
▁boru
▁gazı
▁grip
▁resm
anızda
ediyor
▁açlık
▁evsiz
▁gibiy
▁giren
▁görüp
▁slayt
▁yolcu
ilistin
öyleydi
▁baylar
▁görüşü
▁izleme
▁içerir
▁korsan
▁Kırmızı
▁Pasifik
▁ağaçlar
▁geçiren
▁kaldıra
▁karışım
▁okuyucu
▁silahlı
▁takıntı
▁vermeyi
▁yarayan
▁gereksin
▁geçirmiş
▁kalitesi
▁sizlerle
▁oluşturdu
▁yaşıyorum
▁aşamasında
▁yapılandır
▁rahatsızlık
▁çeşitliliği
fre
▁Nef
▁Sır
▁arg
▁lok
▁çuk
diren
irsek
▁Asla
▁onda
▁sper
▁şura
lileri
▁giyin
▁makul
▁pompa
▁sürer
▁tünel
▁yarın
▁Hastan
▁bencil
▁kanıtı
▁ortamı
▁süresi
▁travma
▁şeytan
cağından
▁ameliya
▁devrimi
▁görünüm
▁korkusu
▁tarihin
▁Maalesef
▁bakıyorum
▁hissetmek
▁konuşması
▁mekanizma
▁miktarını
▁yaşayacak
▁çıktığını
▁değiştiğini
▁gerçekleşir
▁çalışmasını
so
rem
sün
unya
weet
▁Cin
▁Jef
▁est
ropik
ttığı
tular
▁Kula
▁Psik
▁boyn
▁güne
▁üste
▁Yemek
▁alama
▁bunda
▁izler
▁krali
▁tutum
mesidir
▁alındı
▁ilgimi
▁tembel
▁bebeğin
▁garanti
▁incelem
▁kişiyle
▁küçücük
▁zorunlu
▁anahtarı
▁açıkladı
▁belediye
▁bildirim
diklerinde
▁erkeklere
▁hayatımız
▁imparator
▁sessizlik
▁sistematik
Her
izo
oft
par
tig
uel
▁Hey
▁pal
▁yon
▁şov
incil
ılmak
▁Yasa
▁atla
▁köle
▁nötr
▁tela
uluğun
▁Smith
▁kaste
▁kuşak
▁uzağa
▁ölüme
▁Street
▁bayrak
▁döndük
▁hemfik
▁işlemi
▁kabaca
▁vermem
▁yapıyı
▁şampiy
▁Bankası
▁Eskiden
▁başardı
▁denedim
▁içeride
▁çıkaran
ladıkları
▁Internet
▁büyümeye
▁paylaşım
▁seviyeye
▁öğretmek
▁bozukluğu
▁gerçekleri
▁hikâyeleri
▁internetin
▁kahverengi
▁belirsizlik
▁benzediğini
▁parçalarını
▁karşılaştığımız
Ka
osh
top
une
▁MR
▁uf
allı
ardo
kala
▁---
▁Alt
▁ceb
▁fit
▁ork
▁Bölg
mıştık
▁artar
▁aylar
▁aşina
▁eline
▁kirli
▁milli
▁saati
▁yankı
▁zorla
▁şehre
▁şerit
▁Yahudi
▁arıyor
▁bakıcı
▁evinde
▁favori
▁hedefi
▁kurucu
▁pirinç
▁seçmen
ılmasını
▁Gelenek
▁Haziran
▁Kişisel
▁edemeye
▁eşdeğer
▁projeyi
▁savaşta
▁stresli
▁çalışıp
▁Binlerce
▁anlamsız
▁cevaplar
▁söylendi
▁yerleşim
▁yuvarlak
▁yükselen
▁çekilmiş
▁Önümüzdeki
▁kırıklığına
▁oluşturduğu
▁zorundaydım
zat
▁3'
▁şe
batı
▁191
▁Art
▁Şaş
yasal
İnsan
▁alar
▁nano
▁peyn
ceğimi
▁almaz
▁anlık
▁aradı
▁daire
▁ekibi
▁güver
▁masum
▁perde
▁rutin
▁ürküt
dilerde
▁Onunla
▁bilmem
▁deprem
▁dolusu
▁market
▁resmin
▁etmişti
▁frekans
▁oynuyor
▁sayılar
▁çıkması
▁kolaydır
▁hareketli
▁koşulları
▁yıldızlar
▁başladığım
▁belirlemek
▁bilimciler
▁başladığımız
mey
Çok
üel
▁Gr
ırdı
arıma
▁mali
▁muay
▁okum
▁teli
▁ödün
asıyla
▁Pazar
▁hamil
memizin
▁boyutu
▁derine
▁gazete
▁kalkıp
▁lezzet
▁misyon
▁oranla
▁uzanan
sınızdır
▁beyinde
▁işleyen
▁kristal
▁olsalar
▁salınım
▁sokakta
▁Avrupalı
▁Başlangı
▁akıllıca
▁korumaya
▁tamamını
▁yapıları
▁yoğunluk
▁ırkçılık
▁davranışı
▁gördüğümde
▁Laboratuvar
▁sınıflandır
▁organizmalar
mes
amda
limp
tara
tülü
tısı
yolu
▁Med
▁Yür
▁bat
▁ört
inler
▁2010
▁Plan
▁ikiz
▁mide
▁yurt
anları
eğimiz
usuyla
ılmaya
▁1960'
▁bıçak
▁dolay
▁elbis
▁eşleş
▁hızda
▁izole
▁koyup
▁odası
▁resep
▁sıçra
▁Örnek
▁üzücü
düğümde
▁Yardım
▁olmama
▁yetmez
▁çevrel
▁deneyin
▁elinden
▁emniyet
▁oynayan
▁açabilir
▁beklemek
▁bıraktım
▁durumunu
▁kültürün
▁Hollywood
▁anlamında
▁hastanede
▁kirliliği
▁liderleri
▁çevrimiçi
▁bağımlılık
▁göstermeye
▁çözünürlük
▁şehirlerin
▁başkalarına
▁başladığını
İH
car
hia
med
▁65
▁Oğ
▁lo
arız
ates
iyse
obik
▁Tut
▁İla
izofr
lülük
▁elma
▁muam
▁vesa
lerime
▁Belli
▁dusun
▁optik
▁orası
▁temas
leyelim
ografik
▁aradım
▁yüzeye
▁Şirket
eleriyle
▁Genelde
▁arasına
▁bakınca
▁başkası
▁başlıca
▁bilerek
▁dönüşür
▁erkeğin
▁işkence
▁kalması
▁koridor
▁odasına
▁oluşmuş
▁robotun
▁temelli
▁zinciri
▁öldürül
madığınız
▁Filistin
▁geçerken
▁kaldılar
▁sıradaki
▁tarihsel
▁Kendimizi
▁başlangıc
▁ekonomist
▁geliyoruz
▁gerçekler
▁götürüyor
▁sanıyorum
▁tanımlama
▁gezegenler
▁yerlerinde
▁yöntemleri
▁görüntüleri
▁yaratabilir
▁yıldızların
▁hatırlatıyor
▁kendiliğinden
mis
ras
▁1'
▁Fo
▁öd
ardı
ihai
irim
▁40'
▁Acı
▁Ağa
▁Mis
▁Ros
▁ası
▁log
▁Öte
▁çığ
▁Mavi
▁akla
▁bira
▁taze
balığı
▁Bende
▁Kutbu
▁Ortak
▁beyne
▁dürtü
▁hiper
▁ihlal
▁saklı
▁çokça
▁ödülü
mesinde
▁Yukarı
▁artışı
▁bardak
▁uzaylı
▁İçinde
landılar
▁Doğrusu
▁Ebeveyn
▁Görünen
▁eğitime
▁gelirli
▁gitgide
▁okullar
▁severim
▁sözleri
▁varlığı
▁Atlantik
▁Ekonomik
▁bulunmak
▁maddenin
▁sandalye
▁birbirini
▁buluyorum
▁karşılaya
▁endüstrisi
▁işlediğini
▁sorunların
▁tekerlekli
▁zorundayım
▁bazılarınız
▁fotoğrafını
▁yetenekleri
▁farklılıklar
ty
▁2,
▁Pe
▁sü
▁vb
çisi
ışma
▁Eri
▁Jack
▁Ocak
▁cilt
▁kliş
▁meme
▁saya
▁İste
landım
▁Carol
▁GSYİH
▁ağacı
▁beton
▁satan
▁yılan
▁ölmüş
▁Dahası
▁akıntı
▁iyiydi
▁iğrenç
▁kuralı
▁person
▁taşına
▁yüzünü
lediğini
▁bugünün
▁geçmişi
▁harcama
▁kumanda
▁yapısal
larınızla
▁azalıyor
▁bakarken
▁bunlarla
▁disiplin
▁işlevsel
▁konuşmam
▁meselesi
▁peşinden
▁savaşmak
▁söylenen
▁çıkardık
▁benzersiz
▁beyindeki
▁bölümünde
▁ekonomisi
▁gidebilir
▁hareketin
▁sağladığı
▁sürecinde
▁düşünmenizi
▁hayatımızın
▁yaşadıkları
▁bölgelerinde
▁yapabileceği
▁özelliklerini
ayi
▁FB
▁Je
▁LG
cago
cere
gesi
ling
▁Ant
▁Oda
▁fat
▁göl
▁oğl
tatör
ümüze
▁Yapa
▁fizy
▁kade
ikaydı
slinda
▁1950'
▁biten
▁hiyer
▁inter
▁kızıl
▁lanet
▁seçer
▁yönlü
diğinin
▁azalma
▁benzin
▁bilime
▁cezası
▁güçsüz
▁ilacın
▁satmak
▁seçimi
▁seçmek
▁sınırı
▁tanıya
▁tarama
▁Dijital
▁aletler
▁ağırlık
▁güçleri
▁vesaire
▁çoğunda
tıklarını
tığınızda
▁cevabını
▁dirençli
▁haftalık
▁kurtarma
▁medyanın
▁Üzerinde
▁ülkelere
▁düşündüğü
▁fazlasına
▁ilgiliydi
▁kazanıyor
▁unutmayın
▁yerlerden
▁bulunmakta
▁değillerdi
▁kullanacak
▁söyleyerek
bileceklerini
▁başarısızlık
▁değiştirerek
ght
göz
tiz
üşe
▁Mey
▁enz
▁eşi
▁fet
▁Aman
▁dara
▁onar
▁yaza
eciler
▁andan
▁edebi
▁ezber
▁nesli
▁Sizden
▁mucize
▁seyret
▁İtalya
ceğimizi
elerimiz
▁Sizinle
▁ailemin
▁paradok
▁santral
▁seferde
▁yanımda
▁öncülük
▁aktivite
▁anlamını
▁bölümünü
▁götürmek
▁hayatına
▁konuları
▁noktadan
▁tarafına
▁ailesinin
▁başlattık
▁bütünüyle
▁tarihinin
▁tasarımın
▁başlamıştı
▁biliyorsun
▁birbirimizi
▁istemiyoruz
▁karşılaştım
▁bakıyorsunuz
▁hayatlarının
▁â
ens
hay
şiv
▁Ağ
▁EM
▁Lo
▁iv
aydı
tura
▁Cen
▁Nes
▁Net
▁War
▁deg
▁mav
▁çen
estez
▁Veri
▁alev
▁eşim
▁ifad
▁orda
▁Ailem
▁Bebek
▁Henry
▁Olimp
▁Sınır
▁aster
▁metro
▁seyre
▁üçgen
▁büyüdü
▁cennet
▁duvara
▁dönemi
▁kaldık
▁tadını
▁şaşkın
emizdeki
▁Chicago
▁Kontrol
▁Okyanus
▁desteği
▁faydası
▁kurtarı
▁tutkulu
▁çağında
ildiğinde
▁Kendiniz
▁Stanford
▁ekolojik
▁odasında
▁türlerin
▁yıldızın
▁üretiyor
▁beceriler
▁ilerleyen
▁psikiyatr
▁yaklaşımı
▁zorlaştır
▁alışkanlık
▁eğiliminde
▁başlangıçta
▁görüntüleme
▁yapıldığını
▁hastalıklara
▁teknolojiyle
▁kullandıkları
ag
oç
day
doğ
fab
get
▁to
▁Alg
▁Tic
▁dog
▁fed
▁meg
RISPR
meyle
tedir
tının
▁boşa
▁geni
▁iğne
▁yıla
▁ölür
mişler
▁1990'
▁Kelim
▁desen
▁favor
▁feder
▁kumaş
▁kötül
▁Örgüt
madılar
▁benlik
▁dizisi
▁kurşun
▁mahkem
▁otorit
▁soruna
▁tahrip
▁yüzüne
▁zekice
▁çektim
▁akışını
▁alırken
▁alıştır
▁arabayı
▁argüman
▁dersler
▁istemem
▁olsanız
▁oyunlar
▁paradig
▁projeye
▁satıyor
▁savaşçı
▁yıldızı
tabiliriz
▁Güvenlik
▁Muhteşem
▁altından
▁bağlılık
▁başlayıp
▁haberdar
▁isterdim
▁kirliliğ
▁kompleks
▁otomobil
▁romantik
▁sürecini
▁Başlangıç
▁aldığınız
▁bölgeleri
▁olacaksınız
▁yaptığımızı
▁davranışları
▁uygulamaları
▁duymuşsunuzdur
ern
obu
sah
atçı
caba
feri
izin
mark
ımla
ışık
▁Ask
▁ağr
▁pis
▁yil
aniel
ciydi
etiği
▁tümü
duğumu
ulması
çileri
üyorum
▁Sahra
▁bakma
▁duman
▁sesle
eğinden
lediler
luğunun
lığınız
▁CRISPR
▁anladı
▁ağları
▁bıraka
▁ertesi
▁ürünün
mparator
▁batarya
▁boşluğu
▁kılıyor
▁olduğun
▁sendrom
▁tümüyle
▁yaratıl
▁şiddete
▁baloncuk
▁bağlayan
▁dinliyor
▁durumuna
▁etmenizi
▁istihdam
▁kirlilik
▁ticareti
▁anlıyoruz
▁desteklem
▁diyebilir
▁durdurmak
▁olayların
▁toplumlar
▁Cumhuriyet
▁Geleneksel
▁bağlantısı
▁olasılıkla
▁topluluğun
▁kombinasyon
▁uygulamalar
▁yapacağımız
ebileceğimizi
▁kendilerinin
▁öğrendiğimiz
ld
des
nem
uth
▁og
▁ız
biri
ilip
irdi
sunu
üloz
▁Mev
▁ica
▁izi
eliğe
iller
▁Etiy
▁Kita
▁Viet
ebilme
tıktan
▁ailen
▁cisim
▁geçin
▁konut
▁metod
▁mizah
irseniz
lerimle
▁havayı
▁içiniz
▁sınıfa
▁varsay
▁özünde
▁anlayan
▁bekleme
▁etkisiz
▁gittiği
▁çıkarır
▁İtalyan
elikopter
lanmasına
▁arkasına
▁canlılar
▁durumdan
▁edildiği
▁gelmeden
▁geçtikçe
▁gördüler
▁olmuştum
▁çekirdek
▁konuşalım
▁nesneleri
▁duyduğunuz
▁geldiğimde
▁geliştirdi
▁uygulaması
▁davranışlar
▁olmadığımız
▁yapabilirler
▁uygulanabilir
.5
şu
ada
kâr
dola
dviç
okol
opat
▁Cap
Dünya
ordin
▁aksi
▁elli
▁golf
▁hırs
▁meyv
▁vakt
eceğin
isiydi
▁Antik
▁Balık
▁Değer
▁Higgs
▁Lider
▁eşlik
▁hükum
▁seven
▁sipar
▁Kulağa
▁Micros
▁adıyla
▁birimi
▁kalmaz
▁paraya
▁yapıya
ebilmesi
▁alakası
▁ayrıldı
▁görecek
▁istemek
▁kardeşi
▁keşfede
▁riskler
▁solunum
▁tutarlı
▁astronot
▁konusunu
▁açıklıyor
▁gerçeğini
▁gözlerini
▁laboratuv
▁olduğuydu
▁verilerin
▁başlayarak
▁büyüklükte
▁tanımlayan
▁çalışacağım
▁öğrencilere
Ar
ıs
90'
eyf
nel
rus
ült
▁Oh
dist
ikli
kton
ulur
▁Esa
▁ucu
insan
otekn
▁anıt
▁aygı
▁dola
▁ipuç
▁uzer
avallı
sundan
tikten
tiğine
ılırsa
▁Durum
▁Gazet
▁akışı
▁boşal
▁evcil
▁klini
▁manip
▁Milyon
▁arayan
▁ayıran
▁bağdaş
▁böbrek
▁etkiyi
▁konsan
▁yaşana
▁çiftçi
▁üstlen
▁İhtiya
▁şurada
ılmasına
▁Vietnam
▁anladık
▁ardında
▁ayırmak
▁ekranda
▁federal
▁hangisi
▁kölelik
▁kızları
▁yarışma
▁Çalışma
▁çabucak
▁çıkarma
lanmıştır
▁bağlamda
▁doğruluk
▁feminist
▁ikincisi
▁isterler
▁olmamalı
▁referans
▁şehrinde
▁kaldırmak
▁yerindeki
▁ekonominin
▁oluştuğunu
▁söylüyordu
▁tartışmaya
▁verirseniz
▁özellikler
bileceğimize
▁hissettiğim
▁kelimelerin
▁cesaretlendir
▁başladığımızda
▁teknolojilerin
Ama
▁DB
▁Kr
▁Vay
▁Wat
▁bot
ahmet
ovyet
tates
teydi
▁pant
▁Şans
▁bizde
▁inkar
▁lamba
▁sudan
▁çekme
melidir
▁egemen
▁iseniz
▁masada
▁mekani
▁profil
▁sitesi
▁spektr
▁yerçek
▁yoluna
▁ölçmek
ileriyle
lemesine
▁açısını
▁dağınık
▁gerçeğe
▁gizlice
▁gösteri
▁konunun
▁listesi
▁rahatla
▁sayılır
▁tesadüf
▁yaşandı
▁başarmak
▁bizlerin
▁büyürken
▁fikrimiz
▁gazeteci
▁hayvanın
▁seçeneği
▁yaşından
▁yukarıya
▁şiddetin
▁şüphesiz
▁alanların
▁aldıkları
▁cevapları
▁olduğunca
▁çalışmada
▁çıkarmaya
▁düşündüler
▁gidiyorlar
▁kadınlarla
▁olsaydınız
▁sisteminde
▁yaşındaydı
▁getirebilir
▁konuşmaları
▁çocuklarına
▁düşünebiliriz
▁başlayabiliriz
▁düşünüyorsanız
Al
yaş
▁28
▁Tr
▁cm
....
Aman
ciye
izmi
ğine
▁Ali
▁Dir
▁coş
▁mam
eleme
orida
yalım
ıldım
▁Gece
▁avuç
▁idam
▁lüks
memesi
siyete
▁2008'
▁Brook
▁Haber
▁banyo
▁dilde
▁halle
▁nihai
▁portr
▁sırrı
▁çaplı
arsınız
▁Teksas
▁bilmez
▁bizzat
▁enstit
▁söyles
▁yapıcı
▁çıkmaz
▁Hayatta
▁ilerlet
▁kaldığı
▁yerdeki
▁İrlanda
▁İspanya
ladığınız
▁Kütüphan
▁Okyanusu
▁Ortalama
▁anlattım
▁dengesiz
▁kahvaltı
▁kurulmuş
▁seçilmiş
▁tanıştır
▁örneğini
▁ürkütücü
tıklarında
▁ellerinde
▁hareketler
▁yapıyorsun
▁İnanıyorum
▁bilgisayarı
▁elektriksel
▁ettiklerini
▁mühendisler
▁yetişkinler
▁öğreniyoruz
▁bilmediğimiz
DA
cy
mm
100
Ken
gaz
akâr
ayıp
liye
onim
well
çesi
▁Irk
▁Mel
▁Çoc
▁şab
lamam
▁Juli
▁Sing
▁arke
▁ilti
▁tavş
saydık
saydım
ğımızı
▁Siyah
▁gecek
▁işimi
▁sebze
▁sunul
▁trend
▁zarif
lilerin
▁evreni
▁sanayi
▁trajik
▁yılını
▁çatlak
▁alınmış
▁genleri
▁getirip
▁oranını
▁çekirde
▁ayrılmış
▁ilgisini
▁kanserin
▁kısmının
▁yapacağı
▁öldürmek
▁duyuyoruz
▁dışarıdan
▁katılımcı
▁seviyoruz
▁sonuçlara
▁soruyorum
▁İmparator
▁gerçekliği
▁başlıyorlar
▁girişimciler
▁söyledikleri
▁hissettiriyor
▁düşündüğünüzde
bik
biz
buk
ily
▁fl
gara
ment
rağı
üsüz
şeye
▁Eve
▁tim
▁tiş
▁çır
Benim
başka
engin
ezerv
halde
indan
lüsin
çılık
▁taki
▁vaat
▁yıka
esifik
▁Bilgi
▁Sekiz
▁dilek
▁gidin
▁karga
▁olsam
▁piram
▁İsviç
lamanız
layınca
▁denize
▁elimde
▁mahrum
▁mecbur
▁rüzgâr
▁yerdir
▁yönelt
▁Örgütü
▁hakkını
▁halüsin
▁medyada
▁müşteri
▁okuldan
▁önceydi
▁katıldım
▁mutluyum
▁sinirsel
▁söylemem
▁şekiller
lamazsınız
lanıyorlar
▁başkaları
▁düzeltmek
▁ettiğinde
▁kemoterap
▁uzmanları
▁zorluklar
▁araştırmak
▁dünyasının
▁ebeveynler
▁gördüğünüzde
▁bulunmaktadır
▁değişiklikleri
-2
80'
ech
val
örü
▁2'
▁99
▁AM
▁Mi
▁oz
aklı
anlı
oper
tion
tüğü
▁Hed
▁Ola
▁Str
▁Tab
▁İsa
▁Yazı
▁kodu
▁mahv
▁rota
▁tabl
sınlar
▁Yavaş
▁alfab
▁ampul
▁gecik
▁ipucu
▁mühen
▁seçme
▁yerdi
▁Ödülü
ational
▁Kullan
▁Sovyet
▁araban
▁aralık
▁başlık
▁dondur
▁filmin
▁hatalı
▁motoru
▁randev
▁stüdyo
lanırken
▁Türkiye
▁denedik
▁dinleme
▁istemiş
▁riskini
▁vücudum
▁belirlem
▁bölgenin
▁edilecek
▁gizlilik
▁metrelik
▁orkestra
▁psikolog
▁yürürken
▁Microsoft
▁hikâyenin
▁ilgilenen
▁kenarında
▁kurtulmak
▁birdenbire
▁bitkilerin
▁olduğumuza
▁verdiğiniz
▁çalışmamız
▁ülkelerdeki
▁ihtiyaçlarını
MA
ach
ess
kal
odu
org
tün
▁sk
orld
▁120
▁Eki
▁Gra
▁Hav
▁His
▁Ten
▁bon
▁hil
▁lev
▁sag
eydim
tikül
▁Ekim
▁Halk
▁aslı
▁elit
▁izni
▁öbür
▁şeri
elerek
maması
ünüzde
▁Hazır
▁ayıra
▁denli
▁karın
▁rekor
▁sakat
▁seçil
▁tweet
▁türün
▁yosun
liliğin
▁azaldı
▁bozucu
▁durgun
▁etmede
▁fatura
▁geçtim
▁gülüms
▁odanın
▁yüzeyi
▁Florida
▁diyerek
▁duyulan
▁düşünüp
▁elinizi
▁gitmesi
▁karmaşa
▁sandviç
▁sayısal
▁tersini
duğumuzda
melerinin
▁alanının
▁ağaçları
▁bilmeyen
▁eğitimin
▁oradaydı
▁sanatsal
▁savaştan
▁sistemde
▁sordular
▁ailelerin
▁dalgaları
▁evrendeki
▁açıklaması
▁bilmiyordu
▁hayatımızı
▁odaklanmış
▁sanatçılar
▁çalıştılar
▁düşünceleri
▁görülebilir
▁gezegenlerin
▁kaynaklanıyor
▁düşündüğümüzde
ET
PA
cik
kim
urt
üce
▁Lu
▁Pi
▁Sn
▁Uç
azor
daha
ende
seyi
▁Bri
▁Soğ
▁ikl
▁sop
oster
çının
▁100'
▁Ever
▁Jose
▁dışa
▁hani
▁kılı
▁mana
ayarak
eliler
muştum
▁Andre
▁arşiv
▁ağlar
▁başlı
▁düzin
▁evlat
▁haric
▁israf
▁kıyaf
▁rahip
▁sperm
▁taşır
Biliyor
▁Yıldız
▁adamla
▁benims
▁fabrik
▁fiyatı
▁isteği
▁oturur
▁seçkin
▁ayrılır
▁bilimci
▁ettiniz
▁filmler
▁inceler
▁işleyiş
▁kadınla
▁paylaşa
▁pencere
▁trajedi
▁çekmeye
▁çevrede
lanmasını
layacağım
tığımızda
▁aramızda
▁böcekler
▁ellerini
▁etkiledi
▁konusuna
▁kullanıp
▁vermeden
▁yaşamını
▁ağaçların
▁düşünmeyi
▁fikirlere
▁gidiyorum
▁hastalara
▁iletişimi
▁sorunlara
▁sorunumuz
▁kalitesini
▁programlar
▁söylemişti
▁yapıyordum
▁Çocukların
▁hücrelerinin
SS
Har
ego
ung
▁29
▁36
veti
çlar
▁Bon
▁Dür
▁For
▁Seb
▁hor
Nasıl
mişim
rimat
uther
▁Afro
▁Step
▁hile
▁imaj
▁traf
asında
dilmiş
usunun
▁Gates
▁Liber
▁Scott
▁amaca
▁basar
▁burun
▁dostu
▁ihmal
▁ikili
▁oksit
▁sevin
▁şapka
lanmayı
leyebil
madığım
ttığını
▁Bangla
▁acayip
▁düşmüş
▁garant
▁işimiz
▁muzdar
▁robotu
▁veriye
▁yararı
▁yazıcı
▁ölecek
▁üretic
▁geçtiği
▁görülür
▁güneşin
▁kimseye
▁sekilde
▁solucan
▁uğraşan
▁yöneten
▁yırtıcı
▁öğrenim
lamıyorum
▁Erkekler
▁Yaratıcı
▁bahsetti
▁elinizde
▁gittiler
▁kaliteli
▁katılmak
▁nesneler
▁adaletsiz
▁biliniyor
▁böylesine
▁büyüklüğü
▁cihazları
▁düşünürüz
▁gösterdik
▁kişilerle
▁sağlamaya
▁yolsuzluk
▁çıkabilir
▁yarısından
▁yetiştirmek
▁insanlarının
ee
bre
ers
fır
hoş
nie
oth
▁II
▁700
▁Com
▁Dağ
▁Wil
▁Win
▁lek
▁ret
▁sün
▁ufa
▁Şah
iddet
senin
ğinin
▁Yedi
▁bela
▁farz
▁fren
▁satr
▁İler
eyefen
ilerek
▁Kolay
▁adres
▁gelme
▁katil
▁keder
▁muyuz
▁olsak
▁çamur
▁Bahset
▁aktarı
▁geliri
▁hoşuma
▁hızını
▁istila
▁olanın
▁tuttuğ
ilerimiz
▁Herkese
▁alanını
▁almadan
▁alırlar
▁biyolog
▁döngüsü
▁hayalet
▁katılan
▁koordin
▁niyetli
▁noktayı
▁çevreyi
editasyon
▁Kendiler
▁balıklar
▁beyniniz
▁diktatör
▁kaldırın
▁kalmıştı
▁keşfetti
▁kuyruklu
▁maddeler
▁olsaydım
▁zihniyet
▁Üçüncüsü
▁çocukluğ
▁ışıkları
▁şekliyle
▁göründüğü
▁kararları
▁üstündeki
▁becerileri
▁moleküller
▁olmaksızın
▁tecrübeler
▁çalışanlar
▁ülkelerden
▁alanlarında
▁bilmiyorduk
▁parçacıklar
▁iyileştirmek
▁fotoğraflarını
LA
▁Bi
▁Gu
daşı
demi
sler
ınak
▁Giz
▁Nat
▁Rio
▁Tra
▁haş
▁keç
▁tay
▁vaj
▁çet
▁üçü
tmaya
çlama
▁Bush
▁City
▁Matt
▁Tali
▁ağın
▁eşiğ
▁gali
▁kısk
▁obje
▁ünit
eksüel
etroit
sansör
▁Arist
▁Derin
▁Kongo
▁Mesel
▁bitiş
▁esrar
▁istif
▁izini
▁kuzen
▁mütev
▁oynat
▁süpür
▁yüklü
▁Çoğun
▁çekin
▁Arapça
▁Beynin
▁anımsa
▁canına
▁füzyon
▁genler
▁gündüz
▁işlevi
▁karide
▁kağıdı
▁kestir
▁samimi
▁saygın
▁sevdik
▁sınıfı
▁Düşünün
▁Hepiniz
▁buzdola
▁estetik
▁gelerek
▁gelişti
▁götürür
▁gününde
▁incelen
▁isteriz
▁kamusal
▁mutlaka
▁saatler
▁sipariş
▁tutmaya
▁yılları
dığınızda
lanıyordu
meyeceğim
tiğimizde
tırabilir
▁anlaşmaz
▁dersleri
▁kalmayıp
▁modelini
▁spesifik
▁tansiyon
▁temizlik
▁edeceğini
▁gecekondu
▁uygulamak
▁yayınladı
▁yaşıyordu
ebiliyorlar
▁cezalandır
▁itibariyle
▁olabilirim
▁olmalarına
▁sevdiğiniz
▁sorunlarla
▁verilerini
▁bağlantılar
▁bulabiliriz
▁erkeklerden
▁kullanırlar
▁yapmalarını
▁yöneticiler
▁konuştuğumuz
▁mühendisliği
▁yaptığımızda
▁olabileceğine
ena
yaz
ânı
▁Sk
burg
▁800
▁Cor
▁Kuş
▁May
▁Pap
▁Şef
babam
usuna
ville
örfez
üşvet
▁alım
▁atıp
▁ihra
▁Model
▁bitti
▁diken
▁düğüm
▁enter
▁ilave
▁nerde
▁panik
▁torba
▁tıkan
▁yüzen
▁çukur
▁Antark
▁Aralık
▁Enerji
▁Herşey
▁Ortaya
▁dilini
▁duvarı
▁düzine
▁hacker
▁kalori
▁okuyor
▁sözlük
▁yanıma
▁çağdaş
▁Bunlara
▁Detroit
▁Projesi
▁dilerim
▁düzelte
▁evrimin
▁fikirde
▁hastaya
▁parazit
▁penguen
▁sinyali
▁sizleri
▁şunları
▁Normalde
▁aklınıza
▁birisini
▁merkezli
▁rakamlar
▁sorulara
▁üretmeye
▁şansımız
▁hepinizin
▁ayrımcılık
▁edebilirim
▁gördüğünde
▁görüyorlar
▁hatırlamak
▁istenmeyen
▁makineleri
▁seviyesine
▁alıyorsunuz
▁konuşuyorum
▁halüsinasyon
▁hayatlarında
▁tasarımcılar
leyebilirsiniz
▁sorabilirsiniz
25
ök
Tez
bra
İyi
▁Ac
▁Du
▁Ho
alır
amış
ston
▁Boy
▁Evr
▁Pal
▁alb
▁fes
▁huy
▁Çöz
dildi
maşık
ogram
ridge
sizin
takım
▁fena
▁tezg
▁yelp
▁zira
▁şişe
törler
▁2015'
▁Burda
▁Sabah
▁Yaşlı
▁barda
▁cadde
▁cunku
▁deriz
▁eklen
▁işsiz
▁kalça
▁sözde
▁yürür
▁yılım
▁çöküş
▁ışığa
leşiyor
malılar
olojiyi
ımızdan
▁Birçoğ
▁Dürüst
▁Körfez
▁aklına
▁bağlar
▁gecede
▁geleni
▁halini
▁hatıra
▁işinde
▁kozmik
▁lideri
▁sevdim
▁şahane
isyenler
lıkların
▁100.000
▁Başkanı
▁esinlen
▁misafir
▁projede
▁virüsün
▁çıkarım
▁üstelik
▁beynimiz
▁bilmeden
▁denemeye
▁insansız
▁oynamaya
▁renkleri
▁sezgisel
▁sınırsız
lıyorsunuz
▁durumları
▁düşünecek
▁emeklilik
▁güzelliği
▁hayattaki
▁kavramsal
▁tamamiyle
▁vericiydi
▁yaramıyor
▁yoğunluğu
▁zamanları
▁önemliydi
▁adaptasyon
▁beynimizin
▁deneyimler
▁gereklidir
▁isimlendir
▁istiyorsun
▁kullanabil
▁robotların
▁zorundadır
▁davranışsal
▁diyebilirim
▁düşündüğünü
▁görevlendir
▁kullanılmış
▁malzemeleri
▁sistemlerin
▁telefonları
▁hikayelerini
▁kaynaklarını
▁hissediyordum
▁DH
▁Op
▁gı
▁Sav
▁cev
▁fan
▁Çık
▁çif
▁özü
laşır
▁Günü
▁Mike
▁Pren
▁Wall
▁otoy
▁tipi
itaban
uantum
▁Hedge
▁Hikây
▁Sivil
▁aleti
▁ciğer
▁hassa
▁olaya
▁sizce
▁tören
▁İncil
lamıştı
tılması
▁Adalet
▁Newton
▁arılar
▁büyülü
▁doğaya
▁doğdum
▁haksız
▁hallet
▁izleyi
▁parası
▁servet
▁seçtim
▁tropik
▁vardık
▁zahmet
▁çelişk
▁anneler
▁getirme
▁olurken
▁salgını
▁sektörü
▁zekânın
▁öğleden
layacağız
▁Etiyopya
▁Karanlık
▁belgesel
▁birisine
▁doğuştan
▁duydunuz
▁gelirler
▁ilişkiyi
▁kanıtlar
▁karışımı
▁mesajlar
▁muhafaza
▁muzdarip
▁sayılmaz
▁tarayıcı
▁tarihini
▁yayılmış
▁Bangladeş
▁Olimpiyat
▁bağlanmış
▁devletler
▁değerinde
▁gidiyordu
▁interneti
▁kendinden
▁olabilmek
▁ortamında
▁sağlığını
▁tezahürat
▁veritaban
▁yapıldığı
mayacağımız
▁gittiğinde
▁harcıyoruz
▁helikopter
▁politikacı
▁sahipsiniz
▁deneyimleri
▁düşünmüştüm
▁etkileyecek
▁halihazırda
▁oluşturacak
▁etkilediğini
▁çalıştıkları
▁Araştırmacılar
▁bilgisayarların
çü
Ger
bai
lyn
mon
uck
uri
▁Of
▁kg
▁öp
apur
atın
ecik
ower
roid
uysa
ıkna
ınıf
ısıl
▁Arj
▁Hip
▁bık
▁dop
▁döl
▁muy
▁Çek
cağın
freda
istir
memin
sedür
uanda
ünüze
▁Doug
▁Olan
▁Part
▁Umut
▁bası
▁içme
▁kaça
▁şarj
lamalı
▁Ekran
▁acıyı
▁evvel
▁inanc
▁kaçış
▁sürün
▁tahıl
▁tuttu
▁Akadem
▁benliğ
▁donmuş
▁düzeni
▁girmiş
▁senede
▁simetr
▁şizofr
▁biriyim
▁dizüstü
▁dönecek
▁enjekte
▁eğilimi
▁görüldü
▁koyarak
▁mahkeme
▁meyilli
▁müfreda
▁parçayı
▁taraflı
▁uğramış
▁verinin
▁ölümüne
▁başarıya
▁dediğini
▁inceleme
▁iyileşme
▁kitlesel
▁kolektif
▁nöronlar
▁sınırlar
▁umuyoruz
▁erkekleri
▁hakikaten
▁harikaydı
▁hükümetin
▁okullarda
▁sinyaller
▁stratejik
▁tehlikeye
▁varlıklar
▁yöntemler
▁zenginlik
▁ürünlerin
▁Antarktika
▁Kadınların
▁dikkatlice
▁duydukları
▁kapitalizm
▁sağlayarak
▁sevdiğimiz
ebilecekleri
▁doktorların
▁konuşmasını
▁kullanımını
▁söylediğini
▁toplumların
▁bağlantıları
▁üniversitede
▁olmadıklarını
En
Ya
cal
sol
▁Üz
..."
amuk
ward
▁nez
▁niş
▁vat
▁zır
sizce
▁Leon
▁Maha
▁arın
▁nesl
▁otuz
▁oğul
▁ısır
araton
caklar
ecilik
esiniz
larsak
luğuna
lüzyon
syonel
▁Derek
▁Kızıl
▁Sahip
▁derim
▁fanta
▁mühim
▁Çinli
▁ölmek
olojisi
▁Arjant
▁Kardeş
▁Ruanda
▁ağacın
▁bakımı
▁defter
▁derdim
▁dinler
▁esnada
▁eylemi
▁içecek
▁içindi
▁oturma
▁sarsın
▁vermez
bilirsek
▁Benimle
▁beyefen
▁durdura
▁duymaya
▁etmekle
▁görüşme
▁hayvanı
▁kahkaha
▁kaybede
▁patojen
▁toprağı
▁yürüyen
Tezahürat
▁Profesör
▁anlatıcı
▁belirler
▁herşeyin
▁nesiller
▁paylaşma
▁riskleri
▁soruştur
▁tüketimi
▁ulaşabil
▁şeylerde
▁böcekleri
▁bölgedeki
▁geçtiğini
▁görüldüğü
▁inceledik
▁kaldığını
▁oluşturma
▁şehirleri
▁açıklamaya
▁kaynaklara
▁nesnelerin
▁odaklanmak
▁çalışmıyor
bileceğinden
▁Bazılarınız
▁sağlıyorlar
▁özelliklere
▁bakterilerin
▁düşünmeliyiz
▁kullanılması
▁çocuklarımızın
CA
,''
all
div
dön
eld
igh
mad
ova
tiş
▁CD
▁br
olan
ollo
şete
▁Bat
▁Gök
▁Mus
▁lob
▁mim
▁zul
▁Şek
aklar
lasik
ışlar
▁Kamu
▁deza
▁ilki
▁tema
▁tura
▁zarf
caktır
üyordu
ıknatı
▁Engel
▁asılı
▁boşan
▁milim
▁talih
▁çarpı
▁Meslek
▁dengel
▁dindar
▁doları
▁dönmüş
▁etmedi
▁kadarı
▁kaydır
▁kutusu
▁kıymet
▁piksel
▁tasvir
▁öngörü
tiğimizi
▁Devrimi
▁Konuşma
▁doların
▁geçerek
▁haliyle
▁olmazsa
▁renkler
▁teşhisi
▁toprağa
▁turuncu
▁yürümek
▁öldüren
▁beslemek
▁fazladır
▁gönderdi
▁hazırlık
▁inceleye
▁izlerken
▁milliyet
▁oldugunu
▁ortasına
▁sabırsız
▁toprağın
▁verirler
▁vermiyor
▁yaşamayı
▁çalışmam
▁üstünden
▁şiddetle
eticilerin
▁başarıyla
▁dedikleri
▁detayları
▁ekonomiye
▁getirerek
▁seçimleri
▁öğreniyor
▁hareketini
▁kapasitesi
▁mülteciler
▁tartışmalı
▁zorlukları
▁zorundalar
▁dikkatinizi
▁edeceksiniz
▁kadınlardan
▁karakterler
▁kaynaklanan
▁çocuklardan
▁biliyorlardı
▁toplulukları
asa
lop
ult
▁5.
aban
alıp
izme
tive
ünce
▁FBI
▁Fır
▁Mad
▁Pay
▁Ted
▁Yiy
▁dör
▁eli
▁güz
▁yır
büyük
ceğin
ediği
inson
çünkü
▁Ateş
▁Hawa
▁Mayı
▁atın
▁flor
▁klav
▁klip
▁norm
▁reng
▁yakı
▁yaşı
▁yeme
lamada
ülecek
▁Cevab
▁Nehri
▁Saman
▁altta
▁fırın
▁hamur
▁kabar
▁midir
▁selam
▁sezon
▁statü
laşmaya
ledikçe
muyorum
▁10,000
▁açacak
▁filmde
▁iyiler
▁kafata
▁piyano
▁teorik
▁tişört
liyorlar
▁Kendini
▁bulmaca
▁bölgeyi
▁dolaşım
▁duyacak
▁havanın
▁isterse
▁izledim
▁parayla
▁tutarak
▁şartlar
▁Hastalık
▁doğrultu
▁durmadan
▁okyanusa
▁yapmakla
▁çizgiler
▁Fransızca
▁buradayız
▁hapishane
▁hücrelere
▁sayısının
▁temelinde
▁alanlarını
▁dezavantaj
▁düzenlemek
▁görülmemiş
▁karşılamak
▁olanlardan
▁olduğumdan
▁sorarsanız
▁yaşadığını
▁göreceğiniz
▁kullandılar
▁algoritmalar
▁demokrasinin
▁düşünürsünüz
▁göremezsiniz
▁insanoğlunun
▁söylemiyorum
ahi
ars
bay
ike
tro
uka
stur
▁190
▁Air
▁Lak
▁Mez
▁Nep
▁Suç
▁ast
▁eks
▁teb
▁tuğ
▁2008
▁Katı
▁Teda
▁erim
▁porn
▁ruhu
▁soya
ekleri
▁Brown
▁Evrim
▁Fazla
▁Kural
▁Titan
▁andır
▁betim
▁dunya
▁mekân
▁oynar
▁suyla
▁yetim
▁çizel
▁ödünç
▁İskoç
▁İçeri
muyoruz
▁Berlin
▁Kısaca
▁Mevcut
▁Petrol
▁basmak
▁demeye
▁gelene
▁masaya
▁metrek
laştırma
▁arabaya
▁bireyin
▁bırakan
▁dalgası
▁durumla
▁dönmeye
▁ettikçe
▁felsefe
▁fenomen
▁kızlara
▁metabol
▁satranç
▁sayının
▁senedir
▁seninle
dakilerin
▁Onlardan
▁aklımıza
▁amacımız
▁anlayışı
▁askerler
▁dalgalar
▁geçirdik
▁izlemeye
▁kapsayan
▁kapsıyor
▁kuşların
▁lezzetli
▁oluyorum
▁pantolon
▁toplayıp
▁Kendinizi
▁babasının
▁gerekirdi
▁içgüdüsel
▁ormanları
▁soruların
▁edildiğini
▁elimizdeki
▁fotoğrafta
▁geldiğimiz
▁gördükleri
▁hayatınızı
▁hissetmeye
▁parçasıdır
▁yapmıyoruz
▁yaratıklar
▁çevreleyen
▁başlarsınız
▁birilerinin
▁göründüğünü
▁erişilebilir
▁istediğinizi
▁zamanlarında
▁bahsettiğimiz
▁hareketlerini
▁arkadaşlarımın
ahh
pon
raz
say
tat
▁MS
▁gr
bilg
cede
oton
stat
tici
İşte
▁193
▁Etk
▁Joe
▁Sun
▁döş
▁hij
enize
kiler
leşti
▁Camb
▁Eğit
▁Jane
▁Shak
▁eksi
▁hiss
▁staj
▁çırp
etleri
lemeyi
masyon
ünüzün
▁1.000
▁2000'
▁alaka
▁biter
▁devir
▁fırça
▁fısıl
▁hanım
▁sizde
▁ucuza
▁yazın
▁çalın
▁ölçer
lemenin
mayalım
mediler
▁Akıllı
▁Yoksul
▁başken
▁eninde
▁kalkış
▁ortama
▁sinema
▁yemeğe
▁yönünü
bilirsin
▁analizi
▁beşinci
▁birkaçı
▁cerrahi
▁davrana
▁dayanır
▁dilinde
▁doktoru
▁hatalar
▁hevesli
▁hikayem
▁müdahal
▁sürecek
▁tutacak
bileceğin
▁Arjantin
▁Fiziksel
▁Sıradaki
▁ağırlığı
▁bölgesel
▁etmektir
▁evlerine
▁eşitliği
▁numarası
▁prosedür
▁temelini
▁ürettiği
▁Diğerleri
▁Unutmayın
▁araçların
▁belirtmek
▁binaların
▁birimizin
▁grupların
▁götürecek
▁konuşmacı
▁psikoloji
▁tepesinde
▁yapmanızı
▁yerlerini
▁bağlantıyı
▁geçirdiğim
▁interaktif
▁karanlıkta
▁olağandışı
▁tanıştığım
▁yansıtıyor
▁araştırmayı
▁diğerlerini
▁düzinelerce
▁sorumluluğu
▁kullanılarak
▁bahsetmiyorum
▁değerlendirme
▁arkadaşlarının
▁sağlayabiliriz
▁hissediyorsunuz
19
aa
ıç
bor
way
▁BF
▁Ph
evin
graf
ioid
raya
▁Bol
▁Cal
▁aza
▁nor
leşen
▁Aile
▁Ayak
▁Rock
▁Sayı
▁alem
▁antr
▁neşe
▁pank
▁öğüt
amanla
ceğine
▁Deney
▁Green
▁Orman
▁World
▁cehen
▁domat
▁edine
▁günah
▁içini
▁levha
▁mıyım
▁reçet
▁telif
▁yatay
bildiği
▁Geriye
▁inancı
▁kaçmak
▁manşet
▁okuyan
▁rüşvet
▁sayıyı
▁sözler
▁sözünü
▁teması
▁vasıta
▁volkan
▁yarasa
▁büyümüş
▁bırakın
▁eklemek
▁eğitmek
▁görelim
▁gözüken
▁gücümüz
▁hissini
▁okumayı
▁sembolü
▁yapının
▁örnekte
▁Bilimsel
▁bayanlar
▁cihazlar
▁fotograf
▁harcadım
▁kaldırıp
▁nelerdir
▁sessizce
▁Özgürlük
▁çalışanı
▁çalışmış
elerindeki
▁anlattığı
▁arabaları
▁edecekler
▁gökyüzüne
▁gösterdim
▁haricinde
▁kaybettik
▁taraftaki
▁yakalanma
▁bakıyorlar
▁hikâyesini
▁meditasyon
▁sonlarında
▁yaradığını
▁Nihayetinde
▁bilgilerini
▁bulunduğunu
▁konuşuyoruz
▁kurallarını
▁olduğunuzda
▁edebiliyoruz
▁hikâyelerini
El
ii
ja
dor
eck
kuş
sor
▁Ri
Bana
zbol
ğust
ıltı
▁Kir
▁Pop
▁hom
▁laf
▁süs
ishan
paçık
▁Etik
▁Medi
▁eyal
▁görk
▁hoca
▁koşu
▁prog
▁sese
Gerçek
duğuna
eğiyle
işleri
tistik
tiğimi
ülmesi
▁2007'
▁2012'
▁Medya
▁Motor
▁anten
▁balta
▁ekler
▁empat
▁fiber
▁mutfa
▁mıdır
▁sonda
▁Daniel
▁Davran
▁Kongre
▁Müzesi
▁Müşter
▁altını
▁eleman
▁gömülü
▁müdürü
▁primat
▁sansür
▁uzayın
▁yelpaz
mezsiniz
muyorlar
▁bitiyor
▁bulunma
▁doluydu
▁elimden
▁götüren
▁günleri
▁nelerin
▁oturdum
▁patates
▁soruyla
▁uzunluk
▁verilir
▁yolunun
▁zavallı
▁İsviçre
▁Dördüncü
▁algılama
▁almaları
▁beklenen
▁bilmeniz
▁probleme
▁topladık
larınızdan
▁Biliyoruz
▁anlaşılır
▁başlarlar
▁enteresan
▁karakteri
▁mikroplar
▁baktığınız
▁hazırlamak
▁hükümetler
▁keşfetmeye
▁proteinler
▁öğrencinin
▁araştırması
▁ediyorlardı
▁internetten
▁karmaşıklık
▁sebeplerden
▁gösterebilir
▁öğreniyorlar
▁geldiklerinde
ast
con
eng
hie
oga
önt
şif
▁Ep
▁Hy
▁Ke
▁MT
▁Ti
▁kü
Daha
ciyi
enti
lans
okim
tüye
▁Cep
▁LED
▁Red
▁yin
▁zem
kırım
laştı
leket
tünün
▁2009
▁2015
▁Eric
▁Gana
▁acel
▁akan
▁kuşa
▁once
▁sara
▁tepe
▁2009'
▁Acaba
▁Kabul
▁Kolom
▁Makin
▁Mayıs
▁Okulu
▁açtım
▁bahçe
▁biziz
▁buzun
▁damga
▁deyim
▁dışkı
▁ertel
▁evler
▁felci
▁formu
▁garaj
▁hekim
▁iplik
▁koyan
▁mütte
▁seksi
▁Disney
▁Mesele
▁Temmuz
▁açılış
▁etrafa
▁fakült
▁hedefe
▁otonom
▁ritüel
▁sözleş
▁ufacık
▁uyanık
▁yarıya
▁yelken
▁çalmak
▁çeyrek
▁örüntü
emiyoruz
▁Onlarla
▁annenin
▁birebir
▁birlikt
▁coğrafi
▁diyabet
▁fizikçi
▁geçirir
▁olmamış
▁soldaki
▁sızıntı
▁ışıklar
▁alışılma
▁arttıkça
▁başımıza
▁filmleri
▁illüzyon
▁kapatmak
▁oynarken
▁toplamda
▁verilmiş
▁çıktılar
▁şimdilik
▁edilmişti
▁kavramını
▁kurallara
▁saatlerce
▁sürecinin
▁vücudunun
▁Şaşırtıcı
▁fırsatları
▁getirdiler
▁sektöründe
▁sokaklarda
▁şirketlere
▁muhafazakar
▁yaratıyoruz
▁geldiğimizde
▁araştırmaları
▁etrafımızdaki
▁yeteneklerini
BM
EC
İD
Mer
leğ
oto
tah
tic
üse
dini
▁1.5
▁Aşk
▁Ces
▁Say
▁Tep
▁hus
▁yab
Büyük
etbol
▁Amaç
▁Nick
▁bank
▁giys
▁halı
▁onca
▁seti
▁site
▁uzuv
▁Şuna
dayken
landık
mazsak
seydim
▁Altın
▁Ağust
▁Black
▁Korku
▁Silah
▁Sokak
▁boğuş
▁hasat
▁irade
▁kalbi
▁karan
▁köyde
▁nakit
▁propa
▁tutup
▁yürek
▁çözme
diyoruz
ikasyon
ıknatıs
▁Bakter
▁Diğeri
▁binayı
▁dansçı
▁ederse
▁etkiye
▁formül
▁güçlük
▁kapıyı
▁nesnel
▁otoyol
▁sıraya
▁varmak
▁çıkart
▁ırksal
▁Şiddet
ilerinde
▁azınlık
▁bulduğu
▁bulmayı
▁filmini
▁geçmeye
▁içindir
▁koruyan
▁kurbağa
▁mobilya
▁ulaştık
▁verelim
▁yaparım
▁yeraltı
▁çalışın
▁öğretir
▁Yaptığım
▁Yüzlerce
▁artırmak
▁dünyayla
▁eşleştir
▁hedefler
▁hemfikir
▁kalanlar
▁kalanını
▁koydular
▁sağladık
▁taşıyıcı
▁transfer
▁verirken
▁yazılımı
▁engelleri
▁hissettik
▁isteyecek
▁kalabilir
▁kayıtları
▁tanıdığım
▁tartışmak
▁yaralanma
▁yüzeyinde
▁çoğumuzun
▁Geçenlerde
▁beyninizin
▁enerjisini
▁görünmeyen
▁sevdikleri
▁seyirciler
▁Milyonlarca
▁arkadaşımla
▁ettiğimizde
▁ilgileniyor
▁programlama
▁tartışmalar
▁hissediyoruz
▁olduklarında
▁paylaşacağım
▁gezegenimizin
▁görebiliyorum
11
BA
Baş
Hiç
Vay
dus
gas
git
miy
own
tap
▁My
▁Os
imet
kini
kron
lisi
ülür
▁Ala
▁Boş
▁Gec
▁RNA
▁Ray
▁Tat
▁Tip
▁Yağ
▁sad
▁sof
canın
▁Brun
▁embr
▁melo
▁otop
▁payı
▁ster
▁Şili
dükten
▁Aşırı
▁Saray
▁Soğuk
▁boğaz
▁bütçe
▁filme
▁harik
▁incit
▁katlı
▁kuyru
▁paraş
▁yıkım
▁ötesi
▁İleri
▁Göster
▁Sierra
▁Yüzyıl
▁arayıp
▁bildik
▁sunucu
▁yazmış
ilmesini
maktansa
▁Stephen
▁elveriş
▁ifadesi
▁seyirci
▁önemsem
▁öğrendi
ladığında
lamayacak
▁Kısacası
▁ayrıştır
▁birtakım
▁dönersek
▁herhalde
▁kalkınma
▁personel
▁sonucuna
▁tükenmiş
▁vermişti
▁yazarken
▁yazdığım
▁anlayabil
▁başkanlık
▁bilgilere
▁büyüdükçe
▁doğaçlama
▁farklıydı
▁gördüğünü
▁konuşmamı
▁maddeleri
▁olduğuyla
▁topluluğa
▁veriliyor
▁yayılması
▁çözümleri
▁çıkardığı
▁bugünlerde
▁dalgalanma
▁göstergesi
▁kontrolünü
▁seçenekler
▁bayılıyorum
▁düşünebilir
▁sınırlarını
▁yaşımdayken
▁parçacıkları
▁politikaları
▁çalışıyorduk
▁olduklarından
▁politikacılar
▁çalışmalarını
▁öğrenebiliriz
▁yapabileceğini
On
au
çu
lej
nan
uzu
çıl
üla
▁48
gası
önül
▁Ark
▁Sak
▁duş
▁hel
▁yuk
▁Şüp
attle
larin
▁Renk
▁arac
▁bağı
▁kata
▁pusu
▁rady
▁spek
▁stok
▁takv
▁Şiir
duktan
imadam
lenmek
onları
osferi
▁Hafta
▁Mikro
▁Nefes
▁bazlı
▁bilet
▁nöbet
▁patla
▁pound
▁pürüz
▁ritim
▁sığır
▁tutma
▁uygul
▁yüküm
▁öteye
lıların
masında
▁Aksine
▁Arthur
▁amacım
▁hergün
▁indirg
▁kilise
▁vücuda
▁çarpan
▁şişman
ikipedia
▁Kuantum
▁Oradaki
▁etmeyen
▁geçmesi
▁gitmeyi
▁gücüyle
▁hemşire
▁kazanır
▁koymaya
▁kökenli
▁müzikal
▁niteliğ
▁reaktör
▁savaşan
▁soracak
▁tabanlı
▁takılıp
▁tekniği
▁yayılma
▁öğrenir
▁üzgünüm
▁Mühendis
▁Singapur
▁alıyordu
▁bambaşka
▁bulmamız
▁büyümeyi
▁değersiz
▁harcıyor
▁kadından
▁okuduğum
▁uzmanlar
▁uzmanlık
▁çoğunluk
▁öğrenmiş
▁Doktorlar
▁adamların
▁anlatacak
▁bakılırsa
▁başlatmak
▁deneyelim
▁geliyorum
▁gercekten
▁otururken
▁sahipliği
dürülebilir
ladığımızda
▁anlarsınız
▁arkasından
▁diyorsunuz
▁giderseniz
▁hayırsever
▁kalmayacak
▁vermeliyiz
▁kullandığım
▁olmadıkları
▁düşündükleri
▁çocuklarımız
▁düşüncelerini
▁yapacaklarını
▁öğretmenlerin
▁değişikliğinin
BT
Ve
zu
gra
kaz
mda
ots
sha
▁SS
Yani
bini
dört
epsi
laşa
mail
masi
phia
uyun
üzün
▁Amy
▁Has
▁Nüf
▁Saç
▁Tük
▁Vik
▁ayn
▁inf
▁üye
barat
giliz
liyim
▁Bina
▁Hücr
▁Kong
▁Tony
▁Uzak
▁asır
▁ikti
▁stil
▁sörf
ektüel
ülemez
▁Ciddi
▁Kazan
▁Polis
▁ateşi
▁batak
▁darbe
▁dinam
▁dinin
▁kasır
▁kesip
▁oynan
▁oğlan
▁sinap
▁soluk
▁sorul
▁çalan
▁Şubat
▁şunun
emediği
izasyon
malısın
▁anonim
▁antrop
▁ayrımı
▁etmeli
▁fırtın
▁itiraz
▁komedi
▁lisede
▁ödemek
abilirim
▁Hepsini
▁Kendime
▁asansör
▁azaltma
▁deliğin
▁kaydede
▁kimseyi
▁kutunun
▁mineral
▁tapınak
▁verebil
▁yayılır
▁çözümün
▁şansını
Amerikalı
labilecek
▁Görünüşe
▁Hapishan
▁Politika
▁büyümesi
▁doğrusal
▁gündelik
▁havaalan
▁hisseden
▁müttefik
▁olduktan
▁reddedil
▁tekerlek
▁yerlerin
▁yönetmek
▁yükseldi
▁Çocukken
▁Şehirler
biliyordum
▁Cambridge
▁ayrıntılı
▁bilimadam
▁bitkileri
▁derecelik
▁duygusunu
▁hayatınız
▁içlerinde
▁kaybettim
▁kırıklığı
▁nedenleri
▁robotları
▁sahipleri
▁söylerken
▁yollardan
▁zorlayıcı
▁alabiliriz
▁bilgilerin
▁etmelerini
▁koşullarda
▁seviyesini
▁demokrasiyi
▁kelimesinin
▁olduklarına
▁sorunlarını
▁yapacağınız
▁anlayabilmek
▁birbirimizle
▁dinleyiciler
▁teknolojisini
▁söyleyebiliriz
hop
kon
ure
usa
üsk
▁SM
▁Çö
Seni
espe
ibya
kada
osen
süne
unma
▁Big
▁Sha
▁Sig
▁Soy
▁Tok
▁hic
▁mod
▁Çiz
dison
ichel
sinda
▁Masa
▁akar
▁burs
▁itfa
▁odun
mazdım
▁Görev
▁alarm
▁basıl
▁büyür
▁daral
▁gelse
▁kardi
▁keşfi
▁koyma
▁pamuk
▁plast
▁öncek
▁önder
atandaş
espeare
iyseniz
tiğimde
▁Apollo
▁Meydan
▁dörtte
▁editör
▁izledi
▁neleri
▁sarhoş
▁ulaşır
▁Atlanta
▁Ağustos
▁Basitçe
▁Seattle
▁Yeniden
▁anlatım
▁anormal
▁asistan
▁dinazor
▁gelmedi
▁güzeldi
▁kuruyor
▁maddeyi
▁masanın
▁parçacı
▁sanatın
▁yapmadı
▁yasalar
▁ölümsüz
▁eğilimli
▁genlerin
▁gerçeğin
▁hayalini
▁hayattan
▁hiyerarş
▁olsaydık
▁sıfırdan
▁yakalaya
▁yaptığın
▁yapışkan
▁yöntemle
▁zararsız
bilecekler
oteknoloji
▁Wikipedia
▁alırsanız
▁annesinin
▁boyutunda
▁buluyoruz
▁diyeceğim
▁gelişiyor
▁kontrollü
▁kurumları
▁mantıksız
▁patlaması
▁süpermark
▁yaptığına
▁şeklimizi
▁değilseniz
▁değişimler
▁gelişimini
▁kalıyorlar
▁konuşmadan
▁süreliğine
▁türlerinin
▁yayınlandı
▁hatırlatmak
▁ilgilenmeye
▁nedenlerden
▁performansı
▁vatandaşlar
▁zorundaydık
▁heyecanlıyım
▁yapacağımızı
▁yapıyorlardı
▁karşılaştığım
bot
arth
ilar
kins
ogen
post
rick
ülte
▁Hes
▁How
▁Kem
▁cüz
▁fok
▁ita
▁mün
▁pak
▁sic
halet
oskop
ötesi
üskür
▁Adım
▁Ford
▁Utan
▁sevk
▁yağı
eğiniz
iciler
muştur
resyon
▁Brian
▁Sınıf
▁Vakfı
▁Vücut
▁dergi
▁katal
▁kopar
▁kılar
▁manev
▁moral
▁sıkça
▁tütün
▁vefat
▁İkisi
bilirdi
lumbağa
meliler
▁Bilinç
▁Edward
▁Ertesi
▁Karbon
▁Sanayi
▁Yorker
▁apaçık
▁belgel
▁dahası
▁dokuna
▁evleri
▁mevsim
▁muhase
▁püskür
▁yorucu
▁çıldır
Amerikan
binlerce
ilmesine
lanırlar
saydınız
▁Taliban
▁bulanık
▁demekti
▁dolaşan
▁gençlik
▁hücreye
▁onlarda
▁randevu
▁rengini
▁sevgili
▁tahmini
▁çekerek
▁çektiği
▁çevrili
▁çıkıntı
▁Bayanlar
▁Christop
▁gösteriş
▁içimizde
▁reseptör
eceklerini
▁bulunması
▁günümüzün
▁gürültülü
▁hayranlık
▁herkesten
▁kültürler
▁kısıtlama
▁olmamıştı
▁pişmanlık
▁rehberlik
▁silahları
▁sorgulama
▁sıralarda
▁yayılıyor
▁yazıyordu
▁yüzyıllar
▁öncelikli
▁şeffaflık
▁baktığımız
▁bağlamında
▁bebeklerin
▁büyümesini
▁değiştirip
▁düşünürdüm
▁gönderiyor
▁hayvanlara
▁memnuniyet
▁tasarlandı
▁verimlilik
▁zorundaydı
▁öncesinden
▁öğretmenin
▁ayrıcalıklı
▁edemezsiniz
▁kimyasallar
▁arkadaşlarına
▁farklılıkları
▁arkadaşlarımla
"'
IS
fe
Yap
bus
▁33
▁Aç
▁TK
▁We
adel
bayı
dela
leki
sili
vana
▁Blu
▁Göç
▁Kel
▁Men
▁Moz
▁işg
▁mat
▁mus
▁reg
▁tik
ektör
emeyi
esans
logan
siydi
tları
ümden
▁2050
▁Gore
▁Tanz
▁Test
▁andı
▁daya
▁dörd
▁gene
▁icra
▁karı
▁kime
▁lens
▁suçu
▁çala
Burada
egelen
elanda
estezi
▁Colum
▁Parça
▁Roman
▁gümüş
▁hattı
▁idrar
▁içmek
▁komut
▁kuran
▁köklü
▁nazar
▁plana
▁tabir
▁tavır
▁tuğla
▁şekle
mamıştı
▁Koruma
▁ailede
▁alıkoy
▁bebeği
▁doğayı
▁evrimi
▁gayret
▁kendin
▁onemli
▁ormanı
▁oyunda
▁sonbah
▁yabani
▁yansıt
▁yaptın
▁yumruk
▁ülkesi
▁üretme
▁aklımda
▁aksiyon
▁benimse
▁domates
▁duyguyu
▁duyusal
▁işlerde
▁kişiliğ
▁medikal
▁muhabir
▁senkron
▁türünün
▁Önceden
▁çocuğum
▁öğrenen
▁şarkıcı
biliyordu
larınızda
▁Brooklyn
▁Karmaşık
▁alandaki
▁apartman
▁becerisi
▁birazdan
▁bitkinin
▁dinleyen
▁endişeli
▁isimleri
▁memleket
▁otoriter
▁tarafsız
▁yaşlanma
▁yılların
▁çarpışma
▁öldürücü
▁önündeki
▁İnsanlık
▁arttırmak
▁bildiğini
▁bırakacak
▁bırakarak
▁durumlara
▁düşününce
▁görevlisi
▁güçlerini
▁istediğin
▁okyanusta
▁platformu
▁sıcaklığı
▁Bugünlerde
▁belirtiler
▁döndüğümde
▁düşünürler
▁etkileşimi
▁göstererek
▁nitelendir
▁problemini
▁soruyorlar
▁toplumdaki
▁yenilikler
▁yükseliyor
▁Çoğunlukla
▁arkadaşımın
▁bulunabilir
▁edebilirler
▁meslektaşım
▁resimlerini
▁zamankinden
▁adlandırılır
▁istediğimizi
▁içerisindeki
▁kastediyorum
▁yaptığınızda
▁yerleştirdik
▁yapabileceğim
▁yaratabiliriz
▁çocuklarımıza
▁oluşturuyorlar
99
?'
ER
dom
ect
het
ida
lup
ned
slü
umi
üşü
ŞİD
şap
▁31
▁42
▁To
bedi
ezya
kine
mine
ttaş
ulup
ışın
▁1,5
▁Dün
▁Ker
▁Köy
▁Ruh
▁Sat
▁Teh
▁bag
▁eti
▁nef
▁sül
bakan
burgh
ilmez
teyiz
tival
▁Kafa
▁Teor
▁Whit
▁ağzı
▁imha
▁kost
▁müze
▁sade
▁tsun
▁veda
▁çare
▁ömrü
▁Şika
bildik
emedim
onomik
▁2010'
▁Hızlı
▁Kamer
▁Kurum
▁Lagos
▁Yemen
▁biyol
▁dedek
▁dener
▁derse
▁elden
▁filan
▁korum
▁mantı
▁sağda
▁yüzyı
▁Çeşit
▁Çince
▁şükür
emezler
liğimiz
melisin
▁Hintli
▁Siyahi
▁aracın
▁açılan
▁güçler
▁işitme
▁kaynaş
▁manevi
▁okumuş
▁peynir
▁senary
▁talebi
▁uğruna
▁çizmek
lıyordum
seydiniz
tıyorlar
▁Birinin
▁adımlar
▁almamız
▁aylarca
▁başlığı
▁birbiri
▁dengeli
▁duvarın
▁fikirle
▁ilerler
▁olmakta
▁olursam
▁ormanın
▁sayfası
▁videoda
laştırmak
mediğimiz
▁National
▁esasında
▁etmiştim
▁görmemiş
▁hataları
▁hoşlanma
▁protokol
▁sorununu
▁ulaşacak
▁yasadışı
▁şeklimiz
▁ayrıcalık
▁bölgesine
▁değişmesi
▁evlerinde
▁hepsinden
▁inceleyen
▁karşımıza
▁makinenin
▁mutluluğu
▁nörolojik
▁odaklanma
▁organları
▁yapmıştım
▁yaptıktan
▁yerlerine
▁bahsedeyim
▁düşünmenin
▁gökyüzünde
▁keşfediyor
▁kurumların
▁merkezleri
▁politikası
▁propaganda
▁tanımlıyor
▁yeteneğine
▁duygularını
▁hayatınızın
▁kendisinden
▁tarihindeki
▁tüketiciler
▁vasıtasıyla
▁yerlerinden
▁düşünüyorsun
▁problemlerin
▁yapılacağını
▁değiştirilmiş
▁hissedersiniz
▁bakabilirsiniz
▁birbirlerinden
70
ps
cam
cıl
rit
via
şek
▁3,
▁Bl
▁Cy
▁cı
buki
duru
osin
stir
üyüm
ıtma
▁Cas
▁Gan
▁gey
lular
tecek
ustin
uydum
▁Endü
▁Otur
▁Spor
▁amin
▁dert
▁insa
▁ipek
▁meca
▁rahi
▁2.000
▁Bağım
▁Dokuz
▁Sıcak
▁borsa
▁bürün
▁denek
▁heter
▁katli
▁kopuk
▁kâğıt
▁meşru
▁okudu
▁sadık
▁yedek
▁yemin
▁yerle
▁yiyor
▁çağda
cağının
ıyorduk
▁Telesk
▁akbaba
▁açıldı
▁hırsız
▁ikimiz
▁kalktı
▁kimler
▁kökten
▁köşede
▁mahrem
▁tanrım
▁yaraya
▁yaymak
▁yazısı
ebilirdi
▁Hükümet
▁antikor
▁direniş
▁kadarki
▁kasıtlı
▁kazanma
▁sorulan
▁tarafın
▁taşları
▁çıkarın
▁ışığını
▁Davranış
▁avantajı
▁bağlamak
▁değilsin
▁doğrudur
▁edebiyat
▁etmemizi
▁gelirsek
▁gerekmez
▁görmenin
▁gülümsem
▁kadarını
▁kitabını
▁molekülü
▁sebebini
▁yakınlaş
▁yaşlarda
▁bağdaştır
▁beyinleri
▁ettiğimde
▁görevleri
▁istemedim
▁uzaklıkta
▁girdiğinde
▁koyarsanız
▁teknikleri
▁yapacağımı
▁Shakespeare
▁anlaşılması
▁bahsederken
▁dikkatimizi
▁gösterdiler
▁hayatınızda
▁izleyiciler
▁kuruluşları
▁matematiğin
▁gittiğinizde
▁sistemimizin
▁yapamazsınız
▁oluşturabilir
▁yapabiliyoruz
▁bilgisayarları
▁düşündüklerini
▁kullanıldığını
---
Doğ
Gel
bek
cus
mit
sev
edin
ence
ifor
tiğe
yazı
▁18.
▁180
▁Fri
▁Hoş
▁Rüz
▁fev
▁izn
▁pig
▁pul
▁sis
▁Çağ
▁çiç
günüm
ilmek
onsor
yınca
Çocuk
Şimdi
▁Nair
▁gram
▁habi
▁Ülke
▁Birey
▁Düzen
▁Endon
▁attım
▁bahar
▁cahil
▁itaat
▁kemer
▁kesiş
▁kısır
▁muhta
▁penis
▁sattı
▁soyle
▁Çocuğ
▁üzeri
▁İşlet
dekiler
dükleri
seksüel
▁Luther
▁düzlem
▁ekrana
▁güveni
▁sabahı
▁sevgil
▁tarzda
▁timsah
▁yokken
▁çapraz
▁şansım
elerdeki
▁Dediğim
▁Genetik
▁Kariyer
▁Katolik
▁Organiz
▁alırsak
▁ayakkab
▁ayrılan
▁beyzbol
▁bırakma
▁dehşete
▁denetim
▁gökyüzü
▁hapiste
▁kaçakçı
▁koyacak
▁obezite
▁okurken
▁sorunla
▁yoludur
▁özgüven
▁Carolina
▁Elimizde
▁Philadel
▁Yetişkin
▁alacağım
▁bölünmüş
▁büyüktür
▁coğrafya
▁dikkatle
▁düşünmem
▁hakkinda
▁kaçınmak
▁keşfeder
▁kullanın
▁nesnenin
▁oynadığı
▁varlıklı
▁yürümeye
▁Yeterince
▁ameliyatı
▁fiyatları
▁şehirlere
▁Bildiğimiz
▁benziyordu
▁durumdayız
▁ellerinden
▁engelleyen
▁hassasiyet
▁istikrarlı
▁kabiliyeti
▁toplumumuz
▁İspanyolca
▁entelektüel
▁hayatımızda
▁matematikçi
▁oluşturarak
▁araştırmanın
▁bilgisayarda
▁düşündüğümde
▁gösteriyorum
▁olmadığından
▁sistemlerini
▁söylediğimde
▁yarattığımız
▁yaratıcılığı
▁getirebiliriz
)'
-3
EM
Ev
10'
Son
has
not
nün
▁AT
▁DC
▁192
▁Diz
▁Lar
▁Lüb
▁Nic
▁Nok
▁Rap
▁gun
▁pes
▁yah
elson
isten
lıyım
terek
ucusu
urlar
utube
▁Eliz
▁Evde
▁LGBT
▁ceph
▁kıza
▁rock
▁seyr
▁ufuk
▁vadi
▁İlaç
gresif
illeri
kalade
▁Banka
▁Beden
▁Bilin
▁Moore
▁Takım
▁biyom
▁cocuk
▁intik
▁kurut
▁metan
▁ogren
▁safha
▁ucuna
▁vardi
▁vuruş
▁Çevre
▁İşler
▁şişir
tıyoruz
▁Andrew
▁Yapmak
▁bedeli
▁elbise
▁gündem
▁ironik
▁kesint
▁koloni
▁opioid
▁oturdu
▁sahtek
▁sokmak
▁ulaşan
lerinize
meliydim
▁Değişik
▁Nairobi
▁adaleti
▁azaltır
▁açıklar
▁birikim
▁birşeyi
▁bürokra
▁dopamin
▁görmesi
▁hastayı
▁havadan
▁hayalim
▁izledik
▁olanağı
▁oturmuş
▁standar
▁sıralar
▁sığınma
▁yılının
▁çiftleş
▁çocukla
▁şarkıyı
lendiğini
lerinizin
▁aletleri
▁arıyoruz
▁değilmiş
▁doktorun
▁etmesine
▁gelirken
▁güvensiz
▁hikayeye
▁işlenmiş
▁mikrofon
▁mıknatıs
▁nedenden
▁silahlar
▁videolar
▁yaklaşan
▁çıkardım
▁aklınızda
▁anlamanın
▁dinlemeye
▁duruyordu
▁duvarları
▁dünyasını
▁içerisine
▁konuşarak
▁köşesinde
▁sürücüsüz
▁yatırımcı
▁yukarıdan
▁zamanımız
▁anlattığım
▁arabaların
▁bittiğinde
▁bulursunuz
▁gereksinim
▁istiyorsan
▁işaretleri
▁kişilerden
▁kullanması
▁kıyafetler
▁yayınlanan
▁yeteneğini
▁Üniversite
▁şanslıydım
▁başkalarını
▁taşınabilir
▁yaşadığınız
▁başlamalıyız
▁bulundukları
▁olmayacağını
▁başlıyorsunuz
▁yapılabilecek
▁yetişkinlerin
ain
bey
boz
boç
bun
ebe
fez
itt
naz
off
sav
urn
▁55
gili
▁Bor
▁Jac
▁Mec
▁Pol
▁Val
▁aff
▁egz
▁küf
▁mük
▁nik
▁yüc
annem
dının
layış
right
çeşit
▁Dağı
▁Hang
▁IŞİD
▁Niye
▁ekme
▁gözü
▁post
▁soğu
▁tank
▁yalı
▁yiye
▁şuan
anızın
cılığı
siklop
öntgen
▁Endiş
▁Leone
▁Neler
▁Pekin
▁Sanal
▁akran
▁basla
▁boğul
▁dansı
▁gübre
▁konus
▁kumar
▁mucit
▁nakli
▁surat
▁yanan
▁çaldı
▁şiiri
eticede
iyorsun
lendiği
▁Aristo
▁Nereye
▁Toprak
▁aktara
▁atmaya
▁ağrısı
▁kanunu
▁kutuya
▁kılmak
▁mahvet
▁memeli
▁seyaha
▁seçtik
▁tarihe
▁tepkim
▁yokmuş
▁çeşidi
▁Şikago
▁şablon
oseksüel
▁Annemin
▁Hayatın
▁Yiyecek
▁dengeyi
▁durağan
▁eşittir
▁gelirse
▁hakaret
▁işletim
▁kitapta
▁okuluna
▁oranına
▁ormanda
▁saatten
▁suçlama
▁bıraktık
▁diyagram
▁ettirmek
▁gönderir
▁güvercin
▁hatırlat
▁ilişkiye
▁mülkiyet
▁sorusunu
▁tedaviye
▁ulaşması
▁yapmıştı
▁çıkarken
▁önümüzde
▁Gelecekte
▁Hayatımın
▁anlayacak
▁bölgelere
▁büyümenin
▁elimizden
▁görüntüyü
▁hatırlaya
▁kaynağını
▁konuşacak
▁koruyacak
▁sayıların
▁süregelen
▁yakınında
▁Gülüşmeler
▁arkadaşlık
▁kemoterapi
▁müşteriler
▁olmadığımı
▁olmayanlar
▁parçaların
▁yaptığında
▁gerçekliğin
▁makinelerin
▁mekanizması
▁seçenekleri
▁verebiliriz
▁Philadelphia
▁bakıldığında
▁istiyorlardı
▁yüzyıllardır
▁parçacıkların
▁potansiyelini
▁edebileceğimiz
▁adlandırdığımız
15
sc
isa
rol
Hadi
jeni
sluk
yara
üret
▁350
▁Bet
▁Dom
▁Fer
▁Jas
▁Pra
▁Sop
▁mot
▁tüb
amızı
ginia
ildim
laşan
panya
▁2011
▁Cuma
▁Hans
▁Hong
▁Jeff
▁açma
▁darb
▁efen
▁âşık
▁İsmi
ecekti
▁Anaya
▁Anlam
▁Aynen
▁Köpek
▁Yaban
▁ahşap
▁akımı
▁baska
▁dudak
▁flört
▁güreş
▁itici
▁müzak
▁rejim
▁sabun
▁samim
▁solda
▁uçağı
▁yanda
▁yarık
▁yağma
ıyorsun
▁Howard
▁cumhur
▁gitmem
▁goster
▁hatası
▁katıla
▁koltuğ
▁nehrin
▁resmen
▁slogan
▁tavşan
▁öldüğü
duğunuzu
umartesi
▁aldatma
▁almıştı
▁açıklık
▁açısına
▁baskısı
▁cehalet
▁fedakar
▁izleyin
▁katılır
▁kimliği
▁konuştu
▁korteks
▁kısımda
▁maraton
▁tüketic
▁uyumsuz
▁yanlısı
▁çerçeve
▁şekline
ebilirsek
lanıyorum
▁Hareketi
▁alınması
▁açılıyor
▁efsanevi
▁ettikten
▁genetiği
▁halkının
▁harcanan
▁odaklana
▁sorduğum
▁toplayan
▁uğraşmak
▁yapanlar
▁yapısına
▁yararına
▁yarısına
▁yazarlar
▁yorumlar
▁öldüğünü
▁şansınız
▁bahsettim
▁benzerlik
▁birincisi
▁denizaltı
▁edecektir
▁etmeliyim
▁görüşleri
▁hiçbirşey
▁karşılaşa
▁videoları
▁yarısının
▁çıkaracak
bileceğinin
▁Bilmiyorum
▁Televizyon
▁başlayınca
▁birbirleri
▁canlandıra
▁hareketsiz
▁incelemeye
▁isimlerini
▁karıncalar
▁uygulamayı
▁çalışırlar
▁Başlangıçta
▁araştırmada
▁düşünülüyor
▁miktarlarda
▁kullandığını
▁çalışmaların
▁çevresindeki
▁derinlemesine
▁gerçekleşmesi
▁hayatlarımızı
▁Sürdürülebilir
▁arkadaşlarıyla
▁hastalıklardan
")
ew
San
Sey
kur
▁37
▁Au
▁DV
▁SP
▁ec
alar
eddü
▁FDA
▁Isa
▁Lan
▁Mem
▁STK
▁ate
▁gal
▁pas
▁piz
▁sep
banın
epler
erkel
laşım
oları
sabet
▁2014
▁Buda
▁Clin
▁Gand
▁Kapı
▁afet
▁asim
▁ayni
▁eğri
▁gübr
▁kuşk
▁okun
▁yükü
▁Üret
▁çiğn
▁şaşı
andina
ilemez
mazsın
▁2014'
▁Bruno
▁Gelin
▁Güçlü
▁Nisan
▁Sinir
▁aksan
▁akıcı
▁avuka
▁kaybo
▁yüzme
tacağım
▁Batılı
▁Cinsel
▁Somali
▁Steven
▁aileye
▁alırız
▁alışık
▁aşikar
▁destan
▁hijyen
▁hırslı
▁iltiha
▁imalat
▁imkânı
▁kabile
▁kolunu
▁montaj
▁sporcu
▁toplar
▁türünü
▁ulaşma
▁önemse
▁üzüntü
iliyordu
lendirme
leştiren
▁Tayland
▁aslinda
▁barınak
▁edenler
▁gidişat
▁güvenin
▁hücreli
▁kapılar
▁karides
▁kesişim
▁koruyor
▁kuruldu
▁kusurlu
▁muayene
▁nazaran
▁oluşumu
▁sağdaki
▁tercüme
▁yazmayı
▁yazılan
▁yönelim
emiyorlar
landırıcı
tiğinizde
▁Virginia
▁bulundum
▁bulutlar
▁böyledir
▁delikler
▁dinledim
▁haftanın
▁harcamak
▁ifadeler
▁kazandım
▁makineyi
▁mesafede
▁ortaklık
▁salgının
▁sizlerin
▁tedaviyi
▁titreşim
▁tonlarca
▁ulaşmaya
▁yılından
▁zamanını
▁şartları
▁Depresyon
▁Meslektaş
▁Parkinson
▁basketbol
▁dahilinde
▁diğerinin
▁eleştirel
▁elverişli
▁inandığım
▁insanlığı
▁insanoğlu
▁konuşabil
▁koyuyoruz
▁metaboliz
▁milyardan
▁söylerler
▁tanıyorum
▁tedaviler
▁teknikler
▁yapmamızı
▁yapmasına
▁çoğunuzun
▁öldürüyor
▁öğrenmeyi
▁Şirketler
▁barındıran
▁fonksiyonu
▁geçerlidir
▁ilerlemeye
▁kitapların
▁konuştuğum
▁öğrenmenin
▁üreticiler
▁bilmiyorlar
▁hastalığına
▁hayvanlarda
▁vücudumuzun
▁yaptığınızı
▁hayvanlardan
▁kullanacağım
▁olduğumuzdan
▁olmayacaktır
▁paylaştığımız
sy
fli
gia
▁Sw
Anne
hara
stil
▁Ata
▁Haw
▁Kop
▁dus
▁kek
▁kin
▁lar
▁opt
▁tac
▁tom
▁çit
Senin
ardım
eceli
eyken
iymiş
litik
luyum
muşum
ızdan
▁Dans
▁Josh
▁Ordu
▁Snow
▁Tanı
▁adan
▁eger
▁esir
▁Çarp
▁çöpe
dığına
enizin
lüğüne
menler
ımızla
▁Belir
▁Keşke
▁Kutup
▁Mesaj
▁Seçim
▁South
▁dağıt
▁dogru
▁gereç
▁işyer
▁kovan
▁kurca
▁sonun
▁tempo
▁titiz
▁tuzak
▁yiyen
▁zanne
▁çalar
▁özerk
eceğimi
lanamaz
larıydı
▁Joseph
▁Michel
▁Nelson
▁aktive
▁arkaya
▁dersin
▁dönüşü
▁düzene
▁gemisi
▁genomu
▁göreve
▁gözyaş
▁kıvrım
▁notlar
▁okulun
▁planda
▁tablet
▁terapi
▁terimi
▁toplan
▁tuttur
▁yarışı
▁yaşıma
▁yüzler
▁örtüsü
liğimizi
▁Danimar
▁Hakları
▁Youtube
▁agresif
▁avlanma
▁cevabım
▁dizilim
▁dolaşıp
▁edinmek
▁gecenin
▁konumda
▁kurulan
▁kuvveti
▁kıskanç
▁olurduk
▁sahibim
▁sorduğu
▁sıkışık
▁uzaklık
▁zamanım
bildiğini
▁Cinsiyet
▁Vatandaş
▁ailesine
▁asteroid
▁başınıza
▁bilgiyle
▁bilirsin
▁bilmemiz
▁dakikalı
▁depolama
▁doğasını
▁eserleri
▁gittiğim
▁görünüşe
▁inanmaya
▁izleyici
▁kafasını
▁miydiniz
▁olmaktır
▁olmamıza
▁olmamızı
▁sorusuna
▁söylenir
▁sıralama
▁tarafını
▁tepkiler
▁verimsiz
▁yaramadı
▁yönetici
▁ziyarete
▁öğrenimi
▁Arkadaşım
▁Kolombiya
▁alabilmek
▁anlaşıldı
▁aşağıdaki
▁bıraktığı
▁düzeyinde
▁düşünceyi
▁ihtiyacın
▁kalmasını
▁katılıyor
▁programın
▁tarihteki
▁vatandaşı
▁yakalıyor
▁Çocukları
laştırılmış
▁düşünmeden
▁kullanırız
▁kurduğumuz
▁mutluluğun
▁sağlıyoruz
▁çocuklarım
▁ürünlerini
▁getiriyoruz
▁hastalıktan
▁kaynakların
▁toplumlarda
▁yaşamlarını
▁çalışabilir
▁gösteriyordu
▁ilişkilerini
▁kullanacağız
▁televizyonda
HC
Bay
Git
Pro
boy
bul
cev
ink
ish
kay
kür
och
sus
uta
▁0.
▁Hu
▁KB
▁ök
▁İy
Beni
dına
illa
lata
reas
ukla
ümin
üsün
▁10.
▁25'
▁Arı
▁Cad
▁Gül
▁Nör
▁Pas
▁Tıb
▁goz
▁kık
▁olg
▁örg
▁şof
bildi
demli
emiği
eğimi
hayır
iydik
liydi
onica
▁Mala
▁Seks
▁Stra
▁Topl
▁adli
▁coşk
▁dükk
▁iPod
▁kozm
▁matr
▁maya
▁orig
▁reha
▁simg
▁tran
▁vita
▁zırh
▁ötek
tüğünü
üpiter
▁2005'
▁2011'
▁Duvar
▁Eğlen
▁Karar
▁Kasım
▁Kevin
▁Kimin
▁Krali
▁Sarah
▁Tesla
▁aldır
▁amino
▁hidro
▁insül
▁kabuğ
▁kafes
▁radar
▁sarsı
▁satıl
▁ördek
andinav
emezsin
laşması
liyorum
▁Kamboç
▁atılan
▁azalta
▁açtığı
▁açılır
▁böceği
▁herbir
▁icinde
▁ikilem
▁rolünü
▁strese
▁sustur
▁sıkıca
▁yolsuz
▁Mandela
▁alttaki
▁arabası
▁bayılır
▁bilgili
▁bilinci
▁dokunul
▁etmeyin
▁hayranı
▁hissine
▁ilgisiz
▁kasırga
▁sadakat
▁sahiden
▁sponsor
▁sunduğu
▁tanıyan
▁topladı
▁zamandı
▁üretici
lediğiniz
▁Kahraman
▁binaları
▁derecesi
▁dereceye
▁değildik
▁edemeyiz
▁eşyaları
▁giderler
▁gruplara
▁görevler
▁oranının
▁rasyonel
▁saplantı
▁sembolik
ebileceğim
mıyorsunuz
▁Danimarka
▁Kendinize
▁atmosfere
▁dediğinde
▁defasında
▁ekonomiyi
▁fantastik
▁geçirdiği
▁hizmetler
▁ilginçtir
▁inanmayın
▁kameralar
▁mahkemeye
▁neresinde
▁sağlıksız
▁sonlandır
▁tanesinin
▁tasarlama
▁tasarrufu
▁tehlikede
▁veriyordu
▁yaratarak
▁yaşamanın
▁edeceğiniz
▁söyleniyor
▁tasarladık
▁varsayalım
▁verirsiniz
▁yıldızları
▁alışılmadık
▁bakterileri
▁dönüştürücü
▁farkındayım
▁sistemimizi
▁söylemiştim
▁vücudunuzun
▁yapıştırıcı
▁ülkelerinde
▁dakikalığına
▁kullanıldığı
▁değiştirmemiz
▁nedenlerinden
EG
bö
bü
cü
!''
eat
ert
fta
ode
oin
▁5'
▁6.
biye
evet
odin
ogra
ırsa
▁Sar
▁cik
▁leh
▁muk
leşir
tekiz
vanoz
▁2005
▁2007
▁Anti
▁Bell
▁Grön
▁amca
▁aran
▁hası
▁iade
▁irti
▁iten
▁sarf
▁sebz
▁star
▁tadı
düğüne
eyelim
▁Aklım
▁Barış
▁Finan
▁Garip
▁Gerek
▁Günde
▁Insan
▁Sudan
▁batır
▁beste
▁bunca
▁degis
▁fenom
▁geçme
▁harfi
▁husus
▁ikram
▁ilaca
▁kayak
▁kaşif
▁litre
▁opera
▁zalim
▁çekiş
▁şifre
lamayan
▁Görsel
▁Günlük
▁Jersey
▁Kalkın
▁Mantık
▁Ortada
▁anları
▁azalır
▁başını
▁denedi
▁dokusu
▁ederdi
▁hesabı
▁implan
▁kafası
▁olurum
▁proton
▁sertif
▁sömürg
▁websit
▁yapıda
▁yetkin
▁yüzgeç
▁Avustur
▁Bugünkü
▁Johnson
▁Sıradan
▁Temelde
▁Ticaret
▁atılmış
▁bariyer
▁başvuru
▁denizin
▁doğruyu
▁ekledik
▁firması
▁girmeye
▁görüşlü
▁ideoloj
▁istendi
▁içeriye
▁kurtula
▁kültüre
▁muhalif
▁nasılsa
▁paraşüt
▁sunulan
▁sınıfın
▁testler
▁özgürce
▁şirkete
leyeceğim
▁açısıyla
▁bilgelik
▁edebilen
▁muydunuz
▁partikül
▁partiler
▁terapist
▁uzaktaki
▁vücuduna
▁yaptınız
▁şöyleydi
▁düşünürüm
▁etkilemek
▁eğitimine
▁finansman
▁hedefimiz
▁işaretler
▁kitabında
▁mesajları
▁odaklanır
▁olmadığım
▁oluşturul
▁oyuncular
▁saldırıya
▁çapındaki
▁öğretiyor
▁şeylerdir
▁bildikleri
▁erkeklerle
▁gelecektir
▁kendisiyle
▁matematiği
▁paylaşmaya
▁paylaşılan
▁belirtileri
▁davranışını
▁değişebilir
▁hücrelerine
▁inanmıyorum
▁seviyesinin
▁sisteminden
▁tasarımcısı
▁versiyonunu
▁yaşlandıkça
▁karşılaştığı
▁yatırımcılar
▁araştırmalara
▁birbirlerinin
▁toplulukların
▁arkadaşlarımız
▁göstermektedir
24
my
Afr
gam
kap
ont
▁Eh
▁Nö
▁SB
bunu
este
nedy
seye
umla
▁Emp
▁Hub
▁Kok
▁Kuv
▁Lim
▁Rek
▁bod
▁fiş
▁img
▁lay
▁nin
▁pey
▁öyk
▁şöh
Seyir
alist
duğun
lıdır
okamp
yonun
üğünü
▁Ağır
▁Iste
▁Kamp
▁West
▁Yale
▁araş
▁ediş
▁kaos
▁pasa
▁sark
▁çalı
▁İlet
hammed
ınızla
▁Adası
▁Düşük
▁Fakir
▁Filip
▁Geniş
▁Hukuk
▁Venüs
▁Yargı
▁Yılda
▁evril
▁kasıl
▁kaçan
▁metot
▁muydu
▁oyuna
▁soyun
▁sunan
▁sundu
▁uçağa
▁öznel
Merhaba
emesini
erküloz
lediğim
lektüel
umuzdan
ışıklık
▁Okulda
▁Yasası
▁adamdı
▁antren
▁burayı
▁cansız
▁durdum
▁fiziği
▁güneşi
▁harman
▁isabet
▁kontra
▁kriter
▁tabiki
▁taktik
▁yılımı
leşmenin
manyetik
mazsanız
▁Dünyaya
▁Georgia
▁Hastalı
▁Jüpiter
▁Kaçınız
▁anlatıl
▁favorim
▁hükumet
▁iddialı
▁kutlama
▁mantığı
▁medyayı
▁oturmak
▁salonda
▁öğretim
▁İzlanda
▁şüpheli
düğünüzde
uyorlardı
▁Elektrik
▁ayakları
▁ayrıldım
▁bozulmuş
▁dinleyin
▁eşiğinde
▁görmedim
▁ipuçları
▁kaplayan
▁omurilik
▁parçanın
▁saklamak
▁simetrik
▁sürecine
▁sürüklen
▁tanımlar
▁topladım
▁verirsek
▁İzleyici
▁Endonezya
▁balinalar
▁başkasına
▁beklerken
▁beyefendi
▁bilgisini
▁bilmediği
▁deneyleri
▁döndüğünü
▁edilmemiş
▁fevkalade
▁geometrik
▁gitmesini
▁izleyerek
▁kazanacak
▁teorisini
▁vermesini
▁yapısının
▁yarısında
▁Yunanistan
▁başardılar
▁başlıyorum
▁belirleyen
▁bulunduğum
▁etmektedir
▁gözlerinin
▁ilgilendir
▁kaplumbağa
▁kaybedecek
▁kendimizin
▁kurtarmaya
▁olamayacak
▁telefonlar
▁İskandinav
▁adamlarının
▁bilemiyorum
▁insanlardır
▁problemlere
▁söylemekten
▁genişliğinde
▁istemezsiniz
▁konuşuyorlar
▁çevremizdeki
▁endüstrisinin
▁oluşturabiliriz
1.
CE
In
▁)
dug
esa
hid
ool
row
sky
ubu
vin
ümr
▁7.
▁IM
▁Ni
▁UC
beti
eğer
leği
orit
phic
redi
ulus
ydik
üste
▁10,
▁130
▁DVD
▁Diş
▁Fos
▁Hır
▁Kum
▁McC
▁Mum
▁Paz
▁Stu
▁bet
▁buğ
▁nic
▁vas
Tanrı
abeth
benim
diyan
eddüt
hoven
liyiz
mekti
sünün
tuğum
ulade
vator
yalet
▁Uygu
▁akın
▁ayın
▁buda
▁deha
▁dona
▁kabl
▁karn
▁keyf
▁kırp
▁penç
▁teyz
▁trol
Sadece
rontal
tırlar
▁Bunda
▁Delhi
▁Louis
▁Mutlu
▁Niçin
▁Simdi
▁Sizce
▁Sıfır
▁Tokyo
▁boyle
▁deyin
▁gayri
▁inşaa
▁köylü
▁kıldı
▁sergi
▁seçti
▁örtüş
osentez
uluğunu
ğımızın
▁Albert
▁Benden
▁Harita
▁Makine
▁Netfli
▁algısı
▁basama
▁büyüte
▁kaybed
▁renkte
▁rezerv
▁santig
▁saydam
▁uçurum
▁çığlık
▁üretil
amıyorum
cağımıza
miyordum
▁Clinton
▁Evrenin
▁Girişim
▁Karayip
▁Liberya
▁Plastik
▁Politik
▁Yenilik
▁aileden
▁amaçlar
▁boyunda
▁doğduğu
▁kurarak
▁temsili
▁ucundan
▁çizgisi
▁şansına
▁şüpheci
▁Belediye
▁Grönland
▁Leonardo
▁Portekiz
▁Tanzanya
▁benimsem
▁değişmez
▁düzensiz
▁etrafına
▁evlerini
▁geldiğim
▁görkemli
▁günümüze
▁insancıl
▁izlerini
▁spektrum
▁söylemez
▁tabakası
▁tepesine
▁testleri
▁yarattım
▁çektiğim
▁Kendimize
▁Sanıyorum
▁aldığında
▁ardındaki
▁atmosferi
▁açılardan
▁demiyorum
▁değişmeye
▁geldiğine
▁karşılığı
▁kendimden
▁konuşmada
▁toplamaya
▁varyasyon
▁yüzeyinin
▁öğrenecek
▁bahsedelim
▁bahsettiği
▁buldukları
▁bulmalıyız
▁fizyolojik
▁geçenlerde
▁inanıyordu
▁kampanyası
▁karşıyayız
▁kontrolden
▁ulaşabilir
▁yiyecekler
▁yıllarında
▁zamanların
▁anlatıyorum
▁değişimleri
▁ihtimalleri
▁kullanırken
▁politikalar
▁sorunlardan
▁telefonunuz
▁yayılmasını
▁zorluklarla
▁gördüğümüzde
▁görünüyorlar
▁birleştirerek
▁sorumluluğunu
▁çocuklarımızı
▁şirketlerinin
▁geliştiriyoruz
ui
gda
gie
hio
▁44
▁Fi
▁Ty
▁UN
Baba
Sana
omon
rete
tana
urda
▁Bre
▁Işı
▁Koş
▁Mağ
▁Mur
▁Yum
▁dom
▁şak
likoz
talım
ırdım
▁Aran
▁Beet
▁Gran
▁Muha
▁Uber
▁aşın
▁emir
▁husu
▁kask
▁kırk
▁plak
▁sosy
emedik
▁Bulut
▁Terör
▁albüm
▁bilge
▁butun
▁hopar
▁hüzün
▁iptal
▁kesit
▁keşke
▁kıvıl
▁parla
▁sözlü
▁toler
▁yazıp
▁çadır
▁çığır
▁özdeş
▁özlem
leridir
ıldayan
▁50.000
▁Asyalı
▁Oyuncu
▁anneme
▁binaya
▁dahaki
▁dayana
▁gerekç
▁gökada
▁içimde
▁işlere
▁kesmek
▁modele
▁polisi
▁sıfıra
▁yazdık
▁çözüme
▁ünifor
▁ızdıra
ebildiği
lamasına
liliğini
mıyordum
▁Adaları
▁almanın
▁ayrılma
▁belkide
▁beynini
▁biliriz
▁büyülen
▁deneyde
▁dinleyi
▁fazlaca
▁gelelim
▁girecek
▁gitmedi
▁modelin
▁parçaya
▁sahneyi
▁servisi
▁tartışa
▁ulaştım
▁çekilen
▁çözecek
duklarını
emeyeceği
lamıyoruz
▁Vikipedi
▁beyninde
▁bileşeni
▁esneklik
▁fikrinin
▁kazandık
▁kazanmış
▁müslüman
▁noktanın
▁olmanızı
▁oluştuğu
▁severler
▁sihirbaz
▁soykırım
▁uygulaya
▁yazmıştı
▁yozlaşma
▁ışığında
▁şaşırtan
▁Güneydoğu
▁anlamayın
▁etkilenen
▁etmiyoruz
▁eğitimini
▁geçiyoruz
▁hedefleri
▁içindeydi
▁kanunları
▁yarayacak
▁çıkıyordu
▁atalarımız
▁bekliyoruz
▁büyükannem
▁canlıların
▁dönüştüren
▁engelliyor
▁hatırladım
▁ihtiyacını
▁kayboluyor
▁maliyetini
▁mücadelesi
▁oluşturdum
▁vurgulamak
▁yolculuğun
▁düşündüğümü
▁gelebilecek
▁kullanmadan
▁köpekbalığı
▁yönlendiren
▁şempanzeler
▁adaletsizlik
▁aralarındaki
▁gerektiğinde
▁hissettiğini
▁karmaşıklığı
▁olasılıkları
▁vatandaşları
▁ilgileniyorum
▁yaratıcılığın
▁oluşturduğumuz
▁geliştirdiğimiz
OL
gn
Bel
Kar
ary
bit
dra
oma
viy
çap
desi
ilet
lini
oker
okor
sama
taşı
ırıl
▁Ang
▁Jes
▁Kit
▁Sky
▁adr
▁düm
digim
metin
neden
tırım
üsünü
▁2006
▁2012
▁Gıda
▁aşkı
▁evli
▁faiz
▁ilke
▁inip
▁küre
▁İçer
▁Şüph
bistan
metler
ğınıza
▁2013'
▁cazib
▁davul
▁galer
▁huylu
▁istir
▁katet
▁kesik
▁layık
▁müziğ
▁oluşu
▁paran
▁plaka
▁tokuş
▁vurdu
▁yetki
▁üstte
trasyon
▁Açıkça
▁Esasen
▁Hawaii
▁alınır
▁amatör
▁binası
▁dinlen
▁elleri
▁görüşe
▁izleri
▁içinse
▁muhtaç
▁sarmal
▁sefere
▁sürmek
▁tırnak
▁öfkeli
▁şunlar
lanmanın
lemeleri
ılmıştım
▁Değişim
▁Kennedy
▁Latince
▁Neander
▁anlamış
▁ararken
▁aynıdır
▁bakmayı
▁denizde
▁dileğim
▁dokunma
▁ederdim
▁etmekti
▁hepsine
▁huzurlu
▁kötülük
▁tanımak
▁toplamı
▁varsayı
▁yurttaş
▁çelişki
eceğinizi
edersiniz
madıkları
▁aranızda
▁araçlara
▁başardım
▁duvarlar
▁dönüşümü
▁düzenlen
▁etmemize
▁fakirlik
▁festival
▁girmeden
▁gösterme
▁güneşten
▁habersiz
▁hepimize
▁hissetme
▁istemeye
▁kavrayış
▁keşfetme
▁keşifler
▁oralarda
▁paylaşan
▁prensibi
▁sayısına
▁söylerdi
▁taşındım
▁çocuktan
▁çıkmıştı
bilimciler
▁Demokrasi
▁azaltıyor
▁bireyleri
▁dünyamızı
▁etkisinin
▁gelmiştir
▁görünmeye
▁ilişkinin
▁istemeyen
▁kaybetmek
▁rastlantı
▁uygulanan
▁alabilecek
▁baktığında
▁başlamamız
▁duyguların
▁düzenledik
▁görüşmeler
▁hatırlattı
▁karşınızda
▁programına
▁rahatlıkla
▁temizlemek
▁yapardınız
▁yayınladık
▁Şimdilerde
▁Afrikalılar
▁Bahsettiğim
▁alanlarının
▁anlayabilir
▁edildiğinde
▁etrafımızda
▁gelmektedir
▁görebilecek
▁görüntüsünü
▁inanıyorlar
▁istediğinde
▁oluşturulan
▁ortalarında
▁başlayacağım
▁getiriyorlar
▁oluşturulmuş
▁hissediyorlar
▁karşılaştırma
▁sebeplerinden
▁sistemlerinin
▁düşünüyorlardı
ıf
70'
ero
lot
low
rah
tup
▁LT
▁Ün
bine
enha
iner
kara
orth
▁140
▁Alp
▁Cra
▁Gol
▁IBM
▁ami
▁kef
▁lik
▁tef
▁vit
▁çan
imbab
mazsa
mento
rının
sıdır
vetli
▁Brad
▁Ceza
▁Emma
▁Mola
▁asil
▁ağac
▁data
▁ebev
▁güçl
▁köşe
▁tahm
▁vura
▁üzüm
daydım
emenin
larini
lektif
miştik
▁1930'
▁Earth
▁Galak
▁Genom
▁Jones
▁Tarım
▁Tasar
▁almam
▁artma
▁dönme
▁dördü
▁efekt
▁engin
▁nüfuz
▁yükse
▁şeyse
leşmeye
osiklet
▁Eyalet
▁Tedavi
▁adamış
▁açmaya
▁banliy
▁binden
▁birsey
▁doksan
▁dostum
▁entrop
▁helyum
▁hukuki
▁koştur
▁küçüms
▁kışkır
▁sesimi
▁silahı
▁sürgün
▁sızdır
▁tezgah
▁unutul
▁yalvar
▁çektik
dığınızı
malıydım
ographic
▁Bakalım
▁General
▁Körfezi
▁büyüktü
▁grubuna
▁iktidar
▁iletken
▁kansere
▁kavanoz
▁komplik
▁korkuyu
▁kuşları
▁kılacak
▁rahatça
▁sorunlu
▁veririz
▁yanılgı
▁zekanın
▁çekecek
▁öldürdü
▁öldürür
bilmeleri
lığımızın
▁Kimsenin
▁aktarmak
▁alacağız
▁arabayla
▁aydınlık
▁barışçıl
▁birincil
▁dururken
▁dünyalar
▁enerjili
▁gezegene
▁göreceli
▁haftalar
▁herkesle
▁kültürde
▁küçükken
▁mikrobiy
▁okyanusu
▁sayıdaki
▁sofistik
▁ulaşıyor
▁vermenin
▁yansıtan
▁yüzeyine
▁şefkatli
▁Beethoven
▁Elizabeth
▁Samanyolu
▁aracılığı
▁açıklayan
▁biçimleri
▁bırakmaya
▁dediğimde
▁dinlerken
▁düşünülen
▁fırsatını
▁gelişmeye
▁geçirmeye
▁insanlığa
▁konuştuğu
▁olmalıyım
▁paradigma
▁yazıyorum
▁yükseklik
▁öldürmeye
▁üretimini
▁Seyirciler
▁arttırıyor
▁diğerinden
▁dünyamızın
▁gerçekliğe
▁geçtiğinde
▁ihtimalini
▁iletişimin
▁insanlardı
▁kurtaracak
▁kuruluşlar
▁ortamlarda
▁sorulardan
▁stratejisi
▁üretiyoruz
▁şirketinin
▁bakabiliriz
▁basitleştir
▁bekliyorlar
▁geleceğimiz
▁verebilecek
▁verimliliği
▁başlayacağız
▁birleştirmek
▁görselleştir
▁karşılaştıra
▁oluştururlar
▁deneyimlerini
▁gerçekleştiği
▁teknolojisinin
90
âh
bia
dol
ebb
ocu
sup
yaj
ünç
▁4'
▁8.
▁PC
▁RB
▁SK
▁TM
▁Ül
Haya
depr
uval
yasa
ınıp
▁Böl
▁Fel
▁GSM
▁Ori
▁Ram
▁Tav
▁Yay
▁aer
▁asa
▁eng
▁jür
▁rep
▁vek
iyken
laska
ustur
▁2013
▁2030
▁asal
▁atma
▁best
▁eriy
▁feda
▁mira
▁razı
▁çete
ciliği
enizde
lastik
lüğünü
ılamaz
▁Feder
▁Gerçi
▁Hesap
▁Jason
▁Kuran
▁Larry
▁Temiz
▁ayağı
▁açtık
▁aşmak
▁bolca
▁klavy
▁kolej
▁konak
▁korur
▁kızar
▁madal
▁muyum
▁olman
▁papaz
▁pizza
▁sağdu
▁taksi
▁tüylü
▁yakış
▁yanıp
▁çağın
istimal
▁Missis
▁Olağan
▁Sessiz
▁Sonsuz
▁Yeryüz
▁aslına
▁aşılar
▁desteğ
▁diller
▁evdeki
▁evrene
▁gezdir
▁kabuğu
▁kemiği
▁kuşağı
▁küçült
▁neresi
▁pazarı
▁taslak
▁uykuya
▁uyuyor
▁yanıtı
▁yaşını
▁yüklen
▁yığını
▁ölümün
▁şahsen
▁Sistemi
▁aileniz
▁almanız
▁alışkın
▁benimki
▁biriniz
▁doludur
▁düşmanı
▁geçelim
▁girdiği
▁harcaya
▁işlemek
▁kafamda
▁kökleri
▁mesleki
▁orjinal
▁oğlunun
▁simetri
▁tepkisi
düklerini
lerinizle
▁Geçmişte
▁Kalkınma
▁Yapmamız
▁anlaması
▁bilgimiz
▁böyleydi
▁diğerini
▁erkenden
▁gitmemiz
▁gösterin
▁kafatası
▁kaldırım
▁kurtulan
▁kurucusu
▁köpekler
▁olduğuma
▁olsunlar
▁paylaştı
▁saçmalık
▁tanıklık
▁uzanıyor
▁vermemiz
▁vermeyen
▁yetimhan
▁yürüyüşe
▁şampiyon
ladığımızı
▁bölümleri
▁dinleyici
▁ekonomide
▁faktörler
▁kanısında
▁kütüphane
▁kısımları
▁memeliler
▁santigrat
▁savunuyor
▁sağlaması
▁tahminler
▁vereceğiz
▁verilerle
▁yemekleri
▁yerçekimi
▁bulunmuyor
▁durumdalar
▁istihbarat
▁kanıtlamak
▁konulardan
▁yapıyorduk
▁yetiştiric
▁Christopher
▁aktiviteler
▁değiştirdik
▁ediyorsanız
▁günümüzdeki
▁hissettiren
▁mikroskobik
▁olduğumuzda
▁tedavisinde
▁yaşanabilir
▁zamanımızın
▁imparatorluk
▁teknolojiden
▁veriyorsunuz
▁çalışanların
▁öğrencilerim
▁öğretmenleri
▁anlaşılabilir
▁geliştirilmiş
▁kullandığınız
▁meslektaşlarım
▁çalışıyorlardı
27
ES
Oh
hu
40'
bağ
mut
mül
▁34
▁64
▁9.
▁Ci
▁Il
▁Kü
▁Öğ
▁İm
ikat
ilme
irüs
iyal
sebo
uana
yang
▁2,5
▁Aya
▁Gro
▁McD
▁Rah
▁Vol
▁asi
▁kis
▁mul
arsak
iyeli
lılık
lının
▁1980
▁Ağaç
▁Esas
▁Yolc
▁aman
▁ayık
▁baca
▁dalı
▁epil
▁iner
▁kome
amızın
gerçek
kender
▁Komik
▁Suudi
▁Suyun
▁Tunus
▁Uzman
▁ateşe
▁binde
▁geçim
▁geçit
▁istat
▁mağaz
▁meyil
▁saran
▁sütun
▁tesel
▁tuzlu
erkeley
itasyon
ulasyon
usundan
▁Alaska
▁Bugüne
▁Kaynak
▁Kepler
▁Rüzgar
▁adamım
▁amaçla
▁bellek
▁cenaze
▁dünyan
▁eposta
▁eyleme
▁frekan
▁görüle
▁kafama
▁kalkan
▁kaptır
▁karısı
▁kongre
▁kümesi
▁maksim
▁mezunu
▁patern
▁seslen
▁sürtün
▁tutsak
▁yanısı
▁yaralı
▁yazdır
▁yetisi
▁zorlan
▁Belirli
▁Savunma
▁aklında
▁almıyor
▁beynine
▁cümleyi
▁direnci
▁dolaylı
▁gündeme
▁istenen
▁kavraya
▁korkmuş
▁kurbanı
▁kırılma
▁oğlumun
▁röntgen
▁senenin
▁sıkışıp
▁tepeden
▁yazılar
▁yüzeyde
ilerimizi
▁aldatıcı
▁ansiklop
▁açlıktan
▁bağlıyor
▁biçimini
▁boşlukta
▁doğruysa
▁gençlere
▁görevini
▁hafiflet
▁hayatlar
▁hoparlör
▁işlerine
▁kaybolan
▁kurdular
▁petrolün
▁reddetti
▁silindir
▁söyleyip
▁topluyor
▁virüsler
▁yasaları
▁çevrenin
▁çiçekler
▁İskender
▁şüphelen
▁Vücudumuz
▁anladığım
▁bölümünün
▁cinsellik
▁fabrikası
▁ilerlemek
▁inceledim
▁kalacağız
▁katılmaya
▁kaydetmek
▁kıyısında
▁mümkündür
▁noktasını
▁olanlarla
▁olduğumda
▁sofistike
▁sürdürmek
▁uyguladık
▁yapmamıza
▁çıkmasını
▁öğretmeni
▁üretilmiş
▁Birdenbire
▁belirliyor
▁buluyorlar
▁dergisinde
▁dünyamızda
▁fikirlerle
▁fizikçiler
▁harikulade
▁hazırladık
▁hissettiği
▁kültürünün
▁olabilmesi
▁sonuçların
▁tüberküloz
▁yapmıyorum
▁yaşındayım
▁yetiştirme
▁yöneticisi
▁başlamıştım
▁düşünmekten
▁etkileşimde
▁ettiğinizde
▁hareketinin
▁hayatlarına
▁hissettirir
▁yiyecekleri
▁önlenebilir
▁Cumhuriyetçi
▁geldiğinizde
▁gösteriyoruz
▁kaynaklardan
▁kullanılacak
▁kullanıyordu
▁parçalarının
▁sistemlerine
▁söylediğimiz
▁yerleştirmek
▁anlayabiliriz
▁doğrultusunda
▁istatistiksel
▁karakteristik
▁çalışıyorsunuz
▁yapabilecekleri
RA
kö
nü
Şu
Ara
cks
dit
run
▁Dy
▁MB
▁Tu
Yeni
başı
edip
ekim
ento
idin
ight
iyla
keni
nova
pace
üğün
şası
▁17.
▁Akl
▁Atm
▁Dra
▁Ele
▁Kav
▁Lor
▁NSA
▁Tez
▁sıt
▁sıy
▁taz
▁Ölü
amdan
eller
ganik
mızın
yazar
ıldık
Şarkı
▁2016
▁Anna
▁Eger
▁Eşim
▁Moda
▁Nike
▁Uyum
▁Yahu
▁alfa
▁aşan
▁dron
▁ekin
▁fonu
▁güdü
▁ifşa
▁raki
▁sülf
antina
ometre
▁Görüş
▁Hamil
▁Mülte
▁Power
▁baban
▁cazip
▁elmas
▁gözlü
▁iştir
▁keman
▁komün
▁liman
▁modül
▁mücev
▁nakle
▁sağla
▁çorba
▁şeref
leşmesi
masıydı
▁Norman
▁Watson
▁bendim
▁cinsiy
▁doğura
▁döneme
▁formda
▁grupta
▁görmem
▁hektar
▁hisler
▁kaplan
▁kapıya
▁kazara
▁konuma
▁kurumu
▁kırıcı
▁meclis
▁okuyup
▁reçete
▁senden
▁tapına
▁tepeye
▁uçakta
▁yemeye
bilmemiz
dakilere
lanmadan
lığınızı
ılmıştır
▁Deneyim
▁Gelişim
▁Heyecan
▁Nükleer
▁Patlama
▁aynıydı
▁banliyö
▁dergisi
▁dilleri
▁düğmeye
▁edildim
▁endişel
▁hisleri
▁izlenim
▁işimizi
▁kraliçe
▁mektubu
▁merhaba
▁olmaktı
▁rehabil
▁taşındı
▁utandır
▁videosu
▁yönleri
düğümüzde
▁Berkeley
▁Düşündüm
▁almasını
▁ayrılmak
▁bakmamız
▁bölgeden
▁dağılımı
▁inceledi
▁kalitede
▁kararını
▁kurtardı
▁mimarlık
▁nesilden
▁ortadaki
▁parasını
▁savunucu
▁terörizm
▁vücudunu
▁yanısıra
▁çalışkan
▁şirkette
▁Biyolojik
▁Nijeryalı
▁anladınız
▁arttığını
▁başarının
▁bilinçsiz
▁değişmedi
▁geçirecek
▁göçmenler
▁kahramanı
▁milimetre
▁takıntılı
▁yalnızlık
▁yapımcısı
▁şehirdeki
▁şizofreni
▁Geographic
▁anlamamıza
▁bahçesinde
▁demografik
▁duyduğumda
▁düzenleyen
▁fırsatımız
▁liderlerin
▁okyanuslar
▁söylüyoruz
▁verdiğinde
▁İnternette
▁şeklindeki
▁aldıklarını
▁anlaşılıyor
▁danışmanlık
▁güvenliğini
▁ilerledikçe
▁inanılmazdı
▁karşılaştık
▁keşfettiler
▁kullanmamız
▁olmayacaktı
▁ölçeklendir
▁Teknolojinin
▁bilemezsiniz
▁endişelendir
▁entellektüel
▁hastalarının
▁laboratuvara
▁oluşturdular
▁yapacaksınız
▁yaptıklarına
▁açıklayacağım
▁hissettiğimiz
▁İmparatorluğu
▁çalıştıklarını
▁arkadaşlarımdan
▁gerçekleştiğini
2.
BC
ARS
Ner
Siz
ado
gaç
gül
▁85
▁Sy
▁om
▁üt
dyum
egal
ffuz
izör
jder
mese
raft
ydın
▁2.5
▁Müt
▁Yat
▁Yir
▁fah
▁ray
▁yıp
Bugün
ektom
sünde
tısız
ustik
▁3000
▁Aksi
▁Bren
▁Deep
▁Dern
▁Fonu
▁Hali
▁Hata
▁Köpr
▁Nazi
▁Ohio
▁Piya
▁Port
▁Post
▁baya
▁indi
▁iyon
▁koşa
▁kuşu
▁maym
▁oysa
▁pist
▁serp
▁yama
▁Ürün
burger
deleri
eynman
ilmeye
▁Alkış
▁Kilis
▁Sihir
▁Trans
▁ayrış
▁ağaca
▁duydu
▁dövme
▁düğün
▁elimi
▁gölge
▁haydi
▁ihbar
▁ironi
▁kibir
▁yıkan
▁çeliş
▁öneme
aslında
latmaya
▁Donald
▁Hubble
▁Koreli
▁Mozart
▁alamaz
▁açıktı
▁bedeni
▁binler
▁gitmez
▁glikoz
▁inanır
▁kanalı
▁kurmuş
▁müziğe
▁neşeli
▁organı
▁sanata
▁sonunu
▁uçuyor
▁yakıtı
▁yapman
▁ömürlü
▁Beraber
▁Bilimin
▁Everest
▁Katılım
▁adanmış
▁anlamam
▁arazide
▁basıyor
▁dibinde
▁dikdört
▁duyarız
▁etiketi
▁evlerin
▁gelirdi
▁hızında
▁insülin
▁kaybına
▁keyifli
▁müsaade
▁pasapor
▁satmaya
▁satılan
▁toplaya
▁uyarıcı
▁yaşları
▁yürüdüm
▁zorluğu
▁öğreten
▁üstteki
laştırıcı
▁ailelere
▁ailesini
▁amaçları
▁baktılar
▁depresif
▁getirmiş
▁gitmiyor
▁ilginçti
▁kaybetme
▁kurtaran
▁manipüle
▁nerdeyse
▁olaylara
▁tanıştık
▁umuduyla
▁yapardım
▁yaşarken
▁yönetmen
▁ölümleri
▁Şimdilik
▁şempanze
▁şuradaki
bildiğimiz
▁Hayatımda
▁Mississip
▁başlaması
▁canlıları
▁dakikadan
▁deneyimin
▁geçebilir
▁geçtikten
▁gideceğiz
▁görmemizi
▁hatırlama
▁içeriğini
▁karşısına
▁kazanmaya
▁mahallede
▁materyali
▁rekabetçi
▁sanatçısı
▁sağlayıcı
▁tesadüfen
▁yanınızda
▁yapamayız
▁yönetiyor
▁zamanının
▁çevredeki
▁öldüğünde
▁cevaplamak
▁direksiyon
▁diyorlardı
▁genişliyor
▁gidersiniz
▁hastalıkla
▁hastaneler
▁ilgilenmek
▁mahremiyet
▁paralarını
▁pozisyonda
▁yapılmıştı
▁yaşıyordum
▁yetenekler
▁İstatistik
▁şimdilerde
▁Kendilerini
▁ağırlığında
▁bölgelerine
▁geliştirdim
▁gerekiyorsa
▁hikayelerin
▁isteyeceğim
▁maliyetleri
▁minnettarım
▁sağladığını
▁tasarlamaya
▁toplamından
▁birbirimizin
▁geliştirildi
▁yapabilirsek
▁çıkardığımız
▁değişikliğini
▁konsantrasyon
▁organizasyonu
▁topluluklarda
▁vatandaşların
▁çalışmalarına
▁elektromanyetik
-6
İç
▁;
200
25'
Din
bie
cia
dış
fin
laj
ois
oit
pro
roş
uke
▁("
▁52
▁Ag
▁yy
arın
dalg
erin
olit
uver
▁Eur
▁Hum
▁Rog
▁bip
▁kıp
▁loj
▁spr
▁umr
▁val
▁çob
▁şık
anıza
arısı
ation
biyen
derek
enhag
genin
lüğün
mesin
saniz
öyley
▁2004
▁Alış
▁Astr
▁Beck
▁Blue
▁Eşit
▁Hakk
▁Long
▁Maya
▁evim
▁eşik
▁iter
▁taba
▁tram
▁İnşa
▁İtir
Harika
Lütfen
emdeki
liliğe
viyole
▁2016'
▁Başta
▁Emily
▁Muhaf
▁Sorum
▁Yazar
▁astım
▁aydan
▁cüret
▁doğar
▁dövüş
▁enzim
▁idrak
▁kalor
▁numun
▁oturt
▁sürüş
▁taham
▁viral
▁yağlı
▁zirve
▁Çözüm
▁çizer
▁öneri
▁öyley
▁ürper
▁ıslık
entetik
organiz
ılmıyor
▁Düşünc
▁Lübnan
▁atarak
▁atlama
▁buğday
▁edeyim
▁efsane
▁galiba
▁haklar
▁heryer
▁komplo
▁seçici
▁sokağa
▁telafi
▁yasası
▁yengeç
▁çarpma
ekonomik
laşmanın
▁Alabama
▁Anayasa
▁artmaya
▁bayrağı
▁bittiği
▁dioksit
▁gelenin
▁grafiği
▁hafifçe
▁kazanım
▁kelebek
▁korunma
▁kötüydü
▁kütlesi
▁olaydan
▁otistik
▁pişirme
▁sorarak
▁tutulur
▁ustalık
▁yapmamı
▁çalmaya
▁İnsanoğ
layıcılar
▁Anlatıcı
▁Kamboçya
▁anlattık
▁başarmış
▁boyutunu
▁bulamaya
▁dizileri
▁dürüstçe
▁geçtiler
▁gidersek
▁gitmeden
▁güçlüdür
▁milyonun
▁okullara
▁parlayan
▁plankton
▁sahiplen
▁sayfalık
▁sendromu
▁sergilen
▁tereddüt
▁toplanan
▁uygulana
▁yakaladı
▁yaşarlar
▁yerleşik
▁üçüncüsü
▁şarkılar
▁araçlarla
▁azaltmaya
▁bakıyordu
▁birleşimi
▁bırakalım
▁düştüğünü
▁ediyorsun
▁etmiyorum
▁giriyoruz
▁kalanında
▁kapsayıcı
▁kazandığı
▁kimliğini
▁mühendisi
▁oluşturup
▁ortalıkta
▁oynayarak
▁panelleri
▁parçasına
▁profesörü
▁projeleri
▁samimiyet
▁sebepleri
▁soracağım
▁suistimal
▁süreçleri
▁vermekten
▁yapabilen
▁yapmazsak
▁yaptırmak
▁yararlana
▁yöntemini
▁yüzleşmek
▁çiftleşme
▁öldürüldü
▁ölümünden
▁Yaptıkları
▁alanındaki
▁aradığımız
▁gönderilen
▁karakterin
▁masrafları
▁motosiklet
▁olacağımız
▁programını
▁tartışmayı
▁yatırımlar
▁çalışmadan
▁çıkardılar
tabilirsiniz
▁bildiğimizi
▁biçimlendir
▁edebileceği
▁etmelisiniz
▁gezegenleri
▁gözlerinizi
▁inceleyerek
▁kurallarına
▁niteliğinde
▁olasılığını
▁tarafındaki
▁yollarından
▁barındırıyor
▁bilgisayarla
▁kombinasyonu
▁teknolojimiz
▁çalışmalıyız
▁adlandırdığım
▁endüstrisinde
▁etkileyebilir
▁keşfettiğimiz
▁tasarımcıları
▁heyecanlandıran
75
NH
mü
Öz
ıh
▁!
95'
Kim
Pek
Tek
ath
ato
işe
lus
üğe
▁38
▁CH
arin
elle
ırın
▁Bes
▁Cur
▁Dam
▁Had
▁Koc
▁cem
▁faz
▁hüc
▁nam
Bunun
anyum
dinin
eceğe
lidir
▁Carl
▁Edin
▁Gold
▁Hani
▁Homo
▁Jean
▁Tara
▁ajan
▁anın
▁borc
▁erit
▁hane
▁kuyu
▁ocak
▁plaz
▁salı
▁çubu
akende
bilsin
inceye
isiyim
lığımı
▁1900'
▁Asker
▁Canlı
▁Gizli
▁Okula
▁Oğlum
▁Rahat
▁Tıbbi
▁Yalan
▁ağını
▁bandı
▁bayıl
▁buton
▁doyur
▁durun
▁forma
▁gözen
▁ihraç
▁ilahi
▁işlen
▁koron
▁kukla
▁kürek
▁monte
▁nikot
▁orayı
▁parkı
▁sakın
▁seçin
▁ötede
▁öteki
dakinin
selerdi
ılmamış
▁Hikaye
▁Tartış
▁Tehlik
▁ebevey
▁epeyce
▁format
▁girdik
▁iklimi
▁konfor
▁kostüm
▁kökeni
▁köşeye
▁makyaj
▁oldugu
▁omurga
▁pervan
▁sayıya
▁sevinç
▁sünger
▁tanısı
▁uğultu
▁zararı
▁çektir
▁çıkışı
▁ışıkla
▁şöhret
lacağını
tiyseniz
▁Charlie
▁Feynman
▁Korkunç
▁Seyirci
▁Siyaset
▁Soldaki
▁aradaki
▁arındır
▁bilimde
▁böylesi
▁edilmek
▁faktörü
▁getiril
▁güvenle
▁hazırda
▁kurmayı
▁manevra
▁merkeze
▁polisin
▁sırayla
▁takımın
▁teselli
▁uçaklar
▁varolan
▁yüzünde
▁zorladı
▁Çoğumuz
▁çıkınca
Gerçekten
ebilirsin
lığındaki
▁Başarılı
▁Sağlıklı
▁Sonuçlar
▁bulunmuş
▁davranan
▁geldiniz
▁gösterim
▁harcadık
▁hayvanat
▁iskeleti
▁kalmadan
▁kayboldu
▁kenarına
▁kimlerin
▁kuraklık
▁maksimum
▁milyonda
▁okuldaki
▁oyuncusu
▁planları
▁sarsıntı
▁telaffuz
▁transist
▁yakalama
▁Hepinizin
▁askerleri
▁bacakları
▁bakabilir
▁departman
▁destekler
▁faydaları
▁getirmeyi
▁görevimiz
▁kullanıma
▁kültürünü
▁oksitosin
▁saldırısı
▁tehlikesi
▁yaşanıyor
leyebilecek
▁alabiliyor
▁bazılarına
▁bekleniyor
▁büyükbabam
▁bıraktılar
▁deneyimini
▁duyarsınız
▁düşüncenin
▁ettiğimizi
▁girdiğimde
▁haberlerin
▁koyduğumuz
▁kızılötesi
▁maddelerin
▁meseleleri
▁nöronların
▁olduğunuza
▁oranlarını
▁parçasının
▁santimetre
▁sonuçlandı
▁sorduğumda
▁tamamlamak
▁çalışmakta
▁öğrenmemiz
mayacağımızı
▁arkadaşının
▁açıklayayım
▁bağımsızlık
▁birleştiren
▁birleştirip
▁düzenlenmiş
▁hazırlanmış
▁hâlihazırda
▁inandığımız
▁kelimelerle
▁kullanımına
▁yanlışlıkla
▁çeşitliliğe
▁anlıyorsunuz
▁gidiyorsunuz
▁istemiyorlar
▁sanatçıların
▁yapabilirsin
▁Bilgisayarlar
▁algoritmaları
▁bilmiyorsunuz
▁oluşturduğunu
▁söylediklerini
▁çalışanlarının
-4
SE
baç
eçh
hum
mus
▁2:
▁ES
▁SW
▁eh
▁oh
▁pl
AIDS
alin
efen
king
ning
skop
usta
vari
yası
▁Hiz
▁Taş
▁inç
▁keh
▁kot
▁uzv
Küçük
attan
gönül
jenin
likçi
takal
tizol
ğinde
▁Atom
▁Clar
▁Ekib
▁Elli
▁Grup
▁Kalb
▁SARS
▁Stor
▁arar
▁broş
▁fiil
▁içki
▁pref
▁pres
▁semt
casına
▁Ameri
▁Doğum
▁Erken
▁Kurul
▁Nepal
▁Polon
▁Tibet
▁Yerli
▁Yoğun
▁aklın
▁elime
▁genin
▁girda
▁ihtiy
▁iktis
▁istey
▁kurup
▁masal
▁sevme
▁sürek
▁tekli
alisyon
iliğini
mesiydi
tüğümüz
▁Gandhi
▁Global
▁Klasik
▁Toplam
▁akıyor
▁ardına
▁artıra
▁atıldı
▁azalan
▁boynuz
▁civarı
▁eskisi
▁evinin
▁filtre
▁güneye
▁gününü
▁hasarı
▁hoşgör
▁kokusu
▁kraliç
▁kuzeye
▁melodi
▁paneli
▁polise
▁salonu
▁serisi
▁söndür
▁vajina
▁vakası
▁çeviri
▁Halbuki
▁Japonca
▁akustik
▁anayasa
▁aşamaya
▁bakabil
▁buluruz
▁devleti
▁dikkati
▁evinden
▁felsefi
▁görevim
▁iletmek
▁insanda
▁insansı
▁isminde
▁kapıdan
▁karbonu
▁kolaydı
▁kolları
▁muamele
▁muhaseb
▁nesneyi
▁olmamak
▁piramit
▁sabırlı
▁sorunum
▁sıçrama
▁tartışı
▁tarzını
▁uluslar
▁uykusuz
▁çıkarsa
▁ödülünü
▁ürettik
▁Bisiklet
▁Evrensel
▁Finansal
▁Kopenhag
▁anestezi
▁başarıyı
▁başbakan
▁bilirler
▁cesareti
▁destansı
▁ettiğine
▁eğitimde
▁hayaller
▁ilaçlara
▁istersek
▁krizinin
▁köprüler
▁makineye
▁mekaniği
▁okulları
▁sağlamış
▁tecavüze
▁uçakları
▁yatırımı
▁Çocukluğ
mayacaktır
▁Hayvanlar
▁Pazartesi
▁alıştırma
▁desteklen
▁düşünebil
▁hamilelik
▁içindeyiz
▁işçilerin
▁karantina
▁kollarını
▁kopyasını
▁olmalılar
▁paylaşımı
▁söylemesi
▁söylemeyi
▁çıkmasına
▁öğretmeye
▁ülkesinde
▁şarkıları
▁alanlarına
▁bekliyorum
▁bileşenler
▁bilmediğim
▁boyutlarda
▁fotoğrafın
▁haberlerde
▁hayatımıza
▁istemediği
▁sistemlere
▁tasarlanan
▁toplumları
▁yoksulluğu
▁zorundasın
▁aldığınızda
▁bileşenleri
▁değerlerini
▁değillerdir
▁güvensizlik
▁iyileştirme
▁konuşmaktan
▁sorabiliriz
▁yapılmasını
▁yöntemlerle
▁ölçülebilir
▁öğretiyoruz
▁üretiyorlar
▁şekillerini
▁derecelendir
▁galaksilerin
▁göstermiştir
▁güçlendirmek
▁karakterleri
▁kullanımının
▁materyalleri
▁söylediğinde
▁çerçevesinde
▁çıkarıyorlar
▁değişikliğine
▁geliştirdiler
▁gördükleriniz
▁söyleyecektir
▁hissettiklerini
▁organizasyonlar
▁politikacıların
LS
Gen
asp
beş
ett
fon
imp
vur
ırt
▁CR
▁JF
▁JH
▁TB
Herk
gari
ikâr
keli
saur
tali
unta
▁160
▁900
▁Ayr
▁Bos
▁Boz
▁Des
▁Dor
▁Dun
▁Kos
▁TSS
▁hür
▁jet
▁Öfk
▁çil
dince
emden
eçmiş
hassa
işler
jamin
küyor
tılır
yatür
▁5000
▁Beat
▁Fort
▁Gene
▁Kası
▁Prot
▁acik
▁elek
▁hatt
▁iPad
▁kıvr
▁skan
▁örgü
▁özüm
▁İzin
ileşme
mezsek
üsünün
▁Gidip
▁Haklı
▁Libya
▁Milli
▁Stasi
▁Tuhaf
▁adayı
▁aydır
▁ceset
▁dolap
▁eroin
▁etmen
▁filiz
▁iflas
▁keser
▁koşan
▁petri
▁puanı
▁sarma
▁tasla
▁taşım
▁telaş
▁topla
▁vakıf
▁zenci
▁çözer
▁ısıyı
▁şirin
digimiz
ebildik
iydiler
laştıra
melerin
stagram
tuğumuz
▁Budist
▁Denizi
▁Havada
▁Kanyon
▁ailemi
▁ateist
▁azıcık
▁ağzına
▁barışı
▁dilimi
▁dokuyu
▁edilip
▁gülünç
▁kalbin
▁karara
▁komedy
▁körfez
▁kıtlık
▁mensup
▁mirası
▁oynama
▁pazara
▁pekçok
▁retina
▁tabanı
▁tabiat
▁toksik
▁tutucu
▁çabası
▁ölümle
alkışlar
elisiniz
luyorlar
sünüzdür
▁Algorit
▁Senegal
▁artması
▁bahçesi
▁bileşik
▁birşeye
▁gelişir
▁görünse
▁gözardı
▁ikincil
▁katmanı
▁kurabiy
▁vaziyet
▁yollara
▁yüzleri
▁yüzyıla
▁Çalışan
▁çizgiyi
▁ölümden
▁öğrenin
ledikleri
▁Atmosfer
▁Muhammed
▁Sonradan
▁Williams
▁arttırır
▁bilinmez
▁dağıtmak
▁diyordum
▁ergenlik
▁ettiğimi
▁geçmişin
▁haritada
▁içinizde
▁işsizlik
▁kaldırdı
▁kartları
▁koruması
▁mesajını
▁pahasına
▁pazarlık
▁piyasada
▁psikopat
▁savaşlar
▁tahammül
▁tarımsal
▁yapmayın
▁yazıları
▁yollarda
▁yöntemin
▁Çinliler
▁çocuğunu
▁İletişim
▁Arabistan
▁annelerin
▁başlattım
▁boyutları
▁buralarda
▁değiştiği
▁doğuruyor
▁ediyorduk
▁ekleyerek
▁eylemleri
▁gelişimin
▁hayalleri
▁istasyonu
▁isteyerek
▁kafasında
▁kapatıyor
▁kullanmış
▁mantıksal
▁salondaki
▁savaşmaya
▁sevdiğini
▁tanımlaya
▁travmatik
▁türlerini
▁verilmesi
▁yaşamları
▁yaşandığı
▁yüzyıldan
ebileceğine
larımızdaki
▁Söylediğim
▁algılayıcı
▁anlatırken
▁araştırdım
▁benzemiyor
▁biliminsan
▁davranıyor
▁gelmeyecek
▁görebilmek
▁hemşireler
▁içeriyordu
▁keşfedildi
▁oyuncuları
▁resimlerin
▁sormalıyız
▁sınırların
▁verecektir
▁yaklaşıyor
▁öğrendiler
mayacaksınız
▁Mississippi
▁alındığında
▁ayrımcılığı
▁büyüklüğünü
▁değiştirdim
▁gazeteciler
▁genişletmek
▁hücrelerden
▁karmaşıktır
▁karıştırıcı
▁modellerini
▁sahiptirler
▁uğraşıyoruz
▁çıkarabilir
▁ülkelerinin
▁başkalarıyla
▁biliyorsanız
▁ilgilendiren
▁moleküllerin
▁okyanusların
▁sokaklarında
▁arkadaşlarını
▁başarısızlığa
▁bilmiyorlardı
▁düşündüğünüzü
▁gösteriyorlar
▁yaptıklarında
▁yerleştirilmiş
▁başladıklarında
12
Ay
CO
Se
jo
Öl
ıv
▁ü
Gör
VID
ehr
ihn
obs
oğa
riz
rok
tay
zan
▁8'
▁AG
▁Ob
▁SA
▁US
elli
henk
vali
▁16.
▁Arn
▁Dip
▁Law
▁Len
▁MRI
▁Nit
▁Oak
▁Oli
▁Sir
▁cay
▁tüc
▁vız
▁yığ
daydı
kalar
neyse
tapot
uvarı
Çünkü
ışkır
▁2020
▁Coca
▁Ders
▁Lisa
▁Peru
▁Sunu
▁TSSB
▁açıl
▁feet
▁gidi
▁plaj
▁sirk
▁tuza
▁Şang
Tanrım
cıklar
deyken
dirgin
iyeler
jderha
radaki
sadece
senize
yangoz
ızdaki
▁2004'
▁2017'
▁Harry
▁Johan
▁Kalan
▁Media
▁böler
▁cikar
▁delil
▁giysi
▁hâlen
▁ilgim
▁inmek
▁irdel
▁işime
▁kalka
▁kocam
▁kralı
▁larva
▁makro
▁netic
▁petro
▁sağır
▁tutuş
▁uçmak
▁yayan
▁yeğen
▁zihni
▁ölçen
▁Şarkı
▁şahsi
altında
emezdim
imalaya
lanırsa
mamızda
olojist
sterdam
▁20.000
▁Kutsal
▁Maymun
▁Müthiş
▁Philip
▁adımda
▁amigda
▁ayırıp
▁berber
▁bitmiş
▁dibine
▁erkeğe
▁erkeği
▁etrafı
▁fincan
▁geçişi
▁güldür
▁inanış
▁kampüs
▁kapağı
▁kapita
▁muayen
▁refahı
▁ruhani
▁sahada
▁sahası
▁sinaps
▁sunumu
▁tutkum
▁tıbbın
▁üretti
amıyoruz
ceğinizi
inebilir
tığımızı
▁Ekonomi
▁akışkan
▁anlayıp
▁arayüzü
▁arayışı
▁atlayıp
▁atomlar
▁açıları
▁bakışta
▁basıncı
▁bilişim
▁buluşma
▁cevabın
▁egzotik
▁ekledim
▁gençken
▁gerilim
▁geçirme
▁gözetim
▁hayrete
▁istirid
▁işlemci
▁kıtlığı
▁milyona
▁olmamın
▁polimer
▁sağlığa
▁severiz
▁taşınır
▁uyuşmaz
▁yatakta
▁yolumuz
▁zayıfla
▁ölmüştü
▁şarkısı
okimyasal
▁analitik
▁arıyorum
▁bahsedil
▁başlarız
▁besliyor
▁derlerdi
▁etkisine
▁etrafını
▁formları
▁geleneği
▁gerekeni
▁girdiler
▁görmeden
▁kaldığım
▁korunmuş
▁olmanıza
▁paraları
▁sindirim
▁tanışmak
▁tolerans
▁yaşanmış
▁yemeğine
▁yükselir
▁şaşırttı
▁şeylerdi
ilebilecek
lıyorlardı
▁alışılmış
▁anlatarak
▁döngüsünü
▁düşünceye
▁etmeyecek
▁gelişmesi
▁kanıtları
▁maymunlar
▁olmasıyla
▁saniyelik
▁soruyoruz
▁söylerdim
▁tasarladı
▁türlerine
▁yapmaktır
▁yapıların
▁yılındaki
▁öğrenmesi
▁şanslıyım
▁Bulduğumuz
▁bakıyordum
▁balıkların
▁bulabilmek
▁fotosentez
▁galaksiler
▁geliştiren
▁gerekliydi
▁iyimserlik
▁kuralların
▁kuvvetleri
▁olmaktadır
▁sanatçının
▁sistemiyle
▁sorduğunda
▁yapmalıyım
▁yaratılmış
▁akademisyen
▁anlamalıyız
▁bağımlılığı
▁değiştirmiş
▁görüşlerini
▁hapishanede
▁vatandaşlık
▁çalışmalara
▁öğrenebilir
▁ürettiğimiz
▁belirleyecek
▁duyduğunuzda
▁görmediğimiz
▁kurtarabilir
▁mühendisleri
▁sistemindeki
▁öğrencilerle
▁araştırmacısı
▁konuşmalarını
▁derinliklerine
▁gidebilirsiniz
▁organizmaların
▁derinliklerinde
Ma
mu
Tüm
cat
his
jik
oln
uer
öly
▁72
▁AR
▁SD
▁Uk
▁Wi
▁üc
Beat
arşi
ater
ceye
cini
dine
ezon
iral
last
msar
oluk
osev
ouse
tüst
uyuc
wart
ysam
▁Fas
▁Kus
▁Mir
▁Sci
▁Tri
▁kub
▁sus
▁zam
▁zan
Bakın
athan
delen
icdan
ilmis
leler
manya
metik
tifak
ullar
▁Böyl
▁Chan
▁Oper
▁Orle
▁Pant
▁Tren
▁ambu
▁mega
▁mevs
▁sars
▁term
▁vaaz
▁vade
aranın
bildim
ebildi
elikli
iğinin
luktan
olitik
▁2006'
▁Bizde
▁Böcek
▁COVID
▁Parti
▁Simon
▁Stres
▁Uygun
▁Venez
▁Yatak
▁Yüzey
▁affet
▁alıko
▁aygıt
▁cenaz
▁evime
▁izlet
▁konul
▁kuruş
▁labir
▁motif
▁müdah
▁simdi
▁sürat
▁uyuya
▁varil
▁yorul
▁zulüm
▁Özgür
▁çatal
▁ölçüt
anızdan
bilimci
iyorduk
lemeler
olojide
ozisyon
ulmuştu
▁Annesi
▁Beklen
▁Cidden
▁Mümkün
▁atılım
▁açarak
▁bekley
▁beyine
▁biteni
▁bulutu
▁cüzdan
▁etmemi
▁ihanet
▁inatçı
▁istifa
▁iyiyim
▁kitaba
▁köpeği
▁kırmak
▁lastik
▁miydik
▁orduya
▁periyo
▁teşebb
▁vaktim
▁yürüme
▁çağına
▁ölçüsü
▁özenle
▁İşleri
mamıştım
▁Akdeniz
▁Snowden
▁almakta
▁avukatı
▁babalar
▁balığın
▁dişiler
▁dönemli
▁edeceği
▁ekliyor
▁enstitü
▁geçirip
▁giderse
▁girerim
▁hakikat
▁intikam
▁isteyip
▁iyiliği
▁plasebo
▁prostat
▁seroton
▁sığınak
▁tehdidi
▁umursam
▁yükseğe
▁çevreci
▁İskoçya
▁Şimdiki
▁şeyimiz
▁Benjamin
▁Hepsinin
▁anlamayı
▁besleyen
▁bilimler
▁bitmeyen
▁bulgular
▁bırakmış
▁eğlendir
▁gönderme
▁gösterip
▁hepinize
▁hücresel
▁istersem
▁işlemler
▁kaybolur
▁kendimin
▁kutuları
▁kıymetli
▁memnunum
▁merkezde
▁pankreas
▁pürüzsüz
▁sitesine
▁sizsiniz
▁suçlular
▁suçluluk
▁talihsiz
▁tasarıma
▁tutkuyla
▁tırmanış
▁vermeniz
▁çözmemiz
▁şehrinin
▁Instagram
▁anlaşmaya
▁ayaklanma
▁bağımlısı
▁bulacağız
▁değerlere
▁değişecek
▁dürüstlük
▁fırtınası
▁gösterisi
▁hangisini
▁ifadeleri
▁kaynaktan
▁kelimeyle
▁kollektif
▁oyunların
▁sıkıntılı
▁tamamının
▁tepkileri
▁yaklaştır
▁yargılama
▁yönlerden
▁zamanlara
▁çeşitleri
▁Neandertal
▁alışverişi
▁araçlarını
▁bakarsınız
▁balıkçılık
▁bulduğunuz
▁depresyona
▁geldikleri
▁görmüyoruz
▁inandırıcı
▁istiyorduk
▁kardeşimin
▁konuşmuyor
▁ormanların
▁parçasıydı
▁sanıyordum
▁senkronize
▁seviyorlar
▁söyleyemem
▁yaptığımda
▁zincirinin
▁üretebilir
▁farkındayız
▁kullanmanın
▁okyanusları
▁olabilirsin
▁olmadığında
▁parçalarına
▁sınırlandır
▁uygulamanın
▁yapılmıştır
▁duyuyorsunuz
▁ekonomisinin
▁geldiklerini
▁gösteriliyor
▁hastalığının
▁merkezindeki
▁topluluklara
▁topluluğunun
▁yaşıyorsanız
▁çocuklarınız
▁düşünmemiştim
▁kullanırsanız
▁teknolojilere
▁unutmayacağım
▁çıkarabiliriz
▁biliyorsunuzdur
▁hissettirdiğini
▁laboratuvarımda
Or
Po
Hay
Kız
Sev
cou
değ
dif
giz
hew
obo
oda
sağ
söz
zen
▁54
amet
diya
etle
etta
geni
imce
miye
oksi
star
tanı
uper
▁Aşı
▁Bud
▁Gam
▁Hil
▁Kes
▁PMS
▁Tru
▁esn
▁iri
▁nem
▁ney
▁ted
▁tir
▁tüf
Belki
Kadın
badet
beyaz
ganın
iklik
ister
işini
muşuz
▁1990
▁Cape
▁Dair
▁Derg
▁Nesn
▁Rick
▁Risk
▁ivme
▁krip
▁kurg
▁köye
▁öder
cesine
couver
elenen
emezdi
lamadı
laşmak
siyonu
tmakta
▁Cunku
▁Demir
▁Dönüş
▁Mahal
▁Maria
▁Michi
▁Parkı
▁Prote
▁arkam
▁bayra
▁donat
▁durma
▁gözün
▁iliği
▁karım
▁kireç
▁klişe
▁kucuk
▁kulüp
▁kökün
▁kışın
▁serin
▁sinsi
▁sunar
▁tahri
▁tekil
▁varım
▁vuran
▁İlişk
Aslında
ilirken
önesans
▁Konfer
▁Sizler
▁Teknik
▁aklını
▁bakışı
▁balonu
▁boyuta
▁gecesi
▁havuzu
▁iniyor
▁iyiyiz
▁katmak
▁koşmak
▁olayda
▁olmamı
▁ortağı
▁seyler
▁yürüte
▁çekmiş
▁Şehrin
lamaktan
▁Bugünün
▁Nereden
▁altıncı
▁artacak
▁azalttı
▁aşaması
▁bağları
▁başkent
▁bilimle
▁bulması
▁düşürür
▁gruptan
▁kadındı
▁kaplama
▁kargaşa
▁katkısı
▁metreye
▁milyara
▁sevgiyi
▁tasarim
▁tepkiyi
▁uygulan
▁uzlaşma
▁yazacak
▁yazıldı
▁yetkili
▁yüzeyin
▁zorlama
▁çekilip
▁çizgili
▁önünden
▁öğretme
▁ücretli
elerimizi
▁Beyniniz
▁Duygusal
▁McDonald
▁adımları
▁alakasız
▁baktığım
▁beslenen
▁detaylar
▁edebilme
▁ellerine
▁eğlencel
▁floresan
▁formunda
▁görmemiz
▁götürdüm
▁gözünden
▁haftason
▁huzursuz
▁işçileri
▁kanunlar
▁kavuştur
▁kilogram
▁konulara
▁korkuyor
▁kurduğum
▁mucizevi
▁müfredat
▁mütevazi
▁olamazdı
▁oynamayı
▁polisler
▁sebepler
▁sektörde
▁seslerin
▁sonucunu
▁tedirgin
▁uygunsuz
▁yaratmış
▁zorluyor
▁ürünlere
▁şehirden
▁Amsterdam
▁Yahudiler
▁alanından
▁almalıyız
▁alıyordum
▁anlatılan
▁büyüdüğüm
▁duruyorum
▁düşünceli
▁elektriği
▁gönderdik
▁konsantre
▁meseleler
▁oradaydım
▁programcı
▁sonlarına
▁sözlerini
▁verilecek
▁yapamıyor
▁yaşamının
▁çalışabil
▁çocuğunun
▁anlamamızı
▁artırılmış
▁bakmalıyız
▁bağlanıyor
▁döndüğünde
▁düşündünüz
▁dışarıdaki
▁ediliyordu
▁etmiyorlar
▁getirilmiş
▁kaydediyor
▁kazandırdı
▁kültürleri
▁numaraları
▁olmamasına
▁oluşuyordu
▁pencereden
▁sağlığımız
▁sözcükleri
▁toplulukta
▁vermeyecek
▁çıkıyorlar
▁bırakıyorum
▁düşüncesini
▁etkileşimli
▁fikirlerden
▁gazetecilik
▁genelindeki
▁gezegenimiz
▁geçiriyoruz
▁hayallerini
▁materyaller
▁olasılıklar
▁oluşturuldu
▁tartışmanın
▁ulaştığında
▁ultraviyole
▁verebilirim
▁yarayabilir
▁beklediğimiz
▁dönüştürüyor
▁geliştirdiği
▁girişimcilik
▁hizmetlerini
▁konuştuğumda
▁olmadığımızı
▁saniyeliğine
▁yapacağınızı
▁gerçekleşecek
▁gördüklerinde
▁görüntülerini
▁ihtiyaçlarına
▁kaynaklarının
▁problemlerini
▁arkadaşlarınız
▁istatistikleri
▁rehabilitasyon
▁yapabildiğimiz
.,
Kö
bl
ds
vı
Ön
-19
11'
60'
Teş
ake
alo
düş
ico
ilk
itz
kul
kun
lez
nif
ows
see
unt
vey
▁43
▁AK
▁JS
▁LA
▁UV
▁Un
▁üf
chus
ding
eron
frey
galı
itch
male
sina
siya
tist
uklu
uruz
ösem
ımsı
▁15'
▁Cok
▁Fir
▁Hel
▁Ore
▁YNH
▁Yor
▁bis
▁faş
▁maa
▁ova
▁ped
▁sir
aliba
angel
aryen
dünya
fakat
luyuz
madde
makar
okulu
trans
tüler
ılgın
▁Aram
▁Elon
▁GSMH
▁Gala
▁Gazz
▁Kart
▁Kişi
▁Lego
▁Sarı
▁Yolu
▁cami
▁kuma
▁peda
▁soyu
▁tabu
▁üzül
dakine
emeden
incoln
memeli
teyken
çilere
ülerek
▁1998'
▁3.000
▁5.000
▁Aşama
▁Bırak
▁Marie
▁Satür
▁Tipik
▁Yürüy
▁adıma
▁alışı
▁araca
▁belge
▁diger
▁enkaz
▁epide
▁galon
▁harap
▁ithal
▁katar
▁kurar
▁kıkır
▁melek
▁menfa
▁mevzu
▁neyle
▁param
▁sivri
▁takas
▁tekne
▁telek
▁vasıf
▁yaydı
▁Çatış
▁çayır
▁ürüne
eleştir
lanırdı
laşmayı
meyelim
tukları
▁Babası
▁Bakanı
▁Lester
▁Milyar
▁aşikâr
▁garson
▁gezgin
▁giydir
▁güzerg
▁hapset
▁hortum
▁inanma
▁istism
▁itiyor
▁işinin
▁kafayı
▁kapsül
▁karada
▁kesici
▁kumsal
▁memuru
▁mercek
▁odadan
▁ormana
▁pekala
▁sevmek
▁suyunu
▁tarayı
▁tümörü
▁tümünü
▁yapboz
▁yemeyi
▁yetişk
▁çizelg
▁ölçeği
▁ıstıra
emiyordu
eyebilir
luğundan
mişlerdi
▁Babamın
▁Ekranda
▁Günümüz
▁Hawking
▁Konseyi
▁Meydanı
▁Orleans
▁arıları
▁bağlama
▁bağlana
▁büyümek
▁delilik
▁dengede
▁erişmek
▁fırsata
▁göründü
▁habitat
▁isimler
▁kayıtlı
▁kurduğu
▁maddeye
▁medyaya
▁pigment
▁reklamı
▁tekstil
▁teoriyi
▁tutmayı
▁yakalan
▁yaparsa
▁yaşayıp
▁yetişen
▁Üzerine
▁Üzgünüm
▁öyleydi
▁Dünyamız
▁Farkında
▁Michigan
▁Standart
▁atomları
▁atıkları
▁belirten
▁birleşim
▁bulmanın
▁ciddiyet
▁demiştir
▁destekli
▁devrimin
▁durumdur
▁düzenler
▁dışından
▁eksiksiz
▁etmediği
▁geçirmez
▁gibiydim
▁haklıydı
▁istemedi
▁kablolar
▁kalabalı
▁kasabada
▁korkunun
▁kuruluşu
▁kutlamak
▁modeline
▁okuyarak
▁optimize
▁organlar
▁savunmak
▁sormamız
▁söylesem
▁sınıftan
▁tanımını
▁toplumla
▁uygarlık
▁yapmadım
▁yiyeceği
▁zamanımı
▁zarfında
▁çıkarlar
▁çıkmadan
▁üstünlük
emediğimiz
laştırıyor
▁Avusturya
▁Vancouver
▁kaynağına
▁listesini
▁ortaklaşa
▁robotlara
▁süpernova
▁takımının
▁türümüzün
▁yaklaşıma
▁yaratılan
▁yediğimiz
▁yemeğinde
▁yozlaşmış
▁yönlerini
▁ölümlerin
▁şanslıyız
▁Gördüğümüz
▁anlattılar
▁aydınlatma
▁beklentisi
▁birbirinin
▁bölgelerin
▁dönüştürme
▁ebeveynlik
▁fazlasının
▁haklarının
▁hazırladım
▁karşılaştı
▁konuşmamın
▁listesinde
▁oluşmasına
▁paylaşıyor
▁teorisinin
▁toplantıda
▁yapacaklar
▁yaratmanın
▁Kütüphanesi
▁anladığımız
▁bazılarımız
▁beklenmeyen
▁biyolojinin
▁devletlerin
▁dünyasından
▁ebeveynleri
▁eşitsizliği
▁gerçeklikle
▁görevlileri
▁kahramanlar
▁olmadığınız
▁süpermarket
▁çalışmasına
▁çiftçilerin
▁canlandırmak
▁diğerleriyle
▁düşüncelerin
▁gittiğimizde
▁görüntülerin
▁hesaplamalar
▁konuşuyordum
▁kullanmaları
▁malzemelerin
▁yoksulluktan
▁çalıştığınız
▁birbirimizden
▁destekleyecek
▁istediğinizde
▁özelliklerine
▁üniversiteden
vo
Dav
rov
utu
vas
zir
Şey
▁4,
▁46
▁JM
▁gu
bına
hane
lıma
pati
usuf
uzel
zibe
▁Bom
▁Buy
▁Coh
▁Gab
▁Pin
▁Pit
▁alç
▁fas
▁fıs
▁imz
▁kao
▁mız
▁nek
▁püf
▁yoğ
amanı
dunun
lemem
mezdi
okrat
teler
ursuz
wanda
▁Bahç
▁Kath
▁Kudü
▁Küba
▁Shan
▁Ston
▁Uyku
▁arda
▁azar
▁espr
▁feci
▁kaçı
▁mail
▁mola
▁sata
▁sığa
▁zana
▁önse
▁ücra
▁ırkı
▁Şaka
▁şara
Afrika
dileri
umdaki
ılarak
▁2001'
▁2018'
▁Aydın
▁Craig
▁Gayet
▁Kağıt
▁Susan
▁Virüs
▁açgöz
▁balin
▁cihad
▁döviz
▁edeme
▁girme
▁gömül
▁ishal
▁kabin
▁kısma
▁kısmi
▁liter
▁makar
▁mayın
▁muhab
▁satma
▁sevdi
▁sicim
▁stüdy
▁tasav
▁tükür
▁vakum
▁veter
▁yağış
▁ziyan
▁çakış
▁çürüt
▁önlen
iliğine
lanmadı
okortek
▁Devrim
▁Galile
▁Gökyüz
▁Herkül
▁Kahire
▁Kızlar
▁Satürn
▁Yağmur
▁aklımı
▁bodrum
▁cezaev
▁düştük
▁edilme
▁ekledi
▁güçtür
▁işiniz
▁karton
▁kondom
▁neslin
▁oranın
▁ordusu
▁oylama
▁paketi
▁terket
▁türüne
▁ulaşıp
▁umudum
▁vicdan
▁yürüdü
▁zevkli
▁Önceki
▁İtiraf
enizdeki
ıştırıcı
▁Aslinda
▁Lincoln
▁Tiyatro
▁anaokul
▁arkamda
▁bilecek
▁bularak
▁cihazın
▁dinleye
▁döküman
▁farenin
▁fiziğin
▁geminin
▁geçmeyi
▁gibiyiz
▁girerek
▁görmedi
▁hızının
▁işveren
▁kapının
▁kediler
▁kiminle
▁kodlama
▁konuşul
▁konuşup
▁koyalım
▁oldunuz
▁pazarda
▁petrole
▁sayfayı
▁senelik
▁sinirli
▁stajyer
▁tahliye
▁yaratıp
▁yaşamda
▁yaşantı
▁zirveye
▁çiftler
iliyorlar
ilmesinin
makarışık
▁Suriyeli
▁Toplumun
▁Yıllarca
▁anneleri
▁annesine
▁bakımdan
▁başarısı
▁başlandı
▁başlatan
▁bekleyin
▁büyütmek
▁dayandır
▁doğduğum
▁fırsatım
▁gelenler
▁grubunda
▁gönderen
▁güvenmek
▁hayatıma
▁işlevini
▁kadardır
▁kalanına
▁kalbinde
▁kapıları
▁kapısını
▁kelimeye
▁konudaki
▁korumayı
▁lojistik
▁mücevher
▁nedenler
▁nitrojen
▁objektif
▁ormanlar
▁sahiptim
▁sesimizi
▁sürerken
▁süresini
▁tanrılar
▁tuvalete
▁ulaştığı
▁yaşlılar
▁yemekler
▁zorlukla
▁çizimler
▁çocuktum
elerimizin
mayacağımı
▁Cumartesi
▁anksiyete
▁anlaşılma
▁arıyorlar
▁ağırlıklı
▁bahsetmiş
▁belirleme
▁doldurmak
▁doğasının
▁etrafımda
▁farkettik
▁fikrinden
▁getirmesi
▁gideceğim
▁gönderdim
▁göremiyor
▁görmenizi
▁haritalar
▁kardeşler
▁kavramlar
▁konuşulan
▁olmamızın
▁perakende
▁resimdeki
▁sensörler
▁uğraşıyor
▁vermeleri
▁yaratıldı
▁yeniliğin
▁zamanlama
▁örneğidir
▁öğretilen
ladıklarını
layabilirim
▁Olağanüstü
▁ailelerine
▁alanlardan
▁almalarını
▁aramızdaki
▁bölgesinin
▁dalgaların
▁doktorları
▁duruyorlar
▁gökyüzünün
▁görüyordum
▁insanlarin
▁kaldırarak
▁karşılaşma
▁korkuyorum
▁oynadığını
▁saldırılar
▁seleksiyon
▁tarafindan
▁toplantısı
▁yarattılar
▁zorluklara
▁ailelerinin
▁dalgalarını
▁hayvanlarla
▁kitaplarını
▁konferansta
▁merkezinden
▁olacağımızı
▁olmalarıdır
▁oyuncuların
▁proteinleri
▁semptomları
▁stratejiler
▁teknolojide
▁vermelerini
▁yarattığını
▁zamanlardan
▁zamanlarını
▁çıkarıyoruz
▁öğretmenlik
▁Araştırmalar
▁atalarımızın
▁dayanıklılık
▁ebeveynlerin
▁edilemeyecek
▁ettiklerinde
▁geliştirilen
▁rahatsızlığı
▁heteroseksüel
▁kullanmalıyız
▁olamayacağını
▁vücudumuzdaki
▁büyüklüğündeki
▁değişikliklere
▁değiştiriyoruz
▁sağlayabilecek
▁tasarladığımız
▁tasarımcıların
▁verebilirsiniz
▁bulabileceğiniz
Ap
Di
HA
-20
Kon
chi
hom
kes
tha
vis
zem
üny
▁AS
▁Wa
▁ög
anny
cher
eria
gazm
rarı
yani
ysak
ysan
yışı
▁Bru
▁Düğ
▁Hid
▁Jor
▁Kle
▁Las
▁asf
▁cek
▁ego
▁füz
▁hib
▁lin
▁lit
▁otu
▁rev
▁Ölç
▁çör
ardon
bucks
cınız
deksi
dığın
ferin
küler
orado
rayna
siyel
yanin
çları
▁1960
▁2001
▁500'
▁Bali
▁Fred
▁Jama
▁Kent
▁Lord
▁Uçak
▁Yapı
▁açın
▁fuar
▁tost
▁övgü
sosyal
▁Cyrus
▁Hindu
▁Karak
▁Kayıt
▁Kudüs
▁Nokta
▁Radyo
▁Santa
▁Selam
▁Yeten
▁acele
▁atöly
▁benze
▁bunal
▁edene
▁final
▁gidil
▁gitar
▁güler
▁hamam
▁havza
▁içgör
▁kanlı
▁kariy
▁katta
▁marih
▁oluna
▁saman
▁soran
▁sosyo
▁sular
▁sürüm
▁süslü
▁tıpta
▁uyuma
▁yahut
▁yatar
▁çifte
▁çorap
▁üstel
▁ıssız
▁şahıs
luyoruz
osevelt
▁Ailesi
▁Hayatı
▁Kansas
▁Mumbai
▁Platon
▁School
▁aileme
▁akılda
▁alanım
▁bakanı
▁binada
▁bulunu
▁cazibe
▁demesi
▁edemem
▁evimde
▁eşinin
▁fışkır
▁gitsin
▁iletir
▁kanaat
▁kaslar
▁koktey
▁kuramı
▁muamel
▁nesile
▁ofiste
▁peşine
▁tabela
▁tepede
▁uçağın
▁yapsak
▁yoldur
▁zannet
caksınız
lamamıza
▁Bizimle
▁Muazzam
▁Patrick
▁Ukrayna
▁Uyuştur
▁anlarda
▁ayrılık
▁açılmış
▁aşamalı
▁bakarız
▁basitti
▁bilmesi
▁cemiyet
▁cesurca
▁doğadan
▁duracak
▁dönerek
▁düşmeye
▁ekranın
▁embriyo
▁etmedim
▁eğitmen
▁getirin
▁görerek
▁güvence
▁hâliyle
▁kadardı
▁kötüdür
▁minicik
▁savunan
▁soğutma
▁tuttuğu
▁unuttum
▁uydular
▁verirdi
▁videoya
▁çözünür
▁çıkagel
amıyorlar
▁Amacımız
▁Eşcinsel
▁Topluluk
▁aldıktan
▁aşağıdan
▁başlayın
▁deneyime
▁döndüler
▁göremeye
▁götürdük
▁gücümüzü
▁hakkımda
▁hikayemi
▁hipotezi
▁kategori
▁kitaptan
▁köşesine
▁muhabbet
▁operatör
▁paradoks
▁programa
▁salınımı
▁sevginin
▁takımlar
▁teoriler
▁uzaklara
▁yakıtlar
▁çekerken
▁ısınmayı
leştiriyor
▁Roosevelt
▁aklımızda
▁avukatlar
▁ayrılıyor
▁basamaklı
▁başlarken
▁bebekleri
▁besinleri
▁besleyici
▁birisiyle
▁büyükanne
▁bırakıldı
▁danışmanı
▁dayanışma
▁diliminde
▁duruyoruz
▁etkisiyle
▁görünecek
▁görünüşte
▁hamburger
▁herşeyden
▁içindedir
▁işlemleri
▁literatür
▁malzemeyi
▁modelinin
▁nitelikli
▁olurlarsa
▁salyangoz
▁tohumları
▁vücudunda
▁yapımında
▁yaşamakta
▁yönetilen
▁yüzlerini
▁çalıştıra
▁çıkararak
▁öğrendiği
▁üzerimize
ebildiğimiz
mayacağınız
▁aydınlanma
▁basmakalıp
▁birşeyleri
▁büyüdüğünü
▁dikdörtgen
▁edilmesine
▁faktörleri
▁görmüyorum
▁görüntünün
▁görürseniz
▁haftalarca
▁hesaplamak
▁içimizdeki
▁içlerinden
▁kapitalist
▁merkezinin
▁mikropları
▁olacakları
▁prefrontal
▁uzmanların
▁verebilmek
▁yapacaksın
▁yükseltmek
▁çiftçilere
▁çocuklarda
▁öğretmenim
▁üretkenlik
▁anlaşmazlık
▁belirleyici
▁durumlarını
▁ekonomisine
▁ihtimaliniz
▁ilişkilerin
▁imkansızdır
▁olduğumuzun
▁olmalarının
▁taşıyabilir
▁çalışmaktan
▁bölgesindeki
▁değiştirmeyi
▁düşünüyorduk
▁girdiğinizde
▁istemiyordum
▁kalınlığında
▁kapasitesini
▁kaybediyoruz
▁koordinasyon
▁sinyallerini
▁stratejileri
▁toplumumuzun
▁verdiğinizde
▁yakınlarında
▁yapmalısınız
▁çocuklarıyla
▁hatırlarsınız
▁istatistikler
▁oluşturuyoruz
▁öğrencilerinin
AC
Ge
OS
PT
aç
ls
tz
-10
75'
Gün
emb
lip
ops
ory
yam
▁74
▁Mr
▁co
▁zo
esek
ihin
oyak
para
sani
sayı
urdu
urum
uzun
uçuk
yana
▁188
▁Gür
▁Hor
▁Moğ
▁Oto
▁Vic
▁biş
▁faj
▁müh
▁ras
▁sih
▁soz
▁spa
▁tet
▁vay
Point
irsin
sızca
▁2003
▁Acil
▁Cent
▁Marg
▁Musa
▁News
▁Penn
▁Rosa
▁Ross
▁Sırf
▁Wind
▁arma
▁askı
▁cent
▁evre
▁kain
▁mamm
▁peri
▁tonu
▁Çağı
▁çeyr
elerim
ulacak
ustaki
▁Alice
▁Kabil
▁Krist
▁Metro
▁Pitts
▁Yunus
▁abart
▁azını
▁bambu
▁bucak
▁daimi
▁delir
▁emsal
▁gribi
▁gündü
▁kaçtı
▁kesme
▁komit
▁kârlı
▁minim
▁nakil
▁pasta
▁rahim
▁stere
▁yapti
▁yetin
▁Ürdün
▁çeşid
▁şoför
Seyirci
diliyor
elerdir
eliğini
gilizce
inekler
lenmeye
malıydı
olojiye
tılıyor
yalılar
ğınızın
▁Aniden
▁Bizden
▁Cevabı
▁Rwanda
▁Tarihi
▁Walter
▁almadı
▁annemi
▁değnek
▁güneşe
▁ibadet
▁işleye
▁kapana
▁karaya
▁kokain
▁konsep
▁krater
▁kutuda
▁kürtaj
▁nüfusa
▁olaydı
▁olayım
▁oynadı
▁raporu
▁romant
▁soldan
▁stabil
▁sunduk
▁yatağı
▁çarptı
▁ödüyor
▁ücreti
ladıktan
tırılmış
▁Birçoğu
▁Derneği
▁Hiçbiri
▁Madison
▁Yönetim
▁aracını
▁azaltan
▁babanın
▁barınma
▁bulamaz
▁bulaşık
▁elastik
▁eldiven
▁enerjik
▁etmemiş
▁fısılda
▁gelirin
▁gururla
▁hücreyi
▁ilkokul
▁kalarak
▁kalbine
▁katılın
▁komutan
▁konudan
▁kutular
▁nanopar
▁olandan
▁paramız
▁partiye
▁sarsıcı
▁sayfaya
▁seçiyor
▁tanecik
▁telomer
▁ulaşama
▁ulaşmış
▁uykunun
▁uçarken
▁veriyle
▁vücutta
▁yanılma
▁yapamam
▁yaptıra
▁yazarak
▁yazarın
▁yazması
▁örnekle
▁Kültürel
▁Söylemek
▁anlığına
▁açıklığa
▁ağacının
▁beklenti
▁benimsen
▁duyarlar
▁eleştiri
▁etmiştir
▁gençleri
▁gerçekle
▁gitmeniz
▁grubunun
▁haftadan
▁harfleri
▁haritayı
▁hepinizi
▁hipokamp
▁hücreden
▁kanserli
▁karışmış
▁kesilmiş
▁keşfeden
▁kıvılcım
▁lezbiyen
▁mikrobik
▁mimarlar
▁niteliği
▁okulunda
▁orantılı
▁parçadan
▁rahatlık
▁sistemle
▁süreçten
▁tahminde
▁taşımaya
▁uzerinde
▁uzunluğu
▁yapmamak
▁yerçekim
▁yönünden
▁zihnimde
▁çıkarttı
▁önceleri
▁önderlik
▁üretmeyi
▁şeklinin
lamalarını
▁Anlaşılan
▁Başarısız
▁ailesiyle
▁anlamanız
▁bahsettik
▁becerikli
▁biliminin
▁boşluklar
▁cinsiyete
▁genişliği
▁gökyüzünü
▁görmesini
▁görüntüye
▁görünümlü
▁gözlerimi
▁hedeflere
▁imkanları
▁izliyoruz
▁koalisyon
▁kısmından
▁liderliği
▁listesine
▁mikrodalg
▁rakamları
▁sebebiyet
▁toplumdan
▁topraktan
▁yanımızda
▁yaratmayı
▁yaratılış
▁yönetimin
▁çabalıyor
▁çıkartmak
▁özgürlüğe
▁ülkemizde
layacağınız
▁Gelişmekte
▁araçlardan
▁ayakkabısı
▁boşlukları
▁cihazların
▁değerlerin
▁doktorlara
▁etmelerine
▁gelişmenin
▁hangisinin
▁hazırlıklı
▁karışıklık
▁koyuyorlar
▁mücadelede
▁mücadeleye
▁olanakları
▁sağladılar
▁silahların
▁söyleyebil
▁sınıflarda
▁vereceğini
▁yapabildik
▁yaşayanlar
▁çözümlerin
▁Müslümanlar
▁arkadaşınız
▁azaltabilir
▁bacaklarını
▁bırakacağım
▁dönüşebilir
▁düşüncelere
▁kazandırmak
▁prensipleri
▁sorgulamaya
▁başlayabilir
▁dönüştürmeye
▁geçiriyorlar
▁gösterdiğini
▁karikatürist
▁karmakarışık
▁kazanıyorlar
▁mültecilerin
▁tanıştığımda
▁şirketlerden
▁arkadaşlarımı
▁başlangıcında
▁gönderiyorlar
▁hissettikleri
▁kendilerinden
▁keşfedilmemiş
▁potansiyeline
▁adlandırılıyor
▁başladığınızda
▁değiştirdiğini
▁teknolojilerle
▁çalışıyorsanız
▁düşüncelerimizi
▁kullanıyorsunuz
)"
-5
bn
ata
ekâ
fel
ife
mün
nec
oks
çağ
▁0,
▁9'
▁Ef
▁Eg
▁HA
▁IP
▁ch
Talk
ania
ansa
ayak
bana
chan
eyfi
gına
mann
mpar
orun
reti
riel
önük
▁11'
▁13.
▁185
▁Anı
▁Lee
▁Syl
▁ant
▁fem
▁hin
▁hoc
▁küs
▁lüt
▁nın
▁peç
▁zed
▁üçe
bunun
dirim
eytin
gedan
ildik
izona
iştim
latma
ranın
üsüne
▁1950
▁Araç
▁Augu
▁Dave
▁Hill
▁Pete
▁cuma
▁daim
▁ekle
▁inen
▁içen
▁kafe
▁kaşı
▁kont
▁mani
▁pomp
▁safi
▁tayf
▁uret
▁yüce
▁Özür
▁ışıl
angelo
bülans
chuset
ferson
hidrat
landir
muşlar
saurus
tırken
ılmayı
▁2003'
▁2050'
▁Ameli
▁Carne
▁Dalga
▁Diego
▁Diyor
▁Eylem
▁Gazze
▁Günün
▁Kongr
▁Molek
▁Nüfus
▁Tanış
▁Yirmi
▁attık
▁ağına
▁boylu
▁buzda
▁ceket
▁düğme
▁hazin
▁hücum
▁kalir
▁kemiğ
▁keşiş
▁mamut
▁metni
▁muhak
▁okuna
▁partn
▁yalın
▁çetin
▁örneğ
▁Şehri
eğinizi
meliydi
tüğünde
ılmadan
▁30.000
▁Dallas
▁Hırist
▁Mantar
▁Meksik
▁Mercan
▁Oregon
▁Sigara
▁Siyasi
▁anılar
▁beşeri
▁dalgıç
▁deliği
▁ekranı
▁eziyet
▁hapsol
▁hoşuna
▁kalemi
▁krizin
▁kıtada
▁nötron
▁saatin
▁santra
▁saymak
▁sorgul
▁tesisi
▁uğradı
▁vurmak
▁yatağa
▁ızgara
▁ışıkta
ünebilir
▁100,000
▁Arizona
▁Beşinci
▁Doğanın
▁Endüstr
▁Kraliçe
▁Muhabir
▁Sanatçı
▁TEDTalk
▁Tanrısı
▁Yabancı
▁alacağı
▁calisma
▁değerin
▁dolardı
▁dönemin
▁edersin
▁geometr
▁gülümse
▁gülüyor
▁güzelce
▁katliam
▁kaydını
▁kaçınma
▁nikotin
▁notları
▁objeler
▁oluştuğ
▁planlar
▁simgesi
▁tanıtım
▁tanışma
▁uzaydan
▁yakının
▁yapardı
▁yapınca
▁yarayıp
▁Çeşitli
▁Ülkenin
▁çıkabil
▁ölçmeye
eceğinden
landıktan
lanıyoruz
liklerini
ologların
▁Himalaya
▁adaletin
▁arayarak
▁arıların
▁bölümüne
▁cehennem
▁dondurma
▁evlenmek
▁eylemler
▁fikriniz
▁gardiyan
▁görüşünü
▁harcamış
▁hatırlar
▁ibaretti
▁ifadeyle
▁içerdiği
▁işlerden
▁jeolojik
▁kiliseye
▁korkusuz
▁korkuyla
▁kurgusal
▁numarayı
▁oluşması
▁pahalıya
▁sonbahar
▁süreçler
▁sıkışmış
▁tarihine
▁temelden
▁tutarsız
▁yaşların
▁yetisini
▁yüzeysel
▁şarkının
▁şaşırdım
layacaktır
mıyorlardı
▁Sovyetler
▁altyapıyı
▁bireylere
▁biyoçeşit
▁delikanlı
▁dikkatimi
▁dokunuyor
▁durgunluk
▁eşliğinde
▁faydalana
▁geliyorsa
▁geçiyordu
▁görünmesi
▁göstermiş
▁gözlemler
▁içindeler
▁kaplanmış
▁kitabının
▁koşullara
▁kuruyoruz
▁mantarlar
▁mimarinin
▁problemle
▁salonunda
▁saniyenin
▁sayılarla
▁seçiyoruz
▁sigortası
▁sonuncusu
▁sözcükler
▁sınırında
▁telefonda
▁uyandıran
▁yaşadılar
▁yükselişi
▁çevrilmiş
▁çılgınlık
▁PowerPoint
▁alakalıdır
▁alçakgönül
▁bakteriyel
▁belirledik
▁bilgilerle
▁böceklerin
▁destekledi
▁duyuyorlar
▁düşünmeniz
▁günlerinde
▁işbirlikçi
▁kapsamında
▁nedenlerle
▁olmayacağı
▁onurlandır
▁paylaşarak
▁planlaması
▁sahipseniz
▁sandalyeye
▁seviyeleri
▁seçimlerin
▁soruşturma
▁tasarımlar
▁yanlarında
▁üyelerinin
▁anlatabilir
▁ayakkabılar
▁balinaların
▁belirlenmiş
▁edeceğimizi
▁enerjisiyle
▁ilerlemeler
▁ilerliyoruz
▁parçalardan
▁potansiyele
▁seviyelerde
▁sonuçlarına
▁sorunlarına
▁tanıdığınız
▁yapmıyorlar
▁örneklerden
▁örneklerini
▁özgürleştir
▁özgürlüğünü
ebiliyorsunuz
▁becerilerini
▁bulacaksınız
▁dönemlerinde
▁ekonomistler
▁geliştirecek
▁geliştiriyor
▁gezegenimizi
▁harcadığımız
▁kilometrelik
▁çeşitliliğin
▁öğrendikleri
▁arkadaşlarıma
▁başarabiliriz
▁bilmiyorsanız
▁heyecanlıydım
▁çeşitliliğini
▁şekillendiren
▁düşünüldüğünde
▁gerçekleştiren
▁yapabiliyorlar
):
7.
Fi
Mo
ano
bes
cim
olm
tia
vit
▁",
▁7'
▁Aj
▁CN
▁DJ
▁DS
▁ED
▁JA
▁Ky
▁Ul
alın
barı
buna
geri
guel
gını
plan
▁99'
▁ALS
▁Ful
▁Lok
▁Num
▁SMS
▁Toy
▁bio
▁cıv
▁dum
▁hüs
▁rap
▁sök
▁tum
ather
lüler
otter
siyum
tagon
çinin
ğımın
şifre
▁Bitk
▁Farz
▁Mali
▁Otob
▁Pres
▁Rast
▁Tech
▁Wolf
▁ağab
▁aşır
▁beşi
▁büny
▁etse
▁gore
▁grev
▁kaka
▁katr
▁kili
▁koro
▁kule
▁menz
▁midy
▁odan
▁sırr
▁türe
▁usul
▁uçup
▁Öğle
Beatbo
başkan
kardeş
▁1800'
▁1999'
▁Afrik
▁Alpha
▁Antar
▁Atina
▁Bacak
▁Boyle
▁Dylan
▁Kelly
▁Macar
▁Massa
▁Prens
▁Princ
▁Resmi
▁Vegas
▁bilek
▁dolup
▁ender
▁erdem
▁evini
▁foton
▁gerçi
▁hamle
▁ilint
▁indim
▁işley
▁iştah
▁kariz
▁karlı
▁kenet
▁keyfi
▁keşfe
▁lösem
▁misel
▁nişan
▁oluşa
▁otura
▁parca
▁saate
▁solar
▁takın
▁terfi
▁topun
▁yinel
▁çıkın
esterol
usufçuk
zamanlı
üminyum
▁Kitabı
▁Viking
▁andaki
▁açılma
▁broşür
▁böyley
▁cehenn
▁delice
▁dükkân
▁edinme
▁ekibin
▁ekleme
▁farkli
▁gönüll
▁hafife
▁kaderi
▁kutuyu
▁mahsul
▁metodu
▁nerden
▁patlak
▁sendik
▁simgel
▁sonrak
▁yargıç
▁yetmiş
▁yücelt
▁önleme
▁Şefkat
▁şeymiş
chusetts
eleriniz
laştıran
lemesini
▁Android
▁Etrafta
▁Federal
▁Galileo
▁Gençler
▁Güneşin
▁Montana
▁Seyahat
▁Stewart
▁ahtapot
▁bedenin
▁doldura
▁doğuyor
▁duyunca
▁dönmesi
▁dönüşen
▁düşecek
▁evinize
▁fedakâr
▁gözünde
▁hakkına
▁ikisine
▁inandım
▁katarak
▁katında
▁kaçınız
▁konuşun
▁koyduğu
▁kızının
▁lambası
▁milyonu
▁olmadık
▁sabahın
▁saçları
▁sözcüğü
▁sürdüğü
▁tablosu
▁teklifi
▁vermedi
▁vizyonu
▁yanları
▁yörünge
▁ötesini
▁ülkemiz
▁İnsanın
▁ışığına
▁Şempanz
dekilerin
leyeceğiz
▁Bağımsız
▁Fikirler
▁Margaret
▁Rönesans
▁almaktan
▁almıştım
▁anatomik
▁açtığını
▁başlarda
▁bekledim
▁birleşik
▁dağılmış
▁derseniz
▁değişmek
▁değişmiş
▁dönerken
▁dönüşmüş
▁ekibimiz
▁elektrot
▁fikirden
▁geçmişti
▁gömülmüş
▁görmeniz
▁görmeyen
▁görünüşü
▁havadaki
▁hissedar
▁hükümdar
▁indirgen
▁indirmek
▁içeriğin
▁kampında
▁karamsar
▁keşfedil
▁kokusunu
▁kırılmış
▁metrekar
▁minyatür
▁mutluluğ
▁noktamız
▁proteini
▁sahtekâr
▁sayılara
▁tamamına
▁tanıtmak
▁tarzında
▁ultrason
▁verdiniz
▁videonun
▁yaklaştı
▁yapmayan
▁yüksekte
▁zorlamak
▁öldükten
▁özgeçmiş
▁üretecek
▁ışınları
emeyeceğim
layabilmek
▁Akademisi
▁Starbucks
▁Yıllardır
▁artırıyor
▁azaltacak
▁bulduğunu
▁bulunmaya
▁diliyorum
▁durumdaki
▁düşünmesi
▁düşürüyor
▁etkinliği
▁geçmişten
▁gitmesine
▁haklarına
▁havacılık
▁hususunda
▁inceliyor
▁izleyecek
▁karadelik
▁katıldığı
▁kurumlara
▁makaleler
▁malzemesi
▁masasında
▁metabolik
▁oluşumunu
▁periyodik
▁sayfaları
▁sokaktaki
▁sonrasına
▁sürebilir
▁yakındaki
▁çalışırız
▁çaresizce
▁çözümlere
▁öldürülen
▁şartlarda
▁Demokratik
▁anlaşılmaz
▁anlıyorlar
▁aralığında
▁başkanları
▁bulunmayan
▁buzulların
▁dergisinin
▁değişimini
▁edeceğimiz
▁edilmesini
▁etkilendim
▁galaksinin
▁gereklilik
▁getirmenin
▁geçirdiler
▁gideceğini
▁gönderildi
▁göstermeme
▁hissedecek
▁hiçbirimiz
▁ilerlemeyi
▁kurbanları
▁makinesine
▁mesajlaşma
▁paylaştığı
▁pornografi
▁sandığımız
▁semptomlar
▁seçtiğimiz
▁transistör
▁yakalanmış
▁yolculuğum
▁öğrettiler
▁ülkelerine
▁üretiliyor
▁İnsanlığın
▁arkadaşımız
▁elektronlar
▁fonksiyonel
▁gerçeklikte
▁gözlemlemek
▁hikayesinin
▁hükümetinin
▁kararlarını
▁konuşacağız
▁korkuyordum
▁mikropların
▁noktalarını
▁olmadığının
▁sağlığımızı
▁vücudumuzda
▁yoğunluğunu
▁İhtiyacımız
▁İskenderiye
▁dünyasındaki
▁etkileşimler
▁laboratuvarı
▁sağlamalıyız
▁telefonunuzu
▁verdiklerini
▁duygularımızı
▁yaptıklarının
▁yönlendiriyor
▁bilgisayarlara
▁görmüşsünüzdür
▁hatırlamıyorum
▁koyabilirsiniz
▁kullanabilirim
▁gerçekleşmesini
3.
FO
cha
düy
opa
rir
tam
ule
uzz
wis
▁95
▁Bh
▁GG
▁JC
▁RH
▁fı
Cola
abay
dimi
eman
idir
ilan
isen
ldır
lick
mana
mene
rina
tane
teri
urlu
work
yumu
▁15.
▁20,
▁EEG
▁Gru
▁Hat
▁Kök
▁Kıs
▁PET
▁Yem
▁gra
▁gur
▁kın
▁leş
▁omz
▁sec
▁van
▁İde
▁Şük
Bizim
belir
binde
inizm
lesin
masın
ozyon
pagos
uzzle
▁200'
▁4000
▁Adem
▁Algı
▁Emek
▁Joel
▁Rüya
▁Time
▁Will
▁Yarı
▁aley
▁avat
▁bezi
▁elin
▁illa
▁imal
▁itti
▁lobi
▁mili
▁nehr
▁oydu
▁regl
▁vaad
▁ölme
▁öğün
altına
luluğu
melere
ücüler
üldüğü
ümdeki
▁Akşam
▁Bense
▁Broad
▁Cerra
▁Ergen
▁Fosil
▁Inter
▁Miami
▁Oprah
▁Parks
▁Skype
▁State
▁atlat
▁bakir
▁diler
▁dişli
▁idari
▁kabus
▁kazın
▁konuk
▁koord
▁köyün
▁kılıç
▁kızla
▁masam
▁mecli
▁monit
▁prova
▁rekab
▁sente
▁somon
▁yuzde
▁çekiç
▁ünvan
▁ışını
▁Derken
▁Gözlem
▁Hitler
▁Monter
▁Sekoya
▁Sophie
▁Sunucu
▁Sylvia
▁Wright
▁aileyi
▁arzusu
▁ateşli
▁büyüğü
▁dokuma
▁düştüm
▁evimiz
▁gidişa
▁kenarı
▁kilolu
▁koşucu
▁kıyıya
▁muhbir
▁sarsıl
▁sırası
▁takılı
▁taşlar
▁taşıyı
▁tedbir
▁turist
▁uzanıp
▁verisi
▁zihnin
▁İnanın
▁şaşırt
anabilir
bildiğim
duğundan
lamıştım
▁Dağları
▁Dediler
▁Kendine
▁Mahkeme
▁Matthew
▁Oakland
▁Polonya
▁Yaptığı
▁Yazılım
▁adalete
▁deşifre
▁döndüğü
▁evlerde
▁gelmeyi
▁grafiğe
▁görevde
▁günüydü
▁haberim
▁hallede
▁hayatla
▁iltihap
▁istesem
▁korunan
▁koşarak
▁kızımın
▁menfaat
▁müzikle
▁partisi
▁sayfada
▁saygılı
▁silikon
▁unutmak
▁uyurken
▁yaklaşa
▁yalancı
▁yüzünün
▁Çoğunuz
▁Carnegie
▁Dışarıda
▁Kanadalı
▁abartılı
▁atıyoruz
▁ayırarak
▁bağlanan
▁bağlanma
▁bilhassa
▁bilindik
▁boyutuna
▁cümleler
▁dediğimi
▁dizisini
▁düşürmek
▁gitmişti
▁grafikte
▁gönderil
▁görünmek
▁görürler
▁gücünden
▁günlerce
▁hepsinde
▁içerikli
▁kaldırma
▁kimyager
▁koşuştur
▁kraliyet
▁kurtuluş
▁mutfakta
▁mütevazı
▁portakal
▁sürüngen
▁tasavvur
▁tercüman
▁toplandı
▁yakınlık
▁yararlan
▁yaşaması
▁yetisine
▁yetişmiş
▁örnektir
▁öğrencim
ebiliyorum
landıracak
miyorsunuz
▁Galapagos
▁Jefferson
▁algılamak
▁açılarını
▁başlarsak
▁birimleri
▁birkaçını
▁döneceğim
▁filmlerin
▁fotoğrafa
▁geçmesini
▁grafikler
▁görmekten
▁görünürde
▁görüşmesi
▁güneyinde
▁hiçbirini
▁ikisinden
▁kalmıştım
▁kalıyoruz
▁kemikleri
▁korumanın
▁kurtarıcı
▁maliyetle
▁mevcuttur
▁molekülün
▁odaklanan
▁olacağımı
▁sabahları
▁sonucudur
▁sorularla
▁takımları
▁virüsleri
▁vücutları
▁yansıtmak
▁yapabilme
▁yapılanma
▁yayılmaya
▁yürüyerek
▁çatışmaya
▁çeviriyor
▁çevresini
▁çıkarmayı
▁öğrettiği
▁ısınmanın
▁Birçoğunuz
▁Elimizdeki
▁askerlerin
▁bakterinin
▁başarısını
▁birilerini
▁birçoğumuz
▁birçoğunuz
▁cumhuriyet
▁dönemlerde
▁elektriğin
▁görevliler
▁hatırlatır
▁hikayelere
▁iletişimde
▁istemiştim
▁kaldıkları
▁kaldığımız
▁kalmamıştı
▁kavramları
▁operasyonu
▁sandalyede
▁sensörleri
▁tutuyorlar
▁çatışmalar
▁aldığımızda
▁anlatıyordu
▁bazılarında
▁başladıktan
▁görmemiştim
▁hakkındaydı
▁harcamaları
▁ilişkilerde
▁insanlarına
▁işbirliğine
▁koleksiyonu
▁konularında
▁konuştuğunu
▁kullanmıyor
▁maymunların
▁noktasından
▁toplantılar
▁uygulayarak
▁varlıkların
▁yapamayacak
▁yayıldığını
▁zorlukların
▁ürünlerinin
▁alanlarından
▁destekleyici
▁eşitsizliğin
▁hizmetlerine
▁kimyasalları
▁mikroorganiz
▁paylaşıyoruz
▁seyircilerin
▁sonlandırmak
▁sonuçlarının
▁toplumumuzda
▁trilyonlarca
▁ulaşabiliriz
▁yabancıların
▁yaşadığımızı
▁zorluklardan
▁şirketlerine
▁açıklayabilir
▁edebiliyorlar
▁göremediğimiz
▁paylaşıyorlar
▁yaşadıklarını
▁çalışmalardan
▁öğrencilerine
▁değerlendirmek
▁geliştirebilir
▁görebiliyordum
▁gösterebilirim
▁karşılaşıyoruz
▁olabileceğiniz
Ak
DE
FL
KE
ct
ko
ETI
hai
iza
tij
udu
unk
use
vek
▁Fe
▁MA
▁NB
▁OK
▁PI
▁PV
▁RW
▁fo
▁sh
▁si
Para
angi
arya
hall
ilot
izde
kabı
ligi
ptop
sana
sica
vekk
ymiş
çağı
ırtı
▁12'
▁125
▁75'
▁Dak
▁Güc
▁Rea
▁Ref
▁Roy
▁She
▁Soh
▁Tap
▁küb
▁pik
▁yuv
Kaide
aktiv
angoz
ciyim
ginin
imdir
iyede
lagel
mayla
mezse
minin
nifer
usura
ırsam
▁....
▁10-1
▁Coun
▁Gerç
▁Just
▁Kalk
▁Mosk
▁Nata
▁Neyi
▁Sahn
▁alam
▁gezi
▁homo
▁lava
▁orki
▁past
▁prof
▁rıza
▁saçı
▁skor
▁sopa
▁suni
▁sütü
▁çark
▁üzün
▁İdar
▁İşim
Herkes
akları
brahim
burada
isyonu
mazdık
okrasi
tenkel
timore
tımızı
çiliği
ıncaya
▁Adını
▁Beach
▁Bulun
▁ajans
▁aşısı
▁bahan
▁bağın
▁desem
▁devin
▁dikiş
▁email
▁esnaf
▁fener
▁görgü
▁icadı
▁ihtiş
▁odayı
▁sapan
▁satar
▁savcı
▁sende
▁start
▁sıçan
▁taahh
▁takli
▁takma
▁tekab
▁unuta
▁uçsuz
▁yazım
▁çöker
▁ülken
▁şansa
▁şırın
salardı
▁Cennet
▁Destek
▁Mimari
▁Nathan
▁Nedeni
▁Oliver
▁Parlak
▁Sebebi
▁altüst
▁asgari
▁attığı
▁ağının
▁battan
▁bağışı
▁berrak
▁calist
▁davayı
▁deliğe
▁dışsal
▁ekibim
▁fethet
▁halkla
▁haykır
▁itfaiy
▁işimin
▁kazası
▁kodunu
▁kurula
▁kuyruğ
▁mesleğ
▁oluver
▁oturum
▁robota
▁sığına
▁taşıdı
▁tiksin
▁tsunam
▁unutun
▁uyanıp
▁uğraşa
▁yazıya
▁yıkama
▁zekâyı
▁çevril
▁çoğuna
▁ölmeye
dakileri
ladığımı
leştirdi
malıydık
▁Hızlıca
▁Jackson
▁Yeterli
▁adamdan
▁ailemle
▁almayan
▁anıları
▁arttıra
▁açıktır
▁açımdan
▁ağların
▁basarak
▁baskıcı
▁biyonik
▁dolarla
▁duyurdu
▁edindim
▁eserler
▁eyaleti
▁fikirdi
▁harfler
▁işitsel
▁kafamın
▁katıyor
▁kaçmaya
▁kesmeye
▁kurabil
▁liseden
▁listede
▁milisan
▁ortağım
▁paranız
▁patladı
▁topları
▁tümörün
▁utangaç
▁yanarda
▁yapayım
▁yapmama
▁ödüller
▁üzerime
dırabilir
emiyordum
▁Bağlantı
▁Geliştir
▁Gördüğüm
▁Jonathan
▁Kampanya
▁Kimyasal
▁Sentetik
▁aklımdan
▁anlayışa
▁aracının
▁bataklık
▁besinler
▁biriydim
▁bucaksız
▁büyüdüğü
▁etkileme
▁etmişler
▁evliliği
▁fazlaydı
▁girişimi
▁gökdelen
▁içlerine
▁kalkıyor
▁kaydedil
▁kesinlik
▁koordine
▁korkutan
▁koyuldum
▁kütleçek
▁objeleri
▁ortaokul
▁parampar
▁pekiştir
▁siteleri
▁süreçtir
▁taşıdığı
▁tesadüfi
▁tetikler
▁yiyorlar
▁çizginin
▁önleyici
▁ısınmaya
duklarında
ebiliyordu
leştirmeye
▁Geleceğin
▁Kadınlara
▁alacaktır
▁anladılar
▁anlaşılan
▁arkadaşın
▁atomların
▁bilimcisi
▁bulamadım
▁denemeler
▁deneyimdi
▁donanımlı
▁ekliyoruz
▁elektriğe
▁fabrikada
▁gerçektir
▁getirilen
▁gözlerine
▁gücümüzün
▁istemişti
▁kafasının
▁kalmasına
▁kalmıştır
▁kaybolmuş
▁otomasyon
▁rastladım
▁sağlığına
▁serotonin
▁taşıyacak
▁tutuluyor
▁uzunlukta
▁yapmadığı
▁yardımına
▁yazabilir
▁yüksektir
▁çekiliyor
▁çekirdeği
▁çizgileri
▁çözülmesi
▁öğrenciye
▁şaşkınlık
maktadırlar
▁Erkeklerin
▁bekliyordu
▁dayanılmaz
▁dolaşırken
▁duyduğunda
▁duyuyordum
▁dönüyorlar
▁edemeyecek
▁geliştirir
▁göndermeye
▁görüntülen
▁görüyorsun
▁gözükmüyor
▁hareketine
▁hastanenin
▁hücresinin
▁kaybettiği
▁kontrolsüz
▁kuruyorlar
▁reklamları
▁sağlamanın
▁sorgulamak
▁umutsuzluk
▁varlıkları
▁varlığının
▁varsayılan
▁verilerine
▁yabancılar
▁yaklaşımla
▁yaklaşımın
▁yerlerdeki
▁zirvesinde
▁Öğrendiğim
▁çevremizde
▁özelliğini
▁ansiklopedi
▁düzenlemeye
▁etkileşimin
▁kardeşlerim
▁kariyerimin
▁katılıyorum
▁kaydedilmiş
▁konuşabilir
▁matematikte
▁ortasındaki
▁saatlerinde
▁tekrarlayan
▁yoksulluğun
▁yükseklikte
▁çalıştıktan
▁çalıştırmak
▁arkadaşların
▁bilmediğiniz
▁bırakıyorlar
▁dinozorların
▁edilebilecek
▁gerektiğinin
▁gördüklerini
▁hareketlilik
▁havalandırma
▁işletmelerin
▁karbonhidrat
▁oluştururken
▁sahiplerinin
▁yeryüzündeki
▁zamanlardaki
▁çalışmalarda
▁çözünürlüklü
▁ışıklandırma
▁Afrikalıların
▁Massachusetts
▁değiştirdiler
▁gösterdiğimiz
▁kullanıcıları
▁mekanizmaları
▁merkezlerinde
▁sağlayacaktır
▁sıkıştırılmış
▁çalışanlarına
▁kurtarabiliriz
▁yaptıklarından
▁edebiliyorsunuz
▁kullanabilirler
▁kullandıklarını
▁laboratuvarında
ks
yy
Dok
Kay
baa
cky
hiç
lad
tul
ves
▁1:
▁CB
▁GC
▁HW
▁Ir
▁LP
bury
celi
cine
deme
emik
erre
esem
homa
kisi
maca
ogun
omün
onio
ture
uarı
undu
▁1,6
▁360
▁Fes
▁Fon
▁Hir
▁Kin
▁Kod
▁Kuz
▁Reb
▁Sel
▁Tro
▁Vah
▁emr
▁ipi
▁ket
▁pıh
▁rak
aftiz
azara
bütün
doğru
dında
erkil
eydik
field
giniz
isler
maktı
ratör
sıydı
ışını
▁Bara
▁Cher
▁Ivan
▁Kıyı
▁Laur
▁Linu
▁Lise
▁Sine
▁Talk
▁aciz
▁aşin
▁bazi
▁cali
▁cema
▁cins
▁deve
▁güle
▁ipuc
▁jest
▁keçi
▁klon
▁kurs
▁köyü
▁kıla
▁notu
▁temp
▁yoga
▁Ünlü
alının
aretli
etiyle
liğimi
nessee
ogenez
uyarak
ydiler
▁Bruce
▁Keith
▁Ladin
▁Müdür
▁Nedir
▁Orası
▁Resim
▁River
▁Utanç
▁Varsa
▁Yarım
▁Yılın
▁acıya
▁ahmak
▁aleyh
▁açıcı
▁barak
▁bekar
▁beyan
▁cibin
▁deyip
▁düşme
▁hacim
▁harit
▁ihtil
▁infaz
▁kaset
▁kemir
▁koler
▁modif
▁odağı
▁olimp
▁parka
▁sesim
▁soktu
▁solak
▁umumi
▁vagon
▁önler
▁İşbir
▁şeyim
ansever
ardınız
artmanı
ciliğin
ihinsel
imizdir
luyorum
▁Bhutan
▁Galiba
▁Online
▁Saldır
▁ayaklı
▁ayının
▁açılıp
▁bacağı
▁değere
▁düzeyi
▁edince
▁farkla
▁felçli
▁girişi
▁giymek
▁güçlen
▁harici
▁hayalg
▁hoşnut
▁işgücü
▁işimde
▁işçisi
▁kapsar
▁kastım
▁konumu
▁kızart
▁kızdır
▁laptop
▁mecazi
▁merdiv
▁müsait
▁objeyi
▁projem
▁ruhunu
▁suçlar
▁tacize
▁tavana
▁tuşuna
▁unsuru
▁yorumu
▁Çılgın
▁çalkan
▁önümde
▁öyküsü
▁İranlı
▁İslami
▁şansın
bilirdim
depresan
tiğinden
unuzdaki
▁Katrina
▁Muhafaz
▁Sizleri
▁Yakında
▁Yapmaya
▁Yatırım
▁Yunanca
▁araçtır
▁bankacı
▁bağışık
▁becerik
▁bizimki
▁boşluğa
▁bunalım
▁dalında
▁devlete
▁duymayı
▁geceler
▁günümde
▁hazırız
▁heykeli
▁hormonu
▁hücrede
▁isteğim
▁işimize
▁kasları
▁kayalık
▁kaynağa
▁kefalet
▁kitlesi
▁korusun
▁mürette
▁olduysa
▁parasal
▁piyango
▁rolleri
▁seçerek
▁skandal
▁sokağın
▁sorumuz
▁sürmeye
▁sürükle
▁takımım
▁tekabül
▁testini
▁yüzdesi
▁Örümcek
▁çevirdi
diklerine
ilmesinde
lanmıştım
liğindeki
▁Bireysel
▁Büyürken
▁Demokrat
▁Esasında
▁Gittikçe
▁Hakkında
▁Hamilton
▁Hepinize
▁Jennifer
▁Umuyorum
▁algısını
▁babasını
▁bacağını
▁bakmayın
▁başlatma
▁bedenini
▁bilincin
▁birşeyin
▁buluştur
▁canavarı
▁dairesel
▁dizilimi
▁doktorum
▁durdurun
▁evinizde
▁faydalan
▁girerken
▁görünümü
▁gösteril
▁heryerde
▁hikayede
▁hissetti
▁içimdeki
▁kanserle
▁kararsız
▁kasvetli
▁katılımı
▁kayıtlar
▁kayıtsız
▁kendimle
▁makaleyi
▁makinası
▁marjinal
▁mesafeyi
▁motorlar
▁oyuncağı
▁sağlarız
▁sevgiyle
▁sırtında
▁tanınmış
▁telefona
▁terimini
▁teşkilat
▁zorlayan
▁üretimin
bilgisayar
biliyorduk
ebildiğini
ebilmeleri
ezervasyon
▁Baltimore
▁Hedefleri
▁Kelimenin
▁Tennessee
▁anlamadan
▁araştıran
▁bakmanızı
▁birisidir
▁cinsiyeti
▁davranmak
▁denediler
▁değerinin
▁dillerini
▁duyduğunu
▁edilmeyen
▁eğitilmiş
▁gelmesine
▁gerginlik
▁haberlere
▁halindeki
▁hareketle
▁inançları
▁işlerinde
▁kalıpları
▁karşınıza
▁katılacak
▁kaydettik
▁mektuplar
▁olsalardı
▁sonundaki
▁sorumlusu
▁tabanında
▁tedavinin
▁telefonun
▁varlığına
▁vazgeçmek
▁yakalanan
▁yakalandı
▁yörüngeye
▁yürürlüğe
▁çalışalım
▁çekiyordu
▁çıkarları
▁çıktıktan
▁ölçeğinde
▁Uyuşturucu
▁ailelerini
▁atmosferik
▁bahsetmeye
▁bağlantıya
▁bulutların
▁bırakılmış
▁doğduğunda
▁durumlarla
▁durumların
▁edilmiştir
▁etkilediği
▁etrafından
▁gelecekler
▁genişleyen
▁geçiyorlar
▁geçmişteki
▁gidiyordum
▁gittiğimiz
▁göndererek
▁gösterildi
▁haritaları
▁hissederiz
▁kahkahalar
▁kapılarını
▁karıştıran
▁kendinizin
▁keşfedecek
▁kolesterol
▁konuşmamız
▁köpekbalık
▁kütlesinin
▁laboratuar
▁miktardaki
▁noktaların
▁oluşmasını
▁oynuyorlar
▁paramparça
▁renklendir
▁sayısından
▁sağlıyordu
▁toplayarak
▁uğraşırken
▁varoluşsal
▁yakalamaya
▁yolculukta
▁çıktığımda
▁İnternetin
Tezahüratlar
▁Profesyonel
▁alamazsınız
▁bekliyordum
▁bırakabilir
▁gözlemledik
▁harcıyorlar
▁hayatımdaki
▁hayatındaki
▁hissettirdi
▁kullanmanız
▁kurabiliriz
▁maliyetinin
▁müşterileri
▁noktalardan
▁programında
▁tanımlamaya
▁topluluğuna
▁uzmanlaşmış
▁yardımsever
▁yüzbinlerce
▁çalışanlara
▁çoğunluğunu
▁üreticileri
▁İzleyiciler
▁Organizasyon
▁engelleyecek
▁katılımcılar
▁kullanıcılar
▁küreselleşme
▁kısımlarında
▁programların
▁sorduğunuzda
▁yiyeceklerin
▁yöneticileri
▁öğretmenlere
▁şehirlerinde
▁araştırıyorum
▁endişelendiren
▁kullanılıyordu
▁matematikçiler
▁çalışmalarının
▁edebileceğimizi
As
aw
ft
jı
New
adi
ics
ips
küp
niz
orn
pir
rey
ski
tas
uda
ugh
vah
▁5,
▁AV
▁Ez
▁RM
Bize
arar
aron
biyo
blör
dian
eleş
inen
lass
metr
olas
opik
sell
stro
▁450
▁Boğ
▁Eli
▁Mid
▁Row
▁Yel
▁geb
▁ilç
▁onk
▁von
▁yör
▁şub
▁şun
Sizin
aydın
berry
gimiz
hoeni
iyesi
işman
kadın
küçük
liğim
manin
robot
ropol
tayım
tilop
utnik
çocuk
▁Deng
▁Dost
▁Flor
▁Gine
▁Gius
▁Hall
▁Jobs
▁Kriz
▁Milo
▁Neil
▁Neye
▁Nöro
▁Ofis
▁Okla
▁Sesi
▁Sher
▁aler
▁ayin
▁eğim
▁mete
▁nars
▁pale
▁ritm
▁umud
▁şaşk
▁şela
digini
eseniz
nesota
ınacak
▁1920'
▁4.000
▁Allen
▁Babil
▁Bahse
▁Baskı
▁Besin
▁Danny
▁Fried
▁Hafif
▁Helen
▁Hücre
▁Incil
▁Isaac
▁Lewis
▁Neyin
▁Robin
▁Space
▁Super
▁Verme
▁bakır
▁bölüş
▁ebedi
▁haham
▁kadin
▁kampa
▁kargo
▁kodun
▁malum
▁nemli
▁palya
▁retin
▁silip
▁suika
▁uçuşu
▁vurul
▁yasam
▁yiyip
▁öksür
▁ülkem
▁ıslah
▁Şeker
Amerika
ektedir
ileşmiş
ladınız
lankton
lerimde
olasyon
ologram
tacağız
tuğunuz
ümüzden
▁Avustu
▁Birşey
▁Gördük
▁Kanunu
▁Kosova
▁Kuvvet
▁Miguel
▁Oradan
▁Saturn
▁Victor
▁acının
▁ajanda
▁akılcı
▁alaycı
▁alırdı
▁aynaya
▁babamı
▁beynim
▁borçlu
▁bölüme
▁demeyi
▁derhal
▁düşkün
▁embriy
▁etkile
▁etmeme
▁filler
▁gelgit
▁gelmem
▁gencin
▁grupla
▁gökkuş
▁hakiki
▁ilkesi
▁kafamı
▁kalkar
▁katlan
▁kaydol
▁kocası
▁körlük
▁manada
▁miydim
▁niyeti
▁otobiy
▁pardon
▁parkta
▁parkın
▁portre
▁puzzle
▁rekoru
▁romanı
▁salata
▁siteye
▁tarifi
▁tasarı
▁termin
▁yenmek
▁yumurt
▁zekası
▁çökmüş
▁çözmüş
▁şiirin
dakinden
dekileri
dığından
emediğim
lamamızı
lenmişti
odinamik
▁200.000
▁America
▁Anneler
▁Mısırlı
▁Yapılan
▁Yaşamın
▁ailemiz
▁akışına
▁alandan
▁aldınız
▁arabada
▁atıklar
▁ayrılıp
▁açımızı
▁baskıyı
▁bağırsa
▁benzeye
▁bozulma
▁doküman
▁durduğu
▁durması
▁düzenek
▁düştüğü
▁dışarda
▁elimize
▁erozyon
▁farkede
▁fiyatlı
▁götürüp
▁hazırdı
▁herşeye
▁isimsiz
▁itfaiye
▁kabuklu
▁kalirsa
▁kampına
▁kitabım
▁koltuğu
▁mühendi
▁nazikçe
▁nüfuslu
▁olamaya
▁palmiye
▁pazarın
▁petrolü
▁prestij
▁sanıyor
▁tahtası
▁takılan
▁tanınan
▁tarımın
▁tutuklu
▁vermeli
▁yayılım
▁çağrısı
▁çağının
▁İşletme
▁Giussani
▁aktivizm
▁algılaya
▁alınarak
▁anlamada
▁bedelini
▁buluşlar
▁dediğine
▁değinmek
▁değmemiş
▁direktör
▁duymadan
▁dönemden
▁dönemine
▁ekibinin
▁elindeki
▁fakirler
▁farketti
▁gelişime
▁gemileri
▁geometri
▁gösterge
▁haritaya
▁ilişkide
▁kalırlar
▁kartpost
▁kimseler
▁konumunu
▁kökünden
▁kıkırdak
▁kısımlar
▁oluşacak
▁plastiği
▁pratikte
▁psikoloj
▁saklanan
▁salonuna
▁sektörün
▁tanesine
▁taraması
▁taşınmak
▁tropikal
▁ulaşmayı
▁vardılar
▁varsayar
▁yansıtma
▁yapmaktı
▁üzerimde
laştıracak
melerinden
▁Antartika
▁Edinburgh
▁Princeton
▁aldığımda
▁arabasını
▁ayarlamak
▁belgeleri
▁bilimleri
▁bittikten
▁derinliği
▁desteğini
▁dönüşümlü
▁dışlanmış
▁enerjiyle
▁gemisinin
▁geçeceğim
▁girebilir
▁girmesini
▁gördüğümü
▁görünürdü
▁hakimiyet
▁korunması
▁makinalar
▁merkezini
▁nesillere
▁noktalara
▁oyuncunun
▁savaşları
▁tutulması
▁yakalayan
▁yakışıklı
▁yapmışlar
▁zamandaki
▁çekebilir
▁önemliler
▁ülkemizin
emeyeceğini
▁Arkadaşlar
▁Hıristiyan
▁arkadaşımı
▁beynimizde
▁biyologlar
▁biyolojiyi
▁dolduruyor
▁dönüştürür
▁düzenlenen
▁edebilirdi
▁ekonomiler
▁ellerinizi
▁etmediğini
▁girişimler
▁ilaçlarını
▁kadınlarda
▁kaldırıyor
▁kapasiteye
▁kaynağıdır
▁kültüründe
▁okuyacağım
▁paylaşmayı
▁populasyon
▁sevmiyorum
▁sürecinden
▁talimatlar
▁tehditleri
▁uygulamada
▁verilmişti
▁yeryüzünde
▁yoksulluğa
▁yukarıdaki
▁yıldızlara
▁çalışırsak
▁çaresizlik
▁öneriyorum
▁ötesindeki
▁Birbirimize
▁Cumhuriyeti
▁avantajları
▁bilimcileri
▁birliktelik
▁enerjisinin
▁geçiriyorum
▁gidebiliriz
▁gruplarının
▁hikâyelerin
▁kanıtlanmış
▁kaynaklanır
▁organizatör
▁parçalanmış
▁programının
▁psikologlar
▁sistemlerde
▁söylediğine
▁tekrarlanan
▁yaklaştıkça
▁yapılmasına
▁çalıştığına
▁Michelangelo
▁adlandırdığı
▁anlamalarını
▁bahsetmiştim
▁bulamazsınız
▁bulduklarını
▁dikkatlerini
▁düzenlemeler
▁hissettiğimi
▁konuşmaların
▁liderlerinin
▁mükemmeliyet
▁seçimlerinde
▁sorunlarının
▁yapıldığında
▁yönlendirmek
▁yörüngesinde
▁Üniversitede
▁çözünürlükte
▁özelliklerin
▁üretebiliriz
ebileceklerini
▁bağlantıların
▁hastalıklarla
▁hastalığından
▁hissettiğiniz
▁karakterlerin
▁kişiselleştir
▁örneklerinden
▁başlangıcından
▁duyabilirsiniz
▁görebildiğiniz
▁ilgilendiğimiz
▁konuştuğumuzda
▁değişikliklerin
▁karşılaştıkları
',
1,
16
9.
Av
Ba
IR
Le
PP
fo
öv
ces
cho
cle
cır
eth
pri
sie
uza
şaf
şır
▁53
▁56
▁HP
▁no
▁Üc
Siya
anik
chel
digi
ente
hild
kötü
lemi
lışı
oods
oyun
side
tent
urta
yapı
▁12.
▁14.
▁Ağz
▁Deh
▁Lam
▁Mos
▁Ran
▁Saf
▁Taz
▁Tec
▁Yas
▁akr
▁ivm
▁suş
▁tev
▁vej
Gitar
abayt
amıza
aratu
arbon
culuk
dükçe
eçhiz
gının
iyano
leksi
linin
mamda
mızda
mışım
onomi
tenin
yeşil
çiyim
▁"...
▁1500
▁1970
▁Bran
▁Dick
▁Doğr
▁Kala
▁Kimi
▁Mada
▁Meta
▁Papa
▁SETI
▁Shar
▁abon
▁aidi
▁azot
▁cadd
▁cadı
▁gama
▁göğs
▁hazn
▁kore
▁küme
▁pano
▁tıpa
▁yirm
▁Çölü
▁örüm
▁övün
▁Şuan
bakanı
icilik
igüzel
iirler
inecek
kınlık
lanmaz
lemede
tosfer
unuzla
ıcının
▁2020'
▁2030'
▁Arada
▁Atlas
▁Bosna
▁Chuck
▁Diplo
▁Kasır
▁Kızım
▁Lakin
▁North
▁Roger
▁Teker
▁Toplu
▁Yönet
▁baraj
▁beşte
▁bişey
▁boyan
▁bozan
▁bükül
▁dekor
▁erdir
▁fotok
▁guzel
▁gözde
▁gülen
▁güçle
▁halat
▁inkâr
▁kalbe
▁kesil
▁kuşat
▁köpük
▁kıran
▁kıvrı
▁nesle
▁otlak
▁periy
▁prens
▁saydı
▁tabur
▁tüzel
▁uzlaş
▁vesil
▁yaşat
▁yedim
▁çoban
▁çölde
dıracak
grasyon
maların
tiğinin
▁Baharı
▁Galler
▁Hamlet
▁Hizmet
▁Parmak
▁Viktor
▁aittir
▁atomun
▁ayırma
▁babama
▁besler
▁bitmek
▁bütünü
▁dinlet
▁dublör
▁engeli
▁fiziki
▁fırlat
▁geldin
▁hasıla
▁havası
▁inandı
▁içmeye
▁kapısı
▁muhale
▁onlari
▁savuna
▁seçmiş
▁teçhiz
▁yanlız
▁çizdim
▁üstünü
▁Şangay
▁şekeri
▁şeklin
amıyordu
düğünden
iliğinin
▁Afrikan
▁Almanca
▁Anladım
▁Hangisi
▁Nitekim
▁Tezsler
▁Titanik
▁Veriler
▁Windows
▁acısını
▁algısal
▁bazında
▁başaran
▁bombası
▁canlısı
▁dakikam
▁dalları
▁dişleri
▁dokunuş
▁doğrult
▁durumdu
▁etmemek
▁eşyalar
▁fikirli
▁gemiler
▁gidebil
▁gözükür
▁hayvana
▁itibarı
▁işinden
▁kapanık
▁karavan
▁keyfini
▁kişiydi
▁kuracak
▁kuyruğu
▁mağduru
▁motorlu
▁müzaker
▁origami
▁ortamın
▁otopark
▁paralar
▁protest
▁satıldı
▁seçilen
▁seçtiği
▁spektro
▁taahhüt
▁trafiği
▁tsunami
▁uyandım
▁uydurma
▁varmaya
▁yarıkür
▁yatağın
▁yedinci
▁yönetir
▁yönlere
▁yürütme
▁yürüyüp
▁Öğrenme
▁çevirir
▁çimento
▁çıkmayı
▁ülkemde
▁ıstırap
▁Aranızda
▁Birazdan
▁Columbia
▁Hayatımı
▁Neticede
▁Sıklıkla
▁Toplantı
▁aciliyet
▁bakmanız
▁baskının
▁başlamaz
▁belgeler
▁benzetme
▁beynimin
▁birikimi
▁buzdolab
▁diyorsun
▁duyarsız
▁düzeltme
▁düşüncem
▁epilepsi
▁eyalette
▁farkları
▁fırlatma
▁garantil
▁gazetede
▁gergedan
▁görmüştü
▁görülmüş
▁güzeldir
▁haberleş
▁harcayan
▁hijyenik
▁ilerledi
▁inandığı
▁istersen
▁istersin
▁işlemeye
▁kameraya
▁kortizol
▁koyarsak
▁kurtuldu
▁kültürlü
▁müşterek
▁nehirler
▁oksijeni
▁ortamlar
▁saatleri
▁santrali
▁sergiler
▁sevmiyor
▁sokaklar
▁tabanına
▁toplanma
▁tutmanın
▁yaparsın
▁yapmadık
▁yapmamış
▁yeniliği
▁yükselme
▁çekmişti
▁öneriyor
▁önlemler
▁önünüzde
▁Şimdiyse
▁Şüphesiz
▁Kendisini
▁Meksikalı
▁Minnesota
▁anlatamam
▁anlaşması
▁arıyordum
▁asimetrik
▁ayrılması
▁bakacağız
▁başkaldır
▁belirtisi
▁bilebilir
▁davranışa
▁deniyoruz
▁doğrulama
▁dönüyoruz
▁evresinde
▁eğitimden
▁görmediği
▁görmüştüm
▁görseller
▁gösterimi
▁güvencesi
▁istemeyiz
▁içinizden
▁kanserden
▁kanıtladı
▁kardeşini
▁konularla
▁konuların
▁kültürüne
▁milyarder
▁olurdunuz
▁parçacığı
▁reklamlar
▁sistemden
▁söylememe
▁sınırlama
▁takımımız
▁tanımladı
▁tehditler
▁telefonla
▁teorisine
▁vermiştim
▁yanıltıcı
▁yiyeceğin
▁zenginleş
▁çevresine
▁çubukları
▁öğrenerek
▁üzereyken
ladığınızda
▁Hollandalı
▁ailesinden
▁aktivitesi
▁ayarlanmış
▁dönüştürdü
▁ettiğinizi
▁evlerinden
▁gidiyorsun
▁gruplardan
▁gösterişli
▁göstermesi
▁güzelliğin
▁güçlerinin
▁hakkınızda
▁haritasına
▁ilişkisini
▁istiyorsam
▁içindeydim
▁kavramının
▁keşfedilen
▁korkutuyor
▁köpeklerin
▁noktalarda
▁ortasından
▁oturuyordu
▁parlamento
▁radyoaktif
▁savaşların
▁sorumludur
▁sürdürüyor
▁tetikleyen
▁tuvaletler
▁yaprakları
▁yeryüzünün
▁yetkililer
▁zorlaşıyor
▁zorunluluk
▁öğrenirken
▁şirketinde
bileceğimden
▁Gelecekteki
▁araçlarının
▁başlarsanız
▁düşüncesine
▁ekosistemin
▁enfeksiyonu
▁etkilerinin
▁faydalarını
▁geliştiğini
▁göremiyorum
▁görmelerini
▁kendimizden
▁medeniyetin
▁muhafazakâr
▁olacağından
▁olamazsınız
▁psikiyatrik
▁tasarımları
▁yaramayacak
▁yönlendirdi
▁Öğretmenler
▁ötekileştir
▁İstediğimiz
▁anlatıyorlar
▁beklentileri
▁beyinlerinin
▁bildiklerini
▁değerlerinin
▁düşünmüyoruz
▁edeceklerini
▁hareketlerin
▁internetteki
▁karşılaşacak
▁kaynaklarına
▁kelimelerini
▁kendileriyle
▁olacaklarını
▁organizmanın
▁sistemimizde
▁varlıklarını
▁yerleştirdim
▁şaşırtıcıydı
▁düşünebiliyor
▁hayatımızdaki
▁kastetmiyorum
▁organizmaları
▁sistemlerimiz
▁söylüyorlardı
▁değişikliğiyle
▁söylemeyeceğim
▁değiştirmeliyiz
▁yerleştiriyoruz
45
8.
DT
Go
RN
Düş
ECD
RNA
bür
eto
fed
gla
gür
hir
kav
▁Iş
▁KA
▁SO
▁hı
Star
alth
asta
cker
darı
foni
irse
obot
oküt
onto
otip
ramı
rası
tsal
urun
veya
yevi
yüze
▁1.2
▁186
▁187
▁Ash
▁Beb
▁Ceb
▁Deb
▁Edi
▁Gay
▁Gor
▁Hop
▁Kup
▁Kör
▁Les
▁Lev
▁Lyn
▁Pes
▁Sed
▁Sem
▁Tal
▁Ton
▁guc
▁org
▁yam
▁Çöp
Başka
Bütün
böcek
ciyle
engiz
getti
ibati
ilmaz
melik
tella
zehir
ımlar
▁CERN
▁Dean
▁Evan
▁High
▁Lama
▁Line
▁OECD
▁Rica
▁Town
▁Trav
▁Vene
▁gras
▁kale
▁pili
▁sosu
▁topa
▁twit
▁yatı
bardım
derken
raktal
teydim
tığımı
ucuydu
ımları
▁Bakış
▁Basın
▁Fonio
▁Jerry
▁Kitab
▁Kulak
▁Olası
▁Siber
▁Vinci
▁Yarın
▁atomu
▁camia
▁demem
▁dilen
▁dille
▁donör
▁emlak
▁ettin
▁galip
▁işgüc
▁kampı
▁katle
▁kaçıp
▁kuşun
▁rahib
▁seviş
▁sorma
▁sprey
▁tenli
▁yanaş
▁yedik
▁yumru
▁Çiçek
▁çuval
▁öykün
▁ıslak
▁şöval
cağında
ezonans
imbabve
medikal
ıldılar
ırıldan
▁60.000
▁Barack
▁Devasa
▁Durumu
▁Empati
▁Finlan
▁Galaks
▁Gezgin
▁Joshua
▁Kırsal
▁Meclis
▁Numara
▁Piyasa
▁Turing
▁Warren
▁bahane
▁bahara
▁beyler
▁bitene
▁bolluk
▁boşver
▁bulana
▁bulmam
▁canını
▁cihaza
▁devamı
▁durduk
▁düzeye
▁düşeni
▁düşüşü
▁ekseni
▁fantez
▁girdap
▁giymiş
▁görece
▁hantal
▁inşası
▁karesi
▁kesimi
▁kontak
▁mahvol
▁müvekk
▁sensin
▁stresi
▁termal
▁uluslu
▁ulusun
▁ustası
▁uydusu
▁vakada
▁virüse
▁yayını
▁yıpran
▁zanaat
▁zekâya
▁zeytin
▁önerdi
▁şeridi
cağınıza
ceğinden
lamanızı
mayanlar
mişimdir
ttığımız
tırsanız
ülebilen
▁Bahçesi
▁Cameron
▁Eleştir
▁Engelli
▁anlatın
▁attılar
▁babamla
▁deneyip
▁doğayla
▁düşmesi
▁fareler
▁girmesi
▁gıdalar
▁hüzünlü
▁inekler
▁ittifak
▁izlemiş
▁içeriğe
▁kapatıp
▁kavrama
▁kaçırma
▁kağıdın
▁kehanet
▁kişidir
▁kıtanın
▁odaları
▁olurdum
▁otorite
▁oturduk
▁oyununu
▁partide
▁parçalı
▁püskürt
▁saatini
▁savaştı
▁seslere
▁soruldu
▁sıtmaya
▁teoride
▁uzerine
▁yanıyor
▁yaymaya
▁yıllara
▁çekilir
▁çeviren
▁çizgide
▁çıkmadı
▁öyküler
▁üretime
ilerimden
iyorsanız
▁Biyoloji
▁Johannes
▁Mutluluk
▁Oklahoma
▁Ortadoğu
▁alınacak
▁annesini
▁arazinin
▁ayırıyor
▁açıyoruz
▁basittir
▁belirtir
▁bitirdim
▁dakikaya
▁dakikayı
▁dedikodu
▁dinledik
▁dolduran
▁durdurup
▁duymuyor
▁ellerimi
▁etkilere
▁evinizin
▁firmalar
▁hissedil
▁kaplıyor
▁kulaklık
▁kurmanın
▁okuyacak
▁projeyle
▁rüzgarın
▁sahiptik
▁sesinizi
▁sigarayı
▁sorunsuz
▁tarihten
▁terapisi
▁trafikte
▁uzmanlaş
▁varmadan
▁yemeğini
▁yusufçuk
▁yüksekti
▁yüzeyini
▁zorbalık
▁çabaları
▁çevremiz
▁çıkartma
▁şizofren
lanacağını
▁Performan
▁Vücudunuz
▁atıyorlar
▁azaltarak
▁başarılar
▁bedeninin
▁biçiminde
▁bulunacak
▁buzdolabı
▁deniliyor
▁dereceden
▁deyimiyle
▁dinlemeyi
▁duvarlara
▁dünyaları
▁düşünülür
▁elleriyle
▁enflasyon
▁genişleme
▁geçirerek
▁girdiğini
▁görüşmeye
▁günlerini
▁harikalar
▁hazırladı
▁ibarettir
▁inanmıyor
▁kanalları
▁küçülüyor
▁meselenin
▁nitelikte
▁okulların
▁olmalısın
▁oynayacak
▁proteinin
▁resimlere
▁sakinleri
▁satılıyor
▁sermayesi
▁sokakları
▁söylemedi
▁sıkıntısı
▁sınırının
▁taşıyarak
▁umutsuzca
▁yakalayıp
▁yaramayan
▁yarasalar
▁yavruları
lerimizdeki
▁Alternatif
▁Hatırlayın
▁Pittsburgh
▁aktiviteyi
▁beyninizde
▁birleşerek
▁durdurmaya
▁duvarların
▁duyarlılık
▁dönüştürül
▁düşündürdü
▁gelişimine
▁geliştikçe
▁gönderdiği
▁gözleriniz
▁gülüşmeler
▁haberleşme
▁içindeyken
▁kalırsınız
▁kartpostal
▁kategoriye
▁kullanalım
▁odalarında
▁sağlığınız
▁tahminleri
▁tanımlanır
▁tasarladım
▁uygulamalı
▁verilerden
▁verimliliğ
▁yetmezliği
▁zenginliği
▁üzerlerine
▁İnsanlarla
▁aileleriyle
▁beklersiniz
▁beyinlerini
▁birleştirme
▁bölgelerden
▁büyüklüğüne
▁dediklerini
▁deneyiminin
▁depresyonun
▁değişikliğe
▁ekonomisini
▁geliştirmiş
▁gönderdiler
▁inandıkları
▁istikrarsız
▁kahramanlık
▁kenarındaki
▁makinesinin
▁olmadığıdır
▁oturuyordum
▁tecrübeleri
▁teleskoplar
▁televizyonu
▁yaklaşırken
▁yakınlaştır
▁yaşayabilir
▁yerleştirip
▁yerleştirme
▁yürünebilir
▁çocuğunuzun
▁şaşırmıştım
mayacaklarını
▁aktiviteleri
▁bozuklukları
▁deneyimlemek
▁deneyimleyen
▁edebiliyorum
▁gelindiğinde
▁kitaplarında
▁kullanmaktan
▁rastlantısal
▁sorulduğunda
▁tartışmalara
▁tezahüratlar
▁topladığımız
▁yaklaşıyoruz
▁yapabilirdik
▁başlangıcıydı
▁davranışların
▁etmişsinizdir
▁fikirlerimizi
▁gerektiğinden
▁kaybettiğimiz
▁sınıflandırma
▁uygulamaların
▁öğrencilerden
▁akademisyenler
▁alabileceğiniz
▁araştırmaların
▁dönüştürebilir
▁farklılıkların
▁kilometrelerce
▁olabileceğimiz
▁organizasyonun
▁sorumlulukları
▁yapabileceğimi
▁yetiştiriyoruz
▁öğreniyorsunuz
▁değerlendirmeye
▁gerçekleştirdik
▁görebileceğimiz
▁kaynaklandığını
Uz
hh
üj
İk
ığ
Alk
Sak
Top
ace
cas
cok
epç
eşe
gur
hep
kız
ogh
sso
sur
suç
uğa
yok
▁47
▁6'
▁DR
▁FO
▁Ig
▁JR
▁Oc
▁SR
▁Uğ
▁WG
▁zü
▁öf
Arka
Mart
amer
cela
dişi
dral
ecen
edek
egen
ella
icky
iger
imsi
isha
opia
uhuş
urga
utlu
uğun
vela
üyüz
ılıp
▁110
▁95'
▁Arş
▁Ayı
▁But
▁DAR
▁Est
▁Evi
▁Gem
▁Jay
▁LHC
▁Luc
▁Nap
▁Nev
▁Ren
▁büz
▁dor
▁fib
▁hec
▁hok
▁hop
▁pel
▁ufk
▁ulk
▁zap
▁çın
anama
ardan
craft
cular
dönüş
ekkur
lakat
onder
tiyaz
ucker
uymuş
vanya
▁Dala
▁Diya
▁Fabr
▁Gary
▁Indi
▁Pica
▁Rand
▁UCLA
▁Well
▁amba
▁ağda
▁bron
▁eBay
▁foto
▁ikon
▁ille
▁jüri
▁logo
▁maçı
▁meki
▁nesi
▁ozon
▁parf
▁ramp
▁tahl
▁tozu
▁vaiz
▁üyes
▁şabl
Bunlar
efendi
elemek
eleyin
eliydi
gamber
lestir
lilere
rasyon
ülatör
üsünde
ıcılar
▁1940'
▁1994'
▁Allan
▁Aptal
▁Balon
▁Başar
▁Dayan
▁Görme
▁Komün
▁Paten
▁Sabit
▁Saint
▁Sevgi
▁Story
▁Sıtma
▁Vahşi
▁adaya
▁ahenk
▁aldın
▁anını
▁aslen
▁atmış
▁azdır
▁biber
▁borcu
▁coşku
▁değir
▁diril
▁dozaj
▁dökül
▁evrak
▁fanat
▁gelis
▁giyen
▁göbek
▁gülüş
▁havlu
▁kanep
▁kanın
▁kesen
▁narin
▁porno
▁pıhtı
▁saray
▁tesli
▁ucunu
▁uzayı
▁varış
▁çimen
▁çoğul
▁çürük
▁İçine
enizden
etrelik
eydiniz
lanırız
luğuyla
opernik
ramanın
ştırıcı
▁40.000
▁Ajansı
▁Arktik
▁Avukat
▁Edison
▁Elimde
▁Island
▁Kurumu
▁Maldiv
▁Tabiki
▁Ticari
▁Toyota
▁Wilson
▁alınıp
▁artmış
▁bebeğe
▁bileti
▁binmek
▁dağlar
▁demode
▁esaslı
▁fiilen
▁ilerle
▁kamuya
▁kauçuk
▁kimisi
▁kişide
▁koştum
▁pandem
▁planım
▁pusula
▁sevmez
▁sormuş
▁sıvıyı
▁takmak
▁tebrik
▁tuttum
▁tüccar
▁virgül
▁yerken
▁yükünü
▁yıldön
▁zorlar
▁çöplük
▁önceye
▁şebeke
diyorlar
diğimden
eyiciydi
tansiyel
ulabilir
ünüzdeki
▁Arşimet
▁Dinozor
▁Mücadel
▁Picasso
▁anlarız
▁antilop
▁aralığı
▁araziyi
▁baktığı
▁bölümde
▁bütçesi
▁bırakıl
▁deneyen
▁duvarda
▁düşüren
▁etkilem
▁farkını
▁gidince
▁gururlu
▁hasarlı
▁ihtiyar
▁ihtişam
▁kitleye
▁kurumun
▁lokanta
▁makarna
▁mekanda
▁olustur
▁otizmli
▁pilleri
▁reddede
▁salıver
▁sesinin
▁seçildi
▁seçimin
▁stresin
▁sunacak
▁ulaşana
▁umduğum
▁yarının
▁yazının
▁yönetil
▁yönetme
▁yönüyle
▁çalmayı
▁ödemeye
▁öfkelen
▁öldürme
▁ölmeden
▁öğrenip
▁ızdırap
▁Şirketi
▁şaşkına
▁şeytani
mayacağız
▁Devletin
▁Franklin
▁Gelişmiş
▁Portland
▁Programı
▁Teleskop
▁aktarımı
▁almıştır
▁anladığı
▁antibiyo
▁aradılar
▁ayırmaya
▁aşıların
▁bahseden
▁bakımını
▁bedensel
▁belirlen
▁beyazlar
▁beyinden
▁bilimden
▁birazını
▁bitkisel
▁bulmakta
▁bulmanız
▁bütünsel
▁büyükbab
▁büyükler
▁cümlenin
▁dağıtıcı
▁dağıtımı
▁dokuları
▁doğruydu
▁doğurgan
▁düşmüştü
▁edilmeye
▁gelmekte
▁gelmeyen
▁giysiler
▁görüşmek
▁güvenini
▁güzergah
▁güçlerin
▁herzaman
▁heyecanı
▁ilintili
▁inancını
▁intihara
▁isteksiz
▁kalsiyum
▁kamerayı
▁katedral
▁katmanlı
▁konektom
▁kuşkusuz
▁listenin
▁metreden
▁mutluydu
▁müdahele
▁müzakere
▁neticede
▁nöroloji
▁nüfusunu
▁ofisinde
▁ortamına
▁oyununda
▁paragraf
▁seferber
▁sorarlar
▁takılmış
▁teleskob
▁tutarken
▁türünden
▁uzantısı
▁yaparsam
▁yasalara
▁yazdılar
▁yolların
▁yolumuzu
▁Çevresel
▁çözmenin
▁İlerleme
landırıyor
leyebilmek
mayacaklar
▁Kendisine
▁Universit
▁alacaklar
▁altyapısı
▁anlayışlı
▁bakteriyi
▁başlamalı
▁bedenleri
▁beyninize
▁bilmenizi
▁bulmuştum
▁cevapladı
▁denklemin
▁derinlere
▁dolaşarak
▁dönmesini
▁dönüşmesi
▁edilmeden
▁enerjiden
▁etraftaki
▁eyaletler
▁geleceğim
▁geçmeleri
▁göremeyiz
▁görüyordu
▁gülümseme
▁haksızlık
▁harcadığı
▁heyecanla
▁ilerlemiş
▁izolasyon
▁işlerinin
▁kariyerim
▁karışıyor
▁karşılama
▁katalizör
▁kuvvetler
▁mahkumlar
▁memurları
▁motorları
▁nedeninin
▁paradoksu
▁rakamlara
▁saatlerde
▁sahibinin
▁sebebinin
▁senaryoyu
▁sitesinde
▁sokaklara
▁tasarlaya
▁temelidir
▁teorileri
▁uzaklarda
▁verildiği
▁videosunu
▁yansıması
▁yansıtıcı
▁yazarları
▁yerlerdir
▁yerleşmiş
▁çalışırım
▁çevremizi
▁çıkarılan
▁ölçümleri
▁örgütleri
▁ülkesinin
landırılmış
▁Filipinler
▁Filistinli
▁Finlandiya
▁algoritmik
▁başlayayım
▁benzeyecek
▁biyolojisi
▁dağılımını
▁dağıtılmış
▁dinleyerek
▁düzeltmeye
▁düştüğünde
▁ekosistemi
▁farklılığı
▁geleceğine
▁gerekenler
▁getirmişti
▁gezegenden
▁gözlerinde
▁hakkımızda
▁ilerlerken
▁kaldırmaya
▁karşılıyor
▁kazanmanın
▁mikrobiyom
▁odaklandık
▁senaryolar
▁süreceğini
▁tanımladık
▁toplumlara
▁tüketimini
▁ulaşmasını
▁yaratmaktı
▁yumurtalık
▁zamanından
▁çekiyorlar
▁İsterseniz
▁şaşırtıyor
▁alacaksınız
▁bitireceğim
▁demokrasiye
▁deneyeceğim
▁deneyimlere
▁doldurulmuş
▁entegrasyon
▁gidebilecek
▁göremeyecek
▁hapishaneye
▁hastalarına
▁hastalığını
▁hedeflerini
▁inceliyoruz
▁kanatlarını
▁karakterize
▁kompozisyon
▁konferansın
▁memelilerin
▁olabilirdim
▁parçasından
▁sonuçlardan
▁varsayımsal
▁yapabildiği
▁çalışacağız
▁çözebiliriz
▁şirketlerde
▁Laboratuvarı
▁değişimlerin
▁değiştirmesi
▁endüstrisini
▁etkilerinden
▁eğlenceliydi
▁kanalizasyon
▁kapasitesine
▁kullanmasını
▁parmaklarını
▁politikasını
▁seviyesinden
▁standartları
▁sınırlarının
▁yaşıyorlardı
▁yerlerindeki
▁yöntemlerini
▁baktıklarında
▁birleştirmeye
▁göstergesidir
▁kullanmıyoruz
▁parçalarından
▁üniversiteler
▁sistemlerinden
▁ölçeklenebilir
▁araştırmacıları
▁geliştiriyorlar
▁kolaylaştırıyor
▁kullanabileceği
▁yapılandırılmış
IA
NC
uj
99'
Bey
Gül
Kap
bas
boş
das
dul
eff
eka
gir
gue
lız
omi
İki
▁73
▁86
▁DM
▁FG
▁RG
▁Ye
▁eb
başa
cast
coin
cığı
ehan
erji
etiğ
gham
ings
itin
mala
mega
oloğ
omik
rich
sala
sion
stır
umin
▁BMW
▁CAR
▁Fal
▁Köl
▁Kış
▁Miz
▁Nam
▁Sez
▁Sit
▁bla
▁dul
▁hum
▁rüt
▁yeş
▁şam
Hayat
aşırı
beden
kimse
kinin
kınız
ümrük
ızdır
şamba
şembe
▁..."
▁Bern
▁Bulg
▁Darw
▁Doaa
▁Gogh
▁List
▁Saha
▁acık
▁arta
▁dist
▁harç
▁kase
▁popü
▁sulu
▁vida
▁üçlü
▁İnti
Buraya
afiyet
bilmiş
dırıcı
sigara
yüzyıl
▁Barry
▁Bağış
▁Buzul
▁Cezay
▁Dubai
▁Eksik
▁Grand
▁Kimya
▁Madde
▁Sibir
▁Stock
▁aitti
▁açığı
▁bloke
▁canım
▁demet
▁emzir
▁gecir
▁girin
▁giyim
▁havay
▁hâkim
▁konan
▁koştu
▁kuşku
▁kırdı
▁kısıl
▁melan
▁milen
▁nöral
▁savur
▁sürüp
▁tefek
▁vekil
▁zatür
▁zıttı
▁öğlen
inizdir
lamakta
liyordu
renalin
ülmüştü
▁Balina
▁Berbat
▁Finans
▁Kendis
▁Keşfet
▁Tayvan
▁adadım
▁astrof
▁açlığı
▁beslem
▁camgöz
▁canımı
▁damarı
▁denizi
▁detaya
▁doğumu
▁fosfor
▁gelsin
▁göçebe
▁hatayı
▁kambur
▁kasten
▁kralın
▁kısmın
▁maaşlı
▁modası
▁orgazm
▁oğlunu
▁resmet
▁saptan
▁satışa
▁sersem
▁seyrek
▁sualtı
▁takıma
▁tarımı
▁toksin
▁uçakla
▁vaftiz
▁yosunu
▁zarara
▁zemine
▁çizimi
▁önerim
▁Şahsen
lacaktır
lamıştır
lanmıyor
leştirir
▁Central
▁Dergisi
▁Kafamın
▁Karınca
▁Kenyalı
▁Kocaman
▁Partner
▁Russell
▁Sağdaki
▁Serbest
▁Sputnik
▁Venedik
▁almakla
▁amacını
▁annemle
▁anımsat
▁arkadan
▁armağan
▁artarak
▁ataları
▁atletik
▁bebeğim
▁bekleye
▁bileşim
▁bozuldu
▁boşanma
▁bulaşan
▁dağları
▁demenin
▁desteğe
▁dokular
▁dokunun
▁dosyası
▁düzenin
▁edebiya
▁elinize
▁etkinin
▁ettirdi
▁evliliğ
▁formülü
▁genomik
▁geribil
▁gözünün
▁hatları
▁inancım
▁kaygılı
▁konteyn
▁kopyası
▁korktum
▁kulenin
▁köpeğin
▁lazımdı
▁markete
▁müteahh
▁nezaket
▁normale
▁olayını
▁olmadım
▁olursun
▁pandemi
▁parasız
▁prenses
▁saklama
▁salonun
▁sefalet
▁seneden
▁sevilen
▁sevmeyi
▁slaytta
▁sırları
▁takıldı
▁tıklama
▁uranyum
▁yanılsa
▁yazarım
▁yıldıza
▁çekmeyi
▁çevresi
▁öyledir
▁öğretil
amıyordum
▁Bildiğim
▁Colorado
▁Kopernik
▁Mantıklı
▁alıkoyan
▁ambulans
▁amigdala
▁arabadan
▁araştıra
▁aslanlar
▁azalması
▁ağaçlara
▁ağrıları
▁başkenti
▁birarada
▁biçimine
▁bulmaktı
▁cisimler
▁davranır
▁devreler
▁dillerde
▁dinamiği
▁diplomat
▁doğasına
▁düşünmez
▁engellem
▁faydalar
▁gelişmek
▁gitmenin
▁görüştüm
▁gözlerle
▁hologram
▁istatist
▁izlediği
▁kademeli
▁kaldıran
▁kaldırır
▁kardeşin
▁konsepti
▁kümeleri
▁marangoz
▁oturarak
▁pasaport
▁paylaşır
▁sallanan
▁sanatını
▁saptamak
▁sağlandı
▁söylerim
▁uyduları
▁vakaları
▁vermekle
▁yansıtır
▁yaşamına
▁zahmetli
▁çevreler
▁çiftliği
▁öğrenmem
▁üzereydi
▁şirketle
layacaklar
laştığımız
▁Endişelen
▁Hastanesi
▁Söylemeye
▁Toplumsal
▁alacağını
▁attığımız
▁baktığını
▁balığının
▁bebeklere
▁beklemeye
▁bisiklete
▁bulutları
▁cömertlik
▁dakikalar
▁damarları
▁delikleri
▁deneyimle
▁dengesini
▁devrimsel
▁dokusunun
▁dönüştüğü
▁elinizden
▁etkilendi
▁filmlerde
▁gerisinde
▁getirildi
▁göçmenlik
▁günlüğüne
▁güvenliğe
▁hesapları
▁hizmetini
▁hücresine
▁istekleri
▁kalmaları
▁kanserine
▁kişilerde
▁korumamız
▁kızkardeş
▁neokortek
▁paylaştık
▁paylaştım
▁sanatları
▁sayısında
▁sebebidir
▁sertifika
▁sizlerden
▁tecrübesi
▁testester
▁tutuyordu
▁uçakların
▁vermiştir
▁yararları
▁yargıları
▁yazılımın
▁zamanıdır
▁çekiyorum
▁çiftlerin
▁çiftçilik
▁çocuğumuz
▁çocuğunuz
▁öğrenciyi
▁ücretleri
ebileceğimi
▁Brezilyalı
▁Ebeveynler
▁Yaptığınız
▁adamlarına
▁anlatmanın
▁arkadaşıma
▁atmosferde
▁belirtiyor
▁beslenmesi
▁bilimadamı
▁dokunmatik
▁edemiyorum
▁edemiyoruz
▁etkilenmiş
▁fedakarlık
▁geldiğiniz
▁harcayarak
▁ilerlemesi
▁kalabilmek
▁katlanarak
▁kaybetmeye
▁kendimizle
▁keşfettiği
▁kitaplarda
▁konuştular
▁kıskançlık
▁makinesini
▁malzemenin
▁mücadeleyi
▁parmakları
▁polislerin
▁problemine
▁seviyedeki
▁sistemidir
▁sisteminiz
▁söylemenin
▁söylemiyor
▁tedavisine
▁unutuyoruz
▁uyumsuzluk
▁vardığımda
▁yapamazsın
▁yaptığının
▁yarattığım
▁yaratıcısı
▁yetiştiril
▁zamanımızı
▁çalışmakla
▁çatışmanın
▁ırkçılığın
▁Avusturalya
▁aktivistler
▁araçlarımız
▁depresyonda
▁desteklenen
▁elementleri
▁gelişigüzel
▁getireceğiz
▁geçirdiğini
▁götüreceğim
▁güzelliğini
▁kalabalığın
▁kayıtlarını
▁keşfettiğim
▁kullanmakta
▁kullanırsak
▁mültecilere
▁müzisyenler
▁odaklanarak
▁odaklanmaya
▁okyanustaki
▁olmamasıydı
▁oyunlarının
▁saldırıları
▁seçeneğimiz
▁simülasyonu
▁siyahilerin
▁sınıftayken
▁talimatları
▁tanımlanmış
▁topluyorlar
▁uygulanması
▁varlığından
▁vücudunuzda
▁yönlendirir
▁yönlendirme
bileceğimizin
ebileceğinizi
▁bileşenlerin
▁durdurabilir
▁geleceğimizi
▁geçirdikleri
▁hangilerinin
▁komplikasyon
▁konuşmasında
▁konuşuyorduk
▁kültürümüzün
▁merkezlerine
▁psikiyatrist
▁verdiğimizde
▁yapmayacağım
▁yaramadığını
▁yaratıkların
▁yetiştirmeye
▁çocuklarımın
▁Anlayacağınız
▁belirtilerini
▁biyoteknoloji
▁etrafınızdaki
▁gezegenimizde
▁hazırlanırken
▁ilgileniyoruz
▁kimyasalların
▁performansını
▁sivrisinekler
▁yetiştirilmiş
▁yüksekliğinde
▁gösterebiliriz
▁hızlandırılmış
▁kullanıcıların
▁sivrisinekleri
▁standartlarını
▁tanımladığımız
▁tasarlanmıştır
▁yakınlarındaki
▁okuyabilirsiniz
▁özelliklerinden
▁şekillendiriyor
14
Is
py
yp
Üz
-30
Yaş
bnb
cen
güç
gır
hem
ins
miz
nis
otu
teç
yık
▁6,
▁Hz
▁Ly
▁MG
▁MW
John
akal
arsa
bage
dura
gren
iens
itia
itri
mart
olun
rupa
tayı
yarı
ümle
şeti
▁11.
▁18'
▁3.5
▁Ank
▁Bow
▁Cla
▁Enf
▁Jan
▁McG
▁Nar
▁Naz
▁Pir
▁Pri
▁Pur
▁Ron
▁TKM
▁Tüy
▁Tır
▁UNI
▁Uni
▁Ves
▁Who
▁Wir
▁Yık
▁gig
▁göb
▁hıç
▁tri
ahtar
alkış
brani
dilar
kiyle
ostal
ticut
tıyla
▁1999
▁2002
▁Belg
▁Cana
▁Chur
▁Diye
▁Etki
▁Jami
▁Mans
▁MoMA
▁Odak
▁Oyna
▁akıp
▁balk
▁daki
▁dibe
▁elim
▁gevr
▁hara
▁hıza
▁kama
▁kron
▁kuzu
▁prim
▁spon
▁vali
▁zarı
▁şema
avirüs
cağıma
elerdi
elilik
elisin
ememiş
irleri
lacağı
ozitif
rikler
▁1,000
▁Aaron
▁Anton
▁Artan
▁Bitir
▁Cohen
▁Colle
▁Dolar
▁Domuz
▁Hakim
▁Hyper
▁Keşif
▁Kilit
▁Kyoto
▁Mezun
▁Moğol
▁Vicky
▁adada
▁akvar
▁espri
▁etsin
▁fuhuş
▁geyik
▁homof
▁kiriş
▁kongr
▁kâşif
▁maske
▁momen
▁nehri
▁psiko
▁rezil
▁ritmi
▁sapma
▁saçlı
▁seçip
▁tanır
▁tayin
▁uğult
▁varan
▁varoş
▁yattı
▁yerim
▁yokol
▁çözdü
▁özünü
▁şaman
▁şayet
elasyon
etlerin
iyanlık
sindeki
tımızda
ırlarsa
▁Bayrak
▁Göçmen
▁Harlem
▁Hikâye
▁Işığın
▁Johnny
▁Justin
▁Kaptan
▁Klinik
▁Kurulu
▁Kısmen
▁Nicole
▁Norden
▁Parker
▁Pratik
▁Stella
▁Trafik
▁aletin
▁altmış
▁analog
▁bakmış
▁barbar
▁bilgin
▁demeli
▁dernek
▁devral
▁duymaz
▁duyura
▁dümdüz
▁dünyam
▁eğitil
▁gördün
▁gündür
▁hazine
▁kaygan
▁kağıda
▁korkak
▁koymuş
▁kripto
▁kısalt
▁kızını
▁leopar
▁merakı
▁meteor
▁mikron
▁numune
▁okuyuc
▁seksen
▁tampon
▁trenin
▁tuttuk
▁uykuda
▁yuzden
▁Çevrim
▁ödenek
▁ölçümü
▁ölümlü
▁ışıklı
▁şuraya
bilmeniz
ecekleri
lanacağı
maktaydı
mektense
metlerin
▁Ailemin
▁Jessica
▁Sibirya
▁Toronto
▁ambalaj
▁arttığı
▁açtılar
▁banknot
▁beyinle
▁bilirim
▁bulmada
▁böceğin
▁bölümün
▁büyüyüp
▁cezbedi
▁coşkulu
▁dengesi
▁dersini
▁destekç
▁dilbilg
▁dinledi
▁dolanan
▁domuzun
▁durduru
▁düğmesi
▁efendim
▁ejderha
▁ekleyin
▁eşleşme
▁farklar
▁gazları
▁göremez
▁görülme
▁güvenen
▁haftaya
▁harcadı
▁hazırım
▁implant
▁imtiyaz
▁işlerle
▁kalıtım
▁kanatlı
▁karşıma
▁kayalar
▁kaybola
▁kesimin
▁kıyamet
▁madalya
▁minimum
▁parmağı
▁satarak
▁selüloz
▁sevecen
▁siyasal
▁soralım
▁tabloda
▁tutulan
▁uymuyor
▁vitamin
▁yemeğin
▁çizmeye
▁İbrahim
▁ısıtıcı
▁şanslar
luğundaki
melerinde
oplankton
ulusmeler
ılacağını
ılmasının
▁Ameliyat
▁Arabalar
▁Büyükann
▁Değiştir
▁Doğrudan
▁Elinizde
▁Endüstri
▁Hastalar
▁Kiribati
▁Kızılder
▁Monterey
▁Sizlerle
▁Tazmanya
▁aklından
▁artışını
▁bağlıyız
▁belirtti
▁birşeydi
▁boyutlar
▁buldunuz
▁canlının
▁dağların
▁desenler
▁destekle
▁dinlenme
▁duymamış
▁erişebil
▁eğilimin
▁eğitimle
▁fikriyle
▁fiyatlar
▁geldiğin
▁gelistir
▁geçmemiz
▁girerler
▁gitmeyen
▁görüşüne
▁hakkımız
▁hapsedil
▁inanarak
▁isterken
▁işlediği
▁kesimden
▁kitabına
▁kuramsal
▁kutusuna
▁kızlarla
▁makalede
▁meseleyi
▁metropol
▁mevcuttu
▁milenyum
▁mimarisi
▁sistemli
▁sorundur
▁sürücüsü
▁tanımaya
▁vereceği
▁volkanik
▁yapılara
▁yaşımdan
▁yöneltti
▁yükselte
▁çarpıyor
▁ölçümler
▁üreterek
▁şükürler
▁Hastalığı
▁Savaşları
▁anlamakla
▁arabalara
▁astronomi
▁bilgisine
▁bisikleti
▁bitkilere
▁bombardım
▁bırakılan
▁cümleleri
▁deneyimli
▁duygusuna
▁dönüşümün
▁düzenledi
▁edilmiyor
▁ekrandaki
▁gelenleri
▁gerçeğine
▁gitmiştim
▁görebilen
▁gözümüzün
▁harikadır
▁ifadesini
▁iyimserim
▁kafanızda
▁kameranın
▁kazanması
▁kertenkel
▁kültürden
▁liderlere
▁marihuana
▁metrekare
▁mikrofonu
▁modellere
▁nörotrans
▁orantısız
▁oynamanın
▁projesini
▁romantizm
▁sağlarlar
▁senesinde
▁sohbetler
▁sonsuzluk
▁tepkisini
▁toplanmış
▁torunları
▁veteriner
▁yakaladım
▁yapısında
▁yarışması
▁yayınlama
▁yazdığını
▁Çocuklara
▁çektiğini
▁şampiyonu
lanmasından
layabilecek
▁arayışında
▁ağırlığını
▁belirttiği
▁binlercesi
▁bulduğunda
▁deneylerde
▁devriminin
▁dinozorlar
▁durumdaydı
▁fabrikalar
▁geldiğince
▁getirirler
▁giriyorlar
▁göstermeyi
▁hazırlayan
▁hedeflerin
▁hücrelerle
▁imkansızdı
▁işleyişini
▁kaynağının
▁kesintisiz
▁konuşursak
▁mağdurları
▁muhteşemdi
▁ortalaması
▁oyunlarını
[...]
